#version: 0.2
ä ¸
ç ļ
çļ Ħ
ä º
ã Ģ
å ħ
å ı
ï ¼
Ġ Ġ
æ ľ
ä »
å Ī
ï¼ Į
å ®
ç »
è ¿
ç Ķ
ä ½
å Ĭ
å ¤
å Ĳ
å ľ
å Ľ
æ ĸ
ãĢ ģ
æ ĺ
è ®
ä ¹
å Ń
ãĢ Ĥ
i n
ĠĠ ĠĠ
è ¯
æ Ī
Ġ a
ä ¼
Ġ t
æ ķ
å Ĵ
å º
åĴ Į
æĺ ¯
r e
ä¸ Ģ
ä¸ Ń
å Į
æ Ģ
æ Ŀ
å ¹
åľ ¨
å ¯
é ĩ
å ¼
è ¡
æ Ĺ
åĽ ½
o n
h e
å į
å Ĩ
äº º
æ Ķ
t i
æľ ī
è §
åŃ ¦
ä¸ º
æ ³
- -
ç Ľ
å °
è Ģ
é Ģ
å ±
æ ī
è ´
è ĥ
ç §
ç İ
æ Ĭ
å ĩ
æ ł
åı ĳ
å ¾
ä¸ į
e n
æ °
ç Ĳ
å ·
å ¸
ä» ¥
çĶ Ł
è ¦
è¦ ģ
æ³ ķ
e r
ä ¿
ç ī
å ½
Ġ o
æ ŀ
çĶ ¨
é Ļ
çĲ Ĩ
é Ŀ
å Ł
å¯ ¹
ä¸ ļ
å¤ §
äº Ĩ
æ µ
æ İ
èĥ ½
Ġ s
è¡ Į
åĮ ĸ
Ġ c
e d
Ġt he
a l
â Ģ
è µ
ç Ń
æĢ §
æ Ń
ä¼ ļ
ĠĠĠĠ ĠĠĠĠ
å® ŀ
é Ĺ
å ¿
é ¢
a t
Ġ in
æĪ Ĳ
Ġ p
ä½ ľ
ç º
ä½ ĵ
æĸ ¹
äº İ
e s
ä¸ İ
è ĩ
æ Į
å® ļ
o r
Ġa n
ä¸ »
ç ¨
ä¸ ª
è¿ Ľ
åĪ Ĩ
åĪ ¶
åı ¯
å İ
Ġo f
Ġ w
çİ °
æĹ ¶
åĬ ¨
äº §
å± ķ
i s
ç» ı
a n
ä ¾
ç ¤
ä¸ Ĭ
åĩ º
åľ °
æ ı
æ ²
è ¾
é ĥ
åĲ Ī
åĬ Ľ
ti on
ç ³
è¿ Ļ
ç ®
i t
å ĳ
ç «
r o
Ġ m
æķ Ļ
åĲ Į
æľ ¬
å¹ ´
-- --
æĸ °
æ° ĳ
è Ĥ
å »
ç³ »
åº Ķ
åħ ³
å· ¥
çŃ ī
Ġ d
åħ ¨
Ġan d
é «
éĩ į
é« ĺ
Ġ f
æĶ ¿
è¿ ĩ
i c
a s
åº ¦
æ į
a r
åħ ¶
ç ½
ç¨ ĭ
Ġ b
åıĳ å±ķ
æĿ ¥
å» º
æķ °
èĢ Į
æ ±
æı Ĳ
in g
åĪ °
åŁ º
å ĵ
æĸ ĩ
æ Ħ
éĿ ¢
ç ł
è® ¾
èĩ ª
èĢ ħ
ç¤ ¾
æ ĭ
æ ĥ
æľ º
ä¹ ĭ
ç ©
è ½
ç ¡
èµ Ħ
å® ¶
é ĺ
l e
çī ©
å ¢
ä» £
Ġ (
en t
¦ Ĥ
å¤ ļ
åĬ ¡
ç ¬
å ī
éĩ ı
éĢ ļ
ç§ į
ç¤¾ ä¼ļ
æ ´
æ ¯
ç» Ł
è °
Ġ re
ä¹ ī
å Ģ
åĨ ħ
è§ Ħ
æī Ģ
åħ ¬
çĽ ¸
åı Ĭ
è ģ
è ·
æĿ ĥ
éĥ ¨
ä¿ Ŀ
åĬ ł
ä¸Ń åĽ½
å¼ ı
æĪ ĳ
e l
é ¡
æĬ Ģ
ä¸ ĭ
æ Ľ
åĪ ©
æį ®
åĽ ł
ç Ł
ç® ¡
å ¥
äº ĭ
æľ ¯
ä¿ ¡
é ģ
å¼ Ģ
ç Ĥ
çł Ķ
å ¦Ĥ
ä¹ Ł
ç» ĵ
ç ķ
åĲ İ
âĢ ľ
âĢ Ŀ
æĪ ĸ
Ġt o
ç¬ ¬
è® ¡
ä» İ
é ļ
Ġ e
u s
a tion
å Ŀ
é¢ ĺ
æµ İ
æ² »
e c
çī ¹
ä½ ¿
å° ±
2 0
å½ ĵ
éĹ ´
å¹ ³
æĺ İ
è§ £
æŀ Ħ
ç»ı æµİ
ä» ¬
å¹ ¶
æ ¬
æł ĩ
è´ ¨
é ķ
ç© ¶
èĤ ²
å ģ
é ľ
è ¶
è® º
ç ´
ç« ĭ
æ ģ
ç§ ĳ
æľ Ł
åı ĺ
å¼ º
è ī
è¡ ¨
a c
æ ¸
çĽ ®
æ º
çĤ ¹
å¾ Ĺ
ç ľ
åħ ¥
å½ ¢
æ Ļ
åħ ±
ç ±
çĶ ±
çłĶ ç©¶
åī į
å¸ Ĥ
u l
åĮ º
å¯ ¼
éĹ ®
ĠĠĠĠĠĠĠĠ ĠĠĠĠĠĠĠĠ
æĦ ı
çĶ µ
å¿ ĥ
ç ¾
æ Ł
æķ Ī
åħ ļ
å ŀ
o m
æ± Ĥ
å° Ĩ
åħ ·
å¤ ĸ
æĽ ´
ç» Ħ
ä¸ ī
ç Ħ
æ ¶
æĬĢ æľ¯
æŃ ¤
æľ Ģ
ä» ¶
i g
---- ----
æĶ ¹
éľ Ģ
åĲ ĳ
ä» ĸ
æº Ĳ
è¯ Ĩ
åŃ Ĳ
é Ľ
Ġ n
Ġt h
éķ ¿
o l
æĢ Ŀ
æĮ ģ
åĪ Ľ
åĲ Ħ
ç Ŀ
e t
åı¯ ä»¥
ç½ ĳ
åİ Ł
æ´ »
æķĻ èĤ²
Ġ h
o s
æ° ´
è¿Ľ è¡Į
åĽ½ å®¶
ä¼ ģ
æĮ ĩ
ä½ į
åĵ ģ
ç± »
åŀ ĭ
éĹ® é¢ĺ
ç ¼
ç¡ ®
i d
é ª
çĦ ¶
ä¸Ģ ä¸ª
Ġ T
æĿ ¡
u r
è® ¤
ç ĸ
äº Į
æ ¨
ä» ·
æŃ £
è° ĥ
åľ º
æŀ ľ
å¢ ŀ
ä¼ģ ä¸ļ
ä¼ ł
i m
v e
= =
æ ·
æ ¡
æĥ ħ
åĨ ³
ç Ĺ
Ġ l
éĩ ĳ
é £
æ¨ ¡
ç®¡ çĲĨ
æģ ¯
ä¸» ä¹ī
æİ ¨
çŁ ¥
æĹ ł
ãĢ Ĭ
æµ ģ
ãĢ ĭ
ç ²
u n
l y
äº Ľ
ä¹ ł
åĳ ĺ
ä» »
æĢ ģ
åŃ¦ çĶŁ
0 0
éĢ ł
åĪ Ļ
ä½ Ĩ
å® ī
è§ Ĥ
å §
Ġ 1
åŃ ĺ
è Ĳ
æİ ¥
å¤ Ħ
åĨ ľ
çİ ¯
é ħ
è¯ ģ
it h
ä¾ Ľ
èµ ·
é¢ Ĩ
éĢļ è¿ĩ
å¸ ¸
è¿ Ĳ
è ¢
å° ı
ç³» ç»Ł
åĩ Ĩ
è Ĭ
éĿ ©
é Ķ
æľ į
è½ ¬
Ġw ith
ï¼ ī
äºº æ°ĳ
æ ®
e re
äº ¤
éĥ ½
æķ° æį®
å»º è®¾
æĹ ¥
æ¯ Ķ
åį ģ
Ġ g
ä¿¡ æģ¯
å·¥ ä½ľ
ï¼ Ī
å¾ ĭ
çĿ Ģ
éĻ ħ
æĪ ĺ
æĸ ½
o t
è¢ «
èģ Ķ
å¢ ĥ
c e
ç ¥
ç Ļ
åı ²
re s
ç´ ł
éĩį è¦ģ
å ķ
t er
å Ļ
åı ĸ
éĻ ¢
Ġ C
åĢ ¼
éª Į
Ġs t
é ĵ
å¥ ½
ä¸ ĸ
çİ ĩ
i l
Ġf or
é¡ ¹
ä¸ ĵ
åį ķ
è¿ ĺ
è¯ ´
åķ Ĩ
åı Ĺ
éģ ĵ
åı į
å¿ ħ
åŁ Ł
çķ Į
a m
çº §
æĶ ¶
Ġp ro
ç¾ İ
u t
è Į
åĻ ¨
Ġ A
a ti
éĽ Ĩ
æĢ »
æ¬ ¡
æµ ĭ
å® Į
è¯ ¾
è į
æŃ ¥
u m
æĥ ³
æľį åĬ¡
è· ¯
ç Ĭ
åı ¸
æĬ ¤
ï¼ ļ
æ¡ Ī
ä¸ ¤
åİ Ĩ
a g
æĸ Ń
æĶ ¾
Ġa s
å® ¹
æĪĳ ä»¬
åĮ ħ
å®ŀ çİ°
èī ²
o w
å¤ į
è ĭ
çŃ ĸ
çĽ Ĭ
è ŀ
æķ ´
æł ·
Ġc on
æĶ ¯
i f
Ġ is
æĸ¹ éĿ¢
o c
å½ ±
æł ¹
çĹ ħ
åŁº ç¡
Ġ v
åŁºç¡ Ģ
ä¸» è¦ģ
è¾ ¾
Ġ I
o d
è¾ ĥ
Ġ S
è Ħ
ç® Ĺ
åĵ į
èĥ½ åĬĽ
æ· ±
èĮ ĥ
èŀ į
å¼ ķ
è® ®
å¸ Ī
æİ §
è¿ĩ ç¨ĭ
éľĢ è¦ģ
çº ¿
u c
æĸĩ åĮĸ
at ed
åħ Ī
å· ²
è Ī
åĽ ¾
åĪ¶ åº¦
æł ¼
åĪ «
ä¹ ¦
è £
ç ¦
å¸Ĥ åľº
ä¼ ĺ
å± Ĥ
èĢ ĥ
1 9
æķĻ åŃ¦
é ©
éĿ ŀ
é£ İ
el l
å® ĥ
ç» ĩ
èĬ Ĥ
èģ Į
ä¾ ĭ
Ġe x
è¯ ¥
å ĸ
s t
a b
æĪĳ åĽ½
åº ľ
éĻ ©
ä¾ Ŀ
ti c
ç¤ º
æĸ¹ æ³ķ
åħ »
åħ ĥ
å £
çĽ ĳ
åħ· æľī
è¿ ĳ
åį ı
ï¼ Ľ
æĦ Ł
ä½ İ
çİ¯ å¢ĥ
è¯ Ń
è¯ Ħ
ç² ¾
æł ¡
è ±
ç»Ħ ç»ĩ
å½± åĵį
[ @
ä¸Ń çļĦ
å®ī åħ¨
s i
ä¸į åĲĮ
t s
åŁ İ
æŀ Ĳ
åĬ Ł
çĲĨ è®º
åŃ¦ ä¹ł
è Ļ
æĶ¿ åºľ
åħ³ ç³»
æĺ ĵ
åĽ Ľ
æŀ ģ
è´ £
å¤ ĩ
åĳ ½
ç§ĳ åŃ¦
æıĲ ä¾Ľ
æľ Ī
æł ¸
r a
ä½¿ çĶ¨
æ £
çĶŁ äº§
ç» ´
e m
it y
è§Ħ å®ļ
é Ĵ
ä½ĵ ç³»
æ® µ
æ³ ¨
è º
éĹ ¨
) .
Ġ \
åŃ Ĺ
Ġth at
åĪĽ æĸ°
åı Ĥ
åŁº æľ¬
Ġb e
å® ¡
æĺ ¾
æĬ Ĭ
äº Ĵ
æľ ª
u d
è¦ģ æ±Ĥ
èĩ ³
Ġ P
o p
ç ĥ
åºĶ çĶ¨
åį ³
èº «
æ³ķ å¾ĭ
æ° Ķ
æĶ¹ éĿ©
åİĨ åı²
æĬ ķ
r i
é ¦
å° ĳ
è± ¡
ç» ľ
æī į
äº ī
çº ¦
è® °
ç ģ
Ĥ £
èĩ ´
ç» Ĩ
Ġ M
å¿ µ
èĲ ¥
åĨ µ
åĪ Ĵ
v er
çĽ ´
éĢ ī
åĪĨ æŀĲ
åı £
è§ Ĩ
ç¥ ŀ
å¤ ©
ä½ľ ä¸º
ä½ľ çĶ¨
ç» Ń
åŁ ¹
Ġw as
i r
åº ı
ä½ ķ
åĿ ļ
æĸ¹ å¼ı
çŁ¥ è¯Ĩ
æıĲ é«ĺ
æĸ Ļ
å± Ģ
ç½ĳ ç»ľ
æŁ ¥
è ¥
éħ į
åħ¬ åı¸
ä¸ ľ
ä»¥ åıĬ
éĢ Ĥ
èµĦ æºĲ
Ġ on
è´ ¹
éĻ Ĳ
è¡Į ä¸º
æĬ ¥
è· µ
éĩ ĩ
ç»ĵ æŀĦ
è´ ¢
æĹ ı
åį ĩ
åĬ ¿
è¥ ¿
åı¯ èĥ½
åı ª
ç§ ¯
Ġa l
å¹ ¿
o g
Ġw ere
æ »
çľ ĭ
åĸ Ħ
at e
1 0
m ent
è¯ ķ
Ġa c
å¾ Ī
æ² ¡
ĠT he
è ¨
éĢ Ł
s e
åĮ »
ä¸Ģ ç§į
å®ŀ è·µ
ç½ ®
å½¢ æĪĲ
æ¶ Ī
è¨ Ģ
æĭ ¬
æłĩ åĩĨ
ħ §
Ġb y
u p
æī ĭ
åĨ Ľ
çķ ¥
-------- --------
å¸ ¦
é¢ Ħ
e p
y p
ä¸ĸ çķĮ
ç© º
çĽ¸ åħ³
å¸ ĥ
çĬ ¶
) ,
çİ° ä»£
Ġ H
è§ ģ
æµ ·
ç» Ļ
t ed
he r
== ==
åģ ļ
äº§ ä¸ļ
åĬ ©
åĲ į
æĶ¿ æ²»
åĲĮ æĹ¶
ç ª
æĢĿ æĥ³
äº Ķ
åĨħ å®¹
éĺ ¶
æ²¡ æľī
Ġ *
è®¾ è®¡
åŃĺ åľ¨
ä¸ Ķ
æĿ ĳ
è İ
çĸ Ĺ
æĻ º
æ´» åĬ¨
éļ ¾
åĽ½ éĻħ
é¡ »
æ£ Ģ
éĻ ¤
åħ ĭ
éĺ ²
a y
Ġ 2
ĠĠĠĠĠĠĠĠĠĠĠĠĠĠĠĠ ĠĠĠĠĠĠĠĠĠĠĠĠĠĠĠĠ
q u
æıĲ åĩº
ä» ħ
åĮħ æĭ¬
Ġo r
ä¿Ŀ æĬ¤
ç¤¾ä¼ļ ä¸»ä¹ī
ç ¢
æī ¿
è¿Ļ äºĽ
çĽ® æłĩ
åį İ
æ¸ ħ
å°± æĺ¯
u re
åı °
t h
æī §
çĲ ĥ
ro m
åħ¶ ä»ĸ
è¿ °
ç¾ ¤
æĪĲ ä¸º
åĪ Ĺ
å¾ ģ
åĳ Ĭ
ä»· åĢ¼
ï¼ Ĥ
ic al
æĥħ åĨµ
äº§ åĵģ
å¾ ·
åĽł æŃ¤
åħ ī
Ġc ell
Ġc om
å¤ ±
å»º ç«ĭ
æĪĸ èĢħ
å§ ĭ
è¯ ī
æĶ¿ çŃĸ
ä¼ Ĺ
çľ Ł
Ġre s
åĽ ´
è¶ Ĭ
ĠĠ Ġ
åħ ħ
âĢ Ķ
åĬ ³
å¿ «
å± ŀ
éļ ı
éļ ľ
å¤Ħ çĲĨ
åľ Ł
éĥ¨ åĪĨ
å¿ħ é¡»
ä¸ ¥
ç ĭ
äºº çļĦ
r an
æĿ Ĳ
Ġa re
ä¿ ĥ
ent s
éĻ į
Ċ Ġ
ä¹ĭ éĹ´
ç§ °
æł¹ æį®
åıĳ çĶŁ
d i
æİ§ åĪ¶
åĮ Ĺ
è¶ ³
åĪ ¤
åĿ ĩ
åĽ ŀ
è´¨ éĩı
é© ¬
å¯¹ äºİ
æ¯ ı
åı Ī
è¡ Ģ
åĪ© çĶ¨
å· ®
åĨ į
åİ »
åħ¨ éĿ¢
åĩ ı
Ġ R
è¿Ļ ç§į
åį Ĺ
a in
v el
çĶŁ æ´»
ä¹ Ī
å¼ Ĥ
è§£ åĨ³
ç ħ§
an t
è® ©
å¤ Ł
æľº åĪ¶
Ġ D
èİ ·
é¢Ĩ åŁŁ
as e
æĹ¶ éĹ´
ç¦ »
f f
æ°´ å¹³
æĹ¶ ä»£
a d
Ġ im
è¡Į æĶ¿
å§ Ķ
å¹ ²
æ Ĵ
åĽ ¢
ç« ł
20 1
Ġ 0
å Ķ
å®ŀ æĸ½
Ġ B
æ°ĳ æĹı
ä¸į æĸŃ
éĩ Į
Ġd is
æľī æķĪ
æ¬ ¾
èĥ ŀ
ç» Ī
è´ Ł
ä¼ł ç»Ł
in e
åħ ´
Ġ F
äº§ çĶŁ
æĪ ·
ç¨ İ
Ġ us
æľº æŀĦ
æİ ¢
ag e
ä¸ ĩ
æ¨¡ å¼ı
è®¡ ç®Ĺ
è ĳ
é£İ éĻ©
è®¤ ä¸º
åĬ ŀ
éĩĳ èŀį
å·¥ ç¨ĭ
æİ Ĵ
" ,
å® ³
Ġ 3
åĪ ĩ
èį ¯
åĬŁ èĥ½
æķĻ å¸Ī
Ġa t
é¦ ĸ
çª ģ
å· ±
Ġex p
å¯ Ĩ
Ġ N
* *
åı ·
åħļ çļĦ
æİ¨ è¿Ľ
åĬ³ åĬ¨
æĿ¡ ä»¶
äºº åĳĺ
ä¸ĵ ä¸ļ
è¯ ·
åİ ĭ
ç»Ĩ èĥŀ
åıĳå±ķ çļĦ
Ġc h
åıĺ åĮĸ
o re
è¿Ļ ä¸Ģ
å¾ Ģ
ç¬¬ ä¸Ģ
çĶŁ æĢģ
Ġin c
å®ļ çļĦ
é¡¹ çĽ®
å®ŀ éĻħ
es s
åħ± åĲĮ
æ ¿
si on
ç¨ ³
æĮ ī
è´£ ä»»
æĢ§ çļĦ
çĶ± äºİ
æ ¦Ĥ
è¶ ħ
Ġ E
åģ ¥
è® ¸
æĬķ èµĦ
æİ¨ åĬ¨
çĻ ¾
ä¿ ®
æ ¼
å ²
å¯ Į
èī º
æŁ Ĳ
åĲ ¦
p h
Ġst ud
u b
èĤ ¡
ç»ĵ åĲĪ
æķ° åŃĹ
ç²¾ ç¥ŀ
èĩª å·±
æ¿ Ģ
ç§ »
åĬł å¼º
å¦Ĥ æŀľ
åĪ Ŀ
ĠĠĠĠĠĠĠĠ ĠĠĠĠ
Ġf rom
ä¸į èĥ½
è¯¾ ç¨ĭ
å¤ ®
åĨľ ä¸ļ
ä¿ĥ è¿Ľ
åĳ ¨
çĭ ¬
Ġ r
Ġw h
t e
æĭ ħ
åºĶ å½ĵ
20 0
åľ° åĮº
çº ª
er s
åŁ¹ åħ»
é Ł
çļĦ åıĳå±ķ
æĻ ¯
1 2
éĵ ¾
åĿļ æĮģ
ig n
æį Ł
è¾ ĵ
ç» ¼
ä¸Ĭ çļĦ
u g
Ġcom p
éĥ¨ éĹ¨
å Ħ
ç¾İ åĽ½
un d
æĪĺ çķ¥
èĥ½ å¤Ł
Ġd e
åĢ º
y s
ç¼ º
Ġp ati
æ ¢
éľĢ æ±Ĥ
ä»ĸ ä»¬
å Ĥ
ç½ ª
æĬ Ĺ
æĻ ®
åħ¨ çĲĥ
åĩº çİ°
ĠI n
å¤§ çļĦ
ä¸ ´
åº ·
éĺ Ł
Ġn e
èĢ ģ
èĲ ½
å ĥ
i es
é »
å¿ Ĺ
è½ ¦
ä¸Ń å¿ĥ
or m
åĩ ł
éĺ¶ æ®µ
ig h
åŁİ å¸Ĥ
å¯ Ł
å¼ ł
åİŁ åĪĻ
ç¼ ĸ
å¢ŀ åĬł
é Ĥ£
èĩª çĦ¶
è£ ħ
Ġ le
å± ±
d uc
yp e
c h
Ġa d
æł¸ å¿ĥ
ä¸Ń å¤®
en d
N A
Ġ he
å¤§ åŃ¦
æīĢ æľī
é¢Ĩ å¯¼
ä¸Ģ æŃ¥
æĸ° çļĦ
ç¬¬ äºĮ
å·¥ ä¸ļ
ç Ī
è§ Ĵ
æ³ķ éĻ¢
çł ´
æĸ ¯
ç Į
è ħ
ä¸Ģ äºĽ
éĶ ®
åı ¤
ç® Ģ
ç»ĵ æŀľ
ç§ĳ æĬĢ
p or
ä¹ ¡
æŁ ĵ
åĲĪ ä½ľ
æ ĵ
åĲĪ åĲĮ
è´ §
æī ĵ
åıĳ çİ°
çī¹ èī²
æĭ ©
çľ ģ
ä¿Ŀ éļľ
p l
çĥ Ń
i z
o us
. "
å¾ ®
es t
å·² ç»ı
Ġp re
i b
æĮ ¥
å® ¢
çĶŁ çī©
è¿Ļ ä¸ª
å¼Ģ åıĳ
if ic
å½¢ å¼ı
ä» Ĭ
ç´ ¢
åĮĸ çļĦ
æ²» çĲĨ
å®Į åĸĦ
åı ¦
æī§ è¡Į
è¿ ľ
æī ©
æī ¹
Ġcon t
æĦı ä¹ī
åħ· ä½ĵ
æĶ¯ æĮģ
p ec
æ» ¡
ç»¼ åĲĪ
åħ į
çļĦ éĩįè¦ģ
æĺİ ç¡®
è¿ ŀ
ç¨ĭ åºı
æıĲ åįĩ
èµĦ æľ¬
çļĦ æĺ¯
åı Į
ä» ĭ
ä¸ª äºº
è½ ½
ä¸į æĺ¯
Ġ G
åĲ «
ç§¯ æŀģ
è¾ ¹
éĢī æĭ©
å®ŀ éªĮ
åĪ© çĽĬ
is t
éĩ Ĭ
Ġcell s
äºº ç±»
çĻ ½
è¯ »
æĻº èĥ½
çº ³
ä¸» ä½ĵ
è® Ń
Ġg en
Ġ L
æĪĲ æľ¬
1 1
ä»£ è¡¨
Ġ 4
Ġc an
re f
Ġin f
èĭ ±
æį ¢
ti v
Ġs e
æ Ĥ£
èĪ ¬
åĽł ç´ł
åįķ ä½į
Ġs h
ation s
è¿Ľ ä¸ĢæŃ¥
å¢ŀ éķ¿
ti ve
æľī åħ³
è¡ ¥
æŃ ¢
åĥ ı
ä¸Ń åįİ
C R
. .
åį ł
ãĢ Ģ
ä¸ ¾
çĽ´ æİ¥
å¼Ģ æĶ¾
è¿ĩç¨ĭ ä¸Ń
èĮĥ åĽ´
en ce
åħ³ éĶ®
ab le
åħ¨ åĽ½
ä¾ ¿
åŃ¦ æł¡
ä¸Ģ èĪ¬
å¯¼ èĩ´
åĦ ¿
åıĤ ä¸İ
å¦Ĥ ä½ķ
èģĮ ä¸ļ
æĿ Ĥ
ç« ¯
Ġp er
å ł
ç» §
åĽ º
åĨ Ļ
åħ³ äºİ
å¼Ģ å±ķ
è¯ Ŀ
Ġ 5
p t
å¤ ´
ä¹Ł æĺ¯
æı ¡
ç»Ł ä¸Ģ
æĿĲ æĸĻ
ar y
ç« ŀ
i on
æķ ħ
è´ ¸
äº Ī
ç¬¬ ä¸ī
çĬ ¯
é£ Ł
éĴ Ī
] (
ac k
éĢ Ĳ
è¯Ħ ä»·
æĮģ ç»Ń
æ ¤
åħħ åĪĨ
Ġas s
æ ĳ
çĿ £
i p
ä» Ģ
çĽ® åīį
at h
i a
åħ ¸
æ¶Ī è´¹
åį ±
ç»ı èĲ¥
t her
èī ¯
i al
äºº æīį
Ġ W
åĪ ĳ
åĲĦ ç§į
èĳ Ĺ
æİ ª
å® ĺ
æŀ Ĺ
Ġpati ents
or s
æĹ ¢
éĶ Ģ
ac t
ä»İ èĢĮ
çī Ī
å¾Ĺ åĪ°
éĿ© åĳ½
åĽł ä¸º
éĵ ¶
å ¡
åıĳ æĮ¥
å¸ ģ
ä¼ °
åħ¬ åħ±
å ĭ
ç©º éĹ´
åĤ ¨
ä» ĺ
Ġn ot
èµ °
\ ]
é©¬ åħĭ
åĮº åŁŁ
å° Ķ
æĵ į
é¢ Ŀ
å± ħ
è®¤ è¯Ĩ
g e
äº «
èģĶ ç½ĳ
çī¹ å¾ģ
âĢĿ ï¼Į
ic h
ç¨ĭ åº¦
a re
èµĦ äº§
) {
è® ¼
é©¬åħĭ æĢĿ
éĩį å¤§
Ġin t
ä»Ģ ä¹Ī
åģ ¿
åĨ³ å®ļ
en ti
ä¸į ä»ħ
åħ Ń
åľ° æĸ¹
æ¸ ©
Ġh a
è®¾ å¤ĩ
è§Ħ èĮĥ
èİ· å¾Ĺ
å½ ķ
è® ²
å° Ħ
è¯ī è®¼
ff ec
çİ ĭ
æ¸ ¸
åħ¶ ä¸Ń
v i
åŁº äºİ
ĠĠĠĠĠĠĠĠĠĠĠĠ ĠĠĠ
ä½Ĩ æĺ¯
ç¢ ³
Ġs y
ol og
æ ¹
éĩĩ çĶ¨
é Ĥ
åį «
æĸ Ĺ
æĦı è¯Ĩ
åħ «
le c
è¡¨ çİ°
ä»» åĬ¡
éĩį çĤ¹
å¼Ģ å§ĭ
å¹³ åı°
çĶµ åŃĲ
æĿĥ åĪ©
ä» į
åĲ ¸
èĥ½ æºĲ
t ype
Ġs ign
æ± Ł
å£ °
æ ½
æ¨¡ åŀĭ
a p
åĪĽ éĢł
å° ½
if f
or y
ç¡® å®ļ
æİ Ī
æ¶ ī
Ġw e
æ³ ¢
Ġth is
è¿Ļ æł·
ere n
éļı çĿĢ
æĹ¶ æľŁ
æĿ¥ çļĦ
çī ĩ
çŁ ³
å£ «
ul ar
çĲĨ è§£
å¾ Ħ
1 5
res sion
ä¸¤ ä¸ª
æĮĩ å¯¼
Ġ\ [
äº ļ
æ Ĥ
ä¹ Ĳ
éŁ ³
è¡ ¡
ç¬ ¦
ran s
ä¾ µ
æ¤ į
ç«ŀ äºī
as t
æ²» çĸĹ
è¡Į ä¸ļ
Ġc o
è§Ħ åĪĴ
åĨľ æĿĳ
è¿ Ŀ
ä¸º äºĨ
Ġd i
è¾¾ åĪ°
çĸ «
3 0
Ġc l
æĸĩ æĺİ
æľº åħ³
è®¡ åĪĴ
an ce
åĿ Ĺ
1 8
æ ļ
æĺ¯ åĲ¦
æĪ ¿
åĽ °
æ¦Ĥ å¿µ
äº ¬
Ġ [
Ġa p
éģ Ĺ
åħ± äº§
å ¨
= "
çŃ ĳ
çļĦ ä¸Ģ
çĶ¨ äºİ
æ³ķ æ²»
æ°ĳ ä¸»
èģ ļ
åĪ¶ éĢł
æŀĦ å»º
v ed
Ġd iff
è® ¨
] \]
åĢ Ł
ç»ı éªĮ
å¤ ª
ä¹ĭéĹ´ çļĦ
]( #
çĶ ³
" }
æŀ ¶
il l
Ġ O
è£ ģ
çī¹ åĪ«
çĹ ĩ
ä¸ŃåĽ½ çī¹èī²
çī¹ çĤ¹
åº ĵ
ç¨³ å®ļ
åģ¥ åº·
æ¯Ķ è¾ĥ
ä½ĵ çİ°
çİ°ä»£ åĮĸ
é ¼
æ¼ Ķ
os t
ä¸ĸ çºª
æĤ£ èĢħ
ä» ½
åº ķ
Ċ ĠĠĠĠĠĠĠĠĠĠĠĠĠĠĠ
Ġha ve
èīº æľ¯
çĽĳ çĿ£
è¿ ½
åĩ »
çĮ ®
æĵį ä½ľ
çĽ® çļĦ
v id
ç» ¿
tion s
2 1
æĹ ©
ç« Ļ
Ġwh ich
è½ ¯
è Ĩ
è´ «
æİª æĸ½
çĶ »
è¿ĳ å¹³
éĢł æĪĲ
å®Į æĪĲ
æīĢ ä»¥
é ¥
ä¹ł è¿ĳå¹³
è§Ħ æ¨¡
æĢ§ åĴĮ
å® ¤
çº ¢
äºº ä»¬
æĸ¹ æ¡Ī
ä½ ı
d ing
åŃ¦ ç§ĳ
è¯Ń è¨Ģ
è ı
ä¾ĭ å¦Ĥ
åıĸ å¾Ĺ
æ± ¡
æľ Ľ
ä½ĵ åĪ¶
Ġstud y
çļĦ åŁºæľ¬
æ² ³
æ ħ
äº¤ æĺĵ
Ġa b
åĲĪ çĲĨ
è¿Ĳ åĬ¨
p on
ä¿Ŀ éĻ©
æĺ¯ æĮĩ
åº Ń
æľī çļĦ
è§ ī
Ġ it
as ed
èĩª çĶ±
al ly
Ġ\[ [@
å ¦
è´¸ æĺĵ
åĢ Ļ
æ³ Ľ
å½ Ĵ
è¿Ļ æĺ¯
å¢ŀ å¼º
==== ====
Ġp ar
çķ Ļ
æ Ĳ
â ĳ
æĶ¶ åħ¥
Â ·
æĸ¹ åĲĳ
èĥ Į
æĪĲ æŀľ
åĪ »
éĿ ł
éķ ĩ
å¼º è°ĥ
éĻį ä½İ
ä¸ļ åĬ¡
Ġ =
Ġ k
èĻ ĳ
æĽ´ åĬł
ä» ¤
p ro
ati ve
é¢ ĳ
åĽ½ åĨħ
è´ Ń
res s
u e
æ¯ Ĵ
èĢĮ ä¸Ķ
éĿ Ĵ
p le
çļĦ åŁºç¡Ģ
ç Ĩ
æł¹ æľ¬
åıĬ åħ¶
éķ¿ æľŁ
Ġm od
" .
Ġ 6
Ġm et
5 0
åĪ¶ å®ļ
æĬ¥ åĳĬ
ä¼ Ł
éĵ¶ è¡Į
æ´ ¾
çļĦ éĹ®é¢ĺ
çŁ Ń
re at
è¿Ľ åħ¥
èĻ ½
ç ı
ä¼ĺ åĬ¿
1 4
é ¾
æĮī çħ§
en c
çĬ¶ æĢģ
ç¾¤ ä¼Ĺ
ç´ §
Ġg ro
æĭ Ł
Ġre g
ä¿Ŀ è¯ģ
ar i
çī© è´¨
çļĦ çłĶç©¶
ä¸Ģ å®ļ
åĮ» çĸĹ
åľ° ä½į
å· ŀ
åĨ ²
è¶ ĭ
Ġ U
åŁº åĽł
, "
Ġan al
ro l
åī Ĥ
ç £
Ġt rans
è¯Ħ ä¼°
1 3
æİ Į
æŃ »
æĮĩ åĩº
ä¹ Ŀ
ä»» ä½ķ
åĬ ±
ä»¥ æĿ¥
å¾ ª
at a
Ġb et
ä¸¥ éĩį
w e
å¥½ çļĦ
v al
âĢĶ âĢĶ
åĩı å°ĳ
è¿Ĳ çĶ¨
è¯ į
Ġm e
å¤į æĿĤ
äº ¿
l ow
åŃ¦çĶŁ çļĦ
åĬĽ éĩı
å¾ ħ
ä»¥ ä¸ĭ
ä¹ĭ ä¸Ģ
Ġan ti
é©¬åħĭæĢĿ ä¸»ä¹ī
äº ĳ
ack age
Ġdiff eren
å® £
un c
---------------- ----------------
äººæ°ĳ æ³ķéĻ¢
åİŁ åĽł
æķĪ çİĩ
åĽ Ń
åºĶ è¯¥
è¿Ĳ è¡Į
åı¸ æ³ķ
m in
éĺ ³
å» ¶
âĢĿ ãĢĤ
çĶ ļ
æĭ ī
Ġe ffec
å»º çŃĳ
å§Ķ åĳĺ
ç ĺ
ä¸ŃåĽ½çī¹èī² ç¤¾ä¼ļä¸»ä¹ī
æİ¢ ç´¢
è¾ ĳ
æĶ¹ åıĺ
an d
us ep
usep ackage
æī ĺ
èĢĥ èĻĳ
å¿ĥ çĲĨ
è®¾ æĸ½
è°ĥ æķ´
æ± ī
çļĦ äºº
Ġsh ow
ä¸ °
ä¼ ¼
Ġin ter
æ¬ §
i le
c l
å ª
1 7
ç± ³
çĽ¸ äºĴ
èĦ ĳ
åł Ĥ
al l
éĶ Ļ
2 2
éģ ¿
1 6
m un
çļĦ å½±åĵį
ä»· æł¼
éĥ½ æĺ¯
çĬ¯ ç½ª
çĽ¸ å¯¹
00 0
Ġp l
ä¸įåĲĮ çļĦ
oc i
äºĭ ä¸ļ
äºĨ è§£
èµĦ éĩĳ
çĭ¬ ç«ĭ
f ig
ä½ Ļ
åıª æľī
ä¼ ¤
éĴĪ å¯¹
æĺİ æĺ¾
ç»Ħ æĪĲ
Ġo b
ï¼ İ
çİ° å®ŀ
æŀĦ æĪĲ
æ¡Ī ä»¶
èĩªå·± çļĦ
ï¼ Ł
åį Ĭ
åįı è®®
ç» Ŀ
æľª æĿ¥
å® Ĺ
åİ ¿
ä½ĵ çļĦ
y m
çĲĨ å¿µ
åľŁ åľ°
å¸ ®
å¯¹ è±¡
éħ ¸
çł ģ
ç» ĥ
s o
F ig
Ġac tiv
åį °
è´¢ äº§
è½ »
Ġinc re
ti m
e ar
æĽ´ å¤ļ
åıĹ åĪ°
æīį èĥ½
éĩįè¦ģ çļĦ
èĩª èº«
æĺ Ł
Ġre c
on g
åª Ĵ
v en
t r
è®¸ å¤ļ
èģĶ ç³»
åº Ĭ
åħ±äº§ åħļ
æľ Ŀ
Ġs ub
ä»¥ ä¸Ĭ
ä¸ ĥ
è¯ ¯
os e
å¥ ³
é ī
å· ¨
çļĦ æĸ°
å¹¿ æ³Ľ
éī ´
æĺ¯ åľ¨
è¡¨ ç¤º
çĽ ¾
ä¹ī åĬ¡
om e
ä¸į åı¯
åĨ³ çŃĸ
Ġw he
æīĭ æ®µ
å½ĵ äºĭ
éĩı çļĦ
æĶ »
Ġm ay
Ġd et
è Ľ
å¼ķ å¯¼
äºĴ èģĶç½ĳ
åıį åºĶ
èĻ ļ
igh t
ä¸Ģ æĸ¹éĿ¢
çĶ³ è¯·
åĬł å¿«
é¦ĸ åħĪ
at es
éĢ ģ
re n
éĩĩ åıĸ
æ·± åħ¥
åį ´
Ġin d
åĨħ éĥ¨
æĴ Ń
èŀį åĲĪ
æ± ĩ
æ¶ ²
è´§ å¸ģ
çİ° è±¡
te in
æķ £
åħ³ æ³¨
å® Ī
çĽĳ ç®¡
ri b
çŁ Ľ
ç»´ æĬ¤
è§£ éĩĬ
æİĮ æı¡
é ²
åĲ ¯
æ° §
åķĨ ä¸ļ
ç ¿
çĪ ±
çĶ¨ æĪ·
åĨľ æ°ĳ
ç¦ ı
èĭ ı
ä½ľ åĩº
2 5
åĬĽ çļĦ
å®Į åħ¨
ç±» åŀĭ
we en
çĸ ¾
çŁĽ çĽ¾
ĠT h
è® ¢
æĹł æ³ķ
æĺ ł
åģ ĩ
ä¹¦ è®°
Ġm ic
ac h
æŃ£ ç¡®
8 0
è´¢ æĶ¿
æ· ·
èĢħ çļĦ
Ġ "
]\] .
ä¾Ŀ æį®
è´ ¯
ä¿Ŀ æĮģ
æĢĿ ç»´
en s
å·¥ åħ·
æĸ° æĹ¶ä»£
ç§ ģ
æ´ ²
è§Ħ åĪĻ
ug h
æ¸ Ĳ
Ġbet ween
ç³» åĪĹ
çĶļ èĩ³
æł ĳ
ul ation
æĢ ¥
éĿŀ å¸¸
éĢ Ķ
T he
æķĪ æŀľ
äºĭ å®ŀ
ç¬¦ åĲĪ
Ġs c
ä¼ĺ åĮĸ
ãĢĤ âĢĿ
èĭ ¥
èĦ ±
Ġsign ific
æĽ ²
çģ «
éĽĨ ä¸Ń
Ġdis e
éĺ »
Ġp h
å±ŀ äºİ
å¨ ģ
ç»¿ èī²
æķ´ ä½ĵ
èĪ ª
Ġc or
æ£Ģ æµĭ
éĢĤ åºĶ
æıĲä¾Ľ äºĨ
åĮĸ åŃ¦
Ġ 7
éĻ Ħ
æ»¡ è¶³
éĢļ å¸¸
: "
ul t
åį ļ
å± ¥
è°ĥ æŁ¥
Ġal so
æĿ ¿
por t
ä¼ļ è®¡
f orm
èĦ ī
as s
è¡¨ è¾¾
ç ¯
æŃ ¦
4 0
l o
è§Ħ å¾ĭ
Ġp res
a k
åĶ ®
ec tion
å½ĵ åīį
æĿ Ł
å¹´ çļĦ
æĥħåĨµ ä¸ĭ
å® ª
çģ µ
åĪĨ åŃĲ
è¯ģ æĺİ
an c
æ¶ī åıĬ
as es
äºº åı£
è½¯ ä»¶
Ġle vel
ä¼ļ è®®
åį ĥ
èĨ ľ
çĺ ¤
å¸® åĬ©
Ġ {
å·® å¼Ĥ
éĢ ı
çī© çļĦ
ec h
ç½ Ĺ
Ġ -
éĻĲ åĪ¶
Ġ en
åķĨ åĵģ
èĬ ±
å¹´ æĿ¥
åįı è°ĥ
æĿĥ çļĦ
éĹ®é¢ĺ çļĦ
è· ¨
ul d
æī¿ æĭħ
Ġus ing
å° ¤
æĬĢ èĥ½
i ed
æĹ¥ æľ¬
èĻ½ çĦ¶
å§Ķåĳĺ ä¼ļ
å¼ ±
è· Ŀ
ra p
æ±¡ æŁĵ
Ġ [@
ç¥ ¨
ä¼Ł å¤§
äºĭ ä»¶
å¿ħ è¦ģ
é» Ħ
o x
ç« ¥
Ġbe en
å° ģ
ç³»ç»Ł çļĦ
ç¼ ©
èĽ ĭ
Ġh as
æ³ķ è§Ħ
çŃ Ķ
Ġcon s
o ur
è¯ Ĺ
å½ĵäºĭ äºº
# #
åĪĨ éħį
æĮ ĳ
èĤ ¿
çļĦ ä¸»è¦ģ
æľĢ ç»Ī
2 3
u al
å®ĥ ä»¬
Ġthe se
ç´ł è´¨
ys is
å°± ä¸ļ
è¡¨ æĺİ
Ġexp ression
è¡Į åĬ¨
æĺ¾ ç¤º
çī© çĲĨ
è¿ĺ æĺ¯
o und
st r
ä¹ °
19 9
ä¾Ľ åºĶ
è Ĺ
èģĶ åĲĪ
il ity
ç½ ļ
Ġ Â
Ġsignific ant
é«ĺ åº¦
èį ī
ä¸° å¯Į
æĦı è§ģ
åľ¨ äºİ
æĢ§ èĥ½
Ġinc l
f ter
ç¼ ĵ
æĺ¯ ä¸Ģä¸ª
æķ° åŃ¦
æµĭ è¯ķ
è®¡ç®Ĺ æľº
éģ ĩ
ç«ĭ æ³ķ
ä¾Ŀ æ³ķ
æĪĲ ç«ĭ
è¦ģ ç´ł
ro s
Ġd ata
è´ ·
åĵ ²
éĢ Ģ
Ġin v
Ġ1 0
on e
è¯ Ĭ
æī ¾
6 0
âĢ ¦
Ġs ur
æ® Ĭ
re e
å¥ ĭ
èĲ½ å®ŀ
å½¢ æĢģ
èı Į
èµ· æĿ¥
éĢ »
æ½ ľ
åıį æĺł
æĦ ¿
éª ¨
e w
çĽ ĸ
å¼ķ èµ·
æİ¥ åıĹ
å¹¶ ä¸Ķ
æ¶ µ
Ġgro up
åĬ¨ åĬĽ
æľī åĪ©
å ³
] ,
çļĦ å¤§
æı ı
æĸ¹éĿ¢ çļĦ
éĩį è§Ĩ
æľĢ é«ĺ
çĽ¸ åºĶ
Ġ y
è° Ī
éĢĤ çĶ¨
åĪĨ å¸ĥ
Ġpro tein
éĢ» è¾ĳ
è Ĵ
æķ´ ä¸ª
çĨ Ł
C A
ĠĠĠĠĠĠĠĠĠĠĠĠĠĠĠĠĠĠĠĠĠĠĠĠĠĠĠĠĠĠĠĠ ĠĠĠĠĠĠĠĠĠĠĠĠĠĠĠĠĠĠĠĠĠĠĠĠĠĠĠĠĠĠĠĠ
ä¸´ åºĬ
ç»§ ç»Ń
æ² ¹
uc h
Ġus ed
Ġs pec
æĺ¯ ä¸Ģç§į
Ġre l
æĢ» ä¹¦è®°
éģĵ å¾·
ä¸ŃåĽ½ åħ±äº§åħļ
ä½ľ èĢħ
è¯¾ åłĤ
st em
æĪĲ åĬŁ
ä¹¡ æĿĳ
é¡ º
çĻ »
at ing
èĩª åĬ¨
al th
å¹´ ä»£
åŁ¹ è®Ń
å¿« éĢŁ
Ġ un
Ġ V
æĢ§ è´¨
an g
çĶŁ åĳ½
éĢļ ä¿¡
tion al
åĮĹ äº¬
æĿ¥ è¯´
åĲİ çļĦ
å½ »
å° ļ
æ°ĳ äºĭ
åĦ¿ ç«¥
Ġincl ud
ç¡® ä¿Ŀ
è¶ĭ åĬ¿
æĸĩ ä»¶
èĩª æĪĳ
å¸ Į
æ³¨ æĦı
è´Ł è´£
å®ļ ä¹ī
æ¯ Ľ
é¡ ¾
reat ment
èĽĭ çĻ½
i ti
æĮĩ æłĩ
ec t
re d
èĩª ä¸»
é¼ ĵ
vel op
ç¬ Ķ
å¼º åĮĸ
åĪĨ ä¸º
æĮĳ æĪĺ
æī© å¤§
ä¹ ı
åĪĨ åĪ«
æĭ ĵ
Ġ 9
éģ į
è§Ĥ çĤ¹
ç ĵ
ä¿¡ åı·
è¥¿ æĸ¹
éħį ç½®
å±¥ è¡Į
1 00
â Ī
è° ĵ
os is
èĥ ľ
åį« çĶŁ
å¸ Ŀ
ç»ı è¿ĩ
é£ ŀ
è¶ħ è¿ĩ
åŃĺ åĤ¨
a us
çī¹ æ®Ĭ
åĵ² åŃ¦
åİŁ çĲĨ
Ġres pon
æĿ İ
æ ¥
æĮ ¯
ot h
Ġv ari
éģĵ è·¯
çº ·
duc ed
ar g
éĺ ħ
è¯´ æĺİ
Ġass oci
Ġn o
çĸ ĳ
Ġa r
Ġp os
åī §
å¤ «
è½¬ åıĺ
å¥ Ĺ
y t
ä¼ģä¸ļ çļĦ
åĳ ³
äº¤ æµģ
æľĢ å¤§
æķ° éĩı
å® ½
è¿Ľ ç¨ĭ
çĽĳ æµĭ
o ut
m s
çĸ¾ çĹħ
éĿ¢ ä¸´
æ¸ ¯
è¯ģ æį®
t al
c er
ra in
å®ŀ è¡Į
ç¡ ¬
ä¸Ńåįİ æ°ĳæĹı
ç®Ģ åįķ
ç ĩ
èĢĮ è¨Ģ
å ©
Ġ( [@
åŃ¦ æľ¯
çĻ Į
çŃ ¾
æ·± åĮĸ
% ,
ä¹ İ
ä¸ī ä¸ª
è Ń
åĬ ª
å®¶ åºŃ
èµ Ķ
çĦ¶ èĢĮ
å¾Ī å¤ļ
è§Ĥ å¿µ
èĢ Ĺ
Ġo ther
å· ¦
ati c
åħ± äº«
çŃ ¹
åĪ ¸
2 4
Ġc ol
æĽ ¾
äº¤ éĢļ
Ġ{ #
Ġ ro
el y
æĿ¥ æºĲ
åĳ Ī
ç´ ¯
æŃ¤ å¤ĸ
am s
çı Ń
Ġs up
åıĬ æĹ¶
Ġm ed
çľŁ æŃ£
å¹¶ ä¸į
äº ¡
Ġcont rol
èµĦ æĸĻ
in ical
Ġd es
æĺ¾ èĳĹ
åĽ½ æ°ĳ
éģ µ
çļĦ åİĨåı²
è® ¿
ç½ ²
Ġth an
çİ¯ èĬĤ
ar d
è®¨ è®º
åĢº åĬ¡
. (
Ġa g
æľŁ éĹ´
g en
è§Ĵ åº¦
äºº å·¥
Ġ und
å®¡ è®¡
é«ĺ æł¡
èĢĮ æĺ¯
éļ Ĳ
æĶ¹ åĸĦ
ç§° ä¸º
äº ²
Ġf act
åģ ı
æ± ½
e ver
è¯ ¸
çľ ¼
å°¤ åħ¶
ä¹ĭ åĲİ
åĨ Į
çªģ åĩº
åĪĨ ç±»
è ĵ
çļĦ ç¤¾ä¼ļ
ul ts
éĢĲ æŃ¥
å¤ļ ç§į
åĿ ı
ç» ©
éĻ Ī
æĶ¯ ä»ĺ
Ġdise ase
ç¥ŀ ç»ı
ç¯ ĩ
æ¯ı ä¸ª
ä¸» åĬ¨
id e
æĽ ¿
ä¾ §
ä¸Ģ èĩ´
Ġs am
è´ ¡
è¯ķ éªĮ
Ġt reatment
Ġac c
Ġde velop
w o
æ ħ§
Ġ 8
è®¾ ç½®
Ġm ore
çļ ®
éĢŁ åº¦
ç² Ĵ
çĤ İ
åĬª åĬĽ
æķ ĳ
æ´ ĭ
ä½¿ å¾Ĺ
æ·± åĪ»
æ² ¿
æľ¬ è´¨
è° ±
éĵ ģ
Ġmod el
ä¸į å¾Ĺ
éģ¿ åħį
Ġstud ies
æ£Ģ æŁ¥
ec ted
ç ¹
å»º è®®
at er
çº ł
Ġ K
Ġm an
ur ing
ä½ ł
Ġb ut
åħ¬ å¹³
å¤Ħ äºİ
é«ĺ çŃī
è½¬ åŀĭ
å¾Ģ å¾Ģ
æıĲåĩº äºĨ
åĲ ¬
è½¬ ç§»
éĽ ¶
ç» į
æ³ķ çļĦ
r ac
d e
ä» ª
Ġim mun
çŃĸ çķ¥
å±Ĥ æ¬¡
èĥĮ æĻ¯
Ġthe ir
åİ Ĥ
Ġal l
åĩ Ŀ
å¹ ħ
ç¹ ģ
Ġc ar
å®¢ è§Ĥ
éĤ£ ä¹Ī
ä¹łè¿ĳå¹³ æĢ»ä¹¦è®°
è ĸ
åĪ¤ æĸŃ
äº§ æĿĥ
æ± ł
Ġa fter
2 9
b er
ag n
åĩ ½
è¿Ľè¡Į äºĨ
æľī æľº
æĭ ¥
ä¸Ĭ è¿°
èŃ ¦
åŃ¦ éĻ¢
Ġh igh
n i
ä¸Ģ æĺ¯
æĹ ħ
ä¸ĭ çļĦ
èĤ º
çī¹åĪ« æĺ¯
ä¸į è¶³
h ib
Ġgen e
ä¼ł æĴŃ
y l
ç¢ į
é© ±
åĩĨ ç¡®
æĪĺ äºī
l u
2 8
Ġd ec
at ory
éĺ¶ çº§
æķĻèĤ² çļĦ
æĻ® éģį
Ġt um
ä¸º ä¸»
enti f
åĵ ª
è¶ £
ä¹ ħ
èĤ¿ çĺ¤
æĬ ĳ
åħ µ
åī ¯
ç»Ł è®¡
ä¸¤ ç§į
çĶ °
æĪ ı
å¹³ è¡¡
èį¯ çī©
åıĳ å¸ĥ
èĹ ı
æĬ µ
Ġund er
p er
s er
çģ ¾
çİ° åľ¨
å® ı
Ġanal ysis
éĢĲ æ¸Ĳ
æĻº æħ§
å¤§ éĩı
7 0
og en
Ġp ath
Ġ1 9
è§ ¦
åĶ ¯
ç¼º ä¹ı
ç³ ĸ
æĴ ĳ
è° Ĳ
æķ ı
è½¬ åĮĸ
è´ ¥
C T
ä¸Ĭ æµ·
è´¢ åĬ¡
éĻ Ĩ
ac ter
å· ´
è¾ ©
Ġf unc
æģ ¶
åģ¥ åħ¨
ç»ıæµİ åıĳå±ķ
åģ ľ
R NA
çī© æµģ
Ġl i
åı ³
å® ĭ
æľī éĻĲ
Ġ 20
æĬķ åħ¥
æľ¬ èº«
Ġme as
å ´
Ġt im
æľīåĪ© äºİ
in al
èµ ĸ
Ġ qu
ä»ĭ ç»į
æ³ ½
åŃ¦ èĢħ
æĿĥ åĬĽ
ï¼Į âĢľ
æĿ¥ è¶Ĭ
æŃ£ å¸¸
èµĶ åģ¿
éĿ Ļ
æĬĢæľ¯ çļĦ
äºĮ æĺ¯
è¿Ľ æŃ¥
ç¤¾ä¼ļ çļĦ
ç¬¬ åĽĽ
I n
ä¸Ģ å®ļçļĦ
Ġsy stem
æĢ» ä½ĵ
æĶ¯ æĴĳ
èĤ¡ ä¸ľ
Ġ id
æĬĬ æı¡
å¾ª çİ¯
or d
åº Ł
æ¯ į
è¶Ĭ æĿ¥è¶Ĭ
ç§ĳ çłĶ
æ¯Ķ å¦Ĥ
ç² ®
åĴĮ åıĳå±ķ
çļĦ æĸ¹å¼ı
æįŁ å®³
åĩº çīĪ
Ġa m
å¤ļ æł·
å®ª æ³ķ
ä½ľ åĵģ
çĥ Ī
å¸¦ æĿ¥
åħĪ è¿Ľ
åı ¶
å¤ļ æķ°
vel y
t ing
ï¼ī ï¼Į
å° Ĭ
æĬ ĵ
ç§ Ł
è¯· æ±Ĥ
iz ed
å± Ĭ
æĿ¥ çľĭ
Ġst r
åıĮ æĸ¹
Ġo ut
åŁº éĩĳ
Ġ* *
éļ¾ ä»¥
åħ· å¤ĩ
æ±½ è½¦
è¦ Ĩ
Ġs uch
è´ µ
è§Ħå®ļ çļĦ
çĬ¶ åĨµ
2 7
å¿ħ çĦ¶
ĠTh is
Ġv al
ä¸ŃåĽ½ çļĦ
åĽ½å®¶ çļĦ
æµģ åĬ¨
åŃ¦ çļĦ
æĿĥ çĽĬ
é¼ĵ åĬ±
èµ ĭ
è§Ĥ å¯Ł
on d
è´¡ çĮ®
åĪ° äºĨ
åĽ¢ éĺŁ
Ġm o
u res
åĽ½ æľī
åį ĸ
æľĢ åĲİ
ä¸ĭ éĻį
Ġt wo
æ¡ Ĩ
2 6
is k
æľ¬ æĸĩ
åĽ½ çļĦ
åįı åĲĮ
ç£ ģ
ay s
a il
is s
re c
ent r
çļĦ æĸ¹æ³ķ
t en
çĽ Ł
é«ĺ è´¨éĩı
è®Ń ç»ĥ
çĽ¸ åĲĮ
çĲĨ æĥ³
ar k
9 0
S A
æĢ» ç»ĵ
t ain
åį ·
æ¤į çī©
çľŁ å®ŀ
ï¼ļ âĢľ
é ¸
or k
æĪĲ åĳĺ
é Ĩ
æįŁ å¤±
um an
ç¦ ģ
éĹ »
Ġf ol
æĬ ½
æķĻ æĿĲ
Ġs er
åĲĦ ä¸ª
è¿ ģ
çĶ ²
æĹ §
é«ĺ çļĦ
Ġcl inical
æ¢ °
é» ĳ
å·¥ä½ľ çļĦ
æĶ¹éĿ© å¼ĢæĶ¾
ä¸¥ æł¼
åĨħ çļĦ
æŃ£ åľ¨
Ġcan cer
åĩ½ æķ°
3 5
è¾ ħ
éĺ ¿
æ³¨ éĩį
olog ical
æ¶ ¦
æĢĿ èĢĥ
al s
ç¤ ¼
n e
æĭ Ľ
è¿ĺ æľī
æµĭ éĩı
æĬ ĺ
éľ ²
Ġlevel s
æ° ¸
Ġb oth
æľº åĻ¨
ter n
ce pt
Ġhe alth
æķĻ æİĪ
Ġpar tic
è¿ «
% )
æ¯Ķ ä¾ĭ
çĦ¶ åĲİ
è¯ ¢
å¹² éĥ¨
éĻ ·
å¯ »
è®° å½ķ
ç» ķ
æ¸© åº¦
è¯ ĳ
ç¼ ĺ
åį± æľº
å¤ļ ä¸ª
å½ĵ æĹ¶
å¯¹ å¤ĸ
Î ²
ç ħ
ĠÂ ±
ç§ Ģ
Ġo ver
å±ħ æ°ĳ
u es
åįģ åħ«
æī ¬
ä¼ ¦
çĹħ æ¯Ĵ
å±Ĥ éĿ¢
in ding
è®¤ å®ļ
c ess
åªĴ ä½ĵ
ä» ²
åĲĪ æ³ķ
ow ever
h od
å¥ĭ æĸĹ
åĴĮ ç¤¾ä¼ļ
on s
ä¸Ģ ç³»åĪĹ
éĢĶ å¾Ħ
çļĦ æķ°æį®
è¿ŀ æİ¥
åħ¬ æ°ĳ
åºĶ å¯¹
åŁºç¡Ģ è®¾æĸ½
olog y
åħ ¼
Ġh yp
åı ¥
æĿ¥ èĩª
tic al
Ġac id
çļĦ è§Ħå®ļ
å¹³ åĿĩ
re l
å§ĭ ç»Ī
åĪĳ äºĭ
] ).
äº ¦
æīĢ è°ĵ
éĽĨ ä½ĵ
) ãĢģ
Ġw ill
um ent
æ² ī
å®¹ æĺĵ
çº ¯
éĺħ è¯»
he d
æķ´ åĲĪ
he m
' s
é¦ Ĩ
çªģ çł´
am m
Ġid entif
åŁİ éķĩ
G F
ä¸» å¼ł
åĮħ åĲ«
Ġm on
è½ ®
çłĶ åıĳ
are d
ä¸ĵ å®¶
åĢ į
ä½į ç½®
b le
æķĪ åºĶ
an ts
æķ°åŃĹ åĮĸ
è´ ¦
Ġl ow
ä¸ĵ åĪ©
å®Į æķ´
ow n
åıĳ è¡¨
åĽ° éļ¾
å®¡ æŁ¥
æļ ´
æĺ¯ ä¸Ģ
èĤ Į
âĪ Ĵ
Â ł
è®¾ ç«ĭ
åĬ¨ æĢģ
åıĺ éĿ©
Ġs p
Ġ J
çļĦ ä½ľçĶ¨
é¢Ħ æµĭ
çļĦ åħ³ç³»
il d
ç®Ĺ æ³ķ
æł¼ å±Ģ
åĳ¨ æľŁ
åķĨ æłĩ
ä¸į ä¼ļ
éĻ¤ äºĨ
åħ ģ
éĶĢ åĶ®
Ġpres ent
èŀį èµĦ
æľ «
æº ¶
åĢ ¾
åĬł å·¥
è¯Ĩ åĪ«
æľ ¨
Ġb i
r im
ĠW e
å¹³ çŃī
æİĴ æĶ¾
æĽ´ å¥½
è´¹ çĶ¨
å¤į åħ´
çĽ¸ æ¯Ķ
åĴĮ è°Ĳ
ä¹Ł æľī
åŁº å±Ĥ
è´¯ å½»
è£ Ĥ
åħį çĸ«
p it
ä¼ ´
S C
éĩ İ
Ġpro vid
ä»į çĦ¶
æĸĩ åŃ¦
æħ ¢
åĿ Ģ
æ® ĸ
åĨĽ äºĭ
ep end
çļĦ ä¸Ģä¸ª
Ġd uring
èį £
é¾ Ħ
åħ¨ éĥ¨
ç¤¾ åĮº
. ,
åĲĦ ç±»
Ġon e
è¯Ĭ æĸŃ
é² ľ
åĨ ·
é Ń
åİ ļ
Ġper form
ä¸Ģ ä½ĵ
å¤§ ä¼ļ
æ¡Ī ä¾ĭ
èİ· åıĸ
ä¸Ģ æ¬¡
æī ¶
Ġin hib
è®º æĸĩ
Ġap pro
Ġassoci ated
å® ľ
éĢ Ĵ
è¿ĩ åİ»
æµģ ç¨ĭ
Ġfol low
he n
åĳ ¼
åį ¡
æĹ¶ åĢĻ
çĩ ĥ
åıĳ è¾¾
] .
é ½
æĹł è®º
åıĤ èĢĥ
è¿ ħ
ä¸Ń å°ı
Ġre p
åİĭ åĬĽ
æĶ¶ çĽĬ
Ġres ults
åīį æıĲ
æ·± åº¦
é«ĺ æķĪ
æĸĩ çĮ®
åĨħ æ¶µ
Ġmic e
Ġr isk
å¹ ¼
å¡ ĳ
è¿½ æ±Ĥ
Ġind ic
oc ument
é º
è° ĭ
åħ± åĴĮ
å³ °
Ġ Ċ
æģ ¢
çĻ» è®°
åĶ Ĳ
æ¡Ĩ æŀ¶
åĩº äºĨ
çļĦåŁºç¡Ģ ä¸Ĭ
åĩº åı£
r on
æĸĹ äºī
o k
r y
äº§çĶŁ çļĦ
ere d
Ġint o
å© ļ
é¡ µ
æ² Ł
ä¸Ģ çĽ´
ä¿¡ çĶ¨
ä»İ äºĭ
éĴ ±
æĸ° åŀĭ
çĽ¸åħ³ çļĦ
åı ĭ
Ġs ug
æĦŁ æŁĵ
ç» ĺ
çļĦ èĥ½åĬĽ
å® ģ
è¡¨ éĿ¢
åħ ®
éĩį æĸ°
åĽ½ åĬ¡
ä¾Ľ ç»Ļ
Ġactiv ity
åĲĮ æł·
èģĮ èĥ½
å°½ ç®¡
æ°§ åĮĸ
é©± åĬ¨
r ic
æ¯ ķ
çī ¢
å¤ļ åħĥ
Ġsy n
å¼ ¹
Ġtim e
è®¤ çŁ¥
æ°Ķ åĢĻ
Ġn um
åı¦ ä¸Ģæĸ¹éĿ¢
é¾ Ļ
orm al
æıı è¿°
å®ŀè·µ ä¸Ń
è¿Ĳ è¾ĵ
çī¹ æĢ§
å¸ Ń
åľ° çĲĨ
ĠA l
åĪ ĺ
éĺ Ĳ
ä¼ĺ åħĪ
Ġ end
èĭ± åĽ½
å¤§ æķ°æį®
çŃī æĸ¹éĿ¢
åĩº çļĦ
æĢ İ
é¢Ħ éĺ²
æģ¢ å¤į
éĥ¨ ç½²
l ic
m ed
ä»² è£ģ
ç»ıæµİ åŃ¦
s y
åħ¸ åŀĭ
æ¹ ĸ
ä¼ł è¾ĵ
e f
æĸĩ ç«ł
å¸ĥ å±Ģ
åĽ¾ åĥı
é£Ł åĵģ
è¡ °
åı¯ æĮģç»Ń
çĶµ è·¯
{ \
åĲĦ çº§
Ġt est
æķĪ çĽĬ
è° ¢
éĶĻ è¯¯
çī¹ å®ļ
0 5
A T
ç© ¿
åĩº åıĳ
å®ļ ä½į
åĽ½åĬ¡ éĻ¢
Ġex am
3 6
æĻ® éĢļ
Ġh uman
Ġob ser
"} ).
ä¹Ł åı¯ä»¥
åħ¬ ä¼Ĺ
ç¿ »
ç§ ©
I P
åįģ åĪĨ
Ġdifferen t
ä¼ł æĦŁ
ä¾Ŀ èµĸ
åĮ» éĻ¢
.. ..
èĻļ æĭŁ
æ½ ®
èħ Ĳ
æ³¨ åĨĮ
Ġn on
å¤ĸ éĥ¨
Ġsug g
äººå·¥ æĻºèĥ½
Ġ up
è¾ ĸ
ac e
åŁİ ä¹¡
ï¼ī ãĢĤ
äº¤ æį¢
æĺ¯ å¯¹
ä¹ ±
duc tion
åĮº åĿĹ
æĦı åĳ³
ä¸Ģ åĪĩ
o uld
ic i
åħ °
å¼ ĥ
çº ²
k e
åįĩ çº§
å®£ ä¼ł
ä¹ĭ åīį
æĥ ł
æľº æ¢°
åĬ© äºİ
è Ķ
åıĤ åĬł
æĬĳ åĪ¶
çļĦ å·¥ä½ľ
åĲĦ åĽ½
åħ¬ å¼Ģ
Ġs ec
ç»Ł çŃ¹
c ri
ti t
å·¥ èīº
C D
ä¾µ æĿĥ
çĽ¸ ç»ĵåĲĪ
Ġexp er
ç§© åºı
a x
éĿ¢ å¯¹
Ġh ad
è·¯ å¾Ħ
ä¿ Ħ
çŁ¥è¯Ĩ äº§æĿĥ
è´ ´
èģĮä¸ļ æķĻèĤ²
æŃ Į
Ġdet er
æĥħ å½¢
é¦ Ļ
Ġe ach
ä¸Ģ æł·
æĿ ¾
åĮ» åŃ¦
æĭ¥ æľī
ur ther
Ġmet hod
Ġf ound
ä¿¡æģ¯ åĮĸ
æŁĲ äºĽ
A P
ab ility
æ¶Īè´¹ èĢħ
c c
å®ī æİĴ
di tion
Ġm ut
ç¾İ åħĥ
l i
çĽ ĺ
è½ ¨
è· Ł
æ³½ ä¸ľ
çĶŁ æĪĲ
å®¢ æĪ·
çļĦ æ³ķå¾ĭ
æ¯Ľ æ³½ä¸ľ
åº¦ çļĦ
ãĢ Ĳ
ç¾¤ ä½ĵ
C C
Ġmeas ure
è§£ æĶ¾
ãĢ ĳ
ç»ıæµİ çļĦ
Ġcomp le
m on
è¿Ŀ æ³ķ
d ocument
å®ŀ ä½ĵ
åĢº æĿĥ
Ġs im
é¢ĨåŁŁ çļĦ
æĺ ¥
ä¸Ĭ åįĩ
ç»Ļ äºĪ
åĬł å¤§
ł éģĵ
è ¸
Ġthe rap
Ġde f
æĹ ¨
æĹ© æľŁ
Ġt iss
ut e
åıĤ æķ°
èĩª æ²»
ä¼łç»Ł çļĦ
å½ ©
åı¦ å¤ĸ
æĹħ æ¸¸
å² Ĺ
Ġeffec ts
çĽ¸ å½ĵ
è°ĥ èĬĤ
æĹ¥ çĽĬ
at ure
èĬĤ çĤ¹
å°± ä¼ļ
Ġ\ <
éŁ³ ä¹Ĳ
è¦Ĩ çĽĸ
d er
ĠS t
åĽ¢ ç»ĵ
4 5
Ġe m
æłĩ å¿Ĺ
äºĪ ä»¥
Ġa ut
åıª æĺ¯
ä¸Ģ èµ·
lo od
ar t
æĬ ¼
æµ ĵ
e x
æ² Ļ
çĹ Ľ
Ġ .
it ed
çģ Ń
o ugh
çĶµ æ±ł
ä¿® æĶ¹
an is
Ġpro g
M P
ä¸ª ä½ĵ
åıª èĥ½
Ġo ur
ä¼ĺ ç§Ģ
äºĮ åįģ
éļľ ç¢į
æŀ¶ æŀĦ
çĶ¨ çļĦ
ç¬¬ åįģ
S T
çļĦ è¿ĩç¨ĭ
å½¢æĪĲ äºĨ
å¼ķ é¢Ĩ
qu enc
è¡Ģ ç®¡
åŃ Ķ
éĽĨ æĪĲ
ä¸ĵ éĹ¨
éĽĨ åĽ¢
è¿Ļæł· çļĦ
æŃ£ å¼ı
è½¬ æį¢
å®ı è§Ĥ
æĥ ¯
ä¸»è¦ģ æĺ¯
è¯ģ åĪ¸
çł´ åĿı
çĶŁ éķ¿
åĬŀ æ³ķ
iz ation
åĬ¨ çī©
20 20
çĶ± æŃ¤
ä¸» é¢ĺ
å° ¼
åħļ ä¸Ńå¤®
è¢« åĳĬ
Ġincre ased
åĽ´ ç»ķ
æ£ ®
åĢ ¡
æĽ´ ä¸º
æľīæķĪ çļĦ
æ¬§ æ´²
åı ¬
æĦıåĳ³ çĿĢ
éĹ Ń
æľº ä¼ļ
Ġ( [
çļĦ è¦ģæ±Ĥ
åĨ ł
éĥ½ æľī
åĽĽ ä¸ª
æĶ¹ éĢł
æı ´
çŁ ¿
he s
Ġgen er
èĤ ¥
Ġw ell
Ġit s
åı¯ éĿł
å¤Ħ ç½ļ
od y
è´« åĽ°
ul ated
æ¡ £
çĶŁæĢģ çİ¯å¢ĥ
Ġdi agn
çºł çº·
Ġpati ent
åĳĪ çİ°
åĽº å®ļ
çļĦ åıĺåĮĸ
çº µ
por ted
) ãĢĤ
a v
Ġ( *
ĠC D
å² Ľ
Ġ $
Ġon ly
ä»¥ åĲİ
éħ ¶
å»ºè®¾ çļĦ
èģĮ è´£
åįı åķĨ
å°¤åħ¶ æĺ¯
æ ¾
éĩĳ å±ŀ
æĢ Ģ
ä¾ĽåºĶ éĵ¾
ä» ¿
éļ Ķ
æī§ æ³ķ
i tion
u tion
èĤ ī
ä¸Ģ æĿ¡
ä¸ŃåĽ½ äººæ°ĳ
åĮºåĿĹ éĵ¾
å®ŀéĻħ ä¸Ĭ
o b
æ³ķ å®ļ
è¿ŀ ç»Ń
A R
åĪ º
çī© èģĶç½ĳ
ir st
æĻ ¶
3 3
åĩĨ å¤ĩ
åľ¨ æŃ¤
in es
æı Ń
ä¼łæĦŁ åĻ¨
oc k
è¿ĳ å¹´æĿ¥
æ£Ģ éªĮ
è£ ķ
åħĥ ç´ł
é½ Ĳ
o in
Ġp ot
æ¿Ģ åıĳ
ear s
å¦Ĥ æŃ¤
éľ ĩ
I I
å¥ ĸ
çī Į
éĿ¢ ç§¯
Ġm in
åĲĮ å¿Ĺ
ro ugh
çļĦ åħ³éĶ®
C P
æľī æīĢ
Ġd em
aus e
Ġeffec t
è¿Ľ èĢĮ
çĽ¸åºĶ çļĦ
it e
çĻ¾ å¹´
åħ¶ æ¬¡
D NA
pl ic
å½¢ åĬ¿
ver s
åħ´ è¶£
Ġm ost
åĿļ å®ļ
19 8
æ¹ ¾
å® Ŀ
æĥħ æĦŁ
äºĭ åĬ¡
Ġre m
å¥ ĩ
è¯¾ é¢ĺ
æŃ» äº¡
ro ph
Ġtum or
p os
çļĦ è¡Įä¸º
çĦ ¦
Ġ ĊĠĠĠĠĠĠĠĠĠĠĠĠĠĠĠ
çļĦ åĨħå®¹
å² ģ
enti al
} $
å®ŀ è´¨
Ġ ra
åĽł èĢĮ
çº¦ å®ļ
Î ±
åĮº åĪ«
å£ ¤
ar ch
å½ĵ ä»£
è¿ħ éĢŁ
f t
Ġe t
è¿Ĳ èĲ¥
èĭ± è¯Ń
d s
æĿ¡ æ¬¾
æ® ĭ
" "
æ´ ģ
Ġ çļĦ
è¿Ļ éĩĮ
ĠH owever
Ġin s
Ġass ess
ä½ĵ éªĮ
ç»Ħ åĲĪ
åħ±åĴĮ åĽ½
çļĦ çĲĨè®º
ä¿ Ĺ
åŁ¹ èĤ²
Ġm ech
è¯ º
ple ment
ç»ıæµİ ç¤¾ä¼ļ
éĺ² æŃ¢
å®ĥ çļĦ
c es
èį ·
I T
å®¡ åĪ¤
æĪĲ çĨŁ
å¤§ åĬĽ
åŀ Ħ
ç¡® è®¤
Ġ åľ¨
çĶŁ åŃĺ
ä»ĸ äºº
Ġk n
epend ent
3 8
åħģ è®¸
è¡Į çļĦ
çĽ Ĳ
é¡ ¶
çº ¤
ãĢĭ ,
ç¡® ç«ĭ
Ġb lood
Ġv ir
æ´ ŀ
åĲ¸ æĶ¶
æİ¨ å¹¿
å¸¸ è§ģ
Ġo p
èĦ Ĥ
en g
æĸĩåĮĸ çļĦ
åŀĦ æĸŃ
-- -
åģļ å¥½
è¡Į ä½¿
åĪĨ ç¦»
æ°ĳ éĹ´
å¯¼ åĲĳ
æ° ¢
us ion
åĪ¶éĢł ä¸ļ
èĴ Ļ
çŁ¥ éģĵ
çļĦ é«ĺ
å¸Į æľĽ
æĶ¶ éĽĨ
Ġanti b
æ£Ģ å¯Ł
çļĦ åĲĮæĹ¶
è°ĥ æİ§
Ġro le
ç ĳ
éĴ ¢
è® ¯
ä»·åĢ¼ è§Ĥ
åľŁ å£¤
l es
ĠĠĠĠ ĠĠ
ä¸Ńåįİ äººæ°ĳ
un g
è¯ ¦
çłĶç©¶ çļĦ
åį± éĻ©
Ġcomp ared
3 4
åģļ åĪ°
åĩł ä¸ª
ãĢģ "
æĸĩ åŃĹ
ç»ı åİĨ
ç¥ ĸ
ç´ł åħ»
çŃī çŃī
å° º
çº³ åħ¥
çļĦ æķĻåŃ¦
åĪ¶åº¦ çļĦ
åº §
æĶ¹ è¿Ľ
äººæ°ĳ ç¾¤ä¼Ĺ
6 9
n al
éªĮ è¯ģ
å¹¿ å¤§
åĳĺ å·¥
åĨ² çªģ
Ġus e
i v
éģĹ ä¼ł
u ro
Ġim port
æľī åĬ©äºİ
ment s
åĲ Ľ
ä¼ ĳ
uc t
ç¬¬ äºĶ
åĪĽ ä¸ļ
å¤§ å¤ļæķ°
æĸ° éĹ»
ä¼ į
Ġg l
Ġshow n
Ġthe re
op h
è´Ń ä¹°
3 1
æµ ª
in ed
çĸ« æĥħ
è¾ ¨
Ġre se
ç±» ä¼¼
ä¸ī æĺ¯
æ¨¡ æĭŁ
æ¡ ¥
èĳ £
tic s
å¡ ŀ
çĽ Ľ
å¿ ½
ä¸ªäºº ä¿¡æģ¯
èī¯ å¥½çļĦ
è¯ ļ
å½ĵ çĦ¶
ä¿¡æģ¯ æĬĢæľ¯
å®ŀçİ° äºĨ
æģ ©
å®Ĺ æķĻ
äºī è®®
Ã Ĺ
e g
æ·· åĲĪ
åĬ³åĬ¨ èĢħ
æ´» æĢ§
val u
å¦Ĥ ä¸ĭ
Ġwhe n
æĪĲ å°±
æĪĳä»¬ çļĦ
èĪ ¹
å·¨ å¤§
Ġfunc tion
ç²® é£Ł
äºĴ åĬ¨
æİ¢ ç©¶
o id
èº« ä»½
Ġth rough
çĲĨ æĢ§
Ġc ur
al e
Ġre cept
ç§» åĬ¨
åĪ© æ¶¦
å±ŀ æĢ§
E R
æ¨¡ åĿĹ
Ġ es
çļĦ ä¸Ģç§į
vi ous
Ġrespon se
l ed
ar acter
æİ¢ è®¨
èĭ ¦
ç¦» åŃĲ
Ġfor m
çļ ĩ
çļĦ æľĢ
ä¹Ł å°±æĺ¯
èĪ ŀ
Ġco uld
Ġa ge
æĹ ĭ
ãĢĭ ï¼Į
er g
èĭ Ĺ
æĭħ ä¿Ŀ
èĢ ķ
éĿ¢ åĲĳ
è½¬ è®©
çļĦ æĥħåĨµä¸ĭ
è¿ Ķ
åĪ Ĭ
ç»§ æī¿
æ¥ ļ
Ġme an
çļĦ ç»ıæµİ
is e
çľĭ åĪ°
æĭĵ å±ķ
æĹ Ĺ
æķ Į
si ve
Ġnum ber
å° ¿
æİ ĺ
Ġb ile
æķ°æį® åºĵ
Ġsignificant ly
åĲĮ ä¸Ģ
æľŁ éĻĲ
åħ» èĢģ
åĬĽ åº¦
éķ ľ
åŁº åľ°
åĪĽ å»º
or t
ä»£ çĲĨ
è· ĥ
Ġin di
åľº æĻ¯
åħļ åĳĺ
ag es
Ġ ran
åı¯ è§ģ
Ġh ig
å¯Ĩ åĪĩ
A D
åħļ åĴĮ
åĪĽ ä½ľ
3 7
èĥ½ éĩı
ç ŀ
å»º æĪĲ
èĤ Ŀ
æĢĿ è·¯
å¾Ī å¤§
å¼Ĥ å¸¸
3 2
éĢļ çŁ¥
åĨħ åľ¨
S D
èµĦæľ¬ ä¸»ä¹ī
S P
c om
r am
æī °
vi ew
it s
å®ŀéªĮ å®¤
åįģ ä¹Ŀ
m a
æīĢ åľ¨
Ġwh o
è¿Ľ å±ķ
âĢ¦ âĢ¦
éĽ ¨
çļĦ ä¿¡æģ¯
ti g
iz e
æ²Ł éĢļ
on str
ä¹Ł ä¸į
è ª
å¼º åĪ¶
Ġl oc
åī ²
åĪ¤ åĨ³
è®© åŃ¦çĶŁ
re g
éĺ µ
ç®¡çĲĨ çļĦ
ç§¯ ç´¯
èĢĮ ä¸į
ti l
éģµ å¾ª
å ĺ
åĪ ļ
ç¨İ æĶ¶
c rib
åŃ £
è¿ ¹
çĪ ¶
m ath
ä»ĸ çļĦ
l amm
er y
ä¸» å¯¼
ç»Ł æ²»
åĬł éĢŁ
æĿ¡ä»¶ ä¸ĭ
åĩ Ģ
Ġb l
ra ph
ä¸Ń åħ±
ä½ ³
æ¿Ģ åĬ±
Ġperform ed
å¹´ äºº
æ¹ ¿
æĺ¯ çĶ±
èĩª è§ī
äº§åĵģ çļĦ
Ġ |
æĺ¯ ä»¥
æĿ Ģ
æĴ ¤
Ġs m
èĦ ı
f er
æī§ æĶ¿
æī© å±ķ
c i
o ver
è°ĥ è§£
qu i
å·¦ åı³
åĴĮ å¹³
åľ° çĲĥ
ç§ ĺ
" (
% .
Ġwhe re
E C
è¾ĵ åĩº
åı¤ ä»£
Ġpre d
I V
o v
ent ly
O S
ä¸º æł¸å¿ĥ
A C
Ġs tim
çº¦ æĿŁ
èĥ ģ
æĶ¹éĿ© çļĦ
äºº åĬĽ
åŃĺåľ¨ çļĦ
éĤ ¦
çħ ¤
å± ĭ
Ġinclud ing
Ġspec ific
Ġf irst
Ġdis t
è´· æ¬¾
im al
ä¹ĭ ä¸Ń
è·¯ çº¿
æĪĲ éķ¿
èĸ Ħ
4 9
Ġ 200
Ġp rim
ä½ĵç³» çļĦ
ä¸Ńåįİäººæ°ĳ åħ±åĴĮåĽ½
æŁĲ ç§į
åĭ ĩ
åľ Ĩ
em ent
æĢģ åº¦
o od
èµ Ľ
éĢĤ å½ĵ
å¹¼ åĦ¿
åĮĸ åĴĮ
å¯¹ åħ¶
å±ķ å¼Ģ
æ¸ Ĺ
Ġmech anis
Ġp op
ation al
Ġfact ors
æľįåĬ¡ çļĦ
Ġe valu
åĦ Ĵ
c in
æĪĳä»¬ åħļ
åį³ ä½¿
arg et
vid ual
å¸Ĥåľº ç»ıæµİ
çļĦ æĹ¶éĹ´
Ġpro cess
ä¹ ĥ
éĢ Ĩ
éĿŀ æ³ķ
Ġne ur
è¾ĵ åħ¥
ç¨ĭåº¦ ä¸Ĭ
======== ========
çļĦ ä¸į
éģ Ń
å¼ķ åħ¥
å°Ĭ éĩį
in d
00 1
Ġinv ol
ti vely
å² ¸
Ġthe y
çĹĩ çĬ¶
Ġm em
è¯ ±
éĻ¢ æł¡
èĥ½åĬĽ çļĦ
æľī çĿĢ
as c
è®¿ éĹ®
7 5
Ġch aracter
èµ° åĲĳ
åŁºç¡Ģ ä¸Ĭ
äºĭ é¡¹
ç»ĵ è®º
ä»Ĭ å¤©
åľ¨ ä¸ŃåĽ½
åħ¬åı¸ çļĦ
20 21
Ġc yt
Ġm ul
Ġ 201
åĲĦ é¡¹
æŃ£ æĺ¯
æ´»åĬ¨ çļĦ
èĮĥåĽ´ åĨħ
èĢĥ æł¸
åħ±åĲĮ ä½ĵ
æĸ½ å·¥
ol d
æķ°æį® çļĦ
åĬł ä»¥
çĶµ åĬĽ
å£ ®
ä¹ĭ å¤ĸ
Ġobser ved
ç½ĳ ç«Ļ
åįķ åħĥ
è¾ĥ å¤§
P P
å¤ļ çļĦ
om a
è¿Ŀ åıį
) ;
åĲĪ æĪĲ
L A
i ve
éĩı åŃĲ
ä¸º ä¸Ńå¿ĥ
å°ĳ æķ°
éĺŁ ä¼į
ä¸ĩ åħĥ
æĮ¯ åħ´
èµĦæºĲ çļĦ
r ation
ä¹ Ļ
p tion
åħ³ç³» çļĦ
è¡¥ åħħ
Î ¼
åĪ© çİĩ
åı¯èĥ½ ä¼ļ
åŃ Ļ
èĢĥ è¯ķ
ç½ĳç»ľ å®īåħ¨
å½¢æĪĲ çļĦ
çĶŁ çļĦ
l is
çĶµ åİĭ
_ {
Ġp ol
å¼º çļĦ
æľįåĬ¡ åĻ¨
ä¾Ŀ éĿł
æµ· æ´ĭ
æ ĩ
ĠThe se
es tig
Ġdevelop ment
åĩº æĿ¥
ar ly
è¾ĥ ä¸º
æĹ¥ å¸¸
åº Ĩ
ä¼ ¸
ç§ ¦
Ġch ang
i x
Ġcon f
r ug
èĢĮ ä¸įæĺ¯
å·® è·Ŀ
å·¥ èµĦ
åıį å¯¹
4 8
è¡¥ åģ¿
åİŁ åŃĲ
æĹ ¦
æ¼ ı
ä»ĸä»¬ çļĦ
æ¯ķ ä¸ļ
3 9
iti es
å® ĩ
åŃ ©
Ġreg ion
çĪ Ĩ
åĪĩ å®ŀ
S ec
Ġgen es
ä½ľ ä¸ļ
éĤ£ äºĽ
åĬ¨ æľº
% ï¼Į
ä¸Ģ æĸ¹
åĳ ¢
æ°ĳ æ³ķ
Ġd o
ç± į
åĪ¶ çº¦
5 6
æĪ ª
çļĦ æ¦Ĥå¿µ
æīĵ éĢł
è·Ŀ ç¦»
äºĨ ä¸Ģ
ĠC h
çļĦ æĬĢæľ¯
ç»ıæµİ å¢ŀéķ¿
åįģ åĽĽ
æ¸¸ æĪı
çļĦ æĢĿæĥ³
ãĢģ âĢľ
èĢ Ĳ
åħ³ èģĶ
å½¢ è±¡
Ġl im
å¾· åĽ½
Ġdec re
ãĢĤ âĢľ
å¸Ĥåľº çļĦ
èĥľ åĪ©
ä½¿ åĳ½
æ¸ łéģĵ
A I
E S
in k
ren t
åĵª äºĽ
åº Ħ
ç®¡ è¾ĸ
çī Ľ
è¯Ń æĸĩ
æĽ¿ ä»£
ic e
Ġindi vidual
re ated
äººæīį åŁ¹åħ»
åĬł åħ¥
å¥ ĳ
ç»ı å¸¸
b ib
ç»´ æĮģ
ï ½
Ġwith in
a i
Ġth ree
æľī äºĨ
åĭ Ĵ
åįģ äºĮ
j ec
D P
é¢Ħ æľŁ
Ĉ Ĉ
äºº ä¸İ
å¸¦ æĿ¥çļĦ
ä¼¦ çĲĨ
ä¼ ¯
çļĦ ç»ĵæŀľ
æĶ» åĩ»
æ¸ ¡
Ġn ormal
Ġap p
i tive
Ġim p
å°Ĩ åħ¶
å¯Į è£ķ
èµ ¢
æĹ¶ çļĦ
äºº å¤§
ç¤º èĮĥ
åį± å®³
æīĢ å¾Ĺ
éĿĴ å¹´
Ġimport ant
èĢĥ å¯Ł
ç»Ħç»ĩ çļĦ
R I
ãĢĤ "
Ġpartic ip
éª Ĺ
åĵį åºĶ
è®¸ åı¯
Ġinv estig
çļĦ åºĶçĶ¨
ç²¾ åĩĨ
Ġhig her
æĸ¹ éĴĪ
æĽ´ æĸ°
Ġne w
äºĭ çī©
éĢĤ åĲĪ
å¼º åº¦
ot he
E T
9 5
Ġpre vious
Ġincre ase
äºĭ æķħ
Ġtiss ue
æµģ éĢļ
çĭ¬ çī¹
Ġr at
E P
è¯ Ī
æĻ ļ
åıª è¦ģ
å±ķ ç¤º
Ġo cc
åĲĦ åľ°
åĳ½ è¿Ĳ
Ġdem onstr
Ġt r
Ġt ri
0 1
ä¸º ä»Ģä¹Ī
åħħåĪĨ åıĳæĮ¥
Ġy ears
ä¹ĭ è·¯
çļĦ æł¸å¿ĥ
èĻ «
é¥ °
in ation
Ġd ep
çĿĢ åĬĽ
äº¿ åħĥ
Ġmo lec
åįģ ä¸ī
è¡Įä¸º çļĦ
ä¸Ĭ å¸Ĥ
å°ı ç»Ħ
é¦ĸ æ¬¡
ä¸ ½
å· Ŀ
ä¾Ŀ çħ§
Ġinf ection
æĮ ĸ
æ¬ ²
ä¹ł æĥ¯
æ¢ ģ
èī¯ å¥½
åĪĳ æ³ķ
s et
ä½ Ľ
c on
å· ©
å» ī
åı¯ä»¥ éĢļè¿ĩ
rec t
ä¸ Ŀ
ãĢģ ãĢĬ
çĶ¨ äºº
æī £
ati s
æłĩåĩĨ åĮĸ
åĤ ¬
æĤ ¨
Ġre ported
Ġshow ed
æĭ Ĵ
å¥ ¥
å¤ª éĺ³
èī °
å§ ĵ
èĭ¥ å¹²
6 5
éĺ ´
çĥ Ł
éĽ Ħ
å£ ģ
A M
çļĦ æķĻèĤ²
åĩł ä¹İ
æľī äºĽ
in s
éī´ å®ļ
æĬ½ è±¡
Ġf re
æįŁ ä¼¤
é«ĺè´¨éĩı åıĳå±ķ
C O
å¹¶ éĿŀ
åģļ åĩº
Fig ure
åı¯ä»¥ åľ¨
Ġsign al
ĠA n
åıĺ éĩı
si ble
éĽ ·
æĿ Ĩ
èĥ ¶
èĩª ä¿¡
äºº åľ¨
æĸ° åħ´
åı Ļ
ä»£ çłģ
ä¸į åĨį
èħ º
Ġdes crib
o res
åĩº åı°
æİĪ æĿĥ
æ³ķ äºº
us t
åĨĽ éĺŁ
å «
å¼ķ åıĳ
å®¡ çĲĨ
Ġc ases
Ġin j
Ġs ome
æ¢ ¦
å¤ ı
è§Ĩ ä¸º
åĿĩ è¡¡
ç» ª
æ° ı
å®ŀ æĹ¶
åĴĮ åħ¶ä»ĸ
æŁ ±
æģ Ĵ
Ġmed i
æ¨ ª
è¿ĳ ä»£
å½ĵ åľ°
on al
ä¸º åŁºç¡Ģ
en si
ress ed
" ãĢĤ
é«ĺ çº§
èĥ Ģ
Ġle ad
äºº æĸĩ
4 4
å¨ģ èĥģ
ĠĠĠĠ ĠĠĠ
å¹ ¸
åıĳ è¡Į
ti s
201 6
åĪ° çļĦ
ä» °
ĠĠĠĠ Ġ
åĪĿ æŃ¥
ä¼Łå¤§ å¤įåħ´
Ġcon c
é¢ĳ çİĩ
è¯ķ çĤ¹
e k
Ġt arget
ä»£ è°¢
éª ¤
Ġmic ro
éĴ Ł
åĪº æ¿Ģ
Ġc al
éĩį å¤į
Ġm ark
æĿ¡ è§Ħå®ļ
ç¼º éĻ·
é² ģ
æĽ´å¥½ åľ°
Ġchang es
ä¸ª æĢ§
åĨľ äº§åĵģ
éģĹ äº§
è ķ
å§Ķ æīĺ
Ġrep res
æµ Ļ
20 19
Ġexper im
è¿Ļ å°±
A S
ä¸» è§Ĥ
åĢ Ĵ
çĤ ¼
æĿ ¨
ä¼ Ĭ
å¤ º
æĦ Ī
åĲ¯ åĬ¨
å¿ Ĩ
åĽ½ å¤ĸ
Ġres pec
èĤ¡ æĿĥ
ä¸į è¿ĩ
h a
Ġw ork
os ph
ĠI L
Ġim pro
âĳ ł
åªĴ ä»ĭ
ros s
è¿ İ
åĪ¶ ä½ľ
201 8
Ġinf orm
ab ol
åı «
åĻ¨ çļĦ
æĶ¯ åĩº
é¦Ļ æ¸¯
éħį åĲĪ
ä½Ĩ åľ¨
çº ¸
ä¼ł éĢĴ
ç´§ å¯Ĩ
æĻ °
ç¤¾ä¼ļä¸»ä¹ī çİ°ä»£åĮĸ
Ġgro w
å® «
åĮ ¹
Ġf inding
Ġth ose
æİ¥ è§¦
æıŃ ç¤º
åĸ ľ
çĥ §
Ġgroup s
æľ ±
éĹ´ çļĦ
å¤į åĲĪ
äºº ä¸º
ç¨ ¿
c o
é© ¾
é¥ ®
åįļ å£«
èĵ Ŀ
èª ī
è§Ĵ èī²
pl es
æĽ´å¤ļ çļĦ
äºĨ ä¸Ģä¸ª
å·© åĽº
4 7
å¯¹ åºĶ
æĲ ľ
ç»ĦæĪĲ éĥ¨åĪĨ
Ġch ild
çļĦ çī¹çĤ¹
ä½ĵ èĤ²
å°ı åº·
Ġinhib it
çļĦ æĥħåĨµ
ä¸Ģ é¡¹
uc le
og raph
Ġne ed
å¥ ł
ç² ī
å½ ¹
ä¿¡æģ¯ çļĦ
æĳ Ħ
æĸĩ æľ¬
ac tion
çĽĳ æİ§
åĬĽ åĴĮ
æī¹ åĩĨ
æĳ Ĩ
y d
è ļ
å´ ĩ
çİ ī
] ;
èµĦ æł¼
èĬ ¯
çļĦ æĶ¿æ²»
Ġd rug
ä¹Ł ä¼ļ
æģ °
ä½ĵçİ° äºĨ
ä¸Ģ å¸¦
åħ¨ ä½ĵ
Ġf e
éĶ ģ
æķħ éļľ
åħ¶ å®ĥ
åħ± è¯Ĩ
s es
u ce
er ation
Ġm ain
Ġb ec
å¡ «
åı ī
ä½¿çĶ¨ çļĦ
i ved
èĳ£ äºĭ
è®º è¿°
åįķ ä¸Ģ
æłĳ ç«ĭ
Ġrese arch
Ġ ç¬¬
éħ ¬
æ¾ ³
âĢĿ âĢľ
å¹¶ åľ¨
åı¬ å¼Ģ
ä¿® å¤į
è¾ Ĩ
èĦ ļ
çļĦ åĽ½å®¶
æļ Ĥ
è®¤ åĲĮ
ç¡¬ ä»¶
è¾¹ ç¼ĺ
é« ĵ
åĩĨ åĪĻ
åľ Ī
å¤§ å¤§
ĠD NA
n ing
z ed
çİ° æľī
åĵ Ī
un t
éĩĬ æĶ¾
èĩªåĬ¨ åĮĸ
çģµ æ´»
tain ed
äº ®
åĲĮ æĦı
æ¯ «
åĿ ¡
è¾¾ æĪĲ
ical ly
å¼º åĽ½
% ãĢĤ
ĠA s
å¹´ é¾Ħ
åĢ¼ å¾Ĺ
éĺ² æ²»
æķ ¢
åĨį æ¬¡
éĩĳèŀį æľºæŀĦ
tiv ity
åĢ¾ åĲĳ
è¿ĺ è¦ģ
çº ¹
çĶµ æµģ
è¸ ª
eng th
åħ¨ ä¼ļ
åį« æĺŁ
æ½ľ åľ¨
ä¼ Ļ
å¢ ¨
c op
è½ ´
ä¸ľ è¥¿
è¾ħ åĬ©
v ing
çī Ļ
çļĦ å½¢å¼ı
æİ¥ åı£
201 7
âĳ ¡
çļĦ åŃ¦ä¹ł
lec t
i o
è° ģ
åŃ© åŃĲ
è¾ Ĳ
èĤ ł
Ġb rain
Ġpro m
æĢİ æł·
ä¹ ĺ
æ· »
åĩ ¡
çŃī çº§
w ay
å¾ĭ å¸Ī
èŀį åħ¥
l as
20 00
æ» ĳ
c ent
åĩ Ń
9 9
ä¼ł æī¿
v es
çİ° çĬ¶
æľĢ å¤§çļĦ
Ġ1 5
P C
çļĦ ç§ĳåŃ¦
ĠĠĠĠĠĠĠĠĠĠĠĠĠĠĠĠĠĠĠĠĠĠĠĠĠĠĠĠĠĠĠĠ ĠĠĠĠĠĠĠĠĠĠĠĠĠĠĠĠ
åĩºçİ° äºĨ
ç»Ŀ å¯¹
7 8
ä¸Ģ è·¯
an e
di tional
Ġpot ential
ĠR es
-------------------------------- --------------------------------
], [@
å¾® çĶŁçī©
èĳĹ ä½ľ
ç¬Ķ èĢħ
æĥħ å¢ĥ
pt om
é¡ ¿
ç»ĵ æĿŁ
æĶ¿åºľ çļĦ
çĶ¨äºº åįķä½į
æ» ŀ
åıĸå¾Ĺ äºĨ
å¦ ĩ
åķĨ åĬ¡
ç»© æķĪ
å²Ĺ ä½į
æĿ¡ ä¾ĭ
Ġpred ic
æĹł æķĪ
é¢Ħ ç®Ĺ
åįģ å¹´
ain ing
è£ħ ç½®
a j
æĥ ©
ä¸Ńåįİæ°ĳæĹı ä¼Łå¤§å¤įåħ´
E M
ag ing
èģĮ å·¥
æīĭ æľ¯
201 5
Ġ â
ç§ĳæĬĢ åĪĽæĸ°
Ġres ult
åĬ³åĬ¨ åĬĽ
ç©º æ°Ķ
å¤§ éĥ¨åĪĨ
Ġre qui
Ġsugg est
çļĦ çĽ®æłĩ
æ³ ¥
å¤§ éĩıçļĦ
åĽł åŃĲ
è§£ éĻ¤
asc ular
Ġb as
èĤ¡ ç¥¨
Ġcons id
Ġmul ti
t able
æķı æĦŁ
ä¸į å°ĳ
èĲ¥ åħ»
éĻ ¶
çĶŁäº§ åĬĽ
ä¹ ³
æŃ¥ éª¤
å±Ģ éĥ¨
Ġse ver
è¡¨çİ° ä¸º
åĴ ¨
å¾ Ĵ
n ess
å»º æŀĦ
ate g
åĬŀ åħ¬
åı° æ¹¾
) ï¼Į
Ġa ffec
Ġp ost
é«ĺ éĢŁ
æıĲåĩº çļĦ
åĬŀ çĲĨ
6 4
å¤§ åŀĭ
5 3
æį ķ
æĭ ¿
æ´» åĬĽ
7 7
åıĳçĶŁ çļĦ
åĢŁ éī´
le v
ä¸į åı¯èĥ½
æĦıè¯Ĩ å½¢æĢģ
Ġfact or
èħ Ķ
èĤ ¯
éĿ¢ çļĦ
Ġe v
ç«ĭ åľº
ur al
Ġsy m
çłĶç©¶ äººåĳĺ
äººæ°ĳ å¸ģ
èĢģ å¸Ī
çĵ ¦
é«ĺçŃī æķĻèĤ²
éĺ Ķ
Ć ć
is ion
ä¸Ģ ä»£
ä¸Ģ æĹ¦
åŃ¦ å®¶
åįģåħ« å¤§
il ar
æľ¬ ä¹¦
ä½¿ åŃ¦çĶŁ
Ġcor rel
åĳ¼ åĲ¸
çĶŁæ´» çļĦ
å¿ ł
èĥ ¡
è¿Ľ åı£
æµĵ åº¦
çº¤ ç»´
ä¼ ı
an s
it er
æ¬ ¢
åıĺ åĬ¨
Ġt ype
èĤ ¾
æĬķèµĦ èĢħ
ater ial
äº§ä¸ļ éĵ¾
Ġf urther
éĢĤ çĶ¨äºİ
æī¿ åĮħ
åħ¬ çĽĬ
æ¡£ æ¡Ī
Ġconc entr
èµĭ äºĪ
åıĳå±ķ åĴĮ
åĪĻ æĺ¯
Ġo x
åľ° åĿĢ
å¼ı çļĦ
ä¸į åĪ°
çĲĨ çĶ±
ç¦ģ æŃ¢
Ġm or
æı Ĵ
èµ· è¯ī
èŀ º
åĪĴ åĪĨ
äº« æľī
æ´ ¥
è§Ĥ æµĭ
æĤ ī
; (
i e
ç§ ĭ
çŁ¥è¯Ĩ çļĦ
Ġidentif ied
çłĶç©¶ æīĢ
Ġinf lamm
æŃ£ ä¹ī
å· §
å¤§ è§Ħæ¨¡
I D
å¤§ å®¶
æ¶Ī éĻ¤
Ġmet abol
å¤§ å¹ħ
å¹¶ æ²¡æľī
Ġ1 2
èĥ½åĬĽ åĴĮ
" ãĢģ"
åĲĮ æŃ¥
è° ·
Ġocc ur
çļĦ æĹ¶åĢĻ
åŃ¦ ä¼ļ
Ġrecept or
P S
s pec
ç¨³å®ļ æĢ§
å¤© çĦ¶
th ough
Ġpro t
æĸ°æĹ¶ä»£ ä¸ŃåĽ½çī¹èī²ç¤¾ä¼ļä¸»ä¹ī
æĳ ĺ
ven tion
æĺ¯ ä¸ŃåĽ½
åĲĦ èĩª
ï¼ī ãĢģ
çļĦ åİŁåĪĻ
ä» ģ
åģĩ è®¾
æľº éģĩ
Ġl ong
æĹł çº¿
èĵ Ħ
è¯¦ ç»Ĩ
åıĳ èĤ²
Ġf ib
æĪĳåĽ½ çļĦ
Ġprotein s
æ¥ ¼
åĩºçīĪ ç¤¾
at or
çĶ ·
åŃ¦ä¹ł çļĦ
æĪ¿ åľ°
4 2
Ġ ,
æīĢ ç¤º
é¢ Ĺ
åĲĪ å¹¶
åģ ¶
B S
Ġc aus
é© ¶
å¹² é¢Ħ
ĠF or
ç®Ģ ç§°
åĲ¸ å¼ķ
ic s
å¾Ī éļ¾
Ġ +
âĢ ķ
## ##
4 6
è§ Ī
æĪ¿ å±ĭ
4 1
æīĢ éľĢ
ul in
åĵģ ç§į
u ff
y n
æī İ
åĬ¨ èĦī
Ġto tal
ç¼ ´
åĲİ æŀľ
ĠP ro
è´¢ å¯Į
Ġactiv ation
I C
5 7
éĥ ĳ
èĩ³ å°ĳ
aj or
åĮº åĪĨ
æ¸ħ æ¥ļ
æ¯ı å¹´
ain s
åĬ³åĬ¨ åĲĪåĲĮ
ç¼ĸ åĪ¶
æī¹ åĪ¤
çº³ ç±³
Ġdeter min
Ġ å¹´
Ġt yp
or ding
æĿĥ å¨ģ
Ġad dition
ä¸Ģä½ĵ åĮĸ
Ġvir us
ä¸» å¸Ń
åĽ½ éĺ²
å°ģ å»º
Ġpop ulation
9 8
Ġthe n
ä¸» ä»»
Ġe p
ä¸¾ æİª
-------- ----
åľ°åĮº çļĦ
è½½ ä½ĵ
} {
èĢĮ åľ¨
Ġre f
è®¤ çľŁ
è¾ĥ ä½İ
çĽĳ å¯Ł
é¦ Ī
ç»ĵæŀĦ çļĦ
in duced
è¡ Ķ
æĮĸ æİĺ
äºº çī©
ent al
ä¿Ŀ çķĻ
åĵģ è´¨
) :
Ġp ub
æĸ° æĬĢæľ¯
è¿ Ī
å° Ŀ
ĠĠĠĠĠĠĠĠ Ġ
çŁ ©
æ¸Ĺ éĢı
æľī åĬĽ
æĮĩ æķ°
Ġr ate
åħ¬åħ± æľįåĬ¡
Ġne uro
L C
å¯¹ æŃ¤
æĪĲ åĪĨ
I S
Ġ j
Ġt ech
Ġsm all
æī «
åıĺ æĽ´
ä¸»ä¹ī çļĦ
æī¾ åĪ°
éĢļè¿ĩ å¯¹
è®° èĢħ
Ġc are
lec ted
é¼ ł
Ġsec ond
oc h
åĩº èµĦ
ãĢĭ (
åĮ» èį¯
Ġra di
ç© ·
yt es
æ° ¨
ä¿¡ å¿µ
é«ĺ ä¸Ń
ä¸ŃåĽ½ å®¶
è ²
èĥ Ĩ
ç¬¬ ä¸Ģä¸ª
å¾Ĺ ä»¥
6 8
éĢī ä¸¾
Ġcar di
æĪĲ äºĨ
åºı åĪĹ
åĨ² åĩ»
èĥĮæĻ¯ ä¸ĭ
åĲ ´
Ġa v
éĢļ éģĵ
ä¸ª æľĪ
åİŁ å§ĭ
id em
å¾ ¡
ç¬¬ä¸Ģ çĻ¾
å¾ĹåĪ° äºĨ
Ġimmun e
A L
M S
çĶŁæĢģ æĸĩæĺİ
ç½Ĺ æĸ¯
åĽ½å®¶ å®īåħ¨
éĩĩ éĽĨ
å¤įæĿĤ çļĦ
æľī æĿĥ
æµ ®
æŃ£ å½ĵ
éħ Ĵ
P D
in f
er m
çĪ± åĽ½
è½¬åĮĸ ä¸º
è¯¾åłĤ æķĻåŃ¦
i or
åĲ ¨
äººæ°ĳ çļĦ
åĿļ åĨ³
æľī åºı
Ġc ult
éļı æľº
æ°´å¹³ çļĦ
è¯Ŀ è¯Ń
é ±
Ġcom mon
æľīæķĪ åľ°
å·¨ å¤§çļĦ
ãĢĤ ãĢĬ
é£İ æł¼
åĴ¨ è¯¢
å¤Ħ åĪĨ
åħ¨ å±Ģ
æ³ķ åĽ½
çİ° åľº
é«ĺ äºİ
æĦŁ çŁ¥
c le
å¼º çĥĪ
am et
", "
åľ¨ çº¿
åħ¶ å®ŀ
çŃ¾ è®¢
çļĦ ä»·åĢ¼
es ted
é± ¼
Ġb ased
a ir
è´ Ŀ
20 10
éĵ ľ
åĽŀ çŃĶ
ä¼ Ĳ
æķĪ åĬĽ
å¤ĸ äº¤
et y
è½¬ åĲĳ
if ied
ä»£è¡¨ å¤§ä¼ļ
å¯¹ æ¯Ķ
ç»ı åħ¸
çĲĨè®º åĴĮ
çļĦ é£İéĻ©
èĩ £
æ£® æŀĹ
çļĦ çĽ®çļĦ
ä»¥ åīį
Ġd el
æİ¥ æĶ¶
åıĳè¾¾ åĽ½å®¶
åıĺ å¾Ĺ
éŁ ©
éĨ Ĵ
Ġm ajor
ous e
å°ļ æľª
M C
Ġd ue
èº« ä½ĵ
æĻºèĥ½ åĮĸ
å¥ ı
5 8
Ġcont rib
åĿ Ĳ
ĠI t
èĥ ¸
çĸ« èĭĹ
at ely
å¹¶ ä¸įæĺ¯
è¿Ĳ ä½ľ
åħ±åĲĮ å¯Įè£ķ
åĬŁ çİĩ
çĶ ĺ
é¢ Ī
çĸ ı
å¸¦ åĬ¨
è§£åĨ³ æĸ¹æ¡Ī
ic ation
çļĦ ç®¡çĲĨ
æĦı å¿Ĺ
æĽ´ é«ĺ
èĦ± è´«
å°± åı¯ä»¥
ä»Ĭ å¹´
ç¨³ å®ļçļĦ
çļĦ æĸĩåĮĸ
Ġs o
å°ı åŃ¦
èĲ¥ éĶĢ
è§Ĩ è§Ĵ
æ¸ħ æĻ°
æķħ äºĭ
è¾Ĳ å°Ħ
åı ł
in c
é¢ ģ
an ti
äº¤ åıī
çļĦ éľĢæ±Ĥ
ä¸Ń åħ¨ä¼ļ
æľī äºº
èĬĤ èĥ½
è¯Ħ è®º
ï¼Ĥ ,
æī© å¼ł
çķ ´
å¥ł å®ļ
æĪ¿åľ° äº§
ä¿¡ ä»°
Ġ el
Ġ if
åĨ °
å¤§ å°ı
åºĶ æĢ¥
æĮĩ æĮ¥
åī ©
åħ¬ æŃ£
os pit
è®¤ è¯ģ
ãĢĭ ãĢģãĢĬ
e u
æıĲ äº¤
ç§ĳåŃ¦ å®¶
Ġcom b
å² ©
è§Ĩ é¢ĳ
ere st
å±Ģ éĻĲ
åĲĪçĲĨ çļĦ
åľ £
åī Ĭ
æ¦Ĥ æĭ¬
çļĦ ç²¾ç¥ŀ
æ°ĳ ä¼Ĺ
å¿ħè¦ģ çļĦ
Ġdescrib ed
is m
åįģ åħŃ
å¼ ĺ
è¯¸ å¤ļ
çļĦ åħ·ä½ĵ
ä¸Ĭ ä¸ĭ
t he
æ° ®
æĥħ èĬĤ
æĪĲ ç»©
å¿ĥçĲĨ åŃ¦
åĶ¯ ä¸Ģ
ä¸ī ç§į
Ġfollow ing
i od
ĠC on
æĿ¡ä»¶ çļĦ
ak e
ä¼ ª
Ġs et
ä¾Ŀ æ³ķæ²»
èĬ¯ çīĩ
ä½ľ çī©
ç»ı è´¹
Ġh ist
æ¯Ķ éĩį
éĤ ĵ
Ġdifferen ti
âĢĿ ãĢģâĢľ
æĶ» åĿļ
oin t
}$ $
ä¸Ģå¸¦ ä¸Ģè·¯
äº§ çī©
Ġv is
å¹¿ åĳĬ
åģļ æ³ķ
å® Ļ
ä¸ĭ åĪĹ
æİ¥ è¿ĳ
åĨį çĶŁ
Ġdis c
çĻ¾ åĪĨ
vers ity
I M
æĻ ĭ
çģ Į
ä¼łç»Ł æĸĩåĮĸ
å¯Ĩ åº¦
ing le
è£ħ å¤ĩ
enc y
Ċ ĠĠ
Ġan y
çŃī éĹ®é¢ĺ
çĽ¸ ä¼¼
æĬ¥ éģĵ
æĮĩ åįĹ
åıĳ çĹħ
è§Ĩ è§ī
çªģ åıĺ
åĮ¹ éħį
çĤ¹ çļĦ
Ġanal y
0 7
æ³ķ åŃ¦
åīį è¿Ľ
çļĦ æĿĥåĪ©
ĠC om
æĳ ©
Ġgrow th
A G
å± ı
å·¥ åİĤ
çļĦ åİŁåĽł
Ġf lu
om y
æĲ ŀ
T O
æľºåĻ¨ äºº
è² Į
æľī åı¯èĥ½
Ġl ar
ä¸ĵ é¡¹
E D
çļĦ å®īåħ¨
è¡ į
Ġe vid
èĪ Ĩ
ä¾Ŀ æīĺ
up plement
Ġsh ould
Ġreg ul
å¤ļæł· æĢ§
çļĦ è¿ĩç¨ĭä¸Ń
ve re
æĸ° åıĳå±ķ
æĮĩ ä»¤
éĩĩ è´Ń
ä¸» ç®¡
ä»·åĢ¼ çļĦ
Ġfinding s
åľ¨ ä¸Ģèµ·
æķ°åŃĹ ç»ıæµİ
ç«ŀäºī åĬĽ
ä½İ äºİ
æ» ¤
è´Ł æĭħ
é²ľ æĺİ
ä¸ºæł¸å¿ĥ çļĦ
Ġab out
åĲ ī
çİ¯ ä¿Ŀ
ä¸º æŃ¤
ç® ±
Ġd om
èĮĥ çķ´
Ġprim ary
çĶ¨ æĿ¥
æ´ ª
åĿ ¦
æī¶ è´«
å®ĩ å®Ļ
è¾ Ł
åıį é¦Ī
ç¿» è¯ĳ
Ġinform ation
ä½¿ åħ¶
åĵģ çīĮ
åıĳçĶŁ äºĨ
ha vi
] ^
åĨħ åŃĺ
çİ°ä»£ åĮĸçļĦ
201 2
Â °
çº¿ æĢ§
ç¹ģ èį£
æĺ¯ ä¸į
Ġd id
åįģ äºĶ
Ġstr uct
æıĲé«ĺ äºĨ
äº§çĶŁ äºĨ
åĲ« éĩı
o f
ä¸Ń æľī
Ġwith out
ç¼ĸ è¾ĳ
Ġrespec tively
R T
é¢ ľ
äºĭå®ŀ ä¸Ĭ
è½¨ éģĵ
^ [@
b r
çļĦ å¤ļ
çļĦ åĬŁèĥ½
ä¸Ģ æī¹
âĢ Ļ
Ġb re
æıĲ èµ·
éĢı æĺİ
Ġw ould
éķ¿ æ±Ł
çĸ Ĩ
Ġlow er
Ġ Y
èķ ´
ĠĠĠĠĠĠĠĠ ĠĠĠ
æĸ° ä¸ŃåĽ½
æĶ¿ åħļ
om en
æ°Ķ ä½ĵ
åľ° çļĦ
è®° å¿Ĩ
å¤© ä¸ĭ
èį¯ åĵģ
h ip
Ġtherap y
0 3
v ir
æĺ¾ çĦ¶
åºĶçĶ¨ äºİ
ç¬¬ä¸Ģ æ¬¡
Ġsim ilar
åħ¬ å®ī
4 3
Ĉ ą
Ġm y
Ġe ff
èĭı èģĶ
å·¥ äºº
åĩĿ èģļ
åĴĮ ç®¡çĲĨ
æ°ĳ çĶŁ
è¡ĮæĶ¿ æľºåħ³
Ġsur g
Ġrepres ent
è¡ Ĺ
åĮº çļĦ
æ¶Ī èĢĹ
å¦ »
Ġli ver
è¿ Ł
è½¦ è¾Ĩ
Ġsam ples
6 2
Ġre view
ä¿® è®¢
çļĦ ä¸ŃåĽ½
èĥ½ åĲ¦
ç¨ »
åįı ä½ľ
G DP
æĹ¥ èµ·
ä¹¡æĿĳ æĮ¯åħ´
çļĦ çŁ¥è¯Ĩ
åħ¨çĲĥ åĮĸ
åĪĨ åī²
åĬŀ åŃ¦
Ġexp l
* ,
éħį å¥Ĺ
Ġam ong
éĿ ¶
ä¾Ŀ çĦ¶
Ġsam e
Ġp e
æĦı æĢĿ
å®ĥ æĺ¯
èµ ŀ
æī¹ è¯Ħ
æ³ķ åĪ¶
æĸ¹ ä½į
åĪĨ æķ£
å¤ļ å¹´
æĶ¿çŃĸ çļĦ
Ġsur vi
c ed
å¤§ æ°Ķ
èµ ı
åı¯èĥ½ æĢ§
é» ĺ
æŀģ å¤§
Ġp at
ç¾İ å¥½
ref ore
æĶ¾ åľ¨
æħ İ
Ġ Î¼
æ¼ «
T T
è¾ĥ é«ĺ
ç¬¦ åı·
èħ ¹
Ġdes ign
S t
å¹ ķ
æ° Ľ
å¤ĸ åĽ½
çŁŃ æľŁ
Ġex t
åħļçļĦ åįģåħ«å¤§
an ge
è¿ľ ç¨ĭ
g ree
æ´ Ľ
å¤Ħ ç½®
å®¡ ç¾İ
æĲ Ń
N F
å µ
å¼º å¤§
çĦ Ĭ
åŃĺåľ¨ çĿĢ
èĤ¡ ä»½
te x
Ġhe p
5 5
ĠA d
æŁĲ ä¸Ģ
t o
éļ Ĩ
èģĶåĲĪ åĽ½
èĳĹ åĲį
èħĲ è´¥
d om
ä¿¡ ä»»
åĩı è½»
å§Ķ ä¼ļ
åı¯æĮģç»Ń åıĳå±ķ
å±Ģ éĿ¢
Ġwhe ther
åĲ« ä¹ī
ç¨ Ģ
å¤ļ æ¬¡
Ġ X
æĪĲ æķĪ
Ġgene tic
å¥ ¹
å½ ¼
æĭ į
ĠT o
éĺĲ è¿°
Ġl ung
åĽ¢ ä½ĵ
è¶ħ è¶Ĭ
æŃ£ç¡® çļĦ
æ°ĶåĢĻ åıĺåĮĸ
æº ¯
åľº æīĢ
èĢĥ åı¤
èı ľ
6 6
åıĳ çĶµ
ä¸ŃåĽ½ å¼ı
å¡ Ķ
èĽĭçĻ½ è´¨
åĢº åĪ¸
èĩªèº« çļĦ
æĴ¤ éĶĢ
æ¶ ¨
æĬµ æĬ¼
W e
20 22
éĹ´ æİ¥
åŀ Ĥ
Ġ3 0
è¡Ķ æİ¥
c ell
äº¤ äºĴ
å¯ ¿
ä¸į èī¯
S S
an n
çĽ¸ åıį
Ġ1 8
å»ºç«ĭ äºĨ
æĸ°æĹ¶ä»£ä¸ŃåĽ½çī¹èī²ç¤¾ä¼ļä¸»ä¹ī æĢĿæĥ³
f ore
é ¹
ä»¥ ä¸ĬçļĦ
Ġpres ence
M D
æĮ Ĥ
æĢĿ æĶ¿
æĹł äºº
æ¯ı ä¸Ģä¸ª
201 4
ĠĠĠĠĠĠĠĠĠĠĠĠ Ġ
å¢ŀåĬł äºĨ
med i
Ġkn own
Ġchild ren
Ġc r
ä½ĵåĪ¶ æĶ¹éĿ©
çĤ Ń
Ġdiagn os
åº Ĺ
ç¬¬ åħŃ
åĿ Ľ
è¿Ľè¡Į çļĦ
å¸Ŀ åĽ½
Ġhyp er
C L
æĺ¯ ä»Ģä¹Ī
Ġp ers
Ġ1 00
201 3
Ġ Z
å¾ ½
å¤ĸ çļĦ
e tic
Ġ ä¸Ģ
åľ¨ è¿Ļ
æĪĳä»¬ è¦ģ
æħ Ī
ä¸ī å¤§
ä¸Ńåħ± ä¸Ńå¤®
it her
å» ·
ä¼ĺ è´¨
åĪĨ å·¥
ç«ĭ è¶³
æĬĢæľ¯ åĴĮ
æµĻ æ±Ł
ï¼ ģ
æĥħ ç»ª
æĢ» éĩı
å·¥ä¸ļ åĮĸ
åĨĻ ä½ľ
Ġsym ptom
éĤ »
çĽ® çļĦæĺ¯
è¶³ å¤Ł
Ġl ine
èĮ ¶
ä¿Ħ ç½Ĺæĸ¯
Ĉ ć
å¤į åĪ¶
è¾¹ çķĮ
Ġval ues
upplement ary
ä¸Ń éĹ´
äºº æł¼
Ġ( **
æŃ¤ æĹ¶
éĺ¶ å±Ĥ
ä¾µ å®³
æľª æĪĲ
è¯īè®¼ æ³ķ
ĠĠĠĠĠĠĠĠ ĠĠ
Ġtrans cri
æĹłè®º æĺ¯
äººåĬĽ èµĦæºĲ
çļĦ æľīæķĪ
ä¸į åĪ©
çĮ ª
Ġcomp ar
çº³ ç¨İ
ç»Łä¸Ģ çļĦ
Ġs it
ä½į äºİ
å¾ Ĳ
æ¦Ĥ çİĩ
ç¢³ æİĴæĶ¾
I L
çļĦ ä¸įåĲĮ
ä¸º ä¾ĭ
å®ļ æľŁ
åįł æľī
ç¦ı åĪ©
çĶµ ç½ĳ
Ġpro f
ĠN o
æ³¢ åĬ¨
Ġab s
ç§¯æŀģ æĢ§
Ġwh ile
èħ Ĭ
å°Ŀ è¯ķ
æį ·
æ³ķå¾ĭ æ³ķè§Ħ
è¡¥ è´´
åŁİéķĩ åĮĸ
æķ° é¢Ŀ
ron ic
ä¸ ģ
Ġcl ass
0 2
æ³ Į
å¤§ åĽ½
åľ°æĸ¹ æĶ¿åºľ
æĽ² çº¿
çļĦ çĽ¸åħ³
åĲ ĥ
å¢ŀ åĢ¼
èį Ĳ
åĮħ è£ħ
Ġcur rent
äºº ç¾¤
ä½ĵç³» åĴĮ
ĠM ed
ĠH e
200 8
min ist
çĳ ŀ
ä½İ ç¢³
ä»ħ ä»ħ
åĽ½æľī ä¼ģä¸ļ
er v
Ġmem b
i el
å¢ Ļ
æ¢ ¯
æ½ľ åĬĽ
å¯¹ è¯Ŀ
âĢ ĺ
çģ¾ å®³
èģĮ åĬ¡
Ġdis ord
ãĢĭ ãĢĬ
Ġpro l
ĠE x
åĽ½ æĥħ
è®¡ éĩı
éĺ² èĮĥ
Ġs ingle
åħ¨ è¿ĩç¨ĭ
åĢŁ åĬ©
Ġmon th
å¿½ è§Ĩ
ä» ĵ
åıĳ æĺİ
å¤§ åŃ¦çĶŁ
æĢ§ ä¸İ
è¾ ī
åĽ¾ ä¹¦
æķĻåŃ¦ ä¸Ń
ç£ ·
N P
çī¹ å®ļçļĦ
éĥ½ ä¼ļ
åľ¨ æĪĳåĽ½
çī §
ç¤¾ä¼ļ ç§ĳåŃ¦
çĹħ äºº
Ġmodel s
èī² å½©
å¼ķå¯¼ åŃ¦çĶŁ
ä¸Ģ å¹´
åıį æĢĿ
ä¾µ çĬ¯
åĶ¯ çī©
éº ¦
l ation
çķ ħ
å¹¸ ç¦ı
å¹¿ ä¸ľ
éļ¾ é¢ĺ
æĻ® åıĬ
ospit al
Ġin iti
éĽ ħ
Ġs ensi
Ġc ir
Ġag ain
lis hed
äº§ éĩı
âĳ ¢
æľĢé«ĺ äººæ°ĳæ³ķéĻ¢
åİĨåı² ä¸Ĭ
ç¨İ åĬ¡
äºĳ è®¡ç®Ĺ
ym ph
éģµ å®Ī
è ¹
ä»¥ æŃ¤
åħļçļĦ é¢Ĩå¯¼
å¯» æī¾
èµ µ
Ġre duced
åĲİ æĿ¥
æł· æľ¬
å·² æĪĲä¸º
Ġper iod
T able
æĸ¹ ä¾¿
èģĶ çĽŁ
æĺ¯ æľĢ
åħ¨ åħļ
Ġst and
éĵ ¸
åįķ çĭ¬
çļĦ ä¼ģä¸ļ
æģ Ĳ
æľįåĬ¡ ä¸ļ
èĪª ç©º
ar m
æıĲä¾Ľ çļĦ
Ġbe havi
å¤± è´¥
è´§ çī©
è¯Ī éªĹ
éĢ ĥ
te g
éĤ ®
Ġpos itive
M O
åĲ Ĺ
åıĳå±ķ ä¸ŃåĽ½å®¶
åĻ ª
çļĦ éĩįå¤§
es is
åħļåĴĮ åĽ½å®¶
Ġc at
å°ı æĹ¶
çļ Ĩ
çļĦ æł¹æľ¬
et es
Ć ą
åĨ³ è®®
ä¸ §
ä¸İ åħ¶ä»ĸ
å±ķ çİ°
qu e
æİĴ éĻ¤
çĶŁæĢģ ç³»ç»Ł
ä½ĵçİ° åľ¨
è®° è½½
Ġaut h
çī µ
æ´ Ĺ
ä¹¡ éķĩ
å¥ ´
ç² Ĺ
å·² æľī
çļĦ è®¤è¯Ĩ
çī© æĿĥ
ç§į ç±»
å±ħ ä½ı
è¾© è¯ģ
Ġbe fore
it ro
Ġn ucle
Ġl ess
åı¦ ä¸Ģä¸ª
g ative
ãĢĤ ï¼Ī
æ³ķ å®ĺ
ad e
çĶŁ çĲĨ
ä¸¤ èĢħ
Ġwe ek
è¾ Ľ
6 7
Ġm al
Ġph osph
å¸Į èħĬ
ot her
Ġst ress
æī¿ è¯º
å½» åºķ
Ġc y
æĽ´ æĺ¯
Ġinf lu
Ġdifferen ces
åĪĨå¸ĥ å¼ı
Ġ åĴĮ
æĸ¹ ç¨ĭ
å½ °
æĶ¿ åĬ¡
å®¹ éĩı
hes is
re en
å¤§ äºİ
æ¯ ģ
Ġre t
od ies
å¯¹ æİ¥
å¤§ ä¼Ĺ
es ts
ä¸İ æŃ¤
åįı ä¼ļ
åĽ½åĨħ å¤ĸ
Ġcomple x
Ġdiagn osis
ä¸¥éĩį çļĦ
æŃ §
è¿Ļ ç±»
ĠH IV
åĨ³ äºİ
æĹ¨ åľ¨
os s
æµģ éĩı
åĲį ç§°
çļĦ åıĳçĶŁ
Ġdise ases
é©¾ é©¶
å°Ĩ ä¼ļ
çĽ¸äºĴ ä½ľçĶ¨
Ġc hem
ä¹Ł è¦ģ
å§ »
è´Ł åĢº
Ġexp os
ç¼ĸ çłģ
Ġp ress
åħĪ åĲİ
è£ģ å®ļ
æĢİ ä¹Ī
æīĢæľī çļĦ
åĢºæĿĥ äºº
Ġgl uc
åıĸ åĨ³äºİ
ä¸į åıĺ
èĩ³ ä»Ĭ
å¹² æī°
ç¡ «
çİ¯å¢ĥ çļĦ
äºĶ å¹´
Ġpl as
Ġprovid e
èĤ ĥ
çŁ³ æ²¹
Ġser um
å¼ ¥
ä¿Ŀ åŃĺ
Ġes tim
ä»¥ å¾Ģ
èģ ĺ
åĻ¨ ä»¶
åŁ¹åħ» åŃ¦çĶŁ
Ġmechanis ms
A l
m e
æ³ ¡
om et
Ġ1 1
j ect
åľ¨ ä¸Ģå®ļ
æľī ä¸Ģä¸ª
Ġb inding
æľīéĻĲ åħ¬åı¸
ç»ĺ çĶ»
æĺ¯ æĪĳåĽ½
æľī æĹ¶
ä»¥ ä¾¿
Ġc le
æĭ Ķ
éļ ¶
è®¤ åı¯
éĢłæĪĲ çļĦ
æĺİæĺ¾ çļĦ
Ġpartic ular
Ġidentif y
p ir
èµ ģ
åĪĨ äº«
Ġm m
è¿Ŀ çº¦
Ġph ys
Ġ ^
æī¿ è®¤
æ¼Ķ åıĺ
\ *
åħ¬ éĩĮ
ç§ĳåŃ¦ æĬĢæľ¯
æļ Ĺ
æľ Ĺ
in u
ro w
åĢŁ æ¬¾
m it
çļĦ åĪ¶åº¦
çļĦ è§Ĵåº¦
ep ti
çº¢ èī²
ç§Ł èµģ
åıĳ éĢģ
ä¸İ ç¤¾ä¼ļ
ar di
if e
éĺ² æİ§
å®ŀ çĶ¨
æľ¬ ç§ĳ
æľĢ ä¸º
æļ ĸ
b ased
åŃ ¤
Ġs k
ä¸ĵ é¢ĺ
å¸Ī èĮĥ
Ġt em
è¯ģ ä¹¦
Ġprom ot
çļĦ çĶŁäº§
å¯ Ħ
çº ½
çķĮ å®ļ
æĦŁ è§ī
ific ation
Ġsurvi val
è¡ £
åľ° éľĩ
èĢħ åĴĮ
åīį æĻ¯
Ġex tr
æıĲ åıĸ
å®ī è£ħ
oc ytes
çīĪ æĿĥ
ä¹łè¿ĳå¹³ æĸ°æĹ¶ä»£ä¸ŃåĽ½çī¹èī²ç¤¾ä¼ļä¸»ä¹īæĢĿæĥ³
7 9
å¿ ĺ
ç« Ł
æłĩåĩĨ çļĦ
ä¸ĩ äºº
ç Ĵ
å¯ ¸
åİĨ ç¨ĭ
æĤ Ł
ä¸°å¯Į çļĦ
l ine
ti es
æł¡ åĽŃ
åł Ĩ
åħ¬ å¸ĥ
Ġe arly
æ· ĭ
are n
Ġevid ence
çĽ®æłĩ çļĦ
ut ed
åİŁ åĳĬ
Ġinclud ed
æĭĴ ç»Ŀ
* -
æĬ «
Ġc ap
Ġf am
çĭ Ń
ç³ĸ å°¿
è ľ
å¤§ åĪ©
ent er
ni versity
5 4
Ġ ï¼Ī
è§£ è¯»
æİ¨ èįĲ
éĿĻ èĦī
åµ Į
+ ^
ä¸į å¤Ł
ur y
ä¿® æŃ£
! [
åĬĽ åŃ¦
è¿Ļ å°±æĺ¯
æµģ è¡Į
åĪĽéĢł æĢ§
æĿ ľ
æµģ åŁŁ
å°ĳ å¹´
çĻĮ çĹĩ
åħ·ä½ĵ çļĦ
å¼ĺ æī¬
å®¡ æł¸
} }
åĩ ¸
al ity
ç§į æ¤į
ä¹Ł å°±
Ġ )
åĴĮ å®ĮåĸĦ
åľ° åŁŁ
åīį æ²¿
çł´ äº§
äºİ æĺ¯
ä¸» æµģ
Ġinvol ved
B P
æİ¨ è¡Į
Ġis ol
å¤± åİ»
åĳ¨ åĽ´
å©ļ å§»
çļĦ éľĢè¦ģ
ä¹Ł åı¯
æ¶ Ĥ
Ġad v
A N
æĺ Į
åı¯ä»¥ è¯´
Ġor g
â ħ
èĲ¥ éĢł
o ve
äºº ä½ĵ
è¿ĩ åº¦
è¿ĩç¨ĭ ä¸ŃçļĦ
çļĦ åīįæıĲ
åĲĪ çī©
äºĭ æĥħ
åĽ½å®¶ åĴĮ
ä¹ĥ èĩ³
s ec
di tions
çŃ Ľ
åįı å®ļ
ĠR NA
T h
å¼ Ĭ
ä¸ī å¹´
èį ¡
è®¤è¯Ĩ åĪ°
å¼¹ æĢ§
r s
çļĦ åĽ½éĻħ
æ³ Ħ
ç³» æķ°
çļĦ ç»ĵæŀĦ
èĦ Ĭ
Ġob tained
ĠAl l
å« Į
æ ¦
çĽ Ī
Ġl ymph
æ¿Ģ æ´»
åĭ ¤
Ġdemonstr ated
ä¸į åĬ¨
åĦĴ å®¶
æ¸ħ æ´ģ
ç¼ĸ åĨĻ
l ial
] {
åĬ £
èĥ İ
æ¬ ł
åĽ½å®¶ æ²»çĲĨ
è¿ĺ åı¯ä»¥
é¡¹çĽ® çļĦ
åĪ¶ çļĦ
ç³ĸå°¿ çĹħ
æĶ¿ æĿĥ
ä¸ĸçķĮ ä¸Ĭ
è½¬ è½½
Ġv ol
ç¢ İ
äº¿ ç¾İåħĥ
äºĨ ä¸ŃåĽ½
ä¸ī è§Ĵ
æķ´ çĲĨ
A s
i um
w ork
Ġp hen
æ°ĳ èĲ¥
Ġparticip ants
Ġav ail
ä¾ ¦
ç®¡çĲĨ åĴĮ
èģĶ éĤ¦
Ġunder st
D M
is sion
è·¯ çĶ±
å»¶ ä¼¸
å¼ķèµ· çļĦ
æ·» åĬł
Ġsever al
R F
è§Ĩ éĩİ
anc ed
ç¼ĵ è§£
å· ¡
Ġm us
åŃ¦çĶŁ åľ¨
å°ı çļĦ
ä»ª åĻ¨
åĪĨ è§£
åĬ¨ ä½ľ
æīĵ çł´
ist ance
æ±ĩ çİĩ
t y
æķ ¬
Ġs ol
å¥ ī
çĶµ æºĲ
è¥¿ éĥ¨
Ġ5 0
Ġfre quenc
å° ĸ
Ġp rac
æĸĩ çī©
åĲĦ æĸ¹
ç±»åŀĭ çļĦ
yd ro
Ġagain st
è¦ģ åľ¨
ç³»ç»Ł ä¸Ń
æ»¡ æĦı
Ġdi ab
è£ģ åĪ¤
Ġanal ys
ç»ıæµİç¤¾ä¼ļ åıĳå±ķ
og ni
çºª å¾ĭ
äºĭä¸ļ åįķä½į
w ard
æķĻå¸Ī çļĦ
R P
ä¸Ń çŃī
èĢ ³
çĶµ ç£ģ
éļ¾ åº¦
Ġen h
Ġrespon ses
7 6
çļĦ ä½¿çĶ¨
åıĳ å°Ħ
ä¹ĭ æīĢä»¥
åĩº æĿ¥çļĦ
åħĪ çĶŁ
ç»´ åº¦
éº »
jec ts
æľĢ ä½İ
åĳ½ ä»¤
çľŁ çĲĨ
ç»ıèĲ¥ èĢħ
Ġpro b
çĲĨè®º çļĦ
è¡Ģ æ¶²
es ion
è¿ĩ æ¸¡
ä¸»è¦ģ æľī
ĠI m
ä¸ĸçķĮ çļĦ
ä¼Ĺ å¤ļ
è´Ł è½½
åĬłå¼º å¯¹
cl ass
Ġm at
åĽŀ å½Ĵ
å½Ĵ çº³
m ine
æł ĵ
Ġb ody
åĲ¦ åĪĻ
è¾ ŀ
Ġd ays
å½ĵ ä»Ĭ
çª Ĺ
åħĭ æľį
o ol
ï¼ ĳ
ä¹¦ éĿ¢
ç¢ ±
Ġexp ressed
ap p
Ġcult ure
5 2
åĪ Ģ
åĪ ł
å¦Ĥ åĽ¾
ç²¾ åº¦
ç²¾ ç¡®
èİ «
æ´»åĬ¨ ä¸Ń
R S
p p
u ally
æ¬ º
å°ı å¹³
ä¸ľ åĮĹ
åĤ¬ åĮĸ
F N
çļĦ è®¾è®¡
åĴĮ æĸ¹æ³ķ
è®² è¯Ŀ
se qu
as is
æĥ³ è±¡
ç¼ĸ ç¨ĭ
Ġbec ause
ä¿¡ è´·
å®¡ æī¹
Ġmethod s
Ġ x
å¼º å¤§çļĦ
Ġpos sible
åĢ¡ å¯¼
ar c
ä¼ł æŁĵ
Ġcon ditions
ĠĠĠĠĠĠĠĠĠĠĠĠ ĠĠ
Ġg reat
åŁºåĽł ç»Ħ
Ġar ter
éŃ ı
Ġb en
å¢ŀ éĢŁ
æİ¢ æµĭ
åĲİ èĢħ
æŃ¦ è£ħ
é ŀ
æĮĩ å®ļ
å±± ä¸ľ
sy ch
Ġmeasure d
5 00
ä¸º ä»£è¡¨
Ġp ur
è°Ī åĪ¤
æł¸ ç®Ĺ
Ġt ra
å¯¹ æĸ¹
èĤ² äºº
æĹł çĸĳ
èĸ ª
ä¸ ²
Ġre ve
å¼ķ è¿Ľ
åİĨåı² çļĦ
åħļçļĦåįģåħ«å¤§ ä»¥æĿ¥
è¡¨ è¿°
åħļ å§Ķ
æľĢ è¿ĳ
ĠF ig
æĬĹ æĹ¥
Ġpress ure
å¤§ èĦĳ
å¤§ éĻĨ
Ġat t
Ġcont r
Ġsam ple
éĨ ĩ
åĲĪæ³ķ æĿĥçĽĬ
Ġcharacter is
9 7
Ġ äºĮ
çļĦ å¸Ĥåľº
çļĦ æłĩåĩĨ
ol es
èģļ çĦ¦
è¿ģ ç§»
ä¸»è¦ģ åĮħæĭ¬
å¸Ī çĶŁ
æŁĲ ä¸ª
èĪª å¤©
Ġre d
Ġe ither
ä¾¿ åĪ©
Ġdeter mine
ï½ ŀ
s c
æĸ° èĥ½æºĲ
åħ³ èĬĤ
éĥ½ è¦ģ
ĠF urther
8 8
æĽ °
è°ĥ çłĶ
Ġsignal ing
ä¸Ń åŃ¦
åľ¨ è¿Ļç§į
åĨ »
æľĢ æĹ©
ç®Ģåįķ çļĦ
Ġman y
i ly
Ġs ize
åī ¥
st e
æīĢæľī æĿĥ
å¤ļ å°ĳ
åįĹ äº¬
Ġdi rect
æ¬§ çĽŁ
ç§ĺ å¯Ĩ
N T
Ġ1 4
Ġst atis
åĳ½ é¢ĺ
Ġad minist
y si
çĶŁ åĬ¨
åĽ¾ å½¢
ç»ĥ ä¹ł
é© »
æŁĵ èī²
Î ³
Ġ Q
at us
spec ific
1 000
æĽ´ å¤§
ç¾İ åŃ¦
200 5
ä¸»ä½ĵ çļĦ
ä½ı æĪ¿
è´§å¸ģ æĶ¿çŃĸ
Ġpat tern
æħĪ åĸĦ
6 3
å·® åĪ«
Ġre ce
Ġn ec
æĢĿæĥ³ æĶ¿æ²»
ain ed
å¼Ĥ è®®
é¡º åºı
å° ¾
å¹³ éĿ¢
æł· çļĦ
çĩĥ æĸĻ
ä¸Ģ éĥ¨åĪĨ
éĹ ²
è¢« ç§°ä¸º
ĠC T
ç»Ĩ èıĮ
åĲĮæĹ¶ ä¹Ł
ä¼° è®¡
Ġmonth s
p ar
Ġm ac
éĢļ è®¯
åºĶçĶ¨ ç¨ĭåºı
u le
åįģ ä¸ĥ
æľª æĿ¥çļĦ
èĨ ¨
f ul
ro up
Ġf oc
çı ł
èĥ °
Ġad d
ï¼Į ãĢĬ
éŃ Ĥ
æµ ħ
å®ŀ åĬĽ
å¾ģ ç¨ĭ
åĪĿ æľŁ
çĥŃ çĤ¹
rel ated
æı´ åĬ©
ä¸İ åıĳå±ķ
è®º è¯ģ
åıĹ çĲĨ
æµĭ å®ļ
çŁ¥è¯Ĩ åĴĮ
æĩ Ĥ
åľ° ä¸ĭ
ç³ Ĭ
èµĦäº§ éĺ¶çº§
è¡¡ éĩı
åı¯èĥ½ æĺ¯
. [
f s
f ace
è¾ĥ å¤§çļĦ
è¡Ģ åİĭ
5 9
C M
Ġrel ated
ici ent
Ġg ra
ç§ĳåŃ¦ çļĦ
å¸¦ é¢Ĩ
eg in
ï¼ Ĳ
å® ¿
åıĸ ä»£
æł· åĵģ
çģ °
Ġt reated
ic k
å¹¶ æľª
åīį çļĦ
ç¼ Ķ
Ġst rain
åıį å¤į
è¯ķ åĽ¾
è¯± å¯¼
it or
è¿ĩç¨ĭ çļĦ
ĠU niversity
Ġtum ors
æ°ĳæ³ķ åħ¸
æĦŁ åıĹ
çĶŁæ´» ä¸Ń
Ġch ronic
æ®ĸ æ°ĳ
â Ħ
åľ¨ è¿Ļä¸ª
é«ĺ èģĮ
Ġe pit
åħļ åĨħ
å¾Ī å¤§çļĦ
åĨħå®¹ çļĦ
çº¢ åĨĽ
çĨŁ æĤī
om ic
åŃĲ çļĦ
lo b
Ġsup p
Ġlar ge
: (
i ven
Ġ i
ro und
ç¡® å®ļçļĦ
Ġl esion
Ġ2 4
Ġhe l
æķ° çļĦ
ç¡ ķ
èĬĤ çº¦
æ¶Ī æģ¯
æĿĲæĸĻ çļĦ
Ġm it
åħ¬ å¼ı
ä¸ŃåĽ½ ç»ıæµİ
å£° æĺİ
Ġli k
Ġprevious ly
ab ly
ç»Ĩèĥŀ çļĦ
Ġval ue
è´¦ æĪ·
el f
ä¹Łå°±æĺ¯ è¯´
åľ ³
Ġl ab
å¤± ä¸ļ
b egin
æĤ£èĢħ çļĦ
éĤĵ å°ıå¹³
, ãĢĬ
Ġc ase
çŃī æĸ¹éĿ¢çļĦ
çĻ¾ å§ĵ
ä¹Ł åľ¨
ä¸įæĸŃ æıĲé«ĺ
äºº åĴĮ
æĸĩ èīº
äºĴ çĽ¸
çĥ ¯
ç»Ī ç«¯
åĿļæĮģ ä»¥
åĽ½æ°ĳ ç»ıæµİ
éĵģ è·¯
é¢ģ å¸ĥ
P CR
å»ºè®¾ åĴĮ
è¯´ çļĦ
åħħ æ»¡
){ #
Ġloc al
Ġcal c
u k
çļĦ æĪĺçķ¥
ä½ľ æĪĺ
æĭ Ĩ
ell ular
ri al
åģľ æŃ¢
å¤ ľ
æĸ° åĨł
æĮĩ ç¤º
æķĻåŃ¦ çļĦ
Ġacid s
ä¸Ń åĴĮ
ul es
ä¸ľ æĸ¹
äººåĳĺ çļĦ
çļĦ çİ¯å¢ĥ
æĿ °
er c
çİ° è¡Į
åħ¬ çº¦
Ġl ip
å°½ åı¯èĥ½
é¡º åĪ©
å¯¹ ç«ĭ
æ· ¡
å¸¸ è§Ħ
ter s
èĪ į
çľĭ åĩº
æĭħ å½ĵ
Ġde ath
arg in
Ġmed ical
åİ ħ
å¼Ģ è¾Ł
èĩ³ åħ³
æ¯ı ä¸Ģ
å¾® è§Ĥ
æĬ ¢
äº¤ å¾Ģ
Ġimpro ve
ä¸» æĿĥ
æĹ¶ æķĪ
æĽ ¼
æ·± åľ³
re t
åľ¨ åħ¶
çŃī æĸ¹å¼ı
éĩįè¦ģ ä½ľçĶ¨
ä¹ĭéĹ´çļĦ åħ³ç³»
é¥ ²
è´¯ ç©¿
éļĲ ç§ģ
Ġstand ard
m ic
n er
w ays
æŀĦ éĢł
èĲ ¨
åĪĿ å§ĭ
æĻ¯ è§Ĥ
èĪĨ è®º
u it
çĶ¨ åľ°
å®ŀ ä¾ĭ
Ġin teg
ä¸İ åħ¶
ä¸ī ç»´
éĽĨ åĲĪ
ç»ĵæŀĦ æĢ§
Ġse qu
. ãĢĬ
æ³ ī
ä¹ĭ ä¸ĭ
Ġl oss
Ġmet ast
å¯» æ±Ĥ
äºº å¯¹
å¿ §
Ġd ys
çĹħ åıĺ
æ³ °
lec tion
Ġind ependent
9 6
æłĩ çļĦ
çĵ ¶
å¤« å¦»
r in
åĪ ·
çłĶç©¶ åĳĺ
æĺ¯ æľī
è¿Ļ é¡¹
åı¤ åħ¸
ĠU n
çļĦ åı¯
çķ ľ
æ» ¥
ä¿ĥ ä½¿
201 1
åĨľä¸ļ çĶŁäº§
æĦıä¹ī ä¸Ĭ
å¸¦æĿ¥ äºĨ
5 1
å¸Ĥ æ°ĳ
è¦ģ æľī
ens ity
åıįæĺł äºĨ
æħ¢ æĢ§
ä¼¼ ä¹İ
d rom
çļĦ æĹ¶ä»£
ä¸į å¼Ģ
èĤ¯ å®ļ
0 8
å¯¹ ç§°
Ġ1 6
äººæ°ĳ ä»£è¡¨å¤§ä¼ļ
åĮ» çĶŁ
ran e
Ġint erest
éĽ ķ
æł¼ å¼ı
æ¿Ģ åħī
M I
å¹¶ å°Ĩ
s tit
æĿĥ éĻĲ
è°ĥ åĬ¨
200 9
çĶµåŃĲ åķĨåĬ¡
ĠĠĠĠĠĠĠĠĠĠĠĠĠĠĠĠĠĠĠĠĠĠĠĠĠĠĠĠĠĠĠĠĠĠĠĠĠĠĠĠĠĠĠĠĠĠĠĠĠĠĠĠĠĠĠĠĠĠĠĠĠĠĠĠ ĠĠĠĠĠĠĠĠĠĠĠĠĠĠĠĠĠĠĠĠĠĠĠĠĠĠĠĠĠĠĠĠĠĠĠĠĠĠĠĠĠĠĠĠĠĠĠĠĠĠĠĠĠĠĠĠĠĠĠĠĠĠĠĠ
U S
åıĳ åĩº
éģ £
ot ype
æĹ¶ä»£ çļĦ
ä¹ Į
Ġt er
äºº èº«
è§Ħ ç«ł
èµ· æºĲ
ver se
çľĭ æĿ¥
éĺ² æĬ¤
å¦ ¥
ç£ ¨
æº¶ æ¶²
èĨ¨ èĥĢ
å¯¹ æĬĹ
Ġs ep
èµ ¤
ç¤¾ä¼ļ ä¿Ŀéļľ
ä¸ĭ æĿ¥
åıĺ æĪĲ
åħ¨éĿ¢ å»ºæĪĲ
Ġim aging
åĪ©çĽĬ çļĦ
äºº åĿĩ
æİ ī
éĴ Ļ
æ¦Ĥ è¿°
N S
ä¸Ń æīĢ
ä¿ ±
æį Ĳ
ul l
æľºæŀĦ çļĦ
ph a
Ġanaly zed
éļ¾ çĤ¹
ä»¿ çľŁ
å¸¸è§ģ çļĦ
æ §
is ed
çŃī çļĦ
åħļ åı²
éķ¿ çļĦ
çĭ¬ç«ĭ çļĦ
ç«ĭ åį³
ĠP h
Ġsup port
ä¸Ńå°ı ä¼ģä¸ļ
çļĦ å½¢æĪĲ
åĨ ¬
åĲ« æľī
Ġse quenc
å®ļ éĩı
äºº å£«
Ġs us
å¼Ģ åĲ¯
æ°Ķ è±¡
Ġper cent
Ġavail able
åħ¨ æĸ¹ä½į
as ing
åħ¬ åħĥ
å¦ĩ å¥³
A n
m m
Ġm i
ç¥¨ æį®
Ġantib ody
è· ĳ
Ġpar t
éĿ¢ä¸´ çļĦ
ä¸Ń ä»ĭ
âĢ ¢
Ġw omen
ĠC l
è¾ĥ é«ĺçļĦ
å®³ äºº
å½¢å¼ı çļĦ
Ġstim ul
æ·ĭ å·´
Ġbe ing
åĪĨæŀĲ åĴĮ
èļ Ģ
it ation
äººæ°ĳ æĶ¿åºľ
åĻ¨ å®ĺ
åĸ ·
åį³ åı¯
Ġcir c
C I
in ce
Ġp ain
Ġd am
ac y
æŃ£ å¦Ĥ
èį Ĵ
æĶ¾ å¼ĥ
å®¹ åĻ¨
çŃĶ æ¡Ī
Ġappro ach
åĽ Ĭ
èĤ ¤
Ġmolec ular
] ãĢĤ
åĮĸ è§£
éĥ¨ éĺŁ
æľĢ æĸ°
åįķ çº¯
Ġal low
Ġins ulin
7 2
æĶ¿ åįı
èĢĮ éĿŀ
åĨ³å®ļ äºĨ
çİ° éĩĳ
et work
éĩįè¦ģ çļĦæĺ¯
ati vely
oc y
Ġreve al
äº§ä¸ļ åıĳå±ķ
Ġsymptom s
ç»ı çĲĨ
Ġm ouse
ä¾ĭ åŃĲ
å»ºç«ĭ åģ¥åħ¨
é£ŀ è¡Į
ć ć
åĪĨ è¾¨
Ġpro ced
ä¹łè¿ĳå¹³ åĲĮå¿Ĺ
åį° åº¦
ä¾Ŀæ³ķæ²» åĽ½
9 4
çļĦ çĶŁæ´»
è¯ ŀ
åĴĮ æľįåĬ¡
åı¯éĿł æĢ§
äº¤ ä»ĺ
åıĸ åĲĳ
æ¨¡å¼ı çļĦ
æĺ¯ éĢļè¿ĩ
åĪĨ æĶ¯
i an
åĶ ±
ä¼¤ å®³
Ġdetermin ed
F P
Ġb acter
ä¹ĭ å¤Ħ
éĥ¨ ä»¶
äºĮ æ°§åĮĸ
åŃĺ æ¬¾
çº¿ çļĦ
Ġacc ording
Ġmut ations
çłĶç©¶ éĻ¢
** )
çĽ¸åĲĮ çļĦ
éĻ ķ
ro p
å®¶ æĹı
çłĶç©¶ åĴĮ
Ġh ow
çĽĳ æĬ¤
é¢Ĺ ç²Ĵ
m l
è¿Ĳ ç®Ĺ
æĹ¢ æĺ¯
0 6
çĶŁ æķĪ
èµ· çĤ¹
Ġv s
åįĩ é«ĺ
Ġmulti ple
L P
Ġo l
ur ation
æ» ĭ
è´£ä»» çļĦ
æĢ¥ æĢ§
Ġtech ni
Ġprol if
7 3
re ad
Ġf low
éĽ ª
èĲ¥ ä¸ļ
æĥ Ĭ
åĲİ æľŁ
ä½ľä¸º ä¸Ģç§į
è¡Įä¸º äºº
åĺ ī
ä¸§ å¤±
c m
èĩª è¡Į
æĹ¶æľŁ çļĦ
ogen esis
è¿ ·
æĺ¯ ä»İ
å¤§ å¤ļ
ce p
åįı åĬ©
æīĵ åĩ»
åı¦ ä¸Ģ
ä¸į ç¡®å®ļ
è¯ģ å®ŀ
æķħ æĦı
l ength
æĬ ļ
æĻ ĵ
æŀģ ç«¯
è·Ł è¸ª
w as
å·¥ åķĨ
id ence
on ic
æĦıä¹ī çļĦ
åĽ½æ°ĳ åħļ
çĪĨ åıĳ
æ°Ľ åĽ´
æĬĢæľ¯ åĪĽæĸ°
ig ma
éľĢè¦ģ çļĦ
æĬ¥ éħ¬
æī© æķ£
çĶµ è§Ĩ
ä»Ģä¹Ī æĺ¯
D S
a f
æķĻèĤ² éĥ¨
å®ŀ ä¹ł
is ts
Ġf r
å°± è¦ģ
ol ic
ä¼ĺ çĤ¹
ç«ł ç¨ĭ
æŃ¦ åĻ¨
Ġantib odies
Ġauth ors
Ġ est
èĤ ¢
åĵ ¥
èµ· åĪ°
ç¾İ æľ¯
ä¸¤ å¤§
åĳ¨ è¾¹
ä½ĵåĪ¶ æľºåĪ¶
çı į
Ġ$ \
æĬ« éľ²
åĪĨ æ³Į
7 1
è¿Ļä¸Ģ çĤ¹
äººç±» ç¤¾ä¼ļ
æĭĽ çĶŁ
èµ ł
Ġp ri
è´Łè´£ äºº
Ġindividual s
ane ous
åĻª å£°
ä¸ ¹
å§ Ĩ
æĪĳä»¬ åı¯ä»¥
æĸĩåĮĸ éģĹäº§
ä¹° åįĸ
èĢķ åľ°
N O
çļĦ çī¹å¾ģ
æĽ´ é«ĺçļĦ
200 7
éĥ¨éĹ¨ çļĦ
æĬĵ ä½ı
å¥ĳ çº¦
çĲĨè®º ä¸İ
b i
åľ¨ ä¸Ģä¸ª
æł ª
å¹´ åº¦
è· ³
éĤ£ æł·
é»Ħ æ²³
Ġinj ury
ym b
e y
rap y
å® ħ
äºĨ å¯¹
å¤ĸ æ±ĩ
äºļ æ´²
æĮĩ å¼ķ
åĲ¦ å®ļ
eu tic
iel d
D A
èĥ ĥ
çĶ¨ éĢĶ
ä¿¡ å¿ĥ
Ġpar amet
å¾ħ éģĩ
Ġinclud e
å°ıåº· ç¤¾ä¼ļ
ä¸ª åĪ«
åĪĨ åĮĸ
è§£ æŀĲ
åħ± æľī
çĽ´ åĪ°
è·µ è¡Į
f on
çļĦ æľ¬è´¨
ä¸Ģ æ®µ
çĽ ²
åıĳ åĬ¨æľº
Ġre ac
çİ¯å¢ĥ ä¿ĿæĬ¤
å¥³ æĢ§
Ġdet ected
çļĦ çİ°è±¡
åĪĨ è£Ĥ
çłĶç©¶ ä¸Ń
æľĢ ä½³
çº¿ ç¨ĭ
é£Ł çī©
Ġcons ist
od e
æĸ¹æ³ķ çļĦ
æľª ç»ı
çľģ çº§
çĵ ·
åĴĮ å®ŀè·µ
æĭħ ä»»
Ġhe m
é¼ »
ograph y
çļĦ å°ı
æĪĲ åĥı
çī¹ å¼Ĥ
éĥ½ åľ¨
èµĦæºĲ éħįç½®
ç¢ ĳ
æ¸ħ åįķ
å¡ĳ éĢł
ul ations
vir on
3 00
å Ĺ
Ġf our
ç»Ħç»ĩ åĴĮ
æĸ¹å¼ı çļĦ
åĪĿ çº§
ear ch
Ġsc ore
éĥ¨ ä½į
å¿ĥ èĦı
åĽŀ æĶ¶
çļĦéĩįè¦ģ æĢ§
ç¬¬ä¸ī æĸ¹
ä¹īåĬ¡ æķĻèĤ²
Ġconsid ered
el s
å¸¸ å¸¸
åĿļ å®ŀ
åĩºçİ° çļĦ
Ġne gative
ä¸¾ åĬŀ
å¤ļåħĥ åĮĸ
C h
o unt
çļĦ åŃ¦çĶŁ
åŃ ķ
éĩį ç»Ħ
ä¿¡æģ¯ ç³»ç»Ł
åĪ¶åº¦ åĴĮ
åĽŃ åĮº
èĤº çĤİ
¤ Ĳ
Ġm ight
Ġre le
æ· Ģ
cl usion
å®Įæķ´ çļĦ
/ /
Ġ ÃĹ
åı¯ çĶ¨
é¡¾ å®¢
Ġgluc ose
äº ©
ä¸Ģ çº§
åĲĪ æł¼
åĲĪ éĢĤ
ç« Ń
od ds
è®¾ å®ļ
è¯¯ å·®
æµģåĬ¨ æĢ§
\ '
å¯¹ çħ§
åĨħ å¤ĸ
å®ŀçİ° ä¸Ńåįİæ°ĳæĹıä¼Łå¤§å¤įåħ´
ç¬¬ä¸Ģ èĬĤ
èĢģ å¹´äºº
cl ud
b l
åħ¬ æľī
Ġv er
ations hip
cri pt
O C
er ative
ç¤¾ä¼ļä¸»ä¹ī æł¸å¿ĥ
çīĪ æľ¬
eren ce
æĸ ľ
æ±Ł èĭı
æ£Ģå¯Ł éĻ¢
åĬł ä¸Ĭ
å¾Ĺ åĩº
æĪĺ æĸĹ
Ġexam ple
å¸¦ æľī
æĲ º
Ġpath way
Ġ1 3
å¸¸ å§Ķä¼ļ
ĠC I
æĴ °
Ġch ange
ç¬¬äºĮ èĬĤ
å®ĺ åĳĺ
Ġap plic
ĠHe alth
T A
éĶ »
Ġstr ateg
Ġdecre ased
âĦ ĥ
9 3
D L
ä¸į åºĶ
is h
æłĩ è®°
res pon
äºĴ èģĶ
æıĲ ç¤º
è°ĥ çĶ¨
å¢ŀ å¤§
ow er
ç»Ī æŃ¢
åķĨä¸ļ éĵ¶è¡Į
entr al
çĪ¶ æ¯į
v ent
æĪ Ĵ
æ¨¡ ç³Ĭ
Ġv i
æīĭ æľº
åĲį ä¹ī
Ġsyn drom
å®¶ éķ¿
ç² ĺ
å·¥ä½ľ èĢħ
åĤ¨ å¤ĩ
Ġ ur
èµ ¶
çĤ ¸
z ym
è®¢ ç«ĭ
och ond
çļĦ çĲĨè§£
Ġc ause
ç¡ ħ
å°± èĥ½
åŃĲ å¥³
ï¼Ĥ .
æĳ ĩ
ä»¤ äºº
Ġf ac
åĲĦ æĸ¹éĿ¢
èµ· æĿ¥çļĦ
å·¥ä½ľ äººåĳĺ
èĢģ å¹´
Ġhe art
æŁ Ķ
å¸Ĥåľº åĮĸ
éļı åĲİ
Ġinf ected
Ġdist rib
ä½ľ äºĨ
Ġg u
Ġdifferen ce
Ġconf ir
åıĻ äºĭ
Ġe qu
è®º åĿĽ
æĶ¯ éħį
éĻĲ åº¦
çİĭ æľĿ
o h
åį ĵ
æī Ń
ä¸į åıĹ
éģ ¥
ç¾İ ä¸½
æĶ¾ å°Ħ
æµ· å¤ĸ
ç§» æ¤į
åĽ° å¢ĥ
min imal
Ġd ay
Ġindic ated
: ãĢĬ
åľ¨ åĽ½éĻħ
åŃ¦ ä½į
åħ± å»º
æĢĿæĥ³ çļĦ
end ed
Ġbre ast
D R
å¯ Ĵ
Ġcon duc
äºī åıĸ
200 3
é¥ ±
èĻļ åģĩ
åĢºåĬ¡ äºº
æī« æıı
åıĳ æĢ§
å»ºè®¾ å·¥ç¨ĭ
å¼ķ çĶ¨
æĺİç¡® äºĨ
G P
åĴĮ ç»ıæµİ
ç³»ç»Ł æĢ§
é¢Ħ èŃ¦
Ġle ast
s ymb
in a
äºº æĿĥ
äºĮ èĢħ
ç¥ Ń
Ġv ia
åĩı æİĴ
åľ¨ åĨħçļĦ
å¯¹ å¾ħ
åĽ¾ çīĩ
ä¹¦ æ³ķ
æĿĤ å¿Ĺ
Ġph ase
b sy
å¯¹ ä¸ŃåĽ½
éĩį å»º
up gree
ys ym
ams math
ams fon
ams symb
ams bsy
document class
math rs
set length
}{ -
idem argin
é¢ľ èī²
æľªæĪĲ å¹´äºº
was ysym
odds idemargin
upgree k
amsfon ts
mathrs fs
åĨ Ĵ
äº§ éĺ¶çº§
ç« ¹
çī© åĵģ
Ġexperim ents
éĩı åĮĸ
åĸĦ äºİ
ç¨ĭåº¦ çļĦ
å¤ļ è¾¹
åĽĽ æĺ¯
çģ ¯
çłĶç©¶ èĢħ
ĠC O
åħħ çĶµ
å·²ç»ı æĪĲä¸º
.. .
å®Ĺ æĹ¨
å°º å¯¸
åĩº è¡Ģ
æīĢ è¿°
éĽĨ ç¾¤
åħħåĪĨ åĪ©çĶ¨
è¢«åĳĬ äºº
ä¹ĭ ä¸º
Ġe lect
æĿ¡ çº¦
åıĤ çħ§
æľīåħ³ çļĦ
ä¸İæŃ¤ åĲĮæĹ¶
en se
Ġm RNA
ä¹ĭ æĹ¥èµ·
å¼Ģ åĪĽ
ç¬¬ ä¸ĥ
éĩĳ é¢Ŀ
äº§ä¸ļ ç»ĵæŀĦ
ä¸įä»ħ ä»ħ
ä¾ĽåºĶ åķĨ
Ġdevelop ed
Ġfoc us
éĢļ çĶ¨
æ» ´
çĶŁçī© åŃ¦
è¾© æĬ¤
8 5
å¼ Ĺ
çŃī äºİ
æ¶ Į
äºĶ ä¸ª
Ġres id
ç¦» å©ļ
éĺ¶æ®µ çļĦ
åĪĽéĢł äºĨ
èįī æ¡Ī
å·¥ä½ľ ä¸Ń
å°±æĺ¯ è¦ģ
Ġad j
ä¸į åŃĺåľ¨
çĿĢ çľ¼
ĠM ore
åĭ ĥ
* .
* ^
Â ±
0 4
åĴĮ æĬĢæľ¯
çī© ç§į
èī ¾
éķ¿ è¿ľ
å½± åĥı
ç§ĳåŃ¦ åıĳå±ķ
Ġres istance
åĬŁèĥ½ çļĦ
å¥ĭæĸĹ çĽ®æłĩ
E E
çķĮ éĿ¢
tic ally
ä¿ĥè¿Ľ äºĨ
æĹ¢ æľī
Ġvari ous
ä¼Ļ ä¼´
æĽ´ å¥½çļĦ
é¦ĸ è¦ģ
æ·· åĩĿ
åĪ© æģ¯
ç¡® å®ŀ
pos ed
æ¼ı æ´ŀ
Ġlik ely
æĢ» ä¹ĭ
ç§ĳåŃ¦ éĻ¢
éŁ µ
Ġrec om
çĶµ éĺ»
åįģ ä¸Ģ
èĩ³ äºİ
Ġse vere
pon e
â Ĩ
æĭ ľ
è¢« åĬ¨
èĩ´ åĬĽ
åħļçļĦ åįģä¹Ŀ
å»¶ éķ¿
ä½ĵ åĨħ
åĲĮ åŃ¦
as k
æ²» åĽ½
åĽŀ é¡¾
åıĺåĮĸ çļĦ
å£° éŁ³
Ġrequi red
d ependent
éĿŀ æ´²
ĠO n
è¿½ ç©¶
Ġassoci ation
C l
åŁ ĥ
ĠA m
æŁ¥ è¯¢
éĵ¾ æİ¥
^ +^
æľŁ æľĽ
åıĺ å½¢
æĪĳä»¬ åľ¨
ĠE n
ç¾İåĽ½ çļĦ
åĩł ç§į
Ġfrequenc y
c ome
çļĦ åĪĨæŀĲ
çļĦ æĦıä¹ī
åĪ° è¾¾
åıĺ è¿ģ
è¢ Ń
æ±¡ æ°´
Ġstr ong
) **
n ormal
on es
Ġp epti
ä¼ĺ æĥł
æĴ ŀ
çļ® èĤ¤
Ġneur ons
Ġrat s
ä¸į è¦ģ
çĶŁ ç´ł
çĶ¨ æ°´
çŃī é¢ĨåŁŁ
å¤ļ åªĴä½ĵ
æĦı æĦ¿
Ġpro duc
æĶ¾ å¤§
oc ial
ä¸´ æĹ¶
å¥łå®ļ äºĨ
C H
r ing
æ²» åħļ
åĪĽ æĦı
åĪĿ ä¸Ń
æ¢ ħ
åĭ Ł
åµĮ åħ¥
èĳ ¡
æ¢ ³
åĪł éĻ¤
è¾ ½
æľĢ åĪĿ
---------------- ----
ç»ĵåĲĪ èµ·æĿ¥
Ġtyp es
çİ¯å¢ĥ ä¸Ń
èĲ½ åľ°
ç¬¬äºĮ çĻ¾
æĺİç¡® çļĦ
Ġran dom
çī ²
å¥ ¶
ç»ıæµİ åıĳå±ķçļĦ
ç¾ Ĭ
å®īåħ¨ æĢ§
ĠR e
Ġsub jects
ç²Ĵ åŃĲ
æĪ ´
æľ¬ åľ°
åħ¨ ç¤¾ä¼ļ
åĬł å¯Ĩ
åĲİ ç»Ń
å¯¼ ä½ĵ
äº« åıĹ
6 1
è®¾è®¡ çļĦ
èĢĥèĻĳ åĪ°
å¹¿æ³Ľ çļĦ
å¯¹å¤ĸ å¼ĢæĶ¾
ä¸ŃåĽ½å¼ı çİ°ä»£åĮĸ
C G
èĢ ¦
åĬł åī§
éľ ¸
éķ¿ åº¦
åıį å°Ħ
æ³ķå¾ĭ çļĦ
Ġr ati
èĲ½ åĲİ
è®¾å¤ĩ çļĦ
Ġcontr ast
7 4
Ġ âĢľ
äºº çĶŁ
åŃ¦ æ´¾
ç¼© å°ı
Ġbl ock
x i
æµ Ĩ
æĭ ĺ
çłĶ åĪ¶
çłĶç©¶ æĪĲæŀľ
ĠG en
ç½Ĺ é©¬
Ġdiab etes
Ġ ä¸ī
å¸¸ æĢģ
æķ°æį® ä¸Ńå¿ĥ
æĽ¾ ç»ı
C on
] )
an ding
æĬĢ å·§
åŃ Ł
Ġc a
æİ¨ çĲĨ
åħ´ èµ·
ç¬¬äºĮ ä¸ª
Ġrel ationship
å°ĳæķ° æ°ĳæĹı
Ġ <
Ġ ed
å¹¶ å¯¹
ä¼ģä¸ļ åľ¨
å®ī å¾½
è¡ĮæĶ¿ æ³ķè§Ħ
ç»ĦæĪĲ çļĦ
ç§ģ äºº
é£ŀ æľº
C S
å®ŀ è¯ģ
çĶµ åĬ¨
çºª å¿µ
éĻĦ åĬł
éģĩ åĪ°
Ġhel p
çļĦ èĮĥåĽ´
Ġd own
ä»£ æĽ¿
æ¿Ģ ç´ł
Ġab ility
åħ¸åŀĭ çļĦ
å¯¿ åĳ½
viron ment
ç±» çļĦ
Ġ2 5
æĹłäºº æľº
çļĦ å®ŀè·µ
ç§ Ĵ
è¡¨ æ¼Ķ
éĽ ĩ
åı¸æ³ķ è§£éĩĬ
Ġmechanis m
in ant
å½° æĺ¾
Ġanalys es
A A
ç»ĵ ç®Ĺ
æ´» è·ĥ
çĶŁäº§ çļĦ
éĻĲ äºİ
èİ ±
éŁ §
C s
h yl
ä»İ ä¸¥
åıĺ å¼Ĥ
ot or
æĪĸèĢħ åħ¶ä»ĸ
ä»Ĭ åĲİ
æ²³ åįĹ
åĩ¸ æĺ¾
Ġ u
å¸ ľ
å¤§ æĬ¥åĳĬ
== =
æ¶Ī å¤±
åĪĿ å¿ĥ
est inal
æĹ¢ è¦ģ
æ··åĩĿ åľŁ
è¿ ª
Ġc ri
çİ° æľīçļĦ
è° ¨
å¹³ æĸ¹
éĥ½ åı¯ä»¥
Ġv ery
ra y
å¾Ī å°ĳ
åħ¨éĿ¢ å»ºè®¾
Ġstim ulation
æł ½
åī ĸ
çļĦä¸Ģ é¡¹
ä¸º ä¸»è¦ģ
å± Ī
ä¸Ĭ è¯ī
ç½ĳ ä¸Ĭ
Ġl ink
çĶ³ æĬ¥
Ġ æľ¬
Ġpro ble
ver y
éģĹ åĿĢ
å¿«éĢŁ åıĳå±ķ
ä¾¦ æŁ¥
Ġ ir
æĸ ¥
çĽ® å½ķ
å°º åº¦
åĪ° åºķ
ä½ĵç³» å»ºè®¾
éĢŁ çİĩ
æ£Ģ ç´¢
ç¼º å°ĳ
äº ķ
åħ³ å¿ĥ
el ine
çĶµ ä¿¡
Ġl o
å¸¸ çĶ¨
éĿĴ å°ĳå¹´
é¸ Ł
Ġ ãĢĬ
åıĳ èµ·
æĿ¥ å®ŀçİ°
çĶµ æ°Ķ
è¿ĺ éľĢè¦ģ
æĢ» æĺ¯
Ġv itro
b ility
Ġ '
ï¼ ħ
Ġs ens
Ġm g
Ġd ose
åħ¨ æ°ĳ
æĭ ¨
æĺİ äºĨ
æľĢ éĩįè¦ģçļĦ
æĢģ åĬ¿
æİ¥ ç§į
æĢ» çº¿
ow led
ab les
8 9
çļĦ å®ŀéĻħ
æ³ķ åºŃ
Ġpro duction
T P
çļĦ åŃĺåľ¨
Ġp ul
ä¸Ĭ æĺ¯
è°ĥ åº¦
æµ ¸
åħ¶ ä¸ŃçļĦ
çĶµ è¯Ŀ
æĮģ æľī
ç´ «
ç»Ħ ä»¶
æ°´ åĪ©
ç¼ Ŀ
Ġcomp on
çļĦéĩįè¦ģ ç»ĦæĪĲéĥ¨åĪĨ
çºł æŃ£
çħ¤ çĤŃ
_ _
m ission
æ¬ £
åīį èĢħ
æĽ´ å¤§çļĦ
ç¦» ä¸įå¼Ģ
èĦ± ç¦»
Ġfunc tional
Ġtherap eutic
ä¸Ĭ çº§
åľ° éĿ¢
èĤ ©
é¢Ħ è®¡
E L
at in
çŃī åĽłç´ł
Ġst atus
è§Ħå®ļ äºĨ
æ·±åĮĸ æĶ¹éĿ©
æļ´ éľ²
othe rapy
200 6
]\] ,
str uc
Ġy o
Ġcar cin
ogen ic
Ġexper i
æĲľ ç´¢
ä¸ª äººçļĦ
f unc
çĽ¸ ä¿¡
op le
op ath
å»ºç«ĭ åľ¨
å¯Ĩ çłģ
Ġran ge
å¤ªéĺ³ èĥ½
æĳĺ è¦ģ
\ <
çļĦ æĢ§è´¨
Ġin duced
ä¸įåĲĮ äºİ
åĳĬ è¯ī
ç»Ī èº«
ĠTh us
Ġben ef
Ġest ab
æ¢³ çĲĨ
M L
ä¸Ń æĸĩ
åħ¬ è·¯
åĢ¼ çļĦ
æĢ» é¢Ŀ
æ¶Ī çģŃ
ç¬¬ä¸ī äºº
é ¤Ĳ
æ°´ èµĦæºĲ
å°ı é¼ł
æĤ ²
å¦ Ļ
äºº æķ°
er ic
æĪĲ çļĦ
å¿ĥ èĤĮ
å¤ĸ èµĦ
im als
åıĹ çĽĬ
200 1
åĤ¨ èĵĦ
Ġ9 5
ä¸Ńå°ı åŃ¦
Ġcr iter
Ġextr ac
Ġmus cle
ĥ åľ
åŀ ĥåľ
åĲĦ æĹı
å¯Ĩ éĽĨ
åħ¨åĽ½ äººå¤§
åŀĥåľ ¾
ä¸į ä½Ĩ
le t
æłĩ è¯Ĩ
Ġl ife
èĲ Ħ
åİĭ ç¼©
ä¸¾ è¡Į
æ¼Ķ è¿Ľ
æ¶µ çĽĸ
èĴĻ åı¤
U C
Ġ }
æķĻèĤ² æķĻåŃ¦
Ġac ute
æĹ¶éĹ´ çļĦ
å¿Ĺ æĦ¿
Ġmit ochond
çļĦ è¯Ŀ
åİŁ æĸĻ
Ġg iven
è¢« è®¤ä¸º
Ġare a
Ġpre val
Ġcontrol s
ä»ĭç»į äºĨ
è´ ¿
æĹ¶ ç©º
åĬ¨ åĳĺ
æĦı åĽ¾
æľª èĥ½
ros cop
Ġmac roph
èĩ´åĬĽ äºİ
8 4
ä¾ ¯
Ġf ail
åħ¬ åĳĬ
æĶ¶ è´Ń
t a
â Ķ
åº ŀ
Ġthe m
å½¢ çĬ¶
ç»Ħ å»º
Ġle ft
æ¯ķä¸ļ çĶŁ
8 6
çłĶç©¶ çĶŁ
åıĸ æ¶Ī
æĸ¹æ³ķ åĴĮ
GF R
E V
ut es
èģĮ æĿĥ
æīĢæľī åĪ¶
ä¸Ĭå¸Ĥ åħ¬åı¸
çļĦ åĪ©çĽĬ
å¹´ åºķ
åħ¬åı¸ æ³ķ
è´Ł éĿ¢
èĩªçĦ¶ èµĦæºĲ
Ġinf ec
åľ¨ åħ¨çĲĥ
èĥ½ èĢĹ
å®ŀ è®Ń
åľ° è´¨
å¼Ģ æĭĵ
00 5
åĩł å¹´
éĺ» ç¢į
Ġlim ited
çļĦ åĲĦç§į
ä¸Ģ å¥Ĺ
ot yp
å¢ĥ çķĮ
æķĻåŃ¦ åĨħå®¹
åıĪ æĺ¯
åħ¬å®ī æľºåħ³
èĳ¡ èĲĦ
æĸ ĳ
å®ŀ äºĭ
æıĲ åīį
åĨ³ å®ļçļĦ
å®£ å¸ĥ
Ġgener al
com es
Ġdam age
m ore
çļĦ åľ°æĸ¹
at ures
ç½ĳç»ľ çļĦ
lec tr
Ġsur face
èµ «
çłĶç©¶ ä¸Ńå¿ĥ
å®ŀè·µ çļĦ
ç«Ļ åľ¨
å³ »
æļ´ åĬĽ
Ġsequ ence
è¦ģ ä»¶
am in
é«ĺåº¦ éĩįè§Ĩ
Ġqu ality
è¿« åĪĩ
Ġcharacteris tics
Ć Ć
ãĢĤ (
å±Ĥ çļĦ
åİĨåı² æĢ§
å¤ĦçĲĨ åĻ¨
æīİ å®ŀ
éĩį çļĦ
è§Ħ åĪ¶
æĹł äº§éĺ¶çº§
å®ŀæĸ½ çļĦ
æ¼ ł
Ġwe ight
Ġprovid ed
Ċ ĊĠ
ti ce
æĪĸ åħ¶ä»ĸ
ç»ıæµİ ä½ĵ
ç¢ °
åľ¨ è¿Ļä¸Ģ
ä¸į å¹³è¡¡
çĲ ´
å»º æ¨¡
å¦Ĥ ä»Ĭ
éĿ©åĳ½ çļĦ
Ġqu es
Ġform ation
Ġ er
at ors
æ³ķå¾ĭ è§Ħå®ļ
åĬ© åĬĽ
å¾· èĤ²
ç¼ĵ åŃĺ
Ġpresent ed
æľ¬ æ³ķ
è½¬ å½ķ
è¿ĺ åİŁ
åĩł ä½ķ
é¢Ĩå¯¼ å¹²éĥ¨
åįł æ¯Ķ
èİ·å¾Ĺ äºĨ
å°½ éĩı
æ±¡æŁĵ çī©
Ġ âĪĴ
æĢ ķ
æĹ¶ åĪ»
æľŁ çļĦ
å®¡ è®®
200 2
iv o
ä¸» æĮģ
ä¸Ĭ çľĭ
ç¬¬ åħ«
æŃ¤ ç±»
èĪ Ĵ
ä¸įä»ħ æĺ¯
è¡¨çİ° åĩº
Ġpub lic
Ġt e
æĿ ł
ä¸į äºĪ
200 4
Ġen zym
Ġox id
et a
åįķ ä¸ª
çĹħ çļĦ
æł¼ æĸ¯
ä»·åĢ¼ éĵ¾
èģļ éĽĨ
Ġanti gen
æ ©
æİ¥ åħ¥
ä»ĭ è´¨
æķĳ æµİ
èµĦ åĬ©
å¢ ĵ
æĢ» ç»Ł
æ¤ İ
ap s
] --
âĢ ²
åĪ¶ å¤ĩ
åıĺ æį¢
am ine
è¯» èĢħ
èµ° åĩº
åīĤ éĩı
ater al
å¹ħ åº¦
Ġvis ual
Ġdisord ers
]-- [@
Ġ --
Ġ enc
åı¯ åĪĨä¸º
éĶ ĭ
çª Ħ
åı¦ ä¸Ģç§į
è´¯å½» èĲ½å®ŀ
Ġs uc
Ġp o
Ġat ten
çļĦä¸Ģ éĥ¨åĪĨ
åįļ çī©
èĦ±è´« æĶ»åĿļ
Ġa im
åıĹ ä½ĵ
Ġv ivo
åħ¬åħ± åį«çĶŁ
æĪı åī§
li ke
Ġreveal ed
G G
ç² ¹
è¡¨çİ° åľ¨
ĠRes earch
O R
p ut
Ġof ten
éĶ Ĳ
å¤į è®®
åħ¨éĿ¢ åıĳå±ķ
ore d
å¹´ éĹ´
é«ĺ ç«¯
äºĮ æ¬¡
ter m
ç»Ĩ åĮĸ
æľīåħ³ éĥ¨éĹ¨
Ġfam ily
çļĦ æĶ¿çŃĸ
éĥ½ èĥ½
çº§ åĪ«
è´Ł èį·
Ġco h
Ġap op
Ġhealth y
ä¸ ¢
éĥ Ń
æ³¨ åħ¥
ĠThe re
è§£åĨ³ äºĨ
a ve
ä¸į éľĢè¦ģ
æĢ§ éĹ®é¢ĺ
åºĶ åĬĽ
ä¸ĭ éĿ¢
å£ ³
ç¼º å¤±
erg y
Ġpri or
ī ¥
çļĦ è§ĤçĤ¹
åŃ¦ è¯´
æľº çĲĨ
çº¿ ä¸Ĭ
è·¨ è¶Ĭ
çļĦ ç»Ħç»ĩ
åľ¨ åħ¨åĽ½
æĬ Ľ
Ġe ven
é£Łåĵģ å®īåħ¨
è¿Ļ ä¹Łæĺ¯
ro id
åīį åĲİ
Ġac ross
d es
çļĦ ä¸ĸçķĮ
ä¸Ń æĸŃ
åľ¨ ç¤¾ä¼ļ
æŀ ¢
æĶ¶ åĪ°
åĮħ å®¹
åįĹ åĮĹ
æĬĹ ä½ĵ
å®¢ ä½ĵ
çº² è¦ģ
è¿Ķ åĽŀ
] ),
æĺ Ĩ
å¸ ķ
ä»¥ ä¹łè¿ĳå¹³åĲĮå¿Ĺ
ç¬¬ä¸ī èĬĤ
Ġtiss ues
Ġsyndrom e
C o
Ľ èµ·
åľ¨ ä¸įåĲĮ
Ġd er
æİ¨ åĩº
Ġ1 7
åŁ¹åħ» åŃ¦çĶŁçļĦ
èµĦäº§ çļĦ
ä¸ºæł¸å¿ĥçļĦ åħļä¸Ńå¤®
Ġprolif eration
èĤ ª
äºĭ çī©çļĦ
Ġcom mun
æĸ° å¢ŀ
Ġst ate
æŀģ ä¸º
çº¦ å®ļçļĦ
ç»ĵæŀĦ åĴĮ
äº§ä¸ļ çļĦ
èĶ ½
Ġcyt ok
ogni tive
çŃī äºº
å¼Ģ åħ³
åħļ ç»Ħç»ĩ
am p
ĠI FN
è¦ģæ±Ĥ çļĦ
åŀĤ çĽ´
Ġsensi tivity
ï¼ Ĵ
ä¸Ģ ä¸ĭ
Ġp sych
æĵ ¦
èĦĤ èĤª
åľ¨ æĸ°
éĩį åºĨ
Ġad ditional
Ġno vel
èĥ º
ro c
Ġm en
é© ³
äº§ä¸ļ åĮĸ
åĳĪçİ° åĩº
åľ¨æŃ¤ åŁºç¡Ģä¸Ĭ
m an
å® ¾
åĬ ²
åį µ
éĻ µ
å½ĵ ä¸Ń
å¹¶ åıĳ
ãĢĭ ï¼Ī
çĸĹ æ³ķ
åĽŀ åºĶ
æīĵ åį°
Ġassess ed
Ġinflamm atory
H R
æĹ ±
Ġb ar
åŀ Ĵ
ä¸ĵ çĶ¨
um e
å¢ŀéķ¿ çļĦ
Ġrel ative
Ġexpos ure
P R
â Ĺ
åĪĽæĸ° çļĦ
æĦıä¹ī ä¸ĬçļĦ
Ġem b
ç»ıåİĨ äºĨ
æ¹¿ åľ°
å½¼ æŃ¤
y stem
è¿Ļ æ¬¡
å¼Ģ è®¾
çİĩ çļĦ
çĶ³è¯· äºº
èĤĮ èĤī
æĹĹ å¸ľ
B L
M T
è¦ģ æĬĬ
os om
åįģ ä¸ĢæĿ¡
åħ·æľī éĩįè¦ģ
è·¨ å¢ĥ
å° ĺ
ä¼ļ å¯¼èĩ´
è¿Ľ åĮĸ
è¯Ń éŁ³
è¯Ĺ æŃĮ
è¿Ľç¨ĭ ä¸Ń
éĺĲ éĩĬ
çļĩ å¸Ŀ
æīĢå¾Ĺ ç¨İ
åĮ Ģ
å¤§ çº¦
ç±» åĪ«
åħī åŃ¦
ĠB i
Ġ6 0
Ġinflamm ation
Ġbehavi or
èĢ¦ åĲĪ
æī ĳ
å®ŀ åĬ¡
çłĶ è®¨
éľ į
oc hem
çľĭ æ³ķ
å¾ģ æĶ¶
å»¶ ç»Ń
èĴ ¸
çļĦ æĤ£èĢħ
æł ı
çº º
è¿Ļ ä¸¤ä¸ª
æīĢ æľª
éĵ º
æĲ ¬
åįģåĽĽ äºĶ
åĲ Ĳ
ä»¥ ä¸º
Ġan g
is ing
çī© ä½ĵ
æĪĸ æĺ¯
Ġh owever
å°½ å¿«
è£ģ åĨ³
åıĸå¾Ĺ çļĦ
Ġab ove
Ġinhib ition
çĩĥ çĥ§
Ġ Î²
Ġb el
æºĲ äºİ
æ²»çĲĨ èĥ½åĬĽ
åıĮ éĩį
Ġass ay
ak ing
éģŃ åıĹ
Ġconcentr ations
Ġa x
éĥ ģ
èģĶ åĬ¨
éĺ² å¾¡
éĻ· åħ¥
å®ļ ä»·
Ġst ep
è¾ĥ å°ĳ
åĬ¿ åĬĽ
Ġor der
å±± æ°´
pir atory
éĩį æŀĦ
åĪĹ å®ģ
p ression
åĪĽæĸ° èĥ½åĬĽ
æĬ¥ è¡¨
éľĢæ±Ĥ çļĦ
ç¬¬äºĮ æ¬¡
* ~
Ġt ub
çİĩ åħĪ
ag ement
çĹħ çĲĨ
ä½ľçĶ¨ çļĦ
æ¼Ķ åĮĸ
åĮ»çĸĹ åį«çĶŁ
å®ŀä½ĵ ç»ıæµİ
å»º éĢł
ç®¡ åĪ¶
æľŁ åĪĬ
ä¸ŃçļĦ åºĶçĶ¨
çĽ´ è§Ĥ
å¹¿ éĺĶ
è§£åĨ³ éĹ®é¢ĺ
æŀĦæĪĲ äºĨ
æĻ¶ ä½ĵ
ç¥ĸ åĽ½
Ġmemb rane
Ġphys ical
åĲĪ éĩĳ
æľ¬ æ¡Ī
åıĳå±ķ æĪĺçķ¥
æľĢ å°ı
ä»» æĦı
I N
h ol
Ġle ar
åĲ¸ éĻĦ
ä½ľåĩº äºĨ
éļĶ ç¦»
Ġcardi ac
è¿ĩ éĶĻ
Ġv ac
åĪĨåĪ« ä¸º
Ġsystem s
ĠAl though
çĽ¸å½ĵ äºİ
æĿł æĿĨ
çİ ©
åĪ¶ å®ļçļĦ
ä¿¡ æīĺ
ĠA t
è¡ĮæĶ¿ å¤Ħç½ļ
è¶ħ å£°
åįģäºĮ æĿ¡
owled ge
x im
Ġl arg
ä½Ĩ çĶ±äºİ
ä»¥ä¸ĭ ç®Ģç§°
èĴ ĭ
Ġout comes
çļĦ ç½ĳç»ľ
çļĦ æķĪæŀľ
ä¸ľ åįĹ
qu es
ç¤¾ä¼ļä¸»ä¹ī å¸Ĥåľºç»ıæµİ
Ġr ight
Ġtri als
#### ##
i j
çļĦ å»ºè®¾
åĽ½ ä¼ģ
Ġn etwork
æ·± è¿ľ
èĩ´ ä½¿
Ġcell ular
å·¥ç¨ĭ å¸Ī
Ġf em
è¿ĩ äºİ
åŁº åĩĨ
å®¶ çļĦ
ĠI I
ver age
ox ic
tal ity
f act
ä¹Ł å°Ĩ
è´¨éĩı åĴĮ
éĩĳèŀį åį±æľº
ä¸Ńåįİ ä¼ĺç§Ģ
ix ed
åĳ½è¿Ĳ åħ±åĲĮä½ĵ
â ĸ
æ±Ĥ æĺ¯
ï¼Ľ ï¼Ī
è®¾è®¡ åĴĮ
æĸ¯ åĿ¦
Ġsc reen
Ġconcentr ation
. ](
\ [
åº¦ åĴĮ
æĸĩ ä¹¦
ç¤¾ä¼ļ æ²»çĲĨ
ĠS ci
åħ¨éĿ¢ æİ¨è¿Ľ
âĳ £
éĿĻ æĢģ
Ġval id
g ra
æľī ä¸Ģ
Ġc ross
çĽ¸ éĢĤåºĶ
âĢĿ ï¼Ī
å¹¶ è¡Į
ä¼ģä¸ļ åĴĮ
ĠI g
åĲĪåĲĮ çļĦ
Ġinter action
Ġdet ect
çĲĨæĥ³ ä¿¡å¿µ
ä½Ľ æķĻ
) -
Ġ ul
æĺ Ĥ
ä½ĵ ç§¯
æĿĥ åĴĮ
è¥¿ åĮĹ
æĿĳ æ°ĳ
Ġne ut
Ġsurg ery
è¯ŀ çĶŁ
M A
o y
å¯¹ åŃ¦çĶŁ
äººæ°ĳ æ£Ģå¯ŁéĻ¢
å´ Ľèµ·
æ°¸ è¿ľ
Ġindic ate
ä»£çĲĨ äºº
er n
Ġs al
è¢« æī§è¡Į
Ġeffec tive
æıŃç¤º äºĨ
Ġsit es
E N
r al
åĴĮ æĸĩåĮĸ
æĺ¯ åĽłä¸º
ä¹ĭ å¤§
her s
äººä»¬ çļĦ
Ġtest ing
æµª è´¹
8 3
æľī å¿ħè¦ģ
ĠA c
ç´§ æĢ¥
Ġar tic
é«ĺçŃī åŃ¦æł¡
é¸ ¡
å£® å¤§
åī© ä½Ļ
Ċ Ċ
ä¸Ģ è½®
ç¿ °
å«Į çĸĳ
4 00
ç °
çļĦ æĢ»
Ġm agn
é«ĺ åİĭ
Ġe lev
é¢Ĩ åħĪ
åģļ äºĨ
Ġepit he
P L
l ing
t osis
ä¸Ń åİŁ
åĩº äºİ
åľ° çĤ¹
å¹´ çº§
æľŁ å¾ħ
ä»½ é¢Ŀ
æł¹æľ¬ ä¸Ĭ
æ±ī è¯Ń
å¯¹è±¡ çļĦ
éĢģ è¾¾
ç´¯ è®¡
.... ....
E x
Ġan imals
ic es
Ġre nal
çĽ¸ å¯¹äºİ
å±Ĥ çº§
è¡ĮæĶ¿ ç®¡çĲĨ
Ġinc ub
åĨ· åį´
æĳĨ èĦ±
G B
è¿ Ń
æĹ ģ
åİ ĺ
é«ĺ è¾¾
æĮĩ åĲĳ
åį° åıĳ
åĲ¯ åıĳ
b o
r g
æľī åĬĽçļĦ
Ġl at
ä½ľä¸º ä¸Ģä¸ª
æ°ĳäºĭ è¯īè®¼æ³ķ
è½¬åıĺ ä¸º
Ġweek s
Ġn er
æĹł å½¢
å§ ¿
åĢŁ è´·
anc er
Ġwhere as
w are
Ġt rain
äº§ èĥ½
æĸ° çĶŁ
åħ¬ åĽŃ
ç§ģ æľī
çħ Į
ç¤¾ä¼ļä¸»ä¹īæł¸å¿ĥ ä»·åĢ¼è§Ĥ
9 2
p ri
å¼Ģ æºĲ
æĹ¥ æĬ¥
åĽ¾ä¹¦ é¦Ĩ
ä»¥ å¤ĸ
æĪĺ çº¿
å¤® è¡Į
åľ¨ å¯¹
è¦ģ åĿļæĮģ
çī º
æľ¬ ç½ĳ
æľŁ è´§
èĬ ³
çİĩ ä¸º
åİ¿ çº§
èĸĦ å¼±
Ġregion s
å¾Ĵ åĪĳ
åĿĲ æłĩ
æĸ°ä¸ŃåĽ½ æĪĲç«ĭ
Ġgreat er
åı¯ è¡Į
åħ» æ®ĸ
Ġch rom
æ¿Ģ çĥĪ
pl ied
Ġpe ople
çĦĬ æİ¥
Ġcriter ia
is on
ol ution
å¢ŀ å¤ļ
æĪĺçķ¥ æĢ§
å®ĺ æĸ¹
Ġrecept ors
Ġcat he
/ -
Ġ ä¸ŃåĽ½
æķ°æį® å®īåħ¨
åºĶçĶ¨ çļĦ
ç§° ä¹ĭä¸º
olog ic
Ġreg ulation
çīº çī²
p s
p ose
z e
Ġp aren
ä½ľ é£İ
èĤ łéģĵ
æķ° åĢ¼
èĩª æĦ¿
æŁ ı
ĠC ell
éĴ ¥
çĽ®æłĩ æĺ¯
é£İéĻ© çļĦ
çªģ åıĳ
è®² è§£
è¿½ æº¯
Ġover all
Ġmut ation
Ġdrug s
. [@
Ġc m
åĨľ çĶ°
åł ¡
Ġpath ways
é¡¶ å±Ĥ
I F
å¤§ æī¹
ä»İ ä¸ļ
ĠA D
æ¸ħ åģ¿
G S
çļĦ éĢīæĭ©
åħ ¹
åī ª
çĤ ®
il i
è´¢ çī©
éĻįä½İ äºĨ
Ġfollow ed
A B
åħ¶ åľ¨
Ġto ol
åħ±äº§ ä¸»ä¹ī
æĲŃ å»º
ä¸ Ļ
å¼ Ł
ä¿Ŀ å¯Ĩ
Ġpro per
ç¡ķ å£«
it ing
Ġf at
å°ı äºİ
äººä»¬ å¯¹
Ġincre asing
éĢĤå½ĵ çļĦ
Ġdecre ase
A d
a e
Ġb one
å°Ĩ åľ¨
ter ior
åĽĽ å·Ŀ
Ġassess ment
ĠFurther more
$ $
çİ »
åŃ¦çĶŁ å¯¹
å¿ħ éľĢ
çĲĨè®º ä¸Ĭ
æīį æĺ¯
æī¿ è½½
æİ§åĪ¶ åĻ¨
åįģåħ« æĿ¡
Ġbi om
Ġstruct ure
Ġorg an
u tions
es sion
å¹¶ éĢļè¿ĩ
ç®¡çĲĨ åĪ¶åº¦
äºĳ åįĹ
çĻ¾åĪĨ çĤ¹
ä»ĭ åħ¥
and s
anc es
å®ĥä»¬ çļĦ
SC s
Ġisol ated
ä»¥ä¹łè¿ĳå¹³åĲĮå¿Ĺ ä¸ºæł¸å¿ĥçļĦåħļä¸Ńå¤®
åĮĸ åĲĪçī©
æĢ§ åľ°
åŀĭ çļĦ
æ· ®
æµģ è½¬
åįģ æĿ¡
æĬ¤ çĲĨ
Ġr ates
Ġhe ter
é¢ĳ ç¹ģ
ç¦ı å»º
çľŁæŃ£ çļĦ
åħ¼ é¡¾
Ġrati o
T S
Ġ unc
Ġs ite
æĥħ æĻ¯
oc ol
ä¼ĺ èī¯
åĳ¨ å¹´
ib le
å¨ ±
éī´ äºİ
èĩªæ²» åĮº
äººä¸İ èĩªçĦ¶
æĶ¶ ç¼©
èį §
éĢī çĶ¨
åįĬ å¯¼ä½ĵ
åįģåħŃ æĿ¡
åĨįçĶŁ èĥ½æºĲ
e an
t rol
Î Ķ
çļĦ è´£ä»»
åĲ ŀ
ä¸Ń åĮ»èį¯
åĪĨ éĴŁ
Ġm ass
çŃī å¤ļ
æľ¯ è¯Ń
ur n
å¹¿ æĴŃ
"} ,
s p
åĴĮ æĶ¿æ²»
åį ¢
ä¸Ĭ æ¶¨
è¾ĥ å¤ļ
æĺİç¡® è§Ħå®ļ
æĤ ¬
çĬ¯ç½ª çļĦ
éĻĦ è¿ĳ
æģ¶ æĢ§
Ġparamet ers
Ġrele ase
æľī çĽĬ
å¯¹ çŃĸ
æľŁ å¾ĴåĪĳ
è¿Ľè¡Į åĪĨæŀĲ
å¸¸ åĬ¡
em ia
å¾Ī å¿«
ç®Ģ ä»ĭ
æģ© æł¼æĸ¯
P ro
t rans
ac tiv
æĮģ ä¹ħ
å½±åĵį åĬĽ
æ¨¡åŀĭ çļĦ
Ġco un
ĠO ur
çĭ¬çī¹ çļĦ
an tit
ä»· æ¬¾
åŃ¦ä¹ł åĴĮ
åĬ³ åĬ¡
æĬĹ æĪĺ
ial ly
æĦ¿ æĦı
Ġexam ined
åĬŀåħ¬ å®¤
M E
le x
Ġh ospital
res sive
éļı æĹ¶
æĶ¹åıĺ äºĨ
Ġdet ection
å°ģ éĹŃ
T C
åŃ¦ çķĮ
é«ĺ æ¸©
ä¹Ł èĥ½
çĸ ¼
Ġg ast
ĠP D
ĠIn t
å¯¼èĩ´ çļĦ
ress ing
æīĢè°ĵ çļĦ
over y
R E
i at
l d
åıĪ æľī
æĺİç¡® æıĲåĩº
æĪª èĩ³
ä¸»ç®¡ éĥ¨éĹ¨
Ġmi R
èį§ åħī
W TO
t hesis
Ġ ä¸Ń
it ud
æĹł éĻĲ
è¿ĺ æ²¡æľī
çĶŁæ´» æĸ¹å¼ı
ç²¾ç¥ŀ çļĦ
ne y
Ġsec re
8 1
è Ŀ
æĸ° å¾ģç¨ĭ
çŃī å¤ļç§į
éģ Ĥ
ç¬¬ ä¹Ŀ
çĶµ å½±
Ġth us
çĿĢ éĩį
op las
Ġab normal
å© ´
ä¾§ éĩį
}$$ \
0 9
æĹł åħ³
ĠA fter
è± ª
å½±åĵį çļĦ
åĳĬ çŁ¥
å»ºç«ĭ èµ·
ä¸ĵä¸ļ çļĦ
ç¿ ¼
Ġ %
æķ ¦
ä¸Ģ åĽ½
ä¸Ģ æµģ
is c
æĸ° çĸĨ
æºĲ å¤´
å®Į å¤ĩ
Ġde v
èĩªçĦ¶ ç§ĳåŃ¦
ç®Ģ åĮĸ
æīĵ å¼Ģ
Ġdom ain
t reated
çļĦ å®ļä¹ī
it al
æľ¬ åĽ½
åŁºæľ¬ ä¸Ĭ
ä¸¥ å³»
ç»¼åĲĪ å¾ģ
æ¡Īä»¶ çļĦ
iti s
R C
a ff
çĶµ æŀģ
æĻº åºĵ
è¿ĲåĬ¨ çļĦ
ä¹łè¿ĳå¹³æĢ»ä¹¦è®° åľ¨
ä¾Ŀèµĸ äºİ
æłĩå¿Ĺ çĿĢ
Ġevalu ated
æŁĵèī² ä½ĵ
Ġsep ar
R A
åľ¨ ç»ıæµİ
ä¿ĿéĻ© äºº
æ´¾ éģ£
çļĦ æ°´
ä¸Ń æľŁ
ç® Ń
åĲĮ æ¯Ķ
ä¹Ł æ²¡æľī
im en
åĩĨ åħ¥
è¯ī æ±Ĥ
ĠIn stit
é¥² æĸĻ
çļĦ çĬ¶æĢģ
ä¸Ń å±±
ä¹Ł ä¸º
æĽ´ æľī
èĻ İ
æīĭ ç»Ń
ĠD ata
ç´łè´¨ æķĻèĤ²
Ġhigh ly
Ġdef ined
til l
ä¸ªæĢ§ åĮĸ
Ġcri tical
éĺ ģ
åĪĽ è®¾
åŁºæľ¬ çļĦ
å¹¿ å·ŀ
iz ing
æ²³ åĮĹ
åŃ¦çĶŁçļĦ åŃ¦ä¹ł
çŁ© éĺµ
B V
k n
Ġ ãĢģ
Ġh om
åı² ä¸Ĭ
Ġex c
åĪĨæŀĲ äºĨ
éĻ¤ å¤ĸ
enc es
anc y
Ġcar ri
Ġmeas ures
Ġhyp ot
ĠSt ud
8 7
Ġs our
ä¹Ł ä¸įèĥ½
æķĪ èĥ½
ç»Ĩ èĬĤ
ai red
Ġt ested
ä¹ĭ ä¸Ĭ
äºĮ ç»´
ly ing
å¤© æ´¥
åįł æį®
ä¸¾ è¯ģ
é¸ £
æ¬¢ è¿İ
Ġmor tality
ä¸ª çĻ¾åĪĨçĤ¹
ä½¿ ä¹ĭ
å®īåħ¨ çļĦ
ä¸ĸçķĮ ç»ıæµİ
åĮĹ æĸ¹
åĨľæ°ĳ å·¥
F D
m et
ĠThe refore
æ¸ħ ç®Ĺ
Ġmark ers
æķ¢ äºİ
çŃĽ éĢī
éĶ» çĤ¼
åįļçī© é¦Ĩ
Ġ Â·
Ġd at
æĭ ¼
çłĶç©¶ è¡¨æĺİ
Ġst age
æ³¨ å°Ħ
Ġor ig
åıĳçĶŁ åľ¨
æĹ¶éĹ´ åĨħ
å¹² ç»Ĩèĥŀ
our s
è½¬åŀĭ åįĩçº§
ä¸ºä»£è¡¨ çļĦ
P A
S O
s igma
éĢ ¼
ä¼ļ æľī
Ġre duction
ãĢĭ ãĢĤ
å¿ħ å°Ĩ
çĹħ ä¾ĭ
å®ŀéĻħ æĥħåĨµ
Ġco ur
Ġbet ter
Ġplas ma
èĩ³åħ³ éĩįè¦ģ
çī¹å¼Ĥ æĢ§
C IT
T o
g et
in ary
æŀ Ŀ
ç¾İ çļĦ
ć ą
æĬĢæľ¯ ä¸İ
æ³¨ æĺİ
å¾Ī å¥½
ä¿ĿæĬ¤ çļĦ
Ġcol lected
çĤİ çĹĩ
Ġpol ym
è¹ Ī
æľ¬ åľŁ
Ġre port
åĬł æ·±
ç«ĭ ä½ĵ
å¯¼ èĪª
è±¡ å¾ģ
çĦ¦ çĤ¹
å¹´ ç¬¬
èĬ ½
èĦ Ĩ
ç»¼åĲĪ æĢ§
ç¢³ ä¸ŃåĴĮ
è¡Įä¸ļ çļĦ
åŃĺåĤ¨ åĻ¨
è¾ħ å¯¼
âĢķ âĢķ
åŃ Ŀ
è¿ĩ å¤±
çĶµ èĦĳ
å®ŀçİ° çļĦ
æĳ ¸
å¿½ çķ¥
æĺ¯ ä¸ºäºĨ
äº§ åĩº
Ġm ade
ä¸ĭ æ¸¸
éĿ¢ä¸´ çĿĢ
è°ĭ åĪĴ
åŃĶ åŃĲ
" ;
æľ ĭ
å¹ »
ä¸»è¦ģ çļĦ
èī¯ æĢ§
å¹´ è½»
æłĩ çŃ¾
èµ· ä¹ī
åħī ä¼ı
ä¾¿ äºİ
çļĦ ä¸»
åľ¨ ç¾İåĽ½
äºº å¿ĥ
Ġg o
æŃ¥ ä¼Ĳ
ä½ĵç³» ä¸Ń
Ġac t
æĻº åĬĽ
å®£ åĳĬ
æĿ¥æºĲ äºİ
èĶ ¬
èµ¢ å¾Ĺ
å®ŀäºĭ æ±Ĥæĺ¯
8 2
c ence
Ġ rap
ä¸Ń åĮ»
åıĳ åĬ¨
åĽł æŀľ
id es
Ġ4 0
Ġtranscri ption
çļĦ ä¿ĿæĬ¤
çĽ Ĺ
è¦ģ ä»¥
ä¼ł å¯¼
è¯´ æ³ķ
Ġv ascular
éľĢè¦ģ åľ¨
èº« å¿ĥ
å¤ļæł· åĮĸ
å®Ŀ è´µ
Ġtri al
Ġfre qu
çĪ±åĽ½ ä¸»ä¹ī
åħ¨éĿ¢å»ºæĪĲ å°ıåº·ç¤¾ä¼ļ
L S
æķĻèĤ² åĴĮ
åŃ¦çĶŁ åŃ¦ä¹ł
åĲį ä¸º
å¤ĦçĲĨ çļĦ
åĪ¤ å®ļ
åħ±äº§ åħļçļĦ
æĩ Ī
P T
åį Ī
å°± å¿ħé¡»
æº ¢
åıĮ åĲĳ
ä¼łæŁĵ çĹħ
Ġdistrib ution
çļĦ æĿ¡ä»¶
æľ¬ äºº
å¹¿ ä¹ī
æİĴ åºı
ren ce
åįģä¸ī æĿ¡
åº Ļ
ç®¡ æİ§
ä»İ æł¹æľ¬ä¸Ĭ
åīį æīĢæľª
im um
åĨľ èį¯
å¢ĥ åĨħ
å·² çŁ¥
ä¹¦ åĨĻ
æ¸ħ éĻ¤
èĳ£äºĭ ä¼ļ
* )
P V
åĴĮ åºĶçĶ¨
ä¸į å½ĵ
èĭ± éĽĦ
åģı å·®
Ġacc ur
N R
v ar
çļĦ ç»ıéªĮ
åħ ĳ
ä¸º äººæ°ĳ
Ġc entral
Ġf l
ä»ĸ åľ¨
åĨľ æĪ·
ĠS c
ç¬ĶèĢħ è®¤ä¸º
äº Ł
åŃ¦ åİĨ
æĪĲ äºº
Ġre lev
Ġal ter
æ¯ı å¤©
ç¼º çĤ¹
Ġhe re
ĠW h
åģ¥åº· åıĳå±ķ
æĥ© ç½ļ
åľ¨ä¸Ģå®ļ ç¨ĭåº¦ä¸Ĭ
èĥ° å²Ľ
åħ¬æľī åĪ¶
ãĢ Ķ
åĴĮ ä¼ģä¸ļ
åĮĸ å·¥
an y
Ġv ers
ĠM RI
è¯¸ å¦Ĥ
ä¸Ģèĩ´ çļĦ
æī¶ æĮģ
]^ .
Ġpreval ence
9 1
åŃ¦ åĪĨ
er ing
åĲĪ è§Ħ
åıĬ åħ¶ä»ĸ
Ġpl ay
oci ated
åĩºåıĳ çĤ¹
Ġdo es
Ġimp act
å¤§ èĩ´
çĽ¸ ç»§
äººç±» çļĦ
Ġk ey
å¤įæĿĤ æĢ§
ç§ĳåŃ¦åıĳå±ķ è§Ĥ
func tion
i er
ä¸º ä¸Ģ
å¹´ åīį
æıĲ åĢ¡
æĥ ĳ
åİŁ æľī
Ġl ack
æĺ¾ å¾Ĺ
çľĭ ä½ľ
è¡ĮæĶ¿ éĥ¨éĹ¨
å·¥ä¸ļ äºĴèģĶç½ĳ
ç»¿èī² åıĳå±ķ
ä¸įå¾Ĺ ä¸į
Ġprog ression
æīĢéľĢ çļĦ
åĽ½ åĢº
ä¸į è®º
åħ³ ç¨İ
å°± æľī
è´¨ çļĦ
Ġint ra
æĸĩæĺİ çļĦ
èģļ åĲĪ
Ġdifferenti ation
æ»¥ çĶ¨
l ess
äºº äºº
æĹł éľĢ
åħĪ è¡Į
èĢĥ éªĮ
å¥ĸ åĬ±
ä¸įåĬ¨ äº§
ĠMore over
è¦ģ çĤ¹
æ² Ī
å¤Ħ çļĦ
ub le
ip her
Ġcor respon
Ġ ï¼Į
å¢ŀ è¿Ľ
um in
çº¿ è·¯
çĥ ·
ç¦» å¼Ģ
Ġim ages
çĽĳçĿ£ ç®¡çĲĨ
è¯ļ ä¿¡
çŀ »
k g
ä¸º æŃ¢
æī ®
åĩ Į
é«ĺ æ°´å¹³
å¢ĥ å¤ĸ
ä¹¦ ä¸Ń
åħĥ ä»¶
æŀģ åħ¶
ros is
æķĳ åĬ©
Ġvir al
å¾Īå¤§ ç¨ĭåº¦ä¸Ĭ
åįģåĽĽ æĿ¡
, ï¼Ĥ
ãĢ ķ
ç§į ç§į
éĢĤ å®ľ
èĪŀ åı°
V A
Ċ ĠĠĠ
å®ļ å¾ĭ
Ġth ough
çĶŁäº§ åĴĮ
Ġac h
å®ŀè·µ æ´»åĬ¨
Ġres piratory
æģ¶ æĦı
tex t
Ġiniti al
ĉ ĉ
us cript
æĹ© åľ¨
Ġrec ent
é«ĺ åİŁ
è· Į
çķ ª
ve ment
èĥ½å¤Ł åľ¨
ä¾¿ æĺ¯
çľŁå®ŀ æĢ§
Ġmon itor
Ġdel i
% ;
Ġ ill
ä¸į ç¬¦åĲĪ
ä¸ļ æĢģ
åİ» éĻ¤
oin ts
Ġinvestig ated
Ġsk in
Ġadminist ration
Ġlesion s
ä¸İ æĹ¶
æĿ¥ è®²
æĸĩ ä¸Ń
çī© èµĦ
Ġst aining
èĢĥ æŁ¥
åıĳå±ķçļĦ éĩįè¦ģ
å½ĵäºĭ äººçļĦ
Ġfe atures
ysi ological
å¯¹ ç¤¾ä¼ļ
Ġthe refore
åı¯ æİ§
Ġg ly
pl ant
Ġk in
Ġincre ases
199 8
Ġev ents
a w
m aterial
çļĦ ç©ºéĹ´
Ġa min
äºĨ ä¸Ģç§į
é¢ ĩ
çŃī å¾ħ
Ġad he
Ġdiff ic
æĵįä½ľ ç³»ç»Ł
Ġcaus ed
Ġach ie
çļĦ åħ¶ä»ĸ
äºº ä¹ĭ
æĢ§ çĸ¾çĹħ
èĮĥ å¼ı
å¿ħé¡» åĿļæĮģ
ä¿® åħ»
èµĦæľ¬ å¸Ĥåľº
çº· çº·
æ²ī ç§¯
æ®ĭ çĸ¾
çĸ¼ çĹĽ
P I
s upplementary
t on
Ġp oint
åºĶ åľ¨
çĿ ¡
çĮ Ľ
åıĳæĮ¥ äºĨ
åºĶè¯¥ æĺ¯
Ġen vironment
çī¹æ®Ĭ çļĦ
æĹĭ è½¬
æ¨ª åĲĳ
Ġtem per
æł½ åŁ¹
Ġapop tosis
g n
åĲ ¾
ä¼ļ åľ¨
é«ĺ èĢĥ
Ġl ines
ç¼© çŁŃ
çļĦ åħī
åĴĮ åĪĨæŀĲ
æĺ¯ å®ŀçİ°
ä¸į ç§»
Ġs till
åĩº åĶ®
og n
åĿĩ åĮĢ
é» İ
ç§¯æŀģ åıĤä¸İ
åıĳå¸ĥ çļĦ
ä¾Ľç»Ļ ä¾§
âĶ Ģ
R es
or ph
çĹħ åİŁ
è¿Ŀ èĥĮ
è®¤å®ļ ä¸º
æĺ¯ä¸Ģ é¡¹
æ·±åº¦ èŀįåĲĪ
Ġcomb ination
S K
çļĦ å¯¹è±¡
åº ¸
åĴĮ éĿŀ
er ate
ter ol
çĥŃ æĥħ
ä»ĺ æ¬¾
æ¶īåıĬ åĪ°
çº² é¢Ĩ
S V
çļĦ ä¸»ä½ĵ
ç» ¸
å¼ ¦
åīį æľŁ
å¸¸ çĶ¨çļĦ
æł¹ æºĲ
åĿļ å¼º
ç»ĵæŀľ è¡¨æĺİ
Ġpre c
Ġpl ac
æľĢå¤§ åĮĸ
Ġman uscript
åıĳ æİĺ
ol ar
æµģ å¤±
è¿ĺ åĮħæĭ¬
Ġpre vent
ĠU SA
ak en
æĺ¥ ç§ĭ
è¿Ķ è¿ĺ
å¼¥ è¡¥
ä¸Ń å¤ĸ
è¿Ļ ä¹Ł
å¤Ħ åľ¨
äºĴ è¡¥
è§£åĨ³ éĹ®é¢ĺçļĦ
æ°´å¹³ åĴĮ
çĶŁçī© å¤ļæł·æĢ§
éĢłæĪĲ äºĨ
å¦ ¨
éĽĨä¸Ń åľ¨
èĳĹä½ľ æĿĥ
Ġaffec ted
å¢ŀåĢ¼ ç¨İ
éĻķ è¥¿
Ġconduc ted
âĨ Ĵ
æĿ Ń
è´ ¤
èĥ½ åľ¨
åĲĪ ä¸Ģ
æ¶ Ľ
æľį ä»İ
æĦŁ åĪ°
ĠP CR
ri x
åįĹ æĸ¹
æİĪ äºĪ
ç´§ å¼ł
Ġam pl
åĶ¯çī© ä¸»ä¹ī
ä» Ķ
æĺ¯ å°Ĩ
èĥ ļ
å¯¹ æĪĳåĽ½
æİ ©
çķ ¸
åĪĽ ç«ĭ
ä½¿çĶ¨ æĿĥ
å¯Į æľī
Ġstud ents
Ġphosph ory
Ġprac tice
Ġnec ess
çļĦ åĽłç´ł
åıĳ æī¬
Ġp ap
Ġre ad
æ¨¡ åħ·
ç¨ĭåºı çļĦ
åı¥ è¯Ŀ
Ġrep e
Ġpo or
^ âĪĴ
çļĦ æīĢæľī
åĴĮ åĽ½å®¶
å¯¹ è¯¥
åı¯ åĨįçĶŁèĥ½æºĲ
æ°´ ç¨»
ä¸¤ å²¸
åĪ¶åº¦ æĶ¹éĿ©
è¶Ĭ å¤§
èħ ¾
éĻĪ è¿°
åĢ¡ è®®
ocy te
åĪĨè¾¨ çİĩ
Ġs elf
ic ine
åĶ ¤
åħļçļĦ å»ºè®¾
ç¨³ æŃ¥
éī´ åĪ«
è´µ æĹı
Ġobser v
L D
o le
s h
åĴĮ åĪĽæĸ°
ä¸İ ä¹ĭ
ä¸Ĭ æľī
æĬĢæľ¯ åľ¨
åı¯ä»¥ ä»İ
ut ure
å¤© åľ°
åĲĪæ³ķ æĢ§
é¥® é£Ł
C a
ä¸ ĺ
å¤ ¹
Ġm ig
Ġm otor
è®º çļĦ
ac tive
Ġcon dition
æĸ¹å¼ı åĴĮ
çŁ¥è¯Ĩ åĪĨåŃĲ
Ġse lected
ä¹łè¿ĳå¹³æĢ»ä¹¦è®° æĮĩåĩº
æ»ŀ åĲİ
H O
æĺ¯ æĪĳä»¬
ä¸º å®ŀçİ°
å¤§ çº²
Ġc er
Ġy ear
æ³¨æĦı çļĦæĺ¯
çŃ¾ ç½²
å¤§åĬĽ åıĳå±ķ
èķ´ åĲ«
b it
çĶŁ èĤ²
åĮĸ çŁ³
åĪ¶ è®¢
Ġpro posed
ç¦ ½
Ġrec ord
Ġpub lished
çĵ¶ é¢Ī
y gen
åĴĮ æĸ°
åĩ ¯
æŀ ª
æľº çļĦ
ä½Ĩ åħ¶
æľįåĬ¡ æıĲä¾Ľ
éķ¿æľŁ ä»¥æĿ¥
æĭī åħĭ
æŃ¦ æ±ī
Ġprog n
Th is
ä¸Ģ çĤ¹
åĨ Ģ
ä¸İ ä¸ŃåĽ½
å·¥ ä¼ļ
åħ¬ åĬ¡
Ġl ength
è®® é¢ĺ
ç§ĳåŃ¦ çłĶç©¶
åıĪ ç§°
ä¸įæĸŃ åľ°
Ġch all
æľĢå¤§ éĻĲåº¦
Ġcol on
æķĮ äºº
B M
U N
c t
åı¯ åľ¨
è¿ĩ çļĦ
è¿ĳ æĹ¥
ä¸ĩ åĲ¨
é¥ Ń
é¡º åºĶ
Ġkn owledge
åįģä¸ĥ æĿ¡
G A
ä¸º ä¸»ä½ĵ
Ġs uff
æ°ĳ åĽ½
æľº åĬ¨
åĽ½éĻħ åĮĸ
duc ing
çŁŃ æĿ¿
ä¸ŃåĽ½åħ±äº§åħļ é¢Ĩå¯¼
èī° èĭ¦
Ġsuc cess
] [@
çļĦ æķ´ä½ĵ
ä¸į ç®¡
is tic
Ġh and
çĬ ¹
Ġ\ >
Ġse g
èİ·å¾Ĺ çļĦ
Ġfunc tions
çĪĨ çĤ¸
äº ı
æ³ķ åĴĮ
ag ed
è¥¿ åįĹ
è¡Ģ æłĵ
åĲ¯ ç¤º
Ġcol l
Ġout come
r ight
Ġ ve
çļĦ ä»»åĬ¡
åľ¨ å®ŀè·µä¸Ń
çĲĨ å·¥
åĲĦ éĥ¨éĹ¨
çķĮ éĻĲ
åŃ¦ä¹ł èĢħ
æĻ® æĥł
Ġab le
ä¸Ģå®ļ è¦ģ
çĩ ¥
ç¥ŀç»ı åħĥ
éĺ¿ æĭī
æķ°åŃĹåĮĸ è½¬åŀĭ
çļĦåīįæıĲ ä¸ĭ
çļĦ ç³»ç»Ł
Ġo per
åı² æĸĻ
ä¸¤ ç±»
è± Ĩ
åĪĹ åħ¥
æĮĩå¯¼ æĢĿæĥ³
åºķ çº¿
æ½® æµģ
Ġrese arc
Ġdiagnos tic
A g
f rac
l er
Ġ ä»İ
çļĦ ä¼Łå¤§
ä¸º åħ¶
æĿĥ åĬĽçļĦ
åı¯ä»¥ å°Ĩ
Ġh ydro
æĹ¥ æľŁ
æĶ¿çŃĸ åĴĮ
åĽŀ æĬ¥
ĠR ec
åĬŀ äºĭ
Ġtrans f
çļĦæĸ° åŀĭ
Ġqu anti
Ġbi ological
çªĹ åı£
00 6
ä¸ŃçļĦ ä½ľçĶ¨
æĺ¯ åĽ½å®¶
å¤§ å±Ģ
==== ===
Ġse en
Ġdi et
medi ated
ä¸įåĪ© äºİ
Ġcalc ulated
çİ Ħ
om p
00 3
æĦŁ æĥħ
æ¸ħ ä»£
ç§ĳæĬĢ æĪĲæŀľ
éĺ³ æĢ§
199 9
éĢĢ åĩº
% ãĢģ
ro b
èĭ ·
ç»Łä¸Ģ æĪĺçº¿
æĿĥåĪ© çļĦ
èµĭ èĥ½
å½ĵä»£ ä¸ŃåĽ½
ov ascular
èĤ² ç§į
éĶ ¦
å¤į èĭı
åħī è°±
å®ĮåĸĦ çļĦ
åĬ¨åĬĽ åŃ¦
çĶŁåĳ½ åĳ¨æľŁ
åĲĽ ä¸»
Ġevalu ation
Ġw or
çłĶç©¶ åıĳçİ°
åı¯ä»¥ çľĭåĩº
çĶŁäº§ ç»ıèĲ¥
å¥´ éļ¶
g o
Ġt ests
æľī å®³
æĢ§ åĪ«
åıĺ ä¸º
è¡¨ å¾ģ
ul ate
æŃ¤ æ¬¡
åį³ å°Ĩ
---------------- --------
åħļçļĦ äºĮåįģ
Ġstud ied
Ġcont inu
èĩªçĶ± è´¸æĺĵ
åįıè°ĥ åıĳå±ķ
å®ĭ ä»£
av a
åĿļå®ļ ä¸įç§»
Ġp ower
Ġm ax
åħ¬ åħģ
éĽ ¾
em b
ç¼ĵ åĨ²
Ġsuggest ing
å¨± ä¹Ĳ
æľĭ åıĭ
ãĢĤ [
åı¯ è§Ĩ
ar tic
æĭ ĸ
æĮĩ çļĦæĺ¯
åĻ ¬
éĿŀ çī©è´¨
éļı ä¹ĭ
ĠD i
ä¸ĵä¸ļ åĮĸ
ä»¥ä¸ĭ åĩłä¸ª
ici ency
mon ary
èĪŀ è¹Ī
fer red
å¹¼åĦ¿ åĽŃ
Ġdisc us
Ġvers us
åĽ½ åľŁ
ä¸į åľ¨
ä»ĸ è®¤ä¸º
æ¸© å®¤
çļĦä¸Ģ åĪĩ
æ¶² ä½ĵ
R O
æĺ¯ ä¸º
åİ ī
å¾Ī å¥½çļĦ
éĩĮ çļĦ
ect or
Ġpredic t
Ġcorrel ation
ä¿± è¿Ľ
çºº ç»ĩ
ä¸Ń ç¾İ
å¼ Ħ
æĬ ±
å½ĵ ä¸ĭ
çĶµ è§£
ĠA p
ä¸¤ æ¬¡
å®ŀè·µ æķĻåŃ¦
çĶŁæĢģ ä¿ĿæĬ¤
éĤ Ģ
ä¸¥æł¼ çļĦ
ç¡®ç«ĭ äºĨ
Ġu til
åĲĦæĹı äººæ°ĳ
H z
è´ ª
Ġc ere
ä¼ģä¸ļ å®¶
Ġcon n
åŁºæľ¬ åİŁçĲĨ
åĮĹäº¬ å¸Ĥ
ed ing
or b
ä¸Ĭ ä¸ĸçºª
Ġf il
éĥ¨ çļĦ
å°± åĥı
äººæ°ĳ ä¸ºä¸Ńå¿ĥ
ä¿¡æģ¯ å®īåħ¨
æķĻå¸Ī åľ¨
è¾¾åĪ° äºĨ
å®ĮæĪĲ äºĨ
æ¡¥ æ¢ģ
äºĮæ°§åĮĸ ç¢³
a z
åħ¨ æĸ°çļĦ
éľ ī
èµ· çĿĢ
åħī çº¤
è¿Ļä¸ª éĹ®é¢ĺ
ĠÂ ł
Ġinhibit or
Ġcoh ort
s ing
çļĦ äº§çĶŁ
éĶ Ĥ
éĻ¢ éķ¿
çķĮ çļĦ
ir d
æİ¨åĬ¨ äºĨ
ass ociated
) "
m g
çļĦ å¤ĸ
å® °
ä¸º çĽ®çļĦ
ä¼ļ ä¸Ĭ
åħ± èµ¢
ä¸¤ åĽ½
éĩįè¦ģçļĦ ä½ľçĶ¨
ç»ĺ åĪ¶
Ġprocess es
Ġcle ar
\[ [@
^ {
æĸ ¤
ä½ĵ ä¼ļ
or atory
ç¤¾ä¼ļ ç»ıæµİ
é¢Ĩå¯¼ äºº
é©¬åħĭæĢĿä¸»ä¹ī ä¸ŃåĽ½
Ġinter vention
tim e
Ġind ex
ç¼ĵ æħ¢
çī¢ çī¢
è¸ ı
reg ulated
æĭį åįĸ
Ġlip id
Ġinfec tions
ä¸İæĹ¶ ä¿±è¿Ľ
Ġ å¯¹
çļĦ å®ŀæĸ½
çļĦ æľºä¼ļ
é¢ ł
è¿Ļ æĹ¶
åħ¥ æīĭ
Ġh ost
æ°´ çļĦ
äºĮ çº§
èĪ ±
ab il
è¿ĳ æľŁ
åĽĽ å¤§
æ°Ķ ç®¡
åĽ½éĻħ è´¸æĺĵ
èĳ ¬
Ġcomp lic
èĵ ¬
æįŁå®³ èµĶåģ¿
å®ıè§Ĥ ç»ıæµİ
i k
æľī æľŁå¾ĴåĪĳ
ä¸İ åºĶçĶ¨
åĬ¨ èĥ½
æķĻ è®Ń
åĨħ æł¸
è´¨ çĸĳ
æĸ½ è¡Į
æī¿ åıĹ
ä¾µ çķ¥
çĬ¯ç½ª å«Įçĸĳ
åįĬ å¹´
Ġmem ory
åħ¨éĿ¢å»ºè®¾ ç¤¾ä¼ļä¸»ä¹īçİ°ä»£åĮĸ
Ġbiom ark
in t
Ġg ran
am ic
æķĻåŃ¦ æĸ¹æ³ķ
ç»Ļ åĩº
Ġcomp os
Ġcont aining
çĨ Ķ
å¸®åĬ© åŃ¦çĶŁ
å¸ĿåĽ½ ä¸»ä¹ī
Ġvol ume
çļĦ ç¬¬ä¸Ģ
åľ¨ å®ŀéĻħ
éĹ ª
Ġm M
Ġf ood
åĨ³å®ļ æĢ§
ä¸ŃåĽ½åħ±äº§åħļ äºº
Ġrap id
æ¶ ¡
ĠT able
ç®¡çĲĨ äººåĳĺ
æĶ¯ æŁ±
æł¡ éķ¿
åħ¨éĿ¢ ä»İä¸¥
ç»¼ ä¸Ĭ
éŁ© åĽ½
èĸª éħ¬
ipher al
ï¼ Ļ
ä»£ ä»·
éħ °
æĶ¶ è´¹
Ġ2 1
å¤ª å¹³
åĮ»çĸĹ æľºæŀĦ
Ġsub sequ
åįģä¹Ŀ æĿ¡
æ¾³ å¤§åĪ©
ä¸Ńåįİä¼ĺç§Ģ ä¼łç»ŁæĸĩåĮĸ
Ġs l
Ġc ognitive
å°ı ç»ĵ
Ġpro por
å½±åĵį äºĨ
Ġal though
Ġac tive
åŃĺåľ¨ äºİ
åĿļæĮģ åĴĮåıĳå±ķ
é» ı
çģµ éŃĤ
Ġlear ning
æ¾³å¤§åĪ© äºļ
% ),
çľ ł
ç»Ħ çļĦ
æĹ¥ åĨħ
è¯¾ æĹ¶
ä»İèĢĮ ä½¿
åįģäºĶ æĿ¡
Ġunderst anding
æī® æ¼Ķ
Ġd epend
ä»İ ä¸Ń
éļ Ļ
ä¸¤ å¹´
å¾Ī å®¹æĺĵ
èĢģ é¾Ħ
åĽŃ æŀĹ
Ġcharacter ized
Ġprot ocol
M R
b y
n s
çļĦ åĪĽæĸ°
æĥ Ł
ç¡ Ŀ
Ġe lectr
åĨľ åľº
åĽŀ åĪ°
åĲĪåĲĮ æ³ķ
çĲĨè§£ åĴĮ
å»¶ è¿Ł
Ġrec r
Ġsyn thesis
çļĦ äº§åĵģ
æµ ©
è¿Ľ åĩºåı£
åĪĨ æķ°
éģ ı
æ¨¡ ä»¿
å¤© æ°Ķ
å² Ń
åħ¼ å®¹
çļĦä¸Ģä¸ª éĩįè¦ģ
çºµ åĲĳ
Ġabs ence
Ġcour se
g l
ä¼ļ åĳĺ
es tern
ig g
åĲĦ æ°ĳæĹı
ç² ¤
å¸Ĥåľº ä¸»ä½ĵ
æłĩåĩĨ åĴĮ
çª ĥ
Ġdis pl
é£İéĻ© ç®¡çĲĨ
è§ĦèĮĥ åĮĸ
ç»Ŀ å¤§å¤ļæķ°
ä»ª å¼ı
ef ul
r up
ç» µ
Ġsur ve
åŁºç¡Ģè®¾æĸ½ å»ºè®¾
Ġgu id
P U
r m
çļĦ ä¼łç»Ł
æ² ĥ
èĩª è´¸
ä¹Ł åı¯èĥ½
å¹³ ç¨³
æĿ¡ ç¬¬
çİ¯å¢ĥ ä¸ĭ
æ¯Ĵ æĢ§
æĸ°åıĳå±ķ çĲĨå¿µ
æŀģå¤§ åľ°
Ġner ve
çļĦ æ´»åĬ¨
çļĦ èīºæľ¯
åĪ¶ åĵģ
è¿Ļ æĦıåĳ³çĿĢ
Ġm aterial
20 23
æķĻå¸Ī è¦ģ
åĮ»çĸĹ ä¿ĿéĻ©
æ·· ä¹±
åįģä¸ī äºĶ
è¶³å¤Ł çļĦ
Ĉ Ć
Ġ >
å¯¹ ä¼ģä¸ļ
æŃ¤ åĲİ
ç®¡çĲĨ èĢħ
å·¥ä½ľ ä¼ļè®®
æ¬¡ æķ°
éĢĤ åº¦
æĶ¶åħ¥ åĪĨéħį
CP U
ç¼Ķ çº¦
çļĦ æĥħå½¢
ï¼ į
ul ating
éĹ®é¢ĺ ä¸Ĭ
Ġal le
è¶³ ä»¥
åıĪ è¦ģ
ä¸įæĸŃ å®ĮåĸĦ
åŁİå¸Ĥ çļĦ
æĵ İ
å¯¼èĩ´ äºĨ
åħĪè¿Ľ çļĦ
a di
çĶ¨ å·¥
ç»ı è´¸
om as
éĹ®é¢ĺ æĺ¯
äº¤ éĻħ
æĶ¶ æĶ¯
äºĴ éĢļ
åĽŀ éģ¿
éŁ ¦
èģĮä¸ļ åŃ¦æł¡
åĬłå¿« æİ¨è¿Ľ
anc ers
ç¥ŀç»ı ç½ĳç»ľ
Ġrem ains
è¿Ń ä»£
r h
åĪĨ å±Ĥ
æĪĳåĽ½ ç»ıæµİ
åħ» æĪĲ
è§ģ çļĦ
çĽ®æłĩ åĴĮ
Ġne u
