{"":0,"!":1,"\"":2,"#":3,"$":4,"%":5,"&":6,"'":7,"(":8,")":9,"*":10,"+":11,",":12,"-":13,".":14,"/":15,"0":16,"1":17,"2":18,"3":19,"4":20,"5":21,"6":22,"7":23,"8":24,"9":25,":":26,";":27,"<":28,"=":29,">":30,"?":31,"@":32,"A":33,"B":34,"C":35,"D":36,"E":37,"F":38,"G":39,"H":40,"I":41,"J":42,"K":43,"L":44,"M":45,"N":46,"O":47,"P":48,"Q":49,"R":50,"S":51,"T":52,"U":53,"V":54,"W":55,"X":56,"Y":57,"Z":58,"[":59,"\\":60,"]":61,"^":62,"_":63,"`":64,"a":65,"b":66,"c":67,"d":68,"e":69,"f":70,"g":71,"h":72,"i":73,"j":74,"k":75,"l":76,"m":77,"n":78,"o":79,"p":80,"q":81,"r":82,"s":83,"t":84,"u":85,"v":86,"w":87,"x":88,"y":89,"z":90,"{":91,"|":92,"}":93,"~":94,"¡":95,"¢":96,"£":97,"¤":98,"¥":99,"¦":100,"§":101,"¨":102,"©":103,"ª":104,"«":105,"¬":106,"®":107,"¯":108,"°":109,"±":110,"²":111,"³":112,"´":113,"µ":114,"¶":115,"·":116,"¸":117,"¹":118,"º":119,"»":120,"¼":121,"½":122,"¾":123,"¿":124,"À":125,"Á":126,"Â":127,"Ã":128,"Ä":129,"Å":130,"Æ":131,"Ç":132,"È":133,"É":134,"Ê":135,"Ë":136,"Ì":137,"Í":138,"Î":139,"Ï":140,"Ð":141,"Ñ":142,"Ò":143,"Ó":144,"Ô":145,"Õ":146,"Ö":147,"×":148,"Ø":149,"Ù":150,"Ú":151,"Û":152,"Ü":153,"Ý":154,"Þ":155,"ß":156,"à":157,"á":158,"â":159,"ã":160,"ä":161,"å":162,"æ":163,"ç":164,"è":165,"é":166,"ê":167,"ë":168,"ì":169,"í":170,"î":171,"ï":172,"ð":173,"ñ":174,"ò":175,"ó":176,"ô":177,"õ":178,"ö":179,"÷":180,"ø":181,"ù":182,"ú":183,"û":184,"ü":185,"ý":186,"þ":187,"ÿ":188,"Ā":189,"ā":190,"Ă":191,"ă":192,"Ą":193,"ą":194,"Ć":195,"ć":196,"Ĉ":197,"ĉ":198,"Ċ":199,"ċ":200,"Č":201,"č":202,"Ď":203,"ď":204,"Đ":205,"đ":206,"Ē":207,"ē":208,"Ĕ":209,"ĕ":210,"Ė":211,"ė":212,"Ę":213,"ę":214,"Ě":215,"ě":216,"Ĝ":217,"ĝ":218,"Ğ":219,"ğ":220,"Ġ":221,"ġ":222,"Ģ":223,"ģ":224,"Ĥ":225,"ĥ":226,"Ħ":227,"ħ":228,"Ĩ":229,"ĩ":230,"Ī":231,"ī":232,"Ĭ":233,"ĭ":234,"Į":235,"į":236,"İ":237,"ı":238,"Ĳ":239,"ĳ":240,"Ĵ":241,"ĵ":242,"Ķ":243,"ķ":244,"ĸ":245,"Ĺ":246,"ĺ":247,"Ļ":248,"ļ":249,"Ľ":250,"ľ":251,"Ŀ":252,"ŀ":253,"Ł":254,"ł":255,"Ń":256,"ä¸":257,"çļ":258,"çļĦ":259,"äº":260,"ãĢ":261,"åħ":262,"åı":263,"ï¼":264,"ĠĠ":265,"æľ":266,"ä»":267,"åĪ":268,"ï¼Į":269,"å®":270,"ç»":271,"è¿":272,"çĶ":273,"ä½":274,"åĬ":275,"å¤":276,"åĲ":277,"åľ":278,"åĽ":279,"æĸ":280,"ãĢģ":281,"æĺ":282,"è®":283,"ä¹":284,"åŃ":285,"ãĢĤ":286,"in":287,"ĠĠĠĠ":288,"è¯":289,"æĪ":290,"Ġa":291,"ä¼":292,"Ġt":293,"æķ":294,"åĴ":295,"åº":296,"åĴĮ":297,"æĺ¯":298,"re":299,"ä¸Ģ":300,"ä¸Ń":301,"åĮ":302,"æĢ":303,"æĿ":304,"å¹":305,"åľ¨":306,"å¯":307,"éĩ":308,"å¼":309,"è¡":310,"æĹ":311,"åĽ½":312,"on":313,"he":314,"åį":315,"åĨ":316,"äºº":317,"æĶ":318,"ti":319,"æľī":320,"è§":321,"åŃ¦":322,"ä¸º":323,"æ³":324,"--":325,"çĽ":326,"å°":327,"èĢ":328,"éĢ":329,"å±":330,"æī":331,"è´":332,"èĥ":333,"ç§":334,"çİ":335,"æĬ":336,"åĩ":337,"æł":338,"åıĳ":339,"å¾":340,"ä¸į":341,"en":342,"æ°":343,"çĲ":344,"å·":345,"å¸":346,"ä»¥":347,"çĶŁ":348,"è¦":349,"è¦ģ":350,"æ³ķ":351,"er":352,"ä¿":353,"çī":354,"å½":355,"Ġo":356,"æŀ":357,"çĶ¨":358,"éĻ":359,"çĲĨ":360,"éĿ":361,"åŁ":362,"å¯¹":363,"ä¸ļ":364,"å¤§":365,"äºĨ":366,"æµ":367,"æİ":368,"èĥ½":369,"Ġs":370,"è¡Į":371,"åĮĸ":372,"Ġc":373,"ed":374,"Ġthe":375,"al":376,"âĢ":377,"èµ":378,"çŃ":379,"æĢ§":380,"æŃ":381,"ä¼ļ":382,"ĠĠĠĠĠĠĠĠ":383,"å®ŀ":384,"éĹ":385,"å¿":386,"é¢":387,"at":388,"Ġin":389,"æĪĲ":390,"Ġp":391,"ä½ľ":392,"çº":393,"ä½ĵ":394,"æĸ¹":395,"äºİ":396,"es":397,"ä¸İ":398,"èĩ":399,"æĮ":400,"å®ļ":401,"or":402,"Ġan":403,"ä¸»":404,"ç¨":405,"ä¸ª":406,"è¿Ľ":407,"åĪĨ":408,"åĪ¶":409,"åı¯":410,"åİ":411,"Ġof":412,"Ġw":413,"çİ°":414,"æĹ¶":415,"åĬ¨":416,"äº§":417,"å±ķ":418,"is":419,"ç»ı":420,"an":421,"ä¾":422,"ç¤":423,"ä¸Ĭ":424,"åĩº":425,"åľ°":426,"æı":427,"æ²":428,"è¾":429,"éĥ":430,"åĲĪ":431,"åĬĽ":432,"tion":433,"ç³":434,"è¿Ļ":435,"ç®":436,"it":437,"åĳ":438,"ç«":439,"ro":440,"Ġm":441,"æķĻ":442,"åĲĮ":443,"æľ¬":444,"å¹´":445,"----":446,"æĸ°":447,"æ°ĳ":448,"èĤ":449,"å»":450,"ç³»":451,"åºĶ":452,"åħ³":453,"å·¥":454,"çŃī":455,"Ġd":456,"åħ¨":457,"Ġand":458,"é«":459,"éĩį":460,"é«ĺ":461,"Ġf":462,"æĶ¿":463,"è¿ĩ":464,"ic":465,"as":466,"åº¦":467,"æį":468,"ar":469,"åħ¶":470,"ç½":471,"ç¨ĭ":472,"Ġb":473,"åıĳå±ķ":474,"æĿ¥":475,"å»º":476,"æķ°":477,"èĢĮ":478,"æ±":479,"æıĲ":480,"ing":481,"åĪ°":482,"åŁº":483,"åĵ":484,"æĸĩ":485,"æĦ":486,"éĿ¢":487,"çł":488,"è®¾":489,"èĩª":490,"èĢħ":491,"ç¤¾":492,"æĭ":493,"æĥ":494,"æľº":495,"ä¹ĭ":496,"ç©":497,"è½":498,"ç¡":499,"èµĦ":500,"å®¶":501,"éĺ":502,"le":503,"çī©":504,"å¢":505,"ä»£":506,"Ġ(":507,"ent":508,"¦Ĥ":509,"å¤ļ":510,"åĬ¡":511,"ç¬":512,"åī":513,"éĩı":514,"éĢļ":515,"ç§į":516,"ç¤¾ä¼ļ":517,"æ´":518,"æ¯":519,"ç»Ł":520,"è°":521,"Ġre":522,"ä¹ī":523,"åĢ":524,"åĨħ":525,"è§Ħ":526,"æīĢ":527,"åħ¬":528,"çĽ¸":529,"åıĬ":530,"èģ":531,"è·":532,"æĿĥ":533,"éĥ¨":534,"ä¿Ŀ":535,"åĬł":536,"ä¸ŃåĽ½":537,"å¼ı":538,"æĪĳ":539,"el":540,"é¡":541,"æĬĢ":542,"ä¸ĭ":543,"æĽ":544,"åĪ©":545,"æį®":546,"åĽł":547,"çŁ":548,"ç®¡":549,"å¥":550,"äºĭ":551,"æľ¯":552,"ä¿¡":553,"éģ":554,"å¼Ģ":555,"çĤ":556,"çłĶ":557,"å¦Ĥ":558,"ä¹Ł":559,"ç»ĵ":560,"çķ":561,"åĲİ":562,"âĢľ":563,"âĢĿ":564,"æĪĸ":565,"Ġto":566,"ç¬¬":567,"è®¡":568,"ä»İ":569,"éļ":570,"Ġe":571,"us":572,"ation":573,"åĿ":574,"é¢ĺ":575,"æµİ":576,"æ²»":577,"ec":578,"çī¹":579,"ä½¿":580,"å°±":581,"20":582,"å½ĵ":583,"éĹ´":584,"å¹³":585,"æĺİ":586,"è§£":587,"æŀĦ":588,"ç»ıæµİ":589,"ä»¬":590,"å¹¶":591,"æ¬":592,"æłĩ":593,"è´¨":594,"éķ":595,"ç©¶":596,"èĤ²":597,"åģ":598,"éľ":599,"è¶":600,"è®º":601,"ç´":602,"ç«ĭ":603,"æģ":604,"ç§ĳ":605,"æľŁ":606,"åıĺ":607,"å¼º":608,"èī":609,"è¡¨":610,"ac":611,"æ¸":612,"çĽ®":613,"æº":614,"çĤ¹":615,"å¾Ĺ":616,"çľ":617,"åħ¥":618,"å½¢":619,"æĻ":620,"åħ±":621,"ç±":622,"çĶ±":623,"çłĶç©¶":624,"åīį":625,"å¸Ĥ":626,"ul":627,"åĮº":628,"å¯¼":629,"éĹ®":630,"ĠĠĠĠĠĠĠĠĠĠĠĠĠĠĠĠ":631,"æĦı":632,"çĶµ":633,"å¿ĥ":634,"ç¾":635,"æŁ":636,"æķĪ":637,"åħļ":638,"åŀ":639,"om":640,"æ±Ĥ":641,"å°Ĩ":642,"åħ·":643,"å¤ĸ":644,"æĽ´":645,"ç»Ħ":646,"ä¸ī":647,"çĦ":648,"æ¶":649,"æĬĢæľ¯":650,"æŃ¤":651,"æľĢ":652,"ä»¶":653,"ig":654,"--------":655,"æĶ¹":656,"éľĢ":657,"åĲĳ":658,"ä»ĸ":659,"æºĲ":660,"è¯Ĩ":661,"åŃĲ":662,"éĽ":663,"Ġn":664,"Ġth":665,"éķ¿":666,"ol":667,"æĢĿ":668,"æĮģ":669,"åĪĽ":670,"åĲĦ":671,"çĿ":672,"et":673,"åı¯ä»¥":674,"ç½ĳ":675,"åİŁ":676,"æ´»":677,"æķĻèĤ²":678,"Ġh":679,"os":680,"æ°´":681,"è¿Ľè¡Į":682,"åĽ½å®¶":683,"ä¼ģ":684,"æĮĩ":685,"ä½į":686,"åĵģ":687,"ç±»":688,"åŀĭ":689,"éĹ®é¢ĺ":690,"ç¼":691,"ç¡®":692,"id":693,"éª":694,"çĦ¶":695,"ä¸Ģä¸ª":696,"ĠT":697,"æĿ¡":698,"ur":699,"è®¤":700,"çĸ":701,"äºĮ":702,"æ¨":703,"ä»·":704,"æŃ£":705,"è°ĥ":706,"åľº":707,"æŀľ":708,"å¢ŀ":709,"ä¼ģä¸ļ":710,"ä¼ł":711,"im":712,"ve":713,"==":714,"æ·":715,"æ¡":716,"æĥħ":717,"åĨ³":718,"çĹ":719,"Ġl":720,"éĩĳ":721,"é£":722,"æ¨¡":723,"ç®¡çĲĨ":724,"æģ¯":725,"ä¸»ä¹ī":726,"æİ¨":727,"çŁ¥":728,"æĹł":729,"ãĢĬ":730,"æµģ":731,"ãĢĭ":732,"ç²":733,"un":734,"ly":735,"äºĽ":736,"ä¹ł":737,"åĳĺ":738,"ä»»":739,"æĢģ":740,"åŃ¦çĶŁ":741,"00":742,"éĢł":743,"åĪĻ":744,"ä½Ĩ":745,"å®ī":746,"è§Ĥ":747,"å§":748,"Ġ1":749,"åŃĺ":750,"èĲ":751,"æİ¥":752,"å¤Ħ":753,"åĨľ":754,"çİ¯":755,"éħ":756,"è¯ģ":757,"ith":758,"ä¾Ľ":759,"èµ·":760,"é¢Ĩ":761,"éĢļè¿ĩ":762,"å¸¸":763,"è¿Ĳ":764,"è¢":765,"å°ı":766,"ç³»ç»Ł":767,"åĩĨ":768,"èĬ":769,"éĿ©":770,"éĶ":771,"æľį":772,"è½¬":773,"Ġwith":774,"ï¼ī":775,"äººæ°ĳ":776,"æ®":777,"ere":778,"äº¤":779,"éĥ½":780,"æķ°æį®":781,"å»ºè®¾":782,"æĹ¥":783,"æ¯Ķ":784,"åįģ":785,"Ġg":786,"ä¿¡æģ¯":787,"å·¥ä½ľ":788,"ï¼Ī":789,"å¾ĭ":790,"çĿĢ":791,"éĻħ":792,"æĪĺ":793,"æĸ½":794,"ot":795,"è¢«":796,"èģĶ":797,"å¢ĥ":798,"ce":799,"ç¥":800,"çĻ":801,"åı²":802,"res":803,"ç´ł":804,"éĩįè¦ģ":805,"åķ":806,"ter":807,"åĻ":808,"åıĸ":809,"éĻ¢":810,"ĠC":811,"åĢ¼":812,"éªĮ":813,"Ġst":814,"éĵ":815,"å¥½":816,"ä¸ĸ":817,"çİĩ":818,"il":819,"Ġfor":820,"é¡¹":821,"ä¸ĵ":822,"åįķ":823,"è¿ĺ":824,"è¯´":825,"åķĨ":826,"åıĹ":827,"éģĵ":828,"åıį":829,"å¿ħ":830,"åŁŁ":831,"çķĮ":832,"am":833,"çº§":834,"æĶ¶":835,"Ġpro":836,"ç¾İ":837,"ut":838,"èĮ":839,"åĻ¨":840,"ĠA":841,"ati":842,"éĽĨ":843,"æĢ»":844,"æ¬¡":845,"æµĭ":846,"å®Į":847,"è¯¾":848,"èį":849,"æŃ¥":850,"um":851,"æĥ³":852,"æľįåĬ¡":853,"è·¯":854,"çĬ":855,"åı¸":856,"æĬ¤":857,"ï¼ļ":858,"æ¡Ī":859,"ä¸¤":860,"åİĨ":861,"ag":862,"æĸŃ":863,"æĶ¾":864,"Ġas":865,"å®¹":866,"æĪĳä»¬":867,"åĮħ":868,"å®ŀçİ°":869,"èī²":870,"ow":871,"å¤į":872,"èĭ":873,"çŃĸ":874,"çĽĬ":875,"èŀ":876,"æķ´":877,"æł·":878,"Ġcon":879,"æĶ¯":880,"if":881,"Ġis":882,"æĸ¹éĿ¢":883,"oc":884,"å½±":885,"æł¹":886,"çĹħ":887,"åŁºç¡":888,"Ġv":889,"åŁºç¡Ģ":890,"ä¸»è¦ģ":891,"è¾¾":892,"ĠI":893,"od":894,"è¾ĥ":895,"ĠS":896,"èĦ":897,"ç®Ĺ":898,"åĵį":899,"èĥ½åĬĽ":900,"æ·±":901,"èĮĥ":902,"èŀį":903,"å¼ķ":904,"è®®":905,"å¸Ī":906,"æİ§":907,"è¿ĩç¨ĭ":908,"éľĢè¦ģ":909,"çº¿":910,"uc":911,"æĸĩåĮĸ":912,"ated":913,"åħĪ":914,"å·²":915,"èĪ":916,"åĽ¾":917,"åĪ¶åº¦":918,"æł¼":919,"åĪ«":920,"ä¹¦":921,"è£":922,"ç¦":923,"å¸Ĥåľº":924,"ä¼ĺ":925,"å±Ĥ":926,"èĢĥ":927,"19":928,"æķĻåŃ¦":929,"é©":930,"éĿŀ":931,"é£İ":932,"ell":933,"å®ĥ":934,"ç»ĩ":935,"èĬĤ":936,"èģĮ":937,"ä¾ĭ":938,"Ġex":939,"è¯¥":940,"åĸ":941,"st":942,"ab":943,"æĪĳåĽ½":944,"åºľ":945,"éĻ©":946,"ä¾Ŀ":947,"tic":948,"ç¤º":949,"æĸ¹æ³ķ":950,"åħ»":951,"åħĥ":952,"å£":953,"çĽĳ":954,"åħ·æľī":955,"è¿ĳ":956,"åįı":957,"ï¼Ľ":958,"æĦŁ":959,"ä½İ":960,"çİ¯å¢ĥ":961,"è¯Ń":962,"è¯Ħ":963,"ç²¾":964,"æł¡":965,"è±":966,"ç»Ħç»ĩ":967,"å½±åĵį":968,"[@":969,"ä¸ŃçļĦ":970,"å®īåħ¨":971,"si":972,"ä¸įåĲĮ":973,"ts":974,"åŁİ":975,"æŀĲ":976,"åĬŁ":977,"çĲĨè®º":978,"åŃ¦ä¹ł":979,"èĻ":980,"æĶ¿åºľ":981,"åħ³ç³»":982,"æĺĵ":983,"åĽĽ":984,"æŀģ":985,"è´£":986,"å¤ĩ":987,"åĳ½":988,"ç§ĳåŃ¦":989,"æıĲä¾Ľ":990,"æľĪ":991,"æł¸":992,"ra":993,"ä½¿çĶ¨":994,"æ£":995,"çĶŁäº§":996,"ç»´":997,"em":998,"ity":999,"è§Ħå®ļ":1000,"éĴ":1001,"ä½ĵç³»":1002,"æ®µ":1003,"æ³¨":1004,"èº":1005,"éĹ¨":1006,").":1007,"Ġ\\":1008,"åŃĹ":1009,"Ġthat":1010,"åĪĽæĸ°":1011,"åıĤ":1012,"åŁºæľ¬":1013,"Ġbe":1014,"å®¡":1015,"æĺ¾":1016,"æĬĬ":1017,"äºĴ":1018,"æľª":1019,"ud":1020,"è¦ģæ±Ĥ":1021,"èĩ³":1022,"ĠP":1023,"op":1024,"çĥ":1025,"åºĶçĶ¨":1026,"åį³":1027,"èº«":1028,"æ³ķå¾ĭ":1029,"æ°Ķ":1030,"æĶ¹éĿ©":1031,"åİĨåı²":1032,"æĬķ":1033,"ri":1034,"é¦":1035,"å°ĳ":1036,"è±¡":1037,"ç»ľ":1038,"æīį":1039,"äºī":1040,"çº¦":1041,"è®°":1042,"çģ":1043,"Ĥ£":1044,"èĩ´":1045,"ç»Ĩ":1046,"ĠM":1047,"å¿µ":1048,"èĲ¥":1049,"åĨµ":1050,"åĪĴ":1051,"ver":1052,"çĽ´":1053,"éĢī":1054,"åĪĨæŀĲ":1055,"åı£":1056,"è§Ĩ":1057,"ç¥ŀ":1058,"å¤©":1059,"ä½ľä¸º":1060,"ä½ľçĶ¨":1061,"ç»Ń":1062,"åŁ¹":1063,"Ġwas":1064,"ir":1065,"åºı":1066,"ä½ķ":1067,"åĿļ":1068,"æĸ¹å¼ı":1069,"çŁ¥è¯Ĩ":1070,"æıĲé«ĺ":1071,"æĸĻ":1072,"å±Ģ":1073,"ç½ĳç»ľ":1074,"æŁ¥":1075,"è¥":1076,"éħį":1077,"åħ¬åı¸":1078,"ä¸ľ":1079,"ä»¥åıĬ":1080,"éĢĤ":1081,"èµĦæºĲ":1082,"Ġon":1083,"è´¹":1084,"éĻĲ":1085,"è¡Įä¸º":1086,"æĬ¥":1087,"è·µ":1088,"éĩĩ":1089,"ç»ĵæŀĦ":1090,"è´¢":1091,"æĹı":1092,"åįĩ":1093,"åĬ¿":1094,"è¥¿":1095,"åı¯èĥ½":1096,"åıª":1097,"ç§¯":1098,"Ġal":1099,"å¹¿":1100,"og":1101,"Ġwere":1102,"æ»":1103,"çľĭ":1104,"åĸĦ":1105,"ate":1106,"10":1107,"ment":1108,"è¯ķ":1109,"Ġac":1110,"å¾Ī":1111,"æ²¡":1112,"ĠThe":1113,"è¨":1114,"éĢŁ":1115,"se":1116,"åĮ»":1117,"ä¸Ģç§į":1118,"å®ŀè·µ":1119,"ç½®":1120,"å½¢æĪĲ":1121,"æ¶Ī":1122,"è¨Ģ":1123,"æĭ¬":1124,"æłĩåĩĨ":1125,"ħ§":1126,"Ġby":1127,"up":1128,"æīĭ":1129,"åĨĽ":1130,"çķ¥":1131,"----------------":1132,"å¸¦":1133,"é¢Ħ":1134,"ep":1135,"yp":1136,"ä¸ĸçķĮ":1137,"ç©º":1138,"çĽ¸åħ³":1139,"å¸ĥ":1140,"çĬ¶":1141,"),":1142,"çİ°ä»£":1143,"ĠH":1144,"è§ģ":1145,"æµ·":1146,"ç»Ļ":1147,"ted":1148,"her":1149,"====":1150,"åģļ":1151,"äº§ä¸ļ":1152,"åĬ©":1153,"åĲį":1154,"æĶ¿æ²»":1155,"åĲĮæĹ¶":1156,"çª":1157,"æĢĿæĥ³":1158,"äºĶ":1159,"åĨħå®¹":1160,"éĺ¶":1161,"æ²¡æľī":1162,"Ġ*":1163,"è®¾è®¡":1164,"åŃĺåľ¨":1165,"ä¸Ķ":1166,"æĿĳ":1167,"èİ":1168,"çĸĹ":1169,"æĻº":1170,"æ´»åĬ¨":1171,"éļ¾":1172,"åĽ½éĻħ":1173,"é¡»":1174,"æ£Ģ":1175,"éĻ¤":1176,"åħĭ":1177,"éĺ²":1178,"ay":1179,"Ġ2":1180,"ĠĠĠĠĠĠĠĠĠĠĠĠĠĠĠĠĠĠĠĠĠĠĠĠĠĠĠĠĠĠĠĠ":1181,"qu":1182,"æıĲåĩº":1183,"ä»ħ":1184,"åĮħæĭ¬":1185,"Ġor":1186,"ä¿ĿæĬ¤":1187,"ç¤¾ä¼ļä¸»ä¹ī":1188,"ç¢":1189,"æī¿":1190,"è¿ĻäºĽ":1191,"çĽ®æłĩ":1192,"åįİ":1193,"æ¸ħ":1194,"å°±æĺ¯":1195,"ure":1196,"åı°":1197,"th":1198,"æī§":1199,"çĲĥ":1200,"rom":1201,"åħ¶ä»ĸ":1202,"è¿°":1203,"ç¾¤":1204,"æĪĲä¸º":1205,"åĪĹ":1206,"å¾ģ":1207,"åĳĬ":1208,"ä»·åĢ¼":1209,"ï¼Ĥ":1210,"ical":1211,"æĥħåĨµ":1212,"äº§åĵģ":1213,"å¾·":1214,"åĽłæŃ¤":1215,"åħī":1216,"Ġcell":1217,"Ġcom":1218,"å¤±":1219,"å»ºç«ĭ":1220,"æĪĸèĢħ":1221,"å§ĭ":1222,"è¯ī":1223,"æĶ¿çŃĸ":1224,"ä¼Ĺ":1225,"çľŁ":1226,"Ġres":1227,"åĽ´":1228,"è¶Ĭ":1229,"ĠĠĠ":1230,"åħħ":1231,"âĢĶ":1232,"åĬ³":1233,"å¿«":1234,"å±ŀ":1235,"éļı":1236,"éļľ":1237,"å¤ĦçĲĨ":1238,"åľŁ":1239,"éĥ¨åĪĨ":1240,"å¿ħé¡»":1241,"ä¸¥":1242,"çĭ":1243,"äººçļĦ":1244,"ran":1245,"æĿĲ":1246,"Ġare":1247,"ä¿ĥ":1248,"ents":1249,"éĻį":1250,"ĊĠ":1251,"ä¹ĭéĹ´":1252,"ç§°":1253,"æł¹æį®":1254,"åıĳçĶŁ":1255,"di":1256,"æİ§åĪ¶":1257,"åĮĹ":1258,"è¶³":1259,"åĪ¤":1260,"åĿĩ":1261,"åĽŀ":1262,"è´¨éĩı":1263,"é©¬":1264,"å¯¹äºİ":1265,"æ¯ı":1266,"åıĪ":1267,"è¡Ģ":1268,"åĪ©çĶ¨":1269,"å·®":1270,"åĨį":1271,"åİ»":1272,"åħ¨éĿ¢":1273,"åĩı":1274,"ĠR":1275,"è¿Ļç§į":1276,"åįĹ":1277,"ain":1278,"vel":1279,"çĶŁæ´»":1280,"ä¹Ī":1281,"å¼Ĥ":1282,"è§£åĨ³":1283,"çħ§":1284,"ant":1285,"è®©":1286,"å¤Ł":1287,"æľºåĪ¶":1288,"ĠD":1289,"èİ·":1290,"é¢ĨåŁŁ":1291,"ase":1292,"æĹ¶éĹ´":1293,"ç¦»":1294,"ff":1295,"æ°´å¹³":1296,"æĹ¶ä»£":1297,"ad":1298,"Ġim":1299,"è¡ĮæĶ¿":1300,"å§Ķ":1301,"å¹²":1302,"æĴ":1303,"åĽ¢":1304,"ç«ł":1305,"201":1306,"Ġ0":1307,"åĶ":1308,"å®ŀæĸ½":1309,"ĠB":1310,"æ°ĳæĹı":1311,"ä¸įæĸŃ":1312,"éĩĮ":1313,"Ġdis":1314,"æľīæķĪ":1315,"æ¬¾":1316,"èĥŀ":1317,"ç»Ī":1318,"è´Ł":1319,"ä¼łç»Ł":1320,"ine":1321,"åħ´":1322,"ĠF":1323,"äº§çĶŁ":1324,"æĪ·":1325,"ç¨İ":1326,"Ġus":1327,"æľºæŀĦ":1328,"æİ¢":1329,"age":1330,"ä¸ĩ":1331,"æ¨¡å¼ı":1332,"è®¡ç®Ĺ":1333,"èĳ":1334,"é£İéĻ©":1335,"è®¤ä¸º":1336,"åĬŀ":1337,"éĩĳèŀį":1338,"å·¥ç¨ĭ":1339,"æİĴ":1340,"\",":1341,"å®³":1342,"Ġ3":1343,"åĪĩ":1344,"èį¯":1345,"åĬŁèĥ½":1346,"æķĻå¸Ī":1347,"Ġat":1348,"é¦ĸ":1349,"çªģ":1350,"å·±":1351,"Ġexp":1352,"å¯Ĩ":1353,"ĠN":1354,"**":1355,"åı·":1356,"åħļçļĦ":1357,"æİ¨è¿Ľ":1358,"åĬ³åĬ¨":1359,"æĿ¡ä»¶":1360,"äººåĳĺ":1361,"ä¸ĵä¸ļ":1362,"è¯·":1363,"åİĭ":1364,"ç»Ĩèĥŀ":1365,"åıĳå±ķçļĦ":1366,"Ġch":1367,"åıĺåĮĸ":1368,"ore":1369,"è¿Ļä¸Ģ":1370,"å¾Ģ":1371,"ç¬¬ä¸Ģ":1372,"çĶŁæĢģ":1373,"Ġinc":1374,"å®ļçļĦ":1375,"é¡¹çĽ®":1376,"å®ŀéĻħ":1377,"ess":1378,"åħ±åĲĮ":1379,"æ¿":1380,"sion":1381,"ç¨³":1382,"æĮī":1383,"è´£ä»»":1384,"æĢ§çļĦ":1385,"çĶ±äºİ":1386,"æ¦Ĥ":1387,"è¶ħ":1388,"ĠE":1389,"åģ¥":1390,"è®¸":1391,"æĬķèµĦ":1392,"æİ¨åĬ¨":1393,"çĻ¾":1394,"ä¿®":1395,"æ¼":1396,"å²":1397,"å¯Į":1398,"èīº":1399,"æŁĲ":1400,"åĲ¦":1401,"ph":1402,"Ġstud":1403,"ub":1404,"èĤ¡":1405,"ç»ĵåĲĪ":1406,"æķ°åŃĹ":1407,"ç²¾ç¥ŀ":1408,"èĩªå·±":1409,"æ¿Ģ":1410,"ç§»":1411,"åĬłå¼º":1412,"å¦Ĥæŀľ":1413,"åĪĿ":1414,"ĠĠĠĠĠĠĠĠĠĠĠĠ":1415,"Ġfrom":1416,"ä¸įèĥ½":1417,"è¯¾ç¨ĭ":1418,"å¤®":1419,"åĨľä¸ļ":1420,"ä¿ĥè¿Ľ":1421,"åĳ¨":1422,"çĭ¬":1423,"Ġr":1424,"Ġwh":1425,"te":1426,"æĭħ":1427,"åºĶå½ĵ":1428,"200":1429,"åľ°åĮº":1430,"çºª":1431,"ers":1432,"åŁ¹åħ»":1433,"éŁ":1434,"çļĦåıĳå±ķ":1435,"æĻ¯":1436,"12":1437,"éĵ¾":1438,"åĿļæĮģ":1439,"ign":1440,"æįŁ":1441,"è¾ĵ":1442,"ç»¼":1443,"ä¸ĬçļĦ":1444,"ug":1445,"Ġcomp":1446,"éĥ¨éĹ¨":1447,"åĦ":1448,"ç¾İåĽ½":1449,"und":1450,"æĪĺçķ¥":1451,"èĥ½å¤Ł":1452,"Ġde":1453,"åĢº":1454,"ys":1455,"ç¼º":1456,"Ġpati":1457,"æ¢":1458,"éľĢæ±Ĥ":1459,"ä»ĸä»¬":1460,"åĤ":1461,"ç½ª":1462,"æĬĹ":1463,"æĻ®":1464,"åħ¨çĲĥ":1465,"åĩºçİ°":1466,"ĠIn":1467,"å¤§çļĦ":1468,"ä¸´":1469,"åº·":1470,"éĺŁ":1471,"Ġne":1472,"èĢģ":1473,"èĲ½":1474,"åĥ":1475,"ies":1476,"é»":1477,"å¿Ĺ":1478,"è½¦":1479,"ä¸Ńå¿ĥ":1480,"orm":1481,"åĩł":1482,"éĺ¶æ®µ":1483,"igh":1484,"åŁİå¸Ĥ":1485,"å¯Ł":1486,"å¼ł":1487,"åİŁåĪĻ":1488,"ç¼ĸ":1489,"å¢ŀåĬł":1490,"éĤ£":1491,"èĩªçĦ¶":1492,"è£ħ":1493,"Ġle":1494,"å±±":1495,"duc":1496,"ype":1497,"ch":1498,"Ġad":1499,"æł¸å¿ĥ":1500,"ä¸Ńå¤®":1501,"end":1502,"NA":1503,"Ġhe":1504,"å¤§åŃ¦":1505,"æīĢæľī":1506,"é¢Ĩå¯¼":1507,"ä¸ĢæŃ¥":1508,"æĸ°çļĦ":1509,"ç¬¬äºĮ":1510,"å·¥ä¸ļ":1511,"çĪ":1512,"è§Ĵ":1513,"æ³ķéĻ¢":1514,"çł´":1515,"æĸ¯":1516,"çĮ":1517,"èħ":1518,"ä¸ĢäºĽ":1519,"éĶ®":1520,"åı¤":1521,"ç®Ģ":1522,"ç»ĵæŀľ":1523,"ç§ĳæĬĢ":1524,"por":1525,"ä¹¡":1526,"æŁĵ":1527,"åĲĪä½ľ":1528,"æĵ":1529,"åĲĪåĲĮ":1530,"è´§":1531,"æīĵ":1532,"åıĳçİ°":1533,"çī¹èī²":1534,"æĭ©":1535,"çľģ":1536,"ä¿Ŀéļľ":1537,"pl":1538,"çĥŃ":1539,"iz":1540,"ous":1541,".\"":1542,"å¾®":1543,"est":1544,"å·²ç»ı":1545,"Ġpre":1546,"ib":1547,"æĮ¥":1548,"å®¢":1549,"çĶŁçī©":1550,"è¿Ļä¸ª":1551,"å¼Ģåıĳ":1552,"ific":1553,"å½¢å¼ı":1554,"ä»Ĭ":1555,"ç´¢":1556,"åĮĸçļĦ":1557,"æ²»çĲĨ":1558,"å®ĮåĸĦ":1559,"åı¦":1560,"æī§è¡Į":1561,"è¿ľ":1562,"æī©":1563,"æī¹":1564,"Ġcont":1565,"æĦıä¹ī":1566,"åħ·ä½ĵ":1567,"æĶ¯æĮģ":1568,"pec":1569,"æ»¡":1570,"ç»¼åĲĪ":1571,"åħį":1572,"çļĦéĩįè¦ģ":1573,"æĺİç¡®":1574,"è¿ŀ":1575,"ç¨ĭåºı":1576,"æıĲåįĩ":1577,"èµĦæľ¬":1578,"çļĦæĺ¯":1579,"åıĮ":1580,"ä»ĭ":1581,"ä¸ªäºº":1582,"è½½":1583,"ä¸įæĺ¯":1584,"ĠG":1585,"åĲ«":1586,"ç§¯æŀģ":1587,"è¾¹":1588,"éĢīæĭ©":1589,"å®ŀéªĮ":1590,"åĪ©çĽĬ":1591,"ist":1592,"éĩĬ":1593,"Ġcells":1594,"äººç±»":1595,"çĻ½":1596,"è¯»":1597,"æĻºèĥ½":1598,"çº³":1599,"ä¸»ä½ĵ":1600,"è®Ń":1601,"Ġgen":1602,"ĠL":1603,"æĪĲæľ¬":1604,"11":1605,"ä»£è¡¨":1606,"Ġ4":1607,"Ġcan":1608,"ref":1609,"Ġinf":1610,"èĭ±":1611,"æį¢":1612,"tiv":1613,"Ġse":1614,"æĤ£":1615,"èĪ¬":1616,"åĽłç´ł":1617,"åįķä½į":1618,"Ġsh":1619,"ations":1620,"è¿Ľä¸ĢæŃ¥":1621,"å¢ŀéķ¿":1622,"tive":1623,"æľīåħ³":1624,"è¡¥":1625,"æŃ¢":1626,"åĥı":1627,"ä¸Ńåįİ":1628,"CR":1629,"..":1630,"åįł":1631,"ãĢĢ":1632,"ä¸¾":1633,"çĽ´æİ¥":1634,"å¼ĢæĶ¾":1635,"è¿ĩç¨ĭä¸Ń":1636,"èĮĥåĽ´":1637,"ence":1638,"åħ³éĶ®":1639,"able":1640,"åħ¨åĽ½":1641,"ä¾¿":1642,"åŃ¦æł¡":1643,"ä¸ĢèĪ¬":1644,"å¯¼èĩ´":1645,"åĦ¿":1646,"åıĤä¸İ":1647,"å¦Ĥä½ķ":1648,"èģĮä¸ļ":1649,"æĿĤ":1650,"ç«¯":1651,"Ġper":1652,"åł":1653,"ç»§":1654,"åĽº":1655,"åĨĻ":1656,"åħ³äºİ":1657,"å¼Ģå±ķ":1658,"è¯Ŀ":1659,"Ġ5":1660,"pt":1661,"å¤´":1662,"ä¹Łæĺ¯":1663,"æı¡":1664,"ç»Łä¸Ģ":1665,"æĿĲæĸĻ":1666,"ary":1667,"ç«ŀ":1668,"ion":1669,"æķħ":1670,"è´¸":1671,"äºĪ":1672,"ç¬¬ä¸ī":1673,"çĬ¯":1674,"é£Ł":1675,"éĴĪ":1676,"](":1677,"ack":1678,"éĢĲ":1679,"è¯Ħä»·":1680,"æĮģç»Ń":1681,"æ¤":1682,"åħħåĪĨ":1683,"Ġass":1684,"æĳ":1685,"çĿ£":1686,"ip":1687,"ä»Ģ":1688,"çĽ®åīį":1689,"ath":1690,"ia":1691,"åħ¸":1692,"æ¶Īè´¹":1693,"åį±":1694,"ç»ıèĲ¥":1695,"ther":1696,"èī¯":1697,"ial":1698,"äººæīį":1699,"ĠW":1700,"åĪĳ":1701,"åĲĦç§į":1702,"èĳĹ":1703,"æİª":1704,"å®ĺ":1705,"æŀĹ":1706,"Ġpatients":1707,"ors":1708,"æĹ¢":1709,"éĶĢ":1710,"act":1711,"ä»İèĢĮ":1712,"çīĪ":1713,"å¾ĹåĪ°":1714,"éĿ©åĳ½":1715,"åĽłä¸º":1716,"éĵ¶":1717,"å¡":1718,"åıĳæĮ¥":1719,"å¸ģ":1720,"ä¼°":1721,"åħ¬åħ±":1722,"åĭ":1723,"ç©ºéĹ´":1724,"åĤ¨":1725,"ä»ĺ":1726,"Ġnot":1727,"èµ°":1728,"\\]":1729,"é©¬åħĭ":1730,"åĮºåŁŁ":1731,"å°Ķ":1732,"æĵį":1733,"é¢Ŀ":1734,"å±ħ":1735,"è®¤è¯Ĩ":1736,"ge":1737,"äº«":1738,"èģĶç½ĳ":1739,"çī¹å¾ģ":1740,"âĢĿï¼Į":1741,"ich":1742,"ç¨ĭåº¦":1743,"are":1744,"èµĦäº§":1745,"){":1746,"è®¼":1747,"é©¬åħĭæĢĿ":1748,"éĩįå¤§":1749,"Ġint":1750,"ä»Ģä¹Ī":1751,"åģ¿":1752,"åĨ³å®ļ":1753,"enti":1754,"ä¸įä»ħ":1755,"åħŃ":1756,"åľ°æĸ¹":1757,"æ¸©":1758,"Ġha":1759,"è®¾å¤ĩ":1760,"è§ĦèĮĥ":1761,"èİ·å¾Ĺ":1762,"å½ķ":1763,"è®²":1764,"å°Ħ":1765,"è¯īè®¼":1766,"ffec":1767,"çİĭ":1768,"æ¸¸":1769,"åħ¶ä¸Ń":1770,"vi":1771,"åŁºäºİ":1772,"ĠĠĠĠĠĠĠĠĠĠĠĠĠĠĠ":1773,"ä½Ĩæĺ¯":1774,"ç¢³":1775,"Ġsy":1776,"olog":1777,"æ¹":1778,"éĩĩçĶ¨":1779,"éĤ":1780,"åį«":1781,"æĸĹ":1782,"æĦıè¯Ĩ":1783,"åħ«":1784,"lec":1785,"è¡¨çİ°":1786,"ä»»åĬ¡":1787,"éĩįçĤ¹":1788,"å¼Ģå§ĭ":1789,"å¹³åı°":1790,"çĶµåŃĲ":1791,"æĿĥåĪ©":1792,"ä»į":1793,"åĲ¸":1794,"èĥ½æºĲ":1795,"type":1796,"Ġsign":1797,"æ±Ł":1798,"å£°":1799,"æ½":1800,"æ¨¡åŀĭ":1801,"ap":1802,"åĪĽéĢł":1803,"å°½":1804,"iff":1805,"ory":1806,"ç¡®å®ļ":1807,"æİĪ":1808,"æ¶ī":1809,"Ġwe":1810,"æ³¢":1811,"Ġthis":1812,"è¿Ļæł·":1813,"eren":1814,"éļıçĿĢ":1815,"æĹ¶æľŁ":1816,"æĿ¥çļĦ":1817,"çīĩ":1818,"çŁ³":1819,"å£«":1820,"ular":1821,"çĲĨè§£":1822,"å¾Ħ":1823,"15":1824,"ression":1825,"ä¸¤ä¸ª":1826,"æĮĩå¯¼":1827,"Ġ\\[":1828,"äºļ":1829,"æĤ":1830,"ä¹Ĳ":1831,"éŁ³":1832,"è¡¡":1833,"ç¬¦":1834,"rans":1835,"ä¾µ":1836,"æ¤į":1837,"ç«ŀäºī":1838,"ast":1839,"æ²»çĸĹ":1840,"è¡Įä¸ļ":1841,"Ġco":1842,"è§ĦåĪĴ":1843,"åĨľæĿĳ":1844,"è¿Ŀ":1845,"ä¸ºäºĨ":1846,"Ġdi":1847,"è¾¾åĪ°":1848,"çĸ«":1849,"30":1850,"Ġcl":1851,"æĸĩæĺİ":1852,"æľºåħ³":1853,"è®¡åĪĴ":1854,"ance":1855,"åĿĹ":1856,"18":1857,"æļ":1858,"æĺ¯åĲ¦":1859,"æĪ¿":1860,"åĽ°":1861,"æ¦Ĥå¿µ":1862,"äº¬":1863,"Ġ[":1864,"Ġap":1865,"éģĹ":1866,"åħ±äº§":1867,"å¨":1868,"=\"":1869,"çŃĳ":1870,"çļĦä¸Ģ":1871,"çĶ¨äºİ":1872,"æ³ķæ²»":1873,"æ°ĳä¸»":1874,"èģļ":1875,"åĪ¶éĢł":1876,"æŀĦå»º":1877,"ved":1878,"Ġdiff":1879,"è®¨":1880,"]\\]":1881,"åĢŁ":1882,"ç»ıéªĮ":1883,"å¤ª":1884,"ä¹ĭéĹ´çļĦ":1885,"](#":1886,"çĶ³":1887,"\"}":1888,"æŀ¶":1889,"ill":1890,"ĠO":1891,"è£ģ":1892,"çī¹åĪ«":1893,"çĹĩ":1894,"ä¸ŃåĽ½çī¹èī²":1895,"çī¹çĤ¹":1896,"åºĵ":1897,"ç¨³å®ļ":1898,"åģ¥åº·":1899,"æ¯Ķè¾ĥ":1900,"ä½ĵçİ°":1901,"çİ°ä»£åĮĸ":1902,"é¼":1903,"æ¼Ķ":1904,"ost":1905,"ä¸ĸçºª":1906,"æĤ£èĢħ":1907,"ä»½":1908,"åºķ":1909,"ĊĠĠĠĠĠĠĠĠĠĠĠĠĠĠĠ":1910,"Ġhave":1911,"èīºæľ¯":1912,"çĽĳçĿ£":1913,"è¿½":1914,"åĩ»":1915,"çĮ®":1916,"æĵįä½ľ":1917,"çĽ®çļĦ":1918,"vid":1919,"ç»¿":1920,"tions":1921,"21":1922,"æĹ©":1923,"ç«Ļ":1924,"Ġwhich":1925,"è½¯":1926,"èĨ":1927,"è´«":1928,"æİªæĸ½":1929,"çĶ»":1930,"è¿ĳå¹³":1931,"éĢłæĪĲ":1932,"å®ĮæĪĲ":1933,"æīĢä»¥":1934,"é¥":1935,"ä¹łè¿ĳå¹³":1936,"è§Ħæ¨¡":1937,"æĢ§åĴĮ":1938,"å®¤":1939,"çº¢":1940,"äººä»¬":1941,"æĸ¹æ¡Ī":1942,"ä½ı":1943,"ding":1944,"åŃ¦ç§ĳ":1945,"è¯Ńè¨Ģ":1946,"èı":1947,"ä¾ĭå¦Ĥ":1948,"åıĸå¾Ĺ":1949,"æ±¡":1950,"æľĽ":1951,"ä½ĵåĪ¶":1952,"Ġstudy":1953,"çļĦåŁºæľ¬":1954,"æ²³":1955,"æħ":1956,"äº¤æĺĵ":1957,"Ġab":1958,"åĲĪçĲĨ":1959,"è¿ĲåĬ¨":1960,"pon":1961,"ä¿ĿéĻ©":1962,"æĺ¯æĮĩ":1963,"åºŃ":1964,"æľīçļĦ":1965,"è§ī":1966,"Ġit":1967,"ased":1968,"èĩªçĶ±":1969,"ally":1970,"Ġ\\[[@":1971,"å¦":1972,"è´¸æĺĵ":1973,"åĢĻ":1974,"æ³Ľ":1975,"å½Ĵ":1976,"è¿Ļæĺ¯":1977,"å¢ŀå¼º":1978,"========":1979,"Ġpar":1980,"çķĻ":1981,"æĲ":1982,"âĳ":1983,"æĶ¶åħ¥":1984,"Â·":1985,"æĸ¹åĲĳ":1986,"èĥĮ":1987,"æĪĲæŀľ":1988,"åĪ»":1989,"éĿł":1990,"éķĩ":1991,"å¼ºè°ĥ":1992,"éĻįä½İ":1993,"ä¸ļåĬ¡":1994,"Ġ=":1995,"Ġk":1996,"èĻĳ":1997,"æĽ´åĬł":1998,"ä»¤":1999,"pro":2000,"ative":2001,"é¢ĳ":2002,"åĽ½åĨħ":2003,"è´Ń":2004,"ress":2005,"ue":2006,"æ¯Ĵ":2007,"èĢĮä¸Ķ":2008,"éĿĴ":2009,"ple":2010,"çļĦåŁºç¡Ģ":2011,"çĨ":2012,"æł¹æľ¬":2013,"åıĬåħ¶":2014,"éķ¿æľŁ":2015,"Ġmod":2016,"\".":2017,"Ġ6":2018,"Ġmet":2019,"50":2020,"åĪ¶å®ļ":2021,"æĬ¥åĳĬ":2022,"ä¼Ł":2023,"éĵ¶è¡Į":2024,"æ´¾":2025,"çļĦéĹ®é¢ĺ":2026,"çŁŃ":2027,"reat":2028,"è¿Ľåħ¥":2029,"èĻ½":2030,"çı":2031,"ä¼ĺåĬ¿":2032,"14":2033,"é¾":2034,"æĮīçħ§":2035,"enc":2036,"çĬ¶æĢģ":2037,"ç¾¤ä¼Ĺ":2038,"ç´§":2039,"Ġgro":2040,"æĭŁ":2041,"Ġreg":2042,"ä¿Ŀè¯ģ":2043,"ari":2044,"çī©è´¨":2045,"çļĦçłĶç©¶":2046,"ä¸Ģå®ļ":2047,"åĮ»çĸĹ":2048,"åľ°ä½į":2049,"å·ŀ":2050,"åĨ²":2051,"è¶ĭ":2052,"ĠU":2053,"åŁºåĽł":2054,",\"":2055,"Ġanal":2056,"rol":2057,"åīĤ":2058,"ç£":2059,"Ġtrans":2060,"è¯Ħä¼°":2061,"13":2062,"æİĮ":2063,"æŃ»":2064,"æĮĩåĩº":2065,"ä¹Ŀ":2066,"ä»»ä½ķ":2067,"åĬ±":2068,"ä»¥æĿ¥":2069,"å¾ª":2070,"ata":2071,"Ġbet":2072,"ä¸¥éĩį":2073,"we":2074,"å¥½çļĦ":2075,"val":2076,"âĢĶâĢĶ":2077,"åĩıå°ĳ":2078,"è¿ĲçĶ¨":2079,"è¯į":2080,"Ġme":2081,"å¤įæĿĤ":2082,"äº¿":2083,"low":2084,"åŃ¦çĶŁçļĦ":2085,"åĬĽéĩı":2086,"å¾ħ":2087,"ä»¥ä¸ĭ":2088,"ä¹ĭä¸Ģ":2089,"Ġanti":2090,"é©¬åħĭæĢĿä¸»ä¹ī":2091,"äºĳ":2092,"ackage":2093,"Ġdifferen":2094,"å®£":2095,"unc":2096,"--------------------------------":2097,"äººæ°ĳæ³ķéĻ¢":2098,"åİŁåĽł":2099,"æķĪçİĩ":2100,"åĽŃ":2101,"åºĶè¯¥":2102,"è¿Ĳè¡Į":2103,"åı¸æ³ķ":2104,"min":2105,"éĺ³":2106,"å»¶":2107,"âĢĿãĢĤ":2108,"çĶļ":2109,"æĭī":2110,"Ġeffec":2111,"å»ºçŃĳ":2112,"å§Ķåĳĺ":2113,"çĺ":2114,"ä¸ŃåĽ½çī¹èī²ç¤¾ä¼ļä¸»ä¹ī":2115,"æİ¢ç´¢":2116,"è¾ĳ":2117,"æĶ¹åıĺ":2118,"and":2119,"usep":2120,"usepackage":2121,"æīĺ":2122,"èĢĥèĻĳ":2123,"å¿ĥçĲĨ":2124,"è®¾æĸ½":2125,"è°ĥæķ´":2126,"æ±ī":2127,"çļĦäºº":2128,"Ġshow":2129,"ä¸°":2130,"ä¼¼":2131,"Ġinter":2132,"æ¬§":2133,"ile":2134,"cl":2135,"åª":2136,"17":2137,"ç±³":2138,"çĽ¸äºĴ":2139,"èĦĳ":2140,"åłĤ":2141,"all":2142,"éĶĻ":2143,"22":2144,"éģ¿":2145,"16":2146,"mun":2147,"çļĦå½±åĵį":2148,"ä»·æł¼":2149,"éĥ½æĺ¯":2150,"çĬ¯ç½ª":2151,"çĽ¸å¯¹":2152,"000":2153,"Ġpl":2154,"ä¸įåĲĮçļĦ":2155,"oci":2156,"äºĭä¸ļ":2157,"äºĨè§£":2158,"èµĦéĩĳ":2159,"çĭ¬ç«ĭ":2160,"fig":2161,"ä½Ļ":2162,"åıªæľī":2163,"ä¼¤":2164,"éĴĪå¯¹":2165,"æĺİæĺ¾":2166,"ç»ĦæĪĲ":2167,"Ġob":2168,"ï¼İ":2169,"çİ°å®ŀ":2170,"æŀĦæĪĲ":2171,"æ¡Īä»¶":2172,"èĩªå·±çļĦ":2173,"ï¼Ł":2174,"åįĬ":2175,"åįıè®®":2176,"ç»Ŀ":2177,"æľªæĿ¥":2178,"å®Ĺ":2179,"åİ¿":2180,"ä½ĵçļĦ":2181,"ym":2182,"çĲĨå¿µ":2183,"åľŁåľ°":2184,"å¸®":2185,"å¯¹è±¡":2186,"éħ¸":2187,"çłģ":2188,"ç»ĥ":2189,"so":2190,"Fig":2191,"Ġactiv":2192,"åį°":2193,"è´¢äº§":2194,"è½»":2195,"Ġincre":2196,"tim":2197,"ear":2198,"æĽ´å¤ļ":2199,"åıĹåĪ°":2200,"æīįèĥ½":2201,"éĩįè¦ģçļĦ":2202,"èĩªèº«":2203,"æĺŁ":2204,"Ġrec":2205,"ong":2206,"åªĴ":2207,"ven":2208,"tr":2209,"è®¸å¤ļ":2210,"èģĶç³»":2211,"åºĬ":2212,"åħ±äº§åħļ":2213,"æľĿ":2214,"Ġsub":2215,"ä»¥ä¸Ĭ":2216,"ä¸ĥ":2217,"è¯¯":2218,"ose":2219,"å¥³":2220,"éī":2221,"å·¨":2222,"çļĦæĸ°":2223,"å¹¿æ³Ľ":2224,"éī´":2225,"æĺ¯åľ¨":2226,"è¡¨ç¤º":2227,"çĽ¾":2228,"ä¹īåĬ¡":2229,"ome":2230,"ä¸įåı¯":2231,"åĨ³çŃĸ":2232,"Ġwhe":2233,"æīĭæ®µ":2234,"å½ĵäºĭ":2235,"éĩıçļĦ":2236,"æĶ»":2237,"Ġmay":2238,"Ġdet":2239,"èĽ":2240,"å¼ķå¯¼":2241,"äºĴèģĶç½ĳ":2242,"åıįåºĶ":2243,"èĻļ":2244,"ight":2245,"ä¸Ģæĸ¹éĿ¢":2246,"çĶ³è¯·":2247,"åĬłå¿«":2248,"é¦ĸåħĪ":2249,"ates":2250,"éĢģ":2251,"ren":2252,"éĩĩåıĸ":2253,"æ·±åħ¥":2254,"åį´":2255,"Ġind":2256,"åĨħéĥ¨":2257,"æĴŃ":2258,"èŀįåĲĪ":2259,"æ±ĩ":2260,"æ¶²":2261,"è´§å¸ģ":2262,"çİ°è±¡":2263,"tein":2264,"æķ£":2265,"åħ³æ³¨":2266,"å®Ī":2267,"çĽĳç®¡":2268,"rib":2269,"çŁĽ":2270,"ç»´æĬ¤":2271,"è§£éĩĬ":2272,"æİĮæı¡":2273,"é²":2274,"åĲ¯":2275,"æ°§":2276,"åķĨä¸ļ":2277,"ç¿":2278,"çĪ±":2279,"çĶ¨æĪ·":2280,"åĨľæ°ĳ":2281,"ç¦ı":2282,"èĭı":2283,"ä½ľåĩº":2284,"25":2285,"åĬĽçļĦ":2286,"å®Įåħ¨":2287,"ç±»åŀĭ":2288,"ween":2289,"çĸ¾":2290,"çŁĽçĽ¾":2291,"ĠTh":2292,"è®¢":2293,"æĹłæ³ķ":2294,"æĺł":2295,"åģĩ":2296,"ä¹¦è®°":2297,"Ġmic":2298,"ach":2299,"æŃ£ç¡®":2300,"80":2301,"è´¢æĶ¿":2302,"æ··":2303,"èĢħçļĦ":2304,"Ġ\"":2305,"]\\].":2306,"ä¾Ŀæį®":2307,"è´¯":2308,"ä¿ĿæĮģ":2309,"æĢĿç»´":2310,"ens":2311,"å·¥åħ·":2312,"æĸ°æĹ¶ä»£":2313,"ç§ģ":2314,"æ´²":2315,"è§ĦåĪĻ":2316,"ugh":2317,"æ¸Ĳ":2318,"Ġbetween":2319,"ç³»åĪĹ":2320,"çĶļèĩ³":2321,"æłĳ":2322,"ulation":2323,"æĢ¥":2324,"éĿŀå¸¸":2325,"éĢĶ":2326,"The":2327,"æķĪæŀľ":2328,"äºĭå®ŀ":2329,"ç¬¦åĲĪ":2330,"Ġsc":2331,"ä¼ĺåĮĸ":2332,"ãĢĤâĢĿ":2333,"èĭ¥":2334,"èĦ±":2335,"Ġsignific":2336,"æĽ²":2337,"çģ«":2338,"éĽĨä¸Ń":2339,"Ġdise":2340,"éĺ»":2341,"Ġph":2342,"å±ŀäºİ":2343,"å¨ģ":2344,"ç»¿èī²":2345,"æķ´ä½ĵ":2346,"èĪª":2347,"Ġcor":2348,"æ£Ģæµĭ":2349,"éĢĤåºĶ":2350,"æıĲä¾ĽäºĨ":2351,"åĮĸåŃ¦":2352,"Ġ7":2353,"éĻĦ":2354,"æ»¡è¶³":2355,"éĢļå¸¸":2356,":\"":2357,"ult":2358,"åįļ":2359,"å±¥":2360,"è°ĥæŁ¥":2361,"Ġalso":2362,"æĿ¿":2363,"port":2364,"ä¼ļè®¡":2365,"form":2366,"èĦī":2367,"ass":2368,"è¡¨è¾¾":2369,"ç¯":2370,"æŃ¦":2371,"40":2372,"lo":2373,"è§Ħå¾ĭ":2374,"Ġpres":2375,"ak":2376,"åĶ®":2377,"ection":2378,"å½ĵåīį":2379,"æĿŁ":2380,"å¹´çļĦ":2381,"æĥħåĨµä¸ĭ":2382,"å®ª":2383,"çģµ":2384,"åĪĨåŃĲ":2385,"è¯ģæĺİ":2386,"anc":2387,"æ¶īåıĬ":2388,"ases":2389,"äººåı£":2390,"è½¯ä»¶":2391,"Ġlevel":2392,"ä¼ļè®®":2393,"åįĥ":2394,"èĨľ":2395,"çĺ¤":2396,"å¸®åĬ©":2397,"Ġ{":2398,"å·®å¼Ĥ":2399,"éĢı":2400,"çī©çļĦ":2401,"ech":2402,"ç½Ĺ":2403,"Ġ-":2404,"éĻĲåĪ¶":2405,"Ġen":2406,"åķĨåĵģ":2407,"èĬ±":2408,"å¹´æĿ¥":2409,"åįıè°ĥ":2410,"æĿĥçļĦ":2411,"éĹ®é¢ĺçļĦ":2412,"è·¨":2413,"uld":2414,"æī¿æĭħ":2415,"Ġusing":2416,"å°¤":2417,"æĬĢèĥ½":2418,"ied":2419,"æĹ¥æľ¬":2420,"èĻ½çĦ¶":2421,"å§Ķåĳĺä¼ļ":2422,"å¼±":2423,"è·Ŀ":2424,"rap":2425,"æ±¡æŁĵ":2426,"Ġ[@":2427,"ç¥¨":2428,"ä¼Łå¤§":2429,"äºĭä»¶":2430,"å¿ħè¦ģ":2431,"é»Ħ":2432,"ox":2433,"ç«¥":2434,"Ġbeen":2435,"å°ģ":2436,"ç³»ç»ŁçļĦ":2437,"ç¼©":2438,"èĽĭ":2439,"Ġhas":2440,"æ³ķè§Ħ":2441,"çŃĶ":2442,"Ġcons":2443,"our":2444,"è¯Ĺ":2445,"å½ĵäºĭäºº":2446,"##":2447,"åĪĨéħį":2448,"æĮĳ":2449,"èĤ¿":2450,"çļĦä¸»è¦ģ":2451,"æľĢç»Ī":2452,"23":2453,"ual":2454,"å®ĥä»¬":2455,"Ġthese":2456,"ç´łè´¨":2457,"ysis":2458,"å°±ä¸ļ":2459,"è¡¨æĺİ":2460,"Ġexpression":2461,"è¡ĮåĬ¨":2462,"æĺ¾ç¤º":2463,"çī©çĲĨ":2464,"è¿ĺæĺ¯":2465,"ound":2466,"str":2467,"ä¹°":2468,"199":2469,"ä¾ĽåºĶ":2470,"èĹ":2471,"èģĶåĲĪ":2472,"ility":2473,"ç½ļ":2474,"ĠÂ":2475,"Ġsignificant":2476,"é«ĺåº¦":2477,"èįī":2478,"ä¸°å¯Į":2479,"æĦıè§ģ":2480,"åľ¨äºİ":2481,"æĢ§èĥ½":2482,"Ġincl":2483,"fter":2484,"ç¼ĵ":2485,"æĺ¯ä¸Ģä¸ª":2486,"æķ°åŃ¦":2487,"æµĭè¯ķ":2488,"è®¡ç®Ĺæľº":2489,"éģĩ":2490,"ç«ĭæ³ķ":2491,"ä¾Ŀæ³ķ":2492,"æĪĲç«ĭ":2493,"è¦ģç´ł":2494,"ros":2495,"Ġdata":2496,"è´·":2497,"åĵ²":2498,"éĢĢ":2499,"Ġinv":2500,"Ġ10":2501,"one":2502,"è¯Ĭ":2503,"æī¾":2504,"60":2505,"âĢ¦":2506,"Ġsur":2507,"æ®Ĭ":2508,"ree":2509,"å¥ĭ":2510,"èĲ½å®ŀ":2511,"å½¢æĢģ":2512,"èıĮ":2513,"èµ·æĿ¥":2514,"éĢ»":2515,"æ½ľ":2516,"åıįæĺł":2517,"æĦ¿":2518,"éª¨":2519,"ew":2520,"çĽĸ":2521,"å¼ķèµ·":2522,"æİ¥åıĹ":2523,"å¹¶ä¸Ķ":2524,"æ¶µ":2525,"Ġgroup":2526,"åĬ¨åĬĽ":2527,"æľīåĪ©":2528,"å³":2529,"],":2530,"çļĦå¤§":2531,"æıı":2532,"æĸ¹éĿ¢çļĦ":2533,"éĩįè§Ĩ":2534,"æľĢé«ĺ":2535,"çĽ¸åºĶ":2536,"Ġy":2537,"è°Ī":2538,"éĢĤçĶ¨":2539,"åĪĨå¸ĥ":2540,"Ġprotein":2541,"éĢ»è¾ĳ":2542,"èĴ":2543,"æķ´ä¸ª":2544,"çĨŁ":2545,"CA":2546,"ĠĠĠĠĠĠĠĠĠĠĠĠĠĠĠĠĠĠĠĠĠĠĠĠĠĠĠĠĠĠĠĠĠĠĠĠĠĠĠĠĠĠĠĠĠĠĠĠĠĠĠĠĠĠĠĠĠĠĠĠĠĠĠĠ":2547,"ä¸´åºĬ":2548,"ç»§ç»Ń":2549,"æ²¹":2550,"uch":2551,"Ġused":2552,"Ġspec":2553,"æĺ¯ä¸Ģç§į":2554,"Ġrel":2555,"æĢ»ä¹¦è®°":2556,"éģĵå¾·":2557,"ä¸ŃåĽ½åħ±äº§åħļ":2558,"ä½ľèĢħ":2559,"è¯¾åłĤ":2560,"stem":2561,"æĪĲåĬŁ":2562,"ä¹¡æĿĳ":2563,"é¡º":2564,"çĻ»":2565,"ating":2566,"èĩªåĬ¨":2567,"alth":2568,"å¹´ä»£":2569,"åŁ¹è®Ń":2570,"å¿«éĢŁ":2571,"Ġun":2572,"ĠV":2573,"æĢ§è´¨":2574,"ang":2575,"çĶŁåĳ½":2576,"éĢļä¿¡":2577,"tional":2578,"åĮĹäº¬":2579,"æĿ¥è¯´":2580,"åĲİçļĦ":2581,"å½»":2582,"å°ļ":2583,"æ°ĳäºĭ":2584,"åĦ¿ç«¥":2585,"Ġinclud":2586,"ç¡®ä¿Ŀ":2587,"è¶ĭåĬ¿":2588,"æĸĩä»¶":2589,"èĩªæĪĳ":2590,"å¸Į":2591,"æ³¨æĦı":2592,"è´Łè´£":2593,"å®ļä¹ī":2594,"æ¯Ľ":2595,"é¡¾":2596,"reatment":2597,"èĽĭçĻ½":2598,"iti":2599,"æĮĩæłĩ":2600,"ect":2601,"red":2602,"èĩªä¸»":2603,"é¼ĵ":2604,"velop":2605,"ç¬Ķ":2606,"å¼ºåĮĸ":2607,"åĪĨä¸º":2608,"æĮĳæĪĺ":2609,"æī©å¤§":2610,"ä¹ı":2611,"åĪĨåĪ«":2612,"æĭĵ":2613,"Ġ9":2614,"éģį":2615,"è§ĤçĤ¹":2616,"çĵ":2617,"ä¿¡åı·":2618,"è¥¿æĸ¹":2619,"éħįç½®":2620,"å±¥è¡Į":2621,"100":2622,"âĪ":2623,"è°ĵ":2624,"osis":2625,"èĥľ":2626,"åį«çĶŁ":2627,"å¸Ŀ":2628,"ç»ıè¿ĩ":2629,"é£ŀ":2630,"è¶ħè¿ĩ":2631,"åŃĺåĤ¨":2632,"aus":2633,"çī¹æ®Ĭ":2634,"åĵ²åŃ¦":2635,"åİŁçĲĨ":2636,"Ġrespon":2637,"æĿİ":2638,"æ¥":2639,"æĮ¯":2640,"oth":2641,"Ġvari":2642,"éģĵè·¯":2643,"çº·":2644,"duced":2645,"arg":2646,"éĺħ":2647,"è¯´æĺİ":2648,"Ġassoci":2649,"Ġno":2650,"çĸĳ":2651,"Ġar":2652,"Ġpos":2653,"åī§":2654,"å¤«":2655,"è½¬åıĺ":2656,"å¥Ĺ":2657,"yt":2658,"ä¼ģä¸ļçļĦ":2659,"åĳ³":2660,"äº¤æµģ":2661,"æľĢå¤§":2662,"æķ°éĩı":2663,"å®½":2664,"è¿Ľç¨ĭ":2665,"çĽĳæµĭ":2666,"out":2667,"ms":2668,"çĸ¾çĹħ":2669,"éĿ¢ä¸´":2670,"æ¸¯":2671,"è¯ģæį®":2672,"tal":2673,"cer":2674,"rain":2675,"å®ŀè¡Į":2676,"ç¡¬":2677,"ä¸Ńåįİæ°ĳæĹı":2678,"ç®Ģåįķ":2679,"çĩ":2680,"èĢĮè¨Ģ":2681,"å©":2682,"Ġ([@":2683,"åŃ¦æľ¯":2684,"çĻĮ":2685,"çŃ¾":2686,"æ·±åĮĸ":2687,"%,":2688,"ä¹İ":2689,"ä¸īä¸ª":2690,"èŃ":2691,"åĬª":2692,"å®¶åºŃ":2693,"èµĶ":2694,"çĦ¶èĢĮ":2695,"å¾Īå¤ļ":2696,"è§Ĥå¿µ":2697,"èĢĹ":2698,"Ġother":2699,"å·¦":2700,"atic":2701,"åħ±äº«":2702,"çŃ¹":2703,"åĪ¸":2704,"24":2705,"Ġcol":2706,"æĽ¾":2707,"äº¤éĢļ":2708,"Ġ{#":2709,"Ġro":2710,"ely":2711,"æĿ¥æºĲ":2712,"åĳĪ":2713,"ç´¯":2714,"æŃ¤å¤ĸ":2715,"ams":2716,"çıŃ":2717,"Ġsup":2718,"åıĬæĹ¶":2719,"Ġmed":2720,"çľŁæŃ£":2721,"å¹¶ä¸į":2722,"äº¡":2723,"Ġcontrol":2724,"èµĦæĸĻ":2725,"inical":2726,"Ġdes":2727,"æĺ¾èĳĹ":2728,"åĽ½æ°ĳ":2729,"éģµ":2730,"çļĦåİĨåı²":2731,"è®¿":2732,"ç½²":2733,"Ġthan":2734,"çİ¯èĬĤ":2735,"ard":2736,"è®¨è®º":2737,"åĢºåĬ¡":2738,".(":2739,"Ġag":2740,"æľŁéĹ´":2741,"gen":2742,"è§Ĵåº¦":2743,"äººå·¥":2744,"Ġund":2745,"å®¡è®¡":2746,"é«ĺæł¡":2747,"èĢĮæĺ¯":2748,"éļĲ":2749,"æĶ¹åĸĦ":2750,"ç§°ä¸º":2751,"äº²":2752,"Ġfact":2753,"åģı":2754,"æ±½":2755,"ever":2756,"è¯¸":2757,"çľ¼":2758,"å°¤åħ¶":2759,"ä¹ĭåĲİ":2760,"åĨĮ":2761,"çªģåĩº":2762,"åĪĨç±»":2763,"èĵ":2764,"çļĦç¤¾ä¼ļ":2765,"ults":2766,"éĢĲæŃ¥":2767,"å¤ļç§į":2768,"åĿı":2769,"ç»©":2770,"éĻĪ":2771,"æĶ¯ä»ĺ":2772,"Ġdisease":2773,"ç¥ŀç»ı":2774,"ç¯ĩ":2775,"æ¯ıä¸ª":2776,"ä¸»åĬ¨":2777,"ide":2778,"æĽ¿":2779,"ä¾§":2780,"ä¸Ģèĩ´":2781,"Ġsam":2782,"è´¡":2783,"è¯ķéªĮ":2784,"Ġtreatment":2785,"Ġacc":2786,"Ġdevelop":2787,"wo":2788,"æħ§":2789,"Ġ8":2790,"è®¾ç½®":2791,"Ġmore":2792,"çļ®":2793,"éĢŁåº¦":2794,"ç²Ĵ":2795,"çĤİ":2796,"åĬªåĬĽ":2797,"æķĳ":2798,"æ´ĭ":2799,"ä½¿å¾Ĺ":2800,"æ·±åĪ»":2801,"æ²¿":2802,"æľ¬è´¨":2803,"è°±":2804,"éĵģ":2805,"Ġmodel":2806,"ä¸įå¾Ĺ":2807,"éģ¿åħį":2808,"Ġstudies":2809,"æ£ĢæŁ¥":2810,"ected":2811,"ç¹":2812,"å»ºè®®":2813,"ater":2814,"çºł":2815,"ĠK":2816,"Ġman":2817,"uring":2818,"ä½ł":2819,"Ġbut":2820,"åħ¬å¹³":2821,"å¤Ħäºİ":2822,"é«ĺçŃī":2823,"è½¬åŀĭ":2824,"å¾Ģå¾Ģ":2825,"æıĲåĩºäºĨ":2826,"åĲ¬":2827,"è½¬ç§»":2828,"éĽ¶":2829,"ç»į":2830,"æ³ķçļĦ":2831,"rac":2832,"de":2833,"ä»ª":2834,"Ġimmun":2835,"çŃĸçķ¥":2836,"å±Ĥæ¬¡":2837,"èĥĮæĻ¯":2838,"Ġtheir":2839,"åİĤ":2840,"Ġall":2841,"åĩĿ":2842,"å¹ħ":2843,"ç¹ģ":2844,"Ġcar":2845,"å®¢è§Ĥ":2846,"éĤ£ä¹Ī":2847,"ä¹łè¿ĳå¹³æĢ»ä¹¦è®°":2848,"èĸ":2849,"åĪ¤æĸŃ":2850,"äº§æĿĥ":2851,"æ±ł":2852,"Ġafter":2853,"29":2854,"ber":2855,"agn":2856,"åĩ½":2857,"è¿Ľè¡ĮäºĨ":2858,"æľīæľº":2859,"æĭ¥":2860,"ä¸Ĭè¿°":2861,"èŃ¦":2862,"åŃ¦éĻ¢":2863,"Ġhigh":2864,"ni":2865,"ä¸Ģæĺ¯":2866,"æĹħ":2867,"ä¸ĭçļĦ":2868,"èĤº":2869,"çī¹åĪ«æĺ¯":2870,"ä¸įè¶³":2871,"hib":2872,"Ġgene":2873,"ä¼łæĴŃ":2874,"yl":2875,"ç¢į":2876,"é©±":2877,"åĩĨç¡®":2878,"æĪĺäºī":2879,"lu":2880,"28":2881,"Ġdec":2882,"atory":2883,"éĺ¶çº§":2884,"æķĻèĤ²çļĦ":2885,"æĻ®éģį":2886,"Ġtum":2887,"ä¸ºä¸»":2888,"entif":2889,"åĵª":2890,"è¶£":2891,"ä¹ħ":2892,"èĤ¿çĺ¤":2893,"æĬĳ":2894,"åħµ":2895,"åī¯":2896,"ç»Łè®¡":2897,"ä¸¤ç§į":2898,"çĶ°":2899,"æĪı":2900,"å¹³è¡¡":2901,"èį¯çī©":2902,"åıĳå¸ĥ":2903,"èĹı":2904,"æĬµ":2905,"Ġunder":2906,"per":2907,"ser":2908,"çģ¾":2909,"çİ°åľ¨":2910,"å®ı":2911,"Ġanalysis":2912,"éĢĲæ¸Ĳ":2913,"æĻºæħ§":2914,"å¤§éĩı":2915,"70":2916,"ogen":2917,"Ġpath":2918,"Ġ19":2919,"è§¦":2920,"åĶ¯":2921,"ç¼ºä¹ı":2922,"ç³ĸ":2923,"æĴĳ":2924,"è°Ĳ":2925,"æķı":2926,"è½¬åĮĸ":2927,"è´¥":2928,"CT":2929,"ä¸Ĭæµ·":2930,"è´¢åĬ¡":2931,"éĻĨ":2932,"acter":2933,"å·´":2934,"è¾©":2935,"Ġfunc":2936,"æģ¶":2937,"åģ¥åħ¨":2938,"ç»ıæµİåıĳå±ķ":2939,"åģľ":2940,"RNA":2941,"çī©æµģ":2942,"Ġli":2943,"åı³":2944,"å®ĭ":2945,"æľīéĻĲ":2946,"Ġ20":2947,"æĬķåħ¥":2948,"æľ¬èº«":2949,"Ġmeas":2950,"å´":2951,"Ġtim":2952,"æľīåĪ©äºİ":2953,"inal":2954,"èµĸ":2955,"Ġqu":2956,"ä»ĭç»į":2957,"æ³½":2958,"åŃ¦èĢħ":2959,"æĿĥåĬĽ":2960,"ï¼ĮâĢľ":2961,"æĿ¥è¶Ĭ":2962,"æŃ£å¸¸":2963,"èµĶåģ¿":2964,"éĿĻ":2965,"æĬĢæľ¯çļĦ":2966,"äºĮæĺ¯":2967,"è¿ĽæŃ¥":2968,"ç¤¾ä¼ļçļĦ":2969,"ç¬¬åĽĽ":2970,"In":2971,"ä¸Ģå®ļçļĦ":2972,"Ġsystem":2973,"æĢ»ä½ĵ":2974,"æĶ¯æĴĳ":2975,"èĤ¡ä¸ľ":2976,"Ġid":2977,"æĬĬæı¡":2978,"å¾ªçİ¯":2979,"ord":2980,"åºŁ":2981,"æ¯į":2982,"è¶ĬæĿ¥è¶Ĭ":2983,"ç§ĳçłĶ":2984,"æ¯Ķå¦Ĥ":2985,"ç²®":2986,"åĴĮåıĳå±ķ":2987,"çļĦæĸ¹å¼ı":2988,"æįŁå®³":2989,"åĩºçīĪ":2990,"Ġam":2991,"å¤ļæł·":2992,"å®ªæ³ķ":2993,"ä½ľåĵģ":2994,"çĥĪ":2995,"å¸¦æĿ¥":2996,"åħĪè¿Ľ":2997,"åı¶":2998,"å¤ļæķ°":2999,"vely":3000,"ting":3001,"ï¼īï¼Į":3002,"å°Ĭ":3003,"æĬĵ":3004,"ç§Ł":3005,"è¯·æ±Ĥ":3006,"ized":3007,"å±Ĭ":3008,"æĿ¥çľĭ":3009,"Ġstr":3010,"åıĮæĸ¹":3011,"Ġout":3012,"åŁºéĩĳ":3013,"Ġ**":3014,"éļ¾ä»¥":3015,"åħ·å¤ĩ":3016,"æ±½è½¦":3017,"è¦Ĩ":3018,"Ġsuch":3019,"è´µ":3020,"è§Ħå®ļçļĦ":3021,"çĬ¶åĨµ":3022,"27":3023,"å¿ħçĦ¶":3024,"ĠThis":3025,"Ġval":3026,"ä¸ŃåĽ½çļĦ":3027,"åĽ½å®¶çļĦ":3028,"æµģåĬ¨":3029,"åŃ¦çļĦ":3030,"æĿĥçĽĬ":3031,"é¼ĵåĬ±":3032,"èµĭ":3033,"è§Ĥå¯Ł":3034,"ond":3035,"è´¡çĮ®":3036,"åĪ°äºĨ":3037,"åĽ¢éĺŁ":3038,"Ġmo":3039,"ures":3040,"åĽ½æľī":3041,"åįĸ":3042,"æľĢåĲİ":3043,"ä¸ĭéĻį":3044,"Ġtwo":3045,"æ¡Ĩ":3046,"26":3047,"isk":3048,"æľ¬æĸĩ":3049,"åĽ½çļĦ":3050,"åįıåĲĮ":3051,"ç£ģ":3052,"ays":3053,"ail":3054,"iss":3055,"rec":3056,"entr":3057,"çļĦæĸ¹æ³ķ":3058,"ten":3059,"çĽŁ":3060,"é«ĺè´¨éĩı":3061,"è®Ńç»ĥ":3062,"çĽ¸åĲĮ":3063,"çĲĨæĥ³":3064,"ark":3065,"90":3066,"SA":3067,"æĢ»ç»ĵ":3068,"tain":3069,"åį·":3070,"æ¤įçī©":3071,"çľŁå®ŀ":3072,"ï¼ļâĢľ":3073,"é¸":3074,"ork":3075,"æĪĲåĳĺ":3076,"éĨ":3077,"æįŁå¤±":3078,"uman":3079,"ç¦ģ":3080,"éĹ»":3081,"Ġfol":3082,"æĬ½":3083,"æķĻæĿĲ":3084,"Ġser":3085,"åĲĦä¸ª":3086,"è¿ģ":3087,"çĶ²":3088,"æĹ§":3089,"é«ĺçļĦ":3090,"Ġclinical":3091,"æ¢°":3092,"é»ĳ":3093,"å·¥ä½ľçļĦ":3094,"æĶ¹éĿ©å¼ĢæĶ¾":3095,"ä¸¥æł¼":3096,"åĨħçļĦ":3097,"æŃ£åľ¨":3098,"Ġcancer":3099,"åĩ½æķ°":3100,"35":3101,"è¾ħ":3102,"éĺ¿":3103,"æ³¨éĩį":3104,"ological":3105,"æ¶¦":3106,"æĢĿèĢĥ":3107,"als":3108,"ç¤¼":3109,"ne":3110,"æĭĽ":3111,"è¿ĺæľī":3112,"æµĭéĩı":3113,"æĬĺ":3114,"éľ²":3115,"Ġlevels":3116,"æ°¸":3117,"Ġboth":3118,"æľºåĻ¨":3119,"tern":3120,"cept":3121,"Ġhealth":3122,"æķĻæİĪ":3123,"Ġpartic":3124,"è¿«":3125,"%)":3126,"æ¯Ķä¾ĭ":3127,"çĦ¶åĲİ":3128,"è¯¢":3129,"å¹²éĥ¨":3130,"éĻ·":3131,"å¯»":3132,"è®°å½ķ":3133,"ç»ķ":3134,"æ¸©åº¦":3135,"è¯ĳ":3136,"ç¼ĺ":3137,"åį±æľº":3138,"å¤ļä¸ª":3139,"å½ĵæĹ¶":3140,"å¯¹å¤ĸ":3141,"Î²":3142,"çħ":3143,"ĠÂ±":3144,"ç§Ģ":3145,"Ġover":3146,"å±ħæ°ĳ":3147,"ues":3148,"åįģåħ«":3149,"æī¬":3150,"ä¼¦":3151,"çĹħæ¯Ĵ":3152,"å±ĤéĿ¢":3153,"inding":3154,"è®¤å®ļ":3155,"cess":3156,"åªĴä½ĵ":3157,"ä»²":3158,"åĲĪæ³ķ":3159,"owever":3160,"hod":3161,"å¥ĭæĸĹ":3162,"åĴĮç¤¾ä¼ļ":3163,"ons":3164,"ä¸Ģç³»åĪĹ":3165,"éĢĶå¾Ħ":3166,"çļĦæķ°æį®":3167,"è¿ŀæİ¥":3168,"åħ¬æ°ĳ":3169,"åºĶå¯¹":3170,"åŁºç¡Ģè®¾æĸ½":3171,"ology":3172,"åħ¼":3173,"Ġhyp":3174,"åı¥":3175,"æĿ¥èĩª":3176,"tical":3177,"Ġacid":3178,"çļĦè§Ħå®ļ":3179,"å¹³åĿĩ":3180,"rel":3181,"å§ĭç»Ī":3182,"åĪĳäºĭ":3183,"]).":3184,"äº¦":3185,"æīĢè°ĵ":3186,"éĽĨä½ĵ":3187,")ãĢģ":3188,"Ġwill":3189,"ument":3190,"æ²ī":3191,"å®¹æĺĵ":3192,"çº¯":3193,"éĺħè¯»":3194,"hed":3195,"æķ´åĲĪ":3196,"hem":3197,"'s":3198,"é¦Ĩ":3199,"çªģçł´":3200,"amm":3201,"Ġidentif":3202,"åŁİéķĩ":3203,"GF":3204,"ä¸»å¼ł":3205,"åĮħåĲ«":3206,"Ġmon":3207,"è½®":3208,"çłĶåıĳ":3209,"ared":3210,"ä¸ĵå®¶":3211,"åĢį":3212,"ä½įç½®":3213,"ble":3214,"æķĪåºĶ":3215,"ants":3216,"æķ°åŃĹåĮĸ":3217,"è´¦":3218,"Ġlow":3219,"ä¸ĵåĪ©":3220,"å®Įæķ´":3221,"own":3222,"åıĳè¡¨":3223,"åĽ°éļ¾":3224,"å®¡æŁ¥":3225,"æļ´":3226,"æĺ¯ä¸Ģ":3227,"èĤĮ":3228,"âĪĴ":3229,"Âł":3230,"è®¾ç«ĭ":3231,"åĬ¨æĢģ":3232,"åıĺéĿ©":3233,"Ġsp":3234,"ĠJ":3235,"çļĦä½ľçĶ¨":3236,"é¢Ħæµĭ":3237,"çļĦåħ³ç³»":3238,"ild":3239,"ç®Ĺæ³ķ":3240,"æł¼å±Ģ":3241,"åĳ¨æľŁ":3242,"åķĨæłĩ":3243,"ä¸įä¼ļ":3244,"éĻ¤äºĨ":3245,"åħģ":3246,"éĶĢåĶ®":3247,"Ġpresent":3248,"èŀįèµĦ":3249,"æľ«":3250,"æº¶":3251,"åĢ¾":3252,"åĬłå·¥":3253,"è¯ĨåĪ«":3254,"æľ¨":3255,"Ġbi":3256,"rim":3257,"ĠWe":3258,"å¹³çŃī":3259,"æİĴæĶ¾":3260,"æĽ´å¥½":3261,"è´¹çĶ¨":3262,"å¤įåħ´":3263,"çĽ¸æ¯Ķ":3264,"åĴĮè°Ĳ":3265,"ä¹Łæľī":3266,"åŁºå±Ĥ":3267,"è´¯å½»":3268,"è£Ĥ":3269,"åħįçĸ«":3270,"pit":3271,"ä¼´":3272,"SC":3273,"éĩİ":3274,"Ġprovid":3275,"ä»įçĦ¶":3276,"æĸĩåŃ¦":3277,"æħ¢":3278,"åĿĢ":3279,"æ®ĸ":3280,"åĨĽäºĭ":3281,"epend":3282,"çļĦä¸Ģä¸ª":3283,"Ġduring":3284,"èį£":3285,"é¾Ħ":3286,"åħ¨éĥ¨":3287,"ç¤¾åĮº":3288,".,":3289,"åĲĦç±»":3290,"Ġone":3291,"è¯ĬæĸŃ":3292,"é²ľ":3293,"åĨ·":3294,"éŃ":3295,"åİļ":3296,"Ġperform":3297,"ä¸Ģä½ĵ":3298,"å¤§ä¼ļ":3299,"æ¡Īä¾ĭ":3300,"èİ·åıĸ":3301,"ä¸Ģæ¬¡":3302,"æī¶":3303,"Ġinhib":3304,"è®ºæĸĩ":3305,"Ġappro":3306,"Ġassociated":3307,"å®ľ":3308,"éĢĴ":3309,"è¿ĩåİ»":3310,"æµģç¨ĭ":3311,"Ġfollow":3312,"hen":3313,"åĳ¼":3314,"åį¡":3315,"æĹ¶åĢĻ":3316,"çĩĥ":3317,"åıĳè¾¾":3318,"].":3319,"é½":3320,"æĹłè®º":3321,"åıĤèĢĥ":3322,"è¿ħ":3323,"ä¸Ńå°ı":3324,"Ġrep":3325,"åİĭåĬĽ":3326,"æĶ¶çĽĬ":3327,"Ġresults":3328,"åīįæıĲ":3329,"æ·±åº¦":3330,"é«ĺæķĪ":3331,"æĸĩçĮ®":3332,"åĨħæ¶µ":3333,"Ġmice":3334,"Ġrisk":3335,"å¹¼":3336,"å¡ĳ":3337,"è¿½æ±Ĥ":3338,"Ġindic":3339,"ocument":3340,"éº":3341,"è°ĭ":3342,"åħ±åĴĮ":3343,"å³°":3344,"ĠĊ":3345,"æģ¢":3346,"çĻ»è®°":3347,"åĶĲ":3348,"æ¡Ĩæŀ¶":3349,"åĩºäºĨ":3350,"çļĦåŁºç¡Ģä¸Ĭ":3351,"åĩºåı£":3352,"ron":3353,"æĸĹäºī":3354,"ok":3355,"ry":3356,"äº§çĶŁçļĦ":3357,"ered":3358,"Ġinto":3359,"å©ļ":3360,"é¡µ":3361,"æ²Ł":3362,"ä¸ĢçĽ´":3363,"ä¿¡çĶ¨":3364,"ä»İäºĭ":3365,"éĴ±":3366,"æĸ°åŀĭ":3367,"çĽ¸åħ³çļĦ":3368,"åıĭ":3369,"Ġsug":3370,"æĦŁæŁĵ":3371,"ç»ĺ":3372,"çļĦèĥ½åĬĽ":3373,"å®ģ":3374,"è¡¨éĿ¢":3375,"åħ®":3376,"éĩįæĸ°":3377,"åĽ½åĬ¡":3378,"ä¾Ľç»Ļ":3379,"Ġactivity":3380,"åĲĮæł·":3381,"èģĮèĥ½":3382,"å°½ç®¡":3383,"æ°§åĮĸ":3384,"é©±åĬ¨":3385,"ric":3386,"æ¯ķ":3387,"çī¢":3388,"å¤ļåħĥ":3389,"Ġsyn":3390,"å¼¹":3391,"Ġtime":3392,"è®¤çŁ¥":3393,"æ°ĶåĢĻ":3394,"Ġnum":3395,"åı¦ä¸Ģæĸ¹éĿ¢":3396,"é¾Ļ":3397,"ormal":3398,"æııè¿°":3399,"å®ŀè·µä¸Ń":3400,"è¿Ĳè¾ĵ":3401,"çī¹æĢ§":3402,"å¸Ń":3403,"åľ°çĲĨ":3404,"ĠAl":3405,"åĪĺ":3406,"éĺĲ":3407,"ä¼ĺåħĪ":3408,"Ġend":3409,"èĭ±åĽ½":3410,"å¤§æķ°æį®":3411,"çŃīæĸ¹éĿ¢":3412,"åĩºçļĦ":3413,"æĢİ":3414,"é¢Ħéĺ²":3415,"æģ¢å¤į":3416,"éĥ¨ç½²":3417,"lic":3418,"med":3419,"ä»²è£ģ":3420,"ç»ıæµİåŃ¦":3421,"sy":3422,"åħ¸åŀĭ":3423,"æ¹ĸ":3424,"ä¼łè¾ĵ":3425,"ef":3426,"æĸĩç«ł":3427,"å¸ĥå±Ģ":3428,"åĽ¾åĥı":3429,"é£Łåĵģ":3430,"è¡°":3431,"åı¯æĮģç»Ń":3432,"çĶµè·¯":3433,"{\\":3434,"åĲĦçº§":3435,"Ġtest":3436,"æķĪçĽĬ":3437,"è°¢":3438,"éĶĻè¯¯":3439,"çī¹å®ļ":3440,"05":3441,"AT":3442,"ç©¿":3443,"åĩºåıĳ":3444,"å®ļä½į":3445,"åĽ½åĬ¡éĻ¢":3446,"Ġexam":3447,"36":3448,"æĻ®éĢļ":3449,"Ġhuman":3450,"Ġobser":3451,"\"}).":3452,"ä¹Łåı¯ä»¥":3453,"åħ¬ä¼Ĺ":3454,"ç¿»":3455,"ç§©":3456,"IP":3457,"åįģåĪĨ":3458,"Ġdifferent":3459,"ä¼łæĦŁ":3460,"ä¾Ŀèµĸ":3461,"åĮ»éĻ¢":3462,"....":3463,"èĻļæĭŁ":3464,"æ½®":3465,"èħĲ":3466,"æ³¨åĨĮ":3467,"Ġnon":3468,"å¤ĸéĥ¨":3469,"Ġsugg":3470,"äººå·¥æĻºèĥ½":3471,"Ġup":3472,"è¾ĸ":3473,"ace":3474,"åŁİä¹¡":3475,"ï¼īãĢĤ":3476,"äº¤æį¢":3477,"æĺ¯å¯¹":3478,"ä¹±":3479,"duction":3480,"åĮºåĿĹ":3481,"æĦıåĳ³":3482,"ä¸ĢåĪĩ":3483,"ould":3484,"ici":3485,"åħ°":3486,"å¼ĥ":3487,"çº²":3488,"ke":3489,"åįĩçº§":3490,"å®£ä¼ł":3491,"ä¹ĭåīį":3492,"æĥł":3493,"æľºæ¢°":3494,"åĬ©äºİ":3495,"èĶ":3496,"åıĤåĬł":3497,"æĬĳåĪ¶":3498,"çļĦå·¥ä½ľ":3499,"åĲĦåĽ½":3500,"åħ¬å¼Ģ":3501,"Ġsec":3502,"ç»ŁçŃ¹":3503,"cri":3504,"tit":3505,"å·¥èīº":3506,"CD":3507,"ä¾µæĿĥ":3508,"çĽ¸ç»ĵåĲĪ":3509,"Ġexper":3510,"ç§©åºı":3511,"ax":3512,"éĿ¢å¯¹":3513,"Ġhad":3514,"è·¯å¾Ħ":3515,"ä¿Ħ":3516,"çŁ¥è¯Ĩäº§æĿĥ":3517,"è´´":3518,"èģĮä¸ļæķĻèĤ²":3519,"æŃĮ":3520,"Ġdeter":3521,"æĥħå½¢":3522,"é¦Ļ":3523,"Ġeach":3524,"ä¸Ģæł·":3525,"æĿ¾":3526,"åĮ»åŃ¦":3527,"æĭ¥æľī":3528,"urther":3529,"Ġmethod":3530,"Ġfound":3531,"ä¿¡æģ¯åĮĸ":3532,"æŁĲäºĽ":3533,"AP":3534,"ability":3535,"æ¶Īè´¹èĢħ":3536,"cc":3537,"å®īæİĴ":3538,"dition":3539,"Ġmut":3540,"ç¾İåħĥ":3541,"li":3542,"çĽĺ":3543,"è½¨":3544,"è·Ł":3545,"æ³½ä¸ľ":3546,"çĶŁæĪĲ":3547,"å®¢æĪ·":3548,"çļĦæ³ķå¾ĭ":3549,"æ¯Ľæ³½ä¸ľ":3550,"åº¦çļĦ":3551,"ãĢĲ":3552,"ç¾¤ä½ĵ":3553,"CC":3554,"Ġmeasure":3555,"è§£æĶ¾":3556,"ãĢĳ":3557,"ç»ıæµİçļĦ":3558,"Ġcomple":3559,"mon":3560,"è¿Ŀæ³ķ":3561,"document":3562,"å®ŀä½ĵ":3563,"åĢºæĿĥ":3564,"Ġsim":3565,"é¢ĨåŁŁçļĦ":3566,"æĺ¥":3567,"ä¸Ĭåįĩ":3568,"ç»ĻäºĪ":3569,"åĬłå¤§":3570,"łéģĵ":3571,"è¸":3572,"Ġtherap":3573,"Ġdef":3574,"æĹ¨":3575,"æĹ©æľŁ":3576,"Ġtiss":3577,"ute":3578,"åıĤæķ°":3579,"èĩªæ²»":3580,"ä¼łç»ŁçļĦ":3581,"å½©":3582,"åı¦å¤ĸ":3583,"æĹħæ¸¸":3584,"å²Ĺ":3585,"Ġeffects":3586,"çĽ¸å½ĵ":3587,"è°ĥèĬĤ":3588,"æĹ¥çĽĬ":3589,"ature":3590,"èĬĤçĤ¹":3591,"å°±ä¼ļ":3592,"Ġ\\<":3593,"éŁ³ä¹Ĳ":3594,"è¦ĨçĽĸ":3595,"der":3596,"ĠSt":3597,"åĽ¢ç»ĵ":3598,"45":3599,"Ġem":3600,"æłĩå¿Ĺ":3601,"äºĪä»¥":3602,"Ġaut":3603,"åıªæĺ¯":3604,"ä¸Ģèµ·":3605,"lood":3606,"art":3607,"æĬ¼":3608,"æµĵ":3609,"ex":3610,"æ²Ļ":3611,"çĹĽ":3612,"Ġ.":3613,"ited":3614,"çģŃ":3615,"ough":3616,"çĶµæ±ł":3617,"ä¿®æĶ¹":3618,"anis":3619,"Ġprog":3620,"MP":3621,"ä¸ªä½ĵ":3622,"åıªèĥ½":3623,"Ġour":3624,"ä¼ĺç§Ģ":3625,"äºĮåįģ":3626,"éļľç¢į":3627,"æŀ¶æŀĦ":3628,"çĶ¨çļĦ":3629,"ç¬¬åįģ":3630,"ST":3631,"çļĦè¿ĩç¨ĭ":3632,"å½¢æĪĲäºĨ":3633,"å¼ķé¢Ĩ":3634,"quenc":3635,"è¡Ģç®¡":3636,"åŃĶ":3637,"éĽĨæĪĲ":3638,"ä¸ĵéĹ¨":3639,"éĽĨåĽ¢":3640,"è¿Ļæł·çļĦ":3641,"æŃ£å¼ı":3642,"è½¬æį¢":3643,"å®ıè§Ĥ":3644,"æĥ¯":3645,"ä¸»è¦ģæĺ¯":3646,"è¯ģåĪ¸":3647,"çł´åĿı":3648,"çĶŁéķ¿":3649,"åĬŀæ³ķ":3650,"ization":3651,"åĬ¨çī©":3652,"2020":3653,"çĶ±æŃ¤":3654,"ä¸»é¢ĺ":3655,"å°¼":3656,"åħļä¸Ńå¤®":3657,"è¢«åĳĬ":3658,"Ġincreased":3659,"åĽ´ç»ķ":3660,"æ£®":3661,"åĢ¡":3662,"æĽ´ä¸º":3663,"æľīæķĪçļĦ":3664,"æ¬§æ´²":3665,"åı¬":3666,"æĦıåĳ³çĿĢ":3667,"éĹŃ":3668,"æľºä¼ļ":3669,"Ġ([":3670,"çļĦè¦ģæ±Ĥ":3671,"åĨł":3672,"éĥ½æľī":3673,"åĽĽä¸ª":3674,"æĶ¹éĢł":3675,"æı´":3676,"çŁ¿":3677,"hes":3678,"Ġgener":3679,"èĤ¥":3680,"Ġwell":3681,"Ġits":3682,"åı¯éĿł":3683,"å¤Ħç½ļ":3684,"ody":3685,"è´«åĽ°":3686,"ulated":3687,"æ¡£":3688,"çĶŁæĢģçİ¯å¢ĥ":3689,"Ġdiagn":3690,"çºłçº·":3691,"Ġpatient":3692,"åĳĪçİ°":3693,"åĽºå®ļ":3694,"çļĦåıĺåĮĸ":3695,"çºµ":3696,"ported":3697,")ãĢĤ":3698,"av":3699,"Ġ(*":3700,"ĠCD":3701,"å²Ľ":3702,"Ġ$":3703,"Ġonly":3704,"ä»¥åĲİ":3705,"éħ¶":3706,"å»ºè®¾çļĦ":3707,"èģĮè´£":3708,"åįıåķĨ":3709,"å°¤åħ¶æĺ¯":3710,"æ¾":3711,"éĩĳå±ŀ":3712,"æĢĢ":3713,"ä¾ĽåºĶéĵ¾":3714,"ä»¿":3715,"éļĶ":3716,"æī§æ³ķ":3717,"ition":3718,"ution":3719,"èĤī":3720,"ä¸ĢæĿ¡":3721,"ä¸ŃåĽ½äººæ°ĳ":3722,"åĮºåĿĹéĵ¾":3723,"å®ŀéĻħä¸Ĭ":3724,"ob":3725,"æ³ķå®ļ":3726,"è¿ŀç»Ń":3727,"AR":3728,"åĪº":3729,"çī©èģĶç½ĳ":3730,"irst":3731,"æĻ¶":3732,"33":3733,"åĩĨå¤ĩ":3734,"åľ¨æŃ¤":3735,"ines":3736,"æıŃ":3737,"ä¼łæĦŁåĻ¨":3738,"ock":3739,"è¿ĳå¹´æĿ¥":3740,"æ£ĢéªĮ":3741,"è£ķ":3742,"åħĥç´ł":3743,"é½Ĳ":3744,"oin":3745,"Ġpot":3746,"æ¿Ģåıĳ":3747,"ears":3748,"å¦ĤæŃ¤":3749,"éľĩ":3750,"II":3751,"å¥ĸ":3752,"çīĮ":3753,"éĿ¢ç§¯":3754,"Ġmin":3755,"åĲĮå¿Ĺ":3756,"rough":3757,"çļĦåħ³éĶ®":3758,"CP":3759,"æľīæīĢ":3760,"Ġdem":3761,"ause":3762,"Ġeffect":3763,"è¿ĽèĢĮ":3764,"çĽ¸åºĶçļĦ":3765,"ite":3766,"çĻ¾å¹´":3767,"åħ¶æ¬¡":3768,"DNA":3769,"plic":3770,"å½¢åĬ¿":3771,"vers":3772,"åħ´è¶£":3773,"Ġmost":3774,"åĿļå®ļ":3775,"198":3776,"æ¹¾":3777,"å®Ŀ":3778,"æĥħæĦŁ":3779,"äºĭåĬ¡":3780,"Ġrem":3781,"å¥ĩ":3782,"è¯¾é¢ĺ":3783,"æŃ»äº¡":3784,"roph":3785,"Ġtumor":3786,"pos":3787,"çļĦè¡Įä¸º":3788,"çĦ¦":3789,"ĠĊĠĠĠĠĠĠĠĠĠĠĠĠĠĠĠ":3790,"çļĦåĨħå®¹":3791,"å²ģ":3792,"ential":3793,"}$":3794,"å®ŀè´¨":3795,"Ġra":3796,"åĽłèĢĮ":3797,"çº¦å®ļ":3798,"Î±":3799,"åĮºåĪ«":3800,"å£¤":3801,"arch":3802,"å½ĵä»£":3803,"è¿ħéĢŁ":3804,"ft":3805,"Ġet":3806,"è¿ĲèĲ¥":3807,"èĭ±è¯Ń":3808,"ds":3809,"æĿ¡æ¬¾":3810,"æ®ĭ":3811,"\"\"":3812,"æ´ģ":3813,"ĠçļĦ":3814,"è¿ĻéĩĮ":3815,"ĠHowever":3816,"Ġins":3817,"Ġassess":3818,"ä½ĵéªĮ":3819,"ç»ĦåĲĪ":3820,"åħ±åĴĮåĽ½":3821,"çļĦçĲĨè®º":3822,"ä¿Ĺ":3823,"åŁ¹èĤ²":3824,"Ġmech":3825,"è¯º":3826,"plement":3827,"ç»ıæµİç¤¾ä¼ļ":3828,"éĺ²æŃ¢":3829,"å®ĥçļĦ":3830,"ces":3831,"èį·":3832,"IT":3833,"å®¡åĪ¤":3834,"æĪĲçĨŁ":3835,"å¤§åĬĽ":3836,"åŀĦ":3837,"ç¡®è®¤":3838,"Ġåľ¨":3839,"çĶŁåŃĺ":3840,"ä»ĸäºº":3841,"Ġkn":3842,"ependent":3843,"38":3844,"åħģè®¸":3845,"è¡ĮçļĦ":3846,"çĽĲ":3847,"é¡¶":3848,"çº¤":3849,"ãĢĭ,":3850,"ç¡®ç«ĭ":3851,"Ġblood":3852,"Ġvir":3853,"æ´ŀ":3854,"åĲ¸æĶ¶":3855,"æİ¨å¹¿":3856,"å¸¸è§ģ":3857,"Ġop":3858,"èĦĤ":3859,"eng":3860,"æĸĩåĮĸçļĦ":3861,"åŀĦæĸŃ":3862,"---":3863,"åģļå¥½":3864,"è¡Įä½¿":3865,"åĪĨç¦»":3866,"æ°ĳéĹ´":3867,"å¯¼åĲĳ":3868,"æ°¢":3869,"usion":3870,"åĪ¶éĢłä¸ļ":3871,"èĴĻ":3872,"çŁ¥éģĵ":3873,"çļĦé«ĺ":3874,"å¸ĮæľĽ":3875,"æĶ¶éĽĨ":3876,"Ġantib":3877,"æ£Ģå¯Ł":3878,"çļĦåĲĮæĹ¶":3879,"è°ĥæİ§":3880,"Ġrole":3881,"çĳ":3882,"éĴ¢":3883,"è®¯":3884,"ä»·åĢ¼è§Ĥ":3885,"åľŁå£¤":3886,"les":3887,"ĠĠĠĠĠĠ":3888,"ä¸Ńåįİäººæ°ĳ":3889,"ung":3890,"è¯¦":3891,"çłĶç©¶çļĦ":3892,"åį±éĻ©":3893,"Ġcompared":3894,"34":3895,"åģļåĪ°":3896,"åĩłä¸ª":3897,"ãĢģ\"":3898,"æĸĩåŃĹ":3899,"ç»ıåİĨ":3900,"ç¥ĸ":3901,"ç´łåħ»":3902,"çŃīçŃī":3903,"å°º":3904,"çº³åħ¥":3905,"çļĦæķĻåŃ¦":3906,"åĪ¶åº¦çļĦ":3907,"åº§":3908,"æĶ¹è¿Ľ":3909,"äººæ°ĳç¾¤ä¼Ĺ":3910,"69":3911,"nal":3912,"éªĮè¯ģ":3913,"å¹¿å¤§":3914,"åĳĺå·¥":3915,"åĨ²çªģ":3916,"Ġuse":3917,"iv":3918,"éģĹä¼ł":3919,"uro":3920,"Ġimport":3921,"æľīåĬ©äºİ":3922,"ments":3923,"åĲĽ":3924,"ä¼ĳ":3925,"uct":3926,"ç¬¬äºĶ":3927,"åĪĽä¸ļ":3928,"å¤§å¤ļæķ°":3929,"æĸ°éĹ»":3930,"ä¼į":3931,"Ġgl":3932,"Ġshown":3933,"Ġthere":3934,"oph":3935,"è´Ńä¹°":3936,"31":3937,"æµª":3938,"ined":3939,"çĸ«æĥħ":3940,"è¾¨":3941,"Ġrese":3942,"ç±»ä¼¼":3943,"ä¸īæĺ¯":3944,"æ¨¡æĭŁ":3945,"æ¡¥":3946,"èĳ£":3947,"tics":3948,"å¡ŀ":3949,"çĽĽ":3950,"å¿½":3951,"ä¸ªäººä¿¡æģ¯":3952,"èī¯å¥½çļĦ":3953,"è¯ļ":3954,"å½ĵçĦ¶":3955,"ä¿¡æģ¯æĬĢæľ¯":3956,"å®ŀçİ°äºĨ":3957,"æģ©":3958,"å®ĹæķĻ":3959,"äºīè®®":3960,"ÃĹ":3961,"eg":3962,"æ··åĲĪ":3963,"åĬ³åĬ¨èĢħ":3964,"æ´»æĢ§":3965,"valu":3966,"å¦Ĥä¸ĭ":3967,"Ġwhen":3968,"æĪĲå°±":3969,"æĪĳä»¬çļĦ":3970,"èĪ¹":3971,"å·¨å¤§":3972,"Ġfunction":3973,"ç²®é£Ł":3974,"äºĴåĬ¨":3975,"æİ¢ç©¶":3976,"oid":3977,"èº«ä»½":3978,"Ġthrough":3979,"çĲĨæĢ§":3980,"Ġcur":3981,"ale":3982,"Ġrecept":3983,"ç§»åĬ¨":3984,"åĪ©æ¶¦":3985,"å±ŀæĢ§":3986,"ER":3987,"æ¨¡åĿĹ":3988,"Ġes":3989,"çļĦä¸Ģç§į":3990,"vious":3991,"Ġresponse":3992,"led":3993,"aracter":3994,"æİ¢è®¨":3995,"èĭ¦":3996,"ç¦»åŃĲ":3997,"Ġform":3998,"çļĩ":3999,"çļĦæľĢ":4000,"ä¹Łå°±æĺ¯":4001,"èĪŀ":4002,"Ġcould":4003,"Ġage":4004,"æĹĭ":4005,"ãĢĭï¼Į":4006,"erg":4007,"èĭĹ":4008,"æĭħä¿Ŀ":4009,"èĢķ":4010,"éĿ¢åĲĳ":4011,"è½¬è®©":4012,"çļĦæĥħåĨµä¸ĭ":4013,"è¿Ķ":4014,"åĪĬ":4015,"ç»§æī¿":4016,"æ¥ļ":4017,"Ġmean":4018,"çļĦç»ıæµİ":4019,"ise":4020,"çľĭåĪ°":4021,"æĭĵå±ķ":4022,"æĹĹ":4023,"æķĮ":4024,"sive":4025,"Ġnumber":4026,"å°¿":4027,"æİĺ":4028,"Ġbile":4029,"æķ°æį®åºĵ":4030,"Ġsignificantly":4031,"åĲĮä¸Ģ":4032,"æľŁéĻĲ":4033,"åħ»èĢģ":4034,"åĬĽåº¦":4035,"éķľ":4036,"åŁºåľ°":4037,"åĪĽå»º":4038,"ort":4039,"ä»£çĲĨ":4040,"è·ĥ":4041,"Ġindi":4042,"åľºæĻ¯":4043,"åħļåĳĺ":4044,"ages":4045,"Ġran":4046,"åı¯è§ģ":4047,"Ġhig":4048,"å¯ĨåĪĩ":4049,"AD":4050,"åħļåĴĮ":4051,"åĪĽä½ľ":4052,"37":4053,"èĥ½éĩı":4054,"çŀ":4055,"å»ºæĪĲ":4056,"èĤĿ":4057,"æĢĿè·¯":4058,"å¾Īå¤§":4059,"å¼Ĥå¸¸":4060,"32":4061,"éĢļçŁ¥":4062,"åĨħåľ¨":4063,"SD":4064,"èµĦæľ¬ä¸»ä¹ī":4065,"SP":4066,"com":4067,"ram":4068,"æī°":4069,"view":4070,"its":4071,"å®ŀéªĮå®¤":4072,"åįģä¹Ŀ":4073,"ma":4074,"æīĢåľ¨":4075,"Ġwho":4076,"è¿Ľå±ķ":4077,"âĢ¦âĢ¦":4078,"éĽ¨":4079,"çļĦä¿¡æģ¯":4080,"tig":4081,"ize":4082,"æ²ŁéĢļ":4083,"onstr":4084,"ä¹Łä¸į":4085,"èª":4086,"å¼ºåĪ¶":4087,"Ġloc":4088,"åī²":4089,"åĪ¤åĨ³":4090,"è®©åŃ¦çĶŁ":4091,"reg":4092,"éĺµ":4093,"ç®¡çĲĨçļĦ":4094,"ç§¯ç´¯":4095,"èĢĮä¸į":4096,"til":4097,"éģµå¾ª":4098,"åĺ":4099,"åĪļ":4100,"ç¨İæĶ¶":4101,"crib":4102,"åŃ£":4103,"è¿¹":4104,"çĪ¶":4105,"math":4106,"ä»ĸçļĦ":4107,"lamm":4108,"ery":4109,"ä¸»å¯¼":4110,"ç»Łæ²»":4111,"åĬłéĢŁ":4112,"æĿ¡ä»¶ä¸ĭ":4113,"åĩĢ":4114,"Ġbl":4115,"raph":4116,"ä¸Ńåħ±":4117,"ä½³":4118,"æ¿ĢåĬ±":4119,"Ġperformed":4120,"å¹´äºº":4121,"æ¹¿":4122,"æĺ¯çĶ±":4123,"èĩªè§ī":4124,"äº§åĵģçļĦ":4125,"Ġ|":4126,"æĺ¯ä»¥":4127,"æĿĢ":4128,"æĴ¤":4129,"Ġsm":4130,"èĦı":4131,"fer":4132,"æī§æĶ¿":4133,"æī©å±ķ":4134,"ci":4135,"over":4136,"è°ĥè§£":4137,"qui":4138,"å·¦åı³":4139,"åĴĮå¹³":4140,"åľ°çĲĥ":4141,"ç§ĺ":4142,"\"(":4143,"%.":4144,"Ġwhere":4145,"EC":4146,"è¾ĵåĩº":4147,"åı¤ä»£":4148,"Ġpred":4149,"IV":4150,"ov":4151,"ently":4152,"OS":4153,"ä¸ºæł¸å¿ĥ":4154,"AC":4155,"Ġstim":4156,"çº¦æĿŁ":4157,"èĥģ":4158,"æĶ¹éĿ©çļĦ":4159,"äººåĬĽ":4160,"åŃĺåľ¨çļĦ":4161,"éĤ¦":4162,"çħ¤":4163,"å±ĭ":4164,"Ġincluding":4165,"Ġspecific":4166,"Ġfirst":4167,"Ġdist":4168,"è´·æ¬¾":4169,"imal":4170,"ä¹ĭä¸Ń":4171,"è·¯çº¿":4172,"æĪĲéķ¿":4173,"èĸĦ":4174,"49":4175,"Ġ200":4176,"Ġprim":4177,"ä½ĵç³»çļĦ":4178,"ä¸Ńåįİäººæ°ĳåħ±åĴĮåĽ½":4179,"æŁĲç§į":4180,"åĭĩ":4181,"åľĨ":4182,"ement":4183,"æĢģåº¦":4184,"ood":4185,"èµĽ":4186,"éĢĤå½ĵ":4187,"å¹¼åĦ¿":4188,"åĮĸåĴĮ":4189,"å¯¹åħ¶":4190,"å±ķå¼Ģ":4191,"æ¸Ĺ":4192,"Ġmechanis":4193,"Ġpop":4194,"ational":4195,"Ġfactors":4196,"æľįåĬ¡çļĦ":4197,"Ġevalu":4198,"åĦĴ":4199,"cin":4200,"æĪĳä»¬åħļ":4201,"åį³ä½¿":4202,"arget":4203,"vidual":4204,"å¸Ĥåľºç»ıæµİ":4205,"çļĦæĹ¶éĹ´":4206,"Ġprocess":4207,"ä¹ĥ":4208,"éĢĨ":4209,"éĿŀæ³ķ":4210,"Ġneur":4211,"è¾ĵåħ¥":4212,"ç¨ĭåº¦ä¸Ĭ":4213,"================":4214,"çļĦä¸į":4215,"éģŃ":4216,"å¼ķåħ¥":4217,"å°Ĭéĩį":4218,"ind":4219,"001":4220,"Ġinvol":4221,"tively":4222,"å²¸":4223,"Ġthey":4224,"çĹĩçĬ¶":4225,"Ġmem":4226,"è¯±":4227,"éĻ¢æł¡":4228,"èĥ½åĬĽçļĦ":4229,"æľīçĿĢ":4230,"asc":4231,"è®¿éĹ®":4232,"75":4233,"Ġcharacter":4234,"èµ°åĲĳ":4235,"åŁºç¡Ģä¸Ĭ":4236,"äºĭé¡¹":4237,"ç»ĵè®º":4238,"ä»Ĭå¤©":4239,"åľ¨ä¸ŃåĽ½":4240,"åħ¬åı¸çļĦ":4241,"2021":4242,"Ġcyt":4243,"Ġmul":4244,"Ġ201":4245,"åĲĦé¡¹":4246,"æŃ£æĺ¯":4247,"æ´»åĬ¨çļĦ":4248,"èĮĥåĽ´åĨħ":4249,"èĢĥæł¸":4250,"åħ±åĲĮä½ĵ":4251,"æĸ½å·¥":4252,"old":4253,"æķ°æį®çļĦ":4254,"åĬłä»¥":4255,"çĶµåĬĽ":4256,"å£®":4257,"ä¹ĭå¤ĸ":4258,"Ġobserved":4259,"ç½ĳç«Ļ":4260,"åįķåħĥ":4261,"è¾ĥå¤§":4262,"PP":4263,"å¤ļçļĦ":4264,"oma":4265,"è¿Ŀåıį":4266,");":4267,"åĲĪæĪĲ":4268,"LA":4269,"ive":4270,"éĩıåŃĲ":4271,"ä¸ºä¸Ńå¿ĥ":4272,"å°ĳæķ°":4273,"éĺŁä¼į":4274,"ä¸ĩåħĥ":4275,"æĮ¯åħ´":4276,"èµĦæºĲçļĦ":4277,"ration":4278,"ä¹Ļ":4279,"ption":4280,"åħ³ç³»çļĦ":4281,"è¡¥åħħ":4282,"Î¼":4283,"åĪ©çİĩ":4284,"åı¯èĥ½ä¼ļ":4285,"åŃĻ":4286,"èĢĥè¯ķ":4287,"ç½ĳç»ľå®īåħ¨":4288,"å½¢æĪĲçļĦ":4289,"çĶŁçļĦ":4290,"lis":4291,"çĶµåİĭ":4292,"_{":4293,"Ġpol":4294,"å¼ºçļĦ":4295,"æľįåĬ¡åĻ¨":4296,"ä¾ĿéĿł":4297,"æµ·æ´ĭ":4298,"æĩ":4299,"ĠThese":4300,"estig":4301,"Ġdevelopment":4302,"åĩºæĿ¥":4303,"arly":4304,"è¾ĥä¸º":4305,"æĹ¥å¸¸":4306,"åºĨ":4307,"ä¼¸":4308,"ç§¦":4309,"Ġchang":4310,"ix":4311,"Ġconf":4312,"rug":4313,"èĢĮä¸įæĺ¯":4314,"å·®è·Ŀ":4315,"å·¥èµĦ":4316,"åıįå¯¹":4317,"48":4318,"è¡¥åģ¿":4319,"åİŁåŃĲ":4320,"æĹ¦":4321,"æ¼ı":4322,"ä»ĸä»¬çļĦ":4323,"æ¯ķä¸ļ":4324,"39":4325,"ities":4326,"å®ĩ":4327,"åŃ©":4328,"Ġregion":4329,"çĪĨ":4330,"åĪĩå®ŀ":4331,"Sec":4332,"Ġgenes":4333,"ä½ľä¸ļ":4334,"éĤ£äºĽ":4335,"åĬ¨æľº":4336,"%ï¼Į":4337,"ä¸Ģæĸ¹":4338,"åĳ¢":4339,"æ°ĳæ³ķ":4340,"Ġdo":4341,"ç±į":4342,"åĪ¶çº¦":4343,"56":4344,"æĪª":4345,"çļĦæ¦Ĥå¿µ":4346,"æīĵéĢł":4347,"è·Ŀç¦»":4348,"äºĨä¸Ģ":4349,"ĠCh":4350,"çļĦæĬĢæľ¯":4351,"ç»ıæµİå¢ŀéķ¿":4352,"åįģåĽĽ":4353,"æ¸¸æĪı":4354,"çļĦæĢĿæĥ³":4355,"ãĢģâĢľ":4356,"èĢĲ":4357,"åħ³èģĶ":4358,"å½¢è±¡":4359,"Ġlim":4360,"å¾·åĽ½":4361,"Ġdecre":4362,"ãĢĤâĢľ":4363,"å¸ĤåľºçļĦ":4364,"èĥľåĪ©":4365,"ä½¿åĳ½":4366,"æ¸łéģĵ":4367,"AI":4368,"ES":4369,"ink":4370,"rent":4371,"åĵªäºĽ":4372,"åºĦ":4373,"ç®¡è¾ĸ":4374,"çīĽ":4375,"è¯Ńæĸĩ":4376,"æĽ¿ä»£":4377,"ice":4378,"Ġindividual":4379,"reated":4380,"äººæīįåŁ¹åħ»":4381,"åĬłåħ¥":4382,"å¥ĳ":4383,"ç»ıå¸¸":4384,"bib":4385,"ç»´æĮģ":4386,"ï½":4387,"Ġwithin":4388,"ai":4389,"Ġthree":4390,"æľīäºĨ":4391,"åĭĴ":4392,"åįģäºĮ":4393,"jec":4394,"DP":4395,"é¢ĦæľŁ":4396,"ĈĈ":4397,"äººä¸İ":4398,"å¸¦æĿ¥çļĦ":4399,"ä¼¦çĲĨ":4400,"ä¼¯":4401,"çļĦç»ĵæŀľ":4402,"æĶ»åĩ»":4403,"æ¸¡":4404,"Ġnormal":4405,"Ġapp":4406,"itive":4407,"Ġimp":4408,"å°Ĩåħ¶":4409,"å¯Įè£ķ":4410,"èµ¢":4411,"æĹ¶çļĦ":4412,"äººå¤§":4413,"ç¤ºèĮĥ":4414,"åį±å®³":4415,"æīĢå¾Ĺ":4416,"éĿĴå¹´":4417,"Ġimportant":4418,"èĢĥå¯Ł":4419,"ç»Ħç»ĩçļĦ":4420,"RI":4421,"ãĢĤ\"":4422,"Ġparticip":4423,"éªĹ":4424,"åĵįåºĶ":4425,"è®¸åı¯":4426,"Ġinvestig":4427,"çļĦåºĶçĶ¨":4428,"ç²¾åĩĨ":4429,"Ġhigher":4430,"æĸ¹éĴĪ":4431,"æĽ´æĸ°":4432,"Ġnew":4433,"äºĭçī©":4434,"éĢĤåĲĪ":4435,"å¼ºåº¦":4436,"othe":4437,"ET":4438,"95":4439,"Ġprevious":4440,"Ġincrease":4441,"äºĭæķħ":4442,"Ġtissue":4443,"æµģéĢļ":4444,"çĭ¬çī¹":4445,"Ġrat":4446,"EP":4447,"è¯Ī":4448,"æĻļ":4449,"åıªè¦ģ":4450,"å±ķç¤º":4451,"Ġocc":4452,"åĲĦåľ°":4453,"åĳ½è¿Ĳ":4454,"Ġdemonstr":4455,"Ġtr":4456,"Ġtri":4457,"01":4458,"ä¸ºä»Ģä¹Ī":4459,"åħħåĪĨåıĳæĮ¥":4460,"Ġyears":4461,"ä¹ĭè·¯":4462,"çļĦæł¸å¿ĥ":4463,"èĻ«":4464,"é¥°":4465,"ination":4466,"Ġdep":4467,"çĿĢåĬĽ":4468,"äº¿åħĥ":4469,"Ġmolec":4470,"åįģä¸ī":4471,"è¡Įä¸ºçļĦ":4472,"ä¸Ĭå¸Ĥ":4473,"å°ıç»Ħ":4474,"é¦ĸæ¬¡":4475,"ä¸½":4476,"å·Ŀ":4477,"ä¾Ŀçħ§":4478,"Ġinfection":4479,"æĮĸ":4480,"æ¬²":4481,"ä¹łæĥ¯":4482,"æ¢ģ":4483,"èī¯å¥½":4484,"åĪĳæ³ķ":4485,"set":4486,"ä½Ľ":4487,"con":4488,"å·©":4489,"å»ī":4490,"åı¯ä»¥éĢļè¿ĩ":4491,"rect":4492,"ä¸Ŀ":4493,"ãĢģãĢĬ":4494,"çĶ¨äºº":4495,"æī£":4496,"atis":4497,"æłĩåĩĨåĮĸ":4498,"åĤ¬":4499,"æĤ¨":4500,"Ġreported":4501,"Ġshowed":4502,"æĭĴ":4503,"å¥¥":4504,"å¤ªéĺ³":4505,"èī°":4506,"å§ĵ":4507,"èĭ¥å¹²":4508,"65":4509,"éĺ´":4510,"çĥŁ":4511,"éĽĦ":4512,"å£ģ":4513,"AM":4514,"çļĦæķĻèĤ²":4515,"åĩłä¹İ":4516,"æľīäºĽ":4517,"ins":4518,"éī´å®ļ":4519,"æĬ½è±¡":4520,"Ġfre":4521,"æįŁä¼¤":4522,"é«ĺè´¨éĩıåıĳå±ķ":4523,"CO":4524,"å¹¶éĿŀ":4525,"åģļåĩº":4526,"Figure":4527,"åı¯ä»¥åľ¨":4528,"Ġsignal":4529,"ĠAn":4530,"åıĺéĩı":4531,"sible":4532,"éĽ·":4533,"æĿĨ":4534,"èĥ¶":4535,"èĩªä¿¡":4536,"äººåľ¨":4537,"æĸ°åħ´":4538,"åıĻ":4539,"ä»£çłģ":4540,"ä¸įåĨį":4541,"èħº":4542,"Ġdescrib":4543,"ores":4544,"åĩºåı°":4545,"æİĪæĿĥ":4546,"æ³ķäºº":4547,"ust":4548,"åĨĽéĺŁ":4549,"å«":4550,"å¼ķåıĳ":4551,"å®¡çĲĨ":4552,"Ġcases":4553,"Ġinj":4554,"Ġsome":4555,"æ¢¦":4556,"å¤ı":4557,"è§Ĩä¸º":4558,"åĿĩè¡¡":4559,"ç»ª":4560,"æ°ı":4561,"å®ŀæĹ¶":4562,"åĴĮåħ¶ä»ĸ":4563,"æŁ±":4564,"æģĴ":4565,"Ġmedi":4566,"æ¨ª":4567,"è¿ĳä»£":4568,"å½ĵåľ°":4569,"onal":4570,"ä¸ºåŁºç¡Ģ":4571,"ensi":4572,"ressed":4573,"\"ãĢĤ":4574,"é«ĺçº§":4575,"èĥĢ":4576,"Ġlead":4577,"äººæĸĩ":4578,"44":4579,"å¨ģèĥģ":4580,"ĠĠĠĠĠĠĠ":4581,"å¹¸":4582,"åıĳè¡Į":4583,"tis":4584,"2016":4585,"åĪ°çļĦ":4586,"ä»°":4587,"ĠĠĠĠĠ":4588,"åĪĿæŃ¥":4589,"ä¼Łå¤§å¤įåħ´":4590,"Ġconc":4591,"é¢ĳçİĩ":4592,"è¯ķçĤ¹":4593,"ek":4594,"Ġtarget":4595,"ä»£è°¢":4596,"éª¤":4597,"Ġmicro":4598,"éĴŁ":4599,"åĪºæ¿Ģ":4600,"Ġcal":4601,"éĩįå¤į":4602,"Ġmark":4603,"æĿ¡è§Ħå®ļ":4604,"ç¼ºéĻ·":4605,"é²ģ":4606,"æĽ´å¥½åľ°":4607,"Ġchanges":4608,"ä¸ªæĢ§":4609,"åĨľäº§åĵģ":4610,"éģĹäº§":4611,"èķ":4612,"å§Ķæīĺ":4613,"Ġrepres":4614,"æµĻ":4615,"2019":4616,"Ġexperim":4617,"è¿Ļå°±":4618,"AS":4619,"ä¸»è§Ĥ":4620,"åĢĴ":4621,"çĤ¼":4622,"æĿ¨":4623,"ä¼Ĭ":4624,"å¤º":4625,"æĦĪ":4626,"åĲ¯åĬ¨":4627,"å¿Ĩ":4628,"åĽ½å¤ĸ":4629,"Ġrespec":4630,"èĤ¡æĿĥ":4631,"ä¸įè¿ĩ":4632,"ha":4633,"Ġwork":4634,"osph":4635,"ĠIL":4636,"Ġimpro":4637,"âĳł":4638,"åªĴä»ĭ":4639,"ross":4640,"è¿İ":4641,"åĪ¶ä½ľ":4642,"2018":4643,"Ġinform":4644,"abol":4645,"åı«":4646,"åĻ¨çļĦ":4647,"æĶ¯åĩº":4648,"é¦Ļæ¸¯":4649,"éħįåĲĪ":4650,"ä½Ĩåľ¨":4651,"çº¸":4652,"ä¼łéĢĴ":4653,"ç´§å¯Ĩ":4654,"æĻ°":4655,"ç¤¾ä¼ļä¸»ä¹īçİ°ä»£åĮĸ":4656,"Ġgrow":4657,"å®«":4658,"åĮ¹":4659,"Ġfinding":4660,"Ġthose":4661,"æİ¥è§¦":4662,"æıŃç¤º":4663,"åĸľ":4664,"çĥ§":4665,"Ġgroups":4666,"æľ±":4667,"éĹ´çļĦ":4668,"å¤įåĲĪ":4669,"äººä¸º":4670,"ç¨¿":4671,"co":4672,"é©¾":4673,"é¥®":4674,"åįļå£«":4675,"èĵĿ":4676,"èªī":4677,"è§Ĵèī²":4678,"ples":4679,"æĽ´å¤ļçļĦ":4680,"äºĨä¸Ģä¸ª":4681,"å·©åĽº":4682,"47":4683,"å¯¹åºĶ":4684,"æĲľ":4685,"ç»ĦæĪĲéĥ¨åĪĨ":4686,"Ġchild":4687,"çļĦçī¹çĤ¹":4688,"ä½ĵèĤ²":4689,"å°ıåº·":4690,"Ġinhibit":4691,"çļĦæĥħåĨµ":4692,"ä¸Ģé¡¹":4693,"ucle":4694,"ograph":4695,"Ġneed":4696,"å¥ł":4697,"ç²ī":4698,"å½¹":4699,"ä¿¡æģ¯çļĦ":4700,"æĳĦ":4701,"æĸĩæľ¬":4702,"action":4703,"çĽĳæİ§":4704,"åĬĽåĴĮ":4705,"æī¹åĩĨ":4706,"æĳĨ":4707,"yd":4708,"èļ":4709,"å´ĩ":4710,"çİī":4711,"];":4712,"èµĦæł¼":4713,"èĬ¯":4714,"çļĦæĶ¿æ²»":4715,"Ġdrug":4716,"ä¹Łä¼ļ":4717,"æģ°":4718,"ä½ĵçİ°äºĨ":4719,"ä¸Ģå¸¦":4720,"åħ¨ä½ĵ":4721,"Ġfe":4722,"éĶģ":4723,"æķħéļľ":4724,"åħ¶å®ĥ":4725,"åħ±è¯Ĩ":4726,"ses":4727,"uce":4728,"eration":4729,"Ġmain":4730,"Ġbec":4731,"å¡«":4732,"åıī":4733,"ä½¿çĶ¨çļĦ":4734,"ived":4735,"èĳ£äºĭ":4736,"è®ºè¿°":4737,"åįķä¸Ģ":4738,"æłĳç«ĭ":4739,"Ġresearch":4740,"Ġç¬¬":4741,"éħ¬":4742,"æ¾³":4743,"âĢĿâĢľ":4744,"å¹¶åľ¨":4745,"åı¬å¼Ģ":4746,"ä¿®å¤į":4747,"è¾Ĩ":4748,"èĦļ":4749,"çļĦåĽ½å®¶":4750,"æļĤ":4751,"è®¤åĲĮ":4752,"ç¡¬ä»¶":4753,"è¾¹ç¼ĺ":4754,"é«ĵ":4755,"åĩĨåĪĻ":4756,"åľĪ":4757,"å¤§å¤§":4758,"ĠDNA":4759,"ning":4760,"zed":4761,"çİ°æľī":4762,"åĵĪ":4763,"unt":4764,"éĩĬæĶ¾":4765,"èĩªåĬ¨åĮĸ":4766,"çģµæ´»":4767,"tained":4768,"äº®":4769,"åĲĮæĦı":4770,"æ¯«":4771,"åĿ¡":4772,"è¾¾æĪĲ":4773,"ically":4774,"å¼ºåĽ½":4775,"%ãĢĤ":4776,"ĠAs":4777,"å¹´é¾Ħ":4778,"åĢ¼å¾Ĺ":4779,"éĺ²æ²»":4780,"æķ¢":4781,"åĨįæ¬¡":4782,"éĩĳèŀįæľºæŀĦ":4783,"tivity":4784,"åĢ¾åĲĳ":4785,"è¿ĺè¦ģ":4786,"çº¹":4787,"çĶµæµģ":4788,"è¸ª":4789,"ength":4790,"åħ¨ä¼ļ":4791,"åį«æĺŁ":4792,"æ½ľåľ¨":4793,"ä¼Ļ":4794,"å¢¨":4795,"cop":4796,"è½´":4797,"ä¸ľè¥¿":4798,"è¾ħåĬ©":4799,"ving":4800,"çīĻ":4801,"çļĦå½¢å¼ı":4802,"æİ¥åı£":4803,"2017":4804,"âĳ¡":4805,"çļĦåŃ¦ä¹ł":4806,"lect":4807,"io":4808,"è°ģ":4809,"åŃ©åŃĲ":4810,"è¾Ĳ":4811,"èĤł":4812,"Ġbrain":4813,"Ġprom":4814,"æĢİæł·":4815,"ä¹ĺ":4816,"æ·»":4817,"åĩ¡":4818,"çŃīçº§":4819,"way":4820,"å¾ĭå¸Ī":4821,"èŀįåħ¥":4822,"las":4823,"2000":4824,"æ»ĳ":4825,"cent":4826,"åĩŃ":4827,"99":4828,"ä¼łæī¿":4829,"ves":4830,"çİ°çĬ¶":4831,"æľĢå¤§çļĦ":4832,"Ġ15":4833,"PC":4834,"çļĦç§ĳåŃ¦":4835,"ĠĠĠĠĠĠĠĠĠĠĠĠĠĠĠĠĠĠĠĠĠĠĠĠĠĠĠĠĠĠĠĠĠĠĠĠĠĠĠĠĠĠĠĠĠĠĠĠ":4836,"åĩºçİ°äºĨ":4837,"ç»Ŀå¯¹":4838,"78":4839,"ä¸Ģè·¯":4840,"ane":4841,"ditional":4842,"Ġpotential":4843,"ĠRes":4844,"----------------------------------------------------------------":4845,"],[@":4846,"å¾®çĶŁçī©":4847,"èĳĹä½ľ":4848,"ç¬ĶèĢħ":4849,"æĥħå¢ĥ":4850,"ptom":4851,"é¡¿":4852,"ç»ĵæĿŁ":4853,"æĶ¿åºľçļĦ":4854,"çĶ¨äººåįķä½į":4855,"æ»ŀ":4856,"åıĸå¾ĹäºĨ":4857,"å¦ĩ":4858,"åķĨåĬ¡":4859,"ç»©æķĪ":4860,"å²Ĺä½į":4861,"æĿ¡ä¾ĭ":4862,"Ġpredic":4863,"æĹłæķĪ":4864,"é¢Ħç®Ĺ":4865,"åįģå¹´":4866,"aining":4867,"è£ħç½®":4868,"aj":4869,"æĥ©":4870,"ä¸Ńåįİæ°ĳæĹıä¼Łå¤§å¤įåħ´":4871,"EM":4872,"aging":4873,"èģĮå·¥":4874,"æīĭæľ¯":4875,"2015":4876,"Ġâ":4877,"ç§ĳæĬĢåĪĽæĸ°":4878,"Ġresult":4879,"åĬ³åĬ¨åĬĽ":4880,"ç©ºæ°Ķ":4881,"å¤§éĥ¨åĪĨ":4882,"Ġrequi":4883,"Ġsuggest":4884,"çļĦçĽ®æłĩ":4885,"æ³¥":4886,"å¤§éĩıçļĦ":4887,"åĽłåŃĲ":4888,"è§£éĻ¤":4889,"ascular":4890,"Ġbas":4891,"èĤ¡ç¥¨":4892,"Ġconsid":4893,"Ġmulti":4894,"table":4895,"æķıæĦŁ":4896,"ä¸įå°ĳ":4897,"èĲ¥åħ»":4898,"éĻ¶":4899,"çĶŁäº§åĬĽ":4900,"ä¹³":4901,"æŃ¥éª¤":4902,"å±Ģéĥ¨":4903,"Ġsever":4904,"è¡¨çİ°ä¸º":4905,"åĴ¨":4906,"å¾Ĵ":4907,"ness":4908,"å»ºæŀĦ":4909,"ateg":4910,"åĬŀåħ¬":4911,"åı°æ¹¾":4912,")ï¼Į":4913,"Ġaffec":4914,"Ġpost":4915,"é«ĺéĢŁ":4916,"æıĲåĩºçļĦ":4917,"åĬŀçĲĨ":4918,"64":4919,"å¤§åŀĭ":4920,"53":4921,"æįķ":4922,"æĭ¿":4923,"æ´»åĬĽ":4924,"77":4925,"åıĳçĶŁçļĦ":4926,"åĢŁéī´":4927,"lev":4928,"ä¸įåı¯èĥ½":4929,"æĦıè¯Ĩå½¢æĢģ":4930,"Ġfactor":4931,"èħĶ":4932,"èĤ¯":4933,"éĿ¢çļĦ":4934,"Ġev":4935,"ç«ĭåľº":4936,"ural":4937,"Ġsym":4938,"çłĶç©¶äººåĳĺ":4939,"äººæ°ĳå¸ģ":4940,"èĢģå¸Ī":4941,"çĵ¦":4942,"é«ĺçŃīæķĻèĤ²":4943,"éĺĶ":4944,"Ćć":4945,"ision":4946,"ä¸Ģä»£":4947,"ä¸ĢæĹ¦":4948,"åŃ¦å®¶":4949,"åįģåħ«å¤§":4950,"ilar":4951,"æľ¬ä¹¦":4952,"ä½¿åŃ¦çĶŁ":4953,"Ġcorrel":4954,"åĳ¼åĲ¸":4955,"çĶŁæ´»çļĦ":4956,"å¿ł":4957,"èĥ¡":4958,"è¿Ľåı£":4959,"æµĵåº¦":4960,"çº¤ç»´":4961,"ä¼ı":4962,"ans":4963,"iter":4964,"æ¬¢":4965,"åıĺåĬ¨":4966,"Ġtype":4967,"èĤ¾":4968,"æĬķèµĦèĢħ":4969,"aterial":4970,"äº§ä¸ļéĵ¾":4971,"Ġfurther":4972,"éĢĤçĶ¨äºİ":4973,"æī¿åĮħ":4974,"åħ¬çĽĬ":4975,"æ¡£æ¡Ī":4976,"Ġconcentr":4977,"èµĭäºĪ":4978,"åıĳå±ķåĴĮ":4979,"åĪĻæĺ¯":4980,"Ġox":4981,"åľ°åĿĢ":4982,"å¼ıçļĦ":4983,"ä¸įåĪ°":4984,"çĲĨçĶ±":4985,"ç¦ģæŃ¢":4986,"Ġmor":4987,"æıĴ":4988,"èµ·è¯ī":4989,"èŀº":4990,"åĪĴåĪĨ":4991,"äº«æľī":4992,"æ´¥":4993,"è§Ĥæµĭ":4994,"æĤī":4995,";(":4996,"ie":4997,"ç§ĭ":4998,"çŁ¥è¯ĨçļĦ":4999,"Ġidentified":5000,"çłĶç©¶æīĢ":5001,"Ġinflamm":5002,"æŃ£ä¹ī":5003,"å·§":5004,"å¤§è§Ħæ¨¡":5005,"ID":5006,"å¤§å®¶":5007,"æ¶ĪéĻ¤":5008,"Ġmetabol":5009,"å¤§å¹ħ":5010,"å¹¶æ²¡æľī":5011,"Ġ12":5012,"èĥ½åĬĽåĴĮ":5013,"\"ãĢģ\"":5014,"åĲĮæŃ¥":5015,"è°·":5016,"Ġoccur":5017,"çļĦæĹ¶åĢĻ":5018,"åŃ¦ä¼ļ":5019,"Ġreceptor":5020,"PS":5021,"spec":5022,"ç¨³å®ļæĢ§":5023,"å¤©çĦ¶":5024,"though":5025,"Ġprot":5026,"æĸ°æĹ¶ä»£ä¸ŃåĽ½çī¹èī²ç¤¾ä¼ļä¸»ä¹ī":5027,"æĳĺ":5028,"vention":5029,"æĺ¯ä¸ŃåĽ½":5030,"åĲĦèĩª":5031,"ï¼īãĢģ":5032,"çļĦåİŁåĪĻ":5033,"ä»ģ":5034,"åģĩè®¾":5035,"æľºéģĩ":5036,"Ġlong":5037,"æĹłçº¿":5038,"èĵĦ":5039,"è¯¦ç»Ĩ":5040,"åıĳèĤ²":5041,"Ġfib":5042,"æĪĳåĽ½çļĦ":5043,"Ġproteins":5044,"æ¥¼":5045,"åĩºçīĪç¤¾":5046,"ator":5047,"çĶ·":5048,"åŃ¦ä¹łçļĦ":5049,"æĪ¿åľ°":5050,"42":5051,"Ġ,":5052,"æīĢç¤º":5053,"é¢Ĺ":5054,"åĲĪå¹¶":5055,"åģ¶":5056,"BS":5057,"Ġcaus":5058,"é©¶":5059,"å¹²é¢Ħ":5060,"ĠFor":5061,"ç®Ģç§°":5062,"åĲ¸å¼ķ":5063,"ics":5064,"å¾Īéļ¾":5065,"Ġ+":5066,"âĢķ":5067,"####":5068,"46":5069,"è§Ī":5070,"æĪ¿å±ĭ":5071,"41":5072,"æīĢéľĢ":5073,"ulin":5074,"åĵģç§į":5075,"uff":5076,"yn":5077,"æīİ":5078,"åĬ¨èĦī":5079,"Ġtotal":5080,"ç¼´":5081,"åĲİæŀľ":5082,"ĠPro":5083,"è´¢å¯Į":5084,"Ġactivation":5085,"IC":5086,"57":5087,"éĥĳ":5088,"èĩ³å°ĳ":5089,"ajor":5090,"åĮºåĪĨ":5091,"æ¸ħæ¥ļ":5092,"æ¯ıå¹´":5093,"ains":5094,"åĬ³åĬ¨åĲĪåĲĮ":5095,"ç¼ĸåĪ¶":5096,"æī¹åĪ¤":5097,"çº³ç±³":5098,"Ġdetermin":5099,"Ġå¹´":5100,"Ġtyp":5101,"ording":5102,"æĿĥå¨ģ":5103,"Ġaddition":5104,"ä¸Ģä½ĵåĮĸ":5105,"Ġvirus":5106,"ä¸»å¸Ń":5107,"åĽ½éĺ²":5108,"å°ģå»º":5109,"Ġpopulation":5110,"98":5111,"Ġthen":5112,"ä¸»ä»»":5113,"Ġep":5114,"ä¸¾æİª":5115,"------------":5116,"åľ°åĮºçļĦ":5117,"è½½ä½ĵ":5118,"}{":5119,"èĢĮåľ¨":5120,"Ġref":5121,"è®¤çľŁ":5122,"è¾ĥä½İ":5123,"çĽĳå¯Ł":5124,"é¦Ī":5125,"ç»ĵæŀĦçļĦ":5126,"induced":5127,"è¡Ķ":5128,"æĮĸæİĺ":5129,"äººçī©":5130,"ental":5131,"ä¿ĿçķĻ":5132,"åĵģè´¨":5133,"):":5134,"Ġpub":5135,"æĸ°æĬĢæľ¯":5136,"è¿Ī":5137,"å°Ŀ":5138,"ĠĠĠĠĠĠĠĠĠ":5139,"çŁ©":5140,"æ¸ĹéĢı":5141,"æľīåĬĽ":5142,"æĮĩæķ°":5143,"Ġrate":5144,"åħ¬åħ±æľįåĬ¡":5145,"Ġneuro":5146,"LC":5147,"å¯¹æŃ¤":5148,"æĪĲåĪĨ":5149,"IS":5150,"Ġj":5151,"Ġtech":5152,"Ġsmall":5153,"æī«":5154,"åıĺæĽ´":5155,"ä¸»ä¹īçļĦ":5156,"æī¾åĪ°":5157,"éĢļè¿ĩå¯¹":5158,"è®°èĢħ":5159,"Ġcare":5160,"lected":5161,"é¼ł":5162,"Ġsecond":5163,"och":5164,"åĩºèµĦ":5165,"ãĢĭ(":5166,"åĮ»èį¯":5167,"Ġradi":5168,"ç©·":5169,"ytes":5170,"æ°¨":5171,"ä¿¡å¿µ":5172,"é«ĺä¸Ń":5173,"ä¸ŃåĽ½å®¶":5174,"è²":5175,"èĥĨ":5176,"ç¬¬ä¸Ģä¸ª":5177,"å¾Ĺä»¥":5178,"68":5179,"éĢīä¸¾":5180,"Ġcardi":5181,"æĪĲäºĨ":5182,"åºıåĪĹ":5183,"åĨ²åĩ»":5184,"èĥĮæĻ¯ä¸ĭ":5185,"åĲ´":5186,"Ġav":5187,"éĢļéģĵ":5188,"ä¸ªæľĪ":5189,"åİŁå§ĭ":5190,"idem":5191,"å¾¡":5192,"ç¬¬ä¸ĢçĻ¾":5193,"å¾ĹåĪ°äºĨ":5194,"Ġimmune":5195,"AL":5196,"MS":5197,"çĶŁæĢģæĸĩæĺİ":5198,"ç½Ĺæĸ¯":5199,"åĽ½å®¶å®īåħ¨":5200,"éĩĩéĽĨ":5201,"å¤įæĿĤçļĦ":5202,"æľīæĿĥ":5203,"æµ®":5204,"æŃ£å½ĵ":5205,"éħĴ":5206,"PD":5207,"inf":5208,"erm":5209,"çĪ±åĽ½":5210,"è½¬åĮĸä¸º":5211,"è¯¾åłĤæķĻåŃ¦":5212,"ior":5213,"åĲ¨":5214,"äººæ°ĳçļĦ":5215,"åĿļåĨ³":5216,"æľīåºı":5217,"Ġcult":5218,"éļıæľº":5219,"æ°´å¹³çļĦ":5220,"è¯Ŀè¯Ń":5221,"é±":5222,"Ġcommon":5223,"æľīæķĪåľ°":5224,"å·¨å¤§çļĦ":5225,"ãĢĤãĢĬ":5226,"é£İæł¼":5227,"åĴ¨è¯¢":5228,"å¤ĦåĪĨ":5229,"åħ¨å±Ģ":5230,"æ³ķåĽ½":5231,"çİ°åľº":5232,"é«ĺäºİ":5233,"æĦŁçŁ¥":5234,"cle":5235,"å¼ºçĥĪ":5236,"amet":5237,"\",\"":5238,"åľ¨çº¿":5239,"åħ¶å®ŀ":5240,"çŃ¾è®¢":5241,"çļĦä»·åĢ¼":5242,"ested":5243,"é±¼":5244,"Ġbased":5245,"air":5246,"è´Ŀ":5247,"2010":5248,"éĵľ":5249,"åĽŀçŃĶ":5250,"ä¼Ĳ":5251,"æķĪåĬĽ":5252,"å¤ĸäº¤":5253,"ety":5254,"è½¬åĲĳ":5255,"ified":5256,"ä»£è¡¨å¤§ä¼ļ":5257,"å¯¹æ¯Ķ":5258,"ç»ıåħ¸":5259,"çĲĨè®ºåĴĮ":5260,"çļĦé£İéĻ©":5261,"èĩ£":5262,"æ£®æŀĹ":5263,"çļĦçĽ®çļĦ":5264,"ä»¥åīį":5265,"Ġdel":5266,"æİ¥æĶ¶":5267,"åıĳè¾¾åĽ½å®¶":5268,"åıĺå¾Ĺ":5269,"éŁ©":5270,"éĨĴ":5271,"Ġmajor":5272,"ouse":5273,"å°ļæľª":5274,"MC":5275,"Ġdue":5276,"èº«ä½ĵ":5277,"æĻºèĥ½åĮĸ":5278,"å¥ı":5279,"58":5280,"Ġcontrib":5281,"åĿĲ":5282,"ĠIt":5283,"èĥ¸":5284,"çĸ«èĭĹ":5285,"ately":5286,"å¹¶ä¸įæĺ¯":5287,"è¿Ĳä½ľ":5288,"åħ±åĲĮå¯Įè£ķ":5289,"åĬŁçİĩ":5290,"çĶĺ":5291,"é¢Ī":5292,"çĸı":5293,"å¸¦åĬ¨":5294,"è§£åĨ³æĸ¹æ¡Ī":5295,"ication":5296,"çļĦç®¡çĲĨ":5297,"æĦıå¿Ĺ":5298,"æĽ´é«ĺ":5299,"èĦ±è´«":5300,"å°±åı¯ä»¥":5301,"ä»Ĭå¹´":5302,"ç¨³å®ļçļĦ":5303,"çļĦæĸĩåĮĸ":5304,"Ġso":5305,"å°ıåŃ¦":5306,"èĲ¥éĶĢ":5307,"è§Ĩè§Ĵ":5308,"æ¸ħæĻ°":5309,"æķħäºĭ":5310,"è¾Ĳå°Ħ":5311,"åıł":5312,"inc":5313,"é¢ģ":5314,"anti":5315,"äº¤åıī":5316,"çļĦéľĢæ±Ĥ":5317,"ä¸Ńåħ¨ä¼ļ":5318,"æľīäºº":5319,"èĬĤèĥ½":5320,"è¯Ħè®º":5321,"ï¼Ĥ,":5322,"æī©å¼ł":5323,"çķ´":5324,"å¥łå®ļ":5325,"æĪ¿åľ°äº§":5326,"ä¿¡ä»°":5327,"Ġel":5328,"Ġif":5329,"åĨ°":5330,"å¤§å°ı":5331,"åºĶæĢ¥":5332,"æĮĩæĮ¥":5333,"åī©":5334,"åħ¬æŃ£":5335,"ospit":5336,"è®¤è¯ģ":5337,"ãĢĭãĢģãĢĬ":5338,"eu":5339,"æıĲäº¤":5340,"ç§ĳåŃ¦å®¶":5341,"Ġcomb":5342,"å²©":5343,"è§Ĩé¢ĳ":5344,"erest":5345,"å±ĢéĻĲ":5346,"åĲĪçĲĨçļĦ":5347,"åľ£":5348,"åīĬ":5349,"æ¦Ĥæĭ¬":5350,"çļĦç²¾ç¥ŀ":5351,"æ°ĳä¼Ĺ":5352,"å¿ħè¦ģçļĦ":5353,"Ġdescribed":5354,"ism":5355,"åįģåħŃ":5356,"å¼ĺ":5357,"è¯¸å¤ļ":5358,"çļĦåħ·ä½ĵ":5359,"ä¸Ĭä¸ĭ":5360,"the":5361,"æ°®":5362,"æĥħèĬĤ":5363,"æĪĲç»©":5364,"å¿ĥçĲĨåŃ¦":5365,"åĶ¯ä¸Ģ":5366,"ä¸īç§į":5367,"Ġfollowing":5368,"iod":5369,"ĠCon":5370,"æĿ¡ä»¶çļĦ":5371,"ake":5372,"ä¼ª":5373,"Ġset":5374,"ä¾Ŀæ³ķæ²»":5375,"èĬ¯çīĩ":5376,"ä½ľçī©":5377,"ç»ıè´¹":5378,"Ġhist":5379,"æ¯Ķéĩį":5380,"éĤĵ":5381,"Ġdifferenti":5382,"âĢĿãĢģâĢľ":5383,"æĶ»åĿļ":5384,"oint":5385,"}$$":5386,"ä¸Ģå¸¦ä¸Ģè·¯":5387,"äº§çī©":5388,"Ġvis":5389,"å¹¿åĳĬ":5390,"åģļæ³ķ":5391,"å®Ļ":5392,"ä¸ĭåĪĹ":5393,"æİ¥è¿ĳ":5394,"åĨįçĶŁ":5395,"Ġdisc":5396,"çĻ¾åĪĨ":5397,"versity":5398,"IM":5399,"æĻĭ":5400,"çģĮ":5401,"ä¼łç»ŁæĸĩåĮĸ":5402,"å¯Ĩåº¦":5403,"ingle":5404,"è£ħå¤ĩ":5405,"ency":5406,"ĊĠĠ":5407,"Ġany":5408,"çŃīéĹ®é¢ĺ":5409,"çĽ¸ä¼¼":5410,"æĬ¥éģĵ":5411,"æĮĩåįĹ":5412,"åıĳçĹħ":5413,"è§Ĩè§ī":5414,"çªģåıĺ":5415,"åĮ¹éħį":5416,"çĤ¹çļĦ":5417,"Ġanaly":5418,"07":5419,"æ³ķåŃ¦":5420,"åīįè¿Ľ":5421,"çļĦæĿĥåĪ©":5422,"ĠCom":5423,"æĳ©":5424,"Ġgrowth":5425,"AG":5426,"å±ı":5427,"å·¥åİĤ":5428,"çļĦåİŁåĽł":5429,"Ġflu":5430,"omy":5431,"æĲŀ":5432,"TO":5433,"æľºåĻ¨äºº":5434,"è²Į":5435,"æľīåı¯èĥ½":5436,"Ġlar":5437,"ä¸ĵé¡¹":5438,"ED":5439,"çļĦå®īåħ¨":5440,"è¡į":5441,"Ġevid":5442,"èĪĨ":5443,"ä¾Ŀæīĺ":5444,"upplement":5445,"Ġshould":5446,"Ġregul":5447,"å¤ļæł·æĢ§":5448,"çļĦè¿ĩç¨ĭä¸Ń":5449,"vere":5450,"æĸ°åıĳå±ķ":5451,"æĮĩä»¤":5452,"éĩĩè´Ń":5453,"ä¸»ç®¡":5454,"ä»·åĢ¼çļĦ":5455,"Ġfindings":5456,"åľ¨ä¸Ģèµ·":5457,"æķ°åŃĹç»ıæµİ":5458,"ç«ŀäºīåĬĽ":5459,"ä½İäºİ":5460,"æ»¤":5461,"è´Łæĭħ":5462,"é²ľæĺİ":5463,"ä¸ºæł¸å¿ĥçļĦ":5464,"Ġabout":5465,"åĲī":5466,"çİ¯ä¿Ŀ":5467,"ä¸ºæŃ¤":5468,"ç®±":5469,"Ġdom":5470,"èĮĥçķ´":5471,"Ġprimary":5472,"çĶ¨æĿ¥":5473,"æ´ª":5474,"åĿ¦":5475,"æī¶è´«":5476,"å®ĩå®Ļ":5477,"è¾Ł":5478,"åıįé¦Ī":5479,"ç¿»è¯ĳ":5480,"Ġinformation":5481,"ä½¿åħ¶":5482,"åĵģçīĮ":5483,"åıĳçĶŁäºĨ":5484,"havi":5485,"]^":5486,"åĨħåŃĺ":5487,"çİ°ä»£åĮĸçļĦ":5488,"2012":5489,"Â°":5490,"çº¿æĢ§":5491,"ç¹ģèį£":5492,"æĺ¯ä¸į":5493,"Ġdid":5494,"åįģäºĶ":5495,"Ġstruct":5496,"æıĲé«ĺäºĨ":5497,"äº§çĶŁäºĨ":5498,"åĲ«éĩı":5499,"of":5500,"ä¸Ńæľī":5501,"Ġwithout":5502,"ç¼ĸè¾ĳ":5503,"Ġrespectively":5504,"RT":5505,"é¢ľ":5506,"äºĭå®ŀä¸Ĭ":5507,"è½¨éģĵ":5508,"^[@":5509,"br":5510,"çļĦå¤ļ":5511,"çļĦåĬŁèĥ½":5512,"ä¸Ģæī¹":5513,"âĢĻ":5514,"Ġbre":5515,"æıĲèµ·":5516,"éĢıæĺİ":5517,"Ġwould":5518,"éķ¿æ±Ł":5519,"çĸĨ":5520,"Ġlower":5521,"ĠY":5522,"èķ´":5523,"ĠĠĠĠĠĠĠĠĠĠĠ":5524,"æĸ°ä¸ŃåĽ½":5525,"æĶ¿åħļ":5526,"omen":5527,"æ°Ķä½ĵ":5528,"åľ°çļĦ":5529,"è®°å¿Ĩ":5530,"å¤©ä¸ĭ":5531,"èį¯åĵģ":5532,"hip":5533,"Ġtherapy":5534,"03":5535,"vir":5536,"æĺ¾çĦ¶":5537,"åºĶçĶ¨äºİ":5538,"ç¬¬ä¸Ģæ¬¡":5539,"Ġsimilar":5540,"åħ¬å®ī":5541,"43":5542,"Ĉą":5543,"Ġmy":5544,"Ġeff":5545,"èĭıèģĶ":5546,"å·¥äºº":5547,"åĩĿèģļ":5548,"åĴĮç®¡çĲĨ":5549,"æ°ĳçĶŁ":5550,"è¡ĮæĶ¿æľºåħ³":5551,"Ġsurg":5552,"Ġrepresent":5553,"è¡Ĺ":5554,"åĮºçļĦ":5555,"æ¶ĪèĢĹ":5556,"å¦»":5557,"Ġliver":5558,"è¿Ł":5559,"è½¦è¾Ĩ":5560,"Ġsamples":5561,"62":5562,"Ġreview":5563,"ä¿®è®¢":5564,"çļĦä¸ŃåĽ½":5565,"èĥ½åĲ¦":5566,"ç¨»":5567,"åįıä½ľ":5568,"GDP":5569,"æĹ¥èµ·":5570,"ä¹¡æĿĳæĮ¯åħ´":5571,"çļĦçŁ¥è¯Ĩ":5572,"åħ¨çĲĥåĮĸ":5573,"åĪĨåī²":5574,"åĬŀåŃ¦":5575,"Ġexpl":5576,"*,":5577,"éħįå¥Ĺ":5578,"Ġamong":5579,"éĿ¶":5580,"ä¾ĿçĦ¶":5581,"Ġsame":5582,"Ġpe":5583,"æĦıæĢĿ":5584,"å®ĥæĺ¯":5585,"èµŀ":5586,"æī¹è¯Ħ":5587,"æ³ķåĪ¶":5588,"æĸ¹ä½į":5589,"åĪĨæķ£":5590,"å¤ļå¹´":5591,"æĶ¿çŃĸçļĦ":5592,"Ġsurvi":5593,"ced":5594,"å¤§æ°Ķ":5595,"èµı":5596,"åı¯èĥ½æĢ§":5597,"é»ĺ":5598,"æŀģå¤§":5599,"Ġpat":5600,"ç¾İå¥½":5601,"refore":5602,"æĶ¾åľ¨":5603,"æħİ":5604,"ĠÎ¼":5605,"æ¼«":5606,"TT":5607,"è¾ĥé«ĺ":5608,"ç¬¦åı·":5609,"èħ¹":5610,"Ġdesign":5611,"St":5612,"å¹ķ":5613,"æ°Ľ":5614,"å¤ĸåĽ½":5615,"çŁŃæľŁ":5616,"Ġext":5617,"åħļçļĦåįģåħ«å¤§":5618,"ange":5619,"è¿ľç¨ĭ":5620,"gree":5621,"æ´Ľ":5622,"å¤Ħç½®":5623,"å®¡ç¾İ":5624,"æĲŃ":5625,"NF":5626,"åµ":5627,"å¼ºå¤§":5628,"çĦĬ":5629,"åŃĺåľ¨çĿĢ":5630,"èĤ¡ä»½":5631,"tex":5632,"Ġhep":5633,"55":5634,"ĠAd":5635,"æŁĲä¸Ģ":5636,"to":5637,"éļĨ":5638,"èģĶåĲĪåĽ½":5639,"èĳĹåĲį":5640,"èħĲè´¥":5641,"dom":5642,"ä¿¡ä»»":5643,"åĩıè½»":5644,"å§Ķä¼ļ":5645,"åı¯æĮģç»Ńåıĳå±ķ":5646,"å±ĢéĿ¢":5647,"Ġwhether":5648,"åĲ«ä¹ī":5649,"ç¨Ģ":5650,"å¤ļæ¬¡":5651,"ĠX":5652,"æĪĲæķĪ":5653,"Ġgenetic":5654,"å¥¹":5655,"å½¼":5656,"æĭį":5657,"ĠTo":5658,"éĺĲè¿°":5659,"Ġlung":5660,"åĽ¢ä½ĵ":5661,"è¶ħè¶Ĭ":5662,"æŃ£ç¡®çļĦ":5663,"æ°ĶåĢĻåıĺåĮĸ":5664,"æº¯":5665,"åľºæīĢ":5666,"èĢĥåı¤":5667,"èıľ":5668,"66":5669,"åıĳçĶµ":5670,"ä¸ŃåĽ½å¼ı":5671,"å¡Ķ":5672,"èĽĭçĻ½è´¨":5673,"åĢºåĪ¸":5674,"èĩªèº«çļĦ":5675,"æĴ¤éĶĢ":5676,"æ¶¨":5677,"æĬµæĬ¼":5678,"We":5679,"2022":5680,"éĹ´æİ¥":5681,"åŀĤ":5682,"Ġ30":5683,"è¡Ķæİ¥":5684,"cell":5685,"äº¤äºĴ":5686,"å¯¿":5687,"ä¸įèī¯":5688,"SS":5689,"ann":5690,"çĽ¸åıį":5691,"Ġ18":5692,"å»ºç«ĭäºĨ":5693,"æĸ°æĹ¶ä»£ä¸ŃåĽ½çī¹èī²ç¤¾ä¼ļä¸»ä¹īæĢĿæĥ³":5694,"fore":5695,"é¹":5696,"ä»¥ä¸ĬçļĦ":5697,"Ġpresence":5698,"MD":5699,"æĮĤ":5700,"æĢĿæĶ¿":5701,"æĹłäºº":5702,"æ¯ıä¸Ģä¸ª":5703,"2014":5704,"ĠĠĠĠĠĠĠĠĠĠĠĠĠ":5705,"å¢ŀåĬłäºĨ":5706,"medi":5707,"Ġknown":5708,"Ġchildren":5709,"Ġcr":5710,"ä½ĵåĪ¶æĶ¹éĿ©":5711,"çĤŃ":5712,"Ġdiagnos":5713,"åºĹ":5714,"ç¬¬åħŃ":5715,"åĿĽ":5716,"è¿Ľè¡ĮçļĦ":5717,"å¸ĿåĽ½":5718,"Ġhyper":5719,"CL":5720,"æĺ¯ä»Ģä¹Ī":5721,"Ġpers":5722,"Ġ100":5723,"2013":5724,"ĠZ":5725,"å¾½":5726,"å¤ĸçļĦ":5727,"etic":5728,"Ġä¸Ģ":5729,"åľ¨è¿Ļ":5730,"æĪĳä»¬è¦ģ":5731,"æħĪ":5732,"ä¸īå¤§":5733,"ä¸Ńåħ±ä¸Ńå¤®":5734,"ither":5735,"å»·":5736,"ä¼ĺè´¨":5737,"åĪĨå·¥":5738,"ç«ĭè¶³":5739,"æĬĢæľ¯åĴĮ":5740,"æµĻæ±Ł":5741,"ï¼ģ":5742,"æĥħç»ª":5743,"æĢ»éĩı":5744,"å·¥ä¸ļåĮĸ":5745,"åĨĻä½ľ":5746,"Ġsymptom":5747,"éĤ»":5748,"çĽ®çļĦæĺ¯":5749,"è¶³å¤Ł":5750,"Ġline":5751,"èĮ¶":5752,"ä¿Ħç½Ĺæĸ¯":5753,"Ĉć":5754,"å¤įåĪ¶":5755,"è¾¹çķĮ":5756,"Ġvalues":5757,"upplementary":5758,"ä¸ŃéĹ´":5759,"äººæł¼":5760,"Ġ(**":5761,"æŃ¤æĹ¶":5762,"éĺ¶å±Ĥ":5763,"ä¾µå®³":5764,"æľªæĪĲ":5765,"è¯īè®¼æ³ķ":5766,"ĠĠĠĠĠĠĠĠĠĠ":5767,"Ġtranscri":5768,"æĹłè®ºæĺ¯":5769,"äººåĬĽèµĦæºĲ":5770,"çļĦæľīæķĪ":5771,"ä¸įåĪ©":5772,"çĮª":5773,"Ġcompar":5774,"çº³ç¨İ":5775,"ç»Łä¸ĢçļĦ":5776,"Ġsit":5777,"ä½įäºİ":5778,"å¾Ĳ":5779,"æ¦Ĥçİĩ":5780,"ç¢³æİĴæĶ¾":5781,"IL":5782,"çļĦä¸įåĲĮ":5783,"ä¸ºä¾ĭ":5784,"å®ļæľŁ":5785,"åįłæľī":5786,"ç¦ıåĪ©":5787,"çĶµç½ĳ":5788,"Ġprof":5789,"ĠNo":5790,"æ³¢åĬ¨":5791,"Ġabs":5792,"ç§¯æŀģæĢ§":5793,"Ġwhile":5794,"èħĬ":5795,"å°Ŀè¯ķ":5796,"æį·":5797,"æ³ķå¾ĭæ³ķè§Ħ":5798,"è¡¥è´´":5799,"åŁİéķĩåĮĸ":5800,"æķ°é¢Ŀ":5801,"ronic":5802,"ä¸ģ":5803,"Ġclass":5804,"02":5805,"æ³Į":5806,"å¤§åĽ½":5807,"åľ°æĸ¹æĶ¿åºľ":5808,"æĽ²çº¿":5809,"çļĦçĽ¸åħ³":5810,"åĲĥ":5811,"å¢ŀåĢ¼":5812,"èįĲ":5813,"åĮħè£ħ":5814,"Ġcurrent":5815,"äººç¾¤":5816,"ä½ĵç³»åĴĮ":5817,"ĠMed":5818,"ĠHe":5819,"2008":5820,"minist":5821,"çĳŀ":5822,"ä½İç¢³":5823,"ä»ħä»ħ":5824,"åĽ½æľīä¼ģä¸ļ":5825,"erv":5826,"Ġmemb":5827,"iel":5828,"å¢Ļ":5829,"æ¢¯":5830,"æ½ľåĬĽ":5831,"å¯¹è¯Ŀ":5832,"âĢĺ":5833,"çģ¾å®³":5834,"èģĮåĬ¡":5835,"Ġdisord":5836,"ãĢĭãĢĬ":5837,"Ġprol":5838,"ĠEx":5839,"åĽ½æĥħ":5840,"è®¡éĩı":5841,"éĺ²èĮĥ":5842,"Ġsingle":5843,"åħ¨è¿ĩç¨ĭ":5844,"åĢŁåĬ©":5845,"Ġmonth":5846,"å¿½è§Ĩ":5847,"ä»ĵ":5848,"åıĳæĺİ":5849,"å¤§åŃ¦çĶŁ":5850,"æĢ§ä¸İ":5851,"è¾ī":5852,"åĽ¾ä¹¦":5853,"æķĻåŃ¦ä¸Ń":5854,"ç£·":5855,"NP":5856,"çī¹å®ļçļĦ":5857,"éĥ½ä¼ļ":5858,"åľ¨æĪĳåĽ½":5859,"çī§":5860,"ç¤¾ä¼ļç§ĳåŃ¦":5861,"çĹħäºº":5862,"Ġmodels":5863,"èī²å½©":5864,"å¼ķå¯¼åŃ¦çĶŁ":5865,"ä¸Ģå¹´":5866,"åıįæĢĿ":5867,"ä¾µçĬ¯":5868,"åĶ¯çī©":5869,"éº¦":5870,"lation":5871,"çķħ":5872,"å¹¸ç¦ı":5873,"å¹¿ä¸ľ":5874,"éļ¾é¢ĺ":5875,"æĻ®åıĬ":5876,"ospital":5877,"Ġiniti":5878,"éĽħ":5879,"Ġsensi":5880,"Ġcir":5881,"Ġagain":5882,"lished":5883,"äº§éĩı":5884,"âĳ¢":5885,"æľĢé«ĺäººæ°ĳæ³ķéĻ¢":5886,"åİĨåı²ä¸Ĭ":5887,"ç¨İåĬ¡":5888,"äºĳè®¡ç®Ĺ":5889,"ymph":5890,"éģµå®Ī":5891,"è¹":5892,"ä»¥æŃ¤":5893,"åħļçļĦé¢Ĩå¯¼":5894,"å¯»æī¾":5895,"èµµ":5896,"Ġreduced":5897,"åĲİæĿ¥":5898,"æł·æľ¬":5899,"å·²æĪĲä¸º":5900,"Ġperiod":5901,"Table":5902,"æĸ¹ä¾¿":5903,"èģĶçĽŁ":5904,"æĺ¯æľĢ":5905,"åħ¨åħļ":5906,"Ġstand":5907,"éĵ¸":5908,"åįķçĭ¬":5909,"çļĦä¼ģä¸ļ":5910,"æģĲ":5911,"æľįåĬ¡ä¸ļ":5912,"èĪªç©º":5913,"arm":5914,"æıĲä¾ĽçļĦ":5915,"Ġbehavi":5916,"å¤±è´¥":5917,"è´§çī©":5918,"è¯ĪéªĹ":5919,"éĢĥ":5920,"teg":5921,"éĤ®":5922,"Ġpositive":5923,"MO":5924,"åĲĹ":5925,"åıĳå±ķä¸ŃåĽ½å®¶":5926,"åĻª":5927,"çļĦéĩįå¤§":5928,"esis":5929,"åħļåĴĮåĽ½å®¶":5930,"Ġcat":5931,"å°ıæĹ¶":5932,"çļĨ":5933,"çļĦæł¹æľ¬":5934,"etes":5935,"Ćą":5936,"åĨ³è®®":5937,"ä¸§":5938,"ä¸İåħ¶ä»ĸ":5939,"å±ķçİ°":5940,"que":5941,"æİĴéĻ¤":5942,"çĶŁæĢģç³»ç»Ł":5943,"ä½ĵçİ°åľ¨":5944,"è®°è½½":5945,"Ġauth":5946,"çīµ":5947,"æ´Ĺ":5948,"ä¹¡éķĩ":5949,"å¥´":5950,"ç²Ĺ":5951,"å·²æľī":5952,"çļĦè®¤è¯Ĩ":5953,"çī©æĿĥ":5954,"ç§įç±»":5955,"å±ħä½ı":5956,"è¾©è¯ģ":5957,"Ġbefore":5958,"itro":5959,"Ġnucle":5960,"Ġless":5961,"åı¦ä¸Ģä¸ª":5962,"gative":5963,"ãĢĤï¼Ī":5964,"æ³ķå®ĺ":5965,"ade":5966,"çĶŁçĲĨ":5967,"ä¸¤èĢħ":5968,"Ġweek":5969,"è¾Ľ":5970,"67":5971,"Ġmal":5972,"Ġphosph":5973,"å¸ĮèħĬ":5974,"other":5975,"Ġstress":5976,"æī¿è¯º":5977,"å½»åºķ":5978,"Ġcy":5979,"æĽ´æĺ¯":5980,"Ġinflu":5981,"Ġdifferences":5982,"åĪĨå¸ĥå¼ı":5983,"ĠåĴĮ":5984,"æĸ¹ç¨ĭ":5985,"å½°":5986,"æĶ¿åĬ¡":5987,"å®¹éĩı":5988,"hesis":5989,"reen":5990,"å¤§äºİ":5991,"æ¯ģ":5992,"Ġret":5993,"odies":5994,"å¯¹æİ¥":5995,"å¤§ä¼Ĺ":5996,"ests":5997,"ä¸İæŃ¤":5998,"åįıä¼ļ":5999,"åĽ½åĨħå¤ĸ":6000,"Ġcomplex":6001,"Ġdiagnosis":6002,"ä¸¥éĩįçļĦ":6003,"æŃ§":6004,"è¿Ļç±»":6005,"ĠHIV":6006,"åĨ³äºİ":6007,"æĹ¨åľ¨":6008,"oss":6009,"æµģéĩı":6010,"åĲįç§°":6011,"çļĦåıĳçĶŁ":6012,"Ġdiseases":6013,"é©¾é©¶":6014,"å°Ĩä¼ļ":6015,"çĽ¸äºĴä½ľçĶ¨":6016,"Ġchem":6017,"ä¹Łè¦ģ":6018,"å§»":6019,"è´ŁåĢº":6020,"Ġexpos":6021,"ç¼ĸçłģ":6022,"Ġpress":6023,"åħĪåĲİ":6024,"è£ģå®ļ":6025,"æĢİä¹Ī":6026,"æīĢæľīçļĦ":6027,"åĢºæĿĥäºº":6028,"Ġgluc":6029,"åıĸåĨ³äºİ":6030,"ä¸įåıĺ":6031,"èĩ³ä»Ĭ":6032,"å¹²æī°":6033,"ç¡«":6034,"çİ¯å¢ĥçļĦ":6035,"äºĶå¹´":6036,"Ġplas":6037,"Ġprovide":6038,"èĤĥ":6039,"çŁ³æ²¹":6040,"Ġserum":6041,"å¼¥":6042,"ä¿ĿåŃĺ":6043,"Ġestim":6044,"ä»¥å¾Ģ":6045,"èģĺ":6046,"åĻ¨ä»¶":6047,"åŁ¹åħ»åŃ¦çĶŁ":6048,"Ġmechanisms":6049,"Al":6050,"me":6051,"æ³¡":6052,"omet":6053,"Ġ11":6054,"ject":6055,"åľ¨ä¸Ģå®ļ":6056,"æľīä¸Ģä¸ª":6057,"Ġbinding":6058,"æľīéĻĲåħ¬åı¸":6059,"ç»ĺçĶ»":6060,"æĺ¯æĪĳåĽ½":6061,"æľīæĹ¶":6062,"ä»¥ä¾¿":6063,"Ġcle":6064,"æĭĶ":6065,"éļ¶":6066,"è®¤åı¯":6067,"éĢłæĪĲçļĦ":6068,"æĺİæĺ¾çļĦ":6069,"Ġparticular":6070,"Ġidentify":6071,"pir":6072,"èµģ":6073,"åĪĨäº«":6074,"Ġmm":6075,"è¿Ŀçº¦":6076,"Ġphys":6077,"Ġ^":6078,"æī¿è®¤":6079,"æ¼Ķåıĺ":6080,"\\*":6081,"åħ¬éĩĮ":6082,"ç§ĳåŃ¦æĬĢæľ¯":6083,"æļĹ":6084,"æľĹ":6085,"inu":6086,"row":6087,"åĢŁæ¬¾":6088,"mit":6089,"çļĦåĪ¶åº¦":6090,"çļĦè§Ĵåº¦":6091,"epti":6092,"çº¢èī²":6093,"ç§Łèµģ":6094,"åıĳéĢģ":6095,"ä¸İç¤¾ä¼ļ":6096,"ardi":6097,"ife":6098,"éĺ²æİ§":6099,"å®ŀçĶ¨":6100,"æľ¬ç§ĳ":6101,"æľĢä¸º":6102,"æļĸ":6103,"based":6104,"åŃ¤":6105,"Ġsk":6106,"ä¸ĵé¢ĺ":6107,"å¸ĪèĮĥ":6108,"Ġtem":6109,"è¯ģä¹¦":6110,"Ġpromot":6111,"çļĦçĶŁäº§":6112,"å¯Ħ":6113,"çº½":6114,"çķĮå®ļ":6115,"æĦŁè§ī":6116,"ification":6117,"Ġsurvival":6118,"è¡£":6119,"åľ°éľĩ":6120,"èĢħåĴĮ":6121,"åīįæĻ¯":6122,"Ġextr":6123,"æıĲåıĸ":6124,"å®īè£ħ":6125,"ocytes":6126,"çīĪæĿĥ":6127,"ä¹łè¿ĳå¹³æĸ°æĹ¶ä»£ä¸ŃåĽ½çī¹èī²ç¤¾ä¼ļä¸»ä¹īæĢĿæĥ³":6128,"79":6129,"å¿ĺ":6130,"ç«Ł":6131,"æłĩåĩĨçļĦ":6132,"ä¸ĩäºº":6133,"çĴ":6134,"å¯¸":6135,"åİĨç¨ĭ":6136,"æĤŁ":6137,"ä¸°å¯ĮçļĦ":6138,"line":6139,"ties":6140,"æł¡åĽŃ":6141,"åłĨ":6142,"åħ¬å¸ĥ":6143,"Ġearly":6144,"æ·ĭ":6145,"aren":6146,"Ġevidence":6147,"çĽ®æłĩçļĦ":6148,"uted":6149,"åİŁåĳĬ":6150,"Ġincluded":6151,"æĭĴç»Ŀ":6152,"*-":6153,"æĬ«":6154,"Ġcap":6155,"Ġfam":6156,"çĭŃ":6157,"ç³ĸå°¿":6158,"èľ":6159,"å¤§åĪ©":6160,"enter":6161,"niversity":6162,"54":6163,"Ġï¼Ī":6164,"è§£è¯»":6165,"æİ¨èįĲ":6166,"éĿĻèĦī":6167,"åµĮ":6168,"+^":6169,"ä¸įå¤Ł":6170,"ury":6171,"ä¿®æŃ£":6172,"![":6173,"åĬĽåŃ¦":6174,"è¿Ļå°±æĺ¯":6175,"æµģè¡Į":6176,"åĪĽéĢłæĢ§":6177,"æĿľ":6178,"æµģåŁŁ":6179,"å°ĳå¹´":6180,"çĻĮçĹĩ":6181,"åħ·ä½ĵçļĦ":6182,"å¼ĺæī¬":6183,"å®¡æł¸":6184,"}}":6185,"åĩ¸":6186,"ality":6187,"ç§įæ¤į":6188,"ä¹Łå°±":6189,"Ġ)":6190,"åĴĮå®ĮåĸĦ":6191,"åľ°åŁŁ":6192,"åīįæ²¿":6193,"çł´äº§":6194,"äºİæĺ¯":6195,"ä¸»æµģ":6196,"Ġinvolved":6197,"BP":6198,"æİ¨è¡Į":6199,"Ġisol":6200,"å¤±åİ»":6201,"åĳ¨åĽ´":6202,"å©ļå§»":6203,"çļĦéľĢè¦ģ":6204,"ä¹Łåı¯":6205,"æ¶Ĥ":6206,"Ġadv":6207,"AN":6208,"æĺĮ":6209,"åı¯ä»¥è¯´":6210,"Ġorg":6211,"âħ":6212,"èĲ¥éĢł":6213,"ove":6214,"äººä½ĵ":6215,"è¿ĩåº¦":6216,"è¿ĩç¨ĭä¸ŃçļĦ":6217,"çļĦåīįæıĲ":6218,"åĲĪçī©":6219,"äºĭæĥħ":6220,"åĽ½å®¶åĴĮ":6221,"ä¹ĥèĩ³":6222,"sec":6223,"ditions":6224,"çŃĽ":6225,"åįıå®ļ":6226,"ĠRNA":6227,"Th":6228,"å¼Ĭ":6229,"ä¸īå¹´":6230,"èį¡":6231,"è®¤è¯ĨåĪ°":6232,"å¼¹æĢ§":6233,"rs":6234,"çļĦåĽ½éĻħ":6235,"æ³Ħ":6236,"ç³»æķ°":6237,"çļĦç»ĵæŀĦ":6238,"èĦĬ":6239,"Ġobtained":6240,"ĠAll":6241,"å«Į":6242,"æ¦":6243,"çĽĪ":6244,"Ġlymph":6245,"æ¿Ģæ´»":6246,"åĭ¤":6247,"Ġdemonstrated":6248,"ä¸įåĬ¨":6249,"åĦĴå®¶":6250,"æ¸ħæ´ģ":6251,"ç¼ĸåĨĻ":6252,"lial":6253,"]{":6254,"åĬ£":6255,"èĥİ":6256,"æ¬ł":6257,"åĽ½å®¶æ²»çĲĨ":6258,"è¿ĺåı¯ä»¥":6259,"é¡¹çĽ®çļĦ":6260,"åĪ¶çļĦ":6261,"ç³ĸå°¿çĹħ":6262,"æĶ¿æĿĥ":6263,"ä¸ĸçķĮä¸Ĭ":6264,"è½¬è½½":6265,"Ġvol":6266,"ç¢İ":6267,"äº¿ç¾İåħĥ":6268,"äºĨä¸ŃåĽ½":6269,"ä¸īè§Ĵ":6270,"æķ´çĲĨ":6271,"As":6272,"ium":6273,"work":6274,"Ġphen":6275,"æ°ĳèĲ¥":6276,"Ġparticipants":6277,"Ġavail":6278,"ä¾¦":6279,"ç®¡çĲĨåĴĮ":6280,"èģĶéĤ¦":6281,"Ġunderst":6282,"DM":6283,"ission":6284,"è·¯çĶ±":6285,"å»¶ä¼¸":6286,"å¼ķèµ·çļĦ":6287,"æ·»åĬł":6288,"Ġseveral":6289,"RF":6290,"è§Ĩéĩİ":6291,"anced":6292,"ç¼ĵè§£":6293,"å·¡":6294,"Ġmus":6295,"åŃ¦çĶŁåľ¨":6296,"å°ıçļĦ":6297,"ä»ªåĻ¨":6298,"åĪĨè§£":6299,"åĬ¨ä½ľ":6300,"æīĵçł´":6301,"istance":6302,"æ±ĩçİĩ":6303,"ty":6304,"æķ¬":6305,"Ġsol":6306,"å¥ī":6307,"çĶµæºĲ":6308,"è¥¿éĥ¨":6309,"Ġ50":6310,"Ġfrequenc":6311,"å°ĸ":6312,"Ġprac":6313,"æĸĩçī©":6314,"åĲĦæĸ¹":6315,"ç±»åŀĭçļĦ":6316,"ydro":6317,"Ġagainst":6318,"è¦ģåľ¨":6319,"ç³»ç»Łä¸Ń":6320,"æ»¡æĦı":6321,"Ġdiab":6322,"è£ģåĪ¤":6323,"Ġanalys":6324,"ç»ıæµİç¤¾ä¼ļåıĳå±ķ":6325,"ogni":6326,"çºªå¾ĭ":6327,"äºĭä¸ļåįķä½į":6328,"ward":6329,"æķĻå¸ĪçļĦ":6330,"RP":6331,"ä¸ŃçŃī":6332,"èĢ³":6333,"çĶµç£ģ":6334,"éļ¾åº¦":6335,"Ġenh":6336,"Ġresponses":6337,"76":6338,"çļĦä½¿çĶ¨":6339,"åıĳå°Ħ":6340,"ä¹ĭæīĢä»¥":6341,"åĩºæĿ¥çļĦ":6342,"åħĪçĶŁ":6343,"ç»´åº¦":6344,"éº»":6345,"jects":6346,"æľĢä½İ":6347,"åĳ½ä»¤":6348,"çľŁçĲĨ":6349,"ç»ıèĲ¥èĢħ":6350,"Ġprob":6351,"çĲĨè®ºçļĦ":6352,"è¡Ģæ¶²":6353,"esion":6354,"è¿ĩæ¸¡":6355,"ä¸»è¦ģæľī":6356,"ĠIm":6357,"ä¸ĸçķĮçļĦ":6358,"ä¼Ĺå¤ļ":6359,"è´Łè½½":6360,"åĬłå¼ºå¯¹":6361,"class":6362,"Ġmat":6363,"åĽŀå½Ĵ":6364,"å½Ĵçº³":6365,"mine":6366,"æłĵ":6367,"Ġbody":6368,"åĲ¦åĪĻ":6369,"è¾ŀ":6370,"Ġdays":6371,"å½ĵä»Ĭ":6372,"çªĹ":6373,"åħĭæľį":6374,"ool":6375,"ï¼ĳ":6376,"ä¹¦éĿ¢":6377,"ç¢±":6378,"Ġexpressed":6379,"app":6380,"Ġculture":6381,"52":6382,"åĪĢ":6383,"åĪł":6384,"å¦ĤåĽ¾":6385,"ç²¾åº¦":6386,"ç²¾ç¡®":6387,"èİ«":6388,"æ´»åĬ¨ä¸Ń":6389,"RS":6390,"pp":6391,"ually":6392,"æ¬º":6393,"å°ıå¹³":6394,"ä¸ľåĮĹ":6395,"åĤ¬åĮĸ":6396,"FN":6397,"çļĦè®¾è®¡":6398,"åĴĮæĸ¹æ³ķ":6399,"è®²è¯Ŀ":6400,"sequ":6401,"asis":6402,"æĥ³è±¡":6403,"ç¼ĸç¨ĭ":6404,"Ġbecause":6405,"ä¿¡è´·":6406,"å®¡æī¹":6407,"Ġmethods":6408,"Ġx":6409,"å¼ºå¤§çļĦ":6410,"Ġpossible":6411,"åĢ¡å¯¼":6412,"arc":6413,"ä¼łæŁĵ":6414,"Ġconditions":6415,"ĠĠĠĠĠĠĠĠĠĠĠĠĠĠ":6416,"Ġgreat":6417,"åŁºåĽłç»Ħ":6418,"Ġarter":6419,"éŃı":6420,"Ġben":6421,"å¢ŀéĢŁ":6422,"æİ¢æµĭ":6423,"åĲİèĢħ":6424,"æŃ¦è£ħ":6425,"éŀ":6426,"æĮĩå®ļ":6427,"å±±ä¸ľ":6428,"sych":6429,"Ġmeasured":6430,"500":6431,"ä¸ºä»£è¡¨":6432,"Ġpur":6433,"è°ĪåĪ¤":6434,"æł¸ç®Ĺ":6435,"Ġtra":6436,"å¯¹æĸ¹":6437,"èĤ²äºº":6438,"æĹłçĸĳ":6439,"èĸª":6440,"ä¸²":6441,"Ġreve":6442,"å¼ķè¿Ľ":6443,"åİĨåı²çļĦ":6444,"åħļçļĦåįģåħ«å¤§ä»¥æĿ¥":6445,"è¡¨è¿°":6446,"åħļå§Ķ":6447,"æľĢè¿ĳ":6448,"ĠFig":6449,"æĬĹæĹ¥":6450,"Ġpressure":6451,"å¤§èĦĳ":6452,"å¤§éĻĨ":6453,"Ġatt":6454,"Ġcontr":6455,"Ġsample":6456,"éĨĩ":6457,"åĲĪæ³ķæĿĥçĽĬ":6458,"Ġcharacteris":6459,"97":6460,"ĠäºĮ":6461,"çļĦå¸Ĥåľº":6462,"çļĦæłĩåĩĨ":6463,"oles":6464,"èģļçĦ¦":6465,"è¿ģç§»":6466,"ä¸»è¦ģåĮħæĭ¬":6467,"å¸ĪçĶŁ":6468,"æŁĲä¸ª":6469,"èĪªå¤©":6470,"Ġred":6471,"Ġeither":6472,"ä¾¿åĪ©":6473,"Ġdetermine":6474,"ï½ŀ":6475,"sc":6476,"æĸ°èĥ½æºĲ":6477,"åħ³èĬĤ":6478,"éĥ½è¦ģ":6479,"ĠFurther":6480,"88":6481,"æĽ°":6482,"è°ĥçłĶ":6483,"Ġsignaling":6484,"ä¸ŃåŃ¦":6485,"åľ¨è¿Ļç§į":6486,"åĨ»":6487,"æľĢæĹ©":6488,"ç®ĢåįķçļĦ":6489,"Ġmany":6490,"ily":6491,"Ġsize":6492,"åī¥":6493,"ste":6494,"æīĢæľīæĿĥ":6495,"å¤ļå°ĳ":6496,"åįĹäº¬":6497,"Ġdirect":6498,"æ¬§çĽŁ":6499,"ç§ĺå¯Ĩ":6500,"NT":6501,"Ġ14":6502,"Ġstatis":6503,"åĳ½é¢ĺ":6504,"Ġadminist":6505,"ysi":6506,"çĶŁåĬ¨":6507,"åĽ¾å½¢":6508,"ç»ĥä¹ł":6509,"é©»":6510,"æŁĵèī²":6511,"Î³":6512,"ĠQ":6513,"atus":6514,"specific":6515,"1000":6516,"æĽ´å¤§":6517,"ç¾İåŃ¦":6518,"2005":6519,"ä¸»ä½ĵçļĦ":6520,"ä½ıæĪ¿":6521,"è´§å¸ģæĶ¿çŃĸ":6522,"Ġpattern":6523,"æħĪåĸĦ":6524,"63":6525,"å·®åĪ«":6526,"Ġrece":6527,"Ġnec":6528,"æĢĿæĥ³æĶ¿æ²»":6529,"ained":6530,"å¼Ĥè®®":6531,"é¡ºåºı":6532,"å°¾":6533,"å¹³éĿ¢":6534,"æł·çļĦ":6535,"çĩĥæĸĻ":6536,"ä¸Ģéĥ¨åĪĨ":6537,"éĹ²":6538,"è¢«ç§°ä¸º":6539,"ĠCT":6540,"ç»ĨèıĮ":6541,"åĲĮæĹ¶ä¹Ł":6542,"ä¼°è®¡":6543,"Ġmonths":6544,"par":6545,"Ġmac":6546,"éĢļè®¯":6547,"åºĶçĶ¨ç¨ĭåºı":6548,"ule":6549,"åįģä¸ĥ":6550,"æľªæĿ¥çļĦ":6551,"èĨ¨":6552,"ful":6553,"roup":6554,"Ġfoc":6555,"çıł":6556,"èĥ°":6557,"Ġadd":6558,"ï¼ĮãĢĬ":6559,"éŃĤ":6560,"æµħ":6561,"å®ŀåĬĽ":6562,"å¾ģç¨ĭ":6563,"åĪĿæľŁ":6564,"çĥŃçĤ¹":6565,"related":6566,"æı´åĬ©":6567,"ä¸İåıĳå±ķ":6568,"è®ºè¯ģ":6569,"åıĹçĲĨ":6570,"æµĭå®ļ":6571,"çŁ¥è¯ĨåĴĮ":6572,"æĩĤ":6573,"åľ°ä¸ĭ":6574,"ç³Ĭ":6575,"èµĦäº§éĺ¶çº§":6576,"è¡¡éĩı":6577,"åı¯èĥ½æĺ¯":6578,".[":6579,"fs":6580,"face":6581,"è¾ĥå¤§çļĦ":6582,"è¡Ģåİĭ":6583,"59":6584,"CM":6585,"Ġrelated":6586,"icient":6587,"Ġgra":6588,"ç§ĳåŃ¦çļĦ":6589,"å¸¦é¢Ĩ":6590,"egin":6591,"ï¼Ĳ":6592,"å®¿":6593,"åıĸä»£":6594,"æł·åĵģ":6595,"çģ°":6596,"Ġtreated":6597,"ick":6598,"å¹¶æľª":6599,"åīįçļĦ":6600,"ç¼Ķ":6601,"Ġstrain":6602,"åıįå¤į":6603,"è¯ķåĽ¾":6604,"è¯±å¯¼":6605,"itor":6606,"è¿ĩç¨ĭçļĦ":6607,"ĠUniversity":6608,"Ġtumors":6609,"æ°ĳæ³ķåħ¸":6610,"æĦŁåıĹ":6611,"çĶŁæ´»ä¸Ń":6612,"Ġchronic":6613,"æ®ĸæ°ĳ":6614,"âĦ":6615,"åľ¨è¿Ļä¸ª":6616,"é«ĺèģĮ":6617,"Ġepit":6618,"åħļåĨħ":6619,"å¾Īå¤§çļĦ":6620,"åĨħå®¹çļĦ":6621,"çº¢åĨĽ":6622,"çĨŁæĤī":6623,"omic":6624,"åŃĲçļĦ":6625,"lob":6626,"Ġsupp":6627,"Ġlarge":6628,":(":6629,"iven":6630,"Ġi":6631,"round":6632,"ç¡®å®ļçļĦ":6633,"Ġlesion":6634,"Ġ24":6635,"Ġhel":6636,"æķ°çļĦ":6637,"ç¡ķ":6638,"èĬĤçº¦":6639,"æ¶Īæģ¯":6640,"æĿĲæĸĻçļĦ":6641,"Ġmit":6642,"åħ¬å¼ı":6643,"ä¸ŃåĽ½ç»ıæµİ":6644,"å£°æĺİ":6645,"Ġlik":6646,"Ġpreviously":6647,"ably":6648,"ç»ĨèĥŀçļĦ":6649,"Ġvalue":6650,"è´¦æĪ·":6651,"elf":6652,"ä¹Łå°±æĺ¯è¯´":6653,"åľ³":6654,"Ġlab":6655,"å¤±ä¸ļ":6656,"begin":6657,"æĤ£èĢħçļĦ":6658,"éĤĵå°ıå¹³":6659,",ãĢĬ":6660,"Ġcase":6661,"çŃīæĸ¹éĿ¢çļĦ":6662,"çĻ¾å§ĵ":6663,"ä¹Łåľ¨":6664,"ä¸įæĸŃæıĲé«ĺ":6665,"äººåĴĮ":6666,"æĸĩèīº":6667,"äºĴçĽ¸":6668,"çĥ¯":6669,"ç»Īç«¯":6670,"åĿļæĮģä»¥":6671,"åĽ½æ°ĳç»ıæµİ":6672,"éĵģè·¯":6673,"é¢ģå¸ĥ":6674,"PCR":6675,"å»ºè®¾åĴĮ":6676,"è¯´çļĦ":6677,"åħħæ»¡":6678,"){#":6679,"Ġlocal":6680,"Ġcalc":6681,"uk":6682,"çļĦæĪĺçķ¥":6683,"ä½ľæĪĺ":6684,"æĭĨ":6685,"ellular":6686,"rial":6687,"åģľæŃ¢":6688,"å¤ľ":6689,"æĸ°åĨł":6690,"æĮĩç¤º":6691,"æķĻåŃ¦çļĦ":6692,"Ġacids":6693,"ä¸ŃåĴĮ":6694,"ules":6695,"ä¸ľæĸ¹":6696,"äººåĳĺçļĦ":6697,"çļĦçİ¯å¢ĥ":6698,"æĿ°":6699,"erc":6700,"çİ°è¡Į":6701,"åħ¬çº¦":6702,"Ġlip":6703,"å°½åı¯èĥ½":6704,"é¡ºåĪ©":6705,"å¯¹ç«ĭ":6706,"æ·¡":6707,"å¸¸è§Ħ":6708,"ters":6709,"èĪį":6710,"çľĭåĩº":6711,"æĭħå½ĵ":6712,"Ġdeath":6713,"argin":6714,"Ġmedical":6715,"åİħ":6716,"å¼Ģè¾Ł":6717,"èĩ³åħ³":6718,"æ¯ıä¸Ģ":6719,"å¾®è§Ĥ":6720,"æĬ¢":6721,"äº¤å¾Ģ":6722,"Ġimprove":6723,"ä¸»æĿĥ":6724,"æĹ¶æķĪ":6725,"æĽ¼":6726,"æ·±åľ³":6727,"ret":6728,"åľ¨åħ¶":6729,"çŃīæĸ¹å¼ı":6730,"éĩįè¦ģä½ľçĶ¨":6731,"ä¹ĭéĹ´çļĦåħ³ç³»":6732,"é¥²":6733,"è´¯ç©¿":6734,"éļĲç§ģ":6735,"Ġstandard":6736,"mic":6737,"ner":6738,"ways":6739,"æŀĦéĢł":6740,"èĲ¨":6741,"åĪĿå§ĭ":6742,"æĻ¯è§Ĥ":6743,"èĪĨè®º":6744,"uit":6745,"çĶ¨åľ°":6746,"å®ŀä¾ĭ":6747,"Ġinteg":6748,"ä¸İåħ¶":6749,"ä¸īç»´":6750,"éĽĨåĲĪ":6751,"ç»ĵæŀĦæĢ§":6752,"Ġsequ":6753,".ãĢĬ":6754,"æ³ī":6755,"ä¹ĭä¸ĭ":6756,"Ġloss":6757,"Ġmetast":6758,"å¯»æ±Ĥ":6759,"äººå¯¹":6760,"å¿§":6761,"Ġdys":6762,"çĹħåıĺ":6763,"æ³°":6764,"lection":6765,"Ġindependent":6766,"96":6767,"æłĩçļĦ":6768,"çĵ¶":6769,"å¤«å¦»":6770,"rin":6771,"åĪ·":6772,"çłĶç©¶åĳĺ":6773,"æĺ¯æľī":6774,"è¿Ļé¡¹":6775,"åı¤åħ¸":6776,"ĠUn":6777,"çļĦåı¯":6778,"çķľ":6779,"æ»¥":6780,"ä¿ĥä½¿":6781,"2011":6782,"åĨľä¸ļçĶŁäº§":6783,"æĦıä¹īä¸Ĭ":6784,"å¸¦æĿ¥äºĨ":6785,"51":6786,"å¸Ĥæ°ĳ":6787,"è¦ģæľī":6788,"ensity":6789,"åıįæĺłäºĨ":6790,"æħ¢æĢ§":6791,"ä¼¼ä¹İ":6792,"drom":6793,"çļĦæĹ¶ä»£":6794,"ä¸įå¼Ģ":6795,"èĤ¯å®ļ":6796,"08":6797,"å¯¹ç§°":6798,"Ġ16":6799,"äººæ°ĳä»£è¡¨å¤§ä¼ļ":6800,"åĮ»çĶŁ":6801,"rane":6802,"Ġinterest":6803,"éĽķ":6804,"æł¼å¼ı":6805,"æ¿Ģåħī":6806,"MI":6807,"å¹¶å°Ĩ":6808,"stit":6809,"æĿĥéĻĲ":6810,"è°ĥåĬ¨":6811,"2009":6812,"çĶµåŃĲåķĨåĬ¡":6813,"ĠĠĠĠĠĠĠĠĠĠĠĠĠĠĠĠĠĠĠĠĠĠĠĠĠĠĠĠĠĠĠĠĠĠĠĠĠĠĠĠĠĠĠĠĠĠĠĠĠĠĠĠĠĠĠĠĠĠĠĠĠĠĠĠĠĠĠĠĠĠĠĠĠĠĠĠĠĠĠĠĠĠĠĠĠĠĠĠĠĠĠĠĠĠĠĠĠĠĠĠĠĠĠĠĠĠĠĠĠĠĠĠĠĠĠĠĠĠĠĠĠĠĠĠĠĠĠĠ":6814,"US":6815,"åıĳåĩº":6816,"éģ£":6817,"otype":6818,"æĹ¶ä»£çļĦ":6819,"ä¹Į":6820,"Ġter":6821,"äººèº«":6822,"è§Ħç«ł":6823,"èµ·æºĲ":6824,"verse":6825,"çľĭæĿ¥":6826,"éĺ²æĬ¤":6827,"å¦¥":6828,"ç£¨":6829,"æº¶æ¶²":6830,"èĨ¨èĥĢ":6831,"å¯¹æĬĹ":6832,"Ġsep":6833,"èµ¤":6834,"ç¤¾ä¼ļä¿Ŀéļľ":6835,"ä¸ĭæĿ¥":6836,"åıĺæĪĲ":6837,"åħ¨éĿ¢å»ºæĪĲ":6838,"Ġimaging":6839,"åĪ©çĽĬçļĦ":6840,"äººåĿĩ":6841,"æİī":6842,"éĴĻ":6843,"æ¦Ĥè¿°":6844,"NS":6845,"ä¸ŃæīĢ":6846,"ä¿±":6847,"æįĲ":6848,"ull":6849,"æľºæŀĦçļĦ":6850,"pha":6851,"Ġanalyzed":6852,"éļ¾çĤ¹":6853,"ä»¿çľŁ":6854,"å¸¸è§ģçļĦ":6855,"æ§":6856,"ised":6857,"çŃīçļĦ":6858,"åħļåı²":6859,"éķ¿çļĦ":6860,"çĭ¬ç«ĭçļĦ":6861,"ç«ĭåį³":6862,"ĠPh":6863,"Ġsupport":6864,"ä¸Ńå°ıä¼ģä¸ļ":6865,"çļĦå½¢æĪĲ":6866,"åĨ¬":6867,"åĲ«æľī":6868,"Ġsequenc":6869,"å®ļéĩı":6870,"äººå£«":6871,"Ġsus":6872,"å¼ĢåĲ¯":6873,"æ°Ķè±¡":6874,"Ġpercent":6875,"Ġavailable":6876,"åħ¨æĸ¹ä½į":6877,"asing":6878,"åħ¬åħĥ":6879,"å¦ĩå¥³":6880,"An":6881,"mm":6882,"Ġmi":6883,"ç¥¨æį®":6884,"Ġantibody":6885,"è·ĳ":6886,"Ġpart":6887,"éĿ¢ä¸´çļĦ":6888,"ä¸Ńä»ĭ":6889,"âĢ¢":6890,"Ġwomen":6891,"ĠCl":6892,"è¾ĥé«ĺçļĦ":6893,"å®³äºº":6894,"å½¢å¼ıçļĦ":6895,"Ġstimul":6896,"æ·ĭå·´":6897,"Ġbeing":6898,"åĪĨæŀĲåĴĮ":6899,"èļĢ":6900,"itation":6901,"äººæ°ĳæĶ¿åºľ":6902,"åĻ¨å®ĺ":6903,"åĸ·":6904,"åį³åı¯":6905,"Ġcirc":6906,"CI":6907,"ince":6908,"Ġpain":6909,"Ġdam":6910,"acy":6911,"æŃ£å¦Ĥ":6912,"èįĴ":6913,"æĶ¾å¼ĥ":6914,"å®¹åĻ¨":6915,"çŃĶæ¡Ī":6916,"Ġapproach":6917,"åĽĬ":6918,"èĤ¤":6919,"Ġmolecular":6920,"]ãĢĤ":6921,"åĮĸè§£":6922,"éĥ¨éĺŁ":6923,"æľĢæĸ°":6924,"åįķçº¯":6925,"Ġallow":6926,"Ġinsulin":6927,"72":6928,"æĶ¿åįı":6929,"èĢĮéĿŀ":6930,"åĨ³å®ļäºĨ":6931,"çİ°éĩĳ":6932,"etwork":6933,"éĩįè¦ģçļĦæĺ¯":6934,"atively":6935,"ocy":6936,"Ġreveal":6937,"äº§ä¸ļåıĳå±ķ":6938,"Ġsymptoms":6939,"ç»ıçĲĨ":6940,"Ġmouse":6941,"ä¾ĭåŃĲ":6942,"å»ºç«ĭåģ¥åħ¨":6943,"é£ŀè¡Į":6944,"ćć":6945,"åĪĨè¾¨":6946,"Ġproced":6947,"ä¹łè¿ĳå¹³åĲĮå¿Ĺ":6948,"åį°åº¦":6949,"ä¾Ŀæ³ķæ²»åĽ½":6950,"94":6951,"çļĦçĶŁæ´»":6952,"è¯ŀ":6953,"åĴĮæľįåĬ¡":6954,"åı¯éĿłæĢ§":6955,"äº¤ä»ĺ":6956,"åıĸåĲĳ":6957,"æ¨¡å¼ıçļĦ":6958,"æĺ¯éĢļè¿ĩ":6959,"åĪĨæĶ¯":6960,"ian":6961,"åĶ±":6962,"ä¼¤å®³":6963,"Ġdetermined":6964,"FP":6965,"Ġbacter":6966,"ä¹ĭå¤Ħ":6967,"éĥ¨ä»¶":6968,"äºĮæ°§åĮĸ":6969,"åŃĺæ¬¾":6970,"çº¿çļĦ":6971,"Ġaccording":6972,"Ġmutations":6973,"çłĶç©¶éĻ¢":6974,"**)":6975,"çĽ¸åĲĮçļĦ":6976,"éĻķ":6977,"rop":6978,"å®¶æĹı":6979,"çłĶç©¶åĴĮ":6980,"Ġhow":6981,"çĽĳæĬ¤":6982,"é¢Ĺç²Ĵ":6983,"ml":6984,"è¿Ĳç®Ĺ":6985,"æĹ¢æĺ¯":6986,"06":6987,"çĶŁæķĪ":6988,"èµ·çĤ¹":6989,"Ġvs":6990,"åįĩé«ĺ":6991,"Ġmultiple":6992,"LP":6993,"Ġol":6994,"uration":6995,"æ»ĭ":6996,"è´£ä»»çļĦ":6997,"æĢ¥æĢ§":6998,"Ġtechni":6999,"Ġprolif":7000,"73":7001,"read":7002,"Ġflow":7003,"éĽª":7004,"èĲ¥ä¸ļ":7005,"æĥĬ":7006,"åĲİæľŁ":7007,"ä½ľä¸ºä¸Ģç§į":7008,"è¡Įä¸ºäºº":7009,"åĺī":7010,"ä¸§å¤±":7011,"cm":7012,"èĩªè¡Į":7013,"æĹ¶æľŁçļĦ":7014,"ogenesis":7015,"è¿·":7016,"æĺ¯ä»İ":7017,"å¤§å¤ļ":7018,"cep":7019,"åįıåĬ©":7020,"æīĵåĩ»":7021,"åı¦ä¸Ģ":7022,"ä¸įç¡®å®ļ":7023,"è¯ģå®ŀ":7024,"æķħæĦı":7025,"length":7026,"æĬļ":7027,"æĻĵ":7028,"æŀģç«¯":7029,"è·Łè¸ª":7030,"was":7031,"å·¥åķĨ":7032,"idence":7033,"onic":7034,"æĦıä¹īçļĦ":7035,"åĽ½æ°ĳåħļ":7036,"çĪĨåıĳ":7037,"æ°ĽåĽ´":7038,"æĬĢæľ¯åĪĽæĸ°":7039,"igma":7040,"éľĢè¦ģçļĦ":7041,"æĬ¥éħ¬":7042,"æī©æķ£":7043,"çĶµè§Ĩ":7044,"ä»Ģä¹Īæĺ¯":7045,"DS":7046,"af":7047,"æķĻèĤ²éĥ¨":7048,"å®ŀä¹ł":7049,"ists":7050,"Ġfr":7051,"å°±è¦ģ":7052,"olic":7053,"ä¼ĺçĤ¹":7054,"ç«łç¨ĭ":7055,"æŃ¦åĻ¨":7056,"Ġantibodies":7057,"Ġauthors":7058,"Ġest":7059,"èĤ¢":7060,"åĵ¥":7061,"èµ·åĪ°":7062,"ç¾İæľ¯":7063,"ä¸¤å¤§":7064,"åĳ¨è¾¹":7065,"ä½ĵåĪ¶æľºåĪ¶":7066,"çıį":7067,"Ġ$\\":7068,"æĬ«éľ²":7069,"åĪĨæ³Į":7070,"71":7071,"è¿Ļä¸ĢçĤ¹":7072,"äººç±»ç¤¾ä¼ļ":7073,"æĭĽçĶŁ":7074,"èµł":7075,"Ġpri":7076,"è´Łè´£äºº":7077,"Ġindividuals":7078,"aneous":7079,"åĻªå£°":7080,"ä¸¹":7081,"å§Ĩ":7082,"æĪĳä»¬åı¯ä»¥":7083,"æĸĩåĮĸéģĹäº§":7084,"ä¹°åįĸ":7085,"èĢķåľ°":7086,"NO":7087,"çļĦçī¹å¾ģ":7088,"æĽ´é«ĺçļĦ":7089,"2007":7090,"éĥ¨éĹ¨çļĦ":7091,"æĬĵä½ı":7092,"å¥ĳçº¦":7093,"çĲĨè®ºä¸İ":7094,"bi":7095,"åľ¨ä¸Ģä¸ª":7096,"æłª":7097,"å¹´åº¦":7098,"è·³":7099,"éĤ£æł·":7100,"é»Ħæ²³":7101,"Ġinjury":7102,"ymb":7103,"ey":7104,"rapy":7105,"å®ħ":7106,"äºĨå¯¹":7107,"å¤ĸæ±ĩ":7108,"äºļæ´²":7109,"æĮĩå¼ķ":7110,"åĲ¦å®ļ":7111,"eutic":7112,"ield":7113,"DA":7114,"èĥĥ":7115,"çĶ¨éĢĶ":7116,"ä¿¡å¿ĥ":7117,"Ġparamet":7118,"å¾ħéģĩ":7119,"Ġinclude":7120,"å°ıåº·ç¤¾ä¼ļ":7121,"ä¸ªåĪ«":7122,"åĪĨåĮĸ":7123,"è§£æŀĲ":7124,"åħ±æľī":7125,"çĽ´åĪ°":7126,"è·µè¡Į":7127,"fon":7128,"çļĦæľ¬è´¨":7129,"ä¸Ģæ®µ":7130,"çĽ²":7131,"åıĳåĬ¨æľº":7132,"Ġreac":7133,"çİ¯å¢ĥä¿ĿæĬ¤":7134,"å¥³æĢ§":7135,"Ġdetected":7136,"çļĦçİ°è±¡":7137,"åĪĨè£Ĥ":7138,"çłĶç©¶ä¸Ń":7139,"æľĢä½³":7140,"çº¿ç¨ĭ":7141,"é£Łçī©":7142,"Ġconsist":7143,"ode":7144,"æĸ¹æ³ķçļĦ":7145,"æľªç»ı":7146,"çľģçº§":7147,"çĵ·":7148,"åĴĮå®ŀè·µ":7149,"æĭħä»»":7150,"Ġhem":7151,"é¼»":7152,"ography":7153,"çļĦå°ı":7154,"æĪĲåĥı":7155,"çī¹å¼Ĥ":7156,"éĥ½åľ¨":7157,"èµĦæºĲéħįç½®":7158,"ç¢ĳ":7159,"æ¸ħåįķ":7160,"å¡ĳéĢł":7161,"ulations":7162,"viron":7163,"300":7164,"åĹ":7165,"Ġfour":7166,"ç»Ħç»ĩåĴĮ":7167,"æĸ¹å¼ıçļĦ":7168,"åĪĿçº§":7169,"earch":7170,"Ġscore":7171,"éĥ¨ä½į":7172,"å¿ĥèĦı":7173,"åĽŀæĶ¶":7174,"çļĦéĩįè¦ģæĢ§":7175,"ç¬¬ä¸īæĸ¹":7176,"ä¹īåĬ¡æķĻèĤ²":7177,"Ġconsidered":7178,"els":7179,"å¸¸å¸¸":7180,"åĿļå®ŀ":7181,"åĩºçİ°çļĦ":7182,"Ġnegative":7183,"ä¸¾åĬŀ":7184,"å¤ļåħĥåĮĸ":7185,"Ch":7186,"ount":7187,"çļĦåŃ¦çĶŁ":7188,"åŃķ":7189,"éĩįç»Ħ":7190,"ä¿¡æģ¯ç³»ç»Ł":7191,"åĪ¶åº¦åĴĮ":7192,"åĽŃåĮº":7193,"èĤºçĤİ":7194,"¤Ĳ":7195,"Ġmight":7196,"Ġrele":7197,"æ·Ģ":7198,"clusion":7199,"å®Įæķ´çļĦ":7200,"//":7201,"ĠÃĹ":7202,"åı¯çĶ¨":7203,"é¡¾å®¢":7204,"Ġglucose":7205,"äº©":7206,"ä¸Ģçº§":7207,"åĲĪæł¼":7208,"åĲĪéĢĤ":7209,"ç«Ń":7210,"odds":7211,"è®¾å®ļ":7212,"è¯¯å·®":7213,"æµģåĬ¨æĢ§":7214,"\\'":7215,"å¯¹çħ§":7216,"åĨħå¤ĸ":7217,"å®ŀçİ°ä¸Ńåįİæ°ĳæĹıä¼Łå¤§å¤įåħ´":7218,"ç¬¬ä¸ĢèĬĤ":7219,"èĢģå¹´äºº":7220,"clud":7221,"bl":7222,"åħ¬æľī":7223,"Ġver":7224,"ationship":7225,"cript":7226,"OC":7227,"erative":7228,"ç¤¾ä¼ļä¸»ä¹īæł¸å¿ĥ":7229,"çīĪæľ¬":7230,"erence":7231,"æĸľ":7232,"æ±Łèĭı":7233,"æ£Ģå¯ŁéĻ¢":7234,"åĬłä¸Ĭ":7235,"å¾Ĺåĩº":7236,"æĪĺæĸĹ":7237,"Ġexample":7238,"å¸¦æľī":7239,"æĲº":7240,"Ġpathway":7241,"Ġ13":7242,"å¸¸å§Ķä¼ļ":7243,"ĠCI":7244,"æĴ°":7245,"Ġchange":7246,"ç¬¬äºĮèĬĤ":7247,"å®ĺåĳĺ":7248,"Ġapplic":7249,"ĠHealth":7250,"TA":7251,"éĶ»":7252,"Ġstrateg":7253,"Ġdecreased":7254,"âĦĥ":7255,"93":7256,"DL":7257,"ä¸įåºĶ":7258,"ish":7259,"æłĩè®°":7260,"respon":7261,"äºĴèģĶ":7262,"æıĲç¤º":7263,"è°ĥçĶ¨":7264,"å¢ŀå¤§":7265,"ower":7266,"ç»ĪæŃ¢":7267,"åķĨä¸ļéĵ¶è¡Į":7268,"entral":7269,"çĪ¶æ¯į":7270,"vent":7271,"æĪĴ":7272,"æ¨¡ç³Ĭ":7273,"Ġvi":7274,"æīĭæľº":7275,"åĲįä¹ī":7276,"Ġsyndrom":7277,"å®¶éķ¿":7278,"ç²ĺ":7279,"å·¥ä½ľèĢħ":7280,"åĤ¨å¤ĩ":7281,"Ġur":7282,"èµ¶":7283,"çĤ¸":7284,"zym":7285,"è®¢ç«ĭ":7286,"ochond":7287,"çļĦçĲĨè§£":7288,"Ġcause":7289,"ç¡ħ":7290,"å°±èĥ½":7291,"åŃĲå¥³":7292,"ï¼Ĥ.":7293,"æĳĩ":7294,"ä»¤äºº":7295,"Ġfac":7296,"åĲĦæĸ¹éĿ¢":7297,"èµ·æĿ¥çļĦ":7298,"å·¥ä½ľäººåĳĺ":7299,"èĢģå¹´":7300,"Ġheart":7301,"æŁĶ":7302,"å¸ĤåľºåĮĸ":7303,"éļıåĲİ":7304,"Ġinfected":7305,"Ġdistrib":7306,"ä½ľäºĨ":7307,"Ġgu":7308,"Ġdifference":7309,"Ġconfir":7310,"åıĻäºĭ":7311,"Ġequ":7312,"è®ºåĿĽ":7313,"æĶ¯éħį":7314,"éĻĲåº¦":7315,"çİĭæľĿ":7316,"oh":7317,"åįĵ":7318,"æīŃ":7319,"ä¸įåıĹ":7320,"éģ¥":7321,"ç¾İä¸½":7322,"æĶ¾å°Ħ":7323,"æµ·å¤ĸ":7324,"ç§»æ¤į":7325,"åĽ°å¢ĥ":7326,"minimal":7327,"Ġday":7328,"Ġindicated":7329,":ãĢĬ":7330,"åľ¨åĽ½éĻħ":7331,"åŃ¦ä½į":7332,"åħ±å»º":7333,"æĢĿæĥ³çļĦ":7334,"ended":7335,"Ġbreast":7336,"DR":7337,"å¯Ĵ":7338,"Ġconduc":7339,"äºīåıĸ":7340,"2003":7341,"é¥±":7342,"èĻļåģĩ":7343,"åĢºåĬ¡äºº":7344,"æī«æıı":7345,"åıĳæĢ§":7346,"å»ºè®¾å·¥ç¨ĭ":7347,"å¼ķçĶ¨":7348,"æĺİç¡®äºĨ":7349,"GP":7350,"åĴĮç»ıæµİ":7351,"ç³»ç»ŁæĢ§":7352,"é¢ĦèŃ¦":7353,"Ġleast":7354,"symb":7355,"ina":7356,"äººæĿĥ":7357,"äºĮèĢħ":7358,"ç¥Ń":7359,"Ġvia":7360,"åĩıæİĴ":7361,"åľ¨åĨħçļĦ":7362,"å¯¹å¾ħ":7363,"åĽ¾çīĩ":7364,"ä¹¦æ³ķ":7365,"æĿĤå¿Ĺ":7366,"Ġphase":7367,"bsy":7368,"å¯¹ä¸ŃåĽ½":7369,"éĩįå»º":7370,"upgree":7371,"ysym":7372,"amsmath":7373,"amsfon":7374,"amssymb":7375,"amsbsy":7376,"documentclass":7377,"mathrs":7378,"setlength":7379,"}{-":7380,"idemargin":7381,"é¢ľèī²":7382,"æľªæĪĲå¹´äºº":7383,"wasysym":7384,"oddsidemargin":7385,"upgreek":7386,"amsfonts":7387,"mathrsfs":7388,"åĨĴ":7389,"äº§éĺ¶çº§":7390,"ç«¹":7391,"çī©åĵģ":7392,"Ġexperiments":7393,"éĩıåĮĸ":7394,"åĸĦäºİ":7395,"ç¨ĭåº¦çļĦ":7396,"å¤ļè¾¹":7397,"åĽĽæĺ¯":7398,"çģ¯":7399,"çłĶç©¶èĢħ":7400,"ĠCO":7401,"åħħçĶµ":7402,"å·²ç»ıæĪĲä¸º":7403,"...":7404,"å®ĹæĹ¨":7405,"å°ºå¯¸":7406,"åĩºè¡Ģ":7407,"æīĢè¿°":7408,"éĽĨç¾¤":7409,"åħħåĪĨåĪ©çĶ¨":7410,"è¢«åĳĬäºº":7411,"ä¹ĭä¸º":7412,"Ġelect":7413,"æĿ¡çº¦":7414,"åıĤçħ§":7415,"æľīåħ³çļĦ":7416,"ä¸İæŃ¤åĲĮæĹ¶":7417,"ense":7418,"ĠmRNA":7419,"ä¹ĭæĹ¥èµ·":7420,"å¼ĢåĪĽ":7421,"ç¬¬ä¸ĥ":7422,"éĩĳé¢Ŀ":7423,"äº§ä¸ļç»ĵæŀĦ":7424,"ä¸įä»ħä»ħ":7425,"ä¾ĽåºĶåķĨ":7426,"Ġdeveloped":7427,"Ġfocus":7428,"éĢļçĶ¨":7429,"æ»´":7430,"çĶŁçī©åŃ¦":7431,"è¾©æĬ¤":7432,"85":7433,"å¼Ĺ":7434,"çŃīäºİ":7435,"æ¶Į":7436,"äºĶä¸ª":7437,"Ġresid":7438,"ç¦»å©ļ":7439,"éĺ¶æ®µçļĦ":7440,"åĪĽéĢłäºĨ":7441,"èįīæ¡Ī":7442,"å·¥ä½ľä¸Ń":7443,"å°±æĺ¯è¦ģ":7444,"Ġadj":7445,"ä¸įåŃĺåľ¨":7446,"çĿĢçľ¼":7447,"ĠMore":7448,"åĭĥ":7449,"*.":7450,"*^":7451,"Â±":7452,"04":7453,"åĴĮæĬĢæľ¯":7454,"çī©ç§į":7455,"èī¾":7456,"éķ¿è¿ľ":7457,"å½±åĥı":7458,"ç§ĳåŃ¦åıĳå±ķ":7459,"Ġresistance":7460,"åĬŁèĥ½çļĦ":7461,"å¥ĭæĸĹçĽ®æłĩ":7462,"EE":7463,"çķĮéĿ¢":7464,"tically":7465,"ä¿ĥè¿ĽäºĨ":7466,"æĹ¢æľī":7467,"Ġvarious":7468,"ä¼Ļä¼´":7469,"æĽ´å¥½çļĦ":7470,"é¦ĸè¦ģ":7471,"æ··åĩĿ":7472,"åĪ©æģ¯":7473,"ç¡®å®ŀ":7474,"posed":7475,"æ¼ıæ´ŀ":7476,"Ġlikely":7477,"æĢ»ä¹ĭ":7478,"ç§ĳåŃ¦éĻ¢":7479,"éŁµ":7480,"Ġrecom":7481,"çĶµéĺ»":7482,"åįģä¸Ģ":7483,"èĩ³äºİ":7484,"Ġsevere":7485,"pone":7486,"âĨ":7487,"æĭľ":7488,"è¢«åĬ¨":7489,"èĩ´åĬĽ":7490,"åħļçļĦåįģä¹Ŀ":7491,"å»¶éķ¿":7492,"ä½ĵåĨħ":7493,"åĲĮåŃ¦":7494,"ask":7495,"æ²»åĽ½":7496,"åĽŀé¡¾":7497,"åıĺåĮĸçļĦ":7498,"å£°éŁ³":7499,"Ġrequired":7500,"dependent":7501,"éĿŀæ´²":7502,"ĠOn":7503,"è¿½ç©¶":7504,"Ġassociation":7505,"Cl":7506,"åŁĥ":7507,"ĠAm":7508,"æŁ¥è¯¢":7509,"éĵ¾æİ¥":7510,"^+^":7511,"æľŁæľĽ":7512,"åıĺå½¢":7513,"æĪĳä»¬åľ¨":7514,"ĠEn":7515,"ç¾İåĽ½çļĦ":7516,"åĩłç§į":7517,"Ġfrequency":7518,"come":7519,"çļĦåĪĨæŀĲ":7520,"çļĦæĦıä¹ī":7521,"åĪ°è¾¾":7522,"åıĺè¿ģ":7523,"è¢Ń":7524,"æ±¡æ°´":7525,"Ġstrong":7526,")**":7527,"normal":7528,"ones":7529,"Ġpepti":7530,"ä¼ĺæĥł":7531,"æĴŀ":7532,"çļ®èĤ¤":7533,"Ġneurons":7534,"Ġrats":7535,"ä¸įè¦ģ":7536,"çĶŁç´ł":7537,"çĶ¨æ°´":7538,"çŃīé¢ĨåŁŁ":7539,"å¤ļåªĴä½ĵ":7540,"æĦıæĦ¿":7541,"Ġproduc":7542,"æĶ¾å¤§":7543,"ocial":7544,"ä¸´æĹ¶":7545,"å¥łå®ļäºĨ":7546,"CH":7547,"ring":7548,"æ²»åħļ":7549,"åĪĽæĦı":7550,"åĪĿä¸Ń":7551,"æ¢ħ":7552,"åĭŁ":7553,"åµĮåħ¥":7554,"èĳ¡":7555,"æ¢³":7556,"åĪłéĻ¤":7557,"è¾½":7558,"æľĢåĪĿ":7559,"--------------------":7560,"ç»ĵåĲĪèµ·æĿ¥":7561,"Ġtypes":7562,"çİ¯å¢ĥä¸Ń":7563,"èĲ½åľ°":7564,"ç¬¬äºĮçĻ¾":7565,"æĺİç¡®çļĦ":7566,"Ġrandom":7567,"çī²":7568,"å¥¶":7569,"ç»ıæµİåıĳå±ķçļĦ":7570,"ç¾Ĭ":7571,"å®īåħ¨æĢ§":7572,"ĠRe":7573,"Ġsubjects":7574,"ç²ĴåŃĲ":7575,"æĪ´":7576,"æľ¬åľ°":7577,"åħ¨ç¤¾ä¼ļ":7578,"åĬłå¯Ĩ":7579,"åĲİç»Ń":7580,"å¯¼ä½ĵ":7581,"äº«åıĹ":7582,"61":7583,"è®¾è®¡çļĦ":7584,"èĢĥèĻĳåĪ°":7585,"å¹¿æ³ĽçļĦ":7586,"å¯¹å¤ĸå¼ĢæĶ¾":7587,"ä¸ŃåĽ½å¼ıçİ°ä»£åĮĸ":7588,"CG":7589,"èĢ¦":7590,"åĬłåī§":7591,"éľ¸":7592,"éķ¿åº¦":7593,"åıįå°Ħ":7594,"æ³ķå¾ĭçļĦ":7595,"Ġrati":7596,"èĲ½åĲİ":7597,"è®¾å¤ĩçļĦ":7598,"Ġcontrast":7599,"74":7600,"ĠâĢľ":7601,"äººçĶŁ":7602,"åŃ¦æ´¾":7603,"ç¼©å°ı":7604,"Ġblock":7605,"xi":7606,"æµĨ":7607,"æĭĺ":7608,"çłĶåĪ¶":7609,"çłĶç©¶æĪĲæŀľ":7610,"ĠGen":7611,"ç½Ĺé©¬":7612,"Ġdiabetes":7613,"Ġä¸ī":7614,"å¸¸æĢģ":7615,"æķ°æį®ä¸Ńå¿ĥ":7616,"æĽ¾ç»ı":7617,"Con":7618,"])":7619,"anding":7620,"æĬĢå·§":7621,"åŃŁ":7622,"Ġca":7623,"æİ¨çĲĨ":7624,"åħ´èµ·":7625,"ç¬¬äºĮä¸ª":7626,"Ġrelationship":7627,"å°ĳæķ°æ°ĳæĹı":7628,"Ġ<":7629,"Ġed":7630,"å¹¶å¯¹":7631,"ä¼ģä¸ļåľ¨":7632,"å®īå¾½":7633,"è¡ĮæĶ¿æ³ķè§Ħ":7634,"ç»ĦæĪĲçļĦ":7635,"ç§ģäºº":7636,"é£ŀæľº":7637,"CS":7638,"å®ŀè¯ģ":7639,"çĶµåĬ¨":7640,"çºªå¿µ":7641,"éĻĦåĬł":7642,"éģĩåĪ°":7643,"Ġhelp":7644,"çļĦèĮĥåĽ´":7645,"Ġdown":7646,"ä»£æĽ¿":7647,"æ¿Ģç´ł":7648,"Ġability":7649,"åħ¸åŀĭçļĦ":7650,"å¯¿åĳ½":7651,"vironment":7652,"ç±»çļĦ":7653,"Ġ25":7654,"æĹłäººæľº":7655,"çļĦå®ŀè·µ":7656,"ç§Ĵ":7657,"è¡¨æ¼Ķ":7658,"éĽĩ":7659,"åı¸æ³ķè§£éĩĬ":7660,"Ġmechanism":7661,"inant":7662,"å½°æĺ¾":7663,"Ġanalyses":7664,"AA":7665,"ç»ĵç®Ĺ":7666,"æ´»è·ĥ":7667,"çĶŁäº§çļĦ":7668,"éĻĲäºİ":7669,"èİ±":7670,"éŁ§":7671,"Cs":7672,"hyl":7673,"ä»İä¸¥":7674,"åıĺå¼Ĥ":7675,"otor":7676,"æĪĸèĢħåħ¶ä»ĸ":7677,"ä»ĬåĲİ":7678,"æ²³åįĹ":7679,"åĩ¸æĺ¾":7680,"Ġu":7681,"å¸ľ":7682,"å¤§æĬ¥åĳĬ":7683,"===":7684,"æ¶Īå¤±":7685,"åĪĿå¿ĥ":7686,"estinal":7687,"æĹ¢è¦ģ":7688,"æ··åĩĿåľŁ":7689,"è¿ª":7690,"Ġcri":7691,"çİ°æľīçļĦ":7692,"è°¨":7693,"å¹³æĸ¹":7694,"éĥ½åı¯ä»¥":7695,"Ġvery":7696,"ray":7697,"å¾Īå°ĳ":7698,"åħ¨éĿ¢å»ºè®¾":7699,"Ġstimulation":7700,"æł½":7701,"åīĸ":7702,"çļĦä¸Ģé¡¹":7703,"ä¸ºä¸»è¦ģ":7704,"å±Ī":7705,"ä¸Ĭè¯ī":7706,"ç½ĳä¸Ĭ":7707,"Ġlink":7708,"çĶ³æĬ¥":7709,"Ġæľ¬":7710,"Ġproble":7711,"very":7712,"éģĹåĿĢ":7713,"å¿«éĢŁåıĳå±ķ":7714,"ä¾¦æŁ¥":7715,"Ġir":7716,"æĸ¥":7717,"çĽ®å½ķ":7718,"å°ºåº¦":7719,"åĪ°åºķ":7720,"ä½ĵç³»å»ºè®¾":7721,"éĢŁçİĩ":7722,"æ£Ģç´¢":7723,"ç¼ºå°ĳ":7724,"äºķ":7725,"åħ³å¿ĥ":7726,"eline":7727,"çĶµä¿¡":7728,"Ġlo":7729,"å¸¸çĶ¨":7730,"éĿĴå°ĳå¹´":7731,"é¸Ł":7732,"ĠãĢĬ":7733,"åıĳèµ·":7734,"æĿ¥å®ŀçİ°":7735,"çĶµæ°Ķ":7736,"è¿ĺéľĢè¦ģ":7737,"æĢ»æĺ¯":7738,"Ġvitro":7739,"bility":7740,"Ġ'":7741,"ï¼ħ":7742,"Ġsens":7743,"Ġmg":7744,"Ġdose":7745,"åħ¨æ°ĳ":7746,"æĭ¨":7747,"æĺİäºĨ":7748,"æľĢéĩįè¦ģçļĦ":7749,"æĢģåĬ¿":7750,"æİ¥ç§į":7751,"æĢ»çº¿":7752,"owled":7753,"ables":7754,"89":7755,"çļĦå®ŀéĻħ":7756,"æ³ķåºŃ":7757,"Ġproduction":7758,"TP":7759,"çļĦåŃĺåľ¨":7760,"Ġpul":7761,"ä¸Ĭæĺ¯":7762,"è°ĥåº¦":7763,"æµ¸":7764,"åħ¶ä¸ŃçļĦ":7765,"çĶµè¯Ŀ":7766,"æĮģæľī":7767,"ç´«":7768,"ç»Ħä»¶":7769,"æ°´åĪ©":7770,"ç¼Ŀ":7771,"Ġcompon":7772,"çļĦéĩįè¦ģç»ĦæĪĲéĥ¨åĪĨ":7773,"çºłæŃ£":7774,"çħ¤çĤŃ":7775,"__":7776,"mission":7777,"æ¬£":7778,"åīįèĢħ":7779,"æĽ´å¤§çļĦ":7780,"ç¦»ä¸įå¼Ģ":7781,"èĦ±ç¦»":7782,"Ġfunctional":7783,"Ġtherapeutic":7784,"ä¸Ĭçº§":7785,"åľ°éĿ¢":7786,"èĤ©":7787,"é¢Ħè®¡":7788,"EL":7789,"atin":7790,"çŃīåĽłç´ł":7791,"Ġstatus":7792,"è§Ħå®ļäºĨ":7793,"æ·±åĮĸæĶ¹éĿ©":7794,"æļ´éľ²":7795,"otherapy":7796,"2006":7797,"]\\],":7798,"struc":7799,"Ġyo":7800,"Ġcarcin":7801,"ogenic":7802,"Ġexperi":7803,"æĲľç´¢":7804,"ä¸ªäººçļĦ":7805,"func":7806,"çĽ¸ä¿¡":7807,"ople":7808,"opath":7809,"å»ºç«ĭåľ¨":7810,"å¯Ĩçłģ":7811,"Ġrange":7812,"å¤ªéĺ³èĥ½":7813,"æĳĺè¦ģ":7814,"\\<":7815,"çļĦæĢ§è´¨":7816,"Ġinduced":7817,"ä¸įåĲĮäºİ":7818,"åĳĬè¯ī":7819,"ç»Īèº«":7820,"ĠThus":7821,"Ġbenef":7822,"Ġestab":7823,"æ¢³çĲĨ":7824,"ML":7825,"ä¸Ńæĸĩ":7826,"åħ¬è·¯":7827,"åĢ¼çļĦ":7828,"æĢ»é¢Ŀ":7829,"æ¶ĪçģŃ":7830,"ç¬¬ä¸īäºº":7831,"é¤Ĳ":7832,"æ°´èµĦæºĲ":7833,"å°ıé¼ł":7834,"æĤ²":7835,"å¦Ļ":7836,"äººæķ°":7837,"eric":7838,"æĪĲçļĦ":7839,"å¿ĥèĤĮ":7840,"å¤ĸèµĦ":7841,"imals":7842,"åıĹçĽĬ":7843,"2001":7844,"åĤ¨èĵĦ":7845,"Ġ95":7846,"ä¸Ńå°ıåŃ¦":7847,"Ġcriter":7848,"Ġextrac":7849,"Ġmuscle":7850,"ĥåľ":7851,"åŀĥåľ":7852,"åĲĦæĹı":7853,"å¯ĨéĽĨ":7854,"åħ¨åĽ½äººå¤§":7855,"åŀĥåľ¾":7856,"ä¸įä½Ĩ":7857,"let":7858,"æłĩè¯Ĩ":7859,"Ġlife":7860,"èĲĦ":7861,"åİĭç¼©":7862,"ä¸¾è¡Į":7863,"æ¼Ķè¿Ľ":7864,"æ¶µçĽĸ":7865,"èĴĻåı¤":7866,"UC":7867,"Ġ}":7868,"æķĻèĤ²æķĻåŃ¦":7869,"Ġacute":7870,"æĹ¶éĹ´çļĦ":7871,"å¿ĹæĦ¿":7872,"Ġmitochond":7873,"çļĦè¯Ŀ":7874,"åİŁæĸĻ":7875,"Ġgiven":7876,"è¢«è®¤ä¸º":7877,"Ġarea":7878,"Ġpreval":7879,"Ġcontrols":7880,"ä»ĭç»įäºĨ":7881,"è´¿":7882,"æĹ¶ç©º":7883,"åĬ¨åĳĺ":7884,"æĦıåĽ¾":7885,"æľªèĥ½":7886,"roscop":7887,"Ġmacroph":7888,"èĩ´åĬĽäºİ":7889,"84":7890,"ä¾¯":7891,"Ġfail":7892,"åħ¬åĳĬ":7893,"æĶ¶è´Ń":7894,"ta":7895,"âĶ":7896,"åºŀ":7897,"Ġthem":7898,"å½¢çĬ¶":7899,"ç»Ħå»º":7900,"Ġleft":7901,"æ¯ķä¸ļçĶŁ":7902,"86":7903,"çłĶç©¶çĶŁ":7904,"åıĸæ¶Ī":7905,"æĸ¹æ³ķåĴĮ":7906,"GFR":7907,"EV":7908,"utes":7909,"èģĮæĿĥ":7910,"æīĢæľīåĪ¶":7911,"ä¸Ĭå¸Ĥåħ¬åı¸":7912,"çļĦåĪ©çĽĬ":7913,"å¹´åºķ":7914,"åħ¬åı¸æ³ķ":7915,"è´ŁéĿ¢":7916,"èĩªçĦ¶èµĦæºĲ":7917,"Ġinfec":7918,"åľ¨åħ¨çĲĥ":7919,"èĥ½èĢĹ":7920,"å®ŀè®Ń":7921,"åľ°è´¨":7922,"å¼Ģæĭĵ":7923,"005":7924,"åĩłå¹´":7925,"éĺ»ç¢į":7926,"Ġlimited":7927,"çļĦåĲĦç§į":7928,"ä¸Ģå¥Ĺ":7929,"otyp":7930,"å¢ĥçķĮ":7931,"æķĻåŃ¦åĨħå®¹":7932,"åıĪæĺ¯":7933,"åħ¬å®īæľºåħ³":7934,"èĳ¡èĲĦ":7935,"æĸĳ":7936,"å®ŀäºĭ":7937,"æıĲåīį":7938,"åĨ³å®ļçļĦ":7939,"å®£å¸ĥ":7940,"Ġgeneral":7941,"comes":7942,"Ġdamage":7943,"more":7944,"çļĦåľ°æĸ¹":7945,"atures":7946,"ç½ĳç»ľçļĦ":7947,"lectr":7948,"Ġsurface":7949,"èµ«":7950,"çłĶç©¶ä¸Ńå¿ĥ":7951,"å®ŀè·µçļĦ":7952,"ç«Ļåľ¨":7953,"å³»":7954,"æļ´åĬĽ":7955,"Ġsequence":7956,"è¦ģä»¶":7957,"amin":7958,"é«ĺåº¦éĩįè§Ĩ":7959,"Ġquality":7960,"è¿«åĪĩ":7961,"Ġcharacteristics":7962,"ĆĆ":7963,"ãĢĤ(":7964,"å±ĤçļĦ":7965,"åİĨåı²æĢ§":7966,"å¤ĦçĲĨåĻ¨":7967,"æīİå®ŀ":7968,"éĩįçļĦ":7969,"è§ĦåĪ¶":7970,"æĹłäº§éĺ¶çº§":7971,"å®ŀæĸ½çļĦ":7972,"æ¼ł":7973,"Ġweight":7974,"Ġprovided":7975,"ĊĊĠ":7976,"tice":7977,"æĪĸåħ¶ä»ĸ":7978,"ç»ıæµİä½ĵ":7979,"ç¢°":7980,"åľ¨è¿Ļä¸Ģ":7981,"ä¸įå¹³è¡¡":7982,"çĲ´":7983,"å»ºæ¨¡":7984,"å¦Ĥä»Ĭ":7985,"éĿ©åĳ½çļĦ":7986,"Ġques":7987,"Ġformation":7988,"Ġer":7989,"ators":7990,"æ³ķå¾ĭè§Ħå®ļ":7991,"åĬ©åĬĽ":7992,"å¾·èĤ²":7993,"ç¼ĵåŃĺ":7994,"Ġpresented":7995,"æľ¬æ³ķ":7996,"è½¬å½ķ":7997,"è¿ĺåİŁ":7998,"åĩłä½ķ":7999,"é¢Ĩå¯¼å¹²éĥ¨":8000,"åįłæ¯Ķ":8001,"èİ·å¾ĹäºĨ":8002,"å°½éĩı":8003,"æ±¡æŁĵçī©":8004,"ĠâĪĴ":8005,"æĢķ":8006,"æĹ¶åĪ»":8007,"æľŁçļĦ":8008,"å®¡è®®":8009,"2002":8010,"ivo":8011,"ä¸»æĮģ":8012,"ä¸Ĭçľĭ":8013,"ç¬¬åħ«":8014,"æŃ¤ç±»":8015,"èĪĴ":8016,"ä¸įä»ħæĺ¯":8017,"è¡¨çİ°åĩº":8018,"Ġpublic":8019,"Ġte":8020,"æĿł":8021,"ä¸įäºĪ":8022,"2004":8023,"Ġenzym":8024,"Ġoxid":8025,"eta":8026,"åįķä¸ª":8027,"çĹħçļĦ":8028,"æł¼æĸ¯":8029,"ä»·åĢ¼éĵ¾":8030,"èģļéĽĨ":8031,"Ġantigen":8032,"æ©":8033,"æİ¥åħ¥":8034,"ä»ĭè´¨":8035,"æķĳæµİ":8036,"èµĦåĬ©":8037,"å¢ĵ":8038,"æĢ»ç»Ł":8039,"æ¤İ":8040,"aps":8041,"]--":8042,"âĢ²":8043,"åĪ¶å¤ĩ":8044,"åıĺæį¢":8045,"amine":8046,"è¯»èĢħ":8047,"èµ°åĩº":8048,"åīĤéĩı":8049,"ateral":8050,"å¹ħåº¦":8051,"Ġvisual":8052,"Ġdisorders":8053,"]--[@":8054,"Ġ--":8055,"Ġenc":8056,"åı¯åĪĨä¸º":8057,"éĶĭ":8058,"çªĦ":8059,"åı¦ä¸Ģç§į":8060,"è´¯å½»èĲ½å®ŀ":8061,"Ġsuc":8062,"Ġpo":8063,"Ġatten":8064,"çļĦä¸Ģéĥ¨åĪĨ":8065,"åįļçī©":8066,"èĦ±è´«æĶ»åĿļ":8067,"Ġaim":8068,"åıĹä½ĵ":8069,"Ġvivo":8070,"åħ¬åħ±åį«çĶŁ":8071,"æĪıåī§":8072,"like":8073,"Ġrevealed":8074,"GG":8075,"ç²¹":8076,"è¡¨çİ°åľ¨":8077,"ĠResearch":8078,"OR":8079,"put":8080,"Ġoften":8081,"éĶĲ":8082,"å¤įè®®":8083,"åħ¨éĿ¢åıĳå±ķ":8084,"ored":8085,"å¹´éĹ´":8086,"é«ĺç«¯":8087,"äºĮæ¬¡":8088,"term":8089,"ç»ĨåĮĸ":8090,"æľīåħ³éĥ¨éĹ¨":8091,"Ġfamily":8092,"çļĦæĶ¿çŃĸ":8093,"éĥ½èĥ½":8094,"çº§åĪ«":8095,"è´Łèį·":8096,"Ġcoh":8097,"Ġapop":8098,"Ġhealthy":8099,"ä¸¢":8100,"éĥŃ":8101,"æ³¨åħ¥":8102,"ĠThere":8103,"è§£åĨ³äºĨ":8104,"ave":8105,"ä¸įéľĢè¦ģ":8106,"æĢ§éĹ®é¢ĺ":8107,"åºĶåĬĽ":8108,"ä¸ĭéĿ¢":8109,"å£³":8110,"ç¼ºå¤±":8111,"ergy":8112,"Ġprior":8113,"ī¥":8114,"çļĦè§ĤçĤ¹":8115,"åŃ¦è¯´":8116,"æľºçĲĨ":8117,"çº¿ä¸Ĭ":8118,"è·¨è¶Ĭ":8119,"çļĦç»Ħç»ĩ":8120,"åľ¨åħ¨åĽ½":8121,"æĬĽ":8122,"Ġeven":8123,"é£Łåĵģå®īåħ¨":8124,"è¿Ļä¹Łæĺ¯":8125,"roid":8126,"åīįåĲİ":8127,"Ġacross":8128,"des":8129,"çļĦä¸ĸçķĮ":8130,"ä¸ŃæĸŃ":8131,"åľ¨ç¤¾ä¼ļ":8132,"æŀ¢":8133,"æĶ¶åĪ°":8134,"åĮħå®¹":8135,"åįĹåĮĹ":8136,"æĬĹä½ĵ":8137,"å®¢ä½ĵ":8138,"çº²è¦ģ":8139,"è¿ĶåĽŀ":8140,"]),":8141,"æĺĨ":8142,"å¸ķ":8143,"ä»¥ä¹łè¿ĳå¹³åĲĮå¿Ĺ":8144,"ç¬¬ä¸īèĬĤ":8145,"Ġtissues":8146,"Ġsyndrome":8147,"Co":8148,"Ľèµ·":8149,"åľ¨ä¸įåĲĮ":8150,"Ġder":8151,"æİ¨åĩº":8152,"Ġ17":8153,"åŁ¹åħ»åŃ¦çĶŁçļĦ":8154,"èµĦäº§çļĦ":8155,"ä¸ºæł¸å¿ĥçļĦåħļä¸Ńå¤®":8156,"Ġproliferation":8157,"èĤª":8158,"äºĭçī©çļĦ":8159,"Ġcommun":8160,"æĸ°å¢ŀ":8161,"Ġstate":8162,"æŀģä¸º":8163,"çº¦å®ļçļĦ":8164,"ç»ĵæŀĦåĴĮ":8165,"äº§ä¸ļçļĦ":8166,"èĶ½":8167,"Ġcytok":8168,"ognitive":8169,"çŃīäºº":8170,"å¼Ģåħ³":8171,"åħļç»Ħç»ĩ":8172,"amp":8173,"ĠIFN":8174,"è¦ģæ±ĤçļĦ":8175,"åŀĤçĽ´":8176,"Ġsensitivity":8177,"ï¼Ĵ":8178,"ä¸Ģä¸ĭ":8179,"Ġpsych":8180,"æĵ¦":8181,"èĦĤèĤª":8182,"åľ¨æĸ°":8183,"éĩįåºĨ":8184,"Ġadditional":8185,"Ġnovel":8186,"èĥº":8187,"roc":8188,"Ġmen":8189,"é©³":8190,"äº§ä¸ļåĮĸ":8191,"åĳĪçİ°åĩº":8192,"åľ¨æŃ¤åŁºç¡Ģä¸Ĭ":8193,"man":8194,"å®¾":8195,"åĬ²":8196,"åįµ":8197,"éĻµ":8198,"å½ĵä¸Ń":8199,"å¹¶åıĳ":8200,"ãĢĭï¼Ī":8201,"çĸĹæ³ķ":8202,"åĽŀåºĶ":8203,"æīĵåį°":8204,"Ġassessed":8205,"Ġinflammatory":8206,"HR":8207,"æĹ±":8208,"Ġbar":8209,"åŀĴ":8210,"ä¸ĵçĶ¨":8211,"ume":8212,"å¢ŀéķ¿çļĦ":8213,"Ġrelative":8214,"Ġexposure":8215,"PR":8216,"âĹ":8217,"åĪĽæĸ°çļĦ":8218,"æĦıä¹īä¸ĬçļĦ":8219,"Ġemb":8220,"ç»ıåİĨäºĨ":8221,"æ¹¿åľ°":8222,"å½¼æŃ¤":8223,"ystem":8224,"è¿Ļæ¬¡":8225,"å¼Ģè®¾":8226,"çİĩçļĦ":8227,"çĶ³è¯·äºº":8228,"èĤĮèĤī":8229,"æĹĹå¸ľ":8230,"BL":8231,"MT":8232,"è¦ģæĬĬ":8233,"osom":8234,"åįģä¸ĢæĿ¡":8235,"åħ·æľīéĩįè¦ģ":8236,"è·¨å¢ĥ":8237,"å°ĺ":8238,"ä¼ļå¯¼èĩ´":8239,"è¿ĽåĮĸ":8240,"è¯ŃéŁ³":8241,"è¯ĹæŃĮ":8242,"è¿Ľç¨ĭä¸Ń":8243,"éĺĲéĩĬ":8244,"çļĩå¸Ŀ":8245,"æīĢå¾Ĺç¨İ":8246,"åĮĢ":8247,"å¤§çº¦":8248,"ç±»åĪ«":8249,"åħīåŃ¦":8250,"ĠBi":8251,"Ġ60":8252,"Ġinflammation":8253,"Ġbehavior":8254,"èĢ¦åĲĪ":8255,"æīĳ":8256,"å®ŀåĬ¡":8257,"çłĶè®¨":8258,"éľį":8259,"ochem":8260,"çľĭæ³ķ":8261,"å¾ģæĶ¶":8262,"å»¶ç»Ń":8263,"èĴ¸":8264,"çļĦæĤ£èĢħ":8265,"æłı":8266,"çºº":8267,"è¿Ļä¸¤ä¸ª":8268,"æīĢæľª":8269,"éĵº":8270,"æĲ¬":8271,"åįģåĽĽäºĶ":8272,"åĲĲ":8273,"ä»¥ä¸º":8274,"Ġang":8275,"ising":8276,"çī©ä½ĵ":8277,"æĪĸæĺ¯":8278,"Ġhowever":8279,"å°½å¿«":8280,"è£ģåĨ³":8281,"åıĸå¾ĹçļĦ":8282,"Ġabove":8283,"Ġinhibition":8284,"çĩĥçĥ§":8285,"ĠÎ²":8286,"Ġbel":8287,"æºĲäºİ":8288,"æ²»çĲĨèĥ½åĬĽ":8289,"åıĮéĩį":8290,"Ġassay":8291,"aking":8292,"éģŃåıĹ":8293,"Ġconcentrations":8294,"Ġax":8295,"éĥģ":8296,"èģĶåĬ¨":8297,"éĺ²å¾¡":8298,"éĻ·åħ¥":8299,"å®ļä»·":8300,"Ġstep":8301,"è¾ĥå°ĳ":8302,"åĬ¿åĬĽ":8303,"Ġorder":8304,"å±±æ°´":8305,"piratory":8306,"éĩįæŀĦ":8307,"åĪĹå®ģ":8308,"pression":8309,"åĪĽæĸ°èĥ½åĬĽ":8310,"æĬ¥è¡¨":8311,"éľĢæ±ĤçļĦ":8312,"ç¬¬äºĮæ¬¡":8313,"*~":8314,"Ġtub":8315,"çİĩåħĪ":8316,"agement":8317,"çĹħçĲĨ":8318,"ä½ľçĶ¨çļĦ":8319,"æ¼ĶåĮĸ":8320,"åĮ»çĸĹåį«çĶŁ":8321,"å®ŀä½ĵç»ıæµİ":8322,"å»ºéĢł":8323,"ç®¡åĪ¶":8324,"æľŁåĪĬ":8325,"ä¸ŃçļĦåºĶçĶ¨":8326,"çĽ´è§Ĥ":8327,"å¹¿éĺĶ":8328,"è§£åĨ³éĹ®é¢ĺ":8329,"æŀĦæĪĲäºĨ":8330,"æĻ¶ä½ĵ":8331,"ç¥ĸåĽ½":8332,"Ġmembrane":8333,"Ġphysical":8334,"åĲĪéĩĳ":8335,"æľ¬æ¡Ī":8336,"åıĳå±ķæĪĺçķ¥":8337,"æľĢå°ı":8338,"ä»»æĦı":8339,"IN":8340,"hol":8341,"Ġlear":8342,"åĲ¸éĻĦ":8343,"ä½ľåĩºäºĨ":8344,"éļĶç¦»":8345,"Ġcardiac":8346,"è¿ĩéĶĻ":8347,"Ġvac":8348,"åĪĨåĪ«ä¸º":8349,"Ġsystems":8350,"ĠAlthough":8351,"çĽ¸å½ĵäºİ":8352,"æĿłæĿĨ":8353,"çİ©":8354,"åĪ¶å®ļçļĦ":8355,"ä¿¡æīĺ":8356,"ĠAt":8357,"è¡ĮæĶ¿å¤Ħç½ļ":8358,"è¶ħå£°":8359,"åįģäºĮæĿ¡":8360,"owledge":8361,"xim":8362,"Ġlarg":8363,"ä½ĨçĶ±äºİ":8364,"ä»¥ä¸ĭç®Ģç§°":8365,"èĴĭ":8366,"Ġoutcomes":8367,"çļĦç½ĳç»ľ":8368,"çļĦæķĪæŀľ":8369,"ä¸ľåįĹ":8370,"ques":8371,"ç¤¾ä¼ļä¸»ä¹īå¸Ĥåľºç»ıæµİ":8372,"Ġright":8373,"Ġtrials":8374,"######":8375,"ij":8376,"çļĦå»ºè®¾":8377,"åĽ½ä¼ģ":8378,"Ġnetwork":8379,"æ·±è¿ľ":8380,"èĩ´ä½¿":8381,"Ġcellular":8382,"å·¥ç¨ĭå¸Ī":8383,"Ġfem":8384,"è¿ĩäºİ":8385,"åŁºåĩĨ":8386,"å®¶çļĦ":8387,"ĠII":8388,"verage":8389,"oxic":8390,"tality":8391,"fact":8392,"ä¹Łå°Ĩ":8393,"è´¨éĩıåĴĮ":8394,"éĩĳèŀįåį±æľº":8395,"ä¸Ńåįİä¼ĺç§Ģ":8396,"ixed":8397,"åĳ½è¿Ĳåħ±åĲĮä½ĵ":8398,"âĸ":8399,"æ±Ĥæĺ¯":8400,"ï¼Ľï¼Ī":8401,"è®¾è®¡åĴĮ":8402,"æĸ¯åĿ¦":8403,"Ġscreen":8404,"Ġconcentration":8405,".](":8406,"\\[":8407,"åº¦åĴĮ":8408,"æĸĩä¹¦":8409,"ç¤¾ä¼ļæ²»çĲĨ":8410,"ĠSci":8411,"åħ¨éĿ¢æİ¨è¿Ľ":8412,"âĳ£":8413,"éĿĻæĢģ":8414,"Ġvalid":8415,"gra":8416,"æľīä¸Ģ":8417,"Ġcross":8418,"çĽ¸éĢĤåºĶ":8419,"âĢĿï¼Ī":8420,"å¹¶è¡Į":8421,"ä¼ģä¸ļåĴĮ":8422,"ĠIg":8423,"åĲĪåĲĮçļĦ":8424,"Ġinteraction":8425,"Ġdetect":8426,"çĲĨæĥ³ä¿¡å¿µ":8427,"ä½ĽæķĻ":8428,")-":8429,"Ġul":8430,"æĺĤ":8431,"ä½ĵç§¯":8432,"æĿĥåĴĮ":8433,"è¥¿åĮĹ":8434,"æĿĳæ°ĳ":8435,"Ġneut":8436,"Ġsurgery":8437,"è¯ŀçĶŁ":8438,"MA":8439,"oy":8440,"å¯¹åŃ¦çĶŁ":8441,"äººæ°ĳæ£Ģå¯ŁéĻ¢":8442,"å´Ľèµ·":8443,"æ°¸è¿ľ":8444,"Ġindicate":8445,"ä»£çĲĨäºº":8446,"ern":8447,"Ġsal":8448,"è¢«æī§è¡Į":8449,"Ġeffective":8450,"æıŃç¤ºäºĨ":8451,"Ġsites":8452,"EN":8453,"ral":8454,"åĴĮæĸĩåĮĸ":8455,"æĺ¯åĽłä¸º":8456,"ä¹ĭå¤§":8457,"hers":8458,"äººä»¬çļĦ":8459,"Ġtesting":8460,"æµªè´¹":8461,"83":8462,"æľīå¿ħè¦ģ":8463,"ĠAc":8464,"ç´§æĢ¥":8465,"Ġartic":8466,"é«ĺçŃīåŃ¦æł¡":8467,"é¸¡":8468,"å£®å¤§":8469,"åī©ä½Ļ":8470,"ĊĊ":8471,"ä¸Ģè½®":8472,"ç¿°":8473,"å«Įçĸĳ":8474,"400":8475,"ç°":8476,"çļĦæĢ»":8477,"Ġmagn":8478,"é«ĺåİĭ":8479,"Ġelev":8480,"é¢ĨåħĪ":8481,"åģļäºĨ":8482,"Ġepithe":8483,"PL":8484,"ling":8485,"tosis":8486,"ä¸ŃåİŁ":8487,"åĩºäºİ":8488,"åľ°çĤ¹":8489,"å¹´çº§":8490,"æľŁå¾ħ":8491,"ä»½é¢Ŀ":8492,"æł¹æľ¬ä¸Ĭ":8493,"æ±īè¯Ń":8494,"å¯¹è±¡çļĦ":8495,"éĢģè¾¾":8496,"ç´¯è®¡":8497,"........":8498,"Ex":8499,"Ġanimals":8500,"ices":8501,"Ġrenal":8502,"çĽ¸å¯¹äºİ":8503,"å±Ĥçº§":8504,"è¡ĮæĶ¿ç®¡çĲĨ":8505,"Ġincub":8506,"åĨ·åį´":8507,"æĳĨèĦ±":8508,"GB":8509,"è¿Ń":8510,"æĹģ":8511,"åİĺ":8512,"é«ĺè¾¾":8513,"æĮĩåĲĳ":8514,"åį°åıĳ":8515,"åĲ¯åıĳ":8516,"bo":8517,"rg":8518,"æľīåĬĽçļĦ":8519,"Ġlat":8520,"ä½ľä¸ºä¸Ģä¸ª":8521,"æ°ĳäºĭè¯īè®¼æ³ķ":8522,"è½¬åıĺä¸º":8523,"Ġweeks":8524,"Ġner":8525,"æĹłå½¢":8526,"å§¿":8527,"åĢŁè´·":8528,"ancer":8529,"Ġwhereas":8530,"ware":8531,"Ġtrain":8532,"äº§èĥ½":8533,"æĸ°çĶŁ":8534,"åħ¬åĽŃ":8535,"ç§ģæľī":8536,"çħĮ":8537,"ç¤¾ä¼ļä¸»ä¹īæł¸å¿ĥä»·åĢ¼è§Ĥ":8538,"92":8539,"pri":8540,"å¼ĢæºĲ":8541,"æĹ¥æĬ¥":8542,"åĽ¾ä¹¦é¦Ĩ":8543,"ä»¥å¤ĸ":8544,"æĪĺçº¿":8545,"å¤®è¡Į":8546,"åľ¨å¯¹":8547,"è¦ģåĿļæĮģ":8548,"çīº":8549,"æľ¬ç½ĳ":8550,"æľŁè´§":8551,"èĬ³":8552,"çİĩä¸º":8553,"åİ¿çº§":8554,"èĸĦå¼±":8555,"Ġregions":8556,"å¾ĴåĪĳ":8557,"åĿĲæłĩ":8558,"æĸ°ä¸ŃåĽ½æĪĲç«ĭ":8559,"Ġgreater":8560,"åı¯è¡Į":8561,"åħ»æ®ĸ":8562,"Ġchrom":8563,"æ¿ĢçĥĪ":8564,"plied":8565,"Ġpeople":8566,"çĦĬæİ¥":8567,"Ġcriteria":8568,"ison":8569,"olution":8570,"å¢ŀå¤ļ":8571,"æĪĺçķ¥æĢ§":8572,"å®ĺæĸ¹":8573,"Ġreceptors":8574,"Ġcathe":8575,"/-":8576,"Ġä¸ŃåĽ½":8577,"æķ°æį®å®īåħ¨":8578,"åºĶçĶ¨çļĦ":8579,"ç§°ä¹ĭä¸º":8580,"ologic":8581,"Ġregulation":8582,"çīºçī²":8583,"ps":8584,"pose":8585,"ze":8586,"Ġparen":8587,"ä½ľé£İ":8588,"èĤłéģĵ":8589,"æķ°åĢ¼":8590,"èĩªæĦ¿":8591,"æŁı":8592,"ĠCell":8593,"éĴ¥":8594,"çĽ®æłĩæĺ¯":8595,"é£İéĻ©çļĦ":8596,"çªģåıĳ":8597,"è®²è§£":8598,"è¿½æº¯":8599,"Ġoverall":8600,"Ġmutation":8601,"Ġdrugs":8602,".[@":8603,"Ġcm":8604,"åĨľçĶ°":8605,"åł¡":8606,"Ġpathways":8607,"é¡¶å±Ĥ":8608,"IF":8609,"å¤§æī¹":8610,"ä»İä¸ļ":8611,"ĠAD":8612,"æ¸ħåģ¿":8613,"GS":8614,"çļĦéĢīæĭ©":8615,"åħ¹":8616,"åīª":8617,"çĤ®":8618,"ili":8619,"è´¢çī©":8620,"éĻįä½İäºĨ":8621,"Ġfollowed":8622,"AB":8623,"åħ¶åľ¨":8624,"Ġtool":8625,"åħ±äº§ä¸»ä¹ī":8626,"æĲŃå»º":8627,"ä¸Ļ":8628,"å¼Ł":8629,"ä¿Ŀå¯Ĩ":8630,"Ġproper":8631,"ç¡ķå£«":8632,"iting":8633,"Ġfat":8634,"å°ıäºİ":8635,"äººä»¬å¯¹":8636,"Ġincreasing":8637,"éĢĤå½ĵçļĦ":8638,"Ġdecrease":8639,"Ad":8640,"ae":8641,"Ġbone":8642,"å°Ĩåľ¨":8643,"terior":8644,"åĽĽå·Ŀ":8645,"Ġassessment":8646,"ĠFurthermore":8647,"$$":8648,"çİ»":8649,"åŃ¦çĶŁå¯¹":8650,"å¿ħéľĢ":8651,"çĲĨè®ºä¸Ĭ":8652,"æīįæĺ¯":8653,"æī¿è½½":8654,"æİ§åĪ¶åĻ¨":8655,"åįģåħ«æĿ¡":8656,"Ġbiom":8657,"Ġstructure":8658,"Ġorgan":8659,"utions":8660,"ession":8661,"å¹¶éĢļè¿ĩ":8662,"ç®¡çĲĨåĪ¶åº¦":8663,"äºĳåįĹ":8664,"çĻ¾åĪĨçĤ¹":8665,"ä»ĭåħ¥":8666,"ands":8667,"ances":8668,"å®ĥä»¬çļĦ":8669,"SCs":8670,"Ġisolated":8671,"ä»¥ä¹łè¿ĳå¹³åĲĮå¿Ĺä¸ºæł¸å¿ĥçļĦåħļä¸Ńå¤®":8672,"åĮĸåĲĪçī©":8673,"æĢ§åľ°":8674,"åŀĭçļĦ":8675,"æ·®":8676,"æµģè½¬":8677,"åįģæĿ¡":8678,"æĬ¤çĲĨ":8679,"Ġrates":8680,"Ġheter":8681,"é¢ĳç¹ģ":8682,"ç¦ıå»º":8683,"çľŁæŃ£çļĦ":8684,"åħ¼é¡¾":8685,"Ġratio":8686,"TS":8687,"Ġunc":8688,"Ġsite":8689,"æĥħæĻ¯":8690,"ocol":8691,"ä¼ĺèī¯":8692,"åĳ¨å¹´":8693,"ible":8694,"å¨±":8695,"éī´äºİ":8696,"èĩªæ²»åĮº":8697,"äººä¸İèĩªçĦ¶":8698,"æĶ¶ç¼©":8699,"èį§":8700,"éĢīçĶ¨":8701,"åįĬå¯¼ä½ĵ":8702,"åįģåħŃæĿ¡":8703,"åĨįçĶŁèĥ½æºĲ":8704,"ean":8705,"trol":8706,"ÎĶ":8707,"çļĦè´£ä»»":8708,"åĲŀ":8709,"ä¸ŃåĮ»èį¯":8710,"åĪĨéĴŁ":8711,"Ġmass":8712,"çŃīå¤ļ":8713,"æľ¯è¯Ń":8714,"urn":8715,"å¹¿æĴŃ":8716,"\"},":8717,"sp":8718,"åĴĮæĶ¿æ²»":8719,"åį¢":8720,"ä¸Ĭæ¶¨":8721,"è¾ĥå¤ļ":8722,"æĺİç¡®è§Ħå®ļ":8723,"æĤ¬":8724,"çĬ¯ç½ªçļĦ":8725,"éĻĦè¿ĳ":8726,"æģ¶æĢ§":8727,"Ġparameters":8728,"Ġrelease":8729,"æľīçĽĬ":8730,"å¯¹çŃĸ":8731,"æľŁå¾ĴåĪĳ":8732,"è¿Ľè¡ĮåĪĨæŀĲ":8733,"å¸¸åĬ¡":8734,"emia":8735,"å¾Īå¿«":8736,"ç®Ģä»ĭ":8737,"æģ©æł¼æĸ¯":8738,"Pro":8739,"trans":8740,"activ":8741,"æĮģä¹ħ":8742,"å½±åĵįåĬĽ":8743,"æ¨¡åŀĭçļĦ":8744,"Ġcoun":8745,"ĠOur":8746,"çĭ¬çī¹çļĦ":8747,"antit":8748,"ä»·æ¬¾":8749,"åŃ¦ä¹łåĴĮ":8750,"åĬ³åĬ¡":8751,"æĬĹæĪĺ":8752,"ially":8753,"æĦ¿æĦı":8754,"Ġexamined":8755,"åĬŀåħ¬å®¤":8756,"ME":8757,"lex":8758,"Ġhospital":8759,"ressive":8760,"éļıæĹ¶":8761,"æĶ¹åıĺäºĨ":8762,"Ġdetection":8763,"å°ģéĹŃ":8764,"TC":8765,"åŃ¦çķĮ":8766,"é«ĺæ¸©":8767,"ä¹Łèĥ½":8768,"çĸ¼":8769,"Ġgast":8770,"ĠPD":8771,"ĠInt":8772,"å¯¼èĩ´çļĦ":8773,"ressing":8774,"æīĢè°ĵçļĦ":8775,"overy":8776,"RE":8777,"iat":8778,"ld":8779,"åıĪæľī":8780,"æĺİç¡®æıĲåĩº":8781,"æĪªèĩ³":8782,"ä¸»ç®¡éĥ¨éĹ¨":8783,"ĠmiR":8784,"èį§åħī":8785,"WTO":8786,"thesis":8787,"Ġä¸Ń":8788,"itud":8789,"æĹłéĻĲ":8790,"è¿ĺæ²¡æľī":8791,"çĶŁæ´»æĸ¹å¼ı":8792,"ç²¾ç¥ŀçļĦ":8793,"ney":8794,"Ġsecre":8795,"81":8796,"èĿ":8797,"æĸ°å¾ģç¨ĭ":8798,"çŃīå¤ļç§į":8799,"éģĤ":8800,"ç¬¬ä¹Ŀ":8801,"çĶµå½±":8802,"Ġthus":8803,"çĿĢéĩį":8804,"oplas":8805,"Ġabnormal":8806,"å©´":8807,"ä¾§éĩį":8808,"}$$\\":8809,"09":8810,"æĹłåħ³":8811,"ĠAfter":8812,"è±ª":8813,"å½±åĵįçļĦ":8814,"åĳĬçŁ¥":8815,"å»ºç«ĭèµ·":8816,"ä¸ĵä¸ļçļĦ":8817,"ç¿¼":8818,"Ġ%":8819,"æķ¦":8820,"ä¸ĢåĽ½":8821,"ä¸Ģæµģ":8822,"isc":8823,"æĸ°çĸĨ":8824,"æºĲå¤´":8825,"å®Įå¤ĩ":8826,"Ġdev":8827,"èĩªçĦ¶ç§ĳåŃ¦":8828,"ç®ĢåĮĸ":8829,"æīĵå¼Ģ":8830,"Ġdomain":8831,"treated":8832,"çļĦå®ļä¹ī":8833,"ital":8834,"æľ¬åĽ½":8835,"åŁºæľ¬ä¸Ĭ":8836,"ä¸¥å³»":8837,"ç»¼åĲĪå¾ģ":8838,"æ¡Īä»¶çļĦ":8839,"itis":8840,"RC":8841,"aff":8842,"çĶµæŀģ":8843,"æĻºåºĵ":8844,"è¿ĲåĬ¨çļĦ":8845,"ä¹łè¿ĳå¹³æĢ»ä¹¦è®°åľ¨":8846,"ä¾Ŀèµĸäºİ":8847,"æłĩå¿ĹçĿĢ":8848,"Ġevaluated":8849,"æŁĵèī²ä½ĵ":8850,"Ġsepar":8851,"RA":8852,"åľ¨ç»ıæµİ":8853,"ä¿ĿéĻ©äºº":8854,"æ´¾éģ£":8855,"çļĦæ°´":8856,"ä¸ŃæľŁ":8857,"ç®Ń":8858,"åĲĮæ¯Ķ":8859,"ä¹Łæ²¡æľī":8860,"imen":8861,"åĩĨåħ¥":8862,"è¯īæ±Ĥ":8863,"ĠInstit":8864,"é¥²æĸĻ":8865,"çļĦçĬ¶æĢģ":8866,"ä¸Ńå±±":8867,"ä¹Łä¸º":8868,"æĽ´æľī":8869,"èĻİ":8870,"æīĭç»Ń":8871,"ĠData":8872,"ç´łè´¨æķĻèĤ²":8873,"Ġhighly":8874,"Ġdefined":8875,"till":8876,"ä¸ªæĢ§åĮĸ":8877,"Ġcritical":8878,"éĺģ":8879,"åĪĽè®¾":8880,"åŁºæľ¬çļĦ":8881,"å¹¿å·ŀ":8882,"izing":8883,"æ²³åĮĹ":8884,"åŃ¦çĶŁçļĦåŃ¦ä¹ł":8885,"çŁ©éĺµ":8886,"BV":8887,"kn":8888,"ĠãĢģ":8889,"Ġhom":8890,"åı²ä¸Ĭ":8891,"Ġexc":8892,"åĪĨæŀĲäºĨ":8893,"éĻ¤å¤ĸ":8894,"ences":8895,"ancy":8896,"Ġcarri":8897,"Ġmeasures":8898,"Ġhypot":8899,"ĠStud":8900,"87":8901,"Ġsour":8902,"ä¹Łä¸įèĥ½":8903,"æķĪèĥ½":8904,"ç»ĨèĬĤ":8905,"aired":8906,"Ġtested":8907,"ä¹ĭä¸Ĭ":8908,"äºĮç»´":8909,"lying":8910,"å¤©æ´¥":8911,"åįłæį®":8912,"ä¸¾è¯ģ":8913,"é¸£":8914,"æ¬¢è¿İ":8915,"Ġmortality":8916,"ä¸ªçĻ¾åĪĨçĤ¹":8917,"ä½¿ä¹ĭ":8918,"å®īåħ¨çļĦ":8919,"ä¸ĸçķĮç»ıæµİ":8920,"åĮĹæĸ¹":8921,"åĨľæ°ĳå·¥":8922,"FD":8923,"met":8924,"ĠTherefore":8925,"æ¸ħç®Ĺ":8926,"Ġmarkers":8927,"æķ¢äºİ":8928,"çŃĽéĢī":8929,"éĶ»çĤ¼":8930,"åįļçī©é¦Ĩ":8931,"ĠÂ·":8932,"Ġdat":8933,"æĭ¼":8934,"çłĶç©¶è¡¨æĺİ":8935,"Ġstage":8936,"æ³¨å°Ħ":8937,"Ġorig":8938,"åıĳçĶŁåľ¨":8939,"æĹ¶éĹ´åĨħ":8940,"å¹²ç»Ĩèĥŀ":8941,"ours":8942,"è½¬åŀĭåįĩçº§":8943,"ä¸ºä»£è¡¨çļĦ":8944,"PA":8945,"SO":8946,"sigma":8947,"éĢ¼":8948,"ä¼ļæľī":8949,"Ġreduction":8950,"ãĢĭãĢĤ":8951,"å¿ħå°Ĩ":8952,"çĹħä¾ĭ":8953,"å®ŀéĻħæĥħåĨµ":8954,"Ġcour":8955,"Ġbetter":8956,"Ġplasma":8957,"èĩ³åħ³éĩįè¦ģ":8958,"çī¹å¼ĤæĢ§":8959,"CIT":8960,"To":8961,"get":8962,"inary":8963,"æŀĿ":8964,"ç¾İçļĦ":8965,"ćą":8966,"æĬĢæľ¯ä¸İ":8967,"æ³¨æĺİ":8968,"å¾Īå¥½":8969,"ä¿ĿæĬ¤çļĦ":8970,"Ġcollected":8971,"çĤİçĹĩ":8972,"Ġpolym":8973,"è¹Ī":8974,"æľ¬åľŁ":8975,"Ġreport":8976,"åĬłæ·±":8977,"ç«ĭä½ĵ":8978,"å¯¼èĪª":8979,"è±¡å¾ģ":8980,"çĦ¦çĤ¹":8981,"å¹´ç¬¬":8982,"èĬ½":8983,"èĦĨ":8984,"ç»¼åĲĪæĢ§":8985,"ç¢³ä¸ŃåĴĮ":8986,"è¡Įä¸ļçļĦ":8987,"åŃĺåĤ¨åĻ¨":8988,"è¾ħå¯¼":8989,"âĢķâĢķ":8990,"åŃĿ":8991,"è¿ĩå¤±":8992,"çĶµèĦĳ":8993,"å®ŀçİ°çļĦ":8994,"æĳ¸":8995,"å¿½çķ¥":8996,"æĺ¯ä¸ºäºĨ":8997,"äº§åĩº":8998,"Ġmade":8999,"ä¸ĭæ¸¸":9000,"éĿ¢ä¸´çĿĢ":9001,"è°ĭåĪĴ":9002,"åŃĶåŃĲ":9003,"\";":9004,"æľĭ":9005,"å¹»":9006,"ä¸»è¦ģçļĦ":9007,"èī¯æĢ§":9008,"å¹´è½»":9009,"æłĩçŃ¾":9010,"èµ·ä¹ī":9011,"åħīä¼ı":9012,"ä¾¿äºİ":9013,"çļĦä¸»":9014,"åľ¨ç¾İåĽ½":9015,"äººå¿ĥ":9016,"Ġgo":9017,"æŃ¥ä¼Ĳ":9018,"ä½ĵç³»ä¸Ń":9019,"Ġact":9020,"æĻºåĬĽ":9021,"å®£åĳĬ":9022,"æĿ¥æºĲäºİ":9023,"èĶ¬":9024,"èµ¢å¾Ĺ":9025,"å®ŀäºĭæ±Ĥæĺ¯":9026,"82":9027,"cence":9028,"Ġrap":9029,"ä¸ŃåĮ»":9030,"åıĳåĬ¨":9031,"åĽłæŀľ":9032,"ides":9033,"Ġ40":9034,"Ġtranscription":9035,"çļĦä¿ĿæĬ¤":9036,"çĽĹ":9037,"è¦ģä»¥":9038,"ä¼łå¯¼":9039,"è¯´æ³ķ":9040,"Ġvascular":9041,"éľĢè¦ģåľ¨":9042,"èº«å¿ĥ":9043,"å¤ļæł·åĮĸ":9044,"å®Ŀè´µ":9045,"Ġtrial":9046,"Ġfrequ":9047,"çĪ±åĽ½ä¸»ä¹ī":9048,"åħ¨éĿ¢å»ºæĪĲå°ıåº·ç¤¾ä¼ļ":9049,"LS":9050,"æķĻèĤ²åĴĮ":9051,"åŃ¦çĶŁåŃ¦ä¹ł":9052,"åĲįä¸º":9053,"å¤ĦçĲĨçļĦ":9054,"åĪ¤å®ļ":9055,"åħ±äº§åħļçļĦ":9056,"æĩĪ":9057,"PT":9058,"åįĪ":9059,"å°±å¿ħé¡»":9060,"æº¢":9061,"åıĮåĲĳ":9062,"ä¼łæŁĵçĹħ":9063,"Ġdistribution":9064,"çļĦæĿ¡ä»¶":9065,"æľ¬äºº":9066,"å¹¿ä¹ī":9067,"æİĴåºı":9068,"rence":9069,"åįģä¸īæĿ¡":9070,"åºĻ":9071,"ç®¡æİ§":9072,"ä»İæł¹æľ¬ä¸Ĭ":9073,"åīįæīĢæľª":9074,"imum":9075,"åĨľèį¯":9076,"å¢ĥåĨħ":9077,"å·²çŁ¥":9078,"ä¹¦åĨĻ":9079,"æ¸ħéĻ¤":9080,"èĳ£äºĭä¼ļ":9081,"*)":9082,"PV":9083,"åĴĮåºĶçĶ¨":9084,"ä¸įå½ĵ":9085,"èĭ±éĽĦ":9086,"åģıå·®":9087,"Ġaccur":9088,"NR":9089,"var":9090,"çļĦç»ıéªĮ":9091,"åħĳ":9092,"ä¸ºäººæ°ĳ":9093,"Ġcentral":9094,"Ġfl":9095,"ä»ĸåľ¨":9096,"åĨľæĪ·":9097,"ĠSc":9098,"ç¬ĶèĢħè®¤ä¸º":9099,"äºŁ":9100,"åŃ¦åİĨ":9101,"æĪĲäºº":9102,"Ġrelev":9103,"Ġalter":9104,"æ¯ıå¤©":9105,"ç¼ºçĤ¹":9106,"Ġhere":9107,"ĠWh":9108,"åģ¥åº·åıĳå±ķ":9109,"æĥ©ç½ļ":9110,"åľ¨ä¸Ģå®ļç¨ĭåº¦ä¸Ĭ":9111,"èĥ°å²Ľ":9112,"åħ¬æľīåĪ¶":9113,"ãĢĶ":9114,"åĴĮä¼ģä¸ļ":9115,"åĮĸå·¥":9116,"any":9117,"Ġvers":9118,"ĠMRI":9119,"è¯¸å¦Ĥ":9120,"ä¸Ģèĩ´çļĦ":9121,"æī¶æĮģ":9122,"]^.":9123,"Ġprevalence":9124,"91":9125,"åŃ¦åĪĨ":9126,"ering":9127,"åĲĪè§Ħ":9128,"åıĬåħ¶ä»ĸ":9129,"Ġplay":9130,"ociated":9131,"åĩºåıĳçĤ¹":9132,"Ġdoes":9133,"Ġimpact":9134,"å¤§èĩ´":9135,"çĽ¸ç»§":9136,"äººç±»çļĦ":9137,"Ġkey":9138,"å¤įæĿĤæĢ§":9139,"ç§ĳåŃ¦åıĳå±ķè§Ĥ":9140,"function":9141,"ier":9142,"ä¸ºä¸Ģ":9143,"å¹´åīį":9144,"æıĲåĢ¡":9145,"æĥĳ":9146,"åİŁæľī":9147,"Ġlack":9148,"æĺ¾å¾Ĺ":9149,"çľĭä½ľ":9150,"è¡ĮæĶ¿éĥ¨éĹ¨":9151,"å·¥ä¸ļäºĴèģĶç½ĳ":9152,"ç»¿èī²åıĳå±ķ":9153,"ä¸įå¾Ĺä¸į":9154,"Ġprogression":9155,"æīĢéľĢçļĦ":9156,"åĽ½åĢº":9157,"ä¸įè®º":9158,"åħ³ç¨İ":9159,"å°±æľī":9160,"è´¨çļĦ":9161,"Ġintra":9162,"æĸĩæĺİçļĦ":9163,"èģļåĲĪ":9164,"Ġdifferentiation":9165,"æ»¥çĶ¨":9166,"less":9167,"äººäºº":9168,"æĹłéľĢ":9169,"åħĪè¡Į":9170,"èĢĥéªĮ":9171,"å¥ĸåĬ±":9172,"ä¸įåĬ¨äº§":9173,"ĠMoreover":9174,"è¦ģçĤ¹":9175,"æ²Ī":9176,"å¤ĦçļĦ":9177,"uble":9178,"ipher":9179,"Ġcorrespon":9180,"Ġï¼Į":9181,"å¢ŀè¿Ľ":9182,"umin":9183,"çº¿è·¯":9184,"çĥ·":9185,"ç¦»å¼Ģ":9186,"Ġimages":9187,"çĽĳçĿ£ç®¡çĲĨ":9188,"è¯ļä¿¡":9189,"çŀ»":9190,"kg":9191,"ä¸ºæŃ¢":9192,"æī®":9193,"åĩĮ":9194,"é«ĺæ°´å¹³":9195,"å¢ĥå¤ĸ":9196,"ä¹¦ä¸Ń":9197,"åħĥä»¶":9198,"æŀģåħ¶":9199,"rosis":9200,"æķĳåĬ©":9201,"Ġviral":9202,"å¾Īå¤§ç¨ĭåº¦ä¸Ĭ":9203,"åįģåĽĽæĿ¡":9204,",ï¼Ĥ":9205,"ãĢķ":9206,"ç§įç§į":9207,"éĢĤå®ľ":9208,"èĪŀåı°":9209,"VA":9210,"ĊĠĠĠ":9211,"å®ļå¾ĭ":9212,"Ġthough":9213,"çĶŁäº§åĴĮ":9214,"Ġach":9215,"å®ŀè·µæ´»åĬ¨":9216,"Ġrespiratory":9217,"æģ¶æĦı":9218,"text":9219,"Ġinitial":9220,"ĉĉ":9221,"uscript":9222,"æĹ©åľ¨":9223,"Ġrecent":9224,"é«ĺåİŁ":9225,"è·Į":9226,"çķª":9227,"vement":9228,"èĥ½å¤Łåľ¨":9229,"ä¾¿æĺ¯":9230,"çľŁå®ŀæĢ§":9231,"Ġmonitor":9232,"Ġdeli":9233,"%;":9234,"Ġill":9235,"ä¸įç¬¦åĲĪ":9236,"ä¸ļæĢģ":9237,"åİ»éĻ¤":9238,"oints":9239,"Ġinvestigated":9240,"Ġskin":9241,"Ġadministration":9242,"Ġlesions":9243,"ä¸İæĹ¶":9244,"æĿ¥è®²":9245,"æĸĩä¸Ń":9246,"çī©èµĦ":9247,"Ġstaining":9248,"èĢĥæŁ¥":9249,"åıĳå±ķçļĦéĩįè¦ģ":9250,"å½ĵäºĭäººçļĦ":9251,"Ġfeatures":9252,"ysiological":9253,"å¯¹ç¤¾ä¼ļ":9254,"Ġtherefore":9255,"åı¯æİ§":9256,"Ġgly":9257,"plant":9258,"Ġkin":9259,"Ġincreases":9260,"1998":9261,"Ġevents":9262,"aw":9263,"material":9264,"çļĦç©ºéĹ´":9265,"Ġamin":9266,"äºĨä¸Ģç§į":9267,"é¢ĩ":9268,"çŃīå¾ħ":9269,"Ġadhe":9270,"Ġdiffic":9271,"æĵįä½ľç³»ç»Ł":9272,"Ġcaused":9273,"Ġachie":9274,"çļĦåħ¶ä»ĸ":9275,"äººä¹ĭ":9276,"æĢ§çĸ¾çĹħ":9277,"èĮĥå¼ı":9278,"å¿ħé¡»åĿļæĮģ":9279,"ä¿®åħ»":9280,"èµĦæľ¬å¸Ĥåľº":9281,"çº·çº·":9282,"æ²īç§¯":9283,"æ®ĭçĸ¾":9284,"çĸ¼çĹĽ":9285,"PI":9286,"supplementary":9287,"ton":9288,"Ġpoint":9289,"åºĶåľ¨":9290,"çĿ¡":9291,"çĮĽ":9292,"åıĳæĮ¥äºĨ":9293,"åºĶè¯¥æĺ¯":9294,"Ġenvironment":9295,"çī¹æ®ĬçļĦ":9296,"æĹĭè½¬":9297,"æ¨ªåĲĳ":9298,"Ġtemper":9299,"æł½åŁ¹":9300,"Ġapoptosis":9301,"gn":9302,"åĲ¾":9303,"ä¼ļåľ¨":9304,"é«ĺèĢĥ":9305,"Ġlines":9306,"ç¼©çŁŃ":9307,"çļĦåħī":9308,"åĴĮåĪĨæŀĲ":9309,"æĺ¯å®ŀçİ°":9310,"ä¸įç§»":9311,"Ġstill":9312,"åĩºåĶ®":9313,"ogn":9314,"åĿĩåĮĢ":9315,"é»İ":9316,"ç§¯æŀģåıĤä¸İ":9317,"åıĳå¸ĥçļĦ":9318,"ä¾Ľç»Ļä¾§":9319,"âĶĢ":9320,"Res":9321,"orph":9322,"çĹħåİŁ":9323,"è¿ĿèĥĮ":9324,"è®¤å®ļä¸º":9325,"æĺ¯ä¸Ģé¡¹":9326,"æ·±åº¦èŀįåĲĪ":9327,"Ġcombination":9328,"SK":9329,"çļĦå¯¹è±¡":9330,"åº¸":9331,"åĴĮéĿŀ":9332,"erate":9333,"terol":9334,"çĥŃæĥħ":9335,"ä»ĺæ¬¾":9336,"æ¶īåıĬåĪ°":9337,"çº²é¢Ĩ":9338,"SV":9339,"çļĦä¸»ä½ĵ":9340,"ç»¸":9341,"å¼¦":9342,"åīįæľŁ":9343,"å¸¸çĶ¨çļĦ":9344,"æł¹æºĲ":9345,"åĿļå¼º":9346,"ç»ĵæŀľè¡¨æĺİ":9347,"Ġprec":9348,"Ġplac":9349,"æľĢå¤§åĮĸ":9350,"Ġmanuscript":9351,"åıĳæİĺ":9352,"olar":9353,"æµģå¤±":9354,"è¿ĺåĮħæĭ¬":9355,"Ġprevent":9356,"ĠUSA":9357,"aken":9358,"æĺ¥ç§ĭ":9359,"è¿Ķè¿ĺ":9360,"å¼¥è¡¥":9361,"ä¸Ńå¤ĸ":9362,"è¿Ļä¹Ł":9363,"å¤Ħåľ¨":9364,"äºĴè¡¥":9365,"è§£åĨ³éĹ®é¢ĺçļĦ":9366,"æ°´å¹³åĴĮ":9367,"çĶŁçī©å¤ļæł·æĢ§":9368,"éĢłæĪĲäºĨ":9369,"å¦¨":9370,"éĽĨä¸Ńåľ¨":9371,"èĳĹä½ľæĿĥ":9372,"Ġaffected":9373,"å¢ŀåĢ¼ç¨İ":9374,"éĻķè¥¿":9375,"Ġconducted":9376,"âĨĴ":9377,"æĿŃ":9378,"è´¤":9379,"èĥ½åľ¨":9380,"åĲĪä¸Ģ":9381,"æ¶Ľ":9382,"æľįä»İ":9383,"æĦŁåĪ°":9384,"ĠPCR":9385,"rix":9386,"åįĹæĸ¹":9387,"æİĪäºĪ":9388,"ç´§å¼ł":9389,"Ġampl":9390,"åĶ¯çī©ä¸»ä¹ī":9391,"ä»Ķ":9392,"æĺ¯å°Ĩ":9393,"èĥļ":9394,"å¯¹æĪĳåĽ½":9395,"æİ©":9396,"çķ¸":9397,"åĪĽç«ĭ":9398,"ä½¿çĶ¨æĿĥ":9399,"å¯Įæľī":9400,"Ġstudents":9401,"Ġphosphory":9402,"Ġpractice":9403,"Ġnecess":9404,"çļĦåĽłç´ł":9405,"åıĳæī¬":9406,"Ġpap":9407,"Ġread":9408,"æ¨¡åħ·":9409,"ç¨ĭåºıçļĦ":9410,"åı¥è¯Ŀ":9411,"Ġrepe":9412,"Ġpoor":9413,"^âĪĴ":9414,"çļĦæīĢæľī":9415,"åĴĮåĽ½å®¶":9416,"å¯¹è¯¥":9417,"åı¯åĨįçĶŁèĥ½æºĲ":9418,"æ°´ç¨»":9419,"ä¸¤å²¸":9420,"åĪ¶åº¦æĶ¹éĿ©":9421,"è¶Ĭå¤§":9422,"èħ¾":9423,"éĻĪè¿°":9424,"åĢ¡è®®":9425,"ocyte":9426,"åĪĨè¾¨çİĩ":9427,"Ġself":9428,"icine":9429,"åĶ¤":9430,"åħļçļĦå»ºè®¾":9431,"ç¨³æŃ¥":9432,"éī´åĪ«":9433,"è´µæĹı":9434,"Ġobserv":9435,"LD":9436,"ole":9437,"sh":9438,"åĴĮåĪĽæĸ°":9439,"ä¸İä¹ĭ":9440,"ä¸Ĭæľī":9441,"æĬĢæľ¯åľ¨":9442,"åı¯ä»¥ä»İ":9443,"uture":9444,"å¤©åľ°":9445,"åĲĪæ³ķæĢ§":9446,"é¥®é£Ł":9447,"Ca":9448,"ä¸ĺ":9449,"å¤¹":9450,"Ġmig":9451,"Ġmotor":9452,"è®ºçļĦ":9453,"active":9454,"Ġcondition":9455,"æĸ¹å¼ıåĴĮ":9456,"çŁ¥è¯ĨåĪĨåŃĲ":9457,"Ġselected":9458,"ä¹łè¿ĳå¹³æĢ»ä¹¦è®°æĮĩåĩº":9459,"æ»ŀåĲİ":9460,"HO":9461,"æĺ¯æĪĳä»¬":9462,"ä¸ºå®ŀçİ°":9463,"å¤§çº²":9464,"Ġcer":9465,"Ġyear":9466,"æ³¨æĦıçļĦæĺ¯":9467,"çŃ¾ç½²":9468,"å¤§åĬĽåıĳå±ķ":9469,"èķ´åĲ«":9470,"bit":9471,"çĶŁèĤ²":9472,"åĮĸçŁ³":9473,"åĪ¶è®¢":9474,"Ġproposed":9475,"ç¦½":9476,"Ġrecord":9477,"Ġpublished":9478,"çĵ¶é¢Ī":9479,"ygen":9480,"åĴĮæĸ°":9481,"åĩ¯":9482,"æŀª":9483,"æľºçļĦ":9484,"ä½Ĩåħ¶":9485,"æľįåĬ¡æıĲä¾Ľ":9486,"éķ¿æľŁä»¥æĿ¥":9487,"æĭīåħĭ":9488,"æŃ¦æ±ī":9489,"Ġprogn":9490,"This":9491,"ä¸ĢçĤ¹":9492,"åĨĢ":9493,"ä¸İä¸ŃåĽ½":9494,"å·¥ä¼ļ":9495,"åħ¬åĬ¡":9496,"Ġlength":9497,"è®®é¢ĺ":9498,"ç§ĳåŃ¦çłĶç©¶":9499,"åıĪç§°":9500,"ä¸įæĸŃåľ°":9501,"Ġchall":9502,"æľĢå¤§éĻĲåº¦":9503,"Ġcolon":9504,"æķĮäºº":9505,"BM":9506,"UN":9507,"ct":9508,"åı¯åľ¨":9509,"è¿ĩçļĦ":9510,"è¿ĳæĹ¥":9511,"ä¸ĩåĲ¨":9512,"é¥Ń":9513,"é¡ºåºĶ":9514,"Ġknowledge":9515,"åįģä¸ĥæĿ¡":9516,"GA":9517,"ä¸ºä¸»ä½ĵ":9518,"Ġsuff":9519,"æ°ĳåĽ½":9520,"æľºåĬ¨":9521,"åĽ½éĻħåĮĸ":9522,"ducing":9523,"çŁŃæĿ¿":9524,"ä¸ŃåĽ½åħ±äº§åħļé¢Ĩå¯¼":9525,"èī°èĭ¦":9526,"Ġsuccess":9527,"][@":9528,"çļĦæķ´ä½ĵ":9529,"ä¸įç®¡":9530,"istic":9531,"Ġhand":9532,"çĬ¹":9533,"Ġ\\>":9534,"Ġseg":9535,"èİ·å¾ĹçļĦ":9536,"Ġfunctions":9537,"çĪĨçĤ¸":9538,"äºı":9539,"æ³ķåĴĮ":9540,"aged":9541,"è¥¿åįĹ":9542,"è¡Ģæłĵ":9543,"åĲ¯ç¤º":9544,"Ġcoll":9545,"Ġoutcome":9546,"right":9547,"Ġve":9548,"çļĦä»»åĬ¡":9549,"åľ¨å®ŀè·µä¸Ń":9550,"çĲĨå·¥":9551,"åĲĦéĥ¨éĹ¨":9552,"çķĮéĻĲ":9553,"åŃ¦ä¹łèĢħ":9554,"æĻ®æĥł":9555,"Ġable":9556,"ä¸Ģå®ļè¦ģ":9557,"çĩ¥":9558,"ç¥ŀç»ıåħĥ":9559,"éĺ¿æĭī":9560,"æķ°åŃĹåĮĸè½¬åŀĭ":9561,"çļĦåīįæıĲä¸ĭ":9562,"çļĦç³»ç»Ł":9563,"Ġoper":9564,"åı²æĸĻ":9565,"ä¸¤ç±»":9566,"è±Ĩ":9567,"åĪĹåħ¥":9568,"æĮĩå¯¼æĢĿæĥ³":9569,"åºķçº¿":9570,"æ½®æµģ":9571,"Ġresearc":9572,"Ġdiagnostic":9573,"Ag":9574,"frac":9575,"ler":9576,"Ġä»İ":9577,"çļĦä¼Łå¤§":9578,"ä¸ºåħ¶":9579,"æĿĥåĬĽçļĦ":9580,"åı¯ä»¥å°Ĩ":9581,"Ġhydro":9582,"æĹ¥æľŁ":9583,"æĶ¿çŃĸåĴĮ":9584,"åĽŀæĬ¥":9585,"ĠRec":9586,"åĬŀäºĭ":9587,"Ġtransf":9588,"çļĦæĸ°åŀĭ":9589,"Ġquanti":9590,"Ġbiological":9591,"çªĹåı£":9592,"006":9593,"ä¸ŃçļĦä½ľçĶ¨":9594,"æĺ¯åĽ½å®¶":9595,"å¤§å±Ģ":9596,"=======":9597,"Ġseen":9598,"Ġdiet":9599,"mediated":9600,"ä¸įåĪ©äºİ":9601,"Ġcalculated":9602,"çİĦ":9603,"omp":9604,"003":9605,"æĦŁæĥħ":9606,"æ¸ħä»£":9607,"ç§ĳæĬĢæĪĲæŀľ":9608,"éĺ³æĢ§":9609,"1999":9610,"éĢĢåĩº":9611,"%ãĢģ":9612,"rob":9613,"èĭ·":9614,"ç»Łä¸ĢæĪĺçº¿":9615,"æĿĥåĪ©çļĦ":9616,"èµĭèĥ½":9617,"å½ĵä»£ä¸ŃåĽ½":9618,"ovascular":9619,"èĤ²ç§į":9620,"éĶ¦":9621,"å¤įèĭı":9622,"åħīè°±":9623,"å®ĮåĸĦçļĦ":9624,"åĬ¨åĬĽåŃ¦":9625,"çĶŁåĳ½åĳ¨æľŁ":9626,"åĲĽä¸»":9627,"Ġevaluation":9628,"Ġwor":9629,"çłĶç©¶åıĳçİ°":9630,"åı¯ä»¥çľĭåĩº":9631,"çĶŁäº§ç»ıèĲ¥":9632,"å¥´éļ¶":9633,"go":9634,"Ġtests":9635,"æľīå®³":9636,"æĢ§åĪ«":9637,"åıĺä¸º":9638,"è¡¨å¾ģ":9639,"ulate":9640,"æŃ¤æ¬¡":9641,"åį³å°Ĩ":9642,"------------------------":9643,"åħļçļĦäºĮåįģ":9644,"Ġstudied":9645,"Ġcontinu":9646,"èĩªçĶ±è´¸æĺĵ":9647,"åįıè°ĥåıĳå±ķ":9648,"å®ĭä»£":9649,"ava":9650,"åĿļå®ļä¸įç§»":9651,"Ġpower":9652,"Ġmax":9653,"åħ¬åħģ":9654,"éĽ¾":9655,"emb":9656,"ç¼ĵåĨ²":9657,"Ġsuggesting":9658,"å¨±ä¹Ĳ":9659,"æľĭåıĭ":9660,"ãĢĤ[":9661,"åı¯è§Ĩ":9662,"artic":9663,"æĭĸ":9664,"æĮĩçļĦæĺ¯":9665,"åĻ¬":9666,"éĿŀçī©è´¨":9667,"éļıä¹ĭ":9668,"ĠDi":9669,"ä¸ĵä¸ļåĮĸ":9670,"ä»¥ä¸ĭåĩłä¸ª":9671,"iciency":9672,"monary":9673,"èĪŀè¹Ī":9674,"ferred":9675,"å¹¼åĦ¿åĽŃ":9676,"Ġdiscus":9677,"Ġversus":9678,"åĽ½åľŁ":9679,"ä¸įåľ¨":9680,"ä»ĸè®¤ä¸º":9681,"æ¸©å®¤":9682,"çļĦä¸ĢåĪĩ":9683,"æ¶²ä½ĵ":9684,"RO":9685,"æĺ¯ä¸º":9686,"åİī":9687,"å¾Īå¥½çļĦ":9688,"éĩĮçļĦ":9689,"ector":9690,"Ġpredict":9691,"Ġcorrelation":9692,"ä¿±è¿Ľ":9693,"çººç»ĩ":9694,"ä¸Ńç¾İ":9695,"å¼Ħ":9696,"æĬ±":9697,"å½ĵä¸ĭ":9698,"çĶµè§£":9699,"ĠAp":9700,"ä¸¤æ¬¡":9701,"å®ŀè·µæķĻåŃ¦":9702,"çĶŁæĢģä¿ĿæĬ¤":9703,"éĤĢ":9704,"ä¸¥æł¼çļĦ":9705,"ç¡®ç«ĭäºĨ":9706,"Ġutil":9707,"åĲĦæĹıäººæ°ĳ":9708,"Hz":9709,"è´ª":9710,"Ġcere":9711,"ä¼ģä¸ļå®¶":9712,"Ġconn":9713,"åŁºæľ¬åİŁçĲĨ":9714,"åĮĹäº¬å¸Ĥ":9715,"eding":9716,"orb":9717,"ä¸Ĭä¸ĸçºª":9718,"Ġfil":9719,"éĥ¨çļĦ":9720,"å°±åĥı":9721,"äººæ°ĳä¸ºä¸Ńå¿ĥ":9722,"ä¿¡æģ¯å®īåħ¨":9723,"æķĻå¸Īåľ¨":9724,"è¾¾åĪ°äºĨ":9725,"å®ĮæĪĲäºĨ":9726,"æ¡¥æ¢ģ":9727,"äºĮæ°§åĮĸç¢³":9728,"az":9729,"åħ¨æĸ°çļĦ":9730,"éľī":9731,"èµ·çĿĢ":9732,"åħīçº¤":9733,"è¿Ļä¸ªéĹ®é¢ĺ":9734,"ĠÂł":9735,"Ġinhibitor":9736,"Ġcohort":9737,"sing":9738,"çļĦäº§çĶŁ":9739,"éĶĤ":9740,"éĻ¢éķ¿":9741,"çķĮçļĦ":9742,"ird":9743,"æİ¨åĬ¨äºĨ":9744,"associated":9745,")\"":9746,"mg":9747,"çļĦå¤ĸ":9748,"å®°":9749,"ä¸ºçĽ®çļĦ":9750,"ä¼ļä¸Ĭ":9751,"åħ±èµ¢":9752,"ä¸¤åĽ½":9753,"éĩįè¦ģçļĦä½ľçĶ¨":9754,"ç»ĺåĪ¶":9755,"Ġprocesses":9756,"Ġclear":9757,"\\[[@":9758,"^{":9759,"æĸ¤":9760,"ä½ĵä¼ļ":9761,"oratory":9762,"ç¤¾ä¼ļç»ıæµİ":9763,"é¢Ĩå¯¼äºº":9764,"é©¬åħĭæĢĿä¸»ä¹īä¸ŃåĽ½":9765,"Ġintervention":9766,"time":9767,"Ġindex":9768,"ç¼ĵæħ¢":9769,"çī¢çī¢":9770,"è¸ı":9771,"regulated":9772,"æĭįåįĸ":9773,"Ġlipid":9774,"Ġinfections":9775,"ä¸İæĹ¶ä¿±è¿Ľ":9776,"Ġå¯¹":9777,"çļĦå®ŀæĸ½":9778,"çļĦæľºä¼ļ":9779,"é¢ł":9780,"è¿ĻæĹ¶":9781,"åħ¥æīĭ":9782,"Ġhost":9783,"æ°´çļĦ":9784,"äºĮçº§":9785,"èĪ±":9786,"abil":9787,"è¿ĳæľŁ":9788,"åĽĽå¤§":9789,"æ°Ķç®¡":9790,"åĽ½éĻħè´¸æĺĵ":9791,"èĳ¬":9792,"Ġcomplic":9793,"èĵ¬":9794,"æįŁå®³èµĶåģ¿":9795,"å®ıè§Ĥç»ıæµİ":9796,"ik":9797,"æľīæľŁå¾ĴåĪĳ":9798,"ä¸İåºĶçĶ¨":9799,"åĬ¨èĥ½":9800,"æķĻè®Ń":9801,"åĨħæł¸":9802,"è´¨çĸĳ":9803,"æĸ½è¡Į":9804,"æī¿åıĹ":9805,"ä¾µçķ¥":9806,"çĬ¯ç½ªå«Įçĸĳ":9807,"åįĬå¹´":9808,"Ġmemory":9809,"åħ¨éĿ¢å»ºè®¾ç¤¾ä¼ļä¸»ä¹īçİ°ä»£åĮĸ":9810,"Ġbiomark":9811,"int":9812,"Ġgran":9813,"amic":9814,"æķĻåŃ¦æĸ¹æ³ķ":9815,"ç»Ļåĩº":9816,"Ġcompos":9817,"Ġcontaining":9818,"çĨĶ":9819,"å¸®åĬ©åŃ¦çĶŁ":9820,"å¸ĿåĽ½ä¸»ä¹ī":9821,"Ġvolume":9822,"çļĦç¬¬ä¸Ģ":9823,"åľ¨å®ŀéĻħ":9824,"éĹª":9825,"ĠmM":9826,"Ġfood":9827,"åĨ³å®ļæĢ§":9828,"ä¸ŃåĽ½åħ±äº§åħļäºº":9829,"Ġrapid":9830,"æ¶¡":9831,"ĠTable":9832,"ç®¡çĲĨäººåĳĺ":9833,"æĶ¯æŁ±":9834,"æł¡éķ¿":9835,"åħ¨éĿ¢ä»İä¸¥":9836,"ç»¼ä¸Ĭ":9837,"éŁ©åĽ½":9838,"èĸªéħ¬":9839,"ipheral":9840,"ï¼Ļ":9841,"ä»£ä»·":9842,"éħ°":9843,"æĶ¶è´¹":9844,"Ġ21":9845,"å¤ªå¹³":9846,"åĮ»çĸĹæľºæŀĦ":9847,"Ġsubsequ":9848,"åįģä¹ĿæĿ¡":9849,"æ¾³å¤§åĪ©":9850,"ä¸Ńåįİä¼ĺç§Ģä¼łç»ŁæĸĩåĮĸ":9851,"Ġsl":9852,"Ġcognitive":9853,"å°ıç»ĵ":9854,"Ġpropor":9855,"å½±åĵįäºĨ":9856,"Ġalthough":9857,"Ġactive":9858,"åŃĺåľ¨äºİ":9859,"åĿļæĮģåĴĮåıĳå±ķ":9860,"é»ı":9861,"çģµéŃĤ":9862,"Ġlearning":9863,"æ¾³å¤§åĪ©äºļ":9864,"%),":9865,"çľł":9866,"ç»ĦçļĦ":9867,"æĹ¥åĨħ":9868,"è¯¾æĹ¶":9869,"ä»İèĢĮä½¿":9870,"åįģäºĶæĿ¡":9871,"Ġunderstanding":9872,"æī®æ¼Ķ":9873,"Ġdepend":9874,"ä»İä¸Ń":9875,"éļĻ":9876,"ä¸¤å¹´":9877,"å¾Īå®¹æĺĵ":9878,"èĢģé¾Ħ":9879,"åĽŃæŀĹ":9880,"Ġcharacterized":9881,"Ġprotocol":9882,"MR":9883,"by":9884,"ns":9885,"çļĦåĪĽæĸ°":9886,"æĥŁ":9887,"ç¡Ŀ":9888,"Ġelectr":9889,"åĨľåľº":9890,"åĽŀåĪ°":9891,"åĲĪåĲĮæ³ķ":9892,"çĲĨè§£åĴĮ":9893,"å»¶è¿Ł":9894,"Ġrecr":9895,"Ġsynthesis":9896,"çļĦäº§åĵģ":9897,"æµ©":9898,"è¿Ľåĩºåı£":9899,"åĪĨæķ°":9900,"éģı":9901,"æ¨¡ä»¿":9902,"å¤©æ°Ķ":9903,"å²Ń":9904,"åħ¼å®¹":9905,"çļĦä¸Ģä¸ªéĩįè¦ģ":9906,"çºµåĲĳ":9907,"Ġabsence":9908,"Ġcourse":9909,"gl":9910,"ä¼ļåĳĺ":9911,"estern":9912,"igg":9913,"åĲĦæ°ĳæĹı":9914,"ç²¤":9915,"å¸Ĥåľºä¸»ä½ĵ":9916,"æłĩåĩĨåĴĮ":9917,"çªĥ":9918,"Ġdispl":9919,"é£İéĻ©ç®¡çĲĨ":9920,"è§ĦèĮĥåĮĸ":9921,"ç»Ŀå¤§å¤ļæķ°":9922,"ä»ªå¼ı":9923,"eful":9924,"rup":9925,"ç»µ":9926,"Ġsurve":9927,"åŁºç¡Ģè®¾æĸ½å»ºè®¾":9928,"Ġguid":9929,"PU":9930,"rm":9931,"çļĦä¼łç»Ł":9932,"æ²ĥ":9933,"èĩªè´¸":9934,"ä¹Łåı¯èĥ½":9935,"å¹³ç¨³":9936,"æĿ¡ç¬¬":9937,"çİ¯å¢ĥä¸ĭ":9938,"æ¯ĴæĢ§":9939,"æĸ°åıĳå±ķçĲĨå¿µ":9940,"æŀģå¤§åľ°":9941,"Ġnerve":9942,"çļĦæ´»åĬ¨":9943,"çļĦèīºæľ¯":9944,"åĪ¶åĵģ":9945,"è¿ĻæĦıåĳ³çĿĢ":9946,"Ġmaterial":9947,"2023":9948,"æķĻå¸Īè¦ģ":9949,"åĮ»çĸĹä¿ĿéĻ©":9950,"æ··ä¹±":9951,"åįģä¸īäºĶ":9952,"è¶³å¤ŁçļĦ":9953,"ĈĆ":9954,"Ġ>":9955,"å¯¹ä¼ģä¸ļ":9956,"æŃ¤åĲİ":9957,"ç®¡çĲĨèĢħ":9958,"å·¥ä½ľä¼ļè®®":9959,"æ¬¡æķ°":9960,"éĢĤåº¦":9961,"æĶ¶åħ¥åĪĨéħį":9962,"CPU":9963,"ç¼Ķçº¦":9964,"çļĦæĥħå½¢":9965,"ï¼į":9966,"ulating":9967,"éĹ®é¢ĺä¸Ĭ":9968,"Ġalle":9969,"è¶³ä»¥":9970,"åıĪè¦ģ":9971,"ä¸įæĸŃå®ĮåĸĦ":9972,"åŁİå¸ĤçļĦ":9973,"æĵİ":9974,"å¯¼èĩ´äºĨ":9975,"åħĪè¿ĽçļĦ":9976,"adi":9977,"çĶ¨å·¥":9978,"ç»ıè´¸":9979,"omas":9980,"éĹ®é¢ĺæĺ¯":9981,"äº¤éĻħ":9982,"æĶ¶æĶ¯":9983,"äºĴéĢļ":9984,"åĽŀéģ¿":9985,"éŁ¦":9986,"èģĮä¸ļåŃ¦æł¡":9987,"åĬłå¿«æİ¨è¿Ľ":9988,"ancers":9989,"ç¥ŀç»ıç½ĳç»ľ":9990,"Ġremains":9991,"è¿Ńä»£":9992,"rh":9993,"åĪĨå±Ĥ":9994,"æĪĳåĽ½ç»ıæµİ":9995,"åħ»æĪĲ":9996,"è§ģçļĦ":9997,"çĽ®æłĩåĴĮ":9998,"Ġneu":9999}