#version: 0.2
ï ¼
ä ¸
ã Ģ
ï¼ Į
ä º
ç ļ
çļ Ħ
ãĢ Ĥ
æ ľ
å ı
å ħ
å ¹
ä »
å ¤
å ľ
å Ĳ
å Ī
å¹ ´
å ®
å Ľ
ç Ķ
ä ½
å į
æ Ĺ
å °
æ ĸ
ãĢ ģ
æ ĺ
ä ¹
è ¿
ç »
å Ń
æ Ī
åľ ¨
ä¸ Ģ
ï¼ Ī
ï¼ ī
ä¸ º
ä ¼
å ¸
å Ĭ
å Į
å Ĩ
æ Ŀ
è ¯
ä¸ Ń
å ·
æĺ ¯
ç ī
è ®
å ¾
åĽ ½
å ¼
å º
é ĩ
ç º
å¤ §
äº º
ç §
äº İ
å ±
å ĩ
æ ī
2 0
é ĥ
æľ ī
è ¡
é Ģ
å İ
è µ
å Ĵ
æ Ń
æľ Ī
å ¥
åĴ Į
å ½
é Ļ
è Ģ
ç İ
æ ķ
ç Ľ
æ Ķ
1 9
æĹ ¥
é ĺ
å ¯
æ ĭ
è ĩ
â Ģ
æ ł
åĲ İ
æ °
åŃ ¦
æ ²
æ ³
ç «
ä» ¥
æ µ
è §
å ĳ
äº Ĩ
ï¼ ļ
ç Ĳ
æĹ ¶
è ½
å ī
è ´
æĪ Ĳ
åľ °
è ¾
æĸ ¯
å Ł
é Ĺ
ä¸ Ĭ
æ Ģ
ç ¬
åĩ º
ä¼ ļ
ä» ĸ
æ ¯
çĶ Ł
ä¸ ª
æ ´
éĥ ¨
ãĢ ĭ
ãĢ Ĭ
é ķ
æ ŀ
æ Ľ
Â ·
æ ¸
ä¸ į
ä¸ İ
ä½ ľ
ä¹ ĭ
é Ŀ
ç¬ ¬
é ģ
è ĥ
æ Ĭ
åĲ į
åħ ¬
è¡ Į
å° Ķ
ä ¿
ä¸ »
å® ¶
åĮ º
è ¥
æ İ
ç ½
è¥ ¿
åħ ¶
åĪ Ĩ
è ¢
åı ĳ
é Ľ
åŃ Ĳ
å ¿
è ·
ç Ń
æ ±
æ ¬
æľ ¬
åĨ Ľ
å »
ç ¾
é ¦
çĶ ¨
åĪ °
å ĵ
è¢ «
å §
ä ¾
è ĭ
å¹ ¶
åį Ĺ
é ¢
è ģ
èĢ Į
é ©
éķ ¿
ä¸ ĭ
è ī
çī ¹
ç ľ
åı Ĭ
ç ±
çĶ ±
ä½ į
å¸ Ĥ
ä¸ ī
æ Į
20 1
ä¸ ľ
æĿ ¥
èµ Ľ
å¾ ·
æľ Ģ
åħ ĭ
åĲ Į
è İ
æ³ ķ
é «
åĮ Ĺ
éĩ Į
å¼ Ģ
æĸ ¹
åı ¯
å £
éģ ĵ
å¤ ļ
æ Ļ
å ²
é« ĺ
ç Ł
æĸ °
çĶ µ
ã ĥ
çī ©
äº ļ
ç ¥
åī į
å Ŀ
è¿ Ļ
èĩ ª
äº Į
åĳ ĺ
çĲ ĥ
åĬ ł
æĸ ĩ
20 0
å¯ ¹
åĬ ¨
ä» »
è· ¯
åĪ ©
è½ ¦
è Ī
ä¸ ĸ
è Ĭ
å± ±
å» º
å¾ Ĺ
ç¾ İ
å ¦
èĩ ³
ã ģ
åį ģ
æµ ·
æī Ģ
æ ¼
ç ©
å° ı
çİ °
ä» £
é ¡
åĽ ł
äº ĭ
é© ¬
æľ º
è Ĳ
æĪ ĺ
¦ ģ
éĹ ´
æĭ ī
åħ ¥
è¿ Ľ
åĨ ħ
éĺ Ł
ç ķ
ä¹ Ł
ç» ı
è °
ç Ī
é ļ
è¿ ĩ
ãĢ į
ãĢ Į
æķ Ļ
é ĵ
å¤ ©
åľ º
å° Ĩ
âĢ ľ
æŃ ¤
âĢ Ŀ
è ¶
è ¦ģ
è Ĥ
åĲ Ī
çŃ ī
æĶ ¿
ç Ļ
åı °
å· ¥
çº ¿
å¹ ³
ä½ ĵ
ç ¤
å· ŀ
æľ Ł
çİ ĭ
èĥ ½
çĲ Ĩ
é £
æ ĥ
åĪ ¶
ç« Ļ
ä¸ ļ
éĢ ļ
æ¬ ¡
ã Ĥ
è® ¾
ç ®
ç« ĭ
æ¼ Ķ
å½ ĵ
å¤ ĸ
ç§ ĳ
æ° ĳ
æ Ħ
åº ¦
åĮ ĸ
ç½ Ĺ
ä½ Ĩ
å¸ ĥ
ç§ į
é Ł
éĿ ¢
ä½ ¿
å® ī
ï¼ī ï¼Į
åı ·
èģ Ķ
æ ı
1 0
èĢ ħ
å® ļ
ç ³
æ Ł
æ ģ
åħ ¨
ç§ °
ç ¼
åİ Ł
æ¯ Ķ
é »
åŁ İ
éĻ ¢
ç ¦
è¡ ¨
é Ĥ
éĩ į
ç ł
æ ¡
è¯ ¥
æĢ §
ï¼ Ľ
éĩ ĳ
ä¸ ¤
ç Ĥ
åı ¸
éĥ ½
å£ «
åİ ¿
ä¸Ģ ä¸ª
åĬ Ľ
æ į
åĽ Ľ
æĺ İ
å¥ ³
çĽ ¸
çľ ģ
æ° ´
æł ¼
é ħ
å¼ ı
å ¢
ç ģ
å½ ±
è į
åı ²
ç ¨
åŁ º
è ĳ
ç³ »
å ¡
åħ °
e r
æŃ £
å° ¼
å ŀ
ç± ³
çº ¦
éĺ ¿
çĽ ®
åħ ĥ
æ £
å ģ
ç» Ħ
èĭ ±
æ ®
è¾ ¾
ä¹ Ĳ
æķ °
èī ²
è¿ Ĳ
1 8
åĪ Ĺ
a n
æ² »
åħ ³
æ ¹
èµ ·
é¦ ĸ
ä¸Ń åĽ½
éĢ ī
å Ķ
0 0
æĪ ĸ
æĢ »
æĶ ¹
æŀ Ĺ
ç Ħ
ä» ¬
å ¨
è® ¡
é ¥
æī ĭ
åħ ±
åı £
å± ŀ
åİ Ĩ
ä» İ
å¿ ĥ
é ¾
æ¸ ¯
æ ¶
å¸ ¸
è§ Ĩ
è £
åĲ ĳ
å Ģ
é Ķ
æĿ ĳ
æ² ³
æĹ ł
1 2
æ ·
é ľ
o n
ç ´
äº §
å ł
éŁ ³
19 9
åī §
æ ¢
ä¹ ¦
å· ´
åį İ
å¦ Ĥ
äº ¤
æİ ¥
ç» Ł
ç» ĵ
æı Ĳ
éĽ Ĩ
çº §
çķ Į
åĵ ģ
i n
éĹ ¨
å¹ ¿
æ Ĵ
å¤ ª
çĦ ¶
åŀ ĭ
å ĭ
é Ĵ
è¯ Ń
èİ ·
æĽ ²
é ª
ä¿ Ŀ
ç± »
åį ¡
æĺ Ł
å¤ «
éĩ ı
äº Ķ
åı Ĥ
æĽ ¾
è¯ ´
å½ ¢
ç» ´
éĵ ģ
å® ŀ
è º
æł ¡
çĽ ´
ç ĭ
Ġ *
åĬ ¡
æ º
é¾ Ļ
åĮ ħ
åº ľ
å§ ĭ
æĦ ı
ç ĥ
é¦ Ļ
åĽ ¢
å° ±
ä¼ ł
ç¥ ŀ
æ± Ł
a r
1 1
æµ ģ
ç¾İ åĽ½
è Į
å¸ Ī
ä¸ ĩ
èº «
åı ¤
å² Ľ
åı Ĺ
åį ķ
ç¨ ĭ
å¯ ¼
çŁ ³
åħ¬ åı¸
ä¹ ī
åĽ ŀ
é ²
ç Ĺ
ç ı
çº ª
å¤§ åŃ¦
ç© º
è Ļ
å¥ ¥
çĤ ¹
åĪ Ļ
æ »
æ¸ ¸
ç® ¡
å· ²
æľ ¯
ç Ŀ
é¥ °
æĥ ħ
å¥ ĸ
å¤ Ħ
ä½į äºİ
é¢ Ĩ
èĳ Ĺ
è® ®
èĬ Ĥ
ç¤ ¾
e n
æľ Ŀ
å® ĺ
ç ¿
1 5
è Ħ
æĮ ĩ
ç ²
éĢ ł
çĶ °
äº ¬
åħ ī
ç Ĭ
è Ĵ
åº Ķ
ï¼ī ãĢĤ
å ĸ
è§ Ĵ
çĻ ½
åĩ »
çī ĩ
å¼ ł
æĪĲ ä¸º
éķ ĩ
å± ķ
çº ³
âĢ Ķ
å° ĳ
å¥ ¹
æĽ ´
åĪ «
å¤ ´
æĹ¥ æľ¬
åŃ Ĺ
äº Ľ
å ķ
èĭ ı
æŃ ¦
æ´ ²
ç ĸ
çł Ķ
ç¼ ĸ
åŃ £
ç¬¬ ä¸Ģ
ä¼ Ĭ
è® ¤
ä¿ ¡
è¿ ĺ
åı ĺ
ç ĵ
æ ĳ
æĿ İ
19 8
æ´ »
èģ Į
æ³ ¢
è½ ¬
åı ª
åĳ ½
Ġ (
è¿ ĳ
çī Ī
åħ µ
èµ Ħ
å± Ģ
æĮ ģ
å¸ ¦
åħ Ń
æŃ Į
åı ĸ
æī ĵ
åĳ ¨
æĻ ®
è¶ ³
ç ¡
é¦Ļ æ¸¯
åĽ ¾
é£ İ
o r
a l
çĪ ±
è¿ ŀ
åĲ Ħ
éĻ ħ
æĶ ¶
æ ¨
åĽ½ å®¶
å¼Ģ å§ĭ
çŁ ¥
å® ĥ
è ı
ä¸ ¾
åİ »
ä¸ ĵ
ä½¿ çĶ¨
è® °
åı Ī
æ² ¡
æĹ ı
è Ĺ
åı¯ ä»¥
åľ° åĮº
åĪ Ŀ
åľ £
æ¸ ħ
1 6
æ® µ
æį ®
è ±
æĶ ¯
å Ħ
äº ²
å§ Ķ
æł ĩ
å¸ Ŀ
ç ĳ
åħ Ī
ç© ¶
ç¦ ı
çļĦ ä¸Ģ
åĨ ³
æ° Ķ
ä¸ĸ çķĮ
éĿ ŀ
èĬ ±
å Ļ
éĺ ³
1 7
æĿ ¡
æĭ ¬
å® Ĺ
çłĶ ç©¶
åı į
åİĨ åı²
åº §
çĶµ å½±
è§ £
æĶ ¾
åĽ Ń
ç Į
ä¸» è¦ģ
åĪ Ľ
åĮħ æĭ¬
a t
åķ Ĩ
å¾ Ģ
åĨ į
ä» Ĭ
æŃ »
è¿Ľ è¡Į
Ġ S
åħ «
ç¦ »
æł ¹
åĦ ¿
Ġ -
æľ ª
æŀ Ħ
æŀ ľ
å¤ į
çĪ ¶
å® Į
æĪ ı
é¦ Ĩ
e s
å· Ŀ
æĴ Ń
çĶ »
æ ¥
é» Ħ
ä»¥ åıĬ
åĲ ī
å¡ Ķ
æ¯ į
åį «
æ´ Ľ
åĨ ł
è£ ħ
å¨ ģ
åĻ ¨
è® º
åĪ Ĵ
é ¸
åį ³
æ¬ §
ç¬¬ äºĮ
çĶµ è§Ĩ
æĬ ¥
è ħ
å½ ķ
ç½ ®
åį ļ
èĤ ²
è§ Ĥ
ç» Ī
2 1
èĲ ¥
åľ Ł
æ¹ ¾
å¥ ½
éĽ ·
ç¤ º
è¶ ħ
èİ· å¾Ĺ
è´ ¨
åħ¶ ä»ĸ
è§ ģ
éĥ¨ åĪĨ
éĢ Ł
èĲ ¨
å¼ º
é¡ ¹
ä¼ ¯
æķ ħ
ä»ĸ ä»¬
æ± ī
åį ĩ
æ¯ ı
å± ħ
é Ń
éļ ı
è¾ ¹
çļ ĩ
æ²¡ æľī
éĿ Ĵ
åĵ Ī
1 4
çĵ ¦
å¸ Į
ä¿ ®
ä» ¶
Ġ C
ç» Ļ
ç» Ń
ä» ¤
è° ĥ
çģ «
æĺ¯ ä¸Ģ
i s
æĬ ķ
çĹ ħ
åĬ Ł
è¾ ĥ
ä¸ ĥ
èī º
æº Ĳ
æľ ¨
éĻ Ĩ
ä¼ ¦
i c
ä¹ Ŀ
åŃ ĺ
åĬ ©
çĶ ·
æĶ »
é º
äº ¦
æ° ı
åĬ ŀ
åħ ·
æĿ ĥ
åĮ »
æ ļ
1 3
å® ¢
å² ģ
çŃ ĳ
æľ į
ä¸ Ķ
å¼ ķ
æĬ ¤
å ĥ
åŃ¦ éĻ¢
åħ ļ
19 7
19 5
é£ ŀ
äº ī
ä¾ ĭ
è® ¸
ç ª
åħ¶ ä¸Ń
å¾ Ī
èĥ ľ
å· ±
éħ į
é¢ ĺ
éĻ ¤
å® ¤
å¡ ŀ
Ġ ãĢĬ
èĪ ª
é² ģ
æĭ ħ
åĭ Ĵ
ï¼ į
2 2
å¿ Ĺ
åł Ĥ
æ´ ¾
è½¦ ç«Ļ
ä» ½
çľ Ł
çº ¢
çĶ ²
æ£ ®
è¯ º
åį ı
æĹ ©
çĶ± äºİ
åħ ´
æĬ Ģ
æ¹ ĸ
èĢ ģ
é£ Ł
æĿ Ģ
æ¡ ¥
åº Ħ
çİ ¯
3 0
æ² Ļ
éĻ Ī
æĪ ĳ
é» ĳ
å¥ ĩ
e l
è¯ Ħ
è¡ Ĺ
19 4
å¤ ĩ
çı Ń
è§ Ħ
çİ ĩ
å ĺ
äºº æ°ĳ
åĽ½ éĻħ
éĥ ¡
19 6
ï¼ī ãĢģ
éĤ £
èĩ ´
çĻ ¾
èİ ±
ä»ĸ çļĦ
ç ¢
æĶ¿ åºľ
åı Į
çĬ ¶
æŁ ¥
å± Ĥ
æī ĺ
æ Ĥ
åı ¦
è®¤ ä¸º
èĲ ½
ãĢĭ ï¼Ī
åŁ Ł
å¢ ĥ
ç§ ¯
ä¹ĭ åĲİ
ä¹ ¡
åĪ ĺ
è ¨
è¯ ķ
æł ·
Ġ M
åĽ ´
å® £
å® ¹
è¨ Ģ
æ ¦
ç» §
åĽł ä¸º
æĺ ĵ
åį °
çĽ Ł
æİ ¨
å¤ ±
ä¸Ń å¿ĥ
åĵ ¥
èĩª å·±
å»º çŃĳ
ä¸Ń çļĦ
æģ ©
æ¸¸ æĪı
åĩ Ĩ
åĽł æŃ¤
Ġ é¥°
æĻ ¯
2 5
éĻ Ĳ
æµ İ
å° Ħ
ä½ľ ä¸º
å¢ ŀ
æ· ±
éĩ İ
æĽ ¼
å§ Ĩ
å·¥ ä½ľ
i t
å¯ Ĩ
æ ½
æĦ Ł
ä¾ Ľ
å ´
åıĳ çİ°
åį Ĭ
æ³ķ åĽ½
çĻ »
è´ Ŀ
æ¨ ¡
æ ħ
é¡ ¿
å® «
æİ Ĵ
å ©
ä¹ĭ ä¸Ģ
æĸ ½
å£ °
ç¾ ¤
åī ¯
ç ħ
æ ¤
éĹ ®
äº ĳ
è®¾ è®¡
éĵģ è·¯
é ¹
åŃ¦ æł¡
åı¯ èĥ½
è´ ¥
æķ ´
æ¯Ķ èµĽ
ä¼ Ĺ
éŁ³ ä¹Ĳ
ç½ ĳ
åĿ ĩ
èĢ ĥ
ä½ ³
åĲĮ æĹ¶
çĭ ¬
ä½ľ åĵģ
åį ĥ
ç¥ ĸ
æ± Ĥ
åı ĭ
åŁ ĥ
åĥ ı
è¿ ª
å½ĵ æĹ¶
Ġ A
è¶ Ĭ
åĵ į
æ¥ ¼
åº ·
æ³ °
ä½ ı
ä¿ Ħ
æĭħ ä»»
é ±
å¾ ģ
å® ģ
i l
a m
ä¾ §
åĨł åĨĽ
éĺ ²
é± ¼
u s
å® Ī
åħ ¸
æĪ ¿
å¤ ı
è¿Ĳ åĬ¨
å§Ķ åĳĺ
èĭ± åĽ½
Ġ B
æĥ ³
åĳ Ĭ
åº ĵ
æŃ ¥
æĹ¶ éĹ´
è¯ ģ
çĥ Ń
è® ©
ä¸ ½
ä½ ķ
ç´ ¢
ä»£ è¡¨
å± Ĭ
å¯ Ł
æİ Ī
2 3
è± ¡
ç§° ä¸º
çķ Ļ
éĩ ĩ
æī į
æ´ ĭ
æĸ Ļ
æ ¾
åĨ Ļ
æŃ ¢
èĪ °
æķ Ī
o l
è¶³ çĲĥ
è´ ¹
åı° æ¹¾
çī Ļ
åĶ ±
çĳ ŀ
èĮ ĥ
å¸ Ń
éĵ ¶
é ½
éĢļ è¿ĩ
æ¸ ©
éľ Ģ
ç´ ł
ä¸ĸ çºª
çľ ĭ
ç» ĩ
åį ł
çĿ Ģ
Ġ P
è Ľ
ç« ł
éĥ İ
a s
ç® Ģ
ä¾ ¿
å· ¦
çĽ ĳ
æ¡ Ī
ç» Ĩ
åĺ ī
å¼ Ł
æĪĲ ç«ĭ
æŀ ģ
çĶ º
åıĳ å±ķ
ä¸ ģ
å® Ŀ
ä½ Ľ
éĻ į
c h
å° ģ
åł ¡
å±ŀ äºİ
åı ¶
éĻ Ħ
æĪ ·
è¯ Ŀ
ç³» ç»Ł
æĿ ¾
æī ¿
æ° ¸
èģĶ èµĽ
æľĢ åĲİ
èĴ Ļ
ä¸į åĲĮ
ä» į
çī Į
ä¸ ¹
çĿ £
ä¹ Į
åĶ Ĳ
å¹ ²
åİ ħ
è¯ į
âĢĿ ãĢĤ
r e
ç Ĩ
è¿ ľ
è½ ½
å¯ Į
åĩ ł
æµ ĭ
åĪ¶ ä½ľ
ä½ İ
æĶ¿ æ²»
ãĢ Ģ
åı ³
ä» ħ
è¿ °
ç² ¾
å ³
ç¤ ¼
ä» ·
äºº åı£
æĸĩ åĮĸ
åĲİ æĿ¥
ä½ Ļ
è´ Ł
èĪ ¹
Ġ 201
æĿ ¯
æĢ ģ
2 8
ç§ »
åº Ĺ
Ġ T
å¹´ çļĦ
æĬ Ĭ
åĩº çİ°
å¿ µ
éļ Ĩ
å¯ º
å·¥ ç¨ĭ
2 4
æ³ ¨
æĭ ¿
åħ¬ éĩĮ
å¾ ĭ
éĢ Ģ
éħ Ĵ
åĲį ä¸º
ç¬¬ ä¸ī
èĹ ı
e t
åģ ľ
æĹ ħ
æĺ ¾
ç®¡ çĲĨ
ç¡ ®
æ» ¡
åº ķ
æĺ ¥
èİ «
åĨ ľ
åº Ĩ
ä¹ ħ
æĢ Ŀ
å¼ Ĺ
æĿ °
ç» ĥ
è¿Ļ ä¸ª
æİ §
ãĢĭ ï¼Į
ç¥ ¨
å¹´ ä»£
æľŁ éĹ´
i on
å¼ ¹
çĲĥ éĺŁ
åĿ ¦
r o
æĸ Ĺ
h e
èµ °
æľ Ľ
19 3
éĽ Ħ
åĪ© äºļ
èĴ Ĥ
è½ ®
æŃ£ å¼ı
è´ £
è ľ
ãĢį ï¼Į
é¢ Ħ
æ¢ ħ
è¾ ĳ
ä¼ ĺ
æ ĵ
çļ ®
ç§ Ģ
æĹ §
æľĢ ç»Ī
ä¸Ĭ çļĦ
æī §
éģ Ĺ
æ¶ Ī
åĢ Ļ
å¿ «
åį ´
çŁ Ń
ä¹ĭ éĹ´
l e
å° ¾
éª Į
Ġ L
å° ļ
è¿Ļ äºĽ
å½± åĵį
ä¹Ł æĺ¯
ç¤¾ ä¼ļ
èį ī
æ Ĳ
å» ¶
çł ´
èī ¾
çģ µ
Ġ 200
èį ¯
åıĤ åĬł
èį £
æī ¹
æ¾ ³
åıĳ çĶŁ
éº ¦
æīĢ æľī
åŃ Ļ
ç ¯
è° ·
å½ ¹
ãĢĭ ãĢģ
ä¼ ¼
è¡ Ģ
è¿Ľ åħ¥
æł ĳ
çħ §
çİ Ľ
èĬĤ çĽ®
çļĦ ä¸Ģä¸ª
u r
æł¹ æį®
äºº çļĦ
è ĵ
åŁİ å¸Ĥ
è Ń
æ² ¹
ç»ı æµİ
âĢĿ ï¼Į
Ġ H
è®¡ åĪĴ
å¤ ®
åĲ «
ä¸ ´
å¤§ çļĦ
æĿ ¨
åĮĹ äº¬
2 6
æĻ ĭ
å§Ķåĳĺ ä¼ļ
ç½Ĺ æĸ¯
Ġ R
äºº çī©
èĥ Į
ç»Ħ ç»ĩ
æľ Ĺ
é ¼
èŃ ¦
é¡ º
å¾· åĽ½
ä¸Ĭ æµ·
åĨ µ
å½ Ĵ
ç« ¯
éĺ µ
åģ ļ
è¯ ·
éĽ ħ
éĤ ¦
æĸ Ń
ä¼ ¤
çª ģ
èĢ ¶
5 0
äº ¡
æĹ¶ æľŁ
ä¾ Ŀ
æģ ¯
åĸ ľ
å°¼ äºļ
ãĢį ãĢĤ
æĳ ©
æ´ ¥
é ³
æ¤ į
èĤ ¡
æķĻ èĤ²
æľĢ ä½³
åħ± åĴĮ
èı ²
å¼ Ĥ
æĳ Ħ
åº Ń
å® ĭ
éļ ¾
åį ¢
éĹ »
çĶŁ æ´»
èĻ ½
2 7
ä¸¤ ä¸ª
æĭ ¥
æĬĢ æľ¯
æĪĲ åĳĺ
Ġ G
ç® Ĺ
éŁ ©
åİ Ĥ
æľ «
åŃ¦ å®¶
è¡Į æĶ¿
åĲ ´
åĩº çīĪ
æľī ä¸Ģ
201 0
åĬ ¿
åĪ ĩ
ãĥ ¼
ç³» åĪĹ
20 19
åıĳ è¡Į
è¯ »
æıĲ ä¾Ľ
éĿ¢ ç§¯
èĪ ¬
o m
ãĥ »
ãĢĭãĢģ ãĢĬ
æŀ ¶
ä¸Ń å¤®
æ¼Ķ åĳĺ
u n
åİ ĭ
èī ¯
åĪĹ è½¦
é¡ ¶
ä» ĭ
äºĮ åįģ
èīº æľ¯
âĢĶ âĢĶ
Ġ D
å·² ç»ı
è¾ ĸ
ä¹ ł
æ¯ Ľ
æį ¢
æ´» åĬ¨
æ² ¿
æ ¿
ãģ ®
æĪĺ äºī
æĸ¯ çī¹
Ġ F
èµ «
éª ¨
éĿ ©
è¡¨ ç¤º
éĴ Ł
ä¸ °
è®¸ å¤ļ
å© ļ
è¯ Ĺ
äºĨ ä¸Ģ
èĩ £
èĭ ¥
æ¬§ æ´²
å² ¸
åħ »
çĶŁ å¹³
éĽĨ åĽ¢
a c
è½ »
ç ĩ
ä¸» ä¹ī
ä½Ĩ æĺ¯
é¸ Ł
éĩį è¦ģ
åħ±åĴĮ åĽ½
2 9
ä¸» æķĻ
è´ µ
å² ©
åĶ ®
è¯ Ĩ
æľ ±
å¿ ħ
ä¸º äºĨ
è¿ ½
20 20
æĿ ¿
å®Į æĪĲ
in g
æķħ äºĭ
æ¢ ģ
ä¿Ŀ æĬ¤
00 0
æ¯ ķ
åĪ° äºĨ
åħ³ ç³»
æ¯ Ĵ
æĻ ļ
ä½ Ĳ
ç» Ŀ
åĩº çĶŁ
æľį åĬ¡
èģĶ çĽŁ
è¯ ĳ
åĢ ¼
201 6
201 2
éĢ ģ
å¸ ķ
æľī éĻĲ
çº ½
çĪ µ
æĺ ł
o f
åĲ ¯
æĭ į
é½ Ĳ
çĽ ĸ
åįģ äºĮ
ç £
å± ĭ
çĽ® åīį
æĬ Ĺ
201 3
éļ ¶
æĪĲ åĬŁ
åħ ¹
åīį å¾Ģ
å¾ ¡
éª ĳ
201 1
æł ¸
d e
äº ķ
è§Ĵ èī²
åħ ¼
å Ĥ
201 4
æĿ Ł
åĨ³ å®ļ
201 7
èĪ ŀ
åĸ Ħ
åĪĨ å¸ĥ
201 5
ä¹ ĺ
å¨ ľ
çļĦ äºº
æĹ Ĺ
èĥ ¡
éħ ¸
201 8
æ³ ½
ä»ĸ åľ¨
æĭ¥ æľī
ç»Ħ æĪĲ
è ŀ
åį ·
o s
ç»ĵ æŀĦ
åĪĨ åĪ«
åħ¨ åĽ½
çİ ī
åĩ ¯
ä¸¾ è¡Į
åĨ ²
200 9
200 8
± ä¹Ĳ
äº¤ éĢļ
éŃ Ķ
ä» ģ
èģĶ åĲĪ
çł ģ
åĲ Ľ
å¸Ĥ éķĩ
èĻ½ çĦ¶
è¿ ģ
ï¼ī ï¼ļ
æĿ Ĥ
å¾ ®
çķ ¥
çİ ©
éĢļ å¸¸
åı· çº¿
çļĦ åľ°
an d
èĪª ç©º
è® Ń
éĢ Ĳ
åĬł åħ¥
æķ £
è ĸ
âĢ ĵ
ç¿ °
ä¸ ¥
é» İ
è½ ¨
åıĤ ä¸İ
æĺ Į
éĹ® é¢ĺ
å® ¾
é¡ »
4 0
åĪ ¤
çĪ¶ äº²
å¦ »
å¤ º
çī Ľ
åĬ¨ çī©
éľĢ è¦ģ
æĻ º
æĺ¯ åľ¨
åį° åº¦
åĮĹ éĥ¨
å° ½
åĪ º
äº ¿
éĶ ¦
æ² ĥ
ä¿Ħ ç½Ĺæĸ¯
åħ Ħ
å»º ç«ĭ
å¤ ľ
åŃĺ åľ¨
200 7
20 21
å®£ å¸ĥ
æľĢ é«ĺ
æĿ ľ
çļĦ å¤§
ä¹ Ķ
æ¶ ¯
å°Ĩ åĨĽ
ä¸Ń åįİ
ãĥ ³
è¡ ¥
å® ĩ
å½ĵ åľ°
200 6
ä» Ģ
æĹ¶ ä»£
çŃ ¾
å¹¶ ä¸Ķ
æĿ¥ èĩª
ç§ĳ åŃ¦
r a
åĲĮ å¹´
ç± į
åĬ ³
19 0
Ġ I
èĥ ŀ
èģ ļ
æĿ Ĳ
æķ Į
çĶ¨ äºİ
æķ ĳ
éĺ ¶
è¾ ĵ
æŀ ª
å¹³ æĸ¹
åľ Ĩ
çĭ¬ ç«ĭ
ä» ª
å¼Ģ åıĳ
çĶŁ äº§
éĻ ©
èİ ī
è· Ŀ
æº ª
ä¼ ģ
æ¬ ¢
éŃ ı
éģ Ń
æ£ Ģ
å· ¨
é¢ ĳ
é¡¹ çĽ®
æĭ ľ
é¦ĸ æ¬¡
éĥ ĳ
çŃ ĸ
åħ į
ä¸Ģ èĪ¬
çĽ Ľ
æĸ¹ éĿ¢
çľ ¼
Ġ W
ä¸ Ŀ
å· ®
çĶŁ æ¶¯
r i
ç« ¥
åħ· æľī
åħ¬ åĽŃ
éĶ Ģ
è ª
èĹ ¤
æł¼ åħ°
åŃ¦ çĶŁ
æĮ ī
Ġ of
çĸ Ĺ
å½¢ æĪĲ
è´ Ń
æĮ ¥
ç» ©
è´Ł è´£
é© »
ç½Ĺ é©¬
è´ ¢
è° ¢
å» ·
æŃĮ æĽ²
æµ· åĨĽ
èµ µ
Ġ E
å°ı è¯´
åº ı
äº Ī
ä¸Ģ äºĽ
éĽ ª
ãĢĭ ãĢĤ
æİ ¢
å ª
çĥ Ī
éĢ Ķ
èĵ Ŀ
çĶŁ çī©
è¯ ¸
å· ¡
åįķ ä½į
å¯¼ èĩ´
çĽ¸ åħ³
çĲĥ åĳĺ
åĨ³ èµĽ
çĪ Ĩ
è´ §
èį ·
äº§ çĶŁ
åģ ĩ
åįĹ éĥ¨
éĩĩ çĶ¨
è¥¿ äºļ
èģĮ ä¸ļ
ç« ¹
ä¸ĵ è¾ĳ
å® ½
Ġ ï¼Ī
æľīéĻĲ åħ¬åı¸
äºĭ ä»¶
åĿ Ģ
çī¹ åĪ«
æĸ¹ å¼ı
åĲĪ ä½ľ
6 0
å¹´ èĩ³
t er
æ· ·
æĥħ åĨµ
e d
Ġ ç¬¬
å® ³
çĦ¶ èĢĮ
å¿ ł
ç»ĵ æĿŁ
ç½ ²
æľº è½¦
åĩ ı
æ¦ Ĥ
è® ²
åĨ Ī
åĪ »
å¹¶ åľ¨
ä½ ł
ç§ ĺ
å¸Ŀ åĽ½
éģ ĩ
è®¾ æľī
ä¼ ĳ
) ï¼Į
å³ °
éĩ Ĭ
æ¬ ¾
åħ¬ è·¯
Ġ N
10 0
å¥ ı
ä¾ĭ å¦Ĥ
a d
è¿Ļ ç§į
æ® ¿
20 22
åº Ł
éĤ »
æ¯ķ ä¸ļ
å¤§ åĪ©
æ¼ «
éľ į
æīĢ ä»¥
è· Ł
Ð °
æı ı
çļĦ æĺ¯
i a
ä¾ ¯
æ³ ī
å¸ ®
ç§ ĭ
ä¸ª äºº
200 5
äº Ĵ
Ġ K
çĶ ļ
éŁ ¦
è Ķ
é¥° æ¼Ķ
åıĸ å¾Ĺ
å «
u l
æľº åľº
åģ ¥
æ£ Ĵ
æķ ¦
èĩªå·± çļĦ
éĻĦ è¿ĳ
ä¸Ń åŃ¦
è§ ī
ç»ı è¿ĩ
ç» ¿
åıĹ åĪ°
çİ° åľ¨
æĶ¯ æĮģ
å»º è®¾
ä¸į è¿ĩ
çĮ ®
ä¸ī å¹´
200 0
åĿ ¡
3 1
çĹ ĩ
ç¾ ½
ç© Ĩ
åĲ ¸
æİ§ åĪ¶
æĺ¯ ä¸Ģä¸ª
æĽ ¿
éľ ²
ä½ĵ èĤ²
åħĭ æĸ¯
å¯¼ æ¼Ķ
å° º
t h
è Ĩ
ä¼ļ è®®
ç« ŀ
æī ¾
ï¼ļ âĢľ
æľº æŀĦ
å¤§ éĻĨ
æ¨ ª
çĲ ´
é Ĩ
éĢ Ĥ
èµĽ åŃ£
å°± æĺ¯
éĺ¿ å°Ķ
ä½ ©
åĽ½ çİĭ
è¿Ļ ä¸Ģ
äºº åĳĺ
åŃ ©
åº Ļ
åĲĪ å¹¶
æĹł æ³ķ
èĳĹ åĲį
éĵ¶ è¡Į
a y
èª ī
å¥ Ī
å¦ ¹
ä¸Ģ çĽ´
åħ ħ
è¾ Ĩ
éĢ ĥ
æŁ ĵ
æĺ Ń
å®¶ æĹı
en t
ä¸Ģ èµ·
åıª æľī
å¹ ķ
ç¯ ĩ
å¾ Ħ
æ¢ ¦
æ¤į çī©
å® ¡
s t
ç»Ĩ èĥŀ
éĿŀ å¸¸
å·¥ ä¸ļ
ç© ¿
8 0
ä½į ç½®
200 4
å¾ Ĳ
çĽ ĺ
èµĽ äºĭ
å¹´ åº¦
èĦ ļ
æ¸ Ĳ
çĤ ®
éĢ ı
å¾Ĺ åĪ°
åī ĳ
éĻ µ
éĢł æĪĲ
åĽ º
ç»§ ç»Ń
åĮº åŁŁ
èĢ ³
è Ŀ
éĢī æĭ
çİ¯ å¢ĥ
è¿ĩ ç¨ĭ
æĿ¥ çļĦ
ä¼ł ç»Ł
æ£ ĭ
åĢ Ł
u m
i r
é¢ Ŀ
at ion
èĬ ¬
å¾ Ĵ
i g
æĢ Ģ
ç½ ª
åĨ °
é² ľ
æī ©
èĭı èģĶ
åįļ çī©
æŁ ı
æĥ ł
åĳ Ī
å¥ ī
ç¿ ¼
æ´ ª
Ġ t
æ¼Ķ åĩº
èĮ ¨
å¥³ åŃĲ
ä¹ ±
éĴ ±
ç»ĵ æŀľ
çģ Ń
å¢ŀ åĬł
åįģ ä¸Ģ
å¤ Ł
åı¦ å¤ĸ
æĺ¯ çĶ±
èĩª çĶ±
ä¹ĭ åīį
å¢ ĵ
ç¬¬ åĽĽ
æı ´
ãĢĤ âĢĿ
ä¸» å¸Ń
åĪ ļ
å¹´ éĹ´
å®¶ åºŃ
æĪ ´
ä»¥ ä¸ĭ
æ¿ Ģ
éģĵ è·¯
åĶ ¯
è¾ Ľ
äºİ æĺ¯
åĮ» éĻ¢
éĿ ł
æĸ° éĹ»
ç§ ģ
è¦ģ æ±Ĥ
åª Ĵ
æŁ Ĳ
æ¯ «
äº ®
ãĢį ï¼Ī
ï ½
è¶ħ è¿ĩ
å¯¹ äºİ
æļ ´
ç¼ ĺ
æķĻ æİĪ
ç¼ º
è¥¿ çıŃ
åı¦ ä¸Ģ
è¡ £
è¢ Ń
çº¦ ç¿°
i d
çºª å¿µ
è¿ Ķ
è¥¿çıŃ çīĻ
ãĢ ı
æŃ¤ å¤ĸ
ãĢ İ
éķ ľ
¤ Ĳ
ä¾ į
å¦Ĥ æŀľ
i m
æ± ł
åĿ Ĺ
æµ Ļ
ä¹ Ļ
çĽ Ĭ
èµ ŀ
çļ Ĩ
åŃ Ķ
éĽ ¨
ä¸ľ äº¬
åĦ¿ åŃĲ
ä» Ļ
å° ¤
ç§ ¦
èĦ ±
èĪ į
éĥ¨ éĺŁ
åĩº çļĦ
o t
åĲį ç§°
Ð ¾
èĻ İ
èĤ ī
é«ĺ éĢŁ
éĩį æĸ°
åĪĨ ä¸º
æĮĩ æĮ¥
9 0
æİ¥ åıĹ
åıį åºĶ
è¿Ľ å£«
åįļçī© é¦Ĩ
æģ ¶
åĽĽ å¹´
7 0
æĢ» ç»Ł
ä¹ İ
åİ» ä¸ĸ
Ġ 199
æ¦ ľ
èĮĥ åĽ´
åĲ ¬
èħ Ĭ
èĥ½ åĬĽ
çŁ ¿
æĶ¹ ä¸º
çİ° ä»£
a g
ä¸ľ åĮĹ
200 3
ä¿ ±ä¹Ĳ
æ» ¨
æĽ ¹
éľ ĩ
åľ° æĸ¹
å§ ĵ
ä»» ä½ķ
ä¿±ä¹Ĳ éĥ¨
èµ ı
è® ¨
èĽ ĭ
æ´ ŀ
æĪĺ æĸĹ
çĶµè§Ĩ åī§
é¡ ¾
è° ĭ
ç ¦ģ
Ġ J
èı Į
3 5
çºª å½ķ
åĪĽ ä½ľ
çĶ ĺ
èŀ į
çĽ´ åĪ°
æį ķ
æ¡ ĳ
å¢ ¨
âĢ ¦
åĨħ çļĦ
èĤ ¯
ä¼ģ ä¸ļ
è¡¨ çİ°
æĵ į
å¯ ¿
ä¸ľ åįĹ
åĨĽ éĺŁ
éĴ ¢
éĻ¤ äºĨ
æĪĲ ç»©
åĨħ å®¹
ç¿ »
æ¯ ģ
3 7
ç» į
æµ ¦
åįı ä¼ļ
æĢ ¥
è ķ
åĲİ çļĦ
å¾ ħ
éĢīæĭ ©
æĪ Ī
åĪ Ĭ
åĨĽ äºĭ
è¿ ¹
çĶµè§Ĩ åı°
å» ī
ç» ¼
åĩ» è´¥
è® ¿
åĪ© çĶ¨
å°ı æĹ¶
åĨ ·
å®ĥ ä»¬
é¢ ģ
èĩª çĦ¶
å¸ ģ
ï½ ŀ
è ¸
ä¸» é¢ĺ
äººæ°ĳ åħ±åĴĮåĽ½
çīĪ æľ¬
ä¸» æĮģ
è¯ ¾
èĻ «
è¯Ń è¨Ģ
å°Ķ æĸ¯
å¹ ¸
è¿ĲåĬ¨ åĳĺ
æĢ§ çļĦ
äºļ æ´²
æĭ Ľ
éĢī ä¸¾
æĸĩ åŃ¦
éĢ Ŀ
æĭį æĳĦ
æ¯į äº²
ä½ľ çĶ¨
é½ ¿
å½ ©
æļ Ĺ
éº »
çı ł
æ± ĩ
åĳ ³
æĹ ĭ
åĨį æ¬¡
ï¼ļ ãĢĮ
åĪ¶ éĢł
å¥¹ çļĦ
çº¿ è·¯
æ± ½
i v
åŁ ¹
äºº ç±»
çĶµ åŃĲ
éĥ½ æĺ¯
èİ İ
çĶ ³
åĩ ¤
ç Ĵ
åĬ ª
æĹ¥ åľ¨
æĦı å¤§åĪ©
æłĩ åĩĨ
éĺ ´
åĿ ļ
æľī åħ³
ä¾ µ
å¯ »
æĸ¹ æ³ķ
è¿ İ
æ® ĸ
u t
æ¶ ²
å¹¶ ä¸į
ä¹Ł æľī
è¾ ħ
ç» ľ
åī Ĥ
4 7
é» ĺ
Ċ Ġ
æģ Ĳ
æĺ¯ä¸Ģ ç§į
200 2
èģĶ éĤ¦
åħ± åĲĮ
æ¸ ¡
å¹¿ ä¸ľ
4 8
é ¬
ãĤ ¹
çĳ Ł
éļı åĲİ
o p
çļĦ æĹ¶
éļ Ķ
å¹´ åľ¨
ä¸» è§Ĵ
æµĻ æ±Ł
çī© ç§į
ä¸ī åįģ
æĬ µ
æĤ £
åĪ ĳ
4 6
æī ¬
éħį éŁ³
åĮ ¹
æĴ ¤
4 5
é³ į
æģ Ĵ
æĸ° çļĦ
å®Į åħ¨
è¥¿ åįĹ
éĩĮ æĸ¯
Ġ Ð
è¿ ·
èµ ¢
åį ±
åĨ ¬
æĶ» åĩ»
åĬ¨ çĶ»
å¤ª å¹³
è®¾ ç«ĭ
18 9
å¹ ¼
ï¼Į ãĢĬ
ï¼ Ł
èĳ £
éĿ Ļ
æ¥ ļ
åį Ī
æį Ł
Ġ O
e m
åįļ å£«
ä¸Ńåįİ äººæ°ĳåħ±åĴĮåĽ½
æĭī æĸ¯
åĳ ¼
åħĥ å¹´
o w
å® ľ
ä¸ĭ çļĦ
æ° §
çĬ ¯
èĳ ¡
ç±» ä¼¼
ä¹ Ī
å¸Ĥ åľº
çī¹ å¾ģ
æ½ ľ
å½ ¼
æķ° éĩı
è´ ¡
å´ ĩ
çĽ´ æİ¥
èĦ ī
æĽ¾ ç»ı
å±± ä¸ľ
æľĢ åĪĿ
çĤ ¸
åĬł æĭ¿
ç¾İ åħĥ
å®ŀ éªĮ
å¤§ éĩı
ä¹ °
ç¬ ¦
ç¦» å¼Ģ
è¿ĺ æľī
ä»» åĬ¡
æıĲ åĩº
å®ī åħ¨
æī İ
å¹¿ æĴŃ
åĮº çļĦ
æĦ ¿
Ġ V
å§ Ĳ
åŃ¦ ä¹ł
åĮħ åĲ«
Ġ å¤§
200 1
çİ© å®¶
æ» ĳ
e c
ä¸Ģ æ¬¡
äº ¨
ä¼ į
æŃ» äº¡
çº½ çº¦
ç» ĺ
Ð ¸
è¾ ½
å½¢ å¼ı
éĶ¦ æłĩ
æ²³ åįĹ
æĹ© æľŁ
åĵ ²
é¢Ĩ å¯¼
çļĦ å¥³
åĳ½ åĲį
è¿Ļ æĺ¯
ãģ Ħ
åĨ Į
ä¸ī ä¸ª
è± ª
Ġ d
åĭ ĩ
ä¸¾ åĬŀ
åı ¬
éŁ© åĽ½
8 5
åı «
éĵ ľ
è®¾ ç½®
è¥¿ åĮĹ
çĶļ èĩ³
å¾ ½
åŃ Ŀ
æ¨¡ å¼ı
å¹¶ äºİ
ä¸Ģ ç§į
åĭ ĭ
ä¼ Ł
åĲ ķ
ä¸ĵ ä¸ļ
äºĶ å¹´
å¿ħ é¡»
å´ İ
è¡Į åĬ¨
åħ± æľī
è½ ¯
ç¼ ©
è°ĥ æŁ¥
èĦ ĳ
æŁ ±
å¼ ĥ
çĽ Ĳ
ä¸į èĥ½
æ± ¤
æĪ ª
éģ ¿
å¸Į èħĬ
ç³ ĸ
åŁº ç¡
çī §
åľ° ä¸ĭ
è¥¿ éĥ¨
è·Ŀ ç¦»
æķ ı
æ¯« ç±³
èı ľ
å¹³ åĿĩ
æĴŃ åĩº
éĴ Ī
ï¼ ģ
æµ ª
è½¨ éģĵ
æĸ¯ åĿ¦
åĪĨ ç±»
o d
å·ŀ å¸Ĥ
è® ¢
è° Ī
äºĮ å¹´
è®° è½½
i e
åĮĸ åŃ¦
èĲ §
æķĻ åłĤ
æĬķ èµĦ
é¢ ľ
çĸ ĳ
o c
éĿĴ å¹´
çī ł
æģ ĭ
æŀ ļ
ç ¹
å¦ ĩ
åŁºç¡ Ģ
éĻ ¶
éĤ ®
æŃĮ æīĭ
åľ Ī
åĿ ı
è´ ¤
çĽ¸ å½ĵ
åķĨ ä¸ļ
éĽ ķ
ĠS t
å¦ ®
å¢ Ļ
åĶ¯ ä¸Ģ
ãĢ ī
åĲ ¦
è¯ ¯
il l
å¥ Ĺ
æ ©
ãĢ Ī
å° Ĭ
å±ħ æ°ĳ
éĺ »
çĲĨ è®º
éĥ Ń
åĬłæĭ¿ å¤§
à ¸
æĸĩ çī©
é£ŀ è¡Į
ï¼ ı
åĽĽ å·Ŀ
åĿ Ĳ
éĶ ¡
é¬ ¼
å¹¿ åľº
ãĥ «
è¢« ç§°ä¸º
è£ ģ
è¿ŀ ç»Ń
æĹ¶ çļĦ
ä¸Ģ æł·
è´ º
èĭ± æł¼åħ°
éļ¶ å±ŀäºİ
åľ° çĲĨ
ä» Ķ
ãĤ ¤
åĪĨ éĴŁ
å¸® åĬ©
æ½ ®
åħĦ å¼Ł
o u
åħ³ äºİ
æıı è¿°
Ġ Ġ
a p
åħ¶ åĲİ
é£ŀ æľº
åį ĸ
ä» ĵ
æİ Į
å¤ļ æķ°
ä¼ Ĳ
ä¸º P
ç¬¬ä¸Ģ æ¬¡
æĺ¾ ç¤º
æĸ¹ åĲĳ
æķ° æį®
æ¡ ĥ
è¶ħ çº§
è¯ ī
æļ Ĥ
åĲį åŃĹ
3 6
ä» ĺ
å® ¿
éĹ Ń
ä¹ĭéĹ´ çļĦ
èµ ¤
Ġé¥° æ¼Ķ
åįĹ äº¬
ä¸¤ äºº
éĻ ·
ç´ §
é© ±
éĥ¨ éķ¿
èĥ½ å¤Ł
ar d
äº «
æ² ī
å»º éĢł
è¿ «
Ð µ
æ³ Ľ
æŀ Ĳ
è£ Ĥ
æī§ è¡Į
è® ¯
èĲ Ħ
7 5
èĳ¡ èĲĦ
è¿ŀ æİ¥
é©¬ æĿ¥
èĢĮ ä¸Ķ
ä¸ ĺ
å¹ »
åįķ æĽ²
è¡Į ä¸º
ç¹ ģ
åī§ æĥħ
çģ °
é£İ æł¼
æĪĺ å½¹
ï¼ļ ãĢĬ
ä¹ ĥ
a v
çĶ· åŃĲ
è®¾ æĸ½
è· ¨
åĢ Ĵ
åıĳ å¸ĥ
è§Ħ åĪĴ
éĺ ģ
è®Ń ç»ĥ
ç¬ Ķ
ä½ľ æĽ²
ä¿ Ĺ
æ¼« çĶ»
æĭ Ķ
å® ª
ä¸» ä»»
å¤ª éĺ³
æĺ Ĩ
å®ŀ éĻħ
æĪĳ ä»¬
ä¸Ģ ä¸ĸ
çĩ ķ
åĲĦ ç§į
å¤© æ´¥
3 3
äº§ åĵģ
å¸Į æľĽ
199 9
æ² Ī
æĮ ¯
éĿ ĸ
åĿ ĳ
è§ ¦
åŁº çĿ£
åħ¨ çĲĥ
æĺ Ĥ
èµ ĸ
ç´ «
äºĮ ä¸ĸ
è· ĳ
äºĭ åĬ¡
å¤§ æĪĺ
er s
åħ¬ å¼Ģ
ç¥ Ń
åľ° éĵģ
å£ ¤
çļĩ å¸Ŀ
è£ Ķ
åĬŁ èĥ½
ä¸į æĺ¯
åľ¨ æŃ¤
çĨ Ļ
åľ° çĲĥ
æĢ ª
åİŁ åĽł
ä¸» æ¼Ķ
è®® ä¼ļ
ç©º éĹ´
æŁ ´
åıĳ è¡¨
åģ ı
çĸ «
éĢī æīĭ
ä¸ľ éĥ¨
åħŃ å¹´
æĺİ æľĿ
Ð ½
199 0
çĸ ¾
è´ ¸
è ļ
åªĴ ä½ĵ
æķ ¬
ä¸į ä¹ħ
é¢ Ĺ
ç§ Ł
çº ¹
éĶ ĭ
el l
éĢ Ĭ
åħ ½
çº ¯
a k
ä½ľ å®¶
o v
å¢ĥ åĨħ
199 8
æľĪ åı°
é¹ ¿
è¾ ŀ
çº ¸
åŃ¦ åĲį
èĳ ¬
ç¬¬ äºĶ
åħ¨ éĥ¨
æ²» çĸĹ
æİĴ åĲį
èĩª æ²»
çĽ¸ åĲĮ
èĴĻ åı¤
é ¤Ĳ
ä»ĸä»¬ çļĦ
ä»¥ æĿ¥
è´Ŀ å°Ķ
èµ¢ å¾Ĺ
ä»į çĦ¶
ç¤¾ åĮº
ä¼¦ æķ¦
åŁº æľ¬
å¾Ī å¤ļ
å®ļ çļĦ
ç´ ¯
çĲ ³
çı į
å£ ģ
è®¡ ç®Ĺ
æķĻ ç»ĥ
T he
æ°ĳ æĹı
æŁ ¯
éĵģ éģĵ
æĸ¯ ç§ĳ
ç¡ ¬
æ¼Ķ åĶ±
âĢĿ ï¼Ī
åıĪ ç§°
ç² ī
ä¸Ģ åĲį
ä¼ ¸
ä¼ ´
è· ³
çĲĥ ä¼ļ
ä¿ Ĭ
è¾¾ åĪ°
å¼ ĺ
ä¸įåĲĮ çļĦ
èĭ± è¯Ń
å»º äºİ
Ñ Ģ
ãĢĤ ãĢį
ç»Ł æ²»
3 8
ä¸º ä¸»
å¤© ä¸»æķĻ
è§ Ī
ç»¼ åĲĪ
Ġ de
ä¸ŃåĽ½ å¤§éĻĨ
çĮ İ
åŃ Ł
a b
æľ ĭ
çĤ İ
éļ ľ
çĬ ¹
èµ ł
çĥ §
æł ĸ
è¾ ī
ç»§ æī¿
èį£ èªī
åĩºçĶŁ äºİ
Ġ s
è´ ¾
åİ ļ
æģ ¢
Ñ ģ
æ¢ °
ä¼ ı
is t
åħĭ åħ°
å°½ ç®¡
å¦» åŃĲ
Ġ 198
å¤Ħ çĲĨ
åĪ Ģ
å±ŀ çļĦ
èĮ ¶
å¹´ åĲİ
çĦ¶ åĲİ
éĢŁ åº¦
åģ ¶
éļ Ĳ
ä¿¡ æģ¯
è¡Ĺ éģĵ
åŃ¦ ä½į
ä½Ĩ åľ¨
èĽ ĩ
æĶ¹ ç¼ĸ
å¼Ģ æĶ¾
è¿ Ī
æĻ ¶
5 5
æĹ ģ
é¾ Ħ
Ã ©
åĽ °
çĨ Ĭ
in e
çŃī äºº
ç¨ ³
å°ĳ å¹´
è¯Ħ ä»·
åıĺ åĮĸ
éĺ¿ æĭī
é¼ ĵ
æľĢ æĹ©
æ® ĭ
æį ·
åŁ Ķ
è° ±
ä½¿ å¾Ĺ
ä¸ļ åĬ¡
æħ ķ
åħ¬ åħ±
ä¸Ĭ æĺł
ç®Ģ ç§°
çī© çĲĨ
å·´ é»İ
éĶ Ļ
æ® Ĭ
çģ ¯
èĳ Ľ
ç»ı èĲ¥
ç»ı å¸¸
å® ħ
3 4
åĽŀ åĪ°
å¨ģ å»ī
199 7
èĥĮ æĻ¯
å Ĺ
çİĭ åĽ½
éĺ¶ æ®µ
èµĦ æĸĻ
èİ ²
18 8
çķ ª
ç¦ı å»º
æľĢ å¤§
ç® Ń
T C
æ°ĳ ä¸»
3 9
S t
ãģ Ĺ
ç¾¤ å²Ľ
æ¡ £
çļĦ å°ı
æŁ ³
éĢĿ ä¸ĸ
åĬŀ åħ¬
ä¸Ń æĸĩ
Ġ m
åİ ¦
c e
3 2
ä¸¥ éĩį
C h
ä¹ ³
æģ¢ å¤į
è½ ´
çİ Ħ
åĩº äºĨ
7 8
æ¯Ķ äºļ
åħ¬ å°º
çĩ ĥ
éĥ¨ éĹ¨
è¿Ĳ èĲ¥
åĽ¾ ä¹¦
é¢ĳ éģĵ
ä¼ °
è¡¨ æ¼Ķ
å¹¿ å·ŀ
çļĦ æĸ°
åıĳ åĬ¨
ç¾İ æ´²
å·¦ åı³
åĽ½ æ°ĳ
èį· åħ°
è¡ĮæĶ¿ åĮº
ĠC h
é ŀ
æĬ ĺ
èĢħ çļĦ
åĲ ĥ
å°Ķ å¾·
ãĥ Ī
éĻ ķ
æĮ ĳ
æĿ ī
çĮ ª
çº µ
éĶ¦æłĩ èµĽ
åŁº åľ°
å¤§ éĥ¨åĪĨ
æ¶ ī
æķ´ ä¸ª
è§Ħ æ¨¡
çĶŁ äºİ
æĬ ļ
çĽ® æłĩ
å®ĺ æĸ¹
èī² çļĦ
æµģ è¡Į
è®® åĳĺ
ç¯ ®
å°Ĩ åħ¶
æ± Ĺ
æĴ Ĵ
åŀ Ĵ
è¿Ļ æł·
èº« ä»½
çļĩ å®¶
ç¢ ĳ
éĽ ¶
åŃĲ çļĦ
I I
åĩ ¡
å¥ ´
çŃī åľ°
å¡ŀ å°Ķ
6 5
çĮ «
æ¶ ħ
éķ¿ çļĦ
ç¦ Ħ
èĭ Ĺ
ãĥ ©
èī ĩ
Ġ p
å¹´ èµ·
æĪĸ èĢħ
ç§ĳ æĬĢ
æķĻ åĮº
åĨ ¯
Ġ æĿİ
æ³ķ å¾ĭ
éĢĲ æ¸Ĳ
åĪĹ è¡¨
æľĢ å¤§çļĦ
Ġ c
éĤ Ģ
åħ¬ ä¸»
è ¦
å² Ń
åľŁ åľ°
ç¼ĸ çłģ
åį ¿
æľĿ é²ľ
åŃ¦ èĢħ
çĭ ±
æħ Ī
è¿Ĳ è¡Į
æ¾³ éĹ¨
ç»ı åİĨ
çļĦ ç¬¬
è½¦ è¾Ĩ
æĶ¿æ²» äººçī©
çĲĥ åľº
æĭ Ĩ
å±ħ ä½ı
æ±½ è½¦
é«ĺ çŃī
ç¬¬äºĮ æ¬¡
å¤§ çº¦
199 6
ç» ª
åĪĨ æŀĲ
çĹħ æ¯Ĵ
åĪĻ æĺ¯
åı Ľ
çļĦ ä¸»è¦ģ
æĿĤ å¿Ĺ
è¿ĩ åİ»
åı Ļ
ãĢį ãĢģ
çŃ Ķ
ä»¥ ä¸Ĭ
éĥ¨ ä»½
æ¯Ķ è¾ĥ
ç½ĳ ç»ľ
o g
èĽĭ çĻ½
æķĪ åĬĽ
ä»» åĳ½
åĴ ¸
al l
å¤ļ çļĦ
å¥³ æĢ§
è¢« è®¤ä¸º
èħ ¹
æĮģ ç»Ń
å° ĸ
è®° å½ķ
ä½ĵ çļĦ
ç¾ Ĭ
è¯ Ĭ
æĸ¯ çļĦ
ä¸į ä¼ļ
Ġt he
è¡ Ķ
è¿Ľ æĶ»
èĹ ©
èĻ ļ
æ² Ł
åĪĨå¸ĥ äºİ
åºĶ çĶ¨
è¡ ¡
åħĪ åĲİ
å¥ĸ é¡¹
å°ļ ä¹¦
æ½ ĺ
æĶ¹ åĪ¶
äº¤ æĺĵ
è´ ¯
ç¥ĸ çĪ¶
æħ ¢
æĹł çº¿
åŀĭ çļĦ
åįı åĬ©
éĿ© åĳ½
èī ĺ
ç ĺ
éĺŁ çļĦ
èİ·å¾Ĺ äºĨ
ç¥ ¥
è¿Ĳ è¾ĵ
é¥ ®
199 4
æĭ Ĵ
çģ ¾
æ±Ł èĭı
åıį å¯¹
åĶ± çīĩ
å¼ ±
ar t
åĬł åĿ¡
åħ ģ
è¯Ħ è®º
æŃ¦ åĻ¨
199 5
éĻĨ åĨĽ
å° ī
æĬ¥ åĳĬ
b er
å¹ ħ
å¾· éĩĮ
ï¼Į âĢľ
æ¡ Ĥ
æ³ķ éĻ¢
an g
èĶ ¡
çĽ Ĺ
ç»´ å°Ķ
å¤§ éģĵ
ãĥ ª
æĺİ æ²»
åĦ¿ ç«¥
è§£ æĶ¾
åľ ³
å»º æĪĲ
æĸ ĳ
ãĤ ¯
å¥¥ è¿Ĳ
n e
äºº ä»¬
ä¸Ń éĥ¨
çłĶç©¶ æīĢ
è¿ĺ æĺ¯
çĨ Ł
æľº ä¼ļ
å¹´ è½»
åĿ Ľ
è´ ŀ
Ġ U
ä½ľ æĪĺ
æĲ Ń
ç» ķ
å¥¥ æĸ¯
è®¾ å¤ĩ
p h
çļĦ é«ĺ
Â ł
è ©
åĩº ä»»
åı° åĮĹ
å®Ĺ æķĻ
æĻ® éĢļ
ãģ ĭ
åİ ĺ
ãĤ ¢
æĥ Ĭ
åı Ķ
å°ı åŃ¦
æĿ¥ æºĲ
4 9
åĲĮ æł·
æ §
æĸ° åĬłåĿ¡
é©¬æĿ¥ è¥¿äºļ
çĹ Ľ
å¤§ èĩ£
åĬł çĽŁ
åĨľ ä¸ļ
çļĦ åīį
åİŁ æľ¬
æĿĲ æĸĻ
ãģ ª
ç»ĵ å©ļ
å½± çīĩ
é© ¶
ï¼ī ï¼Ī
ä¿Ŀ æĮģ
ç¨ İ
åĪĿ æľŁ
Ġ f
èĳĹ ä½ľ
an t
Ġ åľ¨
èĬ Ŀ
çº ²
è·¯ æĺĵ
èµĦ æł¼
åı¸ ä»¤
çīł ä»¬
è© ¹
æĴ ŀ
åľ°åĮº çļĦ
åı¸ é©¬
æĿ¡ ä»¶
â Ĩ
åĽ¢ ä½ĵ
ç² Ĵ
éģ £
es t
åħ¬ å¸ĥ
çĥ Ł
åĸľ æ¬¢
çİĭ æľĿ
æľĭ åıĭ
199 2
è´¸ æĺĵ
ï¼ī ï¼Ľ
198 0
I N
ä¸Ģ ä½į
æľ¬ ç«Ļ
æķĻ ä¼ļ
è¯ ļ
åıĳ å°Ħ
æ¹ĸ åįĹ
å¼ķ èµ·
199 3
åĤ ¨
Ð¾ Ð
çĬ¶ æĢģ
ãĤ ĵ
åŁİ åĮº
æľī çļĦ
èĭ ¦
æ¢ ¯
åıĤ èµĽ
èº« ä½ĵ
ä¸ĥ å¹´
éģ Ĥ
å¹´ è¢«
ãĥ ĥ
7 6
ä¹ ¾
æīĢ åľ¨
ãģ ¨
åį¡ å°Ķ
æľī æĹ¶
18 6
é© ¾
æİ¨ åĩº
èĬ ³
ãģ Ł
U TC
å¤§ ä¼ļ
åĲį åįķ
æĹħ æ¸¸
èĩª åĬ¨
äº¤ æµģ
çļĦä¸Ģ ç§į
ic h
éħĴ åºĹ
æľº æ¢°
åĩł ä¹İ
æĶ¶ å½ķ
é¢Ĩ åŁŁ
4 4
æ¯ĶèµĽ ä¸Ń
8 2
åı ¥
è§Ĥ ä¼Ĺ
æµ ®
ç ŀ
æ· ¡
çĶµ åĬĽ
éģĹ åĿĢ
æĶ¹ åıĺ
æĽ¾ åľ¨
å¹³æĸ¹ ç±³
èĮ Ĥ
æ¾³ å¤§
å¥½ çļĦ
ä¸Ģ å¹´
æ£® æŀĹ
é ī
ç¬¬ åįģ
T V
èĭ± éĽĦ
å®ĥ çļĦ
åıĸ ä»£
ä¹Ŀ å¹´
ç»Ħ åĲĪ
äºĳ åįĹ
æĶ¿ çŃĸ
åĿ Ĭ
Ġ 2
æİ ī
ç¬ ĳ
è¦ Ĩ
. .
ãĢĤ ï¼Ī
199 1
åĢ į
æŃ¤ åĲİ
èĭ± æĸĩ
å½ ¦
å³ ¡
çĥŃ å¸¦
ç®Ģ ä»ĭ
èµ Ĳ
èµĦ æºĲ
å¤ªå¹³ æ´ĭ
u b
å¾¡ åı²
çī µ
åĮĸ çŁ³
å»º è®®
éģ į
æĺ¯ ä¸ŃåĽ½
ãĢĤ ãĢĬ
i p
ä¹Į åħĭåħ°
åº Ĭ
å±± è¥¿
å¹³ åı°
åħ« å¹´
å¤« äºº
éĿ¢ çļĦ
i an
æµ ©
5 00
èĥ ¶
çľģ ä»½
ç»´ äºļ
å¤ļ æ¬¡
æµ ħ
Ġ 1
åĨħ éĥ¨
éĥ½ ä¼ļ
é¸ ¡
è·¯ çº¿
éĻķ è¥¿
å´ Ķ
å¨ģ å°Ķ
195 0
æ³ķ åħ°
å¿« éĢŁ
ä¿ ĥ
èĩ³ ä»Ĭ
æĸ¯ åŁº
åħ¬ åħĥ
éĤ ĵ
å¤§ åŀĭ
20 23
å¹¶ åħ¥
è¶Ĭ åįĹ
äºĨ ä¸Ģä¸ª
å¹³æĸ¹ åħ¬éĩĮ
éĶ ®
åįģ åĪĨ
ç»´ å¥ĩ
éĩįè¦ģ çļĦ
å½ Ń
åħ¥ åı£
ãĢįãĢģ ãĢĮ
åĽ½å®¶ éĺŁ
æĭ ĵ
çļĦä¸Ģ éĥ¨åĪĨ
ä¾ ł
å² ³
ä¸ľ è¥¿
æ¾³å¤§ åĪ©äºļ
åĩı å°ĳ
ä¼ł è¯´
å¦ ĥ
åĩĨ å¤ĩ
åľ¨ è¿Ļ
ç½ ķ
æŀ ¢
Ġ ãĢĤ
ç¾İ æľ¯
è¯ ŀ
å¨ ±ä¹Ĳ
åĮ» åŃ¦
å¡ ĺ
å¸¸ è§ģ
æ°§ åĮĸ
éĩį çĤ¹
r an
ç¼ĸ åī§
ä¹Ķ æ²»
çļĦ ä¸»
çī¹ æ®Ĭ
ä» ²
çĪĨ åıĳ
æĽ´ åĲįä¸º
æĭ Ł
åİ Ħ
Ð º
ä¸º ä¸Ģ
åĪº åı²
å¤© æĸĩ
æ¯ı å¹´
åĮº ä¸º
æĺ¯ æĮĩ
å¹¿ æ³Ľ
å·´ è¥¿
çĻ» åľº
äº Ń
ä¼¯ çī¹
ä¹¦ è®°
èĢĮ åľ¨
çļĦæĹ¶ åĢĻ
åĽ½ çļĦ
åĲį çļĦ
åĭ ¤
ç²¾ ç¥ŀ
ãĤ Ĭ
é«ĺ çº§
ä¹Ĳ åĽ¢
å·ŀ çļĦ
5 6
çĭ ®
çĵ ľ
æ·± åľ³
æĺŁ æľŁ
åŁº éĩĳ
é«ĺ ä¸Ń
çĵ¦ å°Ķ
åĭ ĥ
Ġ 3
æ³¢ åħ°
éĢı è¿ĩ
åĪĨ åŃĲ
å®ļ ä¹ī
é«ĺéĢŁ åħ¬è·¯
0 1
å¹´ åı·
å¤ļ ä¸ª
èĨ ľ
è¶ £
çŁ¥ éģĵ
4 2
çī© è´¨
æĥħåĨµ ä¸ĭ
es s
èĤ¡ ä»½
æĮĩ åĩº
æĿ Ń
å°¼ æĸ¯
å½ĵ ä¸Ń
ä¸ª æľĪ
åĩº æĪĺ
å½¼ å¾Ĺ
äºļ åİĨ
åĽ¾ä¹¦ é¦Ĩ
197 0
é¹ °
æİ¥ å£¤
æ±Ł è¥¿
ç£ ģ
ä»· åĢ¼
è¯ ¦
åį Ĵ
åį ĵ
å¯¹ æīĭ
a u
æ¬ ²
å½ °
en s
å® ı
æĮ Ĥ
ç§ Ĵ
ç©º åĨĽ
çĽ¸ å¯¹
æ³ ¥
æĶ¹åĪ¶ ä¸º
éĩĮ çļĦ
åĩº èº«
âĨ Ĵ
ä» °
åıĺ æĪĲ
æµ ĵ
ä¸ĸçķĮ æĿ¯
åĪ ¸
å®ŀ æĸ½
æ³ ³
èĪ° éĺŁ
å® Ļ
ç§» åĬ¨
ä¹ĭ å¤ĸ
æľª èĥ½
éĩį å»º
e v
éķ¿ æľŁ
ä¼Ĭ æĸ¯
åıĬ åħ¶
æĻ ĵ
åĿ İ
æº ¶
N A
éī ´
ä¼ļ åľ¨
å½ĵ éĢī
åĽĽ åįģ
éģŃ åĪ°
ä¹ĭ åŃĲ
èĻ ĳ
çĻ½ èī²
åĬĽ éĩı
åĪ° è¾¾
ä¹¾ éļĨ
é Ħ
çº¢ èī²
ä¸į åı¯
å¡ ĳ
åĪ¶ åº¦
åħ¥ éĢī
r y
æĺŃ åĴĮ
ç¬¬ åħŃ
ä¸ Ī
å¤ª åŃĲ
åħĪ çĶŁ
æĸ¹ çļĦ
çĲĥ åŃ£
åĬł ä¸Ĭ
å§Ĩ æĸ¯
ãĥ¼ ãĥ
çļĦ é¦ĸ
è§Ħ å®ļ
ä»¥ åĲİ
Ġ æĸ°
æħ §
åľ¨ ç¾İåĽ½
198 8
å¤ĸ äº¤
èĤ ĥ
åĩºçīĪ ç¤¾
æİ¥ è¿ĳ
éĺ ª
çº¿ çļĦ
åĲ ¨
è¿Ķ åĽŀ
ç»ĵ åĲĪ
ç¡® å®ļ
æ´ Ĺ
éĩĳ å±ŀ
ç¬¬ ä¸Ģä¸ª
ç¼ĸçłģ ä¸ºP
196 0
è¡Į æĺŁ
æĺİ æĺ¾
) ãĢĤ
æĭĴ ç»Ŀ
g e
æī¹ åĩĨ
ä¸Ģ åĲĮ
è£ ķ
çļĩ åĲİ
çĽĳ çĿ£
èĥľ åĪ©
çĳŀ åħ¸
A n
å± ¯
çŃ ¹
ä¸Ģ æŃ¥
æĶ¹ éĿ©
u e
éĿŀ æ´²
è¿Ľè¡Į äºĨ
ãģ Ĩ
æ¯ı ä¸ª
ç¡ ķ
æĹ¥ èĩ³
åĲĦ åľ°
åĽł èĢĮ
æľª æĿ¥
èĳ£ äºĭ
i o
èµ· æĿ¥
å¤º å¾Ĺ
åı¯èĥ½ æĺ¯
ç² ¤
æŀ Ŀ
æĢ» éĥ¨
åŃ© åŃĲ
çĶ¨ æĿ¥
æ²³ åĮĹ
æĦŁ æŁĵ
éļ §
åĮ Ī
åħ´ å»º
æł¡ éķ¿
% ãĢĤ
198 9
æ¦Ĥ å¿µ
çĶŁ åĳ½
å¼ ¥
å¹´ åīį
Ñ Ĥ
è ¹
ãĤ ĭ
å¹´ å¼Ģå§ĭ
æĪĺ åĲİ
å±ķ å¼Ģ
æľī äºĽ
æĹ¥ èµ·
å± ı
å®ĺ åĳĺ
å¤§ æ¥¼
éľ ¸
Ġ b
5 8
ç»Ł è®¡
åĸ ·
on g
é©¬ åħĭ
å¹¶ æ²¡æľī
åįĹ åĮĹ
åİĺ ç±³
å®ŀ çİ°
æľī æķĪ
è¾¹ çķĮ
èŃ¦ å¯Ł
ĠI n
ä¸ĸçķĮ å¤§æĪĺ
éŃ Ĥ
9 9
æı Ĵ
ä¸į å°ĳ
7 7
çĸ ı
åĲĪ çī©
äº§ ä¸ļ
194 5
åĩº æ¼Ķ
o h
åįł é¢Ĩ
ãģ ¾
çļĦåľ° æĸ¹
ä¸ľ æĸ¹
é¼ ł
åĲ¯ çĶ¨
ç® ±
ç¼ ĵ
i k
åŃ¦ ç§ĳ
æıĲ åĲį
å°Ķ çļĦ
ç«Ļ åı°
å¤§ èĩ´
åĩº åı£
å·ŀ åĪºåı²
å¸ĥ é²ģ
çļĦ å½±åĵį
ç¼ĸ åı·
è¡¨ éĿ¢
éĥ½ æľī
åŁº åĽł
æĽ¾ ä»»
æ ĩ
ä»ĸ æĺ¯
çİĽ ä¸½
0 2
æ¸ħ æľĿ
ä¸į æĸŃ
åıĤ èĢĥ
æī§ å¯¼
å· §
% ï¼Į
åħĭ æĭī
è¯¾ ç¨ĭ
ä»İ äºĭ
i f
ç¬ ¼
4 3
198 6
åĩº åľº
å¹¿ åĳĬ
Ġ çİĭ
åıª æĺ¯
å¤± åİ»
è ²
Ġ l
ä¼ĺ ç§Ģ
æĺ¯ä¸Ģ åĲį
ä¸ §
æ¬ £
u p
èĤ ¥
éĶ ģ
Ġ ï¼Į
ãĢģ âĢľ
é£Ł çī©
è¿ĲåĬ¨ ä¼ļ
å°Ķ åħ°
æ¹ ¿
æĶ¶ åħ¥
æ· ®
èį¯ çī©
å¸Ĥ çļĦ
èĥ ¸
è¿ ħ
åĬ ²
è° ĵ
å¥³ åĦ¿
Ġ ä¸Ń
é¥ Ń
è± Ĩ
è§Ĩ ä¸º
å¦ Ī
åľ° éľĩ
çł´ åĿı
Ġ 195
ç»Ł ä¸Ģ
198 5
åĩ Ń
çĶŁ æĢģ
çĽ¸ ä¼¼
4 1
å¢¨ è¥¿
å®ī å¾·
é¢ģ å¥ĸ
o b
åĽ½ åĨħ
äº¨ åĪ©
æĹħ å®¢
o k
æŃ£ åľ¨
ä¸ĩ åİĨ
æ³ Ĭ
æµ· å²¸
æŃ¤ æĹ¶
çĬ ¬
åĪĽ ç«ĭ
èĪ Ĵ
å®ī å¾½
è´¨ éĩı
å¸ ħ
a h
å¨ ĺ
ç¢ ³
éĩį åºĨ
å°ĳ å¥³
éļı çĿĢ
a in
éļ§ éģĵ
ä¿Ŀ çķĻ
çļĦ çłĶç©¶
æŀĦ æĪĲ
9 5
çĽ´ èĩ³
Ġ 19
åĳ¨ è¾¹
æŁ Ķ
æĪĲä¸º äºĨ
å¼Ģ éĢļ
åįĬ å²Ľ
æľ¬ åľ°åĮº
åĬ¨ åĬĽ
å§Ķ ä¼ļ
äºĭ ä¸ļ
198 7
ä¸ Ļ
çł ²
ç¥ŀ ç»ı
8 8
äºļåİĨ å±±
æĭ ³
æĸĩçī© ä¿ĿæĬ¤
Ġ /
å° ¸
åŁº äºİ
3 00
éªĳ å£«
B A
åĲ ı
æĪĸ æĺ¯
éħ ¶
èĳĹåĲį çļĦ
ç¾½ æ¯Ľ
åį« çĶŁ
æĤ ¬
çī¹ çļĦ
ä» ĳ
çľĭ åĪ°
ä¹ĭ æĪĺ
çĶŁ éķ¿
æĴ °
åĮ» çĶŁ
é¸ £
Ġ å°ı
åı¯ åīįå¾Ģ
èĭı æł¼åħ°
çĸ¾ çĹħ
åĮĸ çļĦ
Ġ å¼ł
å¤§ æ¡¥
èį Ĵ
æ´ ģ
è¢ ģ
é«ĺ çļĦ
åĿ Ĥ
æī ®
å¤ı åŃ£
æĬķ ç¥¨
é¾ Ł
éĥ½ å¸Ĥ
æ¬¢ è¿İ
åĩ ½
èµ° åĲĳ
çĭ Ĥ
å¿ Ĩ
å£ ®
åĢ ¾
æ¾³ æ´²
çĶ¨ çļĦ
èĢĮ æĪĲ
çĬ¹ å¤ª
æĸ ľ
å¢¨è¥¿ åĵ¥
åĴĮ å¹³
éĤĢ è¯·
æ®ĸ æ°ĳ
å£« åħµ
çĶµ åı°
äº² çİĭ
è¿ĩç¨ĭ ä¸Ń
å¤§ èµĽ
åĺī éĿĸ
6 6
è· ĥ
Ġ and
è® ·
å·¥ åİĤ
äºº åľ¨
éķ¿ çº¦
å© Ĩ
è§£ éĩĬ
7 9
è§Ĥ å¯Ł
èģĮ æ£Ĵ
åħ¬ çĪµ
å¤§ å¤ļæķ°
æĬķ åħ¥
çĪ± å°Ķåħ°
å¤§ åĮº
æĲ ¬
åŀ Ĥ
å¤© çļĩ
æĳĦ å½±
éĶĢ åĶ®
S E
éĽĨ ä¸Ń
å°Ķ çī¹
æĮĳ æĪĺ
è®° èĢħ
éĥ Ĭ
â Ķ
Ġ éĩĳ
å®¢ è¿Ĳ
åŃ¦ ä¼ļ
u c
çİ »
äºī è®®
èĳ¡èĲĦ çīĻ
åį µ
æĿĢ æŃ»
Ġ Y
ä½ľ èĢħ
åŁĥ åıĬ
çĭ ¼
æĪ Ĵ
è§£ åĨ³
è½ °
éĽ Ģ
å®ĩ å®Ļ
åį« æĺŁ
éĵ ĥ
äºº å£«
äºļ åĨĽ
æ°Ķ åĢĻ
Ġ v
é«ĺ åº¦
æĻ ¨
éĺ ħ
åī ²
éļı èĳĹ
å« ģ
è¾ °
åıª èĥ½
ç¥ Ŀ
ä¸ ¸
æĢ Ĵ
åįı è®®
åŃ ¤
ä¸į åĨį
ä¸ĩ äºº
åı¤ ä»£
è®® éĻ¢
ä½¿çĶ¨ çļĦ
è¯ģ æĺİ
15 0
é² į
è¯ķ åĽ¾
æ°´ å¹³
A l
åĨ Ĵ
æĢ» çĿ£
è§Ħ åĪĻ
åįģ å¹´
éĺ¿æĭī ä¼¯
éĢ Ĩ
åĩ ī
it y
ä¸ ²
åĨį åº¦
æĸĩçī©ä¿ĿæĬ¤ åįķä½į
åıĮ æĸ¹
åĩ Į
çĽ® çļĦ
å½ »
çı Ĭ
åĲĪå¹¶ ä¸º
ãģ «
åĹ £
æĹ ¦
å§ ¬
198 4
çļĦ ç¬¬ä¸Ģ
èµ ´
ä»ĭ ç»į
æľĢåĲİ ä¸Ģ
çĭ Ħ
åįģ åŃĹ
å°ı ç»Ħ
åĽ¢ éĺŁ
æŃ¥ åħµ
æĿ¥ åĪ°
å¿ į
éĽ Į
çŁ¥ åİ¿
åģ¥ åº·
çĦ ¦
è¯ ı
ãģ ¿
å¤ ·
ä¸¾ äºº
åľ° åĪ©
ä¹ ı
ãĤ ·
åĪĹ ä¸º
ä¸ī ä¸ĸ
éĩĳ èŀį
éĢĢ å½¹
ä½Ľ æķĻ
Ġ é«ĺ
åĬĽ çļĦ
åİĨåı² ä¸Ĭ
ç®¡ è¾ĸ
åĤ ħ
å¾ ª
æ¶ ¦
åħĥ ç´ł
Ġ å¹´
ä¿Ŀ ç½Ĺ
ç½ĳ ç«Ļ
u d
ç² ®
ä¸ĭ è¾ĸ
åĬ ±
åĪĽ åĬŀ
åģľ æŃ¢
åĬ¨ ä½ľ
éĻĲ åĪ¶
ç§ĺ ä¹¦
or t
åĽĽ ä¸ª
ç¨ĭ åº¦
æĺ¯ ç¾İåĽ½
ä¸¤ ç§į
èģļ èĲ½
å¨ ĥ
å¤± è´¥
å°± è¯»
å² Ĺ
æĶ¶ è´Ń
åĵģ çīĮ
7 2
å£ ³
æ¯ķä¸ļ äºİ
âĢ¦ âĢ¦
æł ª
ä¸Ĭ éĺµ
çĭ Ĺ
æĶ¶ è§Ĩ
ä»İ èĢĮ
é¦ĸ éĥ½
ãģ ķ
åĭĭ ç«ł
è°ĥ æķ´
e g
æĸ¹ æ¡Ī
e y
æµĭ è¯ķ
åĺ ´
5 9
éĩĮ äºļ
æĢ» çĲĨ
ä»¥ åīį
å¿ĥ çĲĨ
ç¿» è¯ĳ
æĺ¯ æĹ¥æľ¬
Ġ 4
è¡ į
åı° ä¸Ń
çª Ĺ
æĿ Ĩ
æľī ä¸Ģä¸ª
è¿Ľ ä¸ĢæŃ¥
èĢ Ģ
çĪ¶ æ¯į
é¸ ¿
æĲ ľ
åĥ §
åħ¥ ä¾µ
åĲĮ ä¸Ģ
å°¤ åħ¶
çļĦ æķħäºĭ
æµ· æĭĶ
æĭī ä¸ģ
éĵ ¾
å¥ ĳ
æĹ º
å¯ Ĵ
m an
çĶ ¸
èĦ Ĭ
äºĭ æķħ
ç¿ ģ
éĻ Ģ
å¹¿ è¥¿
çİ° è±¡
åħ± äº§
å¼ ¦
çİĩ é¢Ĩ
ä½ľ è¯į
ç¢ İ
åı ī
ç¬¬ ä¸ĥ
æĺ¯ æ³ķåĽ½
æĪĲç«ĭ äºİ
ãģ į
åħ¶ å®ĥ
ç¢ į
æłĸ æģ¯
èĢĮ è¢«
âĢĿ ãĢģâĢľ
Ġ éĺ¿
å¥¥ æŀĹ
éĤ® æĶ¿
é»ĳ èī²
Ð »
å¦Ĥ æŃ¤
ãĥ ¬
å¤ª ç©º
èĥ İ
æķĻ åŃ¦
èĦ ı
ä¸į å¾Ĺ
åĩºçİ° åľ¨
è£ħ ç½®
å¸Ĥ åĮº
æ¹ĸ åĮĹ
ä¾ ¦
197 9
æĺ¯ ä½įäºİ
æ¯Ķ åĪ©
åįģ åħŃ
6 8
å¸ĥ æĭī
Ġ éĻĪ
æĪı åī§
å¤§ å¥ĸ
åĪĽ éĢł
æĪª èĩ³
B S
åŃ¦ æľ¯
åĮ» çĸĹ
5 1
æ°´ åºĵ
èĤ Į
ä¸Ń éĹ´
æĺ¯ åĲ¦
å¥¥ åľ°åĪ©
æĺ¯ä¸Ģ ä½į
å®¶ çļĦ
å»¶ ä¼¸
çĳŀ å£«
ä» ¿
èĦ Ĥ
æĹ¥ çļĦ
Ġ ãĢĮ
æ²³ æµģ
ä¼ Ļ
æĶ¹ éĢł
ä¸ī è§Ĵ
å®£ ä¼ł
ãĤ ī
ç½ ļ
åİĨ ä»»
Ġ :
çļĦ åİŁ
åĬŀåħ¬ å®¤
å¡ «
5 2
åĮĹ æµ·
5 7
åī§ æľ¬
198 3
197 8
åľ° ä½į
æķĻ å¸Ī
ç¿ ł
æĮĩ å¯¼
çŁ ¶
æ» ©
5 3
æıĲ é«ĺ
æĸ¯ åħĭ
æĿ¥ è¯´
åī ©
ç±³ å°Ķ
è·¯ åı£
6 4
I S
å¥ ¶
ãĤ ¿
è¯´ æ³ķ
åį ľ
å¤§ ä½¿
çľģ çº§
é¼ »
Ġ 9
æĽ °
198 2
éĢļ è½¦
ç¼ ħ
çĽ ¾
æĹ ¢
ä»¥ å¤ĸ
åºĶ è¯¥
ãĤ ¸
ãĥ ŀ
ä¿¡ åı·
æĸ¯ å¡Ķ
æĶ¿ æĿĥ
ä»ª å¼ı
åĳ½ åĲįä¸º
è¸ ª
åįģ ä¸ī
ä¸Ģ å¸¦
å½ĵæĹ¶ çļĦ
éķ¿ åº¦
åıĸ æ¶Ī
æĴŃ æĶ¾
èħ ¾
çħ ¤
åĲĮ æĦı
as t
ä¹Ł ä¼ļ
å°ı çļĦ
ãĥ Ń
å¤Ħ äºİ
ç² Ĺ
è¢«è®¤ä¸º æĺ¯
çļĦ çī¹
åıĪ åĲį
åħ¶ ä½Ļ
ä¸Ģ åº¦
å» Ĭ
ä¸Ģ å®¶
çļĦ å¤ĸ
7 1
æ· ĺ
èĩ³ å°ĳ
èĥ ģ
åĸ Ģ
å±± èĦī
ç¨³ å®ļ
å®¹ æĺĵ
éĤ£ éĩĮ
ä¸¹ éº¦
åİ Ŀ
èľ Ĥ
çİ° æĹ¶
åİ¿ äºº
æī¹ è¯Ħ
çĻ Į
å¤§ åİ¦
æŁ´ æ²¹
å¥¥æŀĹ åĮ¹
å¯ Ħ
æŃ¦ æ±ī
æİĪ äºĪ
æĹ ¨
äº¿ åħĥ
æ³¨ æĦı
é¹ ¤
æĺ¯ ä»¥
æķ° åŃ¦
ä¸ŃåĽ½ äººæ°ĳ
ç»´ æĮģ
å§ Ĭ
æŃ» åĲİ
åĲİ æľŁ
èĸ Ľ
çģ« ç®Ń
åĩ Ŀ
è¡ °
æ° ¢
æµ· æ´ĭ
åıĳ åĶ®
B C
æ¸ Ķ
å®ī æİĴ
5 4
æľĪ åįĩ
ç¥¨ æĪ¿
åĩº æĿ¥
çŁ¥ åĲį
7 3
ä¹Ł è¢«
çĴ ĥ
é¾Ļ çļĦ
çĸ Ĩ
çļĦä¸Ģ åº§
æľī äºº
å²ģ çļĦ
éĴ ¦
æ½ Ń
ä» ĩ
ä¾į éĥİ
è² Į
' s
çļĦ æĦı
æİ¥ è§¦
e p
194 9
å¹´ çĶ±
éĩĳ æĽ²
o ur
è£ħ çĶ²
çģ« å±±
åĩ Ģ
åģ ·
å¯ ®
å µ
èİ« æĸ¯ç§ĳ
èĩª è¡Į
è®² è¿°
çİĭ åŃĲ
èĬ± åĽŃ
è§£æĶ¾ åĨĽ
åĳ½ ä»¤
ç§ĳ åŃ¦éĻ¢
åľŁ èĢ³
æķĪ æŀľ
å®Į æķ´
æ¤ İ
å²ģ æĹ¶
æķ° åŃĹ
æĹ© å¹´
æ» ļ
äºº åĴĮ
ç¼ĸ æĽ²
åħĭ éĩĮæĸ¯
ãģ Ĭ
åľŁèĢ³ åħ¶
äºº æķ°
å¾Ĺ ä»¥
e w
è¿ Ŀ
é©¬ å°Ķ
èµ ¶
ç§į åŃĲ
å± ¿
ãģ ¡
èķ ¾
æľ ´
å¦Ĥ ä¸ĭ
åĿ Ŀ
æŁĲ äºĽ
èį Ĳ
è¢Ń åĩ»
æĶ¾ å¼ĥ
èĪŀ åı°
ar k
âĶ Ģ
åĽ½ ä¼ļ
åľ° çĤ¹
åľ° çļĦ
æ¨¡ åŀĭ
ig h
ä¸´ æĹ¶
A T
ä»Ģ ä¹Ī
åŁİ åł¡
æŁı æŀĹ
è´¡ çĮ®
è¾ Ĳ
åįģäºĮ å¹´
Ġ ä¸ī
åħ¬åı¸ çļĦ
8 6
æľĪ èĩ³
å§ ļ
æłĩ å¿Ĺ
çľģ éģĵ
éĿ¢ å¯¹
è¢ ĸ
åİŁ åĲį
ç±» åŀĭ
åĽ½ éĺ²
åıĹ ä¼¤
çĶ· æĢ§
åħģ è®¸
æį Ĳ
çģ Į
è Ł
æ¬¡ å¹´
éģĹ äº§
æĦŁ åĪ°
çİ° åľº
åī§ åľº
æ·· åĲĪ
æĭī å¤«
èĢĥ èĻĳ
åĮĹäº¬ å¸Ĥ
18 0
äººæ°ĳ æĶ¿åºľ
åĨĽ çļĦ
æģĴ æĺŁ
åĲİ èĢħ
ãĥ³ ãĥ
7 4
æĳ ĩ
s on
éĵ º
é©± éĢĲ
ç °
è¯¥ åºĦ
ä¸Ģ æĿ¡
ä¸ ŀ
éĺŁ ä¼į
ï¼Į ãĢĮ
çĹĩ çĬ¶
ä¿Ŀ åŃĺ
æ± ¡
åĽ½ åĬ¡
å°ĳ æķ°
å½¢ æĢģ
çĬ¶ åĨµ
åĲĪ æĪĲ
æºĲ äºİ
ç»ı åħ¸
ä¹¡ è¯ķ
ä¸Ń å±±
æ³° åĽ½
æ¸© åº¦
çŁŃ æľŁ
èĬĤ åº¦
è¯ķ éªĮ
èľ ľ
ç£ ¨
é£Ł åĵģ
é¡ µ
éªĳ åħµ
éģ¿ åħį
é»Ħ éĩĳ
ä¹ĭ ä¸Ń
é¢ľ èī²
æĦı ä¸º
æīĵ åĩ»
19 20
r ic
åº· çĨĻ
æī °
å¤§ å¤«
æĬ¥ éģĵ
è´¢ æĶ¿
èĢĮ æĺ¯
o un
æĢĿ æĥ³
ç»ĵæĿŁ åĲİ
ãĤ «
è¥¿ æ´ĭ
åĴĮ åħ¶ä»ĸ
åĽ½ ç«ĭ
èĲ¨ åħĭ
æĬ ½
ä¹ĭ ä¸ĭ
æłĩ æľ¬
ç«ŀ äºī
çİ° ä»»
åĿ¦ åħĭ
å§ ľ
åŁºçĿ£ æķĻ
èĸ Ħ
åħ¬ åĪĨ
åįģ äºĶ
a i
éĤ ĳ
åī§ éĻ¢
å¹ ½
ãģ ı
è£ħ å¤ĩ
åĳ¨ åĽ´
åĲ Ĳ
æĦ Ī
æĹ¥ æ²»
I n
ä¸į è¶³
å° Ŀ
åħ¸ ç¤¼
å¤ļ ç§į
åĵĪ å°Ķ
æĺİ æĺŁ
èī² åĪĹ
å¤ ķ
æĸ° å¢ŀ
Â °
åŁĥ å°Ķ
æŃ¦ å¸Ŀ
ä¸Ī å¤«
æİ ĺ
ä¸ ĳ
è¿ Ł
è´ «
198 1
æ¨ ±
Ġ 6
åĲ¸ å¼ķ
éļ ĭ
æĬµ è¾¾
æľ¬ èº«
çīµ å¼ķ
æĸ ¤
æĻ® éģį
äºļåİĨå±± å¤§
ä¹Ł åı¯ä»¥
æģ Ń
ac k
æĬ ĳ
å¯» æī¾
åº ŀ
äº¦ æľī
å¼Ł å¼Ł
çĶ± æŃ¤
on t
çļĦ ä¸ī
æīį èĥ½
æĬ ¢
Ġ ä¸ŃåĽ½
æĿ¡ çº¦
æį¢ ä¹ĺ
Ġ åĪĺ
èĭ ĳ
åħ¨ éķ¿
èĬ¬ åħ°
å¥ Ķ
èŀ º
å¥¥æŀĹåĮ¹ åħĭ
åĵ² åŃ¦
çĲ ī
å¹¶ éĿŀ
å¤ª éĥİ
äºĮ äºº
ä¸Ģ åº§
or d
èħ º
Ġ ãĢİ
as s
Ġ in
çº§ èģĶèµĽ
å±ķ ç¤º
åľ° éĿ¢
ç¨ ¿
æľ¬ ä½ľ
å½¢ è±¡
ä¸ĵ å®¶
åĦ Ĵ
èĤ ł
ä¸ĩ åħĥ
æĮ ª
æĿ° åħĭ
åįģ æľĪ
ç¥ Ģ
çļĦ æĸ¹å¼ı
æł¡ åĮº
å¸¦ é¢Ĩ
æ ª
çŁ¥ è¯Ĩ
çĶ³ è¯·
ç¡ķ å£«
éĹ ª
ä»ĸ è¢«
å¯Ł éĻ¢
æ± °
å¾Ĺ çŁ¥
ä¸ĵ éĹ¨
æł¸ å¿ĥ
å¹´ é¾Ħ
éĢļ éģĵ
æŃ¦ è£ħ
A R
è ¤Ĳ
åľ° è´¨
åľ¨ ä¸ŃåĽ½
ä¿ ĺ
æĭī åħĭ
çº ·
æľĿ å»·
è¡¨ æĺİ
èı² å¾ĭ
åįİ çĽĽ
èı²å¾ĭ å®¾
åı¦ ä¸Ģä¸ª
éĺ² å¾¡
çļĦ ä½ľåĵģ
å¦ Ļ
æıĲ åįĩ
åŃ¦ å£«
çĶµ æ°Ķ
ä¹Ł åľ¨
6 2
éĿĴ å²Ľ
194 0
ç»ı çĲĨ
æŃ¢ äºİ
Ġ 196
ãģ ¯
æī¾ åĪ°
å¾· åįİ
å¥ İ
è¦Ĩ çĽĸ
è½¬ ä¼ļ
ç¿ Ķ
8 9
éĢ ¢
Ġ è¥¿
çĪ± æĥħ
å¾Ī å¿«
æľº åħ³
10 00
åĩº åħ¥åı£
ä¹Ĳ éĺŁ
ç¼ĸ è¾ĳ
æ£ ĺ
ç Ģ
åįİçĽĽ é¡¿
æĤ ī
é»Ħ èī²
ç¼º ä¹ı
åł Ĩ
197 5
åįģ åħ«
195 8
è¯ ¢
æĺ¯ä¸Ģ éĥ¨
q u
æĤ£ èĢħ
çĲĨ äºĭ
æĮī çħ§
å®ŀéªĮ å®¤
ãģ ¦
ä½ı å®ħ
æ³¨ åĨĮ
é©¬ æĭī
ä¸Ĭæµ· å¸Ĥ
åħ Ĩ
å®ļ ä¸º
ç¯® çĲĥ
çļĦ æµ·
çĽ Ĩ
æĹĹ ä¸ĭ
åī§ éĽĨ
ä¸ĩ ç¾İåħĥ
ä»¥ èī²åĪĹ
åį¡ æĭī
æī® æ¼Ķ
èĴ ¸
ä¸»é¢ĺ æĽ²
E R
åįĹ æĸ¹
åĵ¥ ä¼¦
å¥¹ åľ¨
æ¹ ĺ
ä¼° è®¡
åħĭ éĩĮ
æīĢ å±ŀçļĦ
æľº åĻ¨
æĢ§ è´¨
åĶĲ æľĿ
ä¸Ń æľī
å°Ĩ ä¼ļ
æĶ¹ åĲįä¸º
194 1
åĿ ª
åĬ© çĲĨ
éĺ Ķ
å®ŀéĻħ ä¸Ĭ
è´µ æĹı
æī¿ è®¤
åıĳ çĶµ
ä» Ĩ
ä» ķ
çļĦ äºĭ
åĲ ¾
åı° åįĹ
å¹¶ æľª
ä¼Ĭæĸ¯ åħ°
çĲ ¼
çªģ çĦ¶
åı ł
ä¸» åľº
åħĭ èİ±
k m
6 9
ãĢĭ ï¼ļ
åĨħ éĺģ
åľ° å¸¦
éĥ¨ çļĦ
ç»¿ èī²
æĸ ĭ
éĺŁ éķ¿
å¥¥ å°Ķ
Ġ âĢĵ
a z
éŁ µ
å· ¢
æĹ¥ åĨĽ
éĻ¢ éķ¿
ä¿¡ ä»°
æı Ń
åįĥ ç±³
4 00
ç¬¬ åħ«
å¸Ī èĮĥ
çĶ¨ ä½ľ
æĵ İ
éĻĦè¿ĳ çļĦ
ä¸ĭ æĿ¥
åľ¨ åħ¶
æĻĭ çº§
è¡ĮæĶ¿åĮº åĪĴ
ä¼ļ çļĦ
çĶ¨ éĢĶ
çĶŁ çļĦ
ä¸İ åħ¶ä»ĸ
ãĢĢ ãĢĢ
åĲĪ çº¦
æ¼Ķ å¥ı
å½ĵ å¹´
è¯ģ åĪ¸
çĮ Ľ
å¼Ģ è®¾
å¼ ¯
å·ŀ åºľ
å¯ ¸
ar l
197 2
é¢ Ī
æŃ ĩ
197 3
ä¸Ģ çº§
éĻį ä½İ
197 6
éĨ Ĵ
a w
å®ī è£ħ
ç»Ļ äºĪ
å¦Ĥ ä½ķ
åĨ² çªģ
ç§» æ°ĳ
è¾¾ æĪĲ
éķ¿ åŃĲ
6 1
ãģ Ĥ
çł Ĥ
æ± Ŀ
çļĦ éĩįè¦ģ
åį ĳ
èīº äºº
194 4
å° ¹
ç§ĺ å¯Ĩ
ä¼ļ éķ¿
åħ¬ äº¤
åįģ åĽĽ
æľĢ è¿ĳ
åħī ç»ª
å¯ ¨
ç»Ī äºİ
åĬł åĪ©
éĵ Ń
æĸ ©
èµ ĭ
è´Ń ä¹°
è®¿ éĹ®
åľ¨ å¤§
åľ¨ è¯¥
è¶³çĲĥ è¿ĲåĬ¨åĳĺ
å¨ģ èĥģ
éĥ¨ å°ļä¹¦
åľ¨ ä¸Ģ
äººåı£ æķ°éĩı
ä¸¾è¡Į çļĦ
6 7
é©¾ é©¶
æ·ĺ æ±°
o y
è¯· æ±Ĥ
ä¸¤ æ¬¡
èĤ º
æŃ£ æľĪ
è±¡ å¾ģ
éĢ Ĵ
æĪĲ éĥ½
å¸ĥ èİ±
å¹¶ å°Ĩ
çļĦ åĲĮ
è¥ Ħ
æ± Ģ
ä¸Ĭ æľī
è´ ´
èģĶ ç³»
at e
è§Ĥ æµĭ
é³ ŀ
t on
ä¸ Ľ
é³ Ħ
è¿ħ éĢŁ
è¡¨ è¾¾
å¤§ å¸Ī
è¿Ļ æ¬¡
å½± è§Ĩ
ä¼ł æĴŃ
åİĭ åĬĽ
ç¤¾ä¼ļ ä¸»ä¹ī
å¤į æĿĤ
åħ¨ çº¿
ç¾½æ¯Ľ çĲĥ
å£° éŁ³
197 4
èĢ Ĺ
äºĮ æľĪ
çļĦ æ°´
æł Ĺ
194 6
å¤§ åŃĹ
ä»ĸ ä¸İ
èģ ĺ
è° Ń
æ· »
éĨ ĩ
åľĨ å½¢
ä¸Ĭ å¸Ĥ
æł ı
ä»ĸ äºİ
æ¢ ¨
) ãĢģ
ç¨ į
ä¼¯ çĪµ
èĬĤåº¦ ä½¿
å±± åĮº
è¥¿ æĸ¹
å±ķ è§Ī
æĸĩ åŃĹ
èĲ¨ æĸ¯
195 5
å¹¿ä¸ľ çľģ
èľ ¥
åľº æ¯ĶèµĽ
èĥ½ éĩı
in a
è£ħ é¥°
s h
åĪ ·
ãģ Į
åĩł ä¸ª
è¾ĥ ä¸º
å°± ä¼ļ
æĪĳ çļĦ
197 7
æĦı ä¹ī
è®¨ è®º
æĸ Ĳ
åĬ Ŀ
æĹ¶ ä»»
195 6
æĹħ è¡Į
éĢĢ ä¼ĳ
ç¥ ł
Ġ ä¸ľ
èģĮä¸ļ çĶŁæ¶¯
t e
ç®Ģ åįķ
åł ª
èģĶåĲĪ åĽ½
å§ »
ç¨ĭ åºı
åŁİ éķĩ
ç»ı éªĮ
ç©º æ°Ķ
å¼ķ æĵİ
å®ī ä¸ľ
åľ Ń
åĬ «
å¦ ĸ
åįģä¸Ģ å¹´
çķ Ķ
èĲ¥ è¿Ĳ
åıĺ å¾Ĺ
i b
é¸Ł ç±»
ãģ ĵ
æ´Ľ åħĭ
æ£Ĵ çĲĥ
äºĶ æľĪ
éĻĦ å±ŀ
ç¡ «
éĴĪ å¯¹
åĬł å·ŀ
é¸ Ń
ç¢ §
åįł åľ°
æĹłçº¿ çĶµè§Ĩ
èĴ ĭ
èĢĥ åı¤
çļĦ åĦ¿åŃĲ
åĽ½ éģĵ
å· «
æĥ Ł
åĽł ç´ł
åįģ å¤§
èĬ Ĵ
æ° ¨
æŃ£ å¸¸
åĸľ åī§
å°ı åŀĭ
åıĳçİ° äºĨ
æĹ¥ æľŁ
åħ³ æ³¨
ä¸ĭ åįĪ
çĵ ¶
å® °
æĵį ä½ľ
æī ¶
æĸĩ çĮ®
è ¤
åľ° åĽ¾
éĹ´ çļĦ
æĤ ²
u g
æ³ ¡
èį Ĩ
æ¶Ī æģ¯
197 1
åĴ ĸ
çľŁ æŃ£
C D
åĪĹ åħ¥
ç»Ļ äºĨ
å¾ĭ å¸Ī
à ¤
çī¹ èī²
1 20
ï¼ ħ
å¤ļ å¹´
åİ ¢
æ´Ľ æĿī
åıĤåĬł äºĨ
éĥ¨ èĲ½
åĮĹ æĸ¹
æ¶ Ĥ
ä¸º æŃ¢
èĤ ¢
èĤ ¤
æ¸ Ĭ
å¯¹ æĬĹ
åıĳåĬ¨ æľº
åħ¶ å®ŀ
åĮĹæµ· éģĵ
åĪ¶ çļĦ
æĮª å¨ģ
åĢĻ éĢī
é¡¾ éĹ®
åı¯èĥ½ ä¼ļ
æ¦Ĥ è¦ģ
éº¦ åħĭ
é¢Ĩ è¢ĸ
ä»· æł¼
æģĲ é¾Ļ
ç¥ŀ è¯Ŀ
æ³¢ æĸ¯
æĺİæľĿ æĶ¿æ²»äººçī©
æ´ĽæĿī çŁ¶
Ġ 5
è¾½ å®ģ
å¼ķ åıĳ
è½¬ ç§»
åı² ä¸Ĭ
åħ³ éĹŃ
çī¹ éĩĮ
çļĦ ä¸¤
ç»Ħ å»º
å¤§ éĺª
æĦı è¯Ĩ
en d
6 3
æ¬§ åħĥ
åĢ º
åĽº å®ļ
9 8
è´µ å·ŀ
åĬł æĭī
in d
çľģéģĵ åı°
194 3
è´£ ä»»
çĶŁ åŃĺ
å¹´ åºķ
åĽĽ æľĪ
ç»ĦæĪĲ çļĦ
èĢ Ĳ
ä¹ĺ å®¢
æĪĺ å£«
å»¶ éķ¿
æľĢ å¤ļ
æİ ª
è½¬ åĲĳ
ä¼ ª
å¯¹ æĸ¹
æĶ¿ åħļ
å¤ĸ åĽ½
åĨ ¢
ar y
I C
åīį çļĦ
ç© ´
æ²¿ éĿ©
ãĤ Ń
194 2
çĽ¸ æ¯Ķ
åīį èº«
æ£ ķ
åĪĨ ç¦»
ĠA n
çļĦ ä¸Ń
oh n
ä¹ī å¤§åĪ©
ç¦ ħ
èµĦ äº§
æł ĭ
çº ¤
ä¿® å»º
çīĻ åĪ©
çľģ çļĦä¸Ģä¸ª
us t
Ġ ãĥ
è° ¦
çı Ģ
åĮĪ çīĻåĪ©
ç¡® è®¤
e b
çİ ²
éĽ į
éĽ ĩ
åı¯ è¾¾
éº Ł
è¢ ĭ
ä¸° å¯Į
Ġ é¦Ļæ¸¯
çĪµ å£«
ç»Ī çĤ¹
åĨ¬ åŃ£
æ¼ĶåĶ± ä¼ļ
åĳ¨ å¹´
æĬķ éĻį
çļĦå¥³ åĦ¿
çŃī çŃī
æĪĺ éĺŁ
çļĦ åĲİ
èĩª æĿĢ
åħ´ è¶£
è¿ ¦
åıĹ æ¬¢è¿İ
çľŁ å®ŀ
éļ¶ å±ŀ
f f
èħ Ķ
å¹³ åİŁ
èģĮ åĬ¡
éŃĶ æ³ķ
ä½įäºİ æ³ķåĽ½
æĶ¯ æı´
ç¨ »
æĦı å¤ĸ
å§ ĳ
åĮĹ éŃı
èĤ ĸ
èĻ ¹
å¸ĥ å°Ķ
ä¸Ģ æ®µ
æĽ´ åĬł
åĽ½åĬ¡ éĻ¢
æķ ¢
æĸĩ ç«ł
åĪ¶ä½ľ äºº
å°¼äºļ å·ŀ
ä»»åĳ½ ä¸º
æĽ´ å¤ļ
Ġ201 0
æ°ĳ éĹ´
Ð ²
æĶ¶ èĹı
æŀĦ éĢł
åħ¬ æ°ĳ
æĮ ĸ
çģ« æĺŁ
ä¸İ åħ¶
at h
äºļ ç§į
å± Ī
éĩĳ çīĮ
éĤ ª
æĪĺ çķ¥
æľī æīĢ
å¹¶ ä»¥
åıĤ è°ĭ
å¼Ĺ æľĹ
Ġ 10
èĵĿ èī²
åī ª
é¦ĸ åħĪ
ç§ģ äºº
è©¹ å§Ĩæĸ¯
æµ· å¤ĸ
å°¼ å°Ķ
è¯ģ æį®
åĲ ¹
ç¨ £
æĽ² çĽ®
è¯ ±
åıĳ æĺİ
ä»¥ ä¸º
æ° ¯
é¢Ĩ åľŁ
Ġ çļĦ
çł ĸ
èħ ¿
åĳĬ è¯ī
ä¸ĭ éĻį
å¹´ æĹ¶
å½ķ éŁ³
194 8
çĶ ľ
äº¦ æĺ¯
æµĭ éĩı
ä¸ī æľĪ
å®ĺ èĩ³
ä¼ ½
çŃ¾ çº¦
ç§ĳ åŃ¦å®¶
æĬ ±
æĻ® æŁ¥
å¤§ åį«
å¯¹ è±¡
åħ« æľĪ
åį³ ä½¿
193 9
Ġ åįĹ
åĪ¶ çīĩ
å¹´ åĪ°
åĲ ŀ
A C
éĹ ²
åĲ §
åĽĽå·Ŀ çľģ
å¿ §
çĽ¸ äºĴ
æĸ¯ é¡¿
çĽ¸ ä¿¡
ä¸»æĮģ äºº
ä¸ī åĽ½
èĢ¶ ç¨£
ãĤ ª
çĿ ¡
H K
è¿Ļ éĥ¨
åĲĽ ä¸»
åĨĽ åĽ¢
åħĭ ç½Ĺ
å¤© ä¸ĭ
æ¯Ķ ä¾ĭ
ç¬¬äºĮæ¬¡ ä¸ĸçķĮå¤§æĪĺ
ãĤ ¨
å° ¿
çŁŃæľŁ å¤§åŃ¦
èģ ª
çĪ ·
åĽ Ĭ
èĤ ¿
åį« è§Ĩ
ç¦ģ æŃ¢
å¤© çĦ¶
åĪ© æĸ¯
çľģ åĴĮ
åĪĽ å»º
åĵ¥ä¼¦ æ¯Ķäºļ
å¼ ĵ
è´ ¼
194 7
èĢģ å¸Ī
éľĢ æ±Ĥ
193 7
å¼Ģ å·¥
è¥¿ å®ī
åŃĹ æ¯į
åħŃ æľĪ
ec t
çº¦ ä¸º
ä»Ĭ æĹ¥
a ch
éģ µ
æķĻ å®Ĺ
çŃ¾ ç½²
ä¸ĥ æľĪ
çİ» çĴĥ
ä½ĵèĤ² åľº
çİ°åľ¨ çļĦ
ãĤ ³
æ± ª
ä¹¡ éģĵ
å¤© çļĦ
å¯ ĵ
æı ¡
äºĨ è§£
èĪ Ł
è®¤ è¯Ĩ
æĵ ħ
éķ¿ æ±Ł
æĢ ķ
çķĻ ä¸ĭ
åįģäºĮ æľĪ
èľ Ģ
èħ ĵ
196 5
å·® å¼Ĥ
196 3
æķ´ ä½ĵ
åħ¬ æĸ¤
åķ ¡
æī «
è¿Ļ åº§
ä¸¤ ä¾§
ç¥ Ĳ
ĠA l
çĶ «
å·¥ äºº
æľ¬ åľ°
195 2
195 4
åıĳ åĩº
å¾Ĺ åĲį
ä¿ĥ è¿Ľ
è¿Ļ éĩĮ
196 8
å®ĥ æĺ¯
J R
å¼º çĥĪ
éĴ »
ä¹ĭ å¥³
ä¹¦ ç±į
çļĦ éģĵè·¯
éĺ³ å¸Ĥ
èµĦ éĩĳ
19 30
é¦ĸ æĴŃ
æĴ¤ éĶĢ
åħ¬ ä¼Ĺ
åįĩ ä¸º
çļĦ åħ³ç³»
an n
ä¸Ń è¢«
è° ¥
èĩªæ²» åĮº
Ġ é©¬
ä¸į æķĮ
æ¡ ĵ
çŁ ¢
ãĤ Į
Ø §
æŁ¥ çĲĨ
åľ¨ æĹ¥æľ¬
ä¸º äºº
å·¥ åħ·
ä»» èģĮ
ç² ¹
æĬķ æīĭ
196 4
åĽ½éĻħ æľºåľº
æĹ§ å¸Ĥéķĩ
è¾ĸ åĮº
æĸ¹ è¨Ģ
ä¸Ģ å®ļ
éģĵ åħī
çĶ» å®¶
æľ¬ é±¼
èĭı ä¸¹
æĻļ ä¸Ĭ
çĶµ èĦĳ
çĤ ¼
ä½Ĩ çĶ±äºİ
æ¶ µ
ä¼ĺ åĬ¿
åŁ ĭ
195 9
éĦ Ĥ
éĢĢ åĩº
è®¡ç®Ĺ æľº
è·¯ æ®µ
i er
æĭ ±
èĸ ĩ
åĲį ä¹ī
Ġ æľĢä½³
çĶĺ èĤĥ
c t
è¿Ĳ çĶ¨
ä¸ĸçķĮ ä¸Ĭ
çĶµåĬĽ æľºè½¦
é¢ ĩ
æľį å½¹
çļĦ å·¥ä½ľ
åİŁ å§ĭ
å± ł
æĳ Ĩ
196 2
çĲ ª
A r
on d
å¤§ èģĶçĽŁ
éĽ ¾
Ġ 7
éļľ ç¢į
åħ¬åħĥ åīį
è¾ ©
å¯¹ å¤ĸ
äºĭ å®ŀ
196 9
åı¤ åħ¸
A M
äº¿ ç¾İåħĥ
Ġ åĴĮ
çļĦ å¸Ĥéķĩ
193 8
ç²¤ è¯Ń
å¸¦ æľī
å¥¥è¿Ĳ ä¼ļ
æĬ ĵ
æ¯ķä¸ļ åĲİ
æĸ½ å·¥
å¹¶ æŃ¢äºİ
åİŁ åŃĲ
çĪĨ çĤ¸
æ°ĳä¸» åħļ
é¤Ĳ åİħ
èĿ ¶
å®¶ äºº
196 1
é£İ éĻ©
æ²³åįĹ çľģ
èĤ Ŀ
è¾¾ å°Ķ
ç§° åı·
å¯¼ å¼¹
éĢ ¸
ç¦» åŃĲ
æĸĩ ä»¶
éĹ ¸
å¹´ åĪĿ
èĥ Ĩ
Ã Ĺ
éĢ ¼
åĮĸ åĲĪçī©
éħį åĲĪ
æµĻæ±Ł çľģ
ç»´ åŁĥ
åĬ¿ åĬĽ
Ġ é»Ħ
çļĦ åİĨåı²
Ġ å¤©
è° Ĭ
æĽ¾ ç¥ĸ
çŁ³ æ²¹
æ¼Ķ åĮĸ
æ³¢ ç½Ĺ
è½¯ ä»¶
æł¹ å»·
å¤ı ä»¤
éĥİ ä¸Ń
åĮĹ ç¾İ
çĺ ¤
SE E
éŃ ģ
ä¸º æ³ķåĽ½
å°¼ åħĭ
ç» ³
åįķ åħĥ
æ¶ī åıĬ
åį³ ä½į
ation al
å¤§ å¤ļ
ä»¥ åĮĹ
å±± åİ¿
5 85
iv e
åį° å°¼
ç½ĳ çĲĥ
å¸ Ĩ
Î ±
æľ¬ çīĩ
é©¬ æĸ¯
å·¡ åĽŀ
8 3
ĠS h
è§Ĥ çĤ¹
çĪ± å¾·åįİ
å®ª æ³ķ
æĿŃ å·ŀ
åį¡ æĸ¯
ä¹Ŀ æľĪ
çļĦ æĥħåĨµä¸ĭ
å¼ķ åħ¥
åĬ³ åĬ¨
é¦ĸ ä¸ª
å½¢ çĬ¶
é¼ İ
i z
æİ¨ è¿Ľ
æ´¾ éģ£
éģ ¥
åį± æľº
ç«ĭ æ³ķ
æ£Ģ æŁ¥
åĲį äºº
è¥¿ åħ°
å¤© åłĤ
çļĦ æĹ¶éĹ´
æ² ¼
å¿ ĺ
çĶ¨ æĪ·
è¾¹ ç¼ĺ
A S
çº ¬
æıĲ åĪ°
æīĵ ç®Ĺ
çİ° ä»Ĭ
æ¶Ī å¤±
åħ±äº§ åħļ
è·Ł éļı
é¾Ļ ç§ĳ
æ±Łèĭı çľģ
9 2
å® Ľ
è®º æĸĩ
Ġ201 1
ãģ §
æĢ ĸ
çļĦ æĪĲåĳĺ
ä¼Ĭ æľĹ
ç´¯ è®¡
è· ĭ
éĢĤ åĲĪ
ç¥ ¯
æĥ ¯
ä¸»è¦ģ æĺ¯
è¹ Ī
ä¸ŃåĽ½äººæ°ĳ è§£æĶ¾åĨĽ
çĭ Ń
åĪĨ éħį
ä¸į ä»ħ
ç¿ Į
æħķ å®¹
Ñ Į
IN SEE
ä¼ļ åĳĺ
Ġ201 3
èĲ¨ å°Ķ
æº ¯
æīĭ æľ¯
é£Ł çĶ¨
èĴĻ çī¹
çº¿è·¯ åı£
ä¸» äºĭ
èīºæľ¯ å®¶
çļĦ çĶµå½±
æĺ¯ é¦Ļæ¸¯
æľ Ń
ĠA r
Ġ g
çĪ ª
æĶ¹ åĸĦ
å°ļ æľª
æĿĥ åĬĽ
éĤ£ äºĽ
éĩĬ æĶ¾
9 6
å© ´
Ġ201 2
åĮº éĹ´
å¾· çļĦ
æ¿ ĳ
ç¡® è¯Ĭ
èĪ ±
æ¸¸ æ³³
éĴ¢ çĲ´
å¾· å°Ķ
å¢ŀ éķ¿
ä¸į æĺİ
ç»´ æĸ¯
äº¬ éĥ½
195 3
6 25
è¾ ¨
å¤§åŃ¦ çļĦ
é©¬ éĩĮ
èĤ¡ä»½ æľīéĻĲåħ¬åı¸
æ¯ ħ
åĿĩ ä¸º
æ¼ ł
ä½Ľ ç½Ĺ
è¢« è¿«
å°Ĩ é¢Ĩ
ä¸Ń åħ±
28 1
éĺµ å®¹
æĹ¶æľŁ çļĦ
) ï¼ļ
ä½ĵ ç³»
10 82
ä¹Ŀ é¾Ļ
äºİ P
æĻ ´
ä¸Ĭ ä¸ĭ
è¥¿ æĸ¯
ç§¯ æŀģ
èĥ º
å¸¦ æĿ¥
ãĤ £
æ¡Ī ä»¶
éĵ İ
çĽ´ å¾Ħ
åįĩ çº§
å¤ ¹
å£« é¡¿
å¹´ åĴĮ
å¯Ĩ åº¦
å® ł
æ¯ĶåĪ© æĹ¶
æĭ ĸ
é¦ĸ å¸Ń
çķĻ åľ¨
åĴĸ åķ¡
èĢĮ è¨Ģ
æ· ĳ
196 6
çļĦ åıĳå±ķ
èĭ ¯
Ġ200 9
æĪĲ å°±
å¸Ĥ éķ¿
å¯¹ åºĶ
ãģ £
æµ· å³¡
åĳĺ å·¥
éĩį éĩı
è¯¥ çīĩ
å®ŀ è¡Į
åºŁ éĻ¤
éĺ¿ æł¹å»·
èĥľ åĩº
æĿĢ å®³
æįŁ å¤±
å¾· æĭī
èĮ ħ
8 7
é¢Ĩ åľ°
S h
ç§ĳ å¤«
195 7
åĲī å°Ķ
ä¸į åĪ°
æ»¡ è¶³
åħ¥ çĲĥ
ä»£ çĲĨ
çī¹ æĭī
çŃī çº§
åŃ ķ
æĽ´ ä¸º
å¤į åħ´
çĬ¯ ç½ª
åľ¨ ä»ĸ
çļĦ è®¾è®¡
ä¹¦ éĻ¢
åįģ ä¹Ŀ
ĠS ch
éĤ» è¿ĳ
å¤ª å®Ī
åĪĨåĪ« ä¸º
éĢī ä¸º
is h
ç§° ä½ľ
å©ļ å§»
å·´ å°Ķ
or e
Ġ201 5
å®ļ å±ħ
æĹł äºº
æĬ «
åĲ »
å¼Ĺ éĩĮ
éĥ ģ
Ġ201 6
æĺ¯ ä¸ª
ãĤ Ĵ
è®¾ å®ļ
å±Ģ éķ¿
M ar
å»ºçŃĳ çī©
çŃ¾ è®¢
Ð ´
æĲ º
ç¿ ħ
æī© å¤§
ç¼ħ çĶ¸
åĩº åĶ®
6 00
ç±» çļĦ
37 4
å°Ŀ è¯ķ
å²Ľ å±¿
å·² è¢«
é¢Ħ è®¡
éĺ ®
é£Ł æĢ§
Ġ201 4
åº ¶
è¶³ åįı
å±±ä¸ľ çľģ
å®ī å¨ľ
åħ¬å¼Ģ èµĽ
åį¢ çĵ¦å°Ķ
å·² æľī
å°ĳ å°Ĩ
éĽ· æĸ¯
å¸ĥ æĶ¿
è¥¿ ä¾§
çī¹ åħ°
åĬŀ äºĭ
å´ ©
åħĭ å°Ķ
ãĢ ľ
å¯¹ éĺµ
A N
åĲ« æľī
åĩ ¶
åĳ¨ æľŁ
æķĮ äºº
ä»ĸ è¿ĺ
åħĭ çļĦ
èĥĮ é³į
èħ Ĳ
196 7
ä¾Ŀ çĦ¶
åľ¨ é¦Ļæ¸¯
ãĢĭ (
äººåı£æķ°éĩı ä¸ºP
B N
åĪĨ æĶ¯
å¥³ çİĭ
èı Ĭ
åıĳ èµ·
ä¸»è¦ģ çļĦ
æģĲ æĢĸ
åĩ½ æķ°
é¡ ·
ãĥ ķ
ç£ ·
ç½ ¢
æĥħ æĬ¥
è§£ æķ£
ä»¤ äºº
åŃ£ åĲİ
æĦı å¿Ĺ
m er
16 0
ãĤ Ĥ
å¥³ ä¸»è§Ĵ
æºĲ èĩª
ä¸Ń æľŁ
éľ ŀ
æ¸ ł
æĪ¿ å±ĭ
æĸĩ èīº
ç« Ł
it h
i es
çĽĳ åĪ¶
åħ¼ ä»»
é¥ ¼
å§ ¿
åĪĻ ä¸º
å¦¹ å¦¹
éĩĩ åıĸ
æīĢæľī çļĦ
è½° çĤ¸
8 1
æĭ ¼
æľ¬ ç§ĳ
ä¸ľ ä¾§
çĽ¸ éĤ»
V D
ä¹Ł ä¸į
é² ¸
åį± éĻ©
Ġ æĹ¥æľ¬
éĺ» æŃ¢
æİ¥å£¤ çļĦå¸Ĥéķĩ
æİĴ è¡Į
ç¬¦ åĲĪ
èĩ Ĥ
ä¼ł åªĴ
E S
O N
å°Ķ å¤«
ĠC om
ç¹ģ æ®ĸ
è¤Ĳ èī²
å¾ª çİ¯
çļĦ çĪ¶äº²
å¤§ å°ı
å·¥ç¨ĭ å¸Ī
åħ¨ éĿ¢
ä½įäºİ ä¸ŃåĽ½
å¤§ è¡Ĺ
çĤ ī
æ· ³
é£İ æļ´
å¤ıä»¤ æĹ¶
å¿ ½
èĪŀ è¹Ī
è¯´ æĺİ
å®ģ æ³¢
èĥ½ æºĲ
e e
ber t
æ¡ Ĳ
æľī æľº
çĻ» éĻĨ
20 46
å¤© ä½¿
å¹³ éĿ¢
è¥¿ åĮĹéĥ¨
ç§į æ¤į
l y
è¿Ľ çĲĥ
éĥ½ çĿ£
æĹ¶ æ®µ
æ¦ Ħ
æģ °
å¹¶ ä¸İ
æĪĲ çļĦ
Ġ200 8
å®¶ ä¸Ń
æ¯Ķ å¦Ĥ
8 4
åı¯ä»¥ åľ¨
åŁ¹ åħ»
o x
çļĦ ä½įç½®
ä¸Ĭ äºĨ
æĮī å¯Ł
åĽ° éļ¾
æİ§ èĤ¡
æĪĲ æľ¬
äº« å¹´
å¸¸è§ģ çļĦ
æĢ ¡
ĠT he
æĸĩ æĺİ
å¨ ¶
èı ©
ç¾İ åĨĽ
éļı åį³
Ġ 12
åģľ éĿł
åľ¨ äºİ
åĨ ķ
æ¸¯ åı£
å¥ ĭ
æĪĲ äºĨ
å·¡ æĬļ
ãĥ Ĩ
èĦ ¸
å¡ŀ çº³
åł ¤
åľ¨ ä¸Ģèµ·
åĮºä¸º UTC
éĢī åĮº
åĲī æŀĹ
æĪĲ å¹´
çļĦæĹ¶ åĮºä¸ºUTC
Ġ "
çº¦ çĳŁ
åĩº éģĵ
INSEE å¸Ĥéķĩ
è¯º å¤«
i al
å· ·
æľī èĳĹ
ç¬¬ ä¹Ŀ
èĹ »
æĬ¥ å¯¼
un g
INSEEå¸Ĥéķĩ ç¼ĸçłģä¸ºP
çĶµ è½¦
âĢ §
åİ¿ çļĦ
è´§ çī©
éĤ®æĶ¿ ç¼ĸçłģä¸ºP
èĢĮ ä¸į
æł¼ æĭī
æļ ĸ
å¸ĥ æľĹ
éĤ µ
è± «
åģľ è½¦
äº¤ æį¢
èİ· å¥ĸ
åĨĴ éĻ©
èĩ Ģ
éĢļ ä¿¡
åİ¿ éģĵ
çļ® èĤ¤
ãģ Ļ
æľ µ
èĬĿ åĬł
åĽŀ å½Ĵ
å¯Į å£«
å®Į å·¥
èĬĿåĬł åĵ¥
çħ§ çīĩ
æĹ¶çļĦ äººåı£æķ°éĩıä¸ºP
æµ· åŁŁ
éļ¾ ä»¥
ä¸»æķĻ ç»ĥ
on e
å¤§ è¥¿æ´ĭ
éĿ¢ç§¯ P
Ġ n
äºĶ åįģ
åĬ¨ è½¦
ä¿Ŀ éĻ©
æĹ¶ åĢĻ
9 3
çİ° å®ŀ
æĭĨ éĻ¤
æħ İ
ç¨ Ģ
ç®¡çĲĨ å±Ģ
éĩı çļĦ
ä¸Ģ åĪĩ
ĠU n
Ñ ĥ
æ» ķ
é¢ģ åıĳ
Ġ å±±
ç±³ åħ°
åģ ¿
äººæ°ĳ å¸ģ
æĤ ¦
è± ¹
åĪĽ å§ĭ
å¤§ å°ĨåĨĽ
éĵ ¸
ç½Ĺ ä¼¯çī¹
ä¸į æ»¡
å¾Ģ å¾Ģ
æĭ¿ ä¸ĭ
åī¯ ä½¿
p er
è½ ©
çļĦ ç¬¬äºĮ
å²© çŁ³
æĬ ¼
éĻ¢ å£«
åľ£ ç»ı
æĪĸ æĹ§å¸Ĥéķĩ
æĮģ æľī
é«ĺçŃī åŃ¦æł¡
éĹ ½
æ½ľ èīĩ
ä½Ĩ ä»ĸ
ä¿® å¤į
è¶³çĲĥ èģĶèµĽ
è¶³çĲĥ éĺŁ
è¯Ĺ äºº
Ġ200 6
æĶ¶ éĽĨ
éĩį å¤§
äº§çĶŁ çļĦ
åı¯ è§ģ
çĽ´ éļ¶
ic k
åĬł å¼º
åľº æĻ¯
éĢĶ ä¸Ń
å® ´
ä¼Ĺ å¤ļ
åĬª åĬĽ
A P
a e
èİ· èĥľ
æĻ® é²ģ
æĪĲç«ĭ çļĦ
ï¼ī ï¼į
çĲĨ å·¥
åı¸ èģĮ
èĬ ¦
åķĨ åĵģ
å¸Ĥ æ°ĳ
åº¦ çļĦ
éĢī åĮºä¸º
å¤ª åĲİ
å¦ĩ å¥³
å¸ ½
é¹ ħ
ç±³ çļĦ
i x
å»ºçŃĳ å¸Ī
ç§į æĹı
åŁ¹ è®Ń
åĪĨåĪ« æĺ¯
Ġ201 7
æīĢå±ŀçļĦ çľģçº§
Ġ h
æīĢå±ŀçļĦçľģçº§ éĢīåĮºä¸º
å¿ Ļ
è¯¥ çľģä»½
è° ģ
èĮ µ
l and
ãĥ ī
æ£Ģ æµĭ
èĬ Ļ
æľº åĪ¶
m m
æ»¨ æµ·
er n
å¹´ ç¾İåĽ½
åĵ¥ åĵ¥
Ġ200 7
æĥ ľ
ac e
åı¤ èĢģ
åĲİ è¢«
æĸ° åŁİ
èĩª èº«
ç¼ĸ åħ¥
éĶ Ĳ
æĺ¯ä¸Ģ åº§
çľģçļĦä¸Ģä¸ª å¸Ĥéķĩ
èĴ ²
åįİ äºº
ç¤ ģ
Ġ 8
is s
åįļå£« åŃ¦ä½į
C O
åľ° åĲį
åĲĪ åĲĮ
éħį ç½®
åºĦ ä¸º
æ´Ľ å¤«
çŁ¥ åºľ
ãĥ £
å±± å¸Ĥ
ç«ŀ èµĽ
æľ« æľŁ
á Ģ
çļĦ ç¥ŀ
ä¼ł æķĻ
9 7
æĸ° äºº
ä¸ľ åĮĹéĥ¨
æĸ¯ æĭīå¤«
äº¤ çķĮ
åĲ¸ æĶ¶
æ²³ çķĶ
ç¢ Ł
r it
çĶµ è¯Ŀ
ä½ľ åĩº
Ð ¹
åĿ ł
äº§ åľ°
ä¸Ń æľĢ
èĮ İ
äºº å·¥
è¶³çĲĥ ä¿±ä¹Ĳéĥ¨
un d
åľ£ æ¯į
æ¢ µ
195 1
oc k
æľ¬ åľŁ
193 6
æŁ Ħ
æ£Ģ å¯ŁéĻ¢
æ°Ķ è±¡
at t
èĿ ł
èĢ ķ
è£ģ åĪ¤
æĪĲ éķ¿
è½¨éģĵ äº¤éĢļ
éĶĢ éĩı
ä»İ æŃ¤
æĹ ¬
ä¿® éģĵ
æĶ» æīĵ
C l
çľ ł
çļĦ åĽ½å®¶
s s
åĮĹ ä¾§
æŃ¤ åī§
èģĮ ä½į
çļĦ è¯Ŀ
æŃ» äºİ
æī ģ
ä¾Ľ åºĶ
çĪ ¸
ç¢ °
æ¾ Ħ
çŁ ®
å®ī æīĵ
è½¦ éģĵ
åĽĽ ä¸ĸ
å¤ļ å°Ķ
ç«ĭ åį³
åĲĳ åįĹ
åĲĪ åĶ±
é¢ģå¥ĸ åħ¸ç¤¼
å»ºç«ĭ äºĨ
çļĦ åĲįåŃĹ
ç»´ å¤ļ
æīĢ å±ŀ
æī ĳ
ç¢ ±
9 4
çļĦ æĥħ
åŃĲ å¥³
åĲĮ çĽŁ
åİŁ æĿ¥
è¿Ĳ ä½ľ
o od
Ġ æŀĹ
ä¸» åĬĽ
æĢ§ æł¼
ç©º ä¸Ń
Ġ201 8
ä¸º åħ¶
è´ ©
ä¸Ģ åľº
èĪª å¤©
ï¼ İ
åĨĽ å®ĺ
çİ° åŃĺ
éģĩ åĪ°
åįģä¸Ģ æľĪ
å´ ĸ
a ur
ä¾ĭ åŃĲ
çī¹åĪ« æĺ¯
éķ¿ è¾¾
äº² èĩª
åĪĨ è£Ĥ
çŃ Ĵ
èµĦ è®¯
åĳĪ çİ°
é¢ Į
çīĻ é½¿
u re
æĺ¥ ç§ĭ
å¼Ĺ éĽ·
Ã ¡
èĢĥ è¯ķ
çĸ« æĥħ
æ±Ł æĪ·
æĹ¥ äºİ
å¹¶ çĶ±
ä¸ī äºº
è¯¥çľģä»½ ä¸ºæ³ķåĽ½
æł¡ åĽŃ
Ġ200 5
æĪĲ çĨŁ
äºĮ æĪĺ
åĲĦ èĩª
ãĢı ï¼Ī
çļĦ éĤ®æĶ¿ç¼ĸçłģä¸ºP
å·´ åŁº
ç© ·
æľ¬ äºº
çŁ ©
è¾Ĳ å°Ħ
9 1
çļĦ è§Ĵèī²
ãĢĭ ï¼ī
ä¸» ä½ĵ
æµ Ĩ
ä¸¤ å¹´
æ¶ Į
çłģ å¤´
e x
ä»¥ åįĹ
ä¼¼ ä¹İ
å¤§ ä¼Ĺ
å¾Ĺ åĪ°äºĨ
ç«Ļ åİħ
æ²¿ æµ·
å¿ Į
æ¯ı å¤©
åħ³ éĶ®
å·² çŁ¥
Ġ ä¼Ĭ
æĿ¯ åĨłåĨĽ
åĬłåĪ© ç¦ı
T h
åįĹ éĿŀ
ä¸ĭ ä»¤
éĤ£ ä¹Ī
å°Ħ åĩ»
æĢ» è£ģ
äººåı£ æĻ®æŁ¥
äºĴ çĽ¸
ä¿® æĶ¹
ãĢĤ ãĢĤ
åĨĽ åĮº
åĲ¯ åĬ¨
èħ °
æĶ¿æ²» å®¶
æİ¨ èįĲ
é¡º åĪ©
èĬ Ń
èĭı ç»´åŁĥ
æľº çļĦ
æĢ§ èĥ½
åıĮ æīĵ
æ´» è·ĥ
åŁİ çļĦ
æİ ł
åĴ ¨
å¼Ģ ä¸ļ
éĩĮ åħĭ
ä»ĸ ä¸º
æĢ» çĽĳ
ç©Ĩ æĸ¯
å°¼ è¥¿äºļ
ä¹Ł å°±æĺ¯
åİ ¨
åī¯ ä¸»å¸Ń
ç«ĭ æĸ¹
Ġ Z
ol d
åıĳçĶŁ åľ¨
çĭ Ĳ
è´§ è¿Ĳ
èµĽ ä¸Ń
é¾Ļ æ±Ł
o us
ä¹Į æĸ¯
è¯¥ åħļ
é±¼ ç±»
æ¡ĥ åĽŃ
å£° ç§°
æĸ° ç«¹
ä¸¤ èĢħ
å¤Ħ çļĦ
ç½Ĺ å¾·
ä¸Ĭ è¿°
èµ· ä¹ī
è¯Ń çļĦ
æĦı æĢĿ
ic e
åĮ» åŃ¦éĻ¢
æ¡¥ æ¢ģ
çĵ ·
èĩ³ äºİ
åįĹ ä¾§
S A
å·¥ä½ľ å®¤
è¡Į ä¸ļ
èµ· æºĲ
æĳ §
ãģ ¤
å°ı å§Ĳ
çłĶ åıĳ
åįģ ä¸ĥ
è¯ģ å®ŀ
çªģ çł´
åĤ ¬
åįĩ ä»»
193 5
åĩº åıĳ
é¹ ı
M V
èµ Į
çĪ± çļĦ
æĺ¯ ä¸º
åħ¶ä¸Ń åĮħæĭ¬
åĵģ ç§į
èµĦ æľ¬
l ay
èĲ Ŀ
s k
ä¸» å¼ł
éķ¿ å®ĺ
æĥ ¨
ä¸» åĬŀ
éĺ³ åİ¿
ä½ı åľ¨
ä¸ľäº¬ éĥ½
Ġ 18
éĶĻ è¯¯
èĤ ©
åıĳçİ° çļĦ
éĩĳ å±±
ä¸¤ ä½į
çļĦä¸Ģ æĿ¡
å¤§ çĲĨ
æķĪåĬĽ äºİ
åŁİ åİ¿
è¥¿ éĩĮ
ç³»ç»Ł çļĦ
å¯ ĩ
ä¹Ĳ åĻ¨
ä¸Ģ èĩ´
è¸ ¢
N BA
ä¼ł å¥ĩ
å¤´ éĥ¨
æĪĺ è½¦
8 00
è¾ Ł
ä¾ ¨
å¤ĸ çļĦ
çĥ ·
èĮ Ħ
åı· çļĦ
çī©ç§į çļĦ
ä¸ľ åįĹéĥ¨
å¯¹ æŃ¤
é© ³
æĪĺ èĥľ
æľīä¸Ģ äºĽ
igh t
ä¸¤ åĲį
193 3
éĻ ¨
ä¸Ń å¼ı
è¢« è§Ĩä¸º
åıĳ æĮ¥
ç¾İ ä¸½
å¥³ åŃ©
ä¿Ħ åĽ½
éª ı
äºĶ ä¸ª
è¿½ æº¯
æīĢåľ¨ åľ°
èĽ Ļ
çļĦ æīĭ
Ġ éķ¿
åįĩ æł¼
å½ĵåľ° çļĦ
çĮª ç¬¼
å° ĺ
å¨ ħ
åķĨ äºº
åĬłåħ¥ äºĨ
è¿Ļæł· çļĦ
çī¹ çĤ¹
çĽ¸åħ³ çļĦ
çĶµ åĬ¨
åĭ Ł
æ¸¸æĪı çļĦ
çĮªç¬¼ èįī
ãĤ °
E D
æĹ¥ æŃ£å¼ı
é¢ ĸ
éħ ·
åľ° ä¸Ĭ
æĪĺ åĽ½
åı° é£İ
ãĤ º
ä¸´ åºĬ
U n
æĺ¯ åĽłä¸º
åį §
åĮħ åĽ´
e am
p e
ç¬¬ä¸Ģ ä½į
æĬĳ åĪ¶
æĺ¯ åı°æ¹¾
åĵ Ģ
æº ĥ
åĩº å¸Ń
çĪ ¬
Ġ &
å¤§ æŃ£
æ£ ī
å®¤ åĨħ
çĮ ´
è§Ĩ é¢ĳ
ä¸ĭ ä¸Ģ
æĦŁ è§ī
æ³ķ å®ĺ
å² Ĳ
or y
åģ¶ åĥı
è¿Ļ é¦ĸ
å°ģ ä¸º
Ġ w
å¥³ æ¼Ķåĳĺ
æĶ¹ ç§°
èº« ä¸Ĭ
çĽĳ å¯Ł
ä¸Ĭ åįĩ
å« Į
ãĤ µ
éĿł è¿ĳ
0 8
æľĢé«ĺ çļĦ
åħħ æ»¡
æĤ ł
ç²¾ çģµ
æĴŀ åĩ»
éĻ· åħ¥
æ³ķ æ¡Ī
äº ©
çļĦ éĥ¨åĪĨ
åĲį è¿Ľå£«
å¼ł ä¸ĵè¾ĳ
ter n
ä¸Ģ äºº
è¸ ı
éĹ» åĲį
æ³¢ å£«é¡¿
åī Ĭ
çī¹ å®ļ
æĢ§ åĪ«
å¿ĥ èĦı
å¹´ èİ·
è¶ ĭ
193 4
èĲ¥ ä¸ļ
æ´¾ åĩº
æ³ķåħ° åħĭ
æľį è£ħ
éĢ »
i re
æİ¢ æµĭ
ç½Ĺé©¬ å°¼äºļ
çĲĨ æŁ¥
å²Ľ å¼ı
èĽ Ľ
è¾ħ åĬ©
äº ¥
å¸ĥ éĽ·
o ol
äºĮ çº§
m ent
å¥¹ ä»¬
æĽ¾ äºİ
æľ¬ çº¿
æĺŁ ç³»
é«ĺ è¾¾
çļĦ éĹ®é¢ĺ
æµİ åįĹ
çļĦ éŁ³ä¹Ĳ
åĮĹ èµ·
èĢĮ éĿŀ
å°Ķ é¡¿
éĤ ±
çļĦ æľĢ
éĻ ª
ä½ĵ éĩį
æķĳ æı´
å°¤åħ¶ æĺ¯
åľº åľ°
è¿ĳ å¹´
ð «
æĹ Ń
æĮĩ å®ļ
æ¶Ī è´¹
åĲĳ åĮĹ
çķ ħ
æ® ·
å¼ı çļĦ
ä¼ļ è¯ķ
å¥½ åıĭ
æİª æĸ½
ãĥ Ĭ
åĺī å®¾
é«ĺ éĽĦ
é©¬ ä¸ģ
äººæ°ĳ æ£Ģå¯ŁéĻ¢
éķ¿ å®ī
çĻ¾ ä¸ĩ
æİ¨ åĬ¨
æıĲ çĲ´
æ¯ı æĹ¥
æĬµ æĬĹ
æ³ķåħ° è¥¿
åŃ¦ çļĦ
çĶŁ æĪĲ
è¡Į çļĦ
æķ ²
u k
é©±éĢĲ èĪ°
å¼ Ħ
en n
æģ ¨
é¦ĸ ä½į
éķ ĳ
ãĢĭ ãĢĬ
or m
è·¯æĺĵ æĸ¯
0 5
æĸ° å»º
æł¼ å°Ķ
æµģ æµª
ç¼© åĨĻ
ä»ĸ åĴĮ
åıĺ ä¸º
åı¬ å¼Ģ
æµ· ä¸Ĭ
ä»Ĭ å¤©
çłĶç©¶ éĻ¢
å¾Ī å¤§
y l
O S
åĢĻéĢī äºº
Ġ å®ī
æ±Ł åįĹ
193 2
æ© Ħ
å¼Ģ å±ķ
çľ¼ çĿ
è¿ŀç»Ń åī§
åĬŁ çİĩ
æĻļ æľŁ
å¥¥æĸ¯ åį¡
åį¡ ç½Ĺ
æĥ³ è¦ģ
æķĪ åºĶ
ç»¼ èīº
å¥¥æŀĹåĮ¹åħĭ è¿ĲåĬ¨ä¼ļ
å¸Ĥ æĶ¿
èĪ Į
æ°ĳ ä¼Ĺ
A K
èĲ½ æĪĲ
è¥¿ åįĹéĥ¨
æł¼ éĩĮ
çĶ° æĿĳ
ç» µ
å·´åŁº æĸ¯åĿ¦
æ³¢ å°Ķ
åħį è´¹
ç»ĺ çĶ»
ä¸Ń ä¹¦
çľ ī
éĢ ®
æ¹ĸåįĹ çľģ
åħĭ æŀĹ
å·¥ èīº
190 1
æ®ĸæ°ĳ åľ°
çļĦ æĢ»
äº¤ åıī
åĸ Ļ
æ Ĩ
åĬŀäºĭ å¤Ħ
æł¼ éĽ·
åħ· ä½ĵ
èĦ± ç¦»
è¯¥ åħ¬åı¸
ç¼ĸ ç»Ħ
å¹¶ è¢«
çŁ Ľ
ç¦ı å¾·
æī© å±ķ
å±± åı£
æ¯ Ĺ
ä½ĵ éķ¿
æ²³ è°·
D VD
190 9
ç§ĳ å°Ķ
èĭ± éĩĮ
åĽ½å®¶ çļĦ
é¢ Ĥ
äº¤ åĵį
èµ« å°Ķ
Ð¸ Ñ
y n
åĨħ éĻĨ
a x
ä»ĸ ä¹Ł
å·¨ å¤§
æĸĩ åºĵ
r is
æīĵ çł´
æĢĢ çĸĳ
ä¸ĭ äºĨ
æĪĲ åĪĨ
å¾Ĺ åĪĨ
çļĦ åİŁåĽł
æĥ §
æľ¬ ä¹¦
ä»¥ ä¸ĬçļĦ
è¿ŀ è½½
çİĭ ä½į
åİŁ ä¸º
çİ° ä¸º
çŁŃ æļĤ
ä¾Ŀ æį®
å¸Ĥ ä¸Ńå¿ĥ
ä½¿ åħ¶
åº ļ
éĺ² æŃ¢
æ© ¡
åĳĺ å¤ĸ
ç© Ĺ
ä¸» åĶ±
åİŁ ä½ľ
0 7
è¯Ħ ä¼°
æ·± åº¦
åľ° äº§
èĻ ı
æ©Ħ æ¦Ħ
çģŃ ç»Ŀ
é© ¹
ä¸ľ æµ·
çĶµå½± èĬĤ
å®īå¾½ çľģ
æĶ¾ åľ¨
ä¸º æŃ¤
âĢ Ļ
èĤ ¾
çļĦä¸Ģ äºĽ
çĹħ ä¾ĭ
am p
æĳ§ æ¯ģ
åľ° åŁŁ
ç§° åĳ¼
æĽ´ æĸ°
èļ Ģ
åŁºéĩĳ ä¼ļ
ç» ĳ
åĩ °
æµģ åŁŁ
æ¸¸ å®¢
éķ¿ æ²Ļ
æŃ£ éĿ¢
æĪĺ åľº
0 4
ä¾ £
or n
å¡ŀå°Ķ ç»´äºļ
ç»´å¤ļ åĪ©äºļ
éĺ¿ éĩĮ
èĻ ¾
å¾ģ æľį
å¼Ģ å¹ķ
çĽ´ æĴŃ
åĪĨå¸ĥ åľ¨
å¼Ĺ æĭī
ç¿° æŀĹ
æĴ° åĨĻ
èĥ¡ åĲĮ
æľĪ çĲĥ
ç½Ĺé©¬ å¸ĿåĽ½
ä¹ĭ ä¸º
è¥¿ èĹı
å¤§ è¿ŀ
è¯Ħ ä¸º
éĥ½ åľ¨
å¹³ è¡¡
åı² å¯Ĩ
åıª è¦ģ
åĴ ı
æ°Ķ ä½ĵ
èģĶ ç»ľ
å±Ĭ åħ¨åĽ½
åĬł å°Ķ
åĽŀ åĲĪ
å¥ĸ ç«ł
å» ĸ
æīĢ è°ĵ
0 9
åĲ Ĭ
åĲĦ ä¸ª
èµŀ åĬ©
æľĪ çļĦ
æĶ¹ å»º
æıĲä¾Ľ äºĨ
çĥ ¯
ac t
Ġ åĮĹ
æĸ¹ ä¾¿
åįķ æīĵ
èĭ± è¶ħ
0 6
æĮ ¡
å½ĵ å±Ģ
ĠT h
çº§ åĪ«
äºĨ ä»ĸçļĦ
æĬ Ħ
ç»ĩ çĶ°
J ohn
i de
è¿Ĳ æ²³
ĠM ar
ä¸Ĭ å¸Ŀ
ç§į ç±»
ic a
Ġ 2019
éĢļ å¾Ģ
am e
åħ¬ é¡·
åĭ ĺ
å´ĩ ç¥¯
ä¸ĭ åįĬ
çº¤ ç»´
åħį çĸ«
åŃ£åĲİ èµĽ
è¿ģ èĩ³
æİ¨ å¹¿
åħ Ķ
å¤§ éĢī
èı² åĪ©
å¼º è°ĥ
å°¼ åı¤
ãĥ ł
ä¸ļ ä½Ļ
æĦ ¤
os t
æľĪ åľ¨
ĠE n
å·´ æĭī
å±Ĥ çļĦ
ä¸¤ åĽ½
ä¼ļ æľī
æĸ° è®¾
æŁ¥ å°Ķæĸ¯
ä¸Ĭ åįĪ
Ð¾Ð ²
æ´Ľ æĸ¯
ag e
å»ºçŃĳ éĿ¢ç§¯
1 10
çª Ħ
åħ¶ä¸Ń ä¸Ģä¸ª
ãĥ Ĺ
ç« £
è½¦ åİ¢
éĩį è¿Ķ
å²Ľ ä¸Ĭ
æļ ¨
i el
åĮº åĨħ
çĶ· ä¸»è§Ĵ
å¹ķ åºľ
éŀ ĭ
æŀ¢ çº½
çĩĥ æĸĻ
é»ĳ é¾Ļæ±Ł
ãĥ Ł
on s
çĥ Ĥ
æ´Ľ éĺ³
èģĶèµĽ åĨłåĨĽ
åĪ¶ä½ľ çļĦ
Ġ åĳ¨
ä½ ĳ
ĠS p
éħ ¿
ãĥ ĩ
å¤§ åħ¬
æĶ¹ åĲį
è¶³ å¤Ł
å®īä¸ľ å°¼
æ¼ ı
æī© å»º
ä½ľæĽ² å®¶
ä¿®éģĵ éĻ¢
O R
åĶ ¤
Ġ æĹ¥
æĪ Ĭ
æĶ¯ æµģ
äº¤æµģ éģĵ
åľº æīĢ
èį ¡
ä»ĸä»¬ åľ¨
åıį æĺł
æĸ¯ æ´Ľ
æıı ç»ĺ
å¹³ æĪĲ
éĢī ç§Ģ
é¦ĸ çĽ¸
è·¯ ç«Ļ
æĸ¯ åį¡
èĢĮ ä¸įæĺ¯
åĨł çĬ¶
æ²³åĮĹ çľģ
éĻĨ ç»Ń
çļĦ æ¯ĶèµĽ
å¹´ å¤ıåŃ£
ãĥ ģ
èº« åĪĨ
åĲİ åį«
Ġ200 4
å¸ Ĳ
æ² ª
å²Ľ çļĦ
ç´§ æĢ¥
Ġ çĻ½
æŃ¤ æ¬¡
åīį éĶĭ
æ³ķ è¯Ń
å¹² çº¿
çĲĨ æĥ³
è¾¹ å¢ĥ
éĨ ī
ç¥ŀ ç§ĺ
ä¿Ŀ å®Ī
æį ī
å¾Ī å°ĳ
åıĻ è¿°
åĨľ æ°ĳ
çĽ¸å½ĵ äºİ
éĥ½ è¢«
æĹł è®º
åĪĽ æĸ°
çļĦ æĪĲç»©
æŃ¥ æŀª
le y
ä¼ļ ç¤¾
å½° åĮĸ
i am
æŁ´æ²¹ æľºè½¦
è¾¹ ä¸º
ç©Ĩæĸ¯ æŀĹ
æĦı è§ģ
æŃĮ è¯į
ç«ŀ æĬĢ
æ±¡ æŁĵ
èµ· çĤ¹
è½¬ æį¢
æĹ¶ä»£ çļĦ
å½ĵ ä»£
åĺī ä¹ī
am es
ens is
ä¸Ń å°Ĩ
èĭı å·ŀ
åĩº åľŁ
å¤´ è¡Ķ
åĲĮ åĲį
æł¼ æŀĹ
çº³ ç²¹
æĪ· éĥ¨
åį ¸
çª Ŀ
åı¸ æ³ķ
éĽķ å¡ĳ
å¹» æĥ³
Ġ âĢľ
çĤ Ń
çĽ Ī
æĽ¹ æĵį
éĢĤ åºĶ
éĵĥ æľ¨
Ġ æĿ¨
ä¸Ģ è¯į
å¹´ ä¸İ
åľ¨ æĸ°
ãĤ ¦
æıĲ åıĬ
æĿĥ åĪ©
æ»¡ æ´²
æİ¥ æĽ¿
éħ ®
æ° Ł
ä»¥ æŃ¤
çĲĨ è§£
ãĤ Ħ
çļĦ éķ¿
æĸ¯ æīĺ
è®° å¿Ĩ
åĺī åºĨ
çļĦ æ¯ĶèµĽä¸Ń
é» Ľ
èĭ į
çľ¼çĿ Ľ
çļĦ åŁºç¡Ģ
éģĹ ä¼ł
çļĦ æĸ¹æ³ķ
åķĨ åĬ¡
ãģ ł
è¯¥ æł¡
åįķ çĭ¬
éĿĴ å°ĳå¹´
å¤§ è§Ħæ¨¡
æĬ Ľ
ç¥ Ī
ï¼Ī ãĢĬ
åĪĨ æł¡
ä¹ĭ å¤Ħ
äºĨ ä»ĸ
æĶ¯ ä»ĺ
ä¼ļ è¢«
æŃ£ å¾·
Ġ ç½Ĺ
åĳ¼ åĲ¸
ä¸Ģ çĻ¾
æľī è®¸å¤ļ
åº§ åłĤ
å¤« å¦ĩ
æ¸ħ æ°´
ç¦ıå»º çľģ
åĪ¶ å®ļ
åİŁ åħĪ
åĴ Ĵ
å¸Ĥ æĶ¿åºľ
ãĥ ¥
åı² èĴĤ
è£ ´
æ°¸ ä¹ħ
äºĨä¸Ģ äºĽ
çļĦ å½¢å¼ı
ä½ĵ åŀĭ
åı¦ æľī
åĩ¤ åĩ°
ç¥ŀ ç¤¾
å¤© åĲİ
åĬł éĢŁ
è¿Ľ æŃ¥
æİĴ åĪĹ
åĨĻ ä½ľ
çİĩ åĨĽ
çļĦ ç¾İåĽ½
è§ī å¾Ĺ
æ¼ Ĥ
è¯¥ åĽ½
è¿ĩ çļĦ
èĵ Ħ
äºº å¤§
éĺ² å®Ī
è´§ å¸ģ
æĪĺæĸĹ æľº
æľĢ ä½İ
ar e
äºº ç§°
è§Ĥ éŁ³
ç±³ äºļ
çĽ´ åįĩ
193 1
iv ers
Ã ¼
é¦Ļæ¸¯ éħįéŁ³
æĺ Ķ
è¾ Ī
æł¼ åĭĴ
èĵ ¬
æĺ ı
éª Ĺ
æ²Ī éĺ³
èĪª çıŃ
S p
ä¸Ģ æľŁ
æ¸¯ åħĥ
ä»£ æĽ¿
è®¨ ä¼Ĳ
çļĦ æĶ¯æĮģ
æĮĩæĮ¥ å®ĺ
æĳ Ķ
ĠC l
å¾· åĨĽ
éĿĴ æĺ¥
å¢ŀ å¼º
é¢ ħ
æİ ©
è½¦ç«Ļ ç»ĵæŀĦ
æİ¢ ç´¢
å®Ī æĬ¤
çļĦ æĥħåĨµ
ä¹¦ ä¸Ń
åĩºçİ° äºĨ
å¸Ń ä½į
åĽ½ å°ı
å¹´ ä»ĸ
P S
å¸¸ å¸¸
v er
ä¹Ŀ å·ŀ
ä½ ¥
åĵ ª
å¾· å·Ŀ
å¸ĥ éĩĮ
ä¸ª ä½ĵ
è¿ĳ ä»£
äºĭåĬ¡ æīĢ
Ġ ä¸Ĭ
åŀ £
è§Ĩ è§ī
ä»» æľŁ
å§Ĭ å¦¹
åĨħ èĴĻåı¤
é¢ĳ çİĩ
ä¹ ŀ
æĳĩ æ»ļ
èĿ Ļ
è¯¦ ç»Ĩ
éĶ ħ
è§Ĥ åħī
å¡Ķ å°Ķ
åį³ å°Ĩ
èĿĻ èĿł
çļĦ æ¯įäº²
å¤§ æ°Ķ
åıĳè¡Į çļĦ
è®¾ äºİ
ç»Ĩ èıĮ
èµ· åĪĿ
ç«ĭ éĻ¶
åľ¨ ä¸Ń
å¤©æ´¥ å¸Ĥ
Ġ +
æľ¬ åī§
ic al
èĪ¹ åıª
å®ĮæĪĲ äºĨ
èĽĭçĻ½ è´¨
åħ¶ä¸Ń ä¸Ģ
çĽ¸ è¿ŀ
å¯¹ åħ¶
ä½ı æ°ĳ
æ¶ Ľ
ï¼īãĢģ ãĢĬ
ä¸½ èİİ
å·¡ æ´ĭ
É Ľ
å·¨ å¤§çļĦ
D NA
çļĦ åľ£
çłĶç©¶ ä¸Ńå¿ĥ
Ġ a
æµ· åįĹ
åľ¨ èĭ±åĽ½
äº¤ ç»Ļ
åĨ »
é¸ ¦
é¢Ĩ éĺŁ
æĶ Ģ
ãĥ ĭ
å¤ª åİŁ
ãĢ ĳ
æĪ Į
æµģ ä¼ł
çĸ ¯
åıĽ ä¹±
æĸ¯ èĴĤ
è¶ħ è¶Ĭ
åī¯ ä¸»ä»»
ãĢ Ĳ
P h
èĩª ç§°
ç¼ Ŀ
æ¡ Į
éĩĳ åĪļ
åıĻ åĪ©äºļ
äº¤æĺĵ æīĢ
å¥ ¸
ç»ı çĶ±
åĲĮæĹ¶ ä¹Ł
èª ĵ
æľī ä¸ī
æ± ¶
åįģ ä¸īå¹´
èı© èĲ¨
çļĦ å¤©
ãĥ ĵ
éĽħ åħ¸
å®ļ æľŁ
ä»ĸ æĽ¾
ç«ĭéĻ¶ å®Ľ
éķĩ åĮº
ĠC ol
é»ĳ æļĹ
Ê ģ
19 18
æİ¥ èĳĹ
æļĤ æĹ¶
åº ¸
ç»ıæµİ åŃ¦
çļĦ ä¸Ĭ
çªģ åĩº
åĩº èµĽ
åīį åĲİ
äºĶ ä¸ĸ
æīĵ è´¥
åĨłçĬ¶ çĹħæ¯Ĵ
çģ« è½¦
ç«£ å·¥
èĬ ½
ç¥ ¸
åĽ½ åħ¬
åĩĨ åĨ³èµĽ
å¸ĥæĶ¿ ä½¿
éĢļ è®¯
è®© ä»ĸ
éĺ ľ
æĮĩ æķ°
åĽ¾ æ¡Ī
æ¤ ħ
æĻ®é²ģ å£«
åħĪ è¿Ľ
å¦Ĥ ä»Ĭ
éĢł åŀĭ
æĤ Ł
it e
å¤§ å¹ħ
æĭ ¨
ä½Ĩ åĽł
éķ¿ å¤§
åĲİ äºİ
ãģ ĺ
æĿ° åĩº
å¤ĸ åĽ´
åŀĴ æīĵ
èŃ¦ æĸ¹
ä»» å¤©åłĤ
æİ¥ æĶ¶
è´ ·
ä¿Ŀ éļľ
èĳĹ æľī
åºĦä¸º éĤ»
æĦı åĳ³
çĶ² ç»Ħ
æĶ¯ çº¿
å§Ķ æīĺ
åºĨ ç¥Ŀ
æľĢæĹ© çļĦ
éĻĦ åĬł
æ²¿ çº¿
æī© å¼ł
å¤§éĩı çļĦ
U S
æī ĩ
äºļ ç¾İ
åıĭ è°Ĭ
æĴ¤ éĢĢ
åĲĳ ä¸ľ
åįı è°ĥ
æĪ¿ éĹ´
åİ Į
å·² äºİ
è¾¹ çļĦ
éĺŁ åĳĺ
çº¦çĳŁ å¤«
åĩº èĩª
ĠP ro
è®¾è®¡ çļĦ
æĹ¥ åĲİ
æĹ¥ å¼Ģå§ĭ
é¥ ²
ä½Ļ äºº
éĺŁ åıĭ
æī £
æĵ ¢
ç«Ļ çļĦ
çłĶç©¶ çĶŁ
æĶ¹ç¼ĸ èĩª
ä¹ĭ å¹´åı·
æĺİ ç¡®
éĺħ è¯»
å¤ļ äºº
è¶ ģ
E N
ä¸ľ äºļ
æĸ ¥
éĢī åĩº
çĽ¸åĲĮ çļĦ
è¾ŀ èģĮ
Ġ åĲ´
åĪĻ åľ¨
åķĨ åºĹ
æĸ¯ åł¡
æĢ» ä¼ļ
æĽ´ å¤ļçļĦ
è¡Į äºº
æ¬¡ åŃĲ
l d
åº µ
åŁİ å¢Ļ
é¢Ĩ åħĪ
æħķ å°¼
æĹħå®¢ éĵģéģĵ
è´ ¬
æĽ¿ ä»£
é¢ ł
èĩª æĪĳ
æħĪ åĸĦ
å·¡æ´ĭ èĪ°
ãĢģ ãĢĬ
æ¯Ķ å°Ķ
èĭ± éķĳ
è¶Ĭ æĿ¥
å¹´ èİ·å¾Ĺ
å¤§ å®¶
åĨħ åľ°
ä¿Ĺ ç§°
éħįéŁ³ åĳĺ
æ¡ Ĩ
éĽķ åĥı
åľ° ä¸Ń
æ¨¡ æĭŁ
å¾· æĦıå¿Ĺ
æľī ä¸¤
èī ³
æ» ĭ
åħ¬ ä¼ļ
éĥ½ å¾¡åı²
å°± åľ¨
èĳ µ
å¸ ĸ
Ġ 11
æĪĲ äºº
éĢ® æįķ
åĬ ¾
è¯Ħ å®¡
ç»´ ä¹Ł
ç»´ æĬ¤
çĭ¬ç«ĭ çļĦ
åĪĳ éĥ¨
æ³ķ çļĦ
çĨ Ķ
ä¸ĵ çĶ¨
et h
o ok
ç§ĳ çļĦ
åı· ä¸º
åĽ¾ åĥı
ä¸¾åĬŀ çļĦ
Ù Ħ
ãĥ Ĳ
æīĵ è¿Ľ
æ¿ Ĵ
åĿļ æĮģ
æ³ Ħ
ä»¥ è¥¿
äºº çĶŁ
åĩº å±Ģ
åĩ ¸
ä¸ĸçºª çļĦ
æ²¿ å²¸
è¶ĬæĿ¥ è¶Ĭ
èĤ¡ æĿĥ
æĿ ı
æĥħ èĬĤ
é©± åĬ¨
æħķå°¼ é»ĳ
å¾· æĸ¯
è®¾è®¡ å¸Ī
ä¸ĵ ç§ĳ
å¾Ĺ å¥ĸ
æĪĺ æľ¯
åİŁ åĪĽ
é¢Ĩ äºĭ
æ¸ħ ä»£
Ġ ç¬¬äºĮ
æ£ ±
æĭĵ è·ĭ
çĶ· å¥³
ä¸Ģ éĥ¨
åĨħ æĪĺ
25 0
çļĦ æĹ¥
å§ĭ å»ºäºİ
æµ ¸
éĢļ çĶ¨
å¥ĸ æľĢä½³
å½ĵ å¤©
ç¥ĸ åħĪ
å¥ ł
ä¸į è¯¦
æĶ¹ è¿Ľ
åĳ İ
åĸ Ŀ
çİ¯ çĲĥ
i en
çī ²
Ġ éĥĳ
å°Ĩ åľ¨
æĺ¾ èĳĹ
åŃĺåľ¨ çļĦ
åĽ½ æľī
èĥ ĥ
èĻ ŀ
çĻ» ä¸Ĭ
æ¸© æ³ī
é¾Ļ ç±»
å« ©
çĲĨ åŃ¦
æĸ Į
ç§¯ åĪĨ
èĳ£äºĭ éķ¿
åŀĭ çĶµåĬĽæľºè½¦
çĻ¾ å§ĵ
è¯Ĭ æĸŃ
g h
ç¡® ä¿Ŀ
è¿ª å£«
as h
èĢ¶ å¤«
çª ¦
åģļ åĩº
a ul
è¢ ľ
èŀį åĲĪ
æĿĳ åºĦ
an s
al e
æĿ¥èĩª äºİ
åĽ ļ
çİ° æľī
æĸ¹éĿ¢ çļĦ
æīĭ æľº
çļĦ éĺ¿
åįĹ æĺĮ
æľĢ ä¸º
Ġ200 3
i um
åį« éĺŁ
éĴ ł
ä¼ļ ä¸Ĭ
ä¸į çŁ¥
ĠĠ ĠĠ
çĶµè§Ĩ èĬĤçĽ®
ç»´ä¹Ł çº³
r on
è¢« æĿĢ
çļĦ çĶŁæ´»
æĸĩ å¸Ŀ
å¤© åºľ
åħĥ å¸ħ
æĹĭ è½¬
åıĳ æİĺ
åĲį ä¸¾äºº
è¿ªå£« å°¼
I T
åľ¨ éĤ£éĩĮ
ä¸İ æİ¥å£¤çļĦå¸Ĥéķĩ
è¯º æĽ¼
Ġ 2020
çĮ ľ
æĺĨ èĻ«
æĹ¥ æĬ¥
å± ¥
å¹´ ä»»
åĸ ī
çĽĳ çĭ±
ãģ ĳ
ç»´ åħĭ
æŀ «
çº º
ãĥ ¡
èĭ± åĨĽ
I D
éģ ®
ãĥ ĸ
ä¸ŃåĽ½ çļĦ
å¥½ è¯Ħ
åĨľ åľº
çĹ ķ
éħį è§Ĵ
çī© çļĦ
åİ¦ éĹ¨
åįĩæł¼ ä¸º
åĽł åħ¶
åį° åĪ·
éĢı éľ²
ì Ŀ
è¿Ļ é¡¹
é¢Ħ å¤ĩ
ä½¿çĶ¨ äºĨ
Ä ģ
æ¯ı åĳ¨
éģŃ éģĩ
ä¸Ĭ æ¸¸
æİĪ æĿĥ
ä¸Ģ èģĮ
åĲĦ åĽ½
ä¸ĸçºª åĪĿ
è¾ĥ å¤§
ä»ħ æľī
çļĦ åĪĨ
åĮº åĪ«
ãĤ Ī
op h
éķ °
èĭ± å°º
ä¸İ æŃ¤
åįķ ä¸Ģ
äºĭ ä¸Ń
éĽĨ çļĦ
æĽ¾ æĺ¯
èĩĢ é³į
åĲĮæĹ¶ ä¹Łæĺ¯
ä¹¡ æĿĳ
èĹ¤ åİŁ
Ġ æľĪ
éĩĮ è¾¾
ar a
å°Ħ åħ¥
æĺİæ²» ä¸īåįģ
å¾· è¯Ń
çº§ çļĦ
19 19
å¾· ç½Ĺ
å¹´ ä¸ĸçķĮæĿ¯
âĢĿ ï¼ī
æĺŁ çļĦ
èĲ¥ åħ»
æ²Ļ æ¼ł
ĠR o
è¾ĵ åħ¥
Ðº Ð°
Ð ¼
æħ °
éģĹ è¿¹
å¥ĸ éĩĳ
èı² å°Ķå¾·
é«ĺ æł¡
èĸ ª
m e
ä¸į è¦ģ
ä¸» äºº
èĢ¶ å¾ĭ
åı¸ä»¤ éĥ¨
æĢ» éĿ¢ç§¯
åĽŀ å¿Ĩ
ĠL e
Ġ ï¼ļ
èº« ä¸º
éĵ¶ æ²³
åĴ¨ è¯¢
ãĢĤ âĢľ
äºİ æŃ¤
éķ ¶
åŁİ éĻħ
åĢ ¡
ä¿Ŀ è¯ģ
åįł æį®
ä¼łç»Ł çļĦ
å¥³ ç¥ŀ
åŀĤ çĽ´
c o
é¢Ĩå¯¼ äºº
æ¢¦ æĥ³
ç«ŀ éĢī
çº³ å¾·
èĲ¨ æĭī
æĭħ å½ĵ
é¼ĵ åĬ±
å·Ŀ åİ¿
åĶ¯ä¸Ģ çļĦ
åĨħ æľī
å¼ķ è¿Ľ
åĭĴ æĸ¯
åľ¨ ä¸Ģä¸ª
èı ±
åĵ Ń
æ¹ĸ å¹¿
å°¸ ä½ĵ
m a
ç¾İåĽ½ çļĦ
æĺ¯ ä»İ
çĽ¸ åºĶ
åħ¨ åŀĴæīĵ
ä¹¦ åºĹ
æĻ¯ çĤ¹
æĭī å°Ķ
è§Ĵ åº¦
éĩİ çĶŁ
æĶ¶ è´¹
æĦŁ æĥħ
åĮ ł
7 00
å± ¡
åįĹ èĩ³
L e
s e
åĲĦ ç±»
çª ĳ
çĽ® çļĦæĺ¯
N HK
Ġ çŁ³
19 29
åĬł æĸ¯
åįģ åĽĽå¹´
çĶ· åŃ©
å¿ħ è¦ģ
å½¢ å®¹
åĪĽå§ĭ äºº
åĬł å·¥
é¥ ¶
ä»¥ ä¾¿
æĶ¶è§Ĩ çİĩ
æŃ §
èĢģ æĿ¿
é² ¨
æ¨¡ çī¹
l a
ä»¥ ä¸ľ
æ²ī ç§¯
çĸ« èĭĹ
å¹´ æ¯ķä¸ļäºİ
r ist
åı°åĮĹ å¸Ĥ
åŃ¦ åĽŃ
é© °
åı¦ä¸Ģ æĸ¹éĿ¢
I V
åĪ© çļĦ
Ġ X
19 28
çĽ¸ åıį
è½¯ æĿ¡
å®¹ çº³
ãģ ²
æ§ ½
ä¹Ł åı¯
æĬ¥ çº¸
æľª æľī
åĬŀ çĲĨ
å¼º åº¦
åĲİ åľ¨
åľ° äºļ
æł¼ é²ģ
çĳ °
å®¡ åĪ¤
äºĮ å±Ĥ
ä¼Ĺ è®®éĻ¢
é¥® é£Ł
Ġ 2021
æĭī å¾·
æ¬¡ äºİ
æĳ© å°Ķ
åĽ½ è¯Ń
åł Ģ
æį· åħĭ
A L
åİŁ åŀĭ
ä¸Ģ éĥİ
èķ ĥ
åĮĸ ä¸º
æĪĺäºī ä¸Ń
0 3
è° Ĳ
åĨľ æĿĳ
ä¸¥ æł¼
åĪº æ¿Ģ
Ġ æľ¬
æļĤ åģľ
åľ¨ åĨħçļĦ
äº¤ æ±ĩ
å®¢ ä¸²
èĪª çº¿
æľĽ è¿ľ
s p
çİ «
åħ¥ åĽ´
åĪ¶ æĪĲ
å¤ĸ è§Ĥ
ä¾ Ħ
æ· Ģ
æŃ£ ç¡®
æ¬§ çĽŁ
æĵħ éķ¿
åħ¶ åŃĲ
åĪ© çĽĬ
è´¢ åĬ¡
å¸Į çī¹
çĴ ĭ
ä¸Ń åľº
é©¬ æģ©
ä½İ äºİ
åľ¨ è¥¿
19 22
ãģ Ī
è¶ħçº§ èģĶèµĽ
åħ¬ å¯ĵ
åĪ° çļĦ
ä¸ľ æ±ī
äºļ å½ĵ
æĶ¹ è®¾
åĨ Ģ
ç¥ŀ åľ£
åºı åĪĹ
Ġ k
çļĦ èĥ½åĬĽ
åī§ ä¸Ń
èľ ĺ
æ© Ļ
æ¥ ł
æ¹ĸåĮĹ çľģ
åĩ ¹
ç§ĳ è¿Ľå£«
çº¦ æľī
å®¢ è½¦
çļĦ ä¸ĸçķĮ
æŃĮ åĶ±
åĪĨ ä¹ĭä¸Ģ
éĵģè·¯ å±Ģ
å¹³ å®ļ
æ³ķ åºŃ
å®ŀ åĬĽ
æĹ ±
çĶŁçī© åŃ¦
èĤĮ èĤī
çģ« è½¦ç«Ļ
æ³° åĭĴ
çİĭ åĲİ
åħĪ åıĳ
éĶ ¥
é£İ æĻ¯
åıĤä¸İ äºĨ
æĢ ¨
åľ£ æ®¿
çļĦ é©¬
åĲĮ åŃ¦
åīį è¿Ľ
çĶ· äºº
â ĸ
è¡Ģ æ¶²
ä¼ļè®® åĳĺ
ä¸ª æĢ§
èľĺ èĽĽ
éĩĩ è®¿
æĢģ åº¦
çļĦ ä¸į
è¿Ļ åľº
åħµ éĥ¨
åĳĺå¤ĸ éĥİ
åĮº åĪĨ
C C
çĶ» éĿ¢
å±ħ å§Ķä¼ļ
æ³ ª
åĻ¨ çļĦ
å®¢ æĪ·
åĪĩ å°Ķ
èģĶåĲĪ ä¼ļ
ãĥĥ ãĤ¯
å±±è¥¿ çľģ
çľŁ äºº
ä¼¤ å®³
çļĦ åľ°åĮº
å¹¸ ç¦ı
æľĽè¿ľ éķľ
â Ħ
å¤ļ ä¼¦
åĲİ ç»Ń
é«ĺ æŀ¶
èµĦ åĬ©
çľĭ è§ģ
çī© åĵģ
åħ¶ ä¸º
çºªå½ķ çīĩ
è¯ŀ çĶŁ
è¢« å¹¶åħ¥
åĶ ĩ
Ġ200 0
æİ¢ éĻ©
æĿĢ äºº
æľī çĿĢ
ç´¢ æģ©
ç©¿ è¶Ĭ
æĥ ĳ
éĩį å¤į
å®ĥä»¬ çļĦ
å¸¸ åĬ¡
åıĭ å¥½
ç¬ ĥ
èĢĮ æĿ¥
r es
å° §
åĿ ¤
æ± ģ
è¯¥ çī©ç§įçļĦ
çĽ´åįĩ æľº
19 27
å¤į æ´»
èĢĥ å¯Ł
çģµ éŃĤ
r in
å¹´ æĪĲä¸º
åĽĽ å¤§
çħ§ é¡¾
çĽ¸ è¾ĥ
åĿ ŀ
ç¿ ¡
èĮĥåĽ´ åĨħ
ç¬¦ åı·
äºļ çĽ®
ç¼ĸ åĪ¶
âĢ ĺ
ç»´ ä¿®
é¢ĺ æĿĲ
åĽŀ åºĶ
ç¾İæľ¯ é¦Ĩ
ä¹Ł æ²¡æľī
ç³ ķ
ä¸ģ çĽ®
åľ° å½¢
æ¼Ķ èīº
ä½į çļĦ
ä»» æķĻ
190 3
æ¨¡å¼ı äº§åľ°
æ¶Ī éĺ²
æłª å¼ı
åĬ¨è½¦ ç»Ħ
ä¼Ļ ä¼´
éŁ ¶
ç¦ §
at a
çĶº æĿĳ
èĻļ æŀĦ
å½¢æĪĲ çļĦ
å£ ¬
et t
è¡¥ åħħ
y s
åĲĳ è¥¿
ä¸ĭ æ¸¸
æĽ¾ è¢«
æķĻèĤ² éĥ¨
ä¸ľåįĹ äºļ
åº ĩ
æĸ¯ åĴĮ
è´Ŀ åħĭ
æłªå¼ı ä¼ļç¤¾
è¿Ļ ä¹Łæĺ¯
ä¸ĭ æĸ¹
ãĤ ¬
æ¸¸æĪı ä¸Ń
æĩ ¿
r am
æ° ®
ãĤ ı
w ard
Ġ æĺ¯
å¸¸ è§Ħ
çĮ ¿
çļĦ æīĢæľī
å¹´ åĩºçīĪ
å¼Ĥ å¸¸
æŃ£ ä¹ī
è´¹ çĶ¨
å¤§ åĲĮ
éĿ¢ ä¸´
å§Ĳ å¦¹
ç¯ĩ å°ıè¯´
çİĽä¸½ äºļ
d er
åĽ½ éĵģ
åı¤ å±ĭ
äº® çĽ¸
æ¸¸ åĩ»
è°ĭ æĿĢ
çĽĨ åľ°
ç¦ı éŁ³
éĻķè¥¿ çľģ
äºĨ è®¸å¤ļ
äºī å¤º
çĶŁæ´» åľ¨
å¾ Ļ
èį£ èİ·
è¡Ģ ç®¡
i i
ç¬ Ľ
å¼Ł åŃĲ
å¹¶ æĹł
åİŁ åĪĻ
èī² å½©
ä»į åľ¨
è´¢ äº§
å¤§ä½¿ é¦Ĩ
è½¦ ä½ĵ
å¤ı å¤©
å¤§ äºĭ
æīĺ é©¬æĸ¯
éĽĨ åĲĪ
åľŁ å£¤
3 000
åķ ¤
æ³¢ çī¹
åľ£ è¯ŀ
è¢« åıĳçİ°
è¿Ļ æĹ¶
å¸ĥ ç½®
æ¶ ¡
åķĨ åľº
æ°¸ è¿ľ
å¤§ åĨĽ
æĢ İ
ol l
åıĳ èĤ²
ä¼Ĭ æĭīåħĭ
å¼º çļĦ
å±ħä½ı åľ¨
ç¿¡ ç¿ł
a f
æķ ·
åĬł åĪ©äºļ
çĶ° ä¸Ń
e ar
15 00
æ¸ħ æ¥ļ
èİ± èĮµ
ä¸Ģ å¤©
åĿ Ł
å±± çļĦ
ä¸Ģ å±Ĥ
èģĶ åĨĽ
éĽĨ ä½ĵ
Ġ 2022
éķ¿ æĺ¥
çľģ çļĦ
èĤ ĩ
åĮĹ å®ĭ
çº ł
æµ ´
éħ ĭ
19 24
æł¼ æĭīæĸ¯
åĵĪ åĪ©
åĬ £
ä¸» åĬ¨
éģĵ å¤«
ä¸Ģ ç³»åĪĹ
é©¬ å¾·éĩĮ
çī Ł
åı¯ æĺ¯
æİĴè¡Į æ¦ľ
å¸ĥ åħ°
éħ ¯
æĴ ĳ
æ¶Ī çģŃ
çī¹ æĢ§
ç¥ ·
é¦ĸ åº¦
å¤©æĸĩ åı°
ä¼ ŀ
æľĢ æľī
åºĦ æĿĳ
è¯» èĢħ
æĪ ļ
æ¬ ł
èº ²
ç»Ļ äºĭä¸Ń
å¦Ĥ åĲĮ
æ·¡ æ°´
æī Ń
åĢ¼ å¾Ĺ
U N
èĤ¡ ä¸ľ
ä¸Ģ åıª
å¯¹ ç§°
æ¦ ´
å®Į é¢ľ
èĦĬ æ¤İ
Ġ ,
ãĤ ģ
è£ ¸
æį® è¯´
å¸Į å°Ķ
æ´¾ çļĦ
æİ¨ æµĭ
ä¸º æľŁ
å±ķ çİ°
éĹ ¯
è®¤ åı¯
S T
i us
æĪĲç«ĭ äºĨ
ä¸º ä¸ŃåĽ½
ç¬¬ä¸Ģæ¬¡ ä¸ĸçķĮå¤§æĪĺ
éĻ¨ çŁ³
åĭĩ å£«
ä¸Ģ æĶ¯
å®¶ ä¹¡
å¥¥ åı¤
åĲİæĿ¥ çļĦ
å½Ĵ ç±»
å·¨ äºº
æĶ¿åºľ çļĦ
å¢ŀåĬł äºĨ
ä¹ĭ ä¹±
è· Į
è¾ĥ ä½İ
ä¸ľ åĮº
åĽ´ æ£ĭ
è¯ĳ ä¸º
é£ŀè¡Į åĳĺ
Ġf or
å®° çĽ¸
æ³ Į
å¼Ģ åĬŀ
é¦ĸ åºľ
æŁĵ èī²
åŃŁ åĬłæĭī
åŃĲ åħ¬åı¸
ä¸» ç®¡
èģĮ åĳĺ
å·¥ éĥ¨
åıĤè°ĭ éķ¿
çķ ľ
it ed
ä¿ĿæĬ¤ åĮº
ç©¿ è¿ĩ
å¹´ ä»¥
ä¸Ĭ åľº
ä»İ æľª
åĽŀ åĽ½
è¿ģ ç§»
ov e
ä¸Ĭ æĸ¹
ç¼ ´
éħį å¤ĩ
è¾ £
ç¦ı å·ŀ
æľĿ æĹ¥
çº ±
æ£ ļ
åĨħ äºļ
ç»Ħ éķ¿
è¶³ æĢ»
é¡º æ²»
ä½ĵèĤ² é¦Ĩ
ç¦» å©ļ
äºĮåįģ åİħ
éĵ Ŀ
èĪªç©º åħ¬åı¸
åĨĽ äºº
æĿĳ æ°ĳ
æĢ» æķĻåĮº
åħĭ éĽ·
ä¸º é£Ł
çĲĥ è¿·
å¯¼ å¸Ī
è¿ĺ åľ¨
çĤ¸ å¼¹
åİŁ ä½ıæ°ĳ
æģĭ çĪ±
é» ı
ä¸»ä¹ī èĢħ
çŃĸ çķ¥
æĹ¥æľ¬ çļĦ
è¿Ľè¡Į çļĦ
Ġ200 2
èŃ¦ åĳĬ
åĲį åı¤å±ĭ
æŃĮ åī§
æī¿ æĭħ
Ġ ç¾İåĽ½
æĺ¯ ä¸ºäºĨ
19 00
å½± è¯Ħ
Ã Ń
æĮĩ ç¤º
ä¸Ńåįİ èģĮæ£Ĵ
ä¿ ±
é²ģ æĸ¯
æĵ ¦
æľĪ èµ·
ä¼Ĭ åĪ©
åĽ½å®¶ åħ¬åĽŃ
æĸ° åĮº
åħĭ åĬ³
ï¼ī -
éĩį è§Ĩ
åı°ä¸Ń å¸Ĥ
äºĭå®ŀ ä¸Ĭ
åĵĪå°Ķ æ»¨
äºļç¾İ å°¼äºļ
äºº ä¸º
éĥĳ å·ŀ
æĹ¥ çĶ±
æĺİ ä»£
æĺŁ éĻħ
æĥ³ æ³ķ
èµ¢å¾Ĺ äºĨ
ä¸įå¾Ĺ ä¸į
é¡º åºı
M A
èµĽ çļĦ
æĶ» åħ¥
åįĹ å®ĭ
çī¹ çĥĪ
ç§ĺä¹¦ éķ¿
I P
æ¯ı æ¬¡
åĪĿ å¹´
é¢Ħ ç®Ĺ
è· µ
an a
190 5
å¤§ å¸Ŀ
å« ¡
e ph
æĮ º
éĢłæĪĲ çļĦ
èŀº æĹĭ
m y
çļĦ è¥¿
ãĥ §
å¹¿ å²Ľ
or k
éª ļ
æµ ĳ
å¤© æ°Ķ
æµģ åĬ¨
éĻ¤ æŃ¤
åįģ äºĶå¹´
åŃ£ èĬĤ
ä»£è¡¨ å¤§ä¼ļ
èĭ ¹
è¯¥ åī§
åį° è±¡
çĭ ©
al d
èħĵ çī¹çĥĪ
19 23
æĹ¥ è¯Ń
æľī ä¸¤ä¸ª
ç§ĳ ä¼ļè¯ķ
è°Ī åĪ¤
a il
å¤ļ æł·
åľ¨ ä»ĸçļĦ
æľº åĬ¨
çī¹ å°Ķ
çīĩ å°¾
åŀĭ æľºè½¦
çĳ ¶
éĢģ åĪ°
æ²ĥ å°Ķ
æĢ» åĨ³èµĽ
è´ ª
æ£ĭ åŃĲ
ä¸ ¢
å¯ ħ
åķ ¦
åĽŃ åĮº
åĴĮ ä»ĸçļĦ
et er
ç¿Į å¹´
éħ °
ä¸į åıĺ
åħ± è®¡
éĥ¡ çİĭ
å·¦ ç¿¼
ç¥Ń ç¥Ģ
çĬ¹å¤ª äºº
åĩºçİ° çļĦ
ä¸Ģ çŃī
å¹³ å®ī
çģ° èī²
) ï¼Ī
M S
Ġ åŃĻ
éħ ±
I G
åĩº æĿ¥çļĦ
å¹´ ä¸Ń
å·¥ åķĨ
ä¹ĭ éĻħ
å¸ĪèĮĥ å¤§åŃ¦
åĽ´ ç»ķ
Ġ åīį
ä¿Ŀ åĬłåĪ©äºļ
æĹ©æľŁ çļĦ
çī§ å¸Ī
âĦ ĥ
åĢ¾ åĲĳ
è·¯ ä¸Ĭ
å¹´ çĲĥåŃ£
åı¸ æľº
æĹ§ åĿĢ
åĵ º
å½¢ çļĦ
Ġ ç¬¬ä¸Ģ
ä¹ĭ åĲį
å¨ģ å°¼æĸ¯
éĺ¶ çº§
æľ Ķ
åľ¨ ä½į
æī§ æķĻ
æ±¤ å§Ĩ
çļĦ æľºä¼ļ
çĻ» è®°
Ġ200 1
æł ½
å¯» æ±Ĥ
E l
æĬĢ å·§
1 12
åĭ ¾
å¯Į æ±Ĺ
éĩį ç»Ħ
æ¬ º
å§ĭ äºİ
åĲī ä»ĸ
çĭ® åŃĲ
èµĽ é©¬
å§Ķ ä¹¦è®°
çº¿ ä¸Ĭ
æĴŃ æĺł
çħ Į
å¹´ æľŁéĹ´
çŃ ĭ
èĬĤ å¥ı
åħĭæĸ¯ åĿ¦
çĽ Ĵ
è´¹ å°Ķ
ç»Ŀ å¯¹
è¡į çĶŁ
åı²å¯Ĩ æĸ¯
æĺ¯ èĭ±åĽ½
æĺ¯ä¸Ģ å®¶
åĲĮ æĢ§
ä¾¦ æİ¢
åĪĨ æĪĲ
ä¸¤ æĿ¡
éĢĶ å¾Ħ
åı¯ åľ¨
åĲį èªī
å½ķ åĪ¶
åį° ç¬¬
I R
e k
r ess
Ġ åľ£
æīĭ ä¸Ń
å¼Ģå§ĭ åľ¨
åľ°ä¸Ń æµ·
åįģ åħŃå¹´
æ¸ħ åįİ
åĪ¶ åĵģ
åħĪ éĶĭ
è¿ª äºļ
å¥¥æĸ¯ æĽ¼
çĤ ³
æıĲ è®®
çĶ² çº§èģĶèµĽ
åķ¤ éħĴ
è´¨ çĸĳ
é±¼ éĽ·
ä¼¦ æĸ¯
åĲİ æĸ¹
æĢ» å±Ģ
å½ķ å½±
å¥¹ æĺ¯
ä¹ł æĥ¯
è§Ĥ çľĭ
é¦ĸ é¢Ĩ
çĶ± è¯¥
æĶ¿ åįı
ç¡ķå£« åŃ¦ä½į
Ã ¶
å¥ ķ
æ¼ Ĩ
ä¼ł åĬ¨
ä¹ĭ åľ°
an k
å¡ Į
è¡Ĺ åºĦ
Ġ èµµ
ç»§ ä»»
ä¸»æķĻ åº§åłĤ
çī©çĲĨ åŃ¦
åħĭ åĪ©
è®¤ è¯ģ
Ñ ĸ
åľ¨ åīį
19 25
æµ· çĽĹ
èĽ ®
éĩĮ æĺĤ
åĪĹ åĩº
æĽ´ æį¢
çłĶ åĪ¶
å£° æĺİ
æıı åĨĻ
äºº æ°Ķ
æ¢ ĵ
ç¦ı åĨĪ
åĨį è½¬
å¹² éĥ¨
ä¼ĳ æģ¯
çĹħ éĢĿ
è®¸ åı¯
åº Ĳ
åĸ »
èĲ Į
åĽ¢ éķ¿
ç§ģ ç«ĭ
èĩ´ åĬĽ
åľº çļĦ
çŁ³ å¤´
åģĩ è®¾
æ·» åĬł
åĬł åĭĴ
åĩŃ åĢŁ
æĶ¾ éĢģ
Ġ ç¥ŀ
Î ¿
éģĵ çļĦ
ç§° ä¹ĭä¸º
åħ³ èĬĤ
äºĳåįĹ çľģ
ä¹Ĳ åĽŃ
å½ Ĺ
å·´ èµ«
r u
èĥ Ģ
åį°ç¬¬ å®ī
éĽĦ æĢ§
e in
è¯ Ľ
çĲĨ çĶ±
åĪĻ æľī
ä½Ĳ èĹ¤
æĹ¥ å¸¸
æľ¬ åĲį
é«ĺ åİŁ
æĪĲ æŀľ
å» ¿
æŁ ľ
æīĺ å°Ķ
å¤º åıĸ
19 17
æłĩ é¢ĺ
æĭľ åįł
éĢīæĭ Ķ
å¹´ ä¸Ĭæĺł
æĭ ¯
éĽ ģ
C H
n a
æķ° çļĦ
è§Ħ èĮĥ
çĻ ¸
å®½ åº¦
æĹ¶ éĴĪ
åľ¨ åįĹ
åīį æĿ¥
ä½Ĩ åį´
æĶ¶ åĪ°
çĳ ľ
èįī åİŁ
åıĳçĶŁ äºĨ
ä¾Ŀ èµĸ
ä¸º æĸ°
é©¬ åĬĽ
æĪĺ ä¸Ń
æ°¸ ä¹Ĳ
çĶµå½± çļĦ
Ġ #
å¾· åħĭ
æķ° åįģ
å±ĭ é¡¶
æĸ¯ åĽ¾
ä¸ľ è·¯
åĲĮ æŃ¥
æĭħ å¿ĥ
ill iam
Ġ st
ä¿¡ å¾Ĵ
ä¸ĵ åĮº
ä¼ģ åĽ¾
Q u
èĩª æŃ¤
å¤ļ é¡¹
å½¼ æŃ¤
èº« äº¡
le x
åĲı éĥ¨
å°Ĩ äºİ
æĭ¿ çł´
æĦ¿ æĦı
è¯¥çī©ç§įçļĦ æ¨¡å¼ıäº§åľ°
Ġ æ°´
ç¼ Ķ
çĦ °
å¤ı å¨ģ
ç«Ļ æĪ¿
å¯Ĩ åĪĩ
æĹ¨ åľ¨
æĺ¯ ä¸Ńåįİäººæ°ĳåħ±åĴĮåĽ½
ç½ķ é»ĺ
c om
çº³ åħ¥
æī§ æĶ¿
ç«ĭæĸ¹ ç±³
å¹´ æ¬§æ´²
æĹ¥ åıĳè¡Į
è° ¨
ç±»ä¼¼ çļĦ
å¤ ¸
å¤ª ç¥ĸ
æīĵ å¼Ģ
ä¿¡ éķ¿
åıĳçİ° äºİ
æĻº èĥ½
oun t
ãĥ ı
éĶ ¯
ç»ĵ å±Ģ
å·ŀ éķ¿
19 26
æĽ¾ ä¸º
çļĦæĦı æĢĿ
å§Ķ ä»»
æ¤ Ń
æĻº åĪ©
åĨ· åį´
P C
çĶ¨ ä»¥
æ¹ Ľ
å¹¿ å·ŀå¸Ĥ
è½¬ æĬķ
å®Ĺ å®¤
å»¶ ç»Ń
åħī è°±
çŁ¿ çī©
ç¿°æŀĹ éĻ¢
è¿ŀ ç»ĵ
æ±ī è¯Ń
ç»Ħç»ĩ çļĦ
å½ ¬
å°Ĩ ä»ĸ
æŃ¤ äºĭ
Ñ ı
å°±è¯» äºİ
å¹´ æĪĲç«ĭ
å¤ıå¨ģ å¤·
åı¤èĢģ çļĦ
F C
çļĦåľ° ä½į
æ© ĺ
åĲį åı«
è° ķ
åıĤ è®®éĻ¢
Ì ĥ
çļĦ åĽĽ
ç» ¥
ä½Ľç½Ĺ éĩĮè¾¾
éª¨ éª
æ³ķ ä»¤
åıĤ æĶ¿
éĩĩçĶ¨ äºĨ
æĭ¿çł´ ä»ĳ
å¹´ ä»¥æĿ¥
å§Ĳ å§Ĳ
éĺ¿ å¯Įæ±Ĺ
P ro
åıĸå¾Ĺ äºĨ
è·¯ å¾·
æµģ éĩı
19 12
è¯¥ åľ°åĮº
ä»ħ æ¬¡äºİ
å©ļ ç¤¼
ä¸Ĭ éĿ¢
å¤± è¸ª
é»Ħ æ²³
ä¹ĭåĲİ çļĦ
éĵģè·¯ è½¦ç«Ļ
å½± å±ķ
åĸľ çĪ±
Î ²
åİ¿ çŁ¥åİ¿
çĳ ļ
å© ·
è¯º è´Ŀå°Ķ
åİ ī
æľº ç»Ħ
çĵ £
ç»§ ä½į
çĩ ¥
è¡Į é©¶
F ran
å¹¶ æľī
å¾Ĺ ä¸»
åĳ¨ åĪĬ
èĤ¿ çĺ¤
ãĤ Ĩ
åŀ ©
æĹ¥ è¢«
å®£ ç§°
çªģ åĩ»
Ġ æµ·
ç¬¬äºĮ ä¸ª
çļĦ åĲįç§°
åħ¨ åı°
çº³ æĸ¯
éĵ¶ çīĮ
ç¾İåĽ½ æµ·åĨĽ
ĠB l
æľºåĻ¨ äºº
æĹł éĻĲ
è§Ĥ èµı
åĨ ¥
å¦ Ĩ
æ¬¡ åĪĹè½¦
å¼ §
ç² ĺ
åľ¨ åı°æ¹¾
å¹´ çĶµå½±
æĢ» ç»ıçĲĨ
åĽ½ ä¸Ń
ç« ĸ
ä¸ģ åł¡
e or
ä¸Ĭ åįĬ
åĪĨ åĮº
çĥ ¦
çĤ¹ çļĦ
èģļ éĽĨ
åıĬ åĲİ
æĻ¶ ä½ĵ
æ²³ éģĵ
åıĤ çľĭ
ç©Ĩ ç½ķé»ĺ
åģľè½¦ åľº
æŃ¤ åľ°
æµª æ¼«
æł¹ æľ¬
è¿½ æ±Ĥ
åĿĲ èĲ½
å·´ å¡ŀ
ç»ĥ ä¹ł
è£Ķ ç¾İåĽ½
åİŁ çĲĨ
å¤ļä¼¦ å¤ļ
19 21
åĮ» èį¯
å·¥ä½ľ äººåĳĺ
ä¸ī ä½į
éĻĲ å®ļ
ç§Ł çķĮ
åħ° å·ŀ
äºī åıĸ
äºĴ åĬ¨
å¦Ī å¦Ī
æ´» æĢ§
åľ¨ æ³ķåĽ½
çĽ ²
åī Į
èµĽ åĨłåĨĽ
åĬ¨ å·¥
ol og
å¿« ä¹Ĳ
è°¢ å°Ķ
åĴ¸ ä¸°
ä¸Ģ å¼Ģå§ĭ
è° £
ä½Ĩ ä¸į
ä¿® æŃ£
é¢Ħ æµĭ
ä¼Ĳ åĪ©äºļ
ãĥ ĳ
æĹı ç¾¤
æŃ» åİ»
æĲº å¸¦
åŀĭ åı·
as e
ç§» å±ħ
Ġ åĪ¶ä½ľ
åĪĨ è§£
å¥³ äºº
t s
çļĦ å¦»åŃĲ
âĢ »
æľ¬ æĿ¥
åĬł ä»¥
å®¿ èĪį
ä¸Ģ éĥ¨åĪĨ
ä¸ī æ¬¡
ç»Ń éĽĨ
è¾ĥ é«ĺ
åįģäºĮ åİħ
éģĵ å¾·
âĢĶâĢĶ ãĢĬ
è¯Ĩ åĪ«
æĭĽ çĶŁ
åħ¬ åŃĲ
æľĢ åıĹæ¬¢è¿İ
å½¢ çĽ®
åĴĮ å¤§
åħ¬ æ¼Ķ
çī¹ åĮº
æľ¬ å±Ĭ
æľº æŀª
åĪĽä½ľ çļĦ
æĺİæĺ¾ çļĦ
19 14
åŃ¦ éĥ¨
å®ĥ åľ¨
ç¡¬ æ£ĺ
æĹ¶ åĪ»
éĽ· è¾¾
æĶ» åįł
ç» °
æĺ¯ ä¸į
å½± åĥı
è½¬ ä¸º
çİ° å·²
éģŃ åıĹ
ç»ı çºª
in s
çĻ¾ å¹´
çĭ¬ çī¹çļĦ
ä»£ çłģ
å¹¸ åŃĺ
æĺĨ æĺİ
Ġ ï¼ī
çº Ĥ
æĹ© åľ¨
C om
èı²åĪ© æĻ®
Ñ ĭ
æĭľåįł åºŃ
åĩº èī²
åİ¿ åŁİ
æ´ĭ åŁº
éķľ å¤´
ä¼Ĳ åħĭ
è¾½å®ģ çľģ
åĬĽ åŃ¦
An d
Ġ æĿ¾
éĩĮ éĿ¢
åĬłåĪ©ç¦ı å°¼äºļå·ŀ
åĳ½ è¿Ĳ
æĻ® æĭī
å§ĵ æ°ı
Ã ³
åĪ ł
æĹ¥ ä¸¾è¡Į
åĲĮ æ²»
Ġ ä¸Ģ
å¹´ äºİ
åĲ Ĺ
åĮĹ ç¾İæ´²
188 9
E C
ä½ £
ãĤ į
è®¤ä¸º æĺ¯
å¼Ĺ åħ°
åįĹ æµ·
åįİ è¯Ń
éĽĨåĽ¢ æľīéĻĲåħ¬åı¸
åŃĺåľ¨ äºİ
åİ»ä¸ĸ åĲİ
ä»ĸ å¯¹
åĨĽ åľ¨
å¥ĸ çīĮ
äº§çĶŁ äºĨ
çļĦ åĽ½éĻħ
13 0
å¥´ éļ¶
çĲī çĲĥ
ç¼ ¸
æ» ¤
èĲ¨æĸ¯ å·ŀ
åĶĲ ä»£
èĲ¨åħĭ æ£®
ç½ ©
å¤ļ ä¸º
åĨ³èµĽ ä¸Ń
è½¬åĲĳ æŀ¶
è·ĳ éģĵ
v e
ç¬ ł
å°± ä»»
en g
èį «
an ce
å¤ª å®Ĺ
åģļ ä¸º
å½» åºķ
æŃ¦ çĶ°
çģŃ äº¡
æ·· åĩĿ
E T
ç§ ©
åħ¶ é¡¿
å°º å¯¸
æ¬¡ éĥİ
çļĦ ç»ĵæŀľ
åĩº åĵģ
åĪĨ åī²
èµ Ķ
æĪĺ ç»©
åĸ ĩ
ä¼Ĺ äºº
ä¹Ł åĽłæŃ¤
éĢļ çŁ¥
å¹´åº¦ æľĢä½³
æĳ ĺ
ä¸Ģ èĩ³
åĮĹ å¸Ĥ
çī© ä½ĵ
ç¦ı çī¹
Ġ èī¾
æľī çº¿
ä¼ļ è®¡
å¹´è½» çļĦ
å®Įæķ´ çļĦ
å®ļ ä½į
æĶ¾ å°Ħ
è°ĥ èĬĤ
æĽ¿ è¡¥
ç²Ĵ åŃĲ
äºĭ æĥħ
åĽ¢ çļĦ
ä¼į å¾·
æĴŃ åĩºçļĦ
çŃī å¾ħ
éŁ³ä¹Ĳ ä¼ļ
æłĸæģ¯ åľ¨
å·´ æĸ¯
æīĢ éľĢ
çĶµæ°Ķ åĮĸ
ï ¹
å©´ åĦ¿
å¼º å¤§çļĦ
é¥Ń åºĹ
åĵ ©
åĪĹ å®ģ
åĵĪ éĩĮ
ç²® é£Ł
ç§ ī
åħ· å¤ĩ
å£° ä¼ĺ
ç¬¬ä¸ī æ¬¡
æĲ ŀ
éĴ¢ éĵģ
á ŀ
æ°Ķ æĹĭ
è¯¸ èĳĽ
å®Į ç¾İ
ä¼¯ æł¼
é«ĺ äºİ
ç¦ı å°Ķ
æı´ åĬ©
çİ« çĳ°
é¦ĸ å°Ķ
é»İ æĺİ
æŀ¢ æľº
éĺŁ åľ¨
åŁ ł
åįĹ è·¯
æĭī çļĦ
éĤ ¨
åħĥ æľĿ
ç° §
éĤ ¸
æĪĺ è´¥
å¢ ©
åĪ© çī©
è®¾ åľ¨
å·´ ä¼ĲåĪ©äºļ
ä¸ĸçķĮ çļĦ
èĩªè¡Į è½¦
ä¸º å¤§
ä»¥ åħ¶
æĹı èĩªæ²»
B l
éĽ ¯
çİĭ å®¤
ä¸ĸçķĮ å¤§èµĽ
å®« æ®¿
æķĪ çİĩ
ä¸ĭ å±ŀ
é¦ĸ æī¹
éĴ ©
èŁ ¹
åİĦ å°Ķ
Ġ ä¸İ
èµ £
è¯Ĺ æŃĮ
æĽ´ æĺ¯
ç§ĳ çłĶ
çĭ ¸
çĻ½ åŀ©
åĳ¨ æľ«
åĽł åŃĲ
å°± æľī
åħī ç¦Ħ
è¯» ä¹¦
ç§Ł åĢŁ
er t
ä¸ī å¤§
æĪĸ ç§°
E n
è® ¼
æİ¥ ä»»
åĵº ä¹³
æ··åĩĿ åľŁ
çļĦ å±±
çļĦ åŃ¦çĶŁ
çĽ´ å±ŀ
å¯¹ æĪĺ
éħį ä¹Ĳ
è´¹ åŁİ
è½¬ ä»»
æīĭ æŀª
åĩł åĨħäºļ
ä¸» æĴŃ
æĢ» äººåı£
åľ¨è¿Ļ éĩĮ
åľ¨ å½ĵæĹ¶
19 11
ç«Ļ èĩ³
çľŁ èıĮ
äººæ°ĳ æ³ķéĻ¢
ĠM us
å§Ķåĳĺä¼ļ å§Ķåĳĺ
æ´ª æ°´
å¦ ¾
éĥ½ ä¸į
æıĲ åīį
ç®Ģ åİĨ
ä½¿ èĢħ
æĪ¿ åŃĲ
æĶ¹ è£ħ
ä¾Ľ å¥ī
æĿ¿ åĿĹ
Ġ åĲī
æ²³ åı£
è¾ĵ åĩº
è´Ń çī©
å¹´ åĬłåħ¥
æľĪ åºķ
åħ¬ çº¦
æĢ§ åĴĮ
åĥı æĺ¯
å®Ī å¤ĩ
ä¹ĭ æĹ¶
ä¹ĭ ä¸Ĭ
å¸ĥ ç½Ĺ
è° ı
å¤į ä»ĩ
åİĨ ä»£
ç¤º èĮĥ
æĻ¯ è§Ĥ
19 10
åįģ ä¸ĥå¹´
å¹³ è¡Į
æł¡ èĪį
éĹ ¹
æľĢåĲİ çļĦ
ot t
åĬ² çĪĨ
èģĶ ç½ĳ
æ¸ħ çľŁ
å¤©æĸĩ åŃ¦å®¶
Ġ çĪ±
in t
æ¡£ æ¡Ī
a de
æĸ¹ å½¢
éĿ¢ åĲĳ
é¦ĸ æĺł
åħŃ ä¸ª
æ¯į èĪ°
éº ĵ
æ·± åħ¥
c m
éĢ ¾
ä¸ĸçºª æľ«
æ¼ ³
ç¨ ½
æĲŃ æ¡£
å® ¦
çĶµ è·¯
ä¸¥éĩį çļĦ
æ· ĭ
åħ¶ä»ĸ çļĦ
çĩĥ çĥ§
æĺ¯ å¤§
çĮ ©
è¿½æº¯ åĪ°
åŃ ¢
æº¶ æ¶²
çĽ¸ ç»§
éĥ¨ ç½²
å¢ ħ
e f
p t
éĻ ĩ
æļ´ åĬĽ
éĽį æŃ£
ä½ĵ éªĮ
æĿĳ åĲĪå¹¶ä¸º
æ´Ľ ä¼Ĭ
åĪ©çī© æµ¦
â Ĺ
çļĦ å®¶
çķ ı
æ°´ åŁŁ
åħ¶ çĪ¶
ç¦ ¾
ä¸İæŃ¤ åĲĮæĹ¶
çīĽ æ´¥
åį¢çĵ¦å°Ķ çľģ
Ã ¤
ä¸Ń åİŁ
å¤© ä½ĵ
éľ ī
æĸŃ å±Ĥ
å¼Ģ åĲ¯
éĢļå¸¸ æĺ¯
çĶŁäº§ çļĦ
èħ¹ éĥ¨
éĩįçĤ¹ æĸĩçī©ä¿ĿæĬ¤åįķä½į
åĵĪ å¾·
æĹ© ä¸Ĭ
åľ¨ åĨħ
çĶµ æ±ł
è¶ ¾
an c
ç©Ĩç½ķé»ĺ å¾·
ä¸Ń ä¸ĸçºª
æ°´ ä¸Ń
éĽĨåĽ¢ åĨĽ
ç¤¼ éĥ¨
æİĮ æı¡
l er
çļĦ å»ºçŃĳ
åĪ¶ åĬ¨
éĤ£ ä¸ª
è¿· ä½ł
ow n
R o
æĬĢ èĥ½
åĩ»è´¥ äºĨ
åľ¨ ç¬¬
ä¸ĭ æĿ¥çļĦ
é¥ ¥
å§Ķåĳĺä¼ļ ä¸»å¸Ń
èī¯ å¥½
æıĲåĩº äºĨ
ä½įäºİ è¯¥
Ġ âĨĴ
è¥¿ è·¯
è° ľ
çĪ ½
è¦ģ å¡ŀ
190 6
æ±Łè¥¿ çľģ
æľĢ å¤ļçļĦ
çħ ®
éĺ² ç©º
éĵľ çīĮ
çĻĮ çĹĩ
æ¸Ĳ æ¸Ĳ
Ġ ç¾İ
ä¸º åŁºç¡Ģ
æ² §
ä¸ĩ å¹³æĸ¹ç±³
r en
é² Ī
åı¯ä»¥ æĮĩ
ä¼Ĭæĸ¯åħ° æķĻ
ä¸Ĭ å°Ĩ
åįĹ æŀģ
åįłåľ° éĿ¢ç§¯
éĥ¨ éĥ¨éķ¿
éĩĳ æĸ¯
åĽŀ çŃĶ
è¿ľ å¾ģ
éĢĲ æŃ¥
å¤ľ éĹ´
èĨ Ģ
èİ º
èº« é«ĺ
æľŁ åĪĬ
ä½Ĩ ä»į
çļĦå¤§ åŀĭ
è¯º æĸ¯
å®¡ æŁ¥
åİ ¥
åħŃ ä¸ĸ
åĽ½å®¶ è¶³çĲĥéĺŁ
åĲį è¯į
å°Ħ æīĭ
å¯¹ è¯Ŀ
åĬ² æŃĮ
ĠSch ool
èĵ ī
å½ĵ æĹ¥
ç£ ħ
D S
å°¼ æ³Ĭ
æĢ» æĺ¯
å±Ģ çļĦ
åĲİ åĽł
ä¼Ĭ å°Ķ
åıį å°Ħ
çī© è¯Ń
æīĭ æ®µ
åĽŀ æĿ¥
éļĶ ç¦»
åŃ¦ ç³»
æĻ® ç½Ĺ
ãĤ »
åĨĻ çļĦ
æİĴåĲį ç¬¬
æµĵ åº¦
E M
å¾· çĶ²
åĽŀ å®¶
åıĤèµĽ èĢħ
åī© ä½Ļ
ð ¬
æ°´ çļĦ
å±± é¡¶
æ¡ ¶
è¾ĥ å°ĳ
ä¸ī å±Ĥ
æ£ į
å·´ åĭĴ
ä¸Ģ çĶŁ
æĸ¯ éĩĮ
æ°´ åĪ©
èĭ¹ æŀľ
A m
ä¹Ł ç§°
è§ģ åĪ°
éĿĴ æµ·
çļĦå¥³ æĢ§
å°¼åı¤ æĭī
åį ¯
ç¦ ¹
åĴ ¬
åıĬ åħ¶ä»ĸ
ä½¿ ä»ĸ
ä¸Ńå¿ĥ çļĦ
ä¿ĺ èĻı
A d
äºº ä½ĵ
é©¬ åħ¶é¡¿
æ» ´
ä¸ŃåĽ½ ç§ĳåŃ¦éĻ¢
ä¾Ŀ çħ§
TV B
èĴ¸ æ±½
åīĳ æ¡¥
åĨ ¶
é«ĺ åľ°
é£İ äºĳ
å¼¹ åĬ¾
IS BN
åı¯ä»¥ éĢļè¿ĩ
åĮ» å¸Ī
æĮīå¯Ł ä½¿
çģµ æĦŁ
æĪĺäºī æľŁéĹ´
å½ĵ ä½ľ
é¡º æĹ¶éĴĪ
åı« åģļ
å£ģ çĶ»
å¤§ è´¥
åİŁ å£°
éĴ Ļ
å¸¦ èĳĹ
å¹´ æĭħä»»
å¹¶ æĪĲä¸º
éĩĮ å¥¥
ãĥ Ģ
é¥ ±
å¨ģ å°Ķæĸ¯
ç±»ä¼¼ äºİ
åĲİ åıĪ
ç¬¬äºĮ åŃ£
è¥¿ åĮº
åĽ½å®¶ çº§
ç¾¤ ä½ĵ
å¹´ æīį
ä¸Ģ è·¯
çĽ´ æµģ
åıĳçĶŁ çļĦ
æĪĲåĬŁ çļĦ
æ¿Ģ ç´ł
or ld
il le
æĿ¥æºĲ äºİ
åĪ¶çīĩ äºº
P lay
æĭ ĺ
çĽ¸è¾ĥ äºİ
a j
åı¤ å·´
å¼ĺ æ²»
ä¸Ģ æĹ¥
çĶŁ ç´ł
åĵĪ æĭī
it t
çıĬ çĳļ
è½°çĤ¸ æľº
è¿Ļ ä¸¤ä¸ª
å½± ä¸ļ
èĴĻ å¾·
æī¬ å·ŀ
.. .
æĪĺ èĪ°
å§ĭ ç»Ī
æľ¯ è¯Ń
åŃ£ åĨĽ
å¢ŀ è®¾
æĵ Ĵ
oc i
åıĤ è§Ĥ
æłĳ æľ¨
ç§ĳ å¹»
æĬĹ æĹ¥
âĶĢ âĶĢ
å®ĭ æľĿ
Ã ¨
æĹ¶ æĬ¥
åī ¥
è§ģ äºİ
å¸Ĥ ç«ĭ
ãĥ İ
s ch
éħ µ
åĥ ļ
å ¶
çĶµåŃĲ æ¸¸æĪı
190 7
çĹħ äºº
çºªå¿µ ç¢ĳ
å¨ģå°Ķ å£«
æ·±åľ³ å¸Ĥ
ä¹¦ æ³ķ
ç³ Ĭ
ä¼łæķĻ å£«
â Ī
Ġ ì
çļĦåīį èº«
æĥ ©
åħ³ èģĶ
ä¿Ŀ å®ī
av id
éĥ¨ çĶµå½±
Ð° Ð½
S P
çļĦ æ¸¸æĪı
çĶŁ æĹ¥
æŀľ å®ŀ
çļĦ æĹ¥æľ¬
åŃĲ å¼¹
ä¸ī ç§į
æ¬¡ æķ°
ä¸Ńå¤® çĶµè§Ĩåı°
èļ ģ
çļĦ èĢģ
10 1
åī§ åĽ¢
æĭ¯ æķĳ
èī ®
ãĢĤ ãĢĮ
äº§ çī©
èĳ¬ äºİ
çŃī çļĦ
éŀ į
åµ ©
æıĲ åĩºçļĦ
çĭ¬ èĩª
ç¥ŀ çĪ¶
åį³ åı¯
éĽħ åĲĦ
åĤ ²
çļĦç¬¬ ä¸Ģä¸ª
o th
åĪ© å¥¥
éĿ¢ åĮħ
éĻį èĲ½
ç»¼èīº èĬĤçĽ®
çļĦ ç¬¬ä¸ī
åľ¨ åĮĹäº¬
å¸Ī åĽ¢
åı¤ å¸ĮèħĬ
ĠP art
æ´ª æŃ¦
çĲĨäºĭ ä¼ļ
æĸ¯ åľ¨
ä¸¤ åº§
ĠC o
Ñģ ÑĤ
II I
éĩ ľ
æŁ ¬
åıĺ å½¢
ç»Ļ ä»ĸ
ç½ķ è§ģ
å¿Ĺ æĦ¿
äºĮåįģ å¹´
é³į é±¼
æĹ¶ è¢«
æŃ¤ åīį
æŀģ ä¸º
èµĽäºĭ ä¸Ń
éĻ¤æŃ¤ ä¹ĭå¤ĸ
çļĦ åħ¶ä»ĸ
è® ½
ä¸İ å¤§
æĭī å¤ļ
æĮĩ çļĦæĺ¯
åĲ¬ åĪ°
Ġ199 9
L a
æ°¨ éħ¸
çļĦ è¡Įä¸º
è¯´ æĺ¯
æķ´ åĲĪ
il d
ç¡ ħ
æĭ ¾
é«ĺ å®Ĺ
æķ° çĻ¾
åŀĭ æŁ´æ²¹æľºè½¦
åĪĻ çĶ±
ä¸ªäºº çĶŁæ´»
æĮ ¤
å¤© çİĭ
æ¹ĸ æ³Ĭ
é¢Ħ éĺ²
å®īå¾· çĥĪ
çŁĽ çĽ¾
éĵ ħ
éĢļ è¡Į
åıĤ éĢī
æ¢ħ å°Ķ
Ġ âĢĶ
éĥ¨ æĽ²
åĪ© å®ī
ä»£ çĽ®
åħ¨ ä¹¦
äº§ éĩı
åĨ³ è®®
åıį èĢĮ
åįļ è§Ī
æ¶µ çĽĸ
ç¿¡ç¿ł åı°
e an
ç» İ
äºĮ æ¬¡
è¢« ä»»åĳ½ä¸º
éĽĮ æĢ§
çļĦ å¼Ģ
ï¼Ī ï¼Ł
ç»į åħ´
Ġ ç¬¬ä¸ī
èĲ į
æĶ¹ ä»»
é©¬ åĮ¹
190 8
B O
çī ¢
A V
çī º
Ġt o
D C
æľĪ å¼Ģå§ĭ
é¦ĸ ä»»
e ch
n er
åħ¬ ç«ĭ
çĶ² åŁº
E P
é«ĺ æ¡¥
æİ¨ åĩºçļĦ
ä¾§ å¼ı
ç¤¾ äº¤
ä¸ĸçķĮ åĲĦåľ°
çłĶç©¶ åĳĺ
åµ Į
ç¦ı åĪ©
åĨĻ çľŁ
åĪĨ ç»Ħ
ç¦ ½
çľŁæŃ£ çļĦ
190 4
é«ĺ ä¸½
å¼ķ çĶ¨
æª Ģ
Ġ 17
åľ¨ æ¬§æ´²
æİ¥ ç®¡
ä»£è¡¨ éĺŁ
æĻĭ åįĩ
å¸ ľ
å¸ĥ å±Ģ
åĿĩ æľī
å¤§ å°Ĩ
åĲĪ èĤ¥
éĺ³ åħī
éª¨éª ¼
åľ¨ ä»Ĭ
ä¸º ä»ĸ
åħļ çļĦ
æĹ§ éĩĳå±±
æģ¶ éŃĶ
åĬł çĥŃ
ä¹Ĳ åĿĽ
å¹´ æĺ¥
åĨ² åĩ»
Ġ å¯¼æ¼Ķ
æĪ ¦
æľŁ çļĦ
å®ī å¦®
ç£· éħ¸
åįĹ æĸ¯æĭīå¤«
ç¬¬ä¸Ģ å±Ĭ
çª ĥ
æī¿ è¯º
äºº æīį
ä¸ī çº§
éĢł èĪ¹
æīĵ åħ¥
åĩº å¢ĥ
åįĥ åı¶
ç«¯ çļĦ
å°¼æ³Ĭ å°Ķ
Ġ åį¡
ä¸» æīĵ
å°± è¢«
ä½ĵéķ¿ åı¯è¾¾
is e
åħī åŃ¦
ĠS c
å½¢æĪĲ äºĨ
èĪ ħ
çĳŀ åħĭ
æ·· ä¹±
å·¥ä½ľ çļĦ
ç»´ æĭī
åĢĻ è½¦
ç»ıè¿ĩ æľ¬åľ°åĮº
éĢīä¸¾ ä¸Ń
f l
æŃ£ æĺ¯
æĹı çļĦ
åŁĥ å¾·
éĺ¿å°Ķ åįĳ
å¹² çĩ¥
çİĽ æł¼
äºļ ç§ĳ
å¤ļ å¤«
èĤ ª
ä¼¯ åĪ©äºļ
æĹĹ ä¸ĭçļĦ
E d
åĨĽ èĪ°
ç¬¬ä¸Ģ çĻ¾
çª Ł
å®ĩ æĸĩ
ä¸Ģ æĹ¦
å±ı ä¸ľ
ä¸º è¯¥
å®ļ äºİ
å¼Ģå§ĭ äºĨ
èĦĤ èĤª
çļĦ è¡¨çİ°
ä¸Ģ åįĥ
çŃĸ åĪĴ
ul t
æĢ»éĥ¨ ä½įäºİ
çļĦ èº«ä»½
æĮĩ æİ§
å°ĳ åį¿
ç¬¬äºĮ è½®
åį°åº¦ å°¼è¥¿äºļ
åĩĮ æĻ¨
r al
ro s
å¹´ ç¬¬
çīº çī²
åħµ åĬĽ
M et
æ¤ Ĵ
ãĥ¼ ãĥ«
åħ¬ ç¤¾
é«ĺ éĵģ
æĶ» åĬ¿
çļĦ åŁİå¸Ĥ
è¿ĩ åº¦
æĿĢ æīĭ
R NA
à ¹
å¤§ éĺŁ
ç¼ĸåı· ä¸º
çĶ±è¯¥ éģĵè·¯
å¯ ¡
åĽĽ åĽ½
åĪĹ æĸ¯
åħ¸ åŀĭçļĦ
åŃ¦å£« åŃ¦ä½į
æĸ° çĸĨ
èİī äºļ
ĠN ew
æ¸ħçľŁ å¯º
a el
å¼ ¼
åİŁ æĿ¥çļĦ
åģľ åĬŀ
çļĦ åıĮ
è¿Ľ åĨĽ
ç«Ļ æĺ¯
åı· ç§įåŃĲ
èľ ¡
çķ ´
å¹¶ä¸į æĺ¯
S S
æĪĺ æŃ»
éĩı åŃĲ
é² ¤
ç¤¾ä¼ļä¸»ä¹ī åħ±åĴĮåĽ½
ç» ħ
å®ŀ è·µ
çİ¯ ç»ķ
å¯¹ ä»ĸ
äº¤ æĪĺ
éĢı æĺİ
I F
æľĢ éĩįè¦ģçļĦ
å¸Ī éķ¿
çķĮ çļĦ
åĢŁ çĶ±
æĪĪ å°Ķ
åĪĴ å½Ĵ
æ³¨ åħ¥
er v
ç»Ī æŃ¢
çļĨ ä¸º
çĢ ĳ
ä¸½èİİ çĻ½
åįĹ æľĿ
ivers ity
è¿Ĳ ä¼ļ
E L
ä»ĸ å°Ĩ
ä¸İ ä»ĸ
ç¬¬ä¸Ģ åŃ£
åı¦ä¸Ģ ç§į
â ĺ
ä»£ çļĦ
ç»Łæ²» èĢħ
éĹ µ
çĪ± å¥½
I M
è¿Ļ æ®µ
è¯¥ åľ°
å®ľ åħ°
çĶµ æ¢¯
åĮħæĭ¬ äºĨ
ri d
æ¿Ģ çĥĪ
e i
çļĦ å®ĺæĸ¹
æŃ ¼
æľ¬ éĥ¨
æĸ° è¥¿åħ°
ä»£ è°¢
ç¼ ª
æł¡ åıĭ
åħĭéĩĮæĸ¯ èĴĤ
à ¦
åľ¨ ä¸ŃåĽ½å¤§éĻĨ
æľī äºĨ
ä»ħ ä»ħ
ç«¯ çĤ¹
åı ¹
èĢĮ å¾ĹåĲį
å² ļ
St ation
5 000
è¾ ±
ä½ľ çĶ»
éĻ¢ æł¡
å°ģ éĿ¢
ç§° èµŀ
åİ¿ ç«ĭ
ä¸ĩ åĲ¨
æīĵ éĢł
é¢ģå¥ĸ ç¤¼
å±ł æĿĢ
ä¸» ç¼ĸ
åıĳ è¾¾
å¸ķ å°Ķ
çĤ® åħµ
éĺ¿å°Ķåįĳ æĸ¯
çļĦ åĨħå®¹
éĺµ äº¡
ä¾¦ å¯Ł
çļĦ èĬ±
è¿Ľ åı£
éļ Ļ
åĻ ¶
Ġ199 8
éľ ĸ
åĩ» åĩº
Ġ åħ¨
çļĦ ä¸ŃåĽ½
ä¸ľ æĹ¥æľ¬
O K
æĪĲ åĮĸ
èĢĮ æŃ»
åĮº åĴĮ
å»º æľī
æ¯Ķ åĪĨ
çĥ ¤
çº³ å°Ķ
èĭĹ æłĹ
ãģ Ľ
éļı æľº
åĪ¤ æĸŃ
åĪĳ äºĭ
åıĳ éŁ³
å£ ¶
è¿ĩ äºİ
è´Ŀ æł¼
äºĮ çŃī
çĶ° å¾Ħ
å®¹ éĩı
åľ¨ è¿Ļä¸ª
éĥ¨ ä¸ĭ
åįģ åħ«å¹´
éĴ §
çľģ æİ¥å£¤
åĪĴ åĪĨ
é©¬åħĭ æĢĿ
çĶµåĬ¨ æľº
æľī åı¯èĥ½
æŃ£ ç»Ł
å¤į åĲĪ
Ġ ä½ľè¯į
åħī æĺİ
åİĨåı² åŃ¦å®¶
ä¹ĭ åĨħ
ç½ Ĳ
ä½ĵ æĵį
å·´ çī¹
çĲĨ å¿µ
å²ģ ä»¥ä¸ĭ
åį¢ çĵ¦
åįĹ åįĹ
èµ· é£ŀ
èĪ Ĩ
æ°´ ä¸Ĭ
æĢ» åħ±
åıĹ æįŁ
å¤© ç©º
é£ ĵ
è¶³ èģĶ
æĸĹ äºī
åĩº äºİ
çģ« çģ¾
è¾ĥ å¤§çļĦ
T A
å· ©
å¦ ¥
ow s
çĶµ æµģ
ç¤¾ éķ¿
åŃ¦éĻ¢ çļĦ
å¹´ä»£ åĪĿ
Ġ ãĢģ
ä¸ľ æĻĭ
å¼ł åįķæĽ²
æİ ·
çīłä»¬ çļĦ
ä¸ŀ çĽ¸
ä¸Ģ åı·
åħ¬ åĳĬ
å±± æĿĳ
çľŁ çļĦ
æ¨¡ ä»¿
å¹¶ä¸Ķ åľ¨
éħ ī
èģĮ è´£
åĬ© æĶ»
çļĦå¤§ éĥ¨åĪĨ
è¯¥ å»ºçŃĳ
æĽ² çº¿
çŁ³ åĻ¨
å½ĵéĢī ä¸º
ä»¥ å¾Ģ
èĻ Ĳ
çŁŃ çīĩ
åħĦ éķ¿
è½ ¶
çĶ± æĿ¥
m i
èİ± æĸ¯
ç§Ģ åĲī
è¡Į èµ°
èĬ ¯
éĢī ä¸Ń
çº¦ åħĭ
ç±» åĪ«
å¤Ħ æŃ»
æĽ¼ èģĶ
æ»ĳ éĽª
äºĮ æľŁ
æİ¨ çĲĨ
åĩĨ ç¡®
æĪ İ
å®ŀ ä½ĵ
çĵ¦ åħ¹
è¿½ åĩ»
æľĿ éĺ³
ç§ĺ é²ģ
éĽķ åĪ»
S c
ä¹ĭ çĪ¶
æīĭ ä¸ĭ
éŃ ħ
ç»§æī¿ äºº
èĤ¡ ç¥¨
é£ĵ é£İ
çĦ ļ
å±ŀ åĲį
è¿Ļ æĿ¡
åĲī äºļ
åħ¨åĽ½ éĩįçĤ¹æĸĩçī©ä¿ĿæĬ¤åįķä½į
189 6
åĴĮ å°ı
åħ³ åį¡
å°¾ å·´
ãĥ ¢
åı£ å¾Ħ
åį¡ çī¹
ä½Ĩæĺ¯ åľ¨
å¤º åĨł
åĨħéĻĨ çľģä»½
Ġ æľ±
é©¬ è¾¾
è¿ĩ æ¸¡
çīĪ çļĦ
p p
ä»ĸ è®¤ä¸º
ãĥ ¯
å°¼ æĹ¥
é»ĳ äºº
æ³ķ å¸Ī
åıĪ åľ¨
åıĪ è¢«
å®ĩ èĪª
æ¨¡çī¹ åĦ¿
æ¢ Ń
ain t
å¿ĥ çļĦ
å°± åı¯ä»¥
å¤±åİ» äºĨ
è¯¥çī©ç§įçļĦæ¨¡å¼ıäº§åľ° åľ¨
åįĹ åĮº
éŀ Ń
æ» ¥
Ġ éŁ³ä¹Ĳ
çī© èµĦ
å¿ĥçĲĨ åŃ¦
19 13
ãĤ §
åıį æĬĹ
ä½¥ äºĭ
å¤© åĲ¯
éĩį çļĦ
ä¿® è®¢
å¢ĥ åĨħçļĦ
åĩºçĶŁ åľ¨
Ġ åħĥ
åħ¬ åĽ½
ç±» åŀĭçļĦ
çļĦ çĲĥåĳĺ
ä½Ĩ åħ¶
å®£ åĳĬ
æľ« å¹´
ä½ľ ä¸ļ
åĲī æĸ¯
è¯ Ī
ä¸į å¤ļ
æ²³ åĨħ
çļĦ åħ¨
çļĦ æ¦Ĥå¿µ
å¾Ī å¤§çļĦ
èĳ¡èĲĦ éħĴ
æĶ¾ ç½®
l in
å ¬
æĥħ ç»ª
æĬ¤ çħ§
æĪª æŃ¢
ä¸Ń åŃ¦æł¡
ç½Ĺ å¤«
åıĸ èĩª
ig n
r at
æĲľ ç´¢
å¹¶ ä¸º
æ¨ª æ»¨
æĹĭ å¾ĭ
åīįèº« ä¸º
åĤ¬ åĮĸ
äºİ é¦Ļæ¸¯
èĭ ·
åį³ ä¸º
åľ° çĭ±
åĵģ è´¨
çĸ ¼
å°ģ éĹŃ
è¡Ģ ç»Ł
äºº æĸĩ
çļĦä¸Ģ æ¬¡
æŃĩ å°Ķ
éĿ¢ åīį
an y
å¥¥ åĪ©
çĽŁ åĨĽ
æµ· å§Ĩ
å¹³ æ°ĳ
æ¼«çĶ» å®¶
æĹ¶ å°ļ
æĲŃ è½½
èī¾ ä¼¦
Ġ9 78
å¤§ éĥ¨ä»½
åĵĪ çī¹
æĻº æħ§
Ġ é¾Ļ
æĤ¬ æĮĤ
å¤§ äºİ
çº¿ æĺ¯
éĩİ æĿĳ
åīį èĢħ
ãĤ ±
è¶ħ äºº
è·¨ è¶Ĭ
çļĦ éĩĳ
å¨ Ħ
åĵĪ ä½Ľ
çĿ ¿
ro w
ä¼¤ äº¡
éĢ» è¾ĳ
å½Ĺ æĺŁ
Ġ åİŁ
æ² Ľ
ç« Ń
å¤© åľ°
èİ· åıĸ
ãĥª ãĥ¼
çļĦ å¤ļ
æľĪ åı·
ä¹ĭ æĦı
å®ļ çĲĨ
èĥĮ éĥ¨
éĩįåºĨ å¸Ĥ
å®ī åİ¿
åı°åįĹ å¸Ĥ
ä½Ĩ æ²¡æľī
åĴĮ éĺ¿
è¿Ļ ä½į
æĬ¤ åį«
ç¼ ł
ic s
ä»ª åĻ¨
O P
åĪĨ å¼Ģ
ä¸ī çĶ²
æľĢ å¥½çļĦ
ä¹Į æĭī
åĲ« éĩı
åĳ½åĲį çļĦ
èĩ´åĬĽ äºİ
çļĦ è¯´æ³ķ
æ¦Ĥ è¿°
æĴĴ åĨ·
r and
äºĮ æ°§åĮĸ
ub e
è¿Ļé¦ĸ æŃĮ
b ur
tern ational
åł µ
éĽ¶ åĶ®
çļĦ å¤´
åĮ ¡
æŃ¦ å£«
ç¡ Ŀ
14 0
å¹ Į
è¿ĩ äºĨ
è´Łè´£ äºº
g l
è¿ĩ ä¸ĸ
æ°´ éĩı
åĬŀ æ³ķ
åĭ ī
å°Ħ çº¿
æĹł éĶ¡
åĽłæŃ¤ åľ¨
çĶµ åİĭ
æĹ¶ ä¼ļ
åĪĨ æķ°
èī °
å¤ĸ ç§ĳ
æľª çŁ¥
æľ« ç«¯
èĢĮ éĹ»åĲį
éľ ľ
åĽ½éĻħ èµĽ
èĲ½ è´¥
åĩł ä½ķ
è¾Ĳ é³įé±¼
æĶ¯ æĴĳ
ĠI I
è¿Ŀ åıį
è¯¥ ç«Ļ
è½¨ çĶµè½¦
ç§ĭ åŃ£
N G
çļĦ ä»£è¡¨
åħĭ é²ģ
èĿĻèĿł ä¾ł
åĬ²æŃĮ éĩĳæĽ²
åĨĻ éģĵ
C A
R A
çļĦ æľĢé«ĺ
ä»» åĨħ
æĽ¾ æĭħä»»
O V
æĭ ¦
éĿŀ æ³ķ
æĢĢ åŃķ
çĽĳå¯Ł å¾¡åı²
ak e
â ħ
ä¸» å¯¼
éĺ² åį«
ic t
èĪªç©º æ¯įèĪ°
çī© ä¸ļ
ä½ĵ åĨħ
æĻ® æŀĹ
æĺ¯ å¯¹
çļĦ çĥŃ
ä»ĸ ä»¥
æ¥¼ æ¢¯
ro m
ä¸Ģ åħ±
åĻ ª
åº§ ä½į
æĹ¥ èĢ³
è¥¿ æ±ī
èĢ¶ è·¯
æĪĺå½¹ ä¸Ń
è±¡ æ£ĭ
èĭ± å¯¸
æĢ» ç®¡
æŃ¦ æľ¯
èĭ¥ å¹²
éĢĤ çĶ¨äºİ
å¤ļ åĲį
è¿Ľ èĢĮ
190 2
åŁº è¾ħ
éļĨ åºĨ
é¢ģ å¸ĥ
è®¾ç«ĭ çļĦ
Ñģ Ðº
ä» Ĺ
ãĢį ï¼ī
æłĳ æŀĹ
åİĭ ç¼©
ç µ
åľ¨ åĮĹ
å®Ĺ åº§
ä»į æľī
çīĩ å¤´
åı¦ è§ģ
æ¶² ä½ĵ
åĽ¢ ç»ĵ
çĳ Ļ
æ¯ı ä¸Ģ
ÑĢ Ð°
Ġ äºİ
åľ¨ ä¸İ
é¹ ¦
çļĦ ä½ľçĶ¨
åĬł éĩĮ
ro p
ä¸į èī¯
åĲĪ æ³ķ
éĤ ¹
ä¼ł éĢĴ
æłĩ è®°
çĶ» ä½ľ
çļĦ åĨħ
æ³ķ å°Ķ
å¤© æĸĩåŃ¦
åĪ¤ åĨ³
ä¸Ģ æīĢ
æķ° ä¸ª
éª Ĩ
éĿĴ éĵľ
åºĵ å°Ķ
éľį å°Ķ
èĢ¶è·¯ æĴĴåĨ·
åĪĨ ä¹ĭ
è¿Ļ ä¸¤
å¥¹ ä¸İ
å¾Ī éļ¾
åī ĸ
è¥¿ æİ¥
èģ Ĥ
åĮĹ è·¯
ç»Ī èº«
åŃ ļ
è¾ĥ å°ı
æĹĹ å¸ľ
å¼Ģåıĳ åĮº
é¡ºæĹ¶éĴĪ ä¸İ
ä¸į ä½³
çķ ¿
åıĹ åĪ°äºĨ
åįĥ äºº
è¡£ æľį
èĪ ľ
éĢĥ äº¡
å¹´ ä¸ŃåĽ½
æĹ¶ å¸¸
é« ĵ
å¤ĸ åĢŁ
åĪĹ ä¼ł
ä¼Ĭ ä¸½èİİçĻ½
åŁº éĥ¨
å½ķå½± å¸¦
æĹ¥ è®°
æł¼ æĸ¯
æĽ´ åĲį
èĨ ¨
è¾Ĳé³įé±¼ çº²
åĪĿ æŃ¥
re d
è¤ Ĵ
å·ŀ ç«ĭ
å¥³ æŃĮæīĭ
æĽ¾ æľī
åĻ ¬
q ue
æĹı äºº
çļĦ ç¾İ
ç§ĳ ç½Ĺ
éĥ½ æ²¡æľī
éĤ£ æł·
èľ Ĵ
æĹłçº¿ çĶµ
ä¹ Ĵ
ç¤¼ æĭľ
åĽ´ æĶ»
Ġ ä¸º
çļĦ åŃĺåľ¨
åĩº åħµ
æ¸ Ĺ
ä¹Ł èĥ½
åŁĶ å¯¨
åĲ ĵ
è¯´ æľį
ä¿¡ ä»»
åįĥ çĵ¦
åĮĪ å¥´
ç¬¬ä¸Ģ è½®
Ù Ĭ
è¥¿ åħĥ
åıĤ è®®åĳĺ
ç³»åĪĹ çļĦ
æĮĸ æİĺ
Ġ æ¢ģ
å¤§ éĥ½ä¼ļ
åĽĽ åįģäºĮå¹´
åıĤ æ¼Ķ
éĺ¿ å§Ĩ
ä½įäºİ æĹ¥æľ¬
çļĦ åĮºåŁŁ
ç´¢ å°¼
æŁ¬ åŁĶå¯¨
çļĦ è®¡åĪĴ
ï¼ī ï¼ī
å°ı æıĲçĲ´
å®Ŀ çŁ³
å¹¿æĴŃ åħ¬åı¸
ous e
on y
çºº ç»ĩ
çļĦ æŃĮæĽ²
åĪ¶ å¤ĩ
åıĹ ä½ĵ
ç¬¬ä¸Ģ ä»£
å¿« è½¦
å¹ ¢
ä¸ī éĥİ
é«ĺ å³°
çĻ½ äºº
ç¬¬ä¸Ģ éĥ¨
è§£ éĻ¤
ĠI S
Ġ al
ç» £
å¤§ åĴĮ
é¢Ħ çķĻ
ä¸» æµģ
åħ¶ åľ¨
an e
è®¤ åĲĮ
äº¦ æĶ¹åĪ¶ä¸º
éĺ¿ æĸ¯
æ²Ļ çĶ°
éħĴ åĲ§
åįĹ æĬķ
æĿ¡ çº¹
ä¹Į å°Ķ
å¯ Ĥ
æ³ķ äºº
çļĦ å¿ĥ
éĩĳ åĥı
åĪĹ é¢ł
åĮĹäº¬ å¤§åŃ¦
é¥² åħ»
çĶµ ç«Ļ
Ï Ĥ
éĻĨ åľ°
åħ¬éĩĮ çļĦ
æľĢç»Ī åľ¨
æ²¼ æ³½
æĿ ĸ
æ£ ł
äºĴ èģĶç½ĳ
åĭĥ èī®
Ġ èĭı
ä¸Ĭ æł¡
åĪĿ çº§
ä¿Ħ äº¥
èľ ¿
åĲį å½ķ
åıĤ åĨĽ
åķĨ æłĩ
æĸĳ çĤ¹
åħĭç½Ĺ åľ°äºļ
Ù Ĩ
åĲİ ä¸ĸ
ä¿Ħäº¥ ä¿Ħ
ç½Ĺ è®·
åİŁ æľī
æ°´ æ·±
å®¾ å¤ķ
è ł
èĥ ¤
åı¤ è¿¹
åį³ æĺ¯
ä¹ĺ åĿĲ
åħħ åĪĨ
ä¸į å¦Ĥ
èı² å°Ķ
189 7
æķĻ ç§ĳ
çļĦ ä¸ĭ
äº¤ ä¼ļ
á ĥ
ä½ĵ ç§¯
ç²ī ä¸Ŀ
å¹´ ä¸º
å¹´ é¦Ļæ¸¯
åĪĽ æĦı
åĴĮ ç¾İåĽ½
åħ¨ ä¸ĸçķĮ
ĠP l
è¡¥ ç»Ļ
ä¸Ģ é¡¹
é©¬ åľº
é¢Ĩ è¡Ķ
çĬ Ģ
w ay
Ġ 0
ra d
åįĹ ç¾İæ´²
çº¢ åĨĽ
æĺİ å°¼
å¤Ħ éķ¿
ä¾Ŀ éĿł
åıĪ è¯ĳ
è¶³çĲĥ çĶ²çº§èģĶèµĽ
åª Ľ
å¸ĿåĽ½ çļĦ
Ù ħ
èĩ³ æŃ¤
èµ· åħµ
æ¬§ éĺ³
æ±ī åł¡
æģĲ æĥ§
äºĶ çĻ¾
Ġ ä½ķ
æ± ķ
æ²¿ çĶ¨
åħ¸ åŀĭ
å¯¿ åĳ½
æ¯ģ çģŃ
çº½çº¦ å¸Ĥ
ä¸º çĶ±
åĲĮ çŁ¥
éĵģè·¯ çļĦ
ç¼ĵ æħ¢
Ġ åı¤
çļĦ æľī
åŁİ éĹ¨
æ£ķ èī²
S M
19 15
è½¦ åŀĭ
ç¼ĸ åĨĻ
å³ »
æ¯Ĺ éĤ»
æĺ¯ æľī
æ¸ Ŀ
èµ· äºĨ
æĮĩ ä»¤
åŁºçĿ£ å¾Ĵ
19 16
æķ° çĽ®
ä¿Ŀ åį«
å¤§äºĭ è®°
Ġ å¾Ĳ
åĲĮ æľŁ
è¿Ļ ç±»
ç¬¬ åįģä¸Ģ
åĮĹ ç«Ļ
ä»» æĦı
èµ· æºĲäºİ
æĢ» åħµ
è®º åĿĽ
ç»Ĩ èĬĤ
å´ĩ æĭľ
Ġ ç±³
è¯Ħè®º å®¶
éĺ İ
åĨħ åĬ¡
çīĩ æ®µ
189 8
ä¸º æĹ¥æľ¬
ĠP h
åħ±åĴĮ åħļ
å¾·éĩĮ åħĭ
èľ¿ èľĴ
9 00
ä¸ī åĲį
è´Ŀ æĭī
ãĥĥ ãĥĪ
ä¸º åĲį
åĲİæĿ¥ åľ¨
ç» Ĵ
éĥ¨ ä½į
éģĵ åħ·
æ²¡æľī ä»»ä½ķ
çĻ¾ è´§
åĴ ²
èĢĮ åĲİ
åĩ» éĢĢ
èĢģ äºº
çİ¯ ä¿Ŀ
çİĩ ä¸º
ç´¯ ç§¯
ç» «
è¿ĺ åĮħæĭ¬
å±Ģ éĥ¨
ãĤ ĥ
å¹¶ èİ·å¾Ĺ
Ġ Î
ç½ĳ ä¸Ĭ
æĹ¶ ç©º
il m
re t
O M
ä¸ĸ å®Ĺ
äºĭ åĲİ
çļĦä¸Ģ æīĢ
åĬ© æīĭ
æĬ¤ çĲĨ
è´¢ ç»ı
çīĩå°¾ æĽ²
åĪĨ æ³Į
é¢ħ éª¨
ä¹ĭ è·¯
å°± åĥı
åħµ åĽ¢
æĶ¶å½ķ äºİ
æłĸæģ¯ åľ°
åĽ½ æĹĹ
åīį ä½ľ
èĩª ä»İ
æĻ ĥ
å»º åĽ½
æĶ¿ åıĺ
èİ± å¾·
ä¿Ħç½Ĺæĸ¯ èģĶéĤ¦
å¹³æĸ¹ åįĥç±³
å¤ĸåĽ´ èµĽ
B M
æľĪ åĪĿ
éª ¸
åĪ« å¢ħ
åįı å®ļ
èī¯ å¥½çļĦ
çĪµ ä½į
Ġ å¥³
æ» ŀ
èĪª è¡Į
çº½ è¥¿åħ°
æĺ¯ æľĢ
å¼º åĪ¶
è°ĥ ä»»
ç¢ Ĺ
os s
çĲĨæŁ¥ å¾·
åĭĥèī® ç¬¬
çļĦ åĲĮæĹ¶
èİ ¹
ĠM c
å¯º éĻ¢
Ġ199 6
ãĤ¹ ãĥĪ
å®¾å¤ķ æ³ķ
or th
å¥ĩ å¹»
çĶĺèĤĥ çľģ
Ø ±
å² ĳ
å·´ å¸ĥ
åıª å¥½
è¯ī è®¼
å»ºç«ĭ çļĦ
Ġ 16
çĻ½ ä¿Ħç½Ĺæĸ¯
å¤§ åİħ
åħ³ ä¸ľ
å¤« å¦»
æĲŃ éħį
å¤ļ æĸ¯
å¦ ĵ
ä¸ĵ åĪ©
æĿĢ äºĨ
æĤ Ķ
è¿« ä½¿
æĹ¥ ä¸ĭåįĪ
åŀ ¦
æ²³ çļĦ
å®« å»·
æĦ¤ æĢĴ
Ġ 15
åĨľ åİĨ
æľĢç»Ī ä»¥
åľ° å±Ĥ
æµģ ç»ı
çģ« çĤ®
èĢģ èĻİ
çĻ½åŀ© çºª
äºĮ çĻ¾
Ð¸ Ð¹
æĸ¯ æĭī
åĮĹ æĿ¡
æ°Ķ åİĭ
æĳĦ æĶ¿
åĶ® ç¥¨
æĹ¶éĹ´ çļĦ
éļĭ æľĿ
åī¯ éĥ¨éķ¿
å°ı éķĩ
éļĲ èĹı
ĠC ar
æķ´ çĲĨ
am b
æĸĩåĮĸ éģĹäº§
å¤§èĩ´ ä»¥
å¤§ åŁĶ
åĲĮ ä¸º
æĶ¹ èī¯
éķĩ åİĭ
çĶŁçī© åŃ¦å®¶
å¿į èĢħ
èĹ Ķ
èªī ä¸º
å±± åľ°
äºĭ è¿¹
éĴ ĵ
æ³¢ éŁ³
å© ī
ä¸į åĪĹé¢ł
çĽ¸ ä¼ł
é©» æīİ
åŀ «
è¾ĥ æĹ©
çĽĳ ç®¡
æľĢåĪĿ çļĦ
è¢« æįķ
æķ° ä¸º
ĠH e
è¿Ī åħĭå°Ķ
âĢ ¢
çİĭ çļĦ
ç»ĵ è®º
äº¦ åı¯
ä¸»ä¹ī çļĦ
å«ģ ç»Ļ
à ½
å¹´ ä¸ĸçķĮ
åĮĸ å·¥
æĤī å°¼
èİ ŀ
æįĲ èµł
C ar
æ¦ Ĩ
éĢĥ ç¦»
C R
æ· ¹
åĴĮ è¥¿
éĩĮ å¥ĩ
è° į
ä¸Ĭ ä¸Ģ
å°ı é¡¹
é£ŀ èĪ¹
çĶŁ æ¯į
å±ķ åĩº
Ġ199 7
åĮĹ åĮº
çļĦä¸Ģ éĥ¨
çľĭ åı°
çĽ¸éĤ» è½¦ç«Ļ
çļĦ åľŁåľ°
å®¶ åºĦ
æĸĻ çĲĨ
æĲ¬ åĪ°
l or
ãĢĤ ï¼ī
åıĤ è®®
ä¿¡ çĶ¨
åĻ¨ å®ĺ
Î ½
äºĨ è¯¥
æĭī çī¹
çł į
æ¢ Ĺ
ç¬¬ä¸Ģ æī¹
éļı ä¹ĭ
ĠI s
æĻ ĸ
ĠB e
æŃ¥ è¡Į
ä¾¿ æĺ¯
im e
æ²³ ä¸ľ
é¢Ĺ ç²Ĵ
O D
æľĢ åħ·
åĵ² åŃ¦å®¶
çļĦ çĪ±
ä¸į å¹¸
æĸ¹ ç¨ĭ
ä¸Ĭ æ¼Ķ
å£« åĿ¦
ä»ĸçļĦ çĪ¶äº²
èĤ¯ å®ļ
.. ..
Play Station
æľ¨ æĿĲ
æľĪ ä»½
ä¸ĭ åĪĹ
çŃī äºİ
å®¢ åľº
ro up
æĢª çī©
åĽ½ åŃĲ
å¯¹ æ¯Ķ
åĥ µ
éĿ¢ ä¸Ĭ
çĥ ¹
æİ¨ ç¿»
çļĦ è¿ĩç¨ĭ
ä»İ å°ı
åĬłåĭĴ æ¯Ķ
ä¸į åıĬ
ing s
å¤§ åĲį
åĪĨ è¡Į
çĶ· æ¼Ķåĳĺ
æŃ£ éĢī
æĶ¯ çĲĥéĺŁ
ä¸ŃåĽ½å¤§éĻĨ çļĦ
çŁ £
åħ° åį¡
äº¤ ä»ĺ
çĽ´ è¾ĸ
ä¸½ ä¸Ŀ
å®ī è¾¾
äº¤ å¾Ģ
éķĩ å®Ī
èı ģ
G o
h a
ä¸¹ å°¼å°Ķ
æ³¨ å°Ħ
ĠF ran
ä¼ģ åĪĴ
å·¥ ä¼ļ
åł ķ
äº¦ ä¸º
ä»¬ çļĦ
æĹ¥èĢ³ æĽ¼
ç½Ĺ éĹ¨
çıŃ æľº
è¿Ļéĥ¨ çĶµå½±
èĩ Ń
æ±ŁæĪ· æĹ¶ä»£
åĮ ª
çº¿ æĢ§
çİ© åħ·
åºŁ å¼ĥ
çĢĳ å¸ĥ
çĶŁ æķĪ
éĥ½ å¯ŁéĻ¢
æ¸ħ æ²»
åı³ ä¾įéĥİ
éĿ¢ç§¯ ä¸º
æµ Ĭ
en ce
æ¹¿ åľ°
åħ¨ èº«
å¼Ģåıĳ çļĦ
åĨłçĬ¶çĹħæ¯Ĵ çĹħ
åĩ ĳ
èĥ½ åľ¨
éĩį ä¿®
è¯´ è¯Ŀ
ä¼ł è®°
ç¥ŀ çļĦ
ç³»åĪĹ èµĽ
çķĻ åŃ¦
åıĳçĶŁ äºİ
ç«ĭ åĪ»
è¿ĳ åį«
èĪª æµ·
ç²¾ èĭ±
åĨ² ç»³
ä¾į ä¸Ń
ç´§ å¼ł
ä¸īè§Ĵ å½¢
ind ows
äºº éĹ´
åįĹ ç«Ļ
æķĻ å¾Ĵ
ä¹Ĳ ç«ł
æĢ» ä½ĵ
æĽ ľ
ç¾ Į
èī¾ å°Ķ
Î ¹
æĸ° çĶŁ
é£ŀ å¼¹
æľĢåĲİ ä¸Ģæ¬¡
èĶ ļ
éĽ ı
çĽ¸ è¿ĳ
åİ» äºĨ
æ°Ķ æ¸©
æ±ī åŃĹ
E F
çļ ĵ
å¼Ģ æĴŃ
å¥¥ æīĺ
èĭı éĩĮ
åģļ æ³ķ
çĲ ¦
åİŁ åĿĢ
ä¼ĺ åħĪ
æĦıæĢĿ æĺ¯
åĴĮ ä¸Ģä¸ª
é«ĺ å±±
å¥ĸ åĬ±
çľŁ çĽ¸
åĮħåĲ« äºĨ
åĲİ ä»£
10 5
çł Į
å« Ķ
èĢħ ä¸º
ĠM an
çŃ¾ è¯ģ
Ġ å¹³
åħĪ åīį
ä¸ľ ä¸´
in o
éĹ¨ å°Ĩ
æ¨ Ĭ
D e
k e
ä¸į åıĹ
åĵ ī
éŁ³ä¹Ĳ åŃ¦éĻ¢
è¿ª åįĹ
ç§ĳåŃ¦ æĬĢæľ¯
å¼¯ æĽ²
åĪ ĥ
æĿĥ çļĦ
ç į
åŁ ¼
åħŃ åįģ
ç§ĳ å¤§åŃ¦
ĠA d
åĲİæĿ¥ è¢«
æĹ§ ç§°
- -
y st
çĽ Ķ
åħ¥ å¢ĥ
ä¿Ħ è¯Ń
æ³¨ éĩĬ
éĺ Ģ
èĩª ä¸»
æ¼Ķ è®²
è¿ĺ åİŁ
éªĳ å¸Ī
åĲĽ å£«åĿ¦
ä¸º è¾Ĳé³įé±¼çº²
åĴĮ åįİ
æĪ´ ç»´æĸ¯
æĩ Ĥ
AK B
É Ķ
åĽ¾ çīĩ
åıĮ åĲĳ
æ´ŀ ç©´
Ñģ ÑĮ
é»ĳé¾Ļæ±Ł çľģ
æ´Ľ çī¹
è¯¸ ä¾¯
ä¸Ģ å¯¹
åŁº å°Ķ
æ²» æĦĪ
èº« è¾¹
éĻį çº§
ç§» æ¤į
é¡¶ éĥ¨
å¤´ çļĦ
æª Ĳ
ä¸Ń çŃī
æ° Ľ
ç¬¬ åįģäºĮ
æĽ¾ åŃĻ
ç»Ī ç»ĵ
å¼¹ èį¯
æ¯« æĹł
ä¸į åľ¨
Ġ* *
æģ© æĸ¯
çļĦ åĨĽéĺŁ
éĩį ä¼¤
çŀ ¬
. ï¼ī
åı¸ å¾Ĵ
æĶ¶ å¤į
çģ« åĬĽ
Ð½ Ð°
èµ ¦
è¿Ĳ è½½
çĪ¶ åŃĲ
å¯Įå£« çĶµè§Ĩåı°
ä¸Ģ çº¿
è´ ¿
åŁİå¸Ĥ çļĦ
æ¦Ĥ åĨµ
Ġ198 7
å· ³
åº¦ åģĩ
il e
Ð ³
Ġ æľī
ä½ľ çī©
è¯¥ å¸Ĥ
éĴ ¥
æĺŁ çĲĥ
äºĶ ä»£
è®© äºº
è´¯ éĢļ
ä¸ī çĻ¾
åīį æĸ¹
æ¬¡ ä¸º
ĠC on
Ġ åĽĽ
å· ¾
å¾· åħ°
ç«¥ åĨĽ
çŃĶ åºĶ
è¥¿ éĹ¨
ä¹Ł æĽ¾
éĥ½ ç»Ł
å·¥ç¨ĭ åŃ¦éĻ¢
çī©çĲĨ åŃ¦å®¶
è®¤ å®ļ
åĩºçİ° äºİ
æĮīå¯Ł åı¸
æŁĲ ç§į
æĹ¥ åĴĮ
ç³» çļĦ
æľ¨ æĿĳ
å¯º åºĻ
h am
ä¹ĭ æĺŁ
éª ¤
è¿ŀ åĲĮ
å®ģ å¤ı
us s
ber g
éĤ ¢
æķħ éļľ
æĻļ éĹ´
up er
åĽº ä½ĵ
æľĢç»Ī å¹»æĥ³
æĳ© æ´Ľ
è¿ģ å¾Ļ
æĽ¿ æį¢
æİ¥åıĹ äºĨ
è´· æ¬¾
åľ° å¤Ħ
å·´ è¾¾
ç»ĺ åĪ¶
è¯ µ
åŁºæľ¬ ä¸Ĭ
æĿ¡ ä¾ĭ
æ©¡ èĥ¶
n g
å°¾ é³į
è¡ĮæĶ¿ ä¸Ńå¿ĥ
ä¸°å¯Į çļĦ
ä¸Ń è·¯
åı¯ æĥľ
æ¸ħ åĨĽ
ç¥ĸ æ¯į
ap p
è¿ Ħ
åĴ ª
ä½ĵ çİ°
åİŁ æĸĻ
çĻ» åł¡
çļĦ å¼Łå¼Ł
éĴ» çŁ³
Y ou
ä¸į åĲ«
å®¶ æĿĳ
èĬ ľ
ĠT eam
èĥĮ éĿ¢
ç° ¿
æ¶ ¨
æ· «
ä¸ĩ å¹´åīį
åĪĻ ä¼ļ
äºº æĺ¯
éĽĨ æķ°
èĮ ľ
è´¢ å¯Į
Ġ199 5
ä¹¡éģĵ äºĳ
çĶµè§Ĩ åĬ¨çĶ»
æĹ¶éĹ´ ä¸º
éħ¸ çĽĲ
å¹´ åĽł
åľ¨ éĺ¿
ä¸ľ ç«Ļ
æĿ¥ å¾Ģ
åĬ¡ æ®µ
é¾Ļ å±ŀ
ãĢĢãĢĢ ãĢĢãĢĢ
Ø§ ÙĦ
åĵ¥ çī¹
åŃ¦æł¡ çļĦ
åģĩ éĿ¢
æ²Ł éĢļ
åįĴ äºİ
è¯¥ ä¹¦
D D
O L
èĪ ¶
çĽ® å½ķ
é¦ĸ å±Ĭ
å®ŀ ä¸ļ
æ°ı çļĦ
ut e
Ġ ch
ä¸Ģ åįĬ
å¼Ģ å°ģ
èĤ ļ
äºº ä¸İ
åıĤ è§ģ
å¸¦ æĿ¥çļĦ
åĽ½å®¶ æĿ¯
æ¥ļ åĽ½
åħ¬å¸ĥ ä¸º
å³¡ è°·
uc t
ï¼ļ ï¼Ī
çļĩ å®¤
æ»¡ è´¯
ä½ľ å®¢
ç¥ ģ
é¢Ħ åĳĬ
Ġ é»ĳ
çŃ¾ ä¸ĭ
Ġ åı°æ¹¾
ï¼Ł âĢĿ
æł½ åŁ¹
ç¢İ çīĩ
k a
æĶ¿ åĬ¡
ãĤ ĩ
çļĦ çİ¯å¢ĥ
äºº æŃ»äº¡
åĬ¨çī© çļĦ
å¤§ åľ°
é© ¼
åĮĹ æŀģ
ç½Ĺ å®¾
åŁº éļĨ
çĵ¦ æĭī
ä¸Ń æĿĳ
æĸĩ çļĦ
ä½Ĩ ä¹Ł
åį« åĨķ
å¯Ĩ è¥¿
ç®Ĺ æ³ķ
ul l
en e
çº¢ æĹĹ
ä¹ħ çļĦ
åħ ĸ
æ® ī
å¤§åŃ¦ å£«
ä½įäºİ ä¸Ńåįİäººæ°ĳåħ±åĴĮåĽ½
åķ ¸
éĻĲ äºİ
éĥ½ åı¯ä»¥
å¥¥ å¤ļ
å¼º å¤§
Ġ æĸĩ
ä¸Ģ éĹ´
è¿Ĳ éĢģ
çĭ¬ çī¹
æĳ© æīĺ
å¹ķ åĲİ
é¥® æĸĻ
ä½ĵ åĪ¶
åĮħ è£ħ
ĠCom p
ä¸Ģ ä»½
è¿ŀ ä»»
æĹ¶ éĢŁ
ä½Ĩ åĽłä¸º
ç¾İåĽ½ åĽ½å®¶
åıį åĩ»
é«ĺéĢŁ éĵģè·¯
åĪ¶éĢł åķĨ
çķª èĮĦ
åĢº åĬ¡
éĩĮ ç¨ĭ
åıĳå±ķ çļĦ
çļĦäºĭ æĥħ
åĢ ª
è®® å¸Ń
åĵĪ æł¹
æ²Ļ å°¼äºļ
æĤ£ æľī
ä¸ĭè¾ĸ çļĦä¸Ģä¸ª
æĹ¥ ä¸Ĭæĺł
ä¾ ı
æ°´ æĻ¶
ä¸ĵ æĶ»
åŃĻ åŃĲ
æ³ ·
æľ¬ ç§į
çļĦä¸Ģ å®¶
è´¨ çļĦ
çıį çıł
å»¶ä¼¸ èĩ³
u x
æĤ ¼
åĳĬ çŁ¥
å¹¿æĴŃ çĶµåı°
åı¯èĥ½ æĢ§
Ġ åħ«
åıĪ æľī
çİ¯ èĬĤ
æ³½ å°Ķ
èĨ ı
æ¸ħåįİ å¤§åŃ¦
åĪĨ åºĹ
å·´ åĵĪ
èģĮ å·¥
åĲĦ é¡¹
èĳ£äºĭ ä¼ļ
ä¸İ ä¹ĭ
æµ· åħ³
ä¸Ģä¸ª æľĪ
æĥħ æĦŁ
æĻļ å¹´
å¾· åĭĴ
ar i
ç©¿ èĳĹ
3 50
äº¬ å¸Ī
åĵ¥ åįİ
äºļæ´² çĶµè§Ĩ
é£ ĺ
ç«ĭ åľº
ç«ĭ éĿ¢
éĩį æĴŃ
æıĲ äº¤
Ġ æ±Ł
äºļ çī¹åħ°
åĽĽ äºº
æ¸© åĵ¥åįİ
æİ¥ é©³
æıĲ çĿ£
é¦Ļæ¸¯ çĶµå½±
å¼º åĮĸ
èĢ ¿
åĩº èµĦ
çĶŁ æ®ĸ
ä¸Ģä¸ª äºº
ä¹ĭåīį çļĦ
éķ¿ èĢģ
åĪĴ åħ¥
çĸ ²
åĲ¸ è¡Ģ
ĠIS BN
éĶ ¤
çĽ´ è·¯
æĺ¯ä¸Ģ æ¬¾
éĥ¡ çļĦ
æ³ķ åĨĽ
ç¡® å®ŀ
å®¶ åº·
å¯¹ åĨ³
M ich
a ir
Ġ 13
ä¸ľ é£İ
èµĽ åĲİ
ãģ ļ
å¹² æī°
éŁ¦ å°Ķ
å¹´ æĿ¥
èģĶ éĺŁ
åıĹ å®³
çº¢ è¢ľ
æŁ´æ²¹ æľº
l es
æīĢ ä½ľ
æ²» çĲĨ
èİ± åĿŀ
æ¸© å¸¦
åĬł èĹ¤
ç½® äºİ
éĥ¨åĪĨ çļĦ
æĻĭ åįĩä¸º
æ¯Ľ åĪ©
å¹´ æľ«
éĢĶ ç»ı
Ġ199 4
èµ İ
åįĹ åįİ
æŃ¤ å¤Ħ
å·¨ æĺŁ
ç¾ ļ
åŀ ĥ
å¤į åĪ¶
èŃ¦ æĬ¥
æŀ ķ
æĸ° åĮĹå¸Ĥ
ãģ ©
è¿ĺ è¦ģ
çļĦä¸Ģ ä½į
æ·± åĪ»
æ±Ł æ¹ĸ
ç¥ŀ åºĻ
æ£Ģ å¯Ł
å®³ æĢķ
æĦ ļ
ç¬¬ä¸Ģ åĲį
æ½ľ æ°´
Ġ 20
ä¸º ä¸»é¢ĺ
çļĦ ä½¿çĶ¨
èĶ ½
Ġ å¯¹
æĭī å§Ĩ
æĵį çºµ
ä½Ĩ æľĢç»Ī
è½¬ åıĺ
åºĦ åĽŃ
çĸ¯ çĭĤ
f t
åľ ¾
æľĪ ä¸Ń
ä¿ ŀ
æľ¬ æ¬¡
ä¸ĸ ä»£
æ³° å°Ķ
ĠB ar
æ² Ĥ
ç¥ŀ åŃ¦
å¥ı æĽ²
çº· çº·
ä¸ª åĽ½å®¶
çľĭ èµ·æĿ¥
åİŁåĽł æĺ¯
åħĭæĭī åħĭ
1 18
æĪĸ åħ¶ä»ĸ
æľīéĻĲ è´£ä»»
I L
É Ļ
åĨħ æĸ¯
æĪĲç«ĭ åĲİ
ä¸Ģ è¯´
è¥¿ ä¼¯åĪ©äºļ
é¦ĸ åıĳ
åŀĥ åľ¾
ä»ĸ äºº
æĢ» åĨłåĨĽ
åĲį ç§°ä¸º
Ġ èĬ±
æĿ¥ äºĨ
åıĤ æķ°
è®¾ç½® çļĦ
ãĤ¿ ãĥ¼
åĵ ĩ
it ch
äºĳ æŀĹ
éĺµ èĲ¥
çªģ åİ¥
åĮĹéĥ¨ çļĦ
189 5
æĿ¥ çľĭ
èµĽ è½¦
å±± ä¸Ĭ
åŁİ åĨħ
çīĪ æĿĥ
åįĬ å¾Ħ
æ¡Ĥ æŀĹ
çĪ¸ çĪ¸
åŃĲ åŃĻ
å±± çĶ°
å¥Ī èī¯
åĽ½ åľŁ
æ³ ¾
ä¼Ĭ ä¸ĩ
ä¾Ľ çĶµ
Ġ åįİ
åįĹ ç«¯
åħ¥ äºĨ
ç«ĭ ä¸º
å°ĳ éĩı
æļ ĳ
ç£ Ĳ
äºķ ä¸Ĭ
æľīåħ³ çļĦ
æĦıè¯Ĩ åĪ°
M P
ä¸º åı°æ¹¾
Ġl a
å¾· ç±³
å¸ĥ æĸ¯
é¹ ī
åĶ±çīĩ åħ¬åı¸
çī ¡
å°ı è¡ĮæĺŁ
ä¿ ¯
å¤ĸ éĥ¨
ç²¾ ç¡®
ä¸Ģ å¼ł
æł· æľ¬
éģĹ ä½ĵ
æ°¨ åŁº
çļĦ è½¦ç«Ļ
æĸ° çķĮ
èĨ Ŀ
çĮİ äºº
æ§ Ł
Ġ äºĮ
Ġ æ°¸
çī¹ ç§į
çĶµ æľº
è¿Ľ åĮĸ
æĿĳ èĲ½
ç®¡ å¼¦
ç½Ĺé©¬ å¤©ä¸»æķĻ
çİĽæł¼ ä¸½
ä¸ĵ çº¿
äººç±» çļĦ
å¹´åľ¨ ä½į
äºĨ ä¸¤
èģ Ĭ
çĽ´ éĢļ
èĲ¨ æĳ©
æıĲä¾Ľ çļĦ
åĢ¾ æĸľ
éĢĨ è½¬
èĬ ¸
T E
è¥¿ ç«Ļ
åĪĻ ä»¥
æĳ© æł¹
ç»ĦæĪĲ éĥ¨åĪĨ
å¤§æŃ£ ä¹Ŀå¹´
åįı åķĨ
éŁ³ä¹Ĳ åī§
æĬ¤ å£«
åĲīæŀĹ çľģ
éħĭ éķ¿
äºļ çĳŁ
è§£ ä½ĵ
éŁ³ä¹Ĳ å®¶
æľīä¸Ģ æĿ¡
æıĴ æĽ²
A D
åı¯ åĪĨä¸º
åĽł åºĶ
è¿ģ å¾Ģ
çļĦ åıĺ
å¤§ æŀĹ
ä¹Ł ç§°ä¸º
è¯Ń ä¸Ń
æĭľ ä»ģ
ä»ĸ æĪĲä¸º
ä¹ĭ äºĭ
æķĻ å¯¼
å¼ł å®¶
ä¸ĸçķĮ éģĹäº§
æ²Ļ çī¹
æ¥¼ å±Ĥ
ãĢī ãĢģ
Ð ±
å½ Ŀ
è¿ª æĸ¯
B BC
Ï ģ
åľ¨ ä¸Ĭæµ·
ç»´ å¸Į
æį® çĤ¹
æŁĲ ä¸ª
æ¦´ å¼¹
ä¸Ń æĸŃ
æĮ Ŀ
éĴ ŀ
è¶³ ä»¥
åīį ä»»
èĤ Ĩ
ik e
ãĤ· ãĥ§
çĲĨå·¥ å¤§åŃ¦
Ð¸Ñ ĩ
ç¾İ çļĦ
éĴ ī
å¤§åŃ¦ çĶŁ
çłĶç©¶ äººåĳĺ
å®Į ç»ĵ
ç²¾ éĢī
åĬ¨çī© åĽŃ
é¢Ŀ å¤ĸ
èĪŀåı° åī§
ä¸º é¦ĸ
æĹ¥ ä¸ĬåįĪ
ä¸ī åįĥ
å»º åĪ¶
å·´ åħĭ
æ½ Ł
ch e
189 9
Ġ å¥¥
åħ¶ èĮĥåĽ´
åĪĨ æ²»
æµģ æĶ¾
è± ļ
æ¶Ī èĢĹ
èķ ī
æ½ľ åľ¨
çĶµ ç£ģ
ä¸ĩ èĭ±éķĳ
æŃ ī
ä¸¤ å²¸
æŀĹ ä¸ļ
æĽ´ å¤§çļĦ
å°ıè¯´ å®¶
åħ¬ åĬ¡
ä¹¦ åĨĻ
å·Ŀ æĿĳ
æĶ» éĻ·
èĭ±åĽ½ çļĦ
ä¸į ä½Ĩ
Ðµ Ð½
åīį çº¿
éĺ¿ å¸ĥ
å¤« æĸ¯åŁº
ĠE x
é¢Ĩå¯¼ çļĦ
éģĵ æķĻ
åīį æľŁ
å¤ª å¸¸
åłĤ åĮº
âĢĶâĢĶ âĢĶâĢĶãĢĬ
æļ´ éľ²
äºİ åĲĮå¹´
åħ³ è¥¿
å½±åĵį åĬĽ
çħ§ æĺİ
çĪ¶äº² çļĦ
èĶ ¬
åģ¶ å°Ķ
çĥŃå¸¦ æ°ĶæĹĭ
éĢ¢ æĺŁæľŁ
å®¶ èĩ£
ä¸ĭ æľī
å±± åŁİ
ä¾Ŀ æĹ§
iv er
åĮ ¿
æĸ° åŀĭ
å¼Ĺæĭī åŁº
æ¸ Ń
èĥ ļ
åĲĪ çĲĨ
ä¸ĵ æ³¨
å¤©çĦ¶ æ°Ķ
o e
çĶŁ çĲĨ
ä¸ĭ æ°´
éĹ¨ çļĦ
re et
ä¼ĳ éĹ²
T BS
å¡ŀ æĭľ
é¢Ĩäºĭ é¦Ĩ
ä¸į æķ¢
æ¬¡ çļĦ
å¸¸ è¢«
åł¡ åŀĴ
æľĢé«ĺ æ³ķéĻ¢
G ame
çĦ ķ
åĬ© äºİ
it al
ç¦»å¼Ģ äºĨ
æĦıåĳ³ çĿĢ
é© ¿
æĶ¹ åħĥ
èĮ ¹
å¼Ģ è¡Į
at er
ow er
ou th
y a
æľĪ åĪĬ
ä½įäºİ æľ¬åľ°åĮº
æ¡Ĩ æŀ¶
æĮĩ æłĩ
éĩĩ éĽĨ
æĳ©æ´Ľ åĵ¥
æĮ ½
çĬ ģ
ĠR e
çľ¼ éķľ
å¡« è¯į
å·´ æ¯Ķ
æĦı åĽ¾
ä½ı æĪ¿
åĤ¨ åŃĺ
çĲĨå·¥ åŃ¦éĻ¢
Ð ·
å¸¦ åĪ°
å¸¦ çĿĢ
æ¯ı å°ıæĹ¶
åħ¶ä¸Ń çļĦ
éļ¾ åº¦
ä¼ģä¸ļ å®¶
åħ±äº§ ä¸»ä¹ī
èĤº çĤİ
æ¼Ķ ç»İ
å®¢ å®¶
æŃ¤ ç±»
æĸ¯çī¹ æĭī
æ¯Ĵ æĢ§
æ¬£ èµı
åĪĽ ä¸ļ
å¹² éģĵ
b y
ä¸Ģ è§Ĵ
è¿Ļ ä¹Ł
æīĢ èĳĹ
æ¢ §
çĻ»åľº äººçī©
æ°¯ åĮĸ
åĲĮæĢ§ æģĭ
åĪĨ äº«
èĤ ĭ
å°± èĥ½
è¿ľ ä¸ľ
å¹¼ åĦ¿
W illiam
å¹´ åĩºçĶŁ
åĲİ è½¬
è¢« åĪĹä¸º
å¾· å·ŀ
åı² æĸĻ
o on
åĲĮ æĹ¥
âĢĿ ï¼Ľ
èĬ± åºı
åī§åľº çīĪ
Ġ çĶ°
çİĭ åĪĺ
ç«Ļ åľ¨
çĪ± æ²Ļå°¼äºļ
çĹĽ èĭ¦
åĳ ¢
æµ· åºķ
ãĢį ï¼Ľ
ãĤ ¡
ç´¢ å°Ķ
èĮĥ çķ´
ä»ĸ åıĪ
ä¸ī æĿ¡
é¥ ¿
å®ĺ èģĮ
åıª åľ¨
å¸ĥèİ± æģ©
åĽ½ èģĶ
åħ¬ çĽĬ
ç½Ĺ æĿ°
æĶ¹ çĶ±
æ²³æµģ åŁŁ
å¹´ ä»ħ
åĵ ¨
çİĩ åħĪ
å¹´ æŃ£å¼ı
çĲĥ è¡£
ç¾İ äºº
æĢ» æķĻç»ĥ
éĺ² æĬ¤
æķı æĦŁ
G re
ç®¡ åĪ¶
æĽ´ æĶ¹
ä½ľåĵģ çļĦ
åıĳè¡¨ äºĨ
C N
Ġ æĺİ
in i
æ£® åł¡
èķ ´
o o
æķ ķ
éĺ Ĳ
æĸ° ä¸Ģ
æĢ» è®¡
éĺ´ è°ĭ
ä¸ĺ éĻµ
å¾·åĽ½ çļĦ
é¹¦ é¹ī
B e
è¿ĩ åĲİ
æĦ ī
ä½Ĩ è¢«
om as
ä¸Ģ ç¾¤
ä½į åľ¨
æīĵ åĩº
åºŁ æŃ¢
ä¸Ģ çĤ¹
åı¯ éĿł
ç»Ħ çļĦ
å±± è·¯
éĢī æ°ĳ
åĨ³ äºİ
åįĹéĥ¨ çļĦ
å¥ī åĳ½
æķ² åĩº
åĲİ è£Ķ
åºľ çŁ¥åºľ
èĸ ¯
è®¤ çŁ¥
æĻ® å°Ķ
ç»ĳ æŀ¶
æŁĵèī² ä½ĵ
4 000
å¹´ è¿Ľåħ¥
èĥ °
çĶŁ åīį
çĤ Ĵ
è¶³çĲĥ è¶ħçº§èģĶèµĽ
10 4
åĵĪ èĲ¨
Ġ 14
å¥³ åıĭ
èµ° å»Ĭ
ç¥ĸ ç±į
ãĥ³ ãĤ°
Ġ èĭ¥
ãģ °
å¤§åŃ¦ æķĻæİĪ
æ±ī æľĿ
èŁ ¾
æİ¢æµĭ åĻ¨
å¹´ å·¦åı³
çĲĥéĺŁ çļĦ
åĩ¯ çī¹
åı²èĴĤ èĬ¬
ç¥ ĩ
èĢģ æĮĿ
ä»£è¡¨ åĽ¢
æī§ æ³ķ
éº¦ åı¯
æŀ¶ æŀĦ
Ġ åĶĲ
äºº æīĢ
æľī å¾Īå¤ļ
æ£ º
ĠP ark
æ´»åĬ¨ çļĦ
ĠF or
ä¸į ä¸Ģ
åĪĨ æķ£
ä¸ĭ è¯ı
ä¿Ŀ åģ¥
ä¹ī åĬ¡
åįĬ éĥ¨
å¹ ¡
çĹ ´
åľ°åĮº ä¸ºä¸Ģ
çŃĸ éªĳ
N ew
è¡Į è½¦
æ°ĳ ç±į
æĽ¾ ä¸İ
è½¬ æĴŃ
æįŁ ä¼¤
å¤© æŃ£
ç¼ Ģ
åĪ« åĲį
i u
ä¹ĭ ç§°
æł¼ çļĦ
å¢ Ł
ĠO r
åı¬ åĶ¤
A G
ä¸Ń æīĢ
åĪĻ è¢«
æĶ» åħĭ
çĻ¾ åĲĪ
ĠA ir
ç¨³ å®ļçļĦ
oun d
ç¡®è¯Ĭ çĹħä¾ĭ
æ´ ¼
åĬª æĸ¯
æľī åĪ©
åŃ¦ éĩĳ
æķ° åŃ¦å®¶
èĩ´ ä»ķ
ĠCol le
J os
åĲ Ł
å°ı åŃ©
ä¿Ŀ èĤ²
å¨ģ æĸ¯
å§Ķåĳĺä¼ļ çļĦ
é¡º ä½į
ä¸Ń éĺŁ
ç½Ĺ æĽ¼
çº³ è¥¿
ï¼ģ âĢĿ
å¢ĥåĨħ åħ±æľī
æĺİæ²»ä¸īåįģ åĽĽå¹´
å¤§ å¤§
è¶³ åĪ©
èĿ ´
Ð¾ ÑĢ
éī´ å®ļ
1 200
åĴĮ æĸ°
åľ° è¡¨
ä¸»è¦ģ çĶ±
å¤§ éĹ¨
æīĢ éķ¿
æĢ» é¢Ŀ
çº³ ç±³
åį´ è¢«
æķĮ åĨĽ
çĥ§ æ¯ģ
çİĭæľĿ çļĦ
ãĢ ķ
çĲĥ çļĦ
åħ¨ ç¾İ
ç¾¤ çļĦ
çĭ© çĮİ
ä¸Ń ä¸ľ
è¿ĳ ä¼¼
è¿Ľåħ¥ äºĨ
æ°ĳ èĲ¥
èİ± çī¹
çĲ³ å¨ľ
å¹¶æŃ¢äºİ çľģéģĵåı°
Ġ çº¦ç¿°
å¿ Ĵ
æ³ķ è§Ħ
æµ· æ»©
æ¶Ī åĮĸ
å·® è·Ŀ
Ġ åĨłåĨĽ
æ² ¦
ä¹ĭ æĹħ
èį ĥ
åıĪ ç§°ä¸º
ä¸»è¦ģ ä¸º
å·¥ä½ľ èĢħ
æĺİæĺŁ èµĽ
æĳĶ è§Ĵ
ä¸Ģ ä¹¦
è´ ¦
æĢ» éķ¿
åįİ åįĹ
æľīä¸Ģ åº§
æĢª åħ½
ä¸§ å¤±
å®¦ å®ĺ
è¾ĥ å¤ļ
ä¼Ł å¤§çļĦ
è§Ĥ å¿µ
Ġ åį·
ä¸Ń ä»¥
æĹ¥ åıĳåĶ®
åŃ¦ çłĶç©¶
éª Ĥ
æī¹ å¤į
D avid
åľ¨ å½ĵåľ°
ä½Ĩ åĲİæĿ¥
éĩĳ æĺŁ
èİī ä¸Ŀ
å¼ķèµ· çļĦ
ç®Ģåįķ çļĦ
å¨ ĩ
å¡Ķ å°¼
å© ¿
å¾ģ åı¬
çıį å¦®
èĿ´ èĿ¶
åħ¨ ä½ĵ
æľīéĻĲè´£ä»» åħ¬åı¸
åĴĮ ç¤¾ä¼ļ
æĶ» ä¸ĭ
è¯º ä¼Ĭ
èĨ¨ èĥĢ
çĶ¨ äºĨ
çģ ¿
éĥ¡ å¤ªå®Ī
è´Ń åħ¥
èİ² èĬ±
H E
è° ħ
åįĬ åĨ³èµĽ
çıł æµ·
å½ķéŁ³ å®¤
ãĢ Ķ
æľª æĿ¥çļĦ
ç»ĪçĤ¹ ç«Ļ
åıĳ çļĦ
å±ŀ ä¸ĭ
åİĨåı² æ²¿éĿ©
èĪ¹ èĪ¶
k y
èĭ »
åĲĪ èµĦ
å®īå¾· é²ģ
è½¶ äºĭ
ä¸Ĭ è¯ī
éĴ ¾
çĿ ¦
è§Ĵ éĢĲ
æĻ® åıĬ
åľŁ æľ¨
èĪ¹ åĳĺ
åºķ éĥ¨
çķħ éĶĢ
Ġ äºĶ
çļĦ äººåı£
10 2
é¢Ħ è¨Ģ
å¾Ĳ å·ŀ
çļĦ ä¸¤ä¸ª
ä¸Ģ æŀ¶
ä¸ī çŃī
å°± å·²ç»ı
åıĸ åĨ³äºİ
æº ¢
æ¨ Ł
èĶ ĵ
èµĭ äºĪ
çļĦ ä¸įåĲĮ
ç½ ¹
åĽŀ å¤į
åĩ» ä¸Ń
æ£Ģ éªĮ
éĤª æģ¶
) ,
å¹´ é¦ĸæ¬¡
å¹¶ å¼Ģå§ĭ
èĮ ±
èĦ Ĩ
æİĴ çĲĥ
è¶³çĲĥ éĶ¦æłĩèµĽ
AT P
çļĦ ä¼łç»Ł
ç¥ŀ æĪ·
åĦ¿ å²Ľ
åĬŀ åŃ¦
æĶ¹ç¼ĸ ä¸º
çĲ¼ æĸ¯
ä¸ī èĹı
æ¡ ¦
ä¸¤ å±Ĥ
å¥³ å£«
åºĶ å¯¹
å®« å´İ
éĹ °
å°ı äºİ
é©¬ èµĽ
å°¼ å¥¥
âĢĿï¼Į âĢľ
èģĮä¸ļ è¶³çĲĥ
æľī å¤ļ
åŃĲ åĴĮ
éħ ¬
åī§ ç»Ħ
çĤ¹ æĺ¯
æĥħ äºº
æ¯ĶèµĽ çļĦ
18 90
åı³ ä¾§
æ³ķåħ°åħĭ ç¦ı
æ¤Ń åľĨå½¢
åĨ ¤
æµģ äº¡
çĶ· åıĭ
æĺ¯ å¾·åĽ½
æĭ ©
ä¸ĥ ä¸ª
ç´§ å¯Ĩ
Ġ æŃ¦
äºĮ çĶ²
æ¼Ķ æĬĢ
æĺŁ äºĳ
è½¦ç«Ļ åĳ¨è¾¹
å¥ĩ è¿¹
æľĪ è¢«
ç¼ĸ æĪĲ
è¿ĺ ä¼ļ
çĶ Ħ
æĿĳ æĶ¹åĪ¶ä¸º
åĨ³ çŃĸ
åİļ åº¦
å¤§ çģ«
ä¸Ĭ ä»»
è¨Ģ äºº
ç¼© çŁŃ
t o
éĿĴ å±±
æľĢåĲİ ä¸Ģä¸ª
è¯į æ±ĩ
çİ© æ³ķ
Ġ199 3
Ġ å¤ļ
æĺ¯ ä»ĸ
æĹ¶ ä¸º
çļĦä¸Ģ åľº
å®¶æĹı çļĦ
è¯¥åºĦ éļ¶å±ŀäºİ
æµ· æ¹¾
å°ı æŀĹ
é» Ķ
æĶ¶ èİ·
ç¬¬åįģ ä¸ī
æĬķåħ¥ ä½¿çĶ¨
äºº éĥ½
çī¹ å®ļçļĦ
è½¦ çļĦ
ä¼ł æŁĵ
æŃ¦ å°Ĩ
å¥½ èİ±åĿŀ
æĺ¥ åŃ£
ç¼º éĻ·
å½¼å¾Ĺ åł¡
éĹª çĶµ
ç¾İåĽ½ æĢ»ç»Ł
åı¶ çīĩ
çŃ¹ å¤ĩ
æ°´ æīĭ
æ³½ è¥¿
ĠE d
åĽ½ å¤ĸ
ä¸į åı¯èĥ½
åĮĸ å¦Ĩ
åĢ Ń
çł´ äº§
è¯¸ å¡ŀ
çī¹ é²ģ
çĽ¸ æľº
å·² åľ¨
ä¾µ çķ¥
Ġ ä½ľæĽ²
å¸¸ çĶ¨
æĿİ æ°ı
iel d
çļĦåŁºç¡Ģ ä¸Ĭ
çļĦ ç»ĵæŀĦ
æĹ¥ æĸĩ
æĹ¶éĹ´ åĨħ
èį¯ åĵģ
é£İæł¼ çļĦ
Ġ å®ĭ
å±± æľ¬
ä¹Į åħ¹
åĲİ å¤ĩ
åĩº èī²çļĦ
ç«ĭ äº¤
å®ł çī©
åŁ ¤
çĶµè§Ĩ å¹¿æĴŃ
éħį å¥Ĺ
Ġ çľŁ
å®ī å®ļ
åĲī ç¥¥
åºĻ å®ĩ
çĶŁ æĦı
æķĻ å®¤
æīĭ æ³ķ
åŃ£ åº¦
ell a
æĭīä¸ģ è¯Ń
æĸ¯éĩĮ åħ°åį¡
ç« º
è¥¿ èĴĻ
å½ĵ æĻļ
åį¡ è¥¿
ç»ıæµİ åĪ©çĶ¨
è¿ĳå¹´ æĿ¥
eor ge
è£Ķç¾İåĽ½ äºº
is m
ï¼ģ ãĢį
å¤§åŃĹ äº¦æĶ¹åĪ¶ä¸º
l i
Ġ y
å¤§ çķ¥
å¤ĸ æĺŁ
çķĻ å®Ī
éŃģ åĮĹ
Ġ éĥŃ
çĭ Ļ
ä¹ł ä¿Ĺ
æ£Ĵ éĺŁ
å¦ĸ æĢª
Ġ r
èİ ½
æĳ© æĸ¯
ç¢° æĴŀ
ç¥Ī ç¥·
ä¼ļ é¦Ĩ
å·¥ åħļ
åºĶ å½ĵ
çĶ· çĪµ
äº« åıĹ
å¶ ĭ
Ġ èĥ¡
åĲĮ äºĭ
é¦ĸ æŃĮæĽ²
èģĮ èĥ½
éĹ®é¢ĺ çļĦ
ãģª ãģĦ
åī© ä¸ĭ
ĠUn iversity
çº³ å·ŀ
t a
çīĩ ä¸Ń
å±Ģ å±Ģéķ¿
çļĦ éĩį
éĹ´ æİ¥
è¾ĥ é«ĺçļĦ
éĢĤ å½ĵ
Ro bert
B L
åĲį åĪĹ
åįģ ä¹Ŀå¹´
æ°´ éĿ¢
æŃĮ èĪŀ
è¯ģåĪ¸ äº¤æĺĵæīĢ
çĶŁåŃĺ äºİ
Ġ äºº
é«ĺ å°Ķå¤«
Ð ¡
Ù Ī
åĮ Ļ
åĨĽ èĬĤåº¦ä½¿
ç§ĳ éļĨ
åĽĽ å¼º
æľīä¸Ģ ç§į
æļĹ æĿĢ
ne y
Ġ ä¸Ĭæµ·
èĩ´ åĳ½
å·´åĭĴ æĸ¯åĿ¦
ä¼ļ ä»¥
èĢĮ æľī
æķ° çłģ
å¾Ģ æĿ¥
æŃ» èĢħ
å±ħ äºİ
åģļ äºĨ
çĪ¶äº² æĺ¯
åĲ¦ åĪĻ
ç¼ Ĩ
æĺİ å¸Ŀ
éľ Ħ
æĸ¹åĲĳ çļĦ
ç¬¬ä¸Ģ ä»»
åı³ ç¿¼
C o
ä¸Ģ æĹ¶
18 71
æ¶Ī éĻ¤
éľį å¤«
åĹ ľ
åį¡ æ´Ľ
èİ·å¾Ĺ ç¬¬
æĻ¯ åĮº
ä¸Ń æ¯Ĵ
åı¶ åŃĲ
äº¤åĵį æĽ²
çĸ¼ çĹĽ
çļĦ äº²
åħ± äº«
é¾ ļ
å·´ é©¬
å»ºéĢł çļĦ
á »
åĴ Ģ
çİĭ æĿİ
åıĺ æĽ´
è¯Ħ éĢī
æł· çļĦ
è¯ĳ æľ¬
æī© æķ£
èľĤ é¸Ł
å±± è°·
çĶŁæ´» çļĦ
äºĮåįģ ä¸īå¹´
æµ ļ
å±± ç«Ļ
çĽ¸ å¯¹äºİ
èĭ±åĽ½ çļĩå®¶
å¹´ä»£ æľ«
ĠG re
åĪĨç±» æ³ķ
åİŁ çĶ»
è£ ¤
åĨ³ å¿ĥ
èĢĥ åħ¥
æ¾ ľ
çĢ ¬
O W
ä»ĸ è¯´
éĥ¨ ä½ľåĵģ
ãģ Ŀ
å°ļ æľī
å·® åĪ«
å¯¼ ä½ĵ
æ¼Ķåĳĺ è¡¨
è¯¸ å¤ļ
çĽ¸äºĴ ä½ľçĶ¨
y c
æľĢ å°ı
åĬ¨ åĳĺ
åĵį åºĶ
èĢĮ è¡Į
å¼Ģ åħĥ
å·ŀ åĮº
å¤§ çº²
åĬ¨ æĢģ
å°¼ åħĭæĸ¯
å¹¿æ³Ľ çļĦ
er e
è¿ĩåİ» çļĦ
æŀ¢ å¯Ĩ
å¤ļ åħĥ
éĹ¨ ä¸ĭ
å¤ª ä¿Ŀ
æĹı èĩªæ²»åĮº
çİĩ åħµ
Ġ199 2
å¤įæĿĤ çļĦ
éĻĦåĬł èµĽ
ä¼ł è¾ĵ
åŁĥ å¡ŀ
èİ« å°Ķ
æ³ī å·ŀ
åĨ° å·Ŀ
åĽ½ ä¼ļè®®åĳĺ
åĬł ç´¢
æīĵ çĤ¹
ä¸º ä¸Ģä¸ª
ĠC or
10 3
çļĦä¸Ģ é¡¹
ic o
ä¸½ çļĦ
é¢Ħ éĢī
åĽ¾ å°Ķ
ä¸ ķ
åĲ ģ
ä¹Ł åı¯èĥ½
å¸ĥ åĪĹ
ç¿¼ é¾Ļ
å½±è¯Ħ äºº
åıĬ æĹ¶
æķħ æŃ¤
å¸Į ä¼¯
æİ¨ åĩºäºĨ
å·¦ ä¾§
çģ¾ éļ¾
åĽ½éĺ² éĥ¨
b all
ä¹ ĵ
ãĥ į
è¿ŀ éĶģ
åľŁ åºĵ
åħ¶ä¸Ń ä¸Ģç§į
éĻį éĽ¨
é«ĺçŃī æķĻèĤ²
åľ¨ é«ĺ
èµ ļ
èĪ ĸ
ol e
è¡Į çľģ
åİ¿ çº§
åĮĹ ä¸ľ
é©¬ åĪ©
om e
äºĨä¸Ģ ç§į
æ±Ĺ åĽ½
Ġ æ¬§æ´²
åı ±
Ï Ħ
Ġ åĽ½éĻħ
è¡ Ļ
è¥¿ æĻĭ
ä¹Ł è¢«ç§°ä¸º
å½ĵ åĪĿ
en ter
åºĶ çĶ¨äºİ
åħµ åĻ¨
èĹ ī
å¢ĵ åľ°
åĪĽåĬŀ äºº
è½¬ç§» åĪ°
æľĪ ä»»
å» ĵ
éĺ¿å°Ķ å·´
æ®ĭ çĸ¾
ãĥ© ãĤ¤
æĸĩèīº å¤įåħ´
ä¸Ń éĢĶ
åĩ ¿
æĹ¥ ä¸İ
åħĭ æ´Ľ
æİĴ éĻ¤
åĩł å¹´
çļĦåľ° ä¸ĭ
çļĦ åĮĹ
æ¸ ¥
çĬ¶ çļĦ
ĠM e
æŀģ éĻĲ
æĬĢæľ¯ åŃ¦éĻ¢
Ġ199 0
ç¿» æĸ°
Ð¾Ð ¼
é«ĺçº§ ä¸ŃåŃ¦
çļĦ è¦ģæ±Ĥ
å¤§ æī¹
ä¸Ĭ çº¿
å¹¶ åĲĳ
èĲ¨ è¯¸å¡ŀ
Ġ åī¯
æŀ ¯
ä¹Ł æĪĲä¸º
å¤ĸ çķĮ
ä¼ł æī¿
åħ¶ä¸Ń æľī
äººæ°ĳ ä»£è¡¨å¤§ä¼ļ
æ³ ¼
çŃī èģĮ
åĽĽ åĲį
åħĪ é©±
åĵĪ é¡¿
æĺ¯ä¸Ģ æīĢ
æĢİ ä¹Ī
åı¸ éĵİ
æ°´ æŀľ
ä¸¹ å°¼
é¢ĳ ç¹ģ
å¯¼èĩ´ äºĨ
çļĦ æĬĢæľ¯
èµĦ æ·±
è¯¢ éĹ®
åīª è¾ĳ
çļĦ çŁ³
éĹ¨ å¤ĸ
æĪĺæĸĹ ä¸Ń
aur us
Ġ re
åħµ åºĵ
è¿ª åħĭ
åıĳçĶµ æľº
çļĦ æ¶Īæģ¯
åĲĪ éĩĳ
å¨ Ł
åİĨ å±Ĭ
æ±Ł å¸Ĥ
en er
èı ĩ
åħ« å¼º
éħĴ ç²¾
çļĦä¸Ģä¸ª ä¼łç»Ł
r ich
å¹´ ä»İ
ä¸ĩ æ¬§åħĥ
å¥ĸ åŃ¦éĩĳ
en a
æĢĢ çī¹
åľ°åĽ¾ ä¸Ĭ
m p
éĽĨ ç»ĵ
è¿ĲåĬ¨ çļĦ
å¢ĵ èĳ¬
çļĦ åħī
å¤§ èĥľ
æĸ¯ å¾·
of t
éģĩ è§ģ
ä¸į åĪ©
ç¾İ èģĶ
10 8
ä¸ŃåĽ½ åĽ½å®¶
è¡¨çİ° åĩº
è¾½ ä¸ľ
Ġ åŃĲ
çŁ¥ åĲįçļĦ
æĸĩåĮĸ çļĦ
ĠJ ohn
ä¸Ģ æĸ¹
ä¸ĭ åİ»
å¸Ĥ åĨħ
è£ ¹
æ·± å¤ľ
çļĦ éĿŀ
åĮ Ģ
ä¸Ń è¶ħ
æµ· æĪĺ
åįİ çº³
æ¯ı ä¸Ģä¸ª
æ± Ĳ
åı¯ ä¾Ľ
é«ĺ å±Ĥ
å¸¸ ä¾į
ç¬¬äºĮ ä»£
æĸĩ æľ¬
åı° ä¸ľ
éĺ¿ æ³¢ç½Ĺ
éľ Ĩ
æķħ æĦı
çļĦ åıį
æĶ¹ ç»Ħ
æĪĳä»¬ çļĦ
é£Ł éĤĳ
ç§ĳåŃ¦ ä¸İ
é ĳ
å¹´ å¹¼
åİĨåı² å»ºçŃĳ
å¸ķ æĭī
éģĩ ä¸Ĭ
è¢ į
12 5
ä¿ ©
çŁ¥ å·ŀ
é³ ĥ
è®² è°Ī
ich ard
u ch
åĸ Ĭ
åĲ¦ è®¤
ä¸įä¹ħ åĲİ
Ch arl
æĬ ¹
ä¿¡ æīĺ
åį« æĸ¯
åħ´ èµ·
è¯ ł
åŃĹ åŃĲ
éŃģåĮĹ åħĭ
äº ı
çļĦ M
æ¸ ¤
éĩĮ å¸Į
æŀĹ èĤ¯
æ± ¾
åı· è·¯åı£
æĳ ¸
æ¼Ķåĳĺ éĺµå®¹
ä½ł çļĦ
çħ¤ çŁ¿
ä¹Ĵ ä¹ĵ
å¹³ åİ¿
çģ« çĦ°
é½Ĳ åĽ½
ï¼ī ãĢį
æĻ ı
éŃĶ æĪĴ
çļĦ åįķ
çī¹ éĽ·
å·´ å«©
èĬ± è´¹
åīį åİ»
é¦ĸ è½®
èĲ½ åĲİ
æ¼« å¨ģ
ç»° åı·
Ġ äºļ
èı ħ
çĹħ çļĦ
åģľ çķĻ
çĽĸ å°Ķ
åģĩéĿ¢ éªĳå£«
åľ¨ ä¸ľ
é¦ ¨
æµ· æ°´
è¯Ń ç³»
èĻ Ķ
èĤī é£ŁæĢ§
åĮº éģĵ
åįĹ ä¸ĭ
18 60
å·´ æĭ¿
ä¸ĵ åĳĺ
çļĦä¸Ģ åĲį
ä¹ł æĢ§
å¸ķ åħĭ
é»İ å·´å«©
æĺ¯ å°Ĩ
ĠG u
æ¸¡ è¾¹
èĻļ æĭŁ
èµĽ ä¼ļ
æĪĺäºī çļĦ
o ut
åĮ £
ãĥ Ħ
åį³ æĹ¶
æĪ¿ åľ°äº§
æ¸© åĴĮ
æ²ī æ²¡
à º
å¤« åħ°
ç¬¬äºĮ å¤©
ra g
ä¸īåįģ å¹´
æĿ ł
ä¸į è®º
é«ĺ æ¸ħ
çĳ ¾
çīµå¼ķ çĶµåĬ¨æľº
å°¼æĹ¥ åĪ©äºļ
Ġ æĭī
Ġ ä½Ĳ
çĽ¸ éģĩ
è¿Ħ ä»Ĭ
ä¸º é¦Ļæ¸¯
åĴ ¤
æĿĳ çļĦ
å²Ľå¼ı ç«Ļåı°
w e
å¹´ äººåı£æĻ®æŁ¥
çĶ¨ åľ°
çĶµ ä¿¡
å¯Ĩ çłģ
æ³° å±±
ä½İ éŁ³
éĢĥ èµ°
ä¿±ä¹Ĳéĥ¨ çĶŁæ¶¯
å¼ķèµ· äºĨ
ç§ĳç½Ĺ æĭīå¤ļ
Ġ ç¦ı
ä¸ĭ è½½
éĴ Ŀ
å®Į åĸĦ
éŁ¦ æĸ¯
ä¹Ļ çº§èģĶèµĽ
å½» æĸ¯çī¹
åıĳ æºĲäºİ
ä½į åĪĹ
åİŁ æľīçļĦ
éĩĳ éĴ±
èĭ± å±ŀ
è£ Ļ
ä¹ĭ å½¹
è¥¿ æ¯Ķ
æ³ķ å®ļ
ä¹¦ æĪ¿
çĪ± åĽ½
æīĺ å¤«
ä½ı æĪ·
çĮİ çī©
å¯Ħ çĶŁ
åĲİ ä¸įä¹ħ
æ¸ ´
ä¹ĭ åŃĻ
ä»£ åı·
éĹ´ éļĶ
æ¡ ¨
éĢģ å¾Ģ
æ¬¢ ä¹Ĳ
Ì ģ
æ³ķ åŃ¦
æľŁ æľĽ
å®ī äºº
ç¤¼ ä»ª
å·¡åĽŀ èµĽ
å°¼ çļĦ
ä¹ĭåĲİ åľ¨
åı°æ¹¾ æ¸ħæ²»
ĠL im
åľ°åŁŁ åĲįç§°
åľ°åĮºä¸ºä¸Ģ è¡ĹåºĦ
åĪ ¹
äºĨ èĩªå·±çļĦ
èĥ ĸ
å¼Ģ åĽ½
åĽĽ ä½į
èį Ķ
æĪĲä¸º ä¸Ģä¸ª
æķħ å±ħ
åŃĺ æ´»
å¼Ĺ èİ±
åĬ³ å·¥
å®¡ è®¡
ä¸Ģ è¾¹
åĲİ æīį
è¢« åĪ¤
æīĢ çŁ¥
åį¡ éĢļ
è¯ģ ä¹¦
åĨĻ æĪĲ
è·¯ å¾Ħ
åĲĦ å¤§
re e
ĠSt reet
ub l
å®ļä¹ī ä¸º
N H
em ent
æĿĨ èıĮ
æĹ¥æ²» æĺİæ²»ä¸īåįģåĽĽå¹´
çļĦ æ´»åĬ¨
å½ĵ åīį
é¢Ĩ ä¸»
éĺµ åľ°
ç¿» åĶ±
é½¿ è½®
çº½çº¦ å·ŀ
ä¹Įåħ¹ åĪ«
ä¸º ç¾İåĽ½
ä¸į çŁ¥éģĵ
åĽ¾ å½¢
åı¯ä»¥ çĶ¨
æĢĿ èĢĥ
éĥĬ åĮº
æĺ¯ è¯¥
åĬ¨ èĦī
er m
ç¾¤ ä¼Ĺ
ĠA ward
è®²è°Ī ç¤¾
åı¤ åŁİ
å¤Ħ åĨ³
å¼Ĺ åĲī
çģµ é¡¿
è§ ħ
é©¬ è·¯
å½ĵ çĦ¶
èĲ¨ çĵ¦
ĠW h
æģ¶ åĮĸ
ä»ĵ åºĵ
åŃ µ
åı· åľ¨
ĠD e
åĵĪèĲ¨ åħĭæĸ¯åĿ¦
å®ī ç½®
æ´¾ äºº
éŃĶ æľ¯
èİī èİİ
æ¶ī å«Į
æħ¢ æħ¢
ä¸ĢæľŁ å·¥ç¨ĭ
u el
ãģ µ
æį ŀ
åħī çļĦ
ä¸ĥ ä¸ĸ
Ð° ÑĢ
èķ Ĭ
¸ °
Ġ åĩºæ¼Ķ
ä¸į åĬ¨
æģ ¼
ä¹Ĳ æĽ²
ç¤¾ åĽ¢
æŃ¦ æĺĮ
ä¼ĺ å¼Ĥ
æľ± åħĥ
çļĦä¸Ģä¸ªä¼łç»Ł åľ°åŁŁåĲįç§°
ä¸º ä¸Ń
å±± ä¸ĭ
è¯Ń åĴĮ
æĽ´ é«ĺ
ãĢīãĢģ ãĢĪ
ä¸º ä½ķ
å¾· åĪ©
åľº ä¸Ĭ
èį Ģ
ä¸»è¦ģ è§Ĵèī²
ç´« èī²
é³ŀ çīĩ
189 4
ä¸» æĿĥ
æĪĺ äºĭ
ç»ı è´¹
çĸ ¹
çĳŀ æĭī
é¹¿ åĦ¿å²Ľ
âĪ Ĵ
Ġ ä»¥
å¯ Ŀ
æŃ¦ åĬŁ
èĴĤ äºļ
ç«¥ å¹´
æĺİæ²» åĽĽåįģäºĮå¹´
è¾¾ åĪ°äºĨ
åł °
æİ¥ æīĭ
æ±Ł åİ¿
ç©º è¢Ń
16 00
æŀģ ç«¯
èĸ °
åĪļ æŀľ
åıĺæĪĲ äºĨ
Ġ e
Ġ å´Ķ
çĲ ħ
éģĵ å¥ĩ
äºĮ åįĥ
æīĢ æĿĢ
æ¸¯ åĮº
ar is
è¡Ĺ å¤´
å¹´ä»£ çļĦ
åŁºç¡Ģ ä¸Ĭ
å¤ĸäº¤ éĥ¨
à ¥
å¥ ¢
ä¸į çŃī
éķ¿ å´İ
æ¬¡ æĹ¥
è¡¨ å½°
çĽ® çļĦåľ°
åĪĿ åĽŀ
é¸ ł
æĽ¼ åĵĪé¡¿
åľ°ä¸ĭ äºĮå±Ĥ
æ¶ ©
ç»ĵ çĽŁ
æº ī
ä¼¦ åł¡
é¢Ħ æľŁ
æĴŀåĩ» åĿĳ
ç±³ åĭĴ
å¥ĸ çļĦ
è¾ŀ åİ»
æĹħ é¦Ĩ
è¯ĳ åĲį
å¹´ å¤ıå¤©
ä¸Ģ å¹´åĲİ
æľĢ éķ¿
å¥³ ä¼ĺ
åĲĦ æľī
åħļ åĳĺ
åĵ¥ æľ¬
è¿½ èµł
èĹ© ä¸»
ä¸º ä¸Ńå¿ĥ
18 70
åįİ ä¸ľ
åŀĭ æĢģ
åĪĿ ä¸Ń
çĳ Ľ
éĢļå¸¸ ä¼ļ
åĨ° å²Ľ
æľŃ å¹Į
è° Ł
æµģ åħ¥
è®® éķ¿
æĿ¡ æ¬¾
èĮ¨ åħĭ
åĬłåĪ©ç¦ı å°¼äºļ
çĭĻ åĩ»
k er
Ġ åį¢
å¹´ å®ĮæĪĲ
çº¿ åĴĮ
èĢħ åĴĮ
çºµ åĲĳ
Ġ Ã
å¹´ ä»½
åľ¨ å¯¹
åĽ½ ç±į
æĸ° æĿĳ
å¾Ģ è¿Ķ
é¡¹çĽ® çļĦ
è¡ ·
æĺŁ åħī
å°± ä¸ļ
åľŁ èĳĹ
èĪ° èīĩ
å¼Ģ éĩĩ
çİ° éĩĳ
æĶ¾ æĺł
åĨį çĶŁ
éĤ£ æĹ¶
ç¢ ĺ
åŃĶ åŃĲ
æįŁ åĿı
æīĢè°ĵ çļĦ
Ġ ï¼į
Ġ å¤©ä¸»æķĻ
ä¹ĭ åıĺ
åĮĹ é½Ĳ
å² ±
çĻ½ éĩĳ
ir l
æįŁ å®³
o ot
Ġ éŁ©
Ġ æĹł
ä¸Ń æŃ£
ç¥ ļ
å¡Ķ åŁº
å³ ¨
å¸®åĬ© ä¸ĭ
åħ¬åħ± äº¤éĢļ
ä»ĬæĹ¥ è¡ĮæĶ¿åĮº
è¶³æĢ» æĿ¯
çİĽæł¼ä¸½ çī¹
æľĢ èĳĹåĲįçļĦ
æĸ° æĺŁ
ãĥ Ŀ
ä»ĭ äºİ
æĪĺäºī çĪĨåıĳ
ä¸įè¿ĩ åľ¨
æĶ¶å½ķ äºĨ
I A
æĺ¯ è¢«
å®ī æıĲ
åıĸ æĻ¯
èħ ķ
æĿĥ å¨ģ
æĥ³ åĪ°
èįī åľ°
éĢĥ è·ĳ
åĮĹèµ· é¡ºæĹ¶éĴĪä¸İ
ä¾§å¼ı æľĪåı°
æ¢ ³
åľ£ åħ¬ä¼ļ
ĠA ss
åĢĻ è¡¥
b ox
åĩº å®¶
æĻ® æ£®
ä¿Ħ åĨĽ
ĠT V
æĻĭ åĽ½
å¤§ ä½Ĳ
åįļè§Ī ä¼ļ
åĵ¥æľ¬ åĵĪæł¹
Î ¼
å¹´ åİ»ä¸ĸ
äºº è®¤ä¸º
å°ı åŃ¦æł¡
ç½Ĺ ä¼¯
çĽ¸è¾ĥäºİ ä»ĬæĹ¥è¡ĮæĶ¿åĮº
C on
åľ° åĿĢ
è¥¿ å°Ķ
å¸ĥ ä¼¦
æŃ» åĪĳ
ic an
åįł æľī
å¯Į æľī
Ġd i
å±¯ éĹ¨
ç¥ŀåľ£ ç½Ĺé©¬å¸ĿåĽ½
çļĦ ä¸ľ
ä¼Ĭ èĹ¤
è¯º ç»´å¥ĩ
æĶ¿æ²» éĥ¨
éĢģ ç»Ļ
é©» å®Ī
åĲİ åĭ¤
äºļ é©¬
åı· çıŃæľº
å±ŀ æĢ§
åı¯ä»¥ è¿½æº¯åĪ°
çº¢ å¤ĸ
çĥŃå¸¦ é£İæļ´
èĦĬæ¤İ åĬ¨çī©
çļĦ éĢŁåº¦
ãĢĭ ï¼Ľ
ä¸¤ å¹´åĲİ
ç² Ł
å¤į åĩº
æīĺ åĭĴ
åĪ¶éĢł çļĦ
å¹´å¤ıåŃ£ å¥¥æŀĹåĮ¹åħĭè¿ĲåĬ¨ä¼ļ
å¤© æ¡¥
äº® çļĦ
å¹¿æĴŃ çĶµè§Ĩ
å½°åĮĸ åİ¿
æĸ° åħ´
åĲĳ ä¸ľåįĹ
ä¼¯ æģ©
ä»£è¡¨ ä½ľ
ç¡® ç«ĭ
ä¸´ è¿ĳ
çĨŁ æĤī
æ©Ħæ¦Ħ çĲĥ
Î µ
ä¸Ģ çīĩ
åĽĽ åĳ¨
éĶ £
æĻ® åĪ©
åħ¶èĮĥåĽ´ å¤§èĩ´
H ar
P G
g el
éĢī ç¥¨
çıŃ æ¬¡
éķ¿ æĹ¶éĹ´
è¯¥ ç»Ħç»ĩ
æ²³ è¥¿
è¯Ń éŁ³
çĻ» å½ķ
ä¸įåĲĮ äºİ
if e
å¥ĳ ä¸¹
çħ¤ çĤŃ
è¯ºæĽ¼ åºķ
o ch
ç«Ļ ä½įäºİ
æķ£ æĸĩ
èµĶ åģ¿
Ð» ÑĮ
å ļ
åĴĮ æŃĮ
åĲİ äºº
åľº åĲĪ
å¤ĸ è¡¨
æ¡Ī ä¾ĭ
å¾® åįļ
æķ£ éªĳ
åıĳå¸ĥ äºĨ
èĭıç»´åŁĥ ç¤¾ä¼ļä¸»ä¹īåħ±åĴĮåĽ½
çļĦ çĲĥéĺŁ
å¼Ģ åĪĽ
ä¸° èĩ£
ĠE l
Ġd es
Ġ çĶ±
åĪĨ è¾¨
ä¸ī éĥ¨æĽ²
åĪ© æ¡ĳ
è¿ĩ æĿ¥
æĢ» ä¸»æķĻ
å¸Ī ä»İ
åĽŀ æĶ¶
åŃĺ åĤ¨
ri g
åĳ³ éģĵ
å¸Įçī¹ åĭĴ
çļĦ æĶ¿æ²»
åľ¨ å¾·åĽ½
é«ĺ ç¥ĸ
æĬĬ ä»ĸ
äºĮåįģ äºĮå¹´
åĩı è½»
à ®
çļĦ çĽ®æłĩ
ä¸Ģ æŀļ
å¾· åł¡
éĢĥ èĦ±
ç²¤è¯Ń éħįéŁ³
ç»Ń çº¦
el le
æ¨ª è·¨
æĭĽ åĭŁ
ç»§æī¿ äºĨ
Ġ ;
å¹´ å»ºæĪĲ
æĹ¶ è£ħ
åĩº åİ»
æĸ° åºĦ
åķ Ĭ
st it
R e
éĥ½ èĥ½
äºī è®º
åĴĮ åįĹ
æĬ ¬
æĺİ çļĦ
æ· Ĩ
ä½ľåĵģ ä¸Ń
å½© èī²
æļĹ ç¤º
åľ¨ ä¸Ĭ
å½ ª
åĲİ ä¸º
ä¸ī éĩį
ä¸¤ ç«¯
åĪ« äºº
åľ£ åľ°
çīĪæľ¬ çļĦ
ãģķ ãĤĵ
èľ¥ èĦļ
Ġ ä¸ĭ
è° İ
è§Ħ æł¼
ç§ĳæĬĢ å¤§åŃ¦
Ġ195 5
çģĮ æľ¨
æľ±åħĥ çĴĭ
ãĥ ľ
åŀ Ħ
ĠL ove
åĩ¯ å°Ķçī¹
è®² å¸Ī
çİ°ä»£ åĮĸ
è¯ °
åĴĮ ä»ĸ
æ³ Ĺ
æĢ ľ
äºļ çĥŃå¸¦
è¿Ĳ è½¬
åĢ ļ
æµģ éĢļ
å¯º åį¿
èģļ ä¼ļ
çĭŃ çªĦ
Ġ å¤ı
çļĦ åĬĽéĩı
âĢ ķ
17 0
æĪı éĻ¢
ç³»ç»Ł ä¸Ń
æİ¢ è®¨
æĴ¤ ç¦»
ç¼ ī
åį¡ æ´Ľæĸ¯
äº¦ ä¼ļ
åıĬ åĪ©äºļ
åĮĹ åĳ¨
å±Ģ ä¸ĭ
è§ģ éĿ¢
çļĦ ä»·æł¼
ä¸į å¤ª
æŃ¤ ä¹¦
éĥ½ åŁİ
æ¸ħ æ´ģ
å¾Ī æľī
æ·· è¡Ģ
ç»ĵæĿŁ æĹ¶
çĶ¨ åĵģ
æĸ° é²ľ
åĨłåĨĽ èģĶèµĽ
å®Ī éĹ¨
åĪĹè½¦ çļĦ
çģĮ æºī
âĺ Ĩ
çļĦ ä¸Ńå¿ĥ
åĲĮ ä¸Ģä¸ª
åį° åľ°
çī¹æ®Ĭ çļĦ
åį«æĸ¯ çĲĨ
åħ» åŃĲ
èĦ± ç»´äºļ
Ġ ë
ç¾ ŀ
ãĥ Ļ
æĹł åħ³
èĪ¬ çļĦ
æĭį åįĸ
ä¸ª åĪ«
åħ¬ å¢ĵ
äºļ ä¼¯
åįİ å¾·
at es
ä¹ĭä¸Ģ çļĦ
è¶ĭ åĬ¿
Ø ¨
æĸ° ç§Ģ
åĬĽ å£«
åįķ è½¦
åĪĻ äºİ
æİ¨ è¡Į
è¿½ è¸ª
æ¸Ķ ä¸ļ
ä¸į éľĢè¦ģ
çŃ ¿
ä½¿çĶ¨ èĢħ
åĪĽ ä¸ĭ
åĲī åĪ©
å·¥ç¨ĭ ç³»
èĿ ī
A b
èĢĮ å·²
éĵģè·¯ åħ¬åı¸
åĪĨåĪ« åľ¨
å¢¨ å°Ķ
å¹¼ å¹´
rit ic
åħĭéĩĮæĸ¯èĴĤ å®ī
10 6
æ¸¸ ä¹Ĳ
åĩł ç§į
ĠW orld
æ·· æ·Ĩ
èĨ ³
å®īä¸ľå°¼ å¥¥
éŁ §
ä¾¿ åĪ©
ä»Ļ å¥´
çŁ© éĺµ
O r
éĥ Ŀ
å² Ķ
æ³¢ å¾·
åıį å¤į
ä¸ŃçļĦ ä¸Ģä¸ª
å¹´ä»£ ä¸ŃæľŁ
ä¸ĢçĽ´ åľ¨
è´¯ ç©¿
è´« åĽ°
W h
åĪĨ çļĦ
æĬ¥ å¤į
åįĩ çıŃ
æľĪåı° éħįç½®
ä¸ľè¥¿ åĲĳ
E X
Ð ¿
Ġ çº¢
æľī è½¨çĶµè½¦
æĹ¥ ä»¥
æİ¥ å¾ħ
æĿ¡ çĽ®
æ¾ İ
éļ¶å±ŀäºİ åı°ä¸Ń
ä¸ºä¸» çļĦ
å¸ĥé²ģ åħĭ
åı°æ¹¾æ¸ħæ²» æľ«æľŁ
æĺ Ĭ
äºº é©¬
ç§ ĥ
Ġ on
éĿĴå¹´ éĺŁ
C ol
ç»ĵ è¯Ĩ
æĮĩ è´£
åĮ» ç§ĳå¤§åŃ¦
å¼ķ å¯¼
åįĹ å®ģ
æĥ ¹
èģĺ è¯·
çĿ¡ çľł
æº ´
èĳĹ ç§°
åħµ åį«
çĮ® ç»Ļ
ĠCom m
éĺ¿å§Ĩ æĸ¯çī¹
or g
åĪĺ å¤ĩ
æĸ½ è¡Į
äººåı£ å¯Ĩåº¦
ç» ®
éķ¿ éĩİ
åı¯ çĶ¨
æŃ£ è§Ħ
ç¦ı åħĭ
it ion
Ġ199 1
æĳĦå½± å¸Ī
olog y
åħ¨ å¹´
çº³ çļĦ
æİĮ ç®¡
é¢ĨåŁŁ çļĦ
å²Ľå¼ı æľĪåı°
æ¶Īè´¹ èĢħ
% ï¼Ľ
Ġ åı¶
è¿ Ń
æ°ĳ çĶ¨
ä¸¤ å¤§
ç®¡ éģĵ
è§Ĥ æĶ¿
è¾ĥ å°ıçļĦ
æĹģ è¾¹
åĬł åĨķ
äºĭ çī©
çŀ Ħ
ã Ħ
Ġ åĨħ
æķ ĸ
ä¸į æĦ¿
èĢ¶ å°Ķ
ĠG roup
éģĩ éļ¾
çŁ¿ ä¸ļ
Ġ è®¸
çī¹ ç½Ĺ
å±± åºĦ
è¿ĺ åı¯ä»¥
åŁ¹ èĤ²
Ðµ ÑĢ
Î »
åĴ ½
æľĢ å¥½
æĪĺ æĹ¶
å¤« åĭĴ
ä¸ĩ å¹´
åĩ¯ æĸĩ
é©» åľ°
å¸ĮèħĬ è¯Ń
äº« æľī
åįĹåĮĹ æľĿ
D A
åĴĮ åľ£
æ² ģ
åħ¬ åŃĻ
åĨĽ éķ¿
æĺ¾ å¾Ĺ
ç»Ħ ç»Ħéķ¿
åħ± æ¼Ķ
èĭı åĨĽ
189 1
åįĵ è¶Ĭ
t he
ä¸ĭ éĿ¢
åĲĳ ä¸Ĭ
é¢Ħ å®ļ
åı¬ éĽĨ
æĹ¥æ²» åĪĿæľŁ
è¡ ŀ
åĪ© å°Ķ
çºª åħĥ
ç² ª
åĲī å£«
âĸ ł
i j
Ġ ä»İ
å¹´ éĢĿä¸ĸ
æĺ¯ åħ¶
åĲİ æĪĲä¸º
åįĹ éĺ³
çī© æµģ
è¿Ľ å±ķ
al a
åĲ¯ åıĳ
ç»Ĩèĥŀ çļĦ
æķħ ä¹¡
æ´¾ å¾Ģ
è¿ľ ç¦»
æ»ĳ åĨ°
ç¹ģ èį£
èµĦæł¼ èµĽ
ç¨ĭåº¦ ä¸Ĭ
è´µå·ŀ çľģ
P l
åĲį å°Ĩ
æĻ °
é©¬ çļĦ
çľŁ çĲĨ
æłĸæģ¯ äºİ
è¾© è®º
æł ħ
ä¹ĭ å®¶
ãĤ ¶
åº¦ è¿ĩ
ç»ĵ å°¾
éĢĥ åĪ°
èĶ¬ èıľ
P aul
æľ¬ è´¨
åĮĹ æ¬§
é©¬ ä¸Ĭ
å¼ı ä¸º
es e
ĠM ed
çŁŃ éĢĶ
çŁŃ ç¯ĩå°ıè¯´
éĺ´ éĺ³
èĢĮ åĩº
é©¬ æŀĹ
æ¡ ©
18 80
æ¨¡å¼ı ç§į
çļĦ åı¤
çļĦ å®¶åºŃ
çļĦ åĨĽäºĭ
æ² ¢
åĲį é¢Ŀ
å¾Ĺ ç¥¨
éª Ħ
èĴĤ æĸ¯
çŁŃ ç¯ĩ
åıĳè¡Į äºĨ
çĶ± ç¾İåĽ½
åı¯ çĶ¨äºİ
åı¯ å®¹çº³
æķ° åįĥ
èº ¯
åĿł æ¯ģ
C T
Ġ æĪĳ
åĪĿ å§ĭ
èĢ¶ ç»´å¥ĩ
äºĮåįģ ä¸Ģå¹´
åĢŁ çĶ¨
éķ° ä»ĵ
å¤º åĽŀ
éĶ¦ èµĽ
åĢŁ æŃ¤
èĤ¯ å°¼
ä¸Ģ ä½ĵ
er o
J ames
ä¸Ģ åı°
å¹¶ ç§°
éĢłæĪĲ äºĨ
æŃ¦æ±ī å¸Ĥ
å¹´ äºļæ´²
åĨĽ ä¸Ń
æĪĺ æľº
éħ ª
æ³¢ å¤ļ
ç¤¼ çī©
æĹħ ç¨ĭ
åĩ¯ å°Ķ
æĢ¥ æĢ§
è½ ¿
å¹³ çŃī
éĩį åĬĽ
æĽ¾ ç¥ĸçĪ¶
å§Ķ åĨħ
å¡Ķ æĸ¯
åĪ° æĿ¥
å®£ è¨Ģ
èĢĥ è¯ģ
ç³ĸ å°¿
åĲ¸è¡Ģ é¬¼
æł¡ å°ī
éģĩ åĪ°äºĨ
çģ¯ å¡Ķ
å¾·éĩĮ å¸Į
ä¸ª åĩºåħ¥åı£
ä¹ĭ æŃĮ
åĪĨ æīĭ
ä½ľä¸º ä¸Ģä¸ª
çĶŁéķ¿ äºİ
æĹ¥æ²» æĹ¶æľŁ
ÑģÑĮ ÐºÐ°
åĲİ éĿ¢
åħ¬ å¹³
å®ŀ ä¹ł
æĦı çĶ²
å®ĭ ä»£
ä¸Ģ åĳ¨
å± ĳ
ä»ĸ ä»İ
ç¾İ é£Ł
er g
çĬ¶ èħº
å·²ç»ı è¢«
è´ŀ è§Ĥ
æĭī èĦ±ç»´äºļ
æĶ¹ çĶ¨
çľĭ æ³ķ
çĽĳ è§Ĩ
é¢Ĩè¡Ķ ä¸»æ¼Ķ
p l
çļĦ æľº
åİ¿ åİħ
æł¼ ç½Ĺ
éŁ³ä¹Ĳ èĬĤ
èĹı ä¹¦
æŃ¤ ç«Ļ
éĩį åŀĭ
çļĦ æĹł
çļĦ åĨłåĨĽ
æĽ Ŀ
è®® é¢ĺ
å®¢ æľº
è¯¸ å¦Ĥ
è¥¿çıŃçīĻ è¯Ń
å¹´ åıĬ
å¨ ¥
çĻ½ äºĳ
å§ĵ åĲį
å§¿ æĢģ
C S
r um
çļĦ è¿ĩç¨ĭä¸Ń
çĶŁ ä¸ĭ
ä¸į åĲĪ
ä¸ľ èİŀ
å®ļ å¾ĭ
18 00
æº¶ äºİ
ä»Ĩ å°Ħ
æľ¬é±¼ ä½ĵ
ä¸Ģ é¢Ĺ
è¯ ¬
äºĨ å¯¹
èĬĤ æĹ¥
è½¬ èĢĮ
æĤ ¨
è´Ł äºİ
çļĦ çī¹å¾ģ
åŃ¦ åĳĺ
å¤ĸ éĩİ
åħ° å¾·
åįķ è¡Į
åĲī çĶ°
æīį ä¼ļ
æī¹ åĪ¤
çī¡ ä¸¹
z a
Ġ æľ¨
æīĢ å¾Ĺ
åįİ åĮĹ
11 5
åıĸ èĥľ
ä¸ĥ åįģ
éĻĪ åĪĹ
ä¹ĭ çĶ¨
or s
æ¯ı æľĪ
çªģ åıĺ
è½» æĿ¾
ä¹ĭ å¿ĥ
å¼Ģ è¾Ł
çİĭ æ°ı
äº¤ çĶ±
å¤ª æŀģ
çļĦ å¯¹
çļĦ çºªå½ķ
å® µ
åĴĮ é«ĺ
ä¼ļ åĲĪ
åĽŃ æŀĹ
çĻ» åŁº
çļĨ æľī
è½¦è¾Ĩ æ®µ
çĺ ¦
å·¡åĽŀ æ¼ĶåĶ±ä¼ļ
éħ¿ éħĴ
O H
éĩı äº§
åį« éĹ¨
æĹ© å·²
æ·± åıĹ
åŃĻ å¥³
åĩºèº« äºİ
å¸ĥæĭī æł¼
çļĦ ç»ıæµİ
åľ¨ ä¸Ģæ¬¡
ãĢĭ ï¼ļãĢĮ
ä¿ Ń
ç§ĳ çī¹
æĢ» ç«Ļ
éĽ· è¯º
åŁĥ éĩĮåħĭ
åľ°ä¸ĭ éĵģ
äºº æ¬¡
å¹¶ å¯¹
è¿Ļ ä¹Ī
æŃ» äºĨ
éĻĨ æĪĺéĺŁ
éĩİ æĪĺ
å¼¹ æĢ§
ä»ģ å®Ĺ
å·¡ éĢ»
çĲĥåĳĺ çĶŁæ¶¯
è¹ Ħ
è°¥ åı·
ç§© åºı
u ro
çļĦ åī¯
å¾Ī é«ĺ
é¹ «
æ¨ª åĲĳ
åŃ¢ åŃĲ
çļĦ åıĺåĮĸ
ä¸Ń åĴĮ
éķ ģ
å¤ĸ å½¢
æĺİ æĹ¥
ç¼ĸ ä¿®
ä»¥åıĬ åħ¶ä»ĸ
è¶³çĲĥ åįıä¼ļ
24 0
åĩºçīĪ çļĦ
ä¼łç»Ł ä¸Ĭ
æ¿Ĵ åį±
ä¹ĭ äºº
ç¤¾ä¼ļ ç§ĳåŃ¦
åĩ¯ çĳŁ
ri m
å¥¥æĸ¯æĽ¼ å¸ĿåĽ½
èµĽ åĮº
çĥŃ éĹ¨
éĿ¢ç§¯ çº¦
åı¦ä¸Ģ ä½į
ran s
éĵ¸ éĢł
åĲĪåĶ± åĽ¢
o is
åľ¨ çº¿
å¤§ æ²³
ä¸Ĭ æĿī
æ¸¯ æ¾³
åħ« ä¸ª
å¼º è¿«
åįĥ ä»£
åį´ æĺ¯
çģ¯ åħī
188 8
å¼ĹæĭīåŁº ç±³å°Ķ
åĪ©æ¡ĳ éĤ£
Ċ ãĢĢ
çļ ĭ
å®ŀ çĶ¨
æ¨¡ æłĩæľ¬
è¥¿ æĹ¥æľ¬
æĸ° ä¸ĸ
ãĥ ¤
å¦ į
åıį åĵį
åĲī æĭī
å°ģ éĶģ
æııè¿° ä¸º
åĩº è¡Ģ
çļĦå¤§ å°ı
H e
Ġ è¯¥
å¤§ çİĭ
åİ ķ
ä¸Ĭ å±Ĥ
éĥ¨ åĴĮ
è¥¿ å¤ı
åĮĹ ä¸İ
è¿ĳ äº²
äº¦ ç§°
åıĤèµĽ èµĦæł¼
æĭ³ åĩ»
ä¸į è§ģ
æĢ» åħ¬åı¸
ar s
çĶ° å¸Ĥ
è¿Ľå£« åĩºèº«
Ġæĸ° åŁİ
å¡ŀæĭľ çĸĨ
åŃ¦ åĴĮ
æ³ »
10 9
éº Ĵ
2 20
çĶ± ä¸ŃåĽ½
ä¸ľ ä¸İ
åħ« åįģ
èİ·å¾Ĺ çļĦ
èĥĮ åıĽ
ç»ĵæĿŁ äºĨ
æ¶¡ è½®
çº ¶
æľĢ ä¼ĺç§Ģ
éĤ º
åĲĳ è¥¿åĮĹ
æľį çĶ¨
éĴŁ æ¥¼
æĿĤ äº¤
æĪ ¸
èĢ »
ä¸ī æ®µ
æ°ĳ æĶ¿
æ²» æīĢåľ¨
åĭ ¿
as ter
ä½© æĸ¯
èĩ ¼
ç©º è°ĥ
åĨ³ æĪĺ
è¿ľ çļĦ
ac ritic
T R
åħ Ģ
ç»´ çī¹
èĹı æľ¬
ä»ĺ è´¹
ä¿ĥ ä½¿
éĽĨä¸Ń åľ¨
çĶŁ èĤ²
æĢ» åı¸ä»¤
å¹´ çºª
ä¼ļ å¯¼èĩ´
ä½ł ä»¬
ï¼Ł ãĢį
è®½ åĪº
å¸Įä¼¯ æĿ¥
åĮĹ éĿ¢
æķ° æ¬¡
in al
ç¥ŀ å¥Ī
æ¯ķä¸ļ çĶŁ
ä½© å°Ķ
o ul
ä¹ĭ åĪĿ
ä¸ĭ è®¾
çī¹åĪ« è¡ĮæĶ¿åĮº
Ġ198 8
åĩ¶ æīĭ
éĩľ å±±
n y
åı· çłģ
å·´ éĩĮ
é² ·
av e
çİĦ å®Ĺ
äºļçī¹åħ° å¤§
c es
Ġ åħī
æ³ µ
çļĦä¸Ģ åĳĺ
and er
äºĪ ä»¥
åĲįäºº åłĤ
çĪ¬ è¡Į
åħļ å§Ķ
ï¼į ï¼ī
èµ° äºĨ
éĻ¶ çĵ·
çŀ ³
çļĦ ä¿¡
ãģ »
æĻ® éĽ·
æĺ¯ä¸Ģ æĿ¡
åį¢ æ£®åł¡
æĻļ ä¼ļ
åįľ æĿľ
ä»£ çī§
è¿ĩ æķı
éĢļ åĭ¤
è¡Ĺ åĮº
189 3
åĸ· åıĳ
éĿ ¶
çķ ĳ
å¤ĸ è¯Ń
å±Ģ ä¸Ĭ
å¾Ī å¥½
æ·® åįĹ
éĥ¨ ä»¶
åĪĨ çº§
çİĭåĽ½ çļĦ
æĩ ĭ
ä»¥å¤ĸ çļĦ
éĿĴå²Ľ å¸Ĥ
çĽ® åĩ»
çĶµå½± ä¸Ń
çĽĳ æµĭ
æ£ĭ çĽĺ
äº¤åĵį ä¹ĲåĽ¢
éĹ´ è°į
åĲĳ åīį
çłĶç©¶ çļĦ
æİ¨ è¿Ł
è¯Ĺ éĽĨ
b a
p s
ä¸ĢçĽ´ æĺ¯
æĭįæĳĦ çļĦ
é©¬ åĵĪ
è¾¾ æĸ¯
éĴ ®
æ» ĩ
ur a
åİļ çļĦ
í ķ
éĺ¿ åŁº
äº§ äºİ
å¤Ħ å¥³
ä¿® æĸ¯
Ġ198 9
åĮ ¾
åĴĮ ä¸Ń
ç±³ é«ĺ
åĪĽéĢł äºĨ
æĸ¯æ´Ľ ä¼Ĳåħĭ
åĲĮ æľĪ
åľº é¦Ĩ
åħ¨ æĹ¥
æİ¥ ä¸ĭæĿ¥çļĦ
æĻ® é¡¿
æĦŁ è°¢
èĪ° éķ¿
ä¸īè§Ĵ æ´²
ä¸ĵç§ĳ åŃ¦æł¡
Ġ æĪĸ
çļĦ æłĩåĩĨ
çĶ² çĬ¶èħº
æ³ķåĽ½ çļĦ
æ¸© æļĸ
éĽħ åĽ¾
äºĴ éĢļ
éĿĻ åĨĪ
æĸ¯ç§ĳ çī¹
äº¿åħĥ äººæ°ĳå¸ģ
B åŀĭ
Ã §
éĢļ ç§°
åĨį åĬłä¸Ĭ
äºĨä¸Ģ ä»½
çĦ¦ çĤ¹
çļĦ ä»»åĬ¡
æ³ķ åŃ¦éĻ¢
å¸ĥ éĩĮæĸ¯
ä¿Ŀ å®ļ
åıĮ äºº
åº· å¤į
Ġd u
åĽ½å®¶éĺŁ çĶŁæ¶¯
è½¦ è·¯
åĲĳ ä¸ľåĮĹ
èĪ¹ éķ¿
äºĮåįģ åĽĽ
of f
Ġ æµ·åĨĽ
çļĦ æľĭåıĭ
ä¹ĭ çİĭ
è¢« è¯Ħä¸º
çī¹ å¾ĭ
åĲĪ åħ±
ä½Ĩ è¿Ļ
æ¥ ·
ĠR es
æī¾ åĪ°äºĨ
åĳ¼ åĲģ
åı¥ ä¸½
B ar
æµ· åı£
ãĤ ½
æ£ µ
æłĩ ç¤º
yst em
è¡ ¬
èĭ± åĨł
è¿ĺ æ²¡æľī
æ³¢ åĪ©
åĪĿ æ¬¡
çļĩ å¤ªåĲİ
is ion
åĲİæĿ¥ æĪĲä¸º
è¥¿éĥ¨ çļĦ
è¿ĩ å¾Ģ
in k
äºĶ åįĥ
åľ£ å½¼å¾Ĺåł¡
ç´ł çļĦ
åŃĻ æĿĥ
çĪª åĵĩ
ä¹ĭ ç¥ŀ
ç«Ļ çĤ¹
ç«ĭ ä½ĵ
éĺ¿ å¯Ĩ
Ð° Ð´
çĨĬ æľ¬
åĵºä¹³ åĬ¨çī©
åŁ¼ çİī
æĹ¶ æľī
å¤ļ å®¶
æĲ ı
äº¿ æ¸¯åħĥ
Ġv on
å°ıç»Ħ èµĽ
çĶµ åĻ¨
æł¼ å¼ı
å®ģ åİ¿
ç£ º
æ°ĳ èĪª
åİŁ å±ŀ
ç®Ģ æĺĵ
æĸĹ åħŃ
åĲĪå¹¶ èĢĮæĪĲ
å¸½ åŃĲ
ä¸ľ èĩ³
çĶµ éĵģ
ä»¥ä¸ĭ ä¸º
æīĢåľ¨ çļĦ
You T
A åŀĭ
åĴĮ ç¬¬
ä¸İ å°ı
åĽł çĹħ
åı· æľºè½¦
æĺŁ çŃī
åĽ¾ æĸ¯
è§ģ è¯ģ
åī¯ ä¹¦è®°
åĨ² éĶĭ
åº¶ åĲīå£«
ä¸ī åı¸
æĥħ å½¢
ä¸»è¦ģ äººçī©
è£ħ æľī
éŁ³ä¹Ĳ ä½ľåĵģ
ol y
æĿ¡ä»¶ ä¸ĭ
Met acritic
åĩº åħ¥
äºļ çļĦ
äºĮ æ®µ
åĬ¨ çļĦ
å°¼ åŁº
æĹł æķĪ
äº¦ è¢«
åħ» æ®ĸ
å®ĪéĹ¨ åĳĺ
åĴĮ ä¸ŃåĽ½
å¤ļ çĵ¦
ç§ĳ æĻ®
åıª å¾Ĺ
éĿĻ èĦī
è±ª åįİ
åıĽ åĨĽ
çİ ®
å§ ¨
åĬł çļĦ
å®ī çľģ
åħ¬éĩĮ å¤Ħ
åľĨ æŁ±
Ġ ä¸ĩ
æ°´ éģĵ
åĢ ©
æ±ī æĹı
ï¼Ł ï¼ī
èĢĥèĻĳ åĪ°
Ġ å¾·
Ġ ä¸ľäº¬
åĲ ¡
ä¸ĸ å®¶
éĥ½ å°ī
åįĩ éĻį
æ£ĭ æīĭ
ä½Ľç½ĹéĩĮè¾¾ å·ŀ
è¿Ľ ä¿®
æ½ ¼
çĻ» å±±
å½Ĵ è¿ĺ
" ï¼Į
S ch
äºº åĿĩ
éĺ Ļ
æľĢ å°ĳ
æľĢ éķ¿çļĦ
æīĢ è¯´
éĶ Į
æĺŁ åº§
è§£ è¯´
ä¸»è¦ģ ä»¥
ol a
ç¡¬ å¸ģ
çļĦé«ĺ åº¦
186 8
è¶³å¤Ł çļĦ
æĹıèĩªæ²» åİ¿
Ġ æŃ£
æĹ¥ å¯¹
ä¸» çº¿
æĸ¹ æµİ
æģ ª
æ»¡ æĦı
çĲĨäºĭ éķ¿
èĬŃ èķ¾
å½Ĵç±» äºİ
ä¸Ģ çĲĥ
æĸ¯ å¤§æŀĹ
åĨłåĨĽ èµĽ
åĨĽ æĸ¹
åħĥ é¦ĸ
é¢Ħ èµĽ
æĽ¹ éŃı
æł¼é²ģ åĲīäºļ
éĺ¿å°Ķå·´ å°¼äºļ
ä¸Ģ å°ı
æĺ¯ äºİ
æĹ¥ çĽĬ
åŃ¦ æ´¾
çĲ Ľ
è¢« ä¿ĺ
ä¹Ł å°Ĩ
èĤ ½
å¤ª ä»Ĩ
äºĶ ä½į
æĪĲåĳĺ åĽ½
è´µ çļĦ
ç» ¸
æľĢ å¿«
äº¦ åľ¨
ä»ħ åľ¨
ãĥ¼ ãĥĪ
æĹ¥åľ¨ ç¾İåĽ½
è·¯å¾· ç»´å¸Į
M y
æĹ¥ åĨħ
å¤© é¹ħ
æĿĳ åĴĮ
è¿ŀ èĥľ
èĪªç©º éĺŁ
è¾¹çķĮ åľ°å¸¦
å¢¨å°Ķ æľ¬
C E
Ġ éĿĴ
åįĹ éĿ¢
èģĶèµĽ ä¸Ń
äºĨä¸Ģ åľº
ä¸ĢçĽ´ åĪ°
ç£ģ åľº
åİĨ ç»ı
æĽ´ æľī
13 5
è¯º å°Ķ
çİ¯ å½¢
çĬ¹ ä»ĸ
å¼Ģå·¥ å»ºè®¾
æĥ© ç½ļ
èĲ ĥ
ç§ĳ ç»´å¥ĩ
10 7
çĦ ī
æ³° åĿ¦
ĠSt ud
èħĵ åĬĽ
èĩ §
ä½į å±ħ
é©¬ çī¹
çļĩ åŃĲ
çºªå¿µ é¦Ĩ
ä¿ĿçķĻ äºĨ
æ³¨æĦı åĪ°
ä¸Ģæ®µ æĹ¶éĹ´
è¿Ľ ç¨ĭ
å¤© æīį
å´ Ľ
éª¨ å¤´
ç¼º å°ĳ
è¿İ æİ¥
å¸®åĬ© çĲĥéĺŁ
å¤ĸäº¤ å®ĺ
C P
v en
åħ¬ å¼ı
é«ĺ æ¸©
å¦ Ħ
éļ ¼
ç¨ ł
éĺ¿ åĪĹ
ç»ĵ æĻ¶
æµģ ä½ĵ
æī¿ åıĹ
ĠH ar
éĨ Ľ
åıĶ åıĶ
æĽ ¦
ãĤ ´
ç¼ ®
åħ¶ä»ĸ äºº
ä¼ĺ èĥľ
èĥ¡ å®ī
æĸ¹éĿ¢ åĨĽ
T S
Ø ¯
åľ° åĬ¿
åı° å¸ģ
é©¬æĭī æĿ¾
æĺ¯ çĶ¨
æ² ¾
å®ī éĤ£
èľ ´
çī§ åľº
åıĸä»£ äºĨ
ä½Ľç½Ĺ ä¼¦
è¾ĥæĹ© çļĦ
çļĦ åı¯
ä¸º æ¯ı
åĴĮ æ°´
æ¯ Ļ
é¢ ļ
äºĮ åı·
å·´ å¾·
in c
çºª å¹´
å¡Ķ åħĭ
re am
ç©Ĩ å°Ķ
çģ¾ å®³
æ·ĺæ±° èµĽ
ä¹Ĵä¹ĵ çĲĥ
G l
çļĦ å£°éŁ³
åĴĮ åħ¶
ç¥ Ĥ
er ry
åį¡ æĻ®
å¡Ķ æĭī
ç»ĩçĶ° ä¿¡éķ¿
äºĳæŀĹ åİ¿
ä¸Ģ è¾Ĩ
å°Ĩ è¯¥
ç±³ åĵĪ
an i
äºĶ äºº
ä¸ĩ å¼ł
æĽ´ å¤§
ä¸»è¦ģ æ¼Ķåĳĺ
åįĬ çĲĥ
ç¬¬ä¸ī çĶ²
èĪį äºº
æįķ æįī
188 6
å¤ļ å¹´çļĦ
çİĭ åºľ
èĭı è¾¾
åı¯èĥ½ çļĦ
è¿ģ åĪ°
Ġ ä»Ĭ
æľĢ åı¤èĢģçļĦ
äºĮ éĥİ
æł¼ æĸĹ
å¼ı å»ºçŃĳ
èĳ ±
11 1
è´Ŀ åĪ©
è¿½ éļı
èģļ åĲĪ
ĠMus ic
å®ĩèĪª åĳĺ
åı± åĴ¤
æĸ° å¹²çº¿
å±Ĭ éĩĳ
èĤĸ åĥı
ãģ Ķ
åĨħ å¤ĸ
åıĳè¡Į æĹ¥æľŁ
æĮĩæĮ¥ ä½¿
æĮ¯ åħ´
ìĿ ´
W E
Ġ åĬł
åħ¨ æķ°
é¡¶ ç«¯
å¹½ çģµ
S K
ä¸Ģ éĺŁ
ä¸Ģ åĿĹ
ä¸İ éĺ¿
å¹¶ æĬĬ
æĮ «
çĽ´ çº¿
æľª è¢«
åĪļ åĪļ
å®ī å¸Ĥ
èµ· è¯ī
å¤± è¯¯
ç£ Ĭ
çĥĤ çķªèĮĦ
è¿Ľ åĩº
æ· ĩ
å²Ľ ä¸ĬçļĦ
ĠIn ternational
ç§į ç§į
ä»į æĺ¯
çĸĹ æ³ķ
å¤§ åħ´
è½¬ åŀĭ
èģĶçĽŁ çļĦ
å¤§éĺª åºľ
è® ³
å®¶ éĩĮ
ç¾ Ł
ä»¥åıĬ åľ¨
åĲī éļĨ
æ¬§ æĸĩ
ä½İ åľ°
ro c
åĲ« ä¹ī
è¿Ī éĺ¿å¯Ĩ
éĻĢ ç½Ĺ
A A
çļĦ çĬ¶æĢģ
éĩĮ å°Ķ
éģĵ æł¼æĭīæĸ¯
æĻ ķ
æ¼Ķ ä¹ī
åģļ çļĦ
ç²Ĺ ä½ĵ
èľ¥ èľ´
æĢ» ç»ĵ
è®¾ç«ĭ äºĨ
å±ı å¹ķ
çļĦ ç¤¾ä¼ļ
æ°ĳ åħµ
å®ļ äºĨ
ç¬¬äºĮ å±Ĭ
éĿĴ è®Ń
åĵĪ èĲ¨åħĭ
Ðµ Ð²
ãĥĩ ãĤ£
å¹¶ åĪĹ
éĤ» å±ħ
æııè¿° äºĨ
åĸ· å°Ħ
æĺĶ æĹ¥
åİŁå£° å¸¦
N e
Ġ ç¾İæľ¯
ä¸Ģ ç»Ħ
ä¸İ ä¸ŃåĽ½
çİĭ æľ±
ä¸¤ æłĸ
æŃ¦ å¾·
å»¶ è¿Ł
èīºæľ¯ åŃ¦éĻ¢
è¯ĳ ä½ľ
è¿ģ åħ¥
åĪĬ çĻ»
éļĶ å¹´
åĨ¬ å¤©
éĻ¨çŁ³ åĿĳ
Ġ åĲİ
Ġ æ¢ħ
æĹ¥ å®£å¸ĥ
å·ŀ äºº
ä¸¤ é¡¹
åı¸ ç©º
åı² è®°
çĶ±äºİ åħ¶
ä¹Ļ ç»Ħ
æľīæķĪ çļĦ
ä¸º ä¸»è¦ģ
åħ¥ åŃ¦
ç»Ń ä½ľ
åĺ İ
äººåı£ ä¸º
Ð¾Ð »
å§ĶåĨħ çĳŀæĭī
Ġ åĮĹäº¬
èİ ĵ
æĶ¿ å§Ķ
åĮĸ åŃ¦å®¶
éĩĳ é¢Ŀ
åĳ½ ä¸Ń
ä»Ĭ å±ŀ
åı·çº¿ è½¦ç«Ļ
æ¸¤ æµ·
çļĦ é£İ
åľ¨ å¤ĸ
è¢« èªīä¸º
çº¿ ç´¢
é¡º å¤©åºľ
æīĵåĩ» çİĩ
Ï ĥ
çļĦ å¦¹å¦¹
ä¹ĭ å¦»
è·¯ æĸ¯
ç¬¬ä¸ī åŃ£
å·¡ æĮī
åŁİéĻħ éĵģè·¯
æ³ £
åī ¿
è¥¿ è¥¿éĩĮ
è¢« äºº
é©¬ å°¼
æ®µ çļĦ
æ±ī åĨĽ
ä¾¿ ä¼ļ
äºĨä¸Ģ åº§
çļĦ åĬŁèĥ½
åĬ¨ è¯į
ãĤ ®
çļ® åŁĥå°Ķ
çİĽ åĪ©äºļ
è¥Ħ éĺ³
ì Ħ
å¤ª åĴĮ
ä¸ĸçºª ä¸Ń
æķĻç§ĳ æĸĩ
åŃ ľ
çĬ¶ åħĥ
å¥ł åŁº
ä¿® çŃĳ
æ·± æ°´
çĽĳ ç¦ģ
è®¡åĪĴ çļĦ
é¡¶ çº§
æµ¦ ä¸ľ
Ġ æĿľ
åıĳ ä½ľ
è¢« æĮĩ
å¯¹ ä»ĺ
æľĢåĲİ åľ¨
æķĮ æĸ¹
ç§¦ åĽ½
ä¾µ èļĢ
E G
u z
æľī æĦı
æĸ° å®¿
in n
äºĶ å·ŀ
äºĮåįģ åħŃå¹´
èĭ¥ æľĽ
æ¨± èĬ±
æľĢè¿ĳ çļĦ
F l
åĴĮ çº¦
è¡Į æĢ§
ç§ĳ æĸ¯
å®ŀ è´¨
æĿ¾ æľ¬
æľĢç»Ī äºİ
188 7
å®¢è¿Ĳ ä¸ĵçº¿
èįĨ å·ŀ
åĵĪä½Ľ å¤§åŃ¦
éĩĳåĥı å¥ĸ
éĳ «
ç½Ĺ éĤ£
ç¿ Ł
æĳ Ĭ
èĳ¬ åľ¨
æĿŃ å·ŀå¸Ĥ
å®ī å¤§çķ¥
æĹł ç¼ĺ
å¤ľ æĻļ
èĮ¨ åŁº
åĬ¨çĶ» çĶµå½±
ä¿Ĺ åĲį
å²Ń åįĹ
å¼ºçĥĪ çļĦ
P P
çļĦ å¹³åĿĩ
éĥ¨ å°Ĩ
å¹¶ å°Ĩåħ¶
ä¸ī æĮ¯
åĪ¶ æľį
äºĶ å¤§
è¿½ å°ģ
ãĤĩ ãģĨ
äº¤ éħį
å¢ŀ èĩ³
çİī ç±³
åĪ» æľī
å½© èĻ¹
ç¿ħ èĨĢ
ä¸İ ç¾İåĽ½
éķ¿ åı²
åĽ¾ æĽ¼
è´Ł éĿ¢
æĿ¾ æ±Ł
ä»¥ä¸ĭ æĺ¯
à¸ £
è®²è¿° äºĨ
ãģ¡ ãĤĥ
Mich ael
a ut
é¡ ½
æ°´ æ³¥
æº ¥
å¡ŀ æĭī
à¸ ²
A lex
y d
çļĦ åĲįä¹ī
åįİ ä¾¨
åıª æľīä¸Ģ
çº³ç²¹ å¾·åĽ½
ä¸»äºº åħ¬
s c
è¿Ļ ä»¶
åħ¨ ç¨ĭ
é¦ĸ ç§Ģ
æµģ æĺŁ
æ¸ħ æĻ°
ä¹ħ ä¿Ŀ
åģ¥ èº«
ç¼ĺ åħ³ç³»
æ¡ĥåĽŃ å¸Ĥ
D on
i ra
æ± ´
å¼Ģ å¿ĥ
äºļ åĪ©æ¡ĳéĤ£
åīį çĶ°
åħĥ æľĹ
åıį æ´¾
èīº åĳĺ
çĨ ¹
æĹ©å¹´ çĶŁæ´»
sh ip
å¼ĹéĩĮ å¾·éĩĮå¸Į
ï¼Īï¼Ł âĢĶ
éļ ħ
æ¼Ķ åıĺ
éŁ³ä¹Ĳ å½ķå½±å¸¦
èį£ èĢĢ
åĲĳ è¥¿åįĹ
æ´¾ å¯¹
æ¸ £
åĨĽ å§Ķ
çĪ± ä¸ģåł¡
189 2
Î ³
å¤´ åıĳ
ç¬¬äºĮ åĲį
çº¢ éĽĢ
åĮĹ ç«¯
æķ° åĢ¼
çĦ Ĭ
å¤Ħ ç½ļ
åĩºçīĪ äºĨ
ä¸Ģ éĿ¢
ä¸į éĶĻ
èĭ Ķ
è·¯ ä¸İ
é¹ Ń
åºķ çī¹å¾ĭ
å°Ĭ éĩį
G u
ä¸Ģ ä¸ĩ
æ°ĳ åħļ
æīĭ æĮĩ
ĠS e
åįļ å°Ķ
éĤ£ ä¸į
åľ°ä¸ĭ ä¸Ģå±Ĥ
æĬĵ ä½ı
æ»¨æµ· å¡ŀçº³
å¹´ æľī
éķ¿ åŁİ
æµ· ä¼¦
or a
åĸĦ äºİ
Ġ éĽ·
ä½ ļ
å¸ Ľ
åĨĽ çĶ¨
é«ĺ åİĭ
ä½¿ åĳ½
åİĨ ç¨ĭ
åĽ½éĻħ çĶµå½±èĬĤ
çķª åı°
å¼ĹéĽ· å¾·
äº¤åıī åı£
ĠRo ad
" ãĢĤ
Ġ å·´
å¹´ åıĪ
ä¸Ģ èīĺ
ä¸º åįģäºĮåİħ
éķ¿ èĢħ
æĸ¹ ç´¢
è·¯ çļĦ
çĿ ¹
ä¸¾è¡Į äºĨ
äºĮåįģåİħ ä¸ºåįģäºĮåİħ
åŃ º
è¯ ħ
æĹ¥ åĲ¯çĶ¨
æŃ¤ ä¸¾
å·¥ èµĦ
ĠA m
æ³° åĽł
ç®¡çĲĨ å§Ķåĳĺä¼ļ
åľ¨æŃ¤ æľŁéĹ´
å·ŀç«ĭ å¤§åŃ¦
åŃĲ å®«
çİ° å½¹
æĪĺ åĮº
éĺ¿ åħĭ
çĶ² æĿ¿
ç¬¬ä¸ī åĲį
éŃĶ é¬¼
æ°§ æ°Ķ
ãģĹ ãģ¦
äºĮæ°§åĮĸ ç¢³
ĠColle ge
åĩ¯çĳŁ çĲ³
å¯¹ è¯¥
éĺ¿ æĭīæĸ¯
ä¼ł ä½ĽæķĻ
è®¡åĪĴ åľ¨
ç¡« éħ¸
çĶºæĿĳ åĪ¶
B r
Ġ Qu
é¾ Ľ
åĲĪå¹¶ äºĮåįģåİħä¸ºåįģäºĮåİħ
åĽ½æ°ĳ åħļ
éªĳå£« åĽ¢
è¯¥çľģä»½ä¸ºæ³ķåĽ½ åĮĹéĥ¨
å¾·ç±³ çī¹éĩĮ
ĠLim ited
4 50
E V
y pe
æĽ Ļ
è¢« åĪĹåħ¥
ä¸ĭ æĹ¬
å¤ª å°ī
å§ĭ ç¥ĸ
it a
éĢļè¿ĩ äºĨ
å®ĮæĪĲ åĲİ
çº¦ç¿° éĢĬ
ers on
è©¹ å§Ĩ
åįķè¡Į æľ¬
æŃ¤ ä¸Ģ
éĩĳ èī²
er a
å¸¸ å§Ķ
æļ ¹
èĢģ å¹´
åĽłä¸º ä»ĸ
æĶ¿æ²» å§Ķåĳĺ
äººåı£ çļĦ
å»¶ èĩ³
è¾ĵ éĢģ
æį· åħĭæĸ¯
åĲĲ èķĥ
W indows
Ġ èĲ§
ä¸Ń ä¹Ł
æĺ¯ å½ĵæĹ¶
éĺ¿ å¾·
åįķ äºº
æĹĹ èĪ°
çĴ §
æīĺåĭĴ å¯Ĩ
å¤ Ń
åľ¨ ä¸ĢäºĽ
ä¸į æĥ³
ä¸į è¿ľ
è¿Ļ æĺ¯ä¸Ģä¸ª
ãģ Ń
è®° è¿°
æľª å©ļ
å¨ģ åĬĽ
èĢ¶ åĴĮåįİ
åĽ° æī°
åĪĨç»Ħ èµĽ
ä¿ ¸
æĺİ æ¸ħ
ç»´ çĶŁç´ł
æĶ¯ éħį
ä¼¯ æĺİ
ãĤ·ãĥ§ ãĥ³
i or
æķ ŀ
åĩº ç§Ł
è½¬ è¿Ĳ
æĶ¶ ç¼©
ä»Ĭ æ²³åįĹçľģ
è¶³åįı æĿ¯
çīĩå¤´ æĽ²
çļĦ ä¸»é¢ĺ
ä¼Ĭ å¤«
ç»Ī æŀģ
è¾¹ å½¢
ä¸ĢèĪ¬ çļĦ
y m
çİ° çĬ¶
éĺ¿ ä»Ļå¥´
åĩ» èĲ½
éªĮ è¯ģ
å¾® çĶŁçī©
æľ¬é±¼ åĪĨå¸ĥäºİ
å¸Ĩ èĪ¹
Ġ ï½ŀ
æ´ ½
ä¸ī æĹ¥
æµ· çļĦ
18 85
åıĤ æĪĺ
æĿĥ çĽĬ
ç³ĸå°¿ çĹħ
Ġ æ³ķ
ä¸Ń åįĹ
ä¸į çĶ¨
å·ŀ åĴĮ
å¹¿ ä¹ī
åĬ¡ å±Ģ
åı¯ä»¥ ä½¿çĶ¨
å®¿ ä¸»
è¿Ĳè½½ çģ«ç®Ń
Ġ j
æľī ä¸ª
å½ ¤
æīĢ çĶŁ
å°± æŃ¤
éĩĬ åĩº
ä¼ļè®® ä¸Ĭ
Ġ ä¸ŃåįİèģĮæ£Ĵ
ä¸Ģ é¦ĸ
ä¼ļ å°Ĩ
er man
å·´ æ´Ľåħĭ
en c
å¹² æĹ±
ä¸ĩç¾İåħĥ çļĦ
æį·åħĭæĸ¯ æ´Ľ
P L
éĿ ´
ä¸ī èı±
åıĺ æį¢
éĺ³ æĢ§
æº¶ è§£
æĶ¾å°Ħ æĢ§
N et
çļĦ æķ°éĩı
ä¸į è§ĦåĪĻ
è¿Ļ ä½¿å¾Ĺ
å¹³ åĿ¦
é¾Ļ æĺ¯
ĠA g
ç´¢ çĵ¦
èĢĮæĪĲ çļĦ
åħ ĳ
å¼ Ĭ
éĻ ¡
åĲį èĥľ
ç¾İ åŃĲ
æ¸¸ è®°
ä¼Ĭ èİİ
çļĩ å®«
è´Ł æĭħ
å¯» å¸¸
ä¹Įæĭī åľŃ
Ġ æĢ»
æł ĵ
æ®µ æĹ¶éĹ´
at or
ç½ĳ åıĭ
æĭ¿ åĪ°
èĹı äºİ
ä¸Ńæĸĩ çīĪ
é«ĺéĽĦ å¸Ĥ
åħīç¦Ħ å¤§å¤«
è¯ ĥ
æŀ £
åĮĹ ä¼Ĳ
äºĭ å®ľ
éĥ½ è¦ģ
an o
æķħ å®«
åģ¶ çĦ¶
Ġ èĭ±æł¼åħ°
çļĦ é»ĳ
åĴĮ å¼¦
å·² æĪĲä¸º
æŃ¥ éª¤
æµģè¡Į éŁ³ä¹Ĳ
èħ¾ è®¯
ĠAn d
) -
åĴĮ å°ļ
æ² «
é¦ĸ æ¼Ķ
ä»İ ä¸Ń
éĽĨ æĪĲ
è¯Ħ åĪĨ
å¯º å°ĳåį¿
åĬ³ ä¼¦æĸ¯
188 4
Ġ æ³ķåĽ½
çļĦ æŃ£
å¹´ å°Ĩ
å¸¸ çĶ¨çļĦ
åĬª å°Ķ
ç¼© å°ı
S am
å¹´ æĹ¥æľ¬
æĮģ èĬĤ
åı·çº¿ çļĦ
è§ī ç½Ĺ
ĠĠ Ġ
ç»ıåİĨ äºĨ
æº¶ åīĤ
è½¬ä¼ļ è´¹
ä½Ľç½Ĺä¼¦ èĲ¨
i os
åį ¦
èĲ ±
ç»Ł é¢Ĩ
åħµ éĥ¨å°ļä¹¦
åħŃ çĶ²
ç¯® æĿ¿
éģµ å®Ī
JR ä¸ľæĹ¥æľ¬
Ġ ä»ĸ
æĪĲ éĥ½å¸Ĥ
ãģ İ
åĽĽ å¤Ħ
å®Ī åį«
èģĶèµĽ æĿ¯
ãĥ¼ ãĤ¹
èĦļ æľ¬
ag ue
ä¸İ æĿİ
æľº ä¸Ĭ
åĽĽ éĥİ
å¤ª çĽĳ
è½¬ ä¹ĺ
æĦŁ åıĹ
æĪ´ ç»´
ä¸º ä»Ģä¹Ī
çĶŁ åŃĲ
è¢« åĳĬ
éĩĮ çº¦
è¿Ļ æľ¬ä¹¦
å½ĵ ä»ĸ
åįı å¥ıæĽ²
ä»ĸçļĦ åĦ¿åŃĲ
å¯Ĩ æŃĩ
èĪŀ æĽ²
æºª æµģ
æ±ĩ ä¸°
æ³¢ç½Ĺ çļĦæµ·
3 60
Ġ Q
çļĦ è®°è½½
åıĳ éħµ
è¿ĩ å¤ļ
éĢļ é£İ
åħī å¹´
æĹ© äºİ
Ġ198 6
æİī äºĨ
åŃ¤ åĦ¿
å§ĳ å¨ĺ
å¸ĤæĶ¿ åİħ
æľĿæĹ¥ çĶµè§Ĩåı°
A c
Ġ åħ¶ä»ĸ
çļĦ èĩª
çļĦ æķ°æį®
é» Ĵ
æº ľ
æħ Į
å¿ĥèĦı çĹħ
ä¸İ æĸ°
åħ¶ éĹ´
ãĤ ²
æĮĩ åįĹ
åį´ åľ¨
ä»ª åĲĮ
æ¿Ģ åħī
çıł æ±Ł
åįłé¢Ĩ äºĨ
âĢ ĭ
æĹ¶ åľ¨
åħ¬ ç½²
âĢĿ ï¼īï¼Į
å®Į æ¯ķ
ä¾į åį«
186 1
éĢĢå½¹ åĲİ
æ³ķåħ°è¥¿ å²Ľ
å·´æĭ¿ é©¬
å¯ĨæŃĩ æł¹
T w
ä¸Ń ä¿¡
åĴĮ M
é«ĺ åĬłç´¢
æ¦ ķ
é¢Ī éĥ¨
é©¬è¾¾ åĬłæĸ¯
Ġ æĿ°
æľī åĬ©äºİ
åĪĨ åħ¬åı¸
åĬĽ åĴĮ
åıĺ ç§į
èİ± æģ©
åī¯ éĥ½å¾¡åı²
åºĵ æĸ¯
ra y
O T
Ġ åħ³
åĲ ĭ
æĹ¥ åĩĮæĻ¨
é» ľ
æīĢ è¾ĸ
ç³ Ł
åı£ å²¸
éĥ¡ æĸ°è®¾
æĲ ģ
um b
æ¿Ģ æ´»
è¿İ æĪĺ
å¤§ æ¦Ĥ
éĽ ³
å£ ¹
æ´² éĻħ
è½¬ åħ¥
åĽłä¸º åľ¨
åįĬ å¯¼ä½ĵ
ç¥ĸ åĽ½
å¤§å¥ĸ èµĽ
æĪ į
å¹¶ åıĳ
è° ´
å¤© å®Ŀ
ä¸¤ äººçļĦ
çĶ· åįķ
å»ºçŃĳ ç¾¤
é¤Ĳ é¥®
ä¸į èµ·
æŀĹ æĸ¯
å¥¹ åĴĮ
ä¸ĸçķĮ çºªå½ķ
æī¹ åħ¨åĽ½éĩįçĤ¹æĸĩçī©ä¿ĿæĬ¤åįķä½į
å¤® è§Ĩ
ç»ĵæŀĦ çļĦ
å¹¸ è¿Ĳ
èĳ¬ ç¤¼
åįµ å½¢
åıł çºª
Ġ Ø§ÙĦ
æĺ¯ ä¸ĸçķĮä¸Ĭ
å®¶ åĴĮ
çĶµ éĺ»
æĸĩ ä¹¦
çĽ¸ æİ¥
at us
æ¤į è¢«
Ġ198 5
L L
åľ¨ æł¡
èĪ ·
ç«Ļ éĹ´
è¯¥ é¡¹çĽ®
éĢļå¸¸ åľ¨
é¦ĸæ¬¡ ä»£è¡¨
è¥¿ å¾·
è¢« ç§°ä½ľ
å¹¶ æĭħä»»
æŃĮ åī§éĻ¢
ç¦ı æĸ¯
æĪı æĽ²
åī§æĥħ ç®Ģä»ĭ
åı¸ä»¤ åĳĺ
å¤§ èµı
ç§ĳ ç»Ļäºĭä¸Ń
åķĨ ä¼ļ
æŀģ å¤§
æ£Ģ æł¡
å¹¿è¥¿ å£®
å°ı å¿ĥ
å¤´ éª¨
äºĮåįģ ä¹Ŀå¹´
çĤ® åı°
åıįåºĶ åłĨ
z e
çİ° åĲį
æİ¥ çĿĢ
åĽŀ åĪ°äºĨ
åĪĿ ä»£
æİĴ æĶ¾
åĺī åħ´
è¡ĮæĶ¿ éķ¿å®ĺ
èĦī åĨ²
è®®ä¼ļ éĢīä¸¾
X box
é ĸ
åº ł
å¤§ æ»¡è´¯
åħ¬ æŃ£
åħ¥ çĭ±
ä¸¤ éĺŁ
æİ¥ ä¸ĭæĿ¥
æ¸ħ çĲĨ
é¡¾ å®¢
å·´å¡ŀ ç½ĹéĤ£
æĪĲ åĲį
çľģ éķ¿
åįİ è£Ķ
æĶ¶ çĽĬ
æĸŃ è£Ĥ
ra v
æĿĢæŃ» äºĨ
æĺİå°¼ èĭıè¾¾
æķ£éªĳ å¸¸ä¾į
å¹´ åĩºçĶŁäºİ
ä¸Ģ å¤Ħ
ç«Ļ åĲį
ä½¿ å¾Ĵ
is c
èĢģ é¼ł
ç´¢ ä¼¦
éĢĥ å¾Ģ
åĭĩ èĢħ
æĮĳ éĢī
æĭĴç»Ŀ äºĨ
T om
è ĺ
é¢ Ĳ
ç¦ı å²Ľ
è¨Ģ è®º
å° »
äºº å¿ĥ
éĶ Ī
èĬ± å²Ĺ
åĨ³å®ļ å°Ĩ
åĪº æĿĢ
å´© æºĥ
Ġ ä¸į
ä¸Ĭ ä¹¦
èĲ ¼
åĪ¶ èį¯
æµģ ç¨ĭ
ç©º éļ¾
å¼Ģå§ĭ åĲİ
çļĦä¸Ģ ç³»åĪĹ
æľ¨ æĺŁ
å´Ľ èµ·
çļĦ å»ºè®®
ç±³ æĭī
èī² æĥħ
è£ ĺ
é£ŀ å¾Ģ
è¯º åħĭ
åĨ³èµĽ ä»¥
äºļé©¬ éĢĬ
æĸ §
æĺ ¼
ä¹ĭ å¼Ł
åĨĽ è¡Ķ
ç»´ æĸ°
éĻ¤ å¤ĸ
åįĥ æĪ·
èµ¤ éģĵ
åįķ çº¯
çĪ± ä¸½ä¸Ŀ
æĶ¶ åĽŀ
åľ£ ä¿Ŀç½Ĺ
æĦŁ åħ´è¶£
åĤ į
ç«¥ è¯Ŀ
åıĶ çĪ¶
çļĦåĲĮ åĲį
éĽĩ ä½£
å¾·åħĭ èĲ¨æĸ¯å·ŀ
çļĦ åĲį
çļĦ äººçī©
ä¹Ł å¼Ģå§ĭ
èĢħ æĺ¯
çŁ³ çģ°
åħ¬åı¸ åľ¨
å¯Ĩ éĽĨ
æ¯įäº² æĺ¯
çıł å®Ŀ
æĹħå®¢ åĪĹè½¦
att le
çŀ¬ éĹ´
çļĦ éĵģè·¯
ç½Ĺ ä¼Ĭ
åŁİ ä¸Ń
å½¢å¼ı çļĦ
çİĦ æŃ¦
186 2
æĿ°åħĭ éĢĬ
æĹ¥ åħ¬å¸ĥ
ä¸Ĭ çĸı
åĪĨ åĩº
å»º å®ī
æģ ķ
è¯¸ åĨĽäºĭ
èģĮæ£Ĵ å¤§èģĶçĽŁ
ĠY ou
åħ ľ
çİ º
åĮĹ ä¸Ĭ
è° ¬
å¤© åŃĲ
åĲĪ éĢĤ
å¤´ é¢ħéª¨
åıĺ èº«
é¦ĸæ¬¡ åľ¨
å¨ĥ å¨ĥ
çļĦ è½¦
æµ ı
æĪĲ åĥı
åıĺ éĢŁ
ä»ħ åŃĺ
èİ« éĩĮ
ĠH igh
ä¾µ çĬ¯
åĿĲ æłĩ
çļĦ äºĮ
ä¸ī éĹ´
èĩª å¹¼
éĺ¿ åį¡
éĺ¿ åįľæĿľ
é»Ħ æĹĹ
æĢ»ç»Ł éĢīä¸¾
E x
Ġ æĽ¾
çļĦ åŁºæľ¬
æĸ° æķĻ
èģĶ æīĭ
æŀģ åħ¶
äºĭä»¶ çļĦ
åĬŀåħ¬ åİħ
æĸ°ç«¹ åİ¿
ï¼ī ãĢĭ
åĴĮ é©¬
æ² ¸
æ¼ ķ
å¤ª å¤ª
å§ĭ åıĳ
å¸¦ åĽŀ
æ¯Ĵ ç´ł
t ain
Ġ çī¹
åĽ½ åĨĽ
å»º åº·
å°Ĩ è¢«
åĬŁ èĩ£
èİ± æĺĤ
æĽ¼ è°·
æľįåĬ¡ çļĦ
å¢ĵ å¿Ĺ
çĲī çĴĥ
Ġ åĲį
æĺ¯ ä¸İ
è¿Ľ äºĨ
æĶ¯ åİħ
å»¶éķ¿ èĩ³
B R
ä¸İ åĲĮ
æĸ° åĩłåĨħäºļ
å¾Ĺ åĩº
æ²» å®ī
èĬĤ çĤ¹
è½¬ åĪ°
è¿ŀ ä¸²
åĪĽ åĪĬ
æľį é¥°
æ²Ļ å°Ķ
çĽŁ åıĭ
åį°åº¦ æ´ĭ
éĺ» ç¢į
çİ» åĪ©
ç¨³å®ļ æĢ§
æĸ° åįİ
å·² æķħ
è¿Ļä¸ª åĲįåŃĹ
èĥĮ åĲİ
èĩªçĶ± åħļ
ç²¾ç¥ŀ çĹħ
åŁºåĽł ç»Ħ
æĺ¯ æł¹æį®
éķ¿ éĢĶ
äºļ å¤ª
ä»£ æķ°
18 76
ä¿Ŀ ç¦Ħ
çı Ĥ
åĪĴ åĪĨä¸º
å£° æ¯į
IN G
åħĭéĩĮ ç±³äºļ
ç¬¬äºĮæ¬¡ä¸ĸçķĮå¤§æĪĺ æľŁéĹ´
çĨĶ å²©
) ãĢĭ
f ord
æŃ ´
ä»¥ çºªå¿µ
å¸Ĥ çº§
ç§ĳ åĮ»çĶŁ
å¤« çļĦ
éĩĩ çº³
id ae
ç¬Ķ è®°
åħ¬ ç¤º
èĭ Ł
å°ı éĩİ
çŃī äººçļĦ
åħĥ ä»¶
ç¥ŀ å¥ĩ
åĨį è§ģ
ä¾ĭ å¤ĸ
è®© å¥¹
åĲ¬ è¯´
éĵģéģĵ éĥ¨
éĵ¾ æİ¥
åħĭ åĬĽ
åĽĽ æĸ¹
ä½įäºİ é¦Ļæ¸¯
ä¼Ĭ åĬ¿
å®¹ åĻ¨
äºĮåįģ åĽĽå¹´
å¡ĳ æĸĻ
uc k
éľī ç´ł
èĢĮ æĪĲä¸º
æľĢ æĸ°
åĪ© æ¶¦
er y
18 79
åº· æĸ¯åĿ¦
èĵ Ł
æģ¶ åĬ£
åıĳå¸ĥ çļĦ
å·²æľī è®°è½½
å¼Ĺåħ° åħĭ
çŁ³åĻ¨ æĹ¶ä»£
æıĲ æ¡Ī
èĬĤçĽ® ä¸Ń
å¸® å¿Ļ
ä»Ļ äºº
æĶ¹å»º ä¸º
Ã ´
åŃ¦ ä¸ļ
æ°´ æºĲ
Al l
D P
Ġ éº¦
äºĨ åħ¶
èĲ¥ åľ°
Ð¾ Ð½
èİİ æĭī
æĸ¯ è¾¾
èĢĮ ä»ĸ
é¦ĸ éĥ¨
åŃĹ ä½ĵ
æ¹¾ ä»Ķ
ç¹ģ å¿Ļ
ç½ĳçĲĥ åħ¬å¼ĢèµĽ
çĹķ è¿¹
c a
æĹ¥ åĲĳ
åħ¨ åľº
åħµ é©¬
é¸ ½
æĶ» è¯»
éĩĩ è´Ń
186 4
ãĥ³ãĥ ī
èĩ³ åħĥ
è§£ åīĸ
éĢīæĭ© äºĨ
å°ıæĹ¶ åĢĻ
å¤ªéĺ³ ç³»
åįģåŃĹ åĨĽ
æĭīä¸ģ ç¾İæ´²
åľ¨ äºĨ
æĺ¯ ä¿Ħç½Ĺæĸ¯
è¯¥ åĮº
çľģ ä¼ļ
æ±ī ä¹¦
åĭĴ å§Ĩ
æĦŁ åºĶ
æĭľ è®¿
æĬµ å¾¡
åĬłå·ŀ å¤§åŃ¦
Ñ Ĩ
Ġ et
ä¸ī æĺŁ
ãĥ Ķ
å½ĵ å¹´çļĦ
18 78
æº º
ĠS m
åĺ ²
è®² åº§
éĿł èĳĹ
å¸ĥé²ģ æĸ¯
å¹¿è¥¿å£® æĹıèĩªæ²»åĮº
çļĦ è¯Ħä»·
çĲ µ
åįģ ä½Ļ
å°ı éĺŁ
åıĺ è¿ģ
çĶµå½± éĻ¢
éĺ² çº¿
ä»į æľª
åı³ æīĭ
å³ Ļ
çĦ¶èĢĮ åľ¨
è·³ è·ĥ
æ´»è·ĥ äºİ
ä¸Ĭ é¢Į
åıĳ æĢ§
å°ı çĶ°
ar m
åĥ ĸ
å¡ŀ çĲī
ç»§ æ¯į
ç§» äº¤
èĿ ĩ
ä¸ªæľĪ åĲİ
Ð Ĳ
ä¸Ń åıĳçİ°
è¡ «
åĮĹ çº¦
åı¯ æ±Ĺ
çĥ ĥ
æ±ī æĸ¯
èĥľ å¯º
å¤ĩ åıĹ
éĺµ çº¿
å¥¥å°Ķ èī¯
æī« æıı
åİ¨ æĪ¿
çĪ±å¥½ èĢħ
k g
Ġ è°¢
ä¸Ń èİ·å¾Ĺ
å¤§ åĬĽ
æĹ¥ åŃĲ
åİŁ å®ļ
åİŁ èĳĹ
æ£Ĵ çĲĥéĺŁ
ent al
åįĹäº¬ å¸Ĥ
å¹´ è¡¨
ä¸Ģ ä»£
ä¸Ń ç«ĭ
ä¹ĭ å¤ľ
æĸĩ ä¸Ń
æµ· åĽł
åı· åĴĮ
åĽĽ ç§į
æł¼ å¥¥å°Ķ
åĪĽ å»ºäºİ
äºĮåįģ ä¸ĸçºª
åĲĽå£«åĿ¦ ä¸ģåł¡
æµ ľ
ä¸ĸ çļĦ
ä¼¯ éĩĮ
èĥľ è´Ł
186 7
çļĦ å¥½
ä¸į äºĨ
åĬł çº³
åĬ¨ æ¼«
åĨħ å°Ķ
å®ī æĬļ
æŃ£ å¥½
ä¸ĩ éĩĮ
æĶ» çł´
æĤ į
æ¤ °
ä¿Ħ æ¯Ķäºļ
u al
Î º
ä»¥ èĩ´
è· ĸ
åĮĹ èĩ³
å¤© æ°´
èİ± å°Ķ
ç¬¬ä¸ī ä»£
å·¥ä¸ļ å¤§åŃ¦
ĠÐ ³
åºĩ æĬ¤
çīĽæ´¥ å¤§åŃ¦
Ġ th
åľ¨ æ°´
ä¸Ń éĥİ
ãĢį (
ç§ĳ è¥¿
ç§į ç¾¤
æľĹ å¾·
æķĻèĤ² åŃ¦éĻ¢
æĬĹ æĪĺ
è¡¥ åģ¿
è§Ĥå¯Ł åĪ°
åįĹåįĹ è¥¿
åŁĥå¡ŀ ä¿Ħæ¯Ķäºļ
åľ¨ æĹ¥æ²»
æ¯ ĵ
æ²³ å·Ŀ
èĲ¥ éĶĢ
æĬĢæľ¯ çļĦ
æľīä¸Ģ å®ļ
éŃĶ å¥³
æµģåŁŁ éĿ¢ç§¯
1 19
ä¼ ¶
æ¯ı éĽĨ
çļ® å°Ķ
åºŁ åİ¿åİħ
æħ¢ æĢ§
èĥ¸ é³į
èģª æĺİ
åĺīä¹ī åİ¿
æĶ¹è®¾ äºĮåįģåİħ
âĹ ĭ
% ï¼ī
æľī åĬŁ
çī¹ åĴĮ
ä¸»è¦ģ æľī
åĳĬ ç¤º
åģĩ æĹ¥
åħ¶å®ŀ æĺ¯
åºŁåİ¿åİħ æĶ¹è®¾äºĮåįģåİħ
å¹´ åıĤåĬł
ä¸Ń çº§
è¦ģ ç´ł
ä¸¤ åº¦
å¼ł æ°ı
çļĦä¸Ģ éĥ¨ä»½
ĠA b
çļĦäºº ç±»
ĠAl l
åĮĹ è¥¿
ç¼ ļ
og le
åĲı éĥ¨å°ļä¹¦
ãĤ¸ ãĥ£
å¹½ é»ĺ
èĢķ åľ°
è´© åįĸ
è¯ħ åĴĴ
O C
ä¸Ģ å¥Ĺ
é«ĺ éŁ³
èĲ ¤
åĨł åĲį
åıĳå±ķ è¾ĥæĹ©çļĦ
ä»Ļ åı°
éŀ ĺ
éĦĤ åĽ¾æĽ¼
çŃ Ľ
ä¸ľ å²¸
é«ĺ åı¥ä¸½
ç¾İ å¼ı
æį §
æĶ¾ å¤§
çĶ· æŃĮæīĭ
éĺ¿å°Ķ åıĬåĪ©äºļ
åĤ¨ å¤ĩ
éĺ¿æĭīä¼¯ è¯Ń
ä¿Ŀå®Ī åħļ
äºº åıĹä¼¤
æīĢ ä½¿çĶ¨çļĦ
éĩĳ æľĿ
å¥³ éħįè§Ĵ
æ£® çļĦ
ä¸ĸçºª æĹ¶
ç»ĥ é©¬
éĽĨåĽ¢ çļĦ
äº¤éĢļ å¤§åŃ¦
æģĭ äºº
æĤ² åī§
åıĳå±ķè¾ĥæĹ©çļĦ èģļèĲ½
æļ ®
å¾Ī å®¹æĺĵ
æ¯Ĵ åĵģ
Ġç¬¬ åĽĽ
åįķæĽ² æ¦ľ
ct ion
äºº äºĭ
æľĢ å¼º
å¼Ģ æĭĵ
å¥³ æĢ§çļĦ
11 4
æĽ´ å¥½
æķ´ æµģ
æĽ¾ç»ı æĺ¯
ä¹Ķæ²» äºļ
çªĹ åı£
å¤ļå¹´ æĿ¥
è¶ħ å¸Ĥ
æľ¨ åĦ¿
æĹ¢ æľī
åŃ¦ è¯´
å¼Ģ èĬ±
éĺ¿ å¡ŀæĭľçĸĨ
å¨ ´
æĹł åĬĽ
ç»Ł çŃ¹
ç¥ŀ å®Ĺ
11 7
åħĪ è¡Į
èĬ± èİ²
èĪª è¿Ĳ
æ°¸ å®ī
èĪ¹ ä¸Ĭ
æ²¿ çĿĢ
åľ¨ é©¬
çĲ ¶
å¤ļ å°ĳ
çĽ¸ éļĶ
åĪĻ è®¤ä¸º
188 3
P R
åľ¨ æľ¬
å°Ĩ æĿ¥
éħ ļ
çº¦ å®ļ
en ry
çĶ° çĶº
çĶ² å£³
ä¹ĥ èĩ³
çĽ¸ä¼¼ çļĦ
éķ ĸ
å§ «
å·´ çĻ»
æĦı æĮĩ
çº³ çľģ
åı¯ä»¥ è¢«
æĶ¯ å®īæīĵ
æ²Ļ æ»©
æ²ĥ å°Ķå¤«
åīĤ éĩı
çļĦ æ°Ķ
é¦ĸ åĳ¨
åı¤ ç½Ĺé©¬
åľŁ ä½Ĳ
ä¹Ŀ æ®µ
éĹ½ åįĹ
çļĦå®ĺæĸ¹ åľ°åĽ¾ä¸Ĭ
åħ¨ æĸ°
éĩĳ åįİ
å¡ ¾
é¦ĸ å¼ł
æĶ¹ æŃ£
ä¿¡ ä¹ī
æĸĳ çº¹
æ·ĭ å·´
å¸ĥåĪĹ å¡Ķå°¼
Ġ åĪ¶ä½ľäºº
èĩª æĦ¿
éĵ Ģ
ç³ Ļ
æ· Ħ
å®ĥ è¢«
æ²¿ éĢĶ
ç¼ĺ æķħ
æįķ èİ·
ç¼ĵ è§£
YouT ube
çļĦå®ĺæĸ¹åľ°åĽ¾ä¸Ĭ å·²æľīè®°è½½
M us
åĨ ī
æĺ¯ éĢļè¿ĩ
åĴĮ è°Ĳ
ä¸¤ åľº
æİ¥ åĪ°
ç¤¾ ç¾¤
æĿİ åħĭ
çº¢ èī²çļĦ
åĳĬ åĪ«
åĨĻ äºĨ
åºķ å±Ĥ
èģĶåĲĪåĽ½ æķĻç§ĳæĸĩ
ä¸ºäºº çŁ¥
å¹´ èµĽåŃ£
åĪĨ åĮĸ
æĹ¥æľ¬ å¸ĿåĽ½
åī¯ ä½ľçĶ¨
28 0
ä»ĭ åħ¥
åħ¼ èģĮ
æ±ĩ åħ¥
ä¸īä¸ª æľĪ
Ġ198 4
åıĻ äºĭ
è¯¥åºĦ æĶ¹åĪ¶ä¸º
ä½ľçĶ» çĽĳçĿ£
ä»ĸ æĭħä»»
åĽł åľ¨
æľº èº«
ad a
ä¾µ åħ¥
æĮĤ çīĮ
A s
çļĦ ä¸ľè¥¿
åŃ¦ åłĤ
ä¼ļ æĪĺ
ä¼ļ åłĤ
ä¸¤ åľ°
äº¬ åŁİ
å¸Ŀ çİĭ
æĺ¾ çĦ¶
æ»¡ åĪĨ
äºĮåįģ äºĶå¹´
çĤ® å¡Ķ
188 1
è¿½æº¯ èĩ³
ä¿Ħäº¥ä¿Ħ å·ŀ
çļĦ çīĪæľ¬
åľ¨ å¥¹
è¿ª å°Ķ
å¹² æ¶ī
ĠF l
èĩªçĦ¶ ç§ĳåŃ¦
æ¼ĶåĮĸ æĶ¯
åı°æ¹¾æ¸ħæ²»æľ«æľŁ èĩ³
I ON
Ġ èĶ¡
åº ¾
æ² ®
ä¸į å¤§
ä»£ ä»·
æŃ£ æ¨¡æłĩæľ¬
åħ± çĶ¨
åĳ¨ æĹ¥
æ²¡ èĥ½
å®Ŀ è´Ŀ
æĭĽ æĶ¶
ä¸Ńéĥ¨ åģı
ãģ ¶
æŃ¤ æĽ²
æİ¥ çº³
åıª ä¼ļ
ä¸ĵ æłı
ç»Ī å¹´
åįĩ ä¸Ĭ
å½±åĵį äºĨ
è§Ĵèī² æī®æ¼Ķ
çļĦåľ° çĤ¹
æķĳ åĩº
y r
åľ¨ éĤ£
å¤ĸ ä¾§
æĺİ æľ«
åħ± è¯Ĩ
åĲĳ éĩı
éĵģ çŁ¿
è§Ĵ å·Ŀ
ä¸ĵ é¢ĺ
åĽ½éĻħ è±¡æ£ĭ
åĨħåĬ¡ åºľ
Ñ ħ
Ġ æŁ³
åľ¨ ä¸ī
å¹¶ çĶ¨
èĩª æĪĲ
æīĢ ç½ĹéĹ¨
é©¬ åŃ£
éķĩ çļĦ
å±Ģ éĿ¢
éĥ¨åĪĨ åľ°åĮº
éº ¾
éħį å±ŀ
æ¦ľ åįķ
æ½® æ¹¿
è´« ç©·
åħµåºĵ åİ¿
« çĹ
ê µ
æī ³
æĹ¥ éĹ´
ä½Ĩ å¥¹
æł· åŃĲ
æīį æĺ¯
æĺ¥ å¤©
çĽ¸åºĶ çļĦ
åĿĲèĲ½ äºİ
çļĦ èīºæľ¯
ä¸º çķĮ
æľī è¶£
çī¹ æľĹ
éĺŁ åı²
æĶ¿ äºĭ
ç§» éĻ¤
æĲŃ ä¹ĺ
ä¸Ĭ æĺ¯
è¿Ļ å°±æĺ¯
æľŁ åĪĿæľŁ
ä¼ł åħ¥
èĤ¯ å¡ĶåŁº
æĵį æİ§
åĭĩ æķ¢
ä¹¡éģĵ å½°
æ¬§ äºļ
åħ´ å¥ĭ
è¶³çĲĥ èµĽ
ä¸įåĲĮ çļĦæĺ¯
æ¤įçī© çļĦ
åĪĬ çī©
åŁºç¡Ģ è®¾æĸ½
186 9
æĦŁæŁĵ èĢħ
æ°Ł åĮĸ
è½¦è·¯ å£«
åľ¨æĹ¥æ²» æľŁåĪĿæľŁ
ä¸Ģ ä»¶
åĨĽ èĲ¥
èģĮ äººåĳĺ
è¶Ĭ è¿ĩ
ç¯ ¡
çĽ®åīį çļĦ
æ£ĴçĲĥ éĢīæīĭ
Ġ ä¸ĸçķĮ
æľĪ æŃ£å¼ı
å¯¹ ç«ĭ
ä¸ļ èĢħ
çĻ½ å¤©
è´¥ ç»Ļ
æİ© æĬ¤
å¯Ĩè¥¿ è¥¿æ¯Ķ
åıĹå®³ èĢħ
åľ¨æĹ¥æ²»æľŁåĪĿæľŁ çļĦå®ĺæĸ¹åľ°åĽ¾ä¸Ĭå·²æľīè®°è½½
Ġ 2023
ç® ķ
åħ¨ å¢ĥ
æĴ ĥ
æİĴ æ°´
ut ion
çºµ éĺŁ
orm ation
éĻĲå®ļ çĽĺ
åĲīéļĨ åĿ¡
åĴĮ è§£
åĮĹ å¹³
æĸ° æĪĲç«ĭçļĦ
ãĤ Ģ
æ°ĳ ä¿Ĺ
æ£ £
çŁ³ åĪ»
å¼ķ åĬĽ
çīĽ å¥¶
èĥŀ èĥİ
ç½ª åĲį
ä¼´ éļı
186 3
çļĦæĥħ å½¢
åľ¨ åħ¨çĲĥ
å¤§ æķĻåłĤ
å¤ļ ä½į
çħ İ
æļ´ é£İ
è·³ èĪŀ
åį¸ ä»»
éĥ½å¯ŁéĻ¢ åı³
ì ļ
åıĳ éĢģ
åħ¥ è¯»
è¿Ľ é©»
ä¸¤ å®¶
ç¬¬ä¸Ģ ä¹¦è®°
éģ¿ éļ¾
å°ĳæķ° æ°ĳæĹı
çī¹ åľ¨
æĸĩ æĸ¯
11 3
ol f
ç¤¾ä¼ļ åħļ
æľ¬åľ°åĮº åıĳå±ķè¾ĥæĹ©çļĦèģļèĲ½
æĸ¯å¡Ķ å¤«
çļĦ å½¢è±¡
èĢĮ åħ¶
åĬ¨ æľº
æķĻ å£«
åıĤ éĺħ
çĻ½ èī²çļĦ
è½¬ åĮĸä¸º
ĠM ag
it z
å¯Ĩ èĭıéĩĮ
ç¤¼ åłĤ
åıĳè¡¨ çļĦ
å½±è§Ĩ ä½ľåĵģ
æį·åħĭæĸ¯æ´Ľ ä¼Ĳåħĭ
å¾ ³
ä¸į å¤Ł
ä¹ĭ æīĢä»¥
æµ· æ»¨
åİ¿ åĴĮ
æĴ ķ
çŁ³ å®¶åºĦ
åĩ» æ²ī
æ°ı æĹı
åįı åĬĽ
èĩªå·± æĺ¯
ĠO ne
Ġ Ñģ
Ġ ç¼ĸæĽ²
å¤§ æ´ĭ
ä¸ľ èµ°åĲĳ
å¼ł åĽ½
æį¢ åıĸ
éľ¸ çİĭ
æıĴ åħ¥
p or
á ¹
çļĦ æľĢå¤§
ï¼Ī âĢľ
ï¼ļ ãĢĤ
è¥¿ éĽħåĽ¾
è¢« éĢīä¸º
åĲĪ ä¼Ļ
çİĭ å¦ĥ
æŃ£ æķĻ
å°± å¼Ģå§ĭ
çĶµè§Ĩ ç½ĳ
çĵ¦ å¤«
å¥ĩ å¼Ĥ
re w
å°ĨåĨĽ æ¾³
æĽ¾ç»ı åľ¨
Ġ198 3
æĭĵ å±ķ
çļĦ éĢīæīĭ
ä¸Ģ éģĵ
éĶ »
è¾¹ çĸĨ
å¾ģ æĪĺ
å¹¼ èĻ«
Ch rist
æľīæĹ¶ ä¼ļ
åĽļ ç¦ģ
ä¸Ĭ éĥ¨
ä»ĸ ä¹Łæĺ¯
çĶŁ åĮĸ
æł¼ è¾¾
ĠC ent
åıĮ éĩį
çªģ è¢Ń
ç¼º çĤ¹
Ð¸ Ð½
æĳĨ èĦ±
çºł çº·
ä¸ĵæ³¨ äºİ
M L
t d
Ġ )
é¦Ļæ¸¯ æĶ¿åºľ
åĲĦ çº§
å½Ĵ å±ŀ
è½» å¾®
åĸ· æ³ī
ä¼¯æĺİ ç¿°
6 000
Ġ éĻĨ
ä¸Ģ æĹı
ç»´ åĲī
æ¸¸ çİ©
è¡Ģ åŀĭ
æ¦Ĥ çİĩ
å®¾å¤ķæ³ķ å°¼äºļå·ŀ
åħ¬åĬ¡ åĳĺ
æĹ¥ åĩºçĶŁäºİ
å°ı èģĶçĽŁ
åı² è¯Ĺ
åİĨåı² ä¸ĬçļĦ
æĸĩåĮĸ åĴĮ
æŃ£å¼ı çļĦ
P eter
U P
É ĳ
æĸ ¼
åĩº ä½¿
ä¸ĭ è®®éĻ¢
åı° éĵģ
æĻ® éĩĮ
å·¦ ä¾įéĥİ
æ²¿ èĳĹ
æķ°æį® åºĵ
ç¬¬åįģ åĽĽ
ä¸ĩäºº æ¬¡
é©¬è¾¾åĬłæĸ¯ åĬł
I s
åį ¤
åĪĨ éķľ
è§Ĩ éĩİ
25 00
è´Ŀ åĭĴ
ĠW ar
åĩı å¼±
B E
g er
Ġ éŁ³
Ġ å¯Į
ä¸Ń åĮ»
ç¬ ¨
éľ ¹
æĬķ çĲĥ
åĪĨåĪ« äºİ
æĶ¹ç¼ĸ æĪĲ
å¤§éĥ¨åĪĨ çļĦ
åĪĹæĸ¯ èģĶ
åįĹ è¾¹
äºĮ åİħ
çİĭ åħ¬
åŃĹ å½¢
ir d
A F
S w
èĢ Ĩ
ä¼ļ æīĢ
çº¦ æĹ¦
è½¬ åĮĸ
å¢ĥ å¤ĸ
ç´¢ èı²
ä¼ĺ åĮĸ
P ar
ãĢĭ ï¼ļâĢľ
ä¾ ¬
å±± åĿ¡
æĢ» æĬķèµĦ
è½¬ è®©
èµŀ æī¬
ä¹ĭéĹ´çļĦ åħ³ç³»
åİŁæľ¬ çļĦ
æĻ ¤
ä¸ĸ è¢Ń
ä¸ŃåĽ½ åı¤ä»£
äº¬ éĥ½å¸Ĥ
åħµ å¤ĩ
éļı åĲİçļĦ
åĭĭ çĪµ
ä¼´ ä¾£
åį³ä½į åĲİ
å¥¥æĸ¯åį¡ æľĢä½³
çŀĦ åĩĨ
ï¼Į ï¼Ī
çļ Ĥ
çļĦ æİ§åĪ¶
æľī çĤ¹
å·ŀ éĻħ
åĶĲ ä¹¦
èĹı åĵģ
os e
æĸĩåŃ¦ å¥ĸ
G eorge
Ġ å·Ŀ
çļĦ çİ°è±¡
åı¸ ä¸»äºĭ
ç¬¬ä¸Ģ åº§
ä¼Ĭ è¾¾
æ±¤ çİĽ
åıĭå¥½ åŁİå¸Ĥ
Ð ļ
çļĦ åĪ¶ä½ľ
çļĦ å¹´åı·
å¥ĩ æĢª
re m
éļ¾ æ°ĳ
å¸ķ çī¹
è§Ĵèī² çļĦ
ĠÐ ¡
æ§ Ĳ
åĢº åĪ¸
åŀĦ æĸŃ
C V
äºº ç¾¤
æĸ¯ å·´è¾¾
éĥ¨ åī¯éĥ¨éķ¿
åĪ© æ¯Ķäºļ
åºĶ å¤©åºľ
éĻ¤ éĿŀ
åıĳçĶµ åİĤ
ç» ŀ
ä¸Ń å²Ľ
ä¸Ń é¥°æ¼Ķ
ä»ĸ å¼Ģå§ĭ
åı¯ çĶ±
ä¸ļ ä¸»
æľª ç»ı
éľ² åĩº
éĽ¨ æŀĹ
å¡ŀçĲī åı¤
Ġ ä¸ĥ
å¹´ ç§ĭ
ä¸Ģ äºĭ
ä¸Ń æ®µ
éĺ ±
äºļ æĸ¯
æľº åĬ¡æ®µ
éĢł åĥı
å·Ŀ çĶº
èĲ¥ éĢł
çĶ· éħįè§Ĵ
ul a
å¾½ ç«ł
188 2
è¯¸èĳĽ äº®
S H
åħ¥ åľº
å¹³ æĹ¶
ç«Ļ ä¸º
åĽĽ èĤ¢
18 48
åıĺ åĬ¨
ä¿® çĲĨ
çĻ¾ èĢģ
mer ican
ä½Ĩ ä¹Łæľī
12 2
çĪ± ä¹Ĳ
éĤ£ä¸į åĭĴæĸ¯
å¹´ åĩºä»»
å¹´ åįģäºĮæľĪ
åŃĲ åĹ£
æĻ Ł
ç¬¬ä¸ī ä¸ª
æİ§åĪ¶ çļĦ
èŀį åħ¥
åĪł éĻ¤
äºĶå·ŀ äºĮåİħ
ä¸İ åīį
éģĵ æŃī
é¢Ĩ åĨĽ
ç²¾ å½©
è¯Ľ æĿĢ
çĮ© çĮ©
æľĪ äº®
é©¬ åı¯
å²Ľ æ´¥
è¿ĳ æľŁ
åľ£ äºº
çłĶç©¶ èĢħ
ä»¥åıĬ ä¸ŃåĽ½å¤§éĻĨçļĦ
ç»Ļ åĩº
åºŁ åįģäºĮåİħ
å¹´è½» äºº
æĶ¹è®¾ äºĶå·ŀäºĮåİħ
S aint
éĺŁ ä»¥
åŁİ ä¸»
18 50
å½¢ åĬ¿
11 6
å¸Ī åĤħ
æ´ĭ è¡Į
ä½İ æ¸©
ç®¡çĲĨ çļĦ
å»¶ æľŁ
æĸĲ è¿ªåįĹ
èµĽé©¬ ä¼ļ
Charl es
Ø ³
åĽ½ èĲ¥
æ¯Ķ æĸ¯
å¥¥ åħ°
å¼¹ éģĵ
èĢ¶ é²ģ
éŁ¦ ä¼¯
çĢ Ľ
å²Ĳ éĺľ
èģĶåĲĪåĽ½æķĻç§ĳæĸĩ ç»Ħç»ĩ
ç«Ļ åĴĮ
æ¯Ķ åĪ©äºļ
åħĥ åĴĮ
æĢ» æķ°
æ²³ æ°´
å¥¥ åħĭåħ°
ä¿® å¥³
èĭ±åĽ½ äºº
åģľ æĴŃ
æĭīä¸ģ æĸĩ
çİĩé¢Ĩ çļĦ
çĻ¾èĢģ æ±ĩ
åºŁåįģäºĮåİħ æĶ¹è®¾äºĶå·ŀäºĮåİħ
p ort
Ġ åİŁä½ľ
åľ¨ è¢«
ï¼ī âĢĶâĢĶ
åŃ¦ çķĮ
ä¸į å®ī
åĬł çī¹
æģ ¤
åİ¿ ä»¤
æıĲ åıĸ
è§Ĵ é¾Ļ
åıį åıĽ
åįĩ èĩ³
çº¢ çĻ½
æ³¨ éĩį
æĻ®éĢļ è¯Ŀ
æ´ Ĵ
ä¾§ éĿ¢
æ¼Ķåĩº ä½ľåĵģ
ç»¼åĲĪ æĢ§
ĠIn d
å¯Ĵ åĨ·
éľ¹ éĽ³
åľ¨ è¿ĻäºĽ
ä½ĵ èī²
æ°´ åĩĨ
æĽ¾ åıĤä¸İ
å®ŀ å½ķ
ä¸ĸçķĮ åĨłåĨĽ
å¼¹ ç°§
å¼Ĥ æĢ§
ä¹° ä¸ĭ
l ine
çļĦ äºĶ
è¡Į æĿİ
é¦ Ī
è¢« æİĪäºĪ
ä¹Ł è®¸
ç¦» åİ»
ur n
çŀ »
è½¬ä¼ļ èĩ³
Ã ī
ï ¸°
çļĦ åı£
æĺ¯ æĿ¥èĩª
åħ³ è¿ŀ
ä¼ł éĢģ
å±Ģ åĬ¿
å¤ı ä¾¯
æ¸© å·ŀ
éĴ¢ çŃĭ
åĳ¨å¹´ çºªå¿µ
R E
å¹´ åĨħ
ä¸Ĭ å¥ı
è¥¿ èĩ³
èĬ ®
å°ı åŃĹ
å½ĵ ä¸»
ä¸¤ åı°
è£ħ ä¿®
å¤± ä¸ļ
æ¨¡ ç³Ĭ
å»ºéĢł äºĨ
æľĿé²ľ åįĬå²Ľ
è¤ ¶
éĢłèĪ¹ åİĤ
o z
åľ¨ æŁĲäºĽ
äºº éĢł
å¤© åĽ½
éĤ ¯
è¯Ń æ³ķ
è®¡åĪĴ äºİ
åŃĶ æ³°
çļĦå¥³ äºº
å¼ĹæľĹ ä»Ģ
æ¾İ æ¹ĸ
çļĦ é£İéĻ©
å¤§ åľ°éľĩ
ä¸į æĺĵ
ä¹ĭ åĬ©
å®¶ éķ¿
ä¸ľ èµ·
è¿Ļ æ¬¾
æĸĩ éĽĨ
çİĭ å»º
çł ¾
è¯¥ åłĤ
æł¼ åĪ©
äº§ æĿĥ
å®« ä¸Ń
ä¸Ńå¤® åĨĽå§Ķ
å½ĵåľ° å±ħæ°ĳ
ç©ºåĨĽ åŁºåľ°
éĩĳæĽ² å¥ĸ
A t
åĮĹ éĿŀ
è¿Ļ é¢Ĺ
åĪ¶ æĪĲçļĦ
ç¬¬äºĮ ä»»
è¾ĥ çŁŃ
éĹŃ å¡ŀ
ric k
çļĦ æĹ§
åīį å¤ķ
ãĤ ħ
er c
åĽº éĨĩ
èĩªçĦ¶ ä¿ĿæĬ¤åĮº
æ²īç§¯ çī©
Ġ æĸ¹
Ġ æ¸ħ
Ġ ç¼ĸåī§
äºº åĬĽ
åı¸ éĥİä¸Ń
å°± èģĮ
çİ¯ çº¿
æİ¨ å®ĺ
ä¹ĺ è½¦
ç¼º å¸Ń
åı¥ è¯Ŀ
æĪĺåĽ½ æĹ¶ä»£
éĩİçĶŁ åĬ¨çī©
çļĦ å°ıè¯´
å¹´ å½ĵéĢī
åĲİ åĨį
æĸ° ç½Ĺ
éĩį åıł
é¦Ļæ¸¯ çĶµåı°
çļĩ å¤ªåŃĲ
è½» åŀĭ
å¸ĥé²ģ å¡ŀå°Ķ
7 50
çļĦ åį¡
é© ¯
æĸĩ æ£®
å¿ĥ çģµ
ç¼ĸ çºĤ
ä¼¯ å°Ķ
ab le
è¡° èĲ½
å¤ĸåĽ½ è¯Ń
b le
çļĦ è¡ĮåĬ¨
åľ¨ åĽ½éĻħ
ä¸ĭ è¡Į
ä¸ĭ é¢Į
æĻ Ĵ
éª ģ
è½¬ åĮĹ
ä¹¡ éķĩ
ĠA c
æĸĹ å£«
æĶ¯æĮģ èĢħ
çİ¯å¢ĥ ä¸Ń
åħ½ èĦļ
èµ¶ åĪ°
éĢ Ĺ
çĶ± åħ¶
ãģ Ĳ
çĲĨ ä¼ļ
æŃ£ çº¿
ç¦ı çĶ°
é¡» è´º
çŃ¹ å»º
çļĦ é¦Ļæ¸¯
èĬ ¹
äºĭ é¡¹
è¯¥ å¹´
çº¦ æĿŁ
æĿĳ ä¸Ĭ
é¾Ļ å±±
ç¬¬äºĮ çĻ¾
å·¦ å²¸
3 20
b e
Ï Ģ
Ð Ĵ
çĽ İ
éĶ Ĥ
Ġ æľ´
é¢ į
è¦ģ åľ¨
çĤ ½
åı² ç§°
ä½įäºİ ç¾İåĽ½
å®Ĺ æĹ¨
é»ĳ æ£®
åĸĦ èī¯
ä¹¾éļĨ å¸Ŀ
åĩ¸ åĩº
çļ ĸ
åĨĽ ç±į
å¾· éĽ·
åį« å°ĨåĨĽ
çĻ¾ ç§ĳ
è¯± å¯¼
f er
çļĦ çĶŁäº§
ç» ¶
ä¸º ä¸ī
æĸ° ä»»
ä¹Ł å¾Ī
åľº æ¯ĶèµĽä¸Ń
ä½įäºİ åı°æ¹¾
èĲ½ åľ¨
æĺ¥ æĹ¥
ç¯ ·
ç«ŀäºī å¯¹æīĭ
å· »
æĢ» åĢ¼
ç¿ Ĭ
14 5
åģĩ è¯´
èµŀ èµı
èļ ķ
é³Ħ é±¼
å¼ĹéĽ· å¾·éĩĮåħĭ
F M
çļĦ çĶµ
å¤§ æĢĴ
æķ Ľ
èĭ ŀ
æĹł æĦı
æĺ¯ä¸Ģ é¢Ĺ
éľį åįİå¾·
æī© åħħ
åĽ½æ°ĳ å°ıåŃ¦
ip p
Ã º
çļĦ çĻ½
åįĹ å±±
ä¸ľ å±±
å±± å³°
é¥ ·
æİ¥ è¿ŀ
ç¦» èģĮ
åħļ ç»Ħ
è°ĭ åıį
å¥¥åı¤ æĸ¯çī¹
èĳ «
æĽ´ å¥½çļĦ
ä½³ æ°ı
å³ Ń
åīįèº« æĺ¯
ãģ£ ãģ¦
é²Ī å½¢çĽ®
ä»ªåĲĮ ä¸īåı¸
M ark
O n
ä¹ĭ æ¯į
æŃ¦ ä¾ł
åĽłä¸º å®ĥ
ç½Ĺæĸ¯ ç¦ı
é¡º å¤©
æĪ´ å°Ķ
Ġ195 4
æıŃ å¹ķ
å§¿ åĬ¿
æµ· å°Ķ
ç© ¹
çĻ º
æ¬§ ç¾İ
å¯Ĩ çļĦ
æĳ© æĵ¦
å¤ļæł· æĢ§
y p
Ñ ĩ
å¹´ çīĪ
æĹ¶ åħī
å¼Ģ åºľ
åĨħ å¿ĥ
å°Ĩ è¿ĳ
æŃ¤ ç§į
å¤ĸ ç±į
ç³» æķ°
åįİ æ²Ļ
åºĨ åħ¸
æĬĹ åİŁ
èģĶéĤ¦ æĶ¿åºľ
æ¡ĥ èĬ±
å¸ĥé²ģ åħĭæŀĹ
ä¸Ģçº§ èµĽ
åľ¨ ä»»
æĺ¯ çĶ±äºİ
åĽ½ äºº
æľī ä¸īä¸ª
å¤į åİŁ
çĲĥéĺŁ åľ¨
å½Ĵ åħ¥
åĭĩ æ°Ķ
G M
Ġ åĵĪ
å¤§ èĦĳ
ä½Ĩ æľª
åħ¨ åĨĽ
åħ± è®¾
åĲī å§Ĩ
ç¬¬äºĮ å¤§
åĵ¥ å°Ķ
çł´ è£Ĥ
çģµ æ´»
è´µ å¦ĥ
èĿ İ
åī§æĥħ çīĩ
æĬļ åħ»
ãĥĨ ãĤ£
æĬĽ å¼ĥ
ç«¯çĤ¹ ä½įäºİæľ¬åľ°åĮº
å¹´ æŃ£æľĪ
18 72
æ²Ļ éĹ¨
åĪ¶éĢł åİĤ
æµ·å²¸ çº¿
S uper
Ġ æĽ¹
æĸ° å¨ĺ
è¿Ļ å¹ħ
æĸĩ æĺĮ
éĿ¢ åħ·
å¤ª å¤ļ
éĩı ä¸º
æĪĳ æĺ¯
åĪĩ æĸŃ
å°½ç®¡ å¦ĤæŃ¤
Th omas
äº¤æ±ĩ å¤Ħ
B ill
åĪĨ æŃ§
ç¾ ²
ç§° å¸Ŀ
åħ³ å¿ĥ
å¤ª åĤħ
å¼Ĥ æ¯į
ë ı
çļĦ åĶ¯ä¸Ģ
åĳ Ĩ
ä¸į è¢«
å¹¶ ä»İ
è¿Ļ å¯¹
åĬł æ²¹
18 75
åħī æ»ĳ
åĿĩ åĮĢ
å¾ģ è®¨
å¹² é¢Ħ
æĪĲåĬŁ åľ°
å¢Ļ å£ģ
éļĲ å±ħ
èĽĭçĻ½ éħ¶
2 30
j ect
çļĦ æķĪæŀľ
ä¸Ģ åĵ©
ä¸º åįķ
åħī çº¿
al k
æ¨ª å±±
åį± å®³
æĶ¹åıĺ äºĨ
è°´ è´£
G B
è¥¿ æ¹ĸ
èĢĮ æĿ¥çļĦ
åįģ ä¸ĩ
çģ ¶
æŃ£ å½ĵ
åĳ¨ åħŃ
ä¸»è¦ģ åľ¨
æ±ī åı£
äº¦ äºİ
æ¥¼ é«ĺ
åĪ¶ä½ľ äººåĳĺ
è¡¥ åĬ©
éľį æĻ®
è·Ł è¸ª
æļĹ ä¸Ń
é¥® çĶ¨
Ð ľ
è§Ĩ è§Ĵ
åĺ ±
éĽħ åħĭ
æĬĹ ä½ĵ
ĠO n
åįĹåĮĹ åĲĳ
èĥĮé³į ç¡¬æ£ĺ
æīĢéľĢ çļĦ
éĸ ¢
Ġ åĨ¯
as on
ç»ıæµİ åŃ¦å®¶
å®ª å®Ĺ
åįģåŃĹ æŀ¶
æĸ© é¦ĸ
Go ogle
Ġ 100
Ġ æĳĦå½±
ä¸Ń åĩºçİ°
æľ¬ èĬĤçĽ®
å°± ä»¥
ç¾İåĽ½ éĻĨåĨĽ
å¡ŀ çī¹
ä»ĸçļĦ åĲįåŃĹ
ä½ı æīĢ
æ²ĥ çī¹
è¡Ĺéģĵ åĬŀäºĭå¤Ħ
H D
å¤ĸ ä¼ł
18 73
åĸ Ĥ
éĽĨåĽ¢ åħ¬åı¸
éĩįçĤ¹ å®ŀéªĮå®¤
ä¸§ çĶŁ
å¼ĢéĢļ è¿ĲèĲ¥
æĺ ±
åĩº ä¸º
çľ ·
ä¸ĸ ç¥ĸ
æľº ä½ĵ
æ¸¯ éĵģ
åĮħ è£¹
ä¸»è¦ģ çĶ¨äºİ
åģľ è¿Ĳ
æ²¹ çĶ»
ç»Ŀ å¤§å¤ļæķ°
æŁĲ ä¸Ģ
æįķ é£Ł
éĻ¶ åĻ¨
æĿ°åħĭ æ£®
åħ¨åı° åºŁåİ¿åİħæĶ¹è®¾äºĮåįģåİħ
ĠComp any
i ro
å¹´ æİ¨åĩº
åĪ¶ä½ľ åĽ¢éĺŁ
äºĨä¸Ģ ç³»åĪĹ
èģļ å±ħ
æ£Ĵ çĲĥåľº
å·« å¸Ī
æ¸¸åĩ» éĺŁ
æ³ķåħ°è¥¿å²Ľ å¤§åĮº
å¹´ çº§
èµ ģ
åĴĮ ä¸ī
å¤ļ è¾¾
æķĻ åıĭ
å½± éĽĨ
æµģ æ´¾
ç¦» éĺŁ
æģ© æĸ¯çī¹
éĩİ å¤ĸ
è®© ä»ĸä»¬
åĩł æ¬¡
å²© æµĨ
çļĦå¥³ åŃ©
éŃħ åĬĽ
Ġ èĩª
åĲ µ
åľ¨ åľ°
ä¸Ń åŀĭ
æĹ¥ åľĨ
è¡Į ç¨ĭ
åľº éĿ¢
åįİ çī¹
åĪĽ ä¼¤
æ²ĥ åħĭ
åľ°çĲĥ çļĦ
æĭ¦ æĪª
uct ion
å®¶ åĽŃ
å¥³ çļĩ
åħĥ éŁ³
åı¤ çĶŁçī©åŃ¦å®¶
å¼Ģå§ĭ äºİ
å¤± åĪ©
å¤± æľĽ
è´Ŀ æĸ¯
us h
é¡º å¾·
os p
è¿Ļä¸Ģ çĤ¹
æĬķèµĦ èĢħ
çº¸ å¸ģ
æĸ°åŁİ åĬ²çĪĨ
å¹´ ä¹ĭåĲİ
å¤© åı°
å¹³ ç«ł
æ¯Ķ èµ·
åĵĪ å¸ĥ
è§Ħ å¾ĭ
å°¾ éĥ¨
å½ĵåľ° äºº
ation s
è®¨ åİĮ
èĳ« èĬ¦
åľ¨ ä¼¦æķ¦
æĭī çľģ
ä½Ĩ æľĢåĲİ
åİĨ æĹ¶
æĹł çĹĩçĬ¶
å·´ åĪ©
é¦Ļæ¸¯ çļĦ
èīº åĲį
èĩ´ ä½¿
æ½® å·ŀ
Ġ195 6
éķ¿åº¦ ä¸º
åĨħèĴĻåı¤ èĩªæ²»åĮº
æĪĺ åĪĹ
åĲĪ è®¡
æı ½
ç¬¬ä¸Ģ å®¶
äº² å±ŀ
éĢŁ çİĩ
ãĥ³ ãĥĪ
å©Ĩ ç½Ĺ
æīĺå°Ķ éĩĳ
çļ ±
çļĦ å±ħæ°ĳ
ä¼ Ŀ
å¤§ æĺİ
æŃ ³
èĲ İ
å¸ĥ è¾¾
12 3
å¹¿ èĥľå¯º
èĮ ī
am a
au d
å®ģæ³¢ å¸Ĥ
è¯ł éĩĬ
i y
Ġ åıĮ
çļĦ æľĢåĲİ
çļĦ éģĹ
ä¸Ń åĮº
åįĹ ç¾İ
ç¾İ æµĵ
al t
å¡Ķ çī¹
åĽłæŃ¤ è¢«
ç¤¾ä¼ļ åŃ¦
çĽĽ è¡Į
åįļçī© éĻ¢
äº¤çķĮ å¤Ħ
è¶ģ æľº
E m
Ġ å£°
çĶ ¥
ç³» ä¸»ä»»
æĽ¾ å¤ļæ¬¡
æ´¾ åı°
ĠH ouse
çļĦæĹ¥ åŃĲ
M an
e um
Ġ ä¹Ķ
çļĦ éŁ³
ãĥ Ľ
çŃī åĲĮ
çĪ± çŁ¥åİ¿
åİĨåı² çļĦ
åī¯ éĻ¢éķ¿
å·¨ åŀĭ
é¢Ŀ å¤ĸçļĦ
åĽĽåįģ åĽĽå¹´
åłĨ ç§¯
R ichard
i et
Ġ le
èµĽ ç¨ĭ
åĮĸ èº«
åĲĳ ä»ĸ
ç¥¨ ä»·
èģļ åĲĪçī©
èį· é©¬
ä¸º çºªå¿µ
åĲİ ä»»
è¥¿ éŃı
éĺ³ éĥ¡
å®Ī åĨĽ
æ·· åıĮ
ä¼´ å¥ı
æ²³è°· çľģ
B en
çļĦ åıĳ
çļĦ å®ļä¹ī
åľ¨ åĲĮä¸Ģ
ä½į ç´ł
å¤© èĬ±
å¸ĥ æ´Ľ
å·´ å°ĶçļĦ
æĹ¥æľ¬ çĶµè§Ĩåı°
åķĨ åŃ¦éĻ¢
åī¯ æł¡éķ¿
åı³ å²¸
è±ª æĸ¯
æĸĩ åĩŃ
ç¾İ å°ĳå¥³
éĩĳ éĻµ
æļ ±
é»ĳ å¸®
ĠH all
å®£å¸ĥ å°Ĩ
Ġ198 0
çļĦ èĬĤçĽ®
çļĦ åıįåºĶ
ä¸į åºĶ
åĪĨ æīĵçĤ¹
çĶ¨ åľ¨
å¾· å®Ĺ
æīĭ æĮģ
ç§» èĩ³
è¡Ģ åİĭ
éļıåĲİ åľ¨
æĸ© æĿĢ
ð« ļ
ä¸Ģ æĪĺ
çĶŁ æŃ»
ä¸ĸ åŃĲ
æĹł æķĮ
12 1
äº§ åįµ
åħĪ çŁ¥
æĺĨ å£«
æŁĶ ä½Ľ
åįģå¤§ ä¸Ńæĸĩ
12 4
çŁ³ å·Ŀ
è¿½ æĿĢ
è¾ŀ åħ¸
æĭĵ æīĳ
çļĦ æĪĺæĸĹ
âĢĿ âĢľ
åı¸ éķ¿
éĺ¿ æĽ¼
èĲ¨ å§Ĩ
çĹħ æĤ£
ä¼ĺ çĤ¹
æĳĦ æ°ı
ä½Ĳ æ²»
èŀį èµĦ
éĦ ŀ
æĶ¾å¼ĥ äºĨ
éģµ å¾ª
åı¯ ä¹Ĳ
ç¡ ¼
èĻ½çĦ¶ åľ¨
æľĢé«ĺ èĭıç»´åŁĥ
æ¤įçī© åĽŃ
åĲ¸å¼ķ äºĨ
å¤§ ä¸º
æľĪ åĪ°
ä¸ľ éĿ¢
èµĽ é©¹
å±± åįĹ
éŁ¦ æģ©
é©¬åħĭ è¥¿
å¦ Ĵ
æľŁ å¾ħ
å¯Į è£ķ
è¾ĵ ç»Ļ
åĲĪä½ľ çļĦ
æĺŃ å®Ĺ
ä¸Ń åŃĲ
äºº ä¹ĭ
è¡Į éģĵ
æľ¬ åŃ£
å¤© ç¥ŀ
å¸ĥ ä»Ģ
ä»Ĭ å¤©çļĦ
å²ģ ä»¥ä¸Ĭ
åĩĨ åĪĻ
ri ed
èĮ¨ åł¡
æŃ¥åħµ åĽ¢
å¸ĸ æľ¨åĦ¿
Ġ å¥³åŃĲ
æľī å¤§
åĲİ ä¾¿
å±± æ°´
æľŁ ä¸º
éĻ¢ ç³»
èĲ½ åħ¥
è´Ŀ éĩĮ
åŁĥ æĸ¯
ç®Ģ åĮĸ
åŃĶæ³° å¤§åĮº
è®¾ æ³ķ
åı· ç§°
æł¼ çº³
äºĶ éĥİ
çīĩ çļĦ
åįĥ éĩĮ
åķĨä¸ļ éĵ¶è¡Į
æŃ¥åħµ ç¬¬
åīĬ å¼±
å±¥ è¡Į
J o
çļĦ çĲĨè®º
å¹´ åıĳè¡Į
çŁ ½
åŁº æĸ¯
12 7
æĺŁ åĽ¢
æ±ī æŃ¦å¸Ŀ
æĪĳ çĪ±
æĪ· å¤ĸ
èĹı å¹¿èĥľå¯º
ãģĭ ãĤī
æŃ§ è§Ĩ
å·© åĽº
æľĪä¸Ń æĹ¬
èĹıå¹¿èĥľå¯º æľ¬
Ã Ł
éĩ ī
åħ¶ æ¬¡
æ´» å¡ŀ
çİĽ èİī
åĬłæĭ¿ å¤§çļĦ
æĴŃåĩº æĹ¶éĹ´
çļĦæĦı ä¹ī
Ã ¢
Ġ å¤ª
Ġ å®«
ä¸Ĭ å°ī
åı² åħĭ
çĵ¦ å°Ķå¾·
å°¤ éĩĮ
âĸ ¡
L C
Ġ æ²Ļ
ä¸Ń å°ī
ä¹ĭ å£°
æķĻ ä¹ī
ä½Ĩ äºİ
æ¯Ķ çī¹
ç¨ ļ
èº« æĿĲ
é£İ çĲ´
ç¬¬ä¸ī å±Ĭ
çĥĪ å£«
ç¬¬åĽĽ æ¬¡
ç¬Ķ åĲį
åĪĽç«ĭ äºĨ
MV P
å· ħ
å±± å§Ĩ
åĲĪ ç§°
åİ¿ äººæ°ĳæ£Ģå¯ŁéĻ¢
å¥³ çĶŁ
ç»Ħ åĪ«
åĪĹ å¤«
èº« éķ¿
æ±ī ä¸Ń
ä¿® å£«
æĥ³ åĥı
ä¸Ńå¤® å§Ķåĳĺä¼ļ
ä¸¾åĬŀ äºĨ
åĢĴ å¡Į
å¸¦æĿ¥ äºĨ
Ġ å¾·åĽ½
çļĦ ç§°åı·
åĩº åĩ»
ä¸İ æĹ¥æľ¬
èĦ ĩ
åĲİæĿ¥ åıĪ
è¾ĸ ä¸ĭ
ä¸Ŀ ç»¸
æĦ¿ æľĽ
ä»įçĦ¶ æĺ¯
å®īå¾· æ£®
è¡° ç«Ń
æĹ¶ æīĢ
åĩº çº¿
åħ¶ ä¸»è¦ģ
æ³ķ æĭī
çŃī æµ·åŁŁ
èĭ± å®Ĺ
èĭ± çļĩ
éª ł
æĽ¾ èİ·
é¾Ļ éĹ¨
çĻ½ çŁ³
æĶ¾ åħ¥
å´ ģ
æłĩå¿Ĺ çĿĢ
è½¦ éĺŁ
å°Ĩ ä¹ĭ
åĽĽ éĿ¢
æīĭ çļĦ
æıĲ åĢ¡
at s
äººæ°ĳ åħļ
æ°¸ æģĴ
èİ« éĩĮæĸ¯
åĪĽä½ľ äºĨ
çĺ Ł
ä¹ į
ä¸į åŃĺåľ¨
è¥¿ è¾¹ä¸º
éĥ½ ä»¥
éŁ³ éĢŁ
åºĶ åĬĽ
çļĦä¸Ģ å¤Ħ
å»ºçŃĳ çļĦ
ä¼ĺ æĥł
äº¿ ç«ĭæĸ¹ç±³
ĠN ational
å°Ķæĸ¯ åħĭ
ec k
ou is
æĮĳæĪĺ èµĽ
èİīèİİ çĻ½
M B
è½¦ ç¥¸
ç¾İ éĩĳ
è¿Ľ é£Ł
å°¼ ç§ĳ
ç¬¬äºĮ ä½į
åįı åĲĮ
èİ± æ¯Ķ
å®£ å®Ĺ
åıĳå±ķ åĩº
å·ŀéĻħ åħ¬è·¯
Ë Ī
éĩĮ å£«
æĽ´ é«ĺçļĦ
åıĺ æĽ´ä¸º
è¯Ŀ é¢ĺ
èģĶèµĽ çļĦ
äºĮåįģ åħ«å¹´
å¤ªéĺ³ èĥ½
çļĦ è¯Ńè¨Ģ
éĻ Į
è¡Į åĨĽ
èĢĥ å®ĺ
åĽ½æ°ĳ æĶ¿åºľ
Ġ èĹ¤
çļĦ éĤ£
åĴĮ å£°
æĶ ¸
æ² ½
æ² Ĳ
ä¿® ç¼®
ç½ĳ æ°ĳ
ç´¢ å¼ķ
ç§Ł èµģ
ç¢³ éħ¸
å·´æ¯Ķ ä¼¦
å¹´ ä¹ĭåīį
æľī æľºä¼ļ
ä»¥ æĿ¥çļĦ
ä¹ĭ ä½į
å¸¸ å§Ķä¼ļ
å¥¥ å¾·
æ²Ļ çļĩ
éĨ ĭ
åľ°æĸ¹ æĶ¿åºľ
æķĻåĮº ä¸»æķĻ
æīģ å¹³
å±ıä¸ľ åİ¿
æĹ¶ å¹´
ä½Ĩ ä»ĸä»¬
18 77
18 74
æĥħ çļĦ
åĽ´ åŁİ
æŁ¯ åįĹ
186 6
bur g
b o
äºº å¯¹
èĬ ·
ä¹Ł ä¸º
åı¯ä»¥ æĺ¯
éĻĨ ä¸Ĭ
åħ· åºĨ
æĤ ļ
ur ch
æī§è¡Į å®ĺ
if ic
åħ¬ é¦Ĩ
åħ¨ å®¶
ä½įäºİ åĽĽå·Ŀçľģ
å·Ŀ å¸Ĥ
åħ¶ä»ĸ æ¼Ķåĳĺ
æĺ¾ å¾®
ä¼ģ é¹ħ
éĺ¿å§Ĩæĸ¯çī¹ ä¸¹
c on
å¹´ ä¹ĭéĹ´
æĹ¥ æĻļä¸Ĭ
å®¶ åħ·
æĭī èĲ¨
æĦ ģ
èĢħ åľ¨
æĶ¹ æĪĲ
åįİ ä¸½
ä¿¡ å¥ī
æĭĽ æłĩ
çªĹ æĪ·
ç¾½æ¯ĽçĲĥ éĶ¦æłĩèµĽ
r as
ä¸Ń æĹ¥
æĪĺ åĬŁ
å°Ĩ æŃ¤
çİĭ å®¶
éĻ¢ çļĦ
å¼Ĥ åĲį
åĪĩ åī²
å¿ł è¯ļ
åİŁæľ¬ æĺ¯
æŃ¥åħµ å¸Ī
ä¸Ńåħ± ä¸Ńå¤®
èı© æıĲ
åľ¨ æµ·
ä¸į åĥı
ä¸ľ åį°åº¦
äºļ å°Ķ
åĨħ è®¾
éĹ¨ å¸Ĥ
åĪĺ æ°ı
æ¢ħ æĸ¯
çĥŁ åı°
æĬ¢ åĬ«
ä¾Ħ åŃĲ
ech n
å¹´ åĽ½éĻħ
æľĢ åħĪ
å°ı éº¦
ç½Ĺ åħ°
éĺ¿ æĸ¹ç´¢
çĤ¹ çĲĥ
ç»Ĩ å°ı
åĨĽéĺŁ çļĦ
åłª èĲ¨æĸ¯å·ŀ
åħ·åºĨ ä¸ĭ
äºº è¢«
æ³ ¸
å¤© é¾Ļ
èµ· äºİ
ç»Ł å¸ħ
å®¢ äºº
il y
ä¸¤ä¸ª æľĪ
æĬĹ çĶŁç´ł
å«Į çĸĳ
å¹´ æ¯ķä¸ļ
æĿ ŀ
æĹ¥ åĽł
âĢĿ ï¼īãĢĤ
åİ» éĻ¤
ĠS er
åĨĻ ä¸º
åĲ´ åĽ½
åħ³ç³» çļĦ
èµı è¯Ĩ
çĶµåĬĽ åĬ¨è½¦ç»Ħ
å·§ åħĭåĬĽ
Î ·
å¾Ĺ å¤ļ
ç«ĭ èĬ±
æŁ ł
å®ĥ ä¸İ
æ¹¾ åĮº
ï¼į ï¼īï¼Į
åı¯èĥ½ åľ¨
ç¤¾ä¼ļ çļĦ
ä¸Ģä¸ĸ çļĦ
åľ°éĵģ ç«Ļ
æĹ¥ åĩºæĪĺ
åıĬ é¦Ļæ¸¯
ä¸ĸ éĶ¦èµĽ
äºĭ åıĳ
åĨħ ä¾§
åŁİ éĤ¦
åı² ä¹¦
ä¸ĵ å±ŀ
åħ« ä¸ĸ
çİ¯ çĬ¶
ĠB oy
æ±ł çĶ°
å¥¥åı¤ æĸ¯
åīĳæ¡¥ å¤§åŃ¦
å¤§åŃĹäº¦æĶ¹åĪ¶ä¸º æĿĳ
5 50
çļĦ å®ī
å¹´ åįİ
çī¹ æĢ¥
12 8
èİ· åĩĨ
çļĦä¸Ģ æĶ¯
çķĻ ä¸ĭçļĦ
èĶ Ĺ
ãĢī ï¼Ī
æ¹ĸåįĹ åį«è§Ĩ
æĬ½ çŃ¾
ä¸Ľ æŀĹ
Ġ èµ¤
æĺ¯ å½ĵåľ°
æľĪ ä¸ĭæĹ¬
æĹ¥ æĻļ
åĲİ ä¼ļ
èİ Ĵ
å¼Ģ å¾Ģ
çİĭ èĢħ
åİ¿ æ²»
å¢ĵ åĽŃ
å¿ħé¡» åľ¨
æĹģ çĻ½
åĳ¨åĽ´ çļĦ
å±±åı£ ç»Ħ
æł¼æĭīæĸ¯ åĵ¥
çĵ¦åħ¹ çľģ
b l
æĬ Ĵ
è¥¿ å²¸
å°ı çĨĬ
è¯¥ å²Ľ
ä¸ŃåĽ½ éĵģè·¯
æ¦ Ī
å®ĮæĪĲ çļĦ
å¤ªéĺ³ çļĦ
çļĦçī¹ çĤ¹
åį¡ç½Ĺ æĿ¥
çļĦ å¼Ģåıĳ
ä¸Ń äºļ
å¤§ æµ·
è·¯ éĿ¢
çİ° åĿĢ
åı° è§Ĩ
åİŁ æĸĩ
é¦ĸ åľº
ä¿® è¡Į
ä¾Ľ ç»Ļ
åı¯èĥ½ æľī
æĸ°å¢ŀ ç¡®è¯Ĭ
æĸĭ èĹ¤
ä¼ļ ä¼ļéķ¿
åĮĹ çº¬
å±± èĦļ
å·´ å·´
è¯º å¨ģ
æĽ¼ åŁİ
é¡¿ çļĦ
è¯Ŀ åī§
åģĩ æľŁ
ĠK ong
é£ŀè¡Į åĻ¨
åĿĲ åľ¨
èº² éģ¿
å¥¹ äºİ
æĦŁ åĬ¨
çĶŁéķ¿ åľ¨
èĥİ åĦ¿
å±ķç¤º äºĨ
éĵŃ æĸĩ
ãĥķ ãĤ¡
Ġ ãĢľ
çļĦ åĨ³å®ļ
å®¶ å±ŀ
ä¸ĭ å±Ĥ
å² Ĥ
ç¦ı åħĭæĸ¯
æĿ° å¿Ĺ
æķĮ å¯¹
éĥĳ åĽ½
åª ļ
M O
S e
ä¹ĭ åŁİ
åı² åīį
æ¸ħ æ²³
åİĤ åķĨ
æ¯Ľ éĩĮ
åĬ³ æĸ¯
èĨ Ľ
éĻ· éĺ±
å¥ĳ çº¦
æĨ ¾
J ack
ç¥ º
åħ¨ èĥ½
æĢ» å»ºçŃĳéĿ¢ç§¯
æµģ çļĦ
æ¸ħ éĻ¤
çĿĢ éĻĨ
çĲĥéĺŁ ä»¥
äºĮåįģ äºĶ
å·® çĤ¹
å¯¼èĩ´ çļĦ
ä¾¯ çĪµ
åĲ¬ ä»İ
åŃ¦èĢħ è®¤ä¸º
èĥ¸ éĥ¨
ä¸Ń åħ´
åĴĮ æĸĩåĮĸ
æł¼ èİ±
åį¡ çļĦ
å¯¼ èĪª
å®ĺ åĲı
çļĦä¸Ģ åĪĩ
éĻ¤ åİ»
å¢ŀ æı´
ĠK ing
å¹¿æĴŃ çĶµè§Ĩåı°
ãĤ· ãĥ£
å¸ĥèİ± åħĭ
Ġ çĶ±äºİ
æĺ Ļ
å¾· æ¸©
ãĥ Ĵ
æ¸¯ åı°
åĽŀ åİ»
å°ĳ æŀĹ
æĬ¥ åĲį
å·¡ æ¼Ķ
éĻµ åİ¿
è¿Ī åħĭ
ä¸Ģ æľ¬
ä¸Ń è¥¿
å¥ ļ
äºļ æĭī
èĢħ ä¹ĭä¸Ģ
è¯´ åĩº
å¤į æĹ¦
çĵ¦ æĸ¯
åħļ å§Ķä¹¦è®°
é»ĳ çĻ½
el s
äºĮåįģ ä¸ĥå¹´
æ¿ ®
å¯¹å¤ĸ å¼ĢæĶ¾
ä¸Ń ä½į
åĵ Ĩ
ç§į åĬł
å·Ŀ å´İ
æĶ» åŁİ
æīĺ æĸ¯
çļĦäºº ä»¬
æµ® éĽķ
å¿½ çķ¥
éĶ¯ é½¿
Ġ æŃ¤åī§
çļĦ åħ¬åı¸
åĴĮ ä¸ľ
å®ī åºĨ
è§£ éĽĩ
ç¬¬äºĮ éĥ¨
å¡ŀ æµ¦
ä¾§ æīģ
èīºæľ¯ åĵģ
åĩ¯ èİī
çĸı æķ£
å¸ĪèĮĥ åŃ¦æł¡
æ²Ļçī¹ éĺ¿æĭīä¼¯
u th
çļĦ çī©ç§į
å¤§ æĪĲ
ä¼ļ éĿ¢
æ¼Ķ ä¹ł
æĹł éľĢ
æĻ® æĸ¯
è½¦ç«Ļ æŀĦéĢł
ä¾§ çº¿
ãĥ¼ãĥ ī
æ£ķ æ¦Ī
æĭ¼ éŁ³
æ©Ļ èī²
row n
a o
æĺ¯ æĦıå¤§åĪ©
æľĪ éĹ´
æĪĲ ä¹¦
èĭ ĩ
æŀĦ æĥ³
åįĥ å²ģ
çº¯ ç²¹
éĿ©åĳ½ åĨĽ
å¹´ ä»¥åīį
æĺ¯ éŁ©åĽ½
èµĽ åĪ¶
éĥ½ å¾Ī
æ²³ ä¸Ń
ç¼ĸ ä¸º
å¡Ķ åĪ©
è¡Ĺ çļĦ
å¾ħ éģĩ
ä¼ª è£ħ
é¥± åĴĮ
çļĦ è§Ħå®ļ
æĺ¯ çĽ®åīį
åĮĹ å²¸
éĵ ²
åºĦ æĶ¹åĪ¶ä¸º
ro ss
ing ton
åħħ å½ĵ
A g
Ġ åĨĪ
æľī æ¯Ĵ
æµ ĩ
çŃ ł
é¦ ı
åĶ± æŃĮ
è¡Ģ æ¸ħ
ç»ıæµİ åıĳå±ķ
ä¹Ļ çĥ¯
åħĪåĲİ åľ¨
éī´ äºİ
å¾ĹåĲį äºİ
ãģ£ ãģŁ
åĬłåĭĴæ¯Ķ æµ·
éĴ¥ åĮĻ
v ent
çļĦ äºĭä»¶
å¤§ è°ĥ
åĪĨ éĥ¨
æĸ° åı°å¸ģ
æŀĹ åĮº
15 5
æ¥ ½
å°Ħ ç¨ĭ
çº½çº¦ æĹ¶æĬ¥
å¦Ī ç¥ĸ
fl ix
ç¥ŀå¥Ī å·Ŀåİ¿
å¤§ æ®¿
äºº éĺŁ
ä¸Ĭ è¡Į
é©¬ èĲ¨è¯¸å¡ŀ
åħ¨ æ°ĳ
ç±³ èĩ³
å¥ĸ å¾Ĺä¸»
è¿Ļä¸ª è¯į
åĪº å®¢
è·³ æ°´
èģĶç»ľ çº¿
! ï¼Ī
Ġ åĽ½
Ġ æĺŁ
çļĦ ä¹¦
åľ¨ è¿Ļä¸Ģ
ä¸Ģ çıŃ
ä¸İ ä»ĸçļĦ
ä¸ľ åĲ´
çĶµ æºĲ
æ°´ åİ¿
å¼ł åŃ¦
äºī æī§
åĶĲ çº³
äºĨä¸Ģ æ¬¡
éĺ¶ å±Ĥ
æ¿Ģ åıĳ
çİ©å®¶ åı¯ä»¥
ãĢī ï¼Į
ä¸ľéĥ¨ çļĦ
æįĲ æ¬¾
UN D
D an
åĽ½ å®ī
åĩº äº§
å¤© ç«º
æĹł åıĮ
åı¤ åŁĥåıĬ
ç©º éĻį
çľŁ ç©º
çħ ŀ
ä½Ĳ æľ¨
ç§ĳåŃ¦ çłĶç©¶
ä¸ºè¾Ĳé³įé±¼çº² é²Īå½¢çĽ®
ä¸Ń æŃ¢
åĴĮ åĽ½éĻħ
æĸĩ æŃ¦
çĥ Ľ
è¾¹ éĺ²
æ¡¥ ç«Ļ
æł· å¼ı
æİ¨ ä¸¾
æ¡Ī çļĦ
å¨ģå°Ķ éĢĬ
èµ«å°Ķ è¾Ľ
æ¸Ĺ éĢı
çļĦ é¢ľèī²
è¥¿ åŁŁ
æĮ Ł
å£« å®ĺ
å½ķ åĥı
çļĩ çĶ«
æİ¨ æĸŃ
å®« çļĦ
åı³ åıĤæĶ¿
ç¬¬åĽĽ åĲį
è¶ħçº§ èĭ±éĽĦ
äº¤çķĮ åľ°å¸¦
æĸ¹æµİ åĲĦ
B B
u an
åĲİ ä¸İ
åŃĲ å¼Ł
é¾Ļ æ½Ń
çı ª
éķĩ æ±Ł
èĴĤ å°Ķ
è¿ģ å±ħ
èĬľ æ¹ĸ
çİ»åĪ© ç»´äºļ
r ac
ä¸ĸ ä¿Ĺ
ä¹Ł ä»¥
æĹ¥æľ¬ äºº
çĶ» å»Ĭ
èīºæľ¯ åįļçī©é¦Ĩ
ul ar
ay s
ç¥Ń åı¸
èĩªåĬ¨ åĮĸ
å¾Īå¿« å°±
ĠAss oci
ä¸Ģ åį·
å®¶ çĿ£
åįĹ æĺİ
çľ ¶
æ³ķ å±ŀ
å±± å´İ
æ¸ħ æľ«
çĶµå½± å¯¼æ¼Ķ
çĻ¾ å¼º
et y
è´µ éĺ³
ä½Ĳ åĬ©
éĻµ å¢ĵ
åĨłçĬ¶çĹħæ¯ĴçĹħ çĸ«æĥħ
åĵ¥å°Ķ æĳ©
Ġ ç«¹
ä¸Ń ä½¿çĶ¨
ä»ĸ å°±
ç¾İ å¥³
åĨħ çĩĥ
çĪ± ä¸Ĭ
æ°¸ åº·
è¡ĮæĶ¿ åĮºåŁŁ
å¹´èĩ³ ä»Ĭ
èļ Į
æĬ½ è±¡
E E
u a
çļĦ æľĢåĲİä¸Ģ
å½ĵ ä»Ĭ
é¥ ª
è½¬ å½ķ
é¦Ĩ éķ¿
å¹² äºĭ
æł¸ éħ¸
æ·· éŁ³
äº® åº¦
æİ§èĤ¡ æľīéĻĲåħ¬åı¸
é¸¦ çīĩ
æĸ¯èĴĤ èĬ¬
S O
Ð Ł
Ġ çĶ·åŃĲ
åľ¨ åħ¶ä»ĸ
ä¸į æ¸ħæ¥ļ
åĬł è£ħ
æĶ¹ éļ¶å±ŀäºİ
åĲĦ å¼ı
å¨ģ å£«
æ¡¥ æľ¬
ä½Ľ å±±
ç¥¨ éĢī
å½¹ æīĢ
åĶ® åįĸ
ä¸ĢèĪ¬ è®¤ä¸º
æĭĽ å¾ħ
åĬ¨åĬĽ åŃ¦
S C
Ġ x
ä»ĸ æīĢ
ãĥ ļ
ãģ ¸
æĢ» ç½²
éĴ µ
é¦Ļ å±±
es is
çİ¯ è·¯
æĽ¼ å½»æĸ¯çī¹
å¾ģ æĶ¶
è¿½ æįķ
åį· åħ¥
ä¸ĳ éĹ»
çŁŃæľŁå¤§åŃ¦ éĥ¨
J ean
N o
ì ł
çļĦ ä¸ªäºº
æľī åĽĽ
æ´ Ļ
è¥¿ çĶ²
18 65
å¤« çī¹
èĦ ¾
æ¸ħ åĪĿ
å½ķ åıĸ
çĹħ åİŁ
èĭ±åĽ½ ä¼¦æķ¦
åĺī å®ļ
æŀģ åº¦
åĲĮæł· çļĦ
ãĥĨ ãĥ¬
rid ge
S ir
T eam
å¹¶ è®¾æľī
çī¹ æĽ¼
ç§ĳ å¤ļå°Ķ
é¢Ĩ åħµ
åĳ¨ äºĶ
æĶ¶ åħ»
æ´Ľ æŀĹ
æİĴ åºı
åºĵ åħĭ
æ¢ħ èĬ±
å·¡ è§Ĩ
æĮĩæĮ¥ éĥ¨
ç¥ŀè¯Ŀ ä¸Ń
æ±ķ å¤´
æĳ©æīĺ è½¦
Ġ å®Ŀ
çļĦ æĶ»åĩ»
åĴĮ åĽ½å®¶
éķ¿ å¯¿
å¤ĸ æĿ¥
æĺİ çĻ½
æīĭ èĩĤ
åºĶ æĢ¥
ä¼¯ åħĭ
æĹ© æĻ¨
æ½ į
26 0
åİĭ åĻ¨
é¢Ŀ å®ļ
çĽ®æłĩ æĺ¯
å½¢æĢģ çī¹å¾ģ
æĮīå¯Łåı¸ åī¯ä½¿
éĻ Ľ
è¥¿ éĿ¢
çĶµ è®¯
éĩĳ åŃĹ
è¾¾ çļĦ
ar g
15 2
å¤į çº¿
æŃ£å¼ı æĪĲç«ĭ
çĽĽ åħ¸
èİ±æ¯Ķ éĶ¡
ë °
çļĦ ç§ĺå¯Ĩ
åľ¨ å°ı
éķ į
è¥¿ è¾¹
çĲĨ æĢ§
æĿĢ éĿĴ
è¿ª å¥¥
éĻį ä¸º
ra in
ra ph
éĩĬ è¿¦
å°º åº¦
å§Ĭ å§Ĭ
çĥ¹ é¥ª
å·´å°ĶçļĦ æĳ©
v a
åĪ° åºķ
æ°ĳ çĶŁ
å¤ª å¸Ī
è¿ĺ æľīä¸Ģ
æ³¢ å¸Į
æłĩ è¯Ĩ
æŀģ å¤§çļĦ
ä½İ æ°Ķåİĭ
è´§ è½¦
ãĤ¤ ãĥĪ
é¢ĦéĢī èµĽ
ç»ĥé©¬ å¸Ī
åĪĨ éļĶ
æĭī éĩĮ
å½Ĵ äºİ
å¾® è½¯
æ¢¦ å¹»
æľīçº¿ çĶµè§Ĩ
åºł çĶŁ
è¡¨ éĿ¢çļĦ
çĽ® çĿ¹
ĠC ount
it s
å¯Ĩ çī¹
åī¯ æĢ»ç»Ł
å¾Ĵ åĪĳ
çĽĲ æ°´
å¤ªå¹³æ´ĭ åĮº
å¸ĪèĮĥ åŃ¦éĻ¢
ĠEn ter
è°¢å°Ķ çĽĸ
æ®ĭçĸ¾ äºº
è§ħ é£Ł
ä¸ī å³¡
å·¥ äºĭ
æĪĸ è®¸
å¤§åŃ¦ åĴĮ
æºĲ å¤´
éŁ³ä¹Ĳ åİħ
ĠR ec
éĢĤ çĶ¨
è£ģ å®ļ
æ°§åĮĸ çī©
çŃ¾ç½² äºĨ
æĸ¯å¾· åĵ¥å°Ķæĳ©
åĬł æ³°
å±± éķĩ
ç»ĵ ä¸º
åī¯ æķĻæİĪ
èŃ¦ å¤ĩ
èŁ Ĵ
å·´å¸ĥ äºļ
å¤§ åłĤ
åŃ¦ åİĨ
åĪ° åıĳ
è¢« çĶ¨äºİ
åĬł å¿«
å°ı åŃĲ
ç§į åĲį
å¦Ĥ æĿ¥
çĥ ĺ
å¼Ģå§ĭ æĹ¶
é»Ħ æĺı
èĲ½ çļĦ
åĪ¤ å®ĺ
æ²ĥ å°Ķçī¹
Ġ æ£®
ä¸ī åº§
å·ŀ çŁ¥å·ŀ
å¸¸ ä½ı
ç¥ŀ åŃ¦éĻ¢
æĬ¤ èĪª
åĳĬ ç»Ī
Ðµ ÑĤ
éĽ¶ ä»¶
äºļå½ĵ æĸ¯
Net flix
2 10
å¹´ åĨ¬åŃ£
ä¸ī åįģäºĮå¹´
å¡Ķ æ¥¼
æĬ¥ ä»ĩ
æĬķ åĩº
èįī æľ¬
æī¾ åĩº
ang e
æľīæĹ¶ åĢĻ
è¤ ļ
å¯¹åºĶ çļĦ
è´Ńçī© ä¸Ńå¿ĥ
æľī è¿ĩ
ä¹ĭ ä¹ħ
ä¸¤ éĥ¨åĪĨ
å¹¿ å¤§
ä¼ł éĹ»
åº§ æ¤ħ
çī¹åĪ« æĺ¯åľ¨
èĻĲ å¾ħ
å¹´ çĶŁäºİ
æĹ¥ åħĥ
ä¸į è¶ħè¿ĩ
ä¸¤ éĥ¨
åı£ èħĶ
åķĨ èĪ¹
é»Ħ èľĤ
äº¦ æĽ¾
ch er
æĻĭ èº«
çĶŁæ´» äºİ
é¸Ł åıĸ
åİĦ çĵľ
äº¬éĥ½ åºľ
åħ¨æĹ¥ åĪ¶
ä¸ī åĪĨ
å¤ļ ç½Ĺ
æĸ° æĬĢæľ¯
è¿Ļ æĶ¯
åĪ© æ¬§
å¹³æĸ¹ åĳİ
æ¿Ģ è¿Ľ
æª ¬
åĪĹå®ģ æł¼åĭĴ
3 80
S N
Ġ éĩİ
éģĵ å°Ķ
äºļ è¿Ĳä¼ļ
åį« åĽ½
åįĥ å¹´
ç®Ĺ æĺ¯
çĹĩ åĢĻ
èļ Ĭ
è² Ĥ
åĽļ çĬ¯
çĶµè§Ĩå¹¿æĴŃ æľīéĻĲåħ¬åı¸
ç§įåĬł è¯į
% ãĢģ
S m
é §
Ġ å²©
æĹ¥ éĢļè½¦
è¿ĩ æ»¤
ä»İ æĿ¥
on es
å¨ģ çī¹
æľĢä½³ çĲĥåĳĺ
æĭ¥ ç«ĭ
æĿĲ è´¨
å¸ĮæľĽ èĥ½
æĤł ä¹ħ
çĲµ çĲ¶
Ġ æľĢ
çļĦ è¡¨
åįĹ è¾¹ä¸º
å¾· æĸĩ
ä¹Ł ä¸İ
ä½¿ ä¹ĭ
åħī èį£
åıĪ ä»¥
å¿Ĺ æĺİ
ion al
ter s
è¾ħ å¯¼
è¿Ļæĺ¯ åĽłä¸º
æĲľ æŁ¥
æĲŀ ç¬ĳ
Ġ æŃĮ
ä¸ª äººçļĦ
åıĸ åĲį
ç¡® åĪĩ
çİ°ä»£ çļĦ
æ¸¡ è¿ĩ
æĺŁæľŁ åħŃ
æ£ī èĬ±
èĩĢé³į ç¡¬æ£ĺ
Ġ åħŃ
ä¸Ń æĭħä»»
è¥¿ çļĦ
é¢ Ĭ
åħĭ çī¹
å¯¹ å¾ħ
å»º çļĦ
å·¥ åŃ¦éĻ¢
è¯¥ èĬĤçĽ®
æŃ¦ å®Ĺ
é£İ éĢŁ
åįĩ é«ĺ
æ¹¿ æ¶¦
ä½¥ éĥ½å¾¡åı²
çµ ®
a is
çļĦ åĬ¨çī©
å¯¹ çħ§
ç«Ļ èĪį
åŁİ åįĹ
ç½ª è¡Į
éĵľ éĶ£
ap an
èĮħ æĸ¯
æīĵçł´ äºĨ
å½ķéŁ³å®¤ ä¸ĵè¾ĳ
æĽĿ åħī
çĪ¬è¡Į åĬ¨çī©
æĹ¥åĨħ çĵ¦
è©¹å§Ĩ å£«
A I
Ġ å½ĵ
åľ¨ åħ¨åĽ½
ä¸İ çİĭ
å¼Ģ éĻ¤
èİ· éĢī
éľ² å¤©
å¥ī å¤©
åī© ä¸ĭçļĦ
M e
ä¸Ģ æĸ¹éĿ¢
éķ¿ å¥³
åħ¨ æĸ°çļĦ
åı³ å¸ĥæĶ¿ä½¿
ç²¾ éĢļ
art in
ç¨İ åĬ¡
ä¸īåĽ½ å¿Ĺ
å¸ĥæĶ¿ åı¸
èĥĮé³į è½¯æĿ¡
æĸ°äºº å¥ĸ
åĥµ å°¸
åįģå¤§ä¸Ńæĸĩ éĩĳæĽ²
çļĦ çĽ¸åħ³
å¤§ ç¢Ł
åįĹ å²¸
ä¸ĭ éĥ¨
çĻ¾ æĪ·
çīĮ çħ§
ĠI t
ç§ĭ çĶ°
éĨ ļ
Ġc om
æĶ¿åįı å§Ķåĳĺ
åŃµ åĮĸ
çļĦ çļĦ
å¹´ ä»¥åĲİ
å¯ °
åįĹ å¼Ģ
å¤ļ éĥ¨
åĽĽ æ¬¡
å¸¦ èµ°
çĤ® å¼¹
Ġ å¹¿
çļĦ åĽ½
çļĦ èº«ä½ĵ
ä½ ¬
äºº æł¼
æī Ķ
åĴĮ é»ĳ
çĲĥ èıĮ
å°ı é¾Ļ
ä½Ĩ è¯¥
çĤ ¬
è§Ĩ æĺŁçŃī
ç»ĵ ä¸ļ
çļĦä¸Ģ æ®µ
çĶ· åıĮ
èī¾ ç±³
éģį å¸ĥ
ç½¹ æĤ£
åľ¨ ç¬¬ä¸Ģ
ä¸Ń èį¯
ä¼ļ äº§çĶŁ
å¹¶ éĢļè¿ĩ
å¼Ģ æľĹ
äºĮ åŀĴ
åŃĹ æł·
åĪĺ éĤ¦
å¤ı æ´Ľçī¹
è¶³çĲĥ ä¼ļ
æµĭ å®ļ
ĠG irl
æĺ¾ç¤º åĩº
X å°Ħçº¿
åľ¨ è¿Ļç§į
ä»¥ èĩ³
ä¼ļ åĩºçİ°
ä»£ ä¹ĭ
éĺ¿ çī¹
é¦ĸ æĶ¯
å¼Ĺ æ´Ľ
æ¿ ł
ä¸° çĶ°
éº» éĨī
ä¹° åįĸ
ä¸Ńæĸĩ å¤§åŃ¦
å¤§çº¦ æľī
èĩĢé³į è½¯æĿ¡
åĿŁ å¢ĵ
Ġ 30
å¤§ ä¸ļ
å¤ļ å¤Ħ
é©¬ æł¼
åħ± ä¸Ńå¤®
å°± è¦ģ
æĹ¥æľ¬ æµ·åĨĽ
é»Ħ åŁĶ
ä½ı äºĨ
çīĻ ä¹°
ãĥ¼ ãĤ¸
ä¿Ħç½Ĺæĸ¯ å¸ĿåĽ½
N ational
åľ¨ å·´é»İ
æĪĲ ä»½
ä¹ĭ ä½ľ
åĪĨ å±Ģ
çĶ± é¦Ļæ¸¯
ä½Ĩ æľī
èĪª ç«Ļ
é²ģ éģĵå¤«
çĶ² çĥ·
è´¥ äºİ
ç®¡çĲĨ åŃ¦éĻ¢
ãĢĭï¼Į ãĢĬ
ç«ŀæĬĢ åľº
ç ¶
Ġ èĢģ
çļĦ C
åıĳ æĶ¾
åĲĮ ä¼´
æ³ķ èĢģ
æİ¥ åĬĽ
çĽ´ ç«ĭ
ĠM y
ç«ł èĬĤ
æľįåĬ¡ ä¸Ńå¿ĥ
æķ¦ çħĮ
å¤§å¸Ī èµĽ
æŃ£ç¡® çļĦ
OV A
æ¸´ æľĽ
åľ¨ åľ£
æĺ¯ ä¸ĸçķĮ
å¼Ģ æŀª
çº¦ ä¼ļ
æĹł éļľç¢į
äº¤ äºĴ
ä¸ĩ æ¸¯åħĥ
æĬķ éĿł
è®¾è®¡ äºĨ
ãĥ³ ãĤ¿
ay a
æ°ĳä¸» åħ±åĴĮåĽ½
æıĴ çĶ»
åħĭéĩĮæĸ¯ æīĺ
U R
i h
Ġ é£İ
å¹´ å°ĳ
åľ° æłĩ
ä¸į èĤ¯
åıĹ åĳ½
åįķ äºİ
æĿ¾ å±±
ä»ħ ä¸º
ĠL td
ĠV al
è´© åĶ®
åĵĪå¸ĥ æĸ¯åł¡
ï¼ī âĢĿ
å¤§ å²Ľ
æĹ¥ æľŁéĹ´
èĢĮ æĹłæ³ķ
éĺ¿ ä»Ģ
å°ĳ æ£ĴéĺŁ
ç¦» ä¸ĸ
ç®Ģ ç§°ä¸º
èŀ Ī
åį°åº¦ çļĦ
ill a
èĥ° å²Ľ
åı°æ¹¾æ¸ħæ²»æľ«æľŁèĩ³ æĹ¥æ²»åĪĿæľŁ
å¹´ å¤§éĢī
å¤§ äºº
æł ī
åħ¬ æĬķ
åıĳ åĩºçļĦ
åįĹ æ´ĭ
åıĺ å¼Ĥ
åľ°çĲĥ ä¸Ĭ
çļĦåĲİ è£Ķ
M ic
çļĦ çĶµè§Ĩåī§
å¤§ å®ī
éĻĪ æ°ı
éĺ¿å°Ķ ä¼¯çī¹
èĭĹæłĹ åİ¿
Ġ æĪĲ
è· Ĺ
èĢĮ ä¸İ
æ°´ å¸Ī
åıĺ ä½ĵ
å®£ å¸Ŀ
ç¤¼ éĥ¨å°ļä¹¦
éĤ¦ èģĶ
è¡ĮæĶ¿ æĿĳ
éĻµ åħ°
ĠCl ub
ä¼ĬåĪ© è¯ºä¼Ĭ
P V
Ġ åĽ½éģĵ
çļĦ é£Łçī©
ç§ĳ ç´¢
ä½įäºİ åĮĹäº¬å¸Ĥ
ä¸´ æµ·
æ£®æŀĹ åħ¬åĽŃ
åŃ¤ ç«ĭ
å§Ķä»» ä¸º
M ag
c l
Ä «
åĮĹ æ´ĭ
äº¬ åī§
å¤´ çĹĽ
äºī éľ¸
å¤ı å°Ķ
å°ģ é¡¶
çļĦåľ° éĵģ
èĸ ¨
å¥ī è¡Į
Ph il
å¸¸åĬ¡ å§Ķåĳĺä¼ļ
éĴĵ é±¼
m en
Ġ å¤ĸ
æĺ¯ ä»ĸçļĦ
äºİ æĺ¯åľ¨
è¢« åĳ½åĲįä¸º
å¼Ģ æĭį
äº¤ æĽ¿
åķ ¶
åıį æĶ»
å¸ķ æĸ¯
ad y
åıªæľī ä¸Ģä¸ª
ä»Ļ å¥³
æĢ¥ è¡Į
Ġp ro
ç«Ł çĦ¶
æĺ ķ
ä¸Ģ ä¸Ģ
æ² ¥
åĩº ãģĹ
ä¸ª å¸Ĥéķĩ
ç½Ĺ ç´ł
ä½Ĩ å®ŀéĻħä¸Ĭ
åľ¨æŃ¤ ä¹ĭåīį
Ġ198 2
åĲĪå¹¶ä¸º æĸ°
åı²åħĭ å¨ģå°Ķ
çĶ ¬
éģ ģ
éĽ ī
ãĢį ãĢĮ
æ°´ ä½į
æ°´ æµģ
er r
ä¸ĩ çŁ³
ĠS w
åı°æ¹¾ çļĦ
æľºæŀĦ çļĦ
ç©¿ çĿĢ
æīİ å°Ķ
è¶ħçº§ æĿ¯
äºĮä¸ĸ çļĦ
äºĮæĪĺ æľŁéĹ´
ä¸Ģ å®ļçļĦ
ä¸į å¥½
èĬ ¥
éĿ¢ éĺĶ
çĽĳ çĶŁ
å®ĭ åĨĽ
å¿ħ çĦ¶
åį°åº¦ æķĻ
åĽ½çİĭ çļĦ
åħħ è¶³
åŃĶ éĽĢ
æıĴ åĽ¾
è¡Į ä½¿
çī¹ è®¸
æķĻ çļĩ
æıĲ äºļ
æĶ¯ éĺŁ
åĲī ç±³
è§Ĥ çļĦ
èİ« æĸ¯
ç»ıå¸¸ è¢«
å»ºæĪĲ éĢļè½¦
å¼ķåıĳ äºĨ
åį ī
æľĪ çĶ±
æĸ° åĨł
çŃī å¤Ħ
åĽĽ åŃ£
å½±åĵį çļĦ
åħ» èĢģ
åĲ¯ ç¤º
æķ£ å¸ĥ
åĪĽç«ĭ äºİ
æ¸¸æ³³ æ±ł
æĹıèĩªæ²» å·ŀ
è¯ ¡
æł Ī
æĹł æīĢ
åºĶ ä»ĺ
åħµ è´¥
ä¸¾ éĩį
åı¯ä»¥ å°Ĩ
è¿ĲåĬ¨ å®¶
èī¾ èİī
ĠG l
éĢļå¸¸ ä¸º
åĪĳ èŃ¦
è´¹å°Ķ åįĹ
v ille
ä¸ľ éĿŀ
ãĥ ´
èĩª åį«éĺŁ
åħ¨ éķ¿çº¦
ä¸ĩ åĲį
äº¬ åħĨ
å¥¹ è¢«
ç¼ĸ å¹´
é¦Ĩ èĹı
æķ´ ä¿®
è½® æµģ
æĴ¤ åĩº
ä¸Ĭå¸Ĥ åħ¬åı¸
åĳĬç¤º çīĮ
. ,
Ġ âĢĶâĢĶ
æľī ä¸¤ç§į
æł¼ éĻµåħ°
å½± éĻ¢
èİ· é¢ģ
ä¹Ŀ æ±Ł
å¹¿æĴŃ åī§
çļĦé¦ĸ ä¸ª
ç¨ĭåº¦ çļĦ
ï¼ħ ãĢĤ
çļĦ éĹ¨
å±± ä¸Ń
åįģ ä¸ª
é©¬ ä¿®
æĿĳ å§Ķä¼ļ
åıĹ éĤĢ
åı¯ä»¥ ä»İ
åľ£ åłĤ
èĽ ¾
æı´ åĨĽ
ç´« å¤ĸ
ç¿Į æĹ¥
æĬĳåĪ¶ åīĤ
T T
Ġ ä¸ª
èİ Ĩ
ä¹Ł å°±
æı Ĩ
æł¼ ä¼¦
çŁ³ éĹ¨
åıĮ åŃĲ
æĿ¾ å¹³
Ġs p
æĲľ å¯»
ç¼©åĨĻ ä¸º
äººå¤§ å¸¸å§Ķä¼ļ
åĨ¶ éĩĳ
ç®¡å¼¦ ä¹ĲåĽ¢
åħ¶èĮĥåĽ´å¤§èĩ´ åĮħæĭ¬
ä¸º å¦»
æĺ¯ èĩª
å¤§ éĽĦ
ä¸į åĩº
åĮº æ®µ
å¼Ģ äºĨ
å¼Ģ åı£
çŃī æĸ¹éĿ¢
è½¬ åıĺä¸º
çĶµå½± åħ¬åı¸
å½ķ å¾Ĺ
æĹħ é¡º
å¼¥ æĴĴ
æłı çĽ®
H z
w ood
å¹´ æīĢ
æĭ Ĳ
çĤ «
éĶ °
å¤´ çĽ®
æį® ç§°
è°ĥæŁ¥ å±Ģ
Ġ198 1
çŁ¥åĲį åº¦
åĲŀ å¹¶
åľ£è¯ŀ èĬĤ
çĽ´æµģ çĶµ
æŃ¼ çģŃ
æĭľä»ģ æħķå°¼é»ĳ
K BS
m in
çļĦ èĮĥåĽ´
è¥¿ å±±
ä»£ å°Ķ
åı° çļĦ
é¦Ļ æĸĻ
ç¥ŀ æĺİ
èĭı é»İ
æŃ» çļĦ
åĪĺ è£ķ
è¿ĲåĬ¨ åľº
ç®¡çĲĨ å¤Ħ
æľĢç»Ī è¢«
é³ Ĺ
å©ļ åĲİ
éĢĥ åĩº
å·¥ä¸ļ éĥ¨
æ¸ħæľĿ æĶ¿æ²»äººçī©
åºŀ å¤§çļĦ
éĤ»è¿ĳ çļĦ
Ġ åº·
ãģ ³
é©¬ ä½į
èĤ Ľ
æģ º
18 53
è¿ĺ èĥ½
åĮħæĭ¬ åľ¨
åĬŁ ç»©
åĬŁ åĭĭ
æħ ¨
è½» è½¨
åĽ° å¢ĥ
æĬĺ è¿Ķ
çļĦåİŁ å§ĭ
ãĥĥãĤ¯ ãĤ¹
Ġ æ´ª
Ġ éĤĵ
ä¸ľ éĹ¨
åħ¨ åĬĽ
å®ĺ åħµ
çĻ½ æĹĹ
il i
ç¬¬ä¸ī è½®
éĥĳ å·ŀå¸Ĥ
éĶ® çĽĺ
ä¸Ń åįĪ
äºİ ç¾İåĽ½
æµ Ĵ
æİ ³
é«ĺ åħ´
ç½Ĺ æ±ī
åĨĻ ä¿¡
åĩ¯ æĹĭ
åĿĹ åİĿ
è¾ħ ä½Ĳ
éĤ® å±Ģ
æĭĨ åį¸
å¤§çº¦ åľ¨
ç¡« åĮĸ
) ï¼ī
Ġ èİ«
çļĦ åı¯èĥ½æĢ§
å¹´ äººåı£
è¿Ļ å¼łä¸ĵè¾ĳ
æľº åŀĭ
éļ ĺ
æ°ĳ äºĭ
an th
æĴ ®
å¡Ķ åĲī
èĲ½ åı¶
é¦ĸæ¬¡ äº®çĽ¸
åĽĽåįģ å¹´
çĪ· çĪ·
çļĦ æľ¬
æĸ¯ æ±Ģ
å§ ª
å°ı å²Ľ
å®ī çº³
ä¸¤ è¾¹
æĺİ åĨĽ
åįİ è¾¾
ç¦ı æĻĭ
èĬ± æł·
å¼ķ éĢĢ
å±Ĥ æ¬¡
æ¯ĶèµĽ æĪĲç»©
è½® æ¤ħ
æľīä¸Ģ å¤©
ä¸īåįģ åħ«å¹´
æĹħæ¸¸ ä¸ļ
åĲŀ åĻ¬
æİ¢éĻ© å®¶
A çº§
N O
å¹´ çĶµè§Ĩåī§
åĲĮ è¡Į
åĮĹ éĹ¨
çİ° èº«
çĤ ľ
åħ± æĮ¯
äº¤ æīĢ
å°± å·²
è§Ĵ çļĦ
æ²Ļ å·´
ĠM or
åī¯ å±Ģéķ¿
ĠW il
æ½ľ åĬĽ
æŁ± åĽ½
å½Ĵç±» ä¸º
æĹłçĹĩçĬ¶ æĦŁæŁĵèĢħ
æĺ¯ åĶ¯ä¸Ģ
åĴĮ ç¾İ
å¾· æ¯Ķ
åĳĺ æŀĹ
åħ¨ çľģ
èį §
åĻ¨ åĴĮ
å®¢ æµģ
èĢģ å¤§
é±¼ çļĦ
ä»ģ å·Ŀ
åı·çº¿ ç«Ļåı°
ev er
å¡ĳ èĥ¶
å¹¸åŃĺ èĢħ
à¸² à¸
å¿ĥ ä¸Ń
èº ģ
çĶµè§Ĩ è¿ŀç»Ńåī§
åŃĺ æĶ¾
åĲĮæĹ¶ åľ¨
äºĨä¸Ģ åĲį
æłĩåĩĨ çļĦ
æĦıåĳ³ èĳĹ
çļĦ æ¼Ķåĩº
è¡ ¢
åīį éĿ¢
ar n
æŃ¦ åĬĽ
æ¬§ åĨł
è½¦ç«Ļ çļĦ
èĲ½ å®ŀ
ĠM on
åı¬ åĽŀ
æľī ä¸įå°ĳ
æ¯ ¯
è¥¿ æĿĳ
è¿Ļ ä»½
âĢĿ ãĢģ
å±ķ åİħ
çĥŃ åĪº
å»¶ä¼¸ åĪ°
Ġ z
çļĦ æĪĺäºī
æĹ¥ è¿Ľè¡Į
åĲį å£°
çº¦ åľ¨
18 40
å°ĳ æł¡
re y
Ġé«ĺ éĽĦ
å¼ĹæľĹ ç´¢çĵ¦
çĶ²ç»Ħ è¶³çĲĥèģĶèµĽ
æŁł æª¬
G O
æµ· åķ¸
æ²Ļ ä¸ĺ
èĩªå·± åľ¨
éĺ´ éģĵ
æĪĸèĢħ æĺ¯
S R
åĴĮ çĶ°
åĴĮ æ¬§æ´²
é«ĺ æīĭ
æıĲ éĨĴ
ä¸ĸçķĮ æİĴåĲį
ort s
Ġ èĭ±åĽ½
Ġ km
çļĦ éľĢæ±Ĥ
èĥ ¥
ç¾ ¡
å¤ļ ç±³
éĢļ æĬ¥
å®ī ä¹Ĳ
åıĤ çħ§
15 8
è¿ŀ çİ¯
åĨ³å®ļ åľ¨
æĭ¥æľī çļĦ
Ġç¬¬ äºĶ
èĶ ·
èĢĥåı¤ åŃ¦å®¶
åıįæĺł äºĨ
ì ŀ
çļĦ åĩºçİ°
æľ ½
åľº èµĽäºĭ
ä¼ł åĩº
åıĺ æĺŁ
çłĶç©¶ å®¤
åĭĴ åĨĪ
æ¤ ¿
å°ģ åį°
å¼¹ å¤´
ĠL a
çļĦä¸» åĬĽ
éĹ¯ åħ¥
æ£Ģå¯Ł å®ĺ
Ġ çĪ¶
åĲĮ å¿Ĺ
å¤ĸ åį¡
è¯¥ å¤Ħ
18 59
æıĲ æĭĶ
è¿ŀ éĢļ
åĿĩ åľ¨
é¡¶ çĤ¹
æĥĬ æĤļ
å¡ĳ éĢł
ê ³
æľī è¶ħè¿ĩ
åĮĹ æ®µ
çİĭ çīĮ
åı· æľĪåı°
åľŁ æĺŁ
æ¹ĸ åĮº
ç¯ Ĩ
æľīä¸Ģ å®ļçļĦ
ĠCh rist
å¹´è½» æĹ¶
å®ŀæĸ½ çĶºæĿĳåĪ¶
ubl ic
M ac
çİĭ åı¸é©¬
å®ļ åĲįä¸º
åĩł å¤©
äºĨä¸Ģ é¡¹
å®¡ çĲĨ
å¾ĹåĪ° çļĦ
æ¯įäº² çļĦ
è¯Ĭ æīĢ
å®īè£ħ åľ¨
ç¤¼æĭľ åłĤ
åİķ æīĢ
Ġ å¹´åº¦
æ±Ł åı£
åĽŀ æĬ¥
é¸ ¥
èĢĥ çī¹
æ¶Ĥ è£ħ
éŁ¶ å±±
ç°§ ç®¡
ä¼ļ ä¸İ
èĥ ±
èĩ³ å°Ĭ
ä½ĵ ä¾§
æĮĩ åĲį
æŃ¦ æŀĹ
æŃ¦ åĪĻ
ä»ĸçļĦ å¦»åŃĲ
æīĺ å°¼
è¿ľ ç¨ĭ
æĿ° å¤«
ç§ģ æľī
çļĦå°ı åŀĭ
ç²Ĺ ç³Ļ
éķ¶ åµĮ
ç¦ıåĨĪ åİ¿
çļĦ çĶŁçī©
çļĦ éĥ¨éĺŁ
çļĦ åĵ¥åĵ¥
åľ¨ å¤©
åĴĮ æĹ¥æľ¬
ä¸ī åı·
åı¯ éĢļè¿ĩ
æĸ° åįĹ
èĩ³ å¤§
æģ µ
åĶ ĳ
å¹¿ åŁŁ
çŁ³ ç¢ĳ
è½¬ æĪĺ
et te
çĸĳ ä¼¼
ä¸Ľ ä¹¦
æĺİæ²»ä¸īåįģ åħŃå¹´
t i
æĺ¯ åīį
åĴĮ åľ¨
åĳ ķ
ä¼ļ ç¨½
åĪĨ å±ŀ
è¢« å¹¿æ³Ľ
æİ¥ ç§į
åį¡ å¡Ķå°Ķ
æ±ī è¯ºå¨ģ
çĳŀ æĸ¯
åŃĿ æŃ¦å¸Ŀ
æ±Ŀ æĭīçľģ
Î ´
è¯Ń æĶ¯
æ±Ł éĻµ
åĲī å®ī
è®º è¯ģ
éº¦ åį¡
çĽ®åīį å·²
åįģå¤§ åĬ²æŃĮéĩĳæĽ²
å¸¸è§Ħ èµĽ
Ġ åı²
Ġ ãĢĪ
éĩĮ å°¼
ç»´ åĪ©
é£İ ä¿Ĺ
æ¨¡ åĿĹ
æĭħä»» è¿ĩ
çľĭ åĩº
éĤ® ç¥¨
æľºæ¢° åĮĸ
ä¹Ł åĽł
ç¦ º
èĭı å°Ķ
è¯Ħ çº§
ĠP er
ed er
åıĸæ¶Ī äºĨ
è¾ ľ
æĺŁ çº§
çĻ½ é©¬
èĭı éĹ¨
åĽŃ èīº
ä¼Ĺ è®®åĳĺ
ä¿Ħç½Ĺæĸ¯ çļĦ
ä¸īåįģ åħŃ
è°Ī è¯Ŀ
ä¸Ģæł· çļĦ
çº¹ ç«ł
ĠLe ague
çļĦ åŃ©åŃĲ
ä¸Ń çĶ²
å¾· æ£®
æľĢ å°ıçļĦ
éģĵ çĽĳå¯Łå¾¡åı²
å¥³ åįķ
æľĿ ä»ĵ
èĩ´ æķ¬
ĠB ro
çĴ ĩ
ian a
å¿ĺ è®°
åİ¨ å¸Ī
L i
l o
äºº éĢī
åĲİ æĶ¹
ä¸į è®¾
çī¹ æľī
å¾· åĴĮ
åħĭ æľį
äºĮ æĪĺåĲİ
çŃī åĪ°
åĿĩ çĶ±
æ¸© æŁĶ
iv al
å¸¸è§ģ äºİ
ä½įäºİæ³ķåĽ½ åĭĥèī®ç¬¬
å°ĺ åŁĥ
é©¬åħĭæĢĿ ä¸»ä¹ī
M C
æĪ Ł
ä¸Ģ æ¬¾
åħ¶ æīĢ
ä¸ľ æ´ĭ
ä½Ĩ å®ĥ
ä¸¤ æĶ¯
å·² çģŃç»Ŀ
çļĦä¸Ģ åįĬ
åħ¹ åł¡
åĲŀ åĲĲ
ç¾İä¸½ çļĦ
åŃŁåĬłæĭī åĽ½
ä¸Ģ ä¾§
ä¸İ ä¸Ĭ
18 30
åıĭ æĥħ
un n
ĠU SA
æĸ¯æ´Ľ æĸĩ
æ°¨åŁº éħ¸
L A
ä»¥ èĩ³äºİ
åħĭ åĴĮ
æīĢ ç¤º
æŃ£ å¦Ĥ
en z
æĶ¿åºľ åľ¨
æķĻèĤ² å®¶
çĶļèĩ³ æĺ¯
åįĸ ç»Ļ
é¤Ĳ é¦Ĩ
çºµ è´¯
å¤§èĩ´ ä»¥åĮĹ
ah n
åĬĿ è¯´
7 000
çļĦ é£İæł¼
è´ ®
ä¸Ĭ ç´¢æģ©
åħ¬ åİĺ
åı¯ ä½¿çĶ¨
è¿Ļ ä¸¤ç§į
å¯¹ ä¸Ĭ
å®ī åįĹ
å®ī æĿ¡
æĽ¾ ä¸Ģåº¦
è®® ä¼ļè®®åĳĺ
èİ± æĸ¯çī¹
çĭ¬ å®¶
å·²ç»ı åľ¨
èĽĭ ç³ķ
åľŁåºĵ æĽ¼
B o
Ġ å»º
ä¸º é«ĺ
ä»¥ åħį
äºĮ æ¥¼
æ°ĳ å±ħ
åĪĹ ä¸¾
åıĸ äºĨ
çļĦä¸Ģ å±ŀ
æīį è¢«
åģľ ç«Ļ
å·¥ä¸ļ åĮº
è®¾ç½® äºĨ
æ²ī é»ĺ
æµģè¡Į æĸĩåĮĸ
ä¸Ģèĩ³ äºĶ
c i
ãĢ ĩ
å¹´ åĪĽç«ĭ
åı· åħ¬è·¯
åħ± çº¿
åİĨ å®ĺ
ç¥ŀ åĥı
åĵ¥ æĭī
æ·± çļĦ
çľĭ ä½ľ
ä¾į ä¸ĭ
F R
S U
çļĦ åįĹ
äºº è´¨
ä¸į ç®¡
éķ¿ ä¹Ĳ
å°Ĩ æĪĲä¸º
æŀĹ åľº
å¥¥ å¼Ĺ
æ¸¸ éªĳåħµ
ç¿ ĺ
ä¼Ĭ åĩ¡
æĶ¯ éĥ¨
ĠC an
éĩİ çĶº
é©¬æĿ¥ äºļ
çļĩå®¶ é©¬å¾·éĩĮ
æĺŁæľŁ æĹ¥
æıŃ éľ²
ä¼Ĺè®®éĻ¢ è®®åĳĺ
ĠIs land
M r
Ø ¹
æ° °
åħ¬ æīĢ
æ°´ ç³»
åħĥ èĢģ
èĬ± çĵ£
çĶµå½± åŃ¦éĻ¢
è´¨ åŃĲ
åĵĪ éĩĮæĸ¯
å¯Ĩ å°Ķé¡¿
ä¾¿ äºİ
èĪªç©º èĪªå¤©
ä¹Ķ æľ¨
è´¢ åĽ¢
æŃ¤åī§ äºİ
æĪ·éĥ¨ ä¸»äºĭ
CC TV
n ow
çļĦ åĪĹè½¦
æĸ° æ½Ł
æľº éĺŁ
è¯¥ æ¸¸æĪı
åŁº äºļ
ç»Ħ è£ħ
æ²³ å²¸
å®ŀ åľ¨
ä»Ĭ æ²³åįĹ
é¹ ĥ
he m
ĠR iver
åŃ¦çĶŁ çļĦ
ä¸ľäº¬ å¤§åŃ¦
åĨĮ å°ģ
æ¬² æľĽ
ç¨Ģ å°ĳ
åĪ©å¥¥ æ³¢å¾·
Ã ł
éĥ ¸
åĩº æ²¡
éĢļ æĶ¿
åĲĳ å¤ĸ
è®º è¿°
åī¯ ä¼ļéķ¿
æģ¢å¤į äºĨ
éĺ²å¾¡ çİĩ
å¤§æ°Ķ å±Ĥ
Ġ å°ĳå°Ĩ
çļĦ åĬ¨ä½ľ
å® ¸
è·¯ åĨĽ
æµ· äºĭ
é©¬ åħĭæĸ¯
å¡Ķ çļĦ
ĠM ac
æ¢ħ åħĭ
åıĤåĬł è¿ĩ
id a
æ³¨æĦı çļĦæĺ¯
åľ¨ è®¸å¤ļ
ä¸Ń ä¸º
æĿ¥ è¿Ľè¡Į
å¾· å²Ľ
åı· æĺ¯
çĤ Ģ
éĥ½ æĺ¯åľ¨
å°¼ ç½Ĺ
æīĭ åĨĮ
éļı æĹ¶
åĶĲ çİĦå®Ĺ
27 0
åľĨ éĶ¥
ä¸ĢèĪ¬ æĿ¥è¯´
çİ¯å¢ĥ ä¿ĿæĬ¤
ç½ª çĬ¯
çĥŁ èįī
æĤ¬ å´ĸ
åħĭéĩĮ å¤«åħ°
å±¡ æ¬¡
ä¸º çİĭ
å¤ļ æľī
æĭī èµ«
ä½ĵ ä¸º
æīĭ ä¸Ĭ
æĬ¤ éĢģ
ä¾Ŀ æ¬¡
åĮºåŁŁ çļĦ
è·¨ åĽ½
Ã¡ n
åĢ¾åĲĳ äºİ
æĸ¯æ´Ľæĸĩ å°¼äºļ
20 24
ä¸ī å¤©
å¤ļ äºİ
éĵ ł
åĲĪ ä¸Ģ
é¾Ļ ä¸İ
ç½ĳ é¡µ
åºŃ éĻ¢
æ±½ æ²¹
éĺ´ å½±
ãģĹ ãģŁ
å¥¶ æ²¹
è¾¾æĪĲ åįıè®®
C arl
c is
çļĦ çĽ®çļĦ
åĮĹ çĪ±å°Ķåħ°
åı² ä»¥æĿ¥
15 4
æł¸ ç³ĸ
éļ¶å±ŀäºİ åı°åįĹ
åı¸ä»¤ å®ĺ
æĩ Ĵ
Ġ195 8
8 000
å® Ł
æĹł æķ°
12 9
æ²¡ æĶ¶
åħ« å¤§
è¯ķ åīĤ
çīĮ åĿĬ
æ´¥ è´´
äºĭä»¶ ä¸Ń
åį¡å°Ķ çĵ¦
å¥¶ å¥¶
v el
Ġ 1889
çļĦ å®īåħ¨
çļĦ æĥ³æ³ķ
å¹´ åĿĩ
è¡Į åĪĹ
ä¸ľ åĬ¿
å¾· æĽ¼
åĬł æĹ¶
å¸¸ é©»
åĲĳ ä¸ĭ
åħī èĬĴ
è·Ł èĳĹ
ä½© æĪ´
åĲ¦ åĨ³
sk i
å¤§çĲĨ çŁ³
ä¸ĭåįĬ åľº
èµ«å°Ķè¾Ľ åŁº
Ġ è¾¾
çļĦ å¯¹è±¡
å¹¶ è¡¨ç¤º
äºĮ åº¦
éĩį å¥ı
éĺ¿ æ³¢
éĺ¿ åħ¹
åĬŁ åĬ³
el m
æĳ© å¤©
åİĭ åĪ¶
éĤ® è½®
é£ŁçĶ¨ é±¼
æĭ¨ æ¬¾
æ³¢å¸Į ç±³äºļ
Ġ åĪĹä¼ł
æĺ §
è¢« æ¯ģ
ãĢį ï¼ļ
12 6
åĽŀ ä¹¡
è½» æĺĵ
å°½ éĩı
çĶ³ èĬ±
çĽĹ è´¼
æĶ¶è´Ń äºĨ
èħĲ èļĢ
Ã³ n
èĪªç«Ļ æ¥¼
åĴĮ å¤ļ
åĴĮ èĭ±åĽ½
ä¾ ĥ
å¸Ĥ è®®ä¼ļ
åĮĹ æľĿ
æĹł åĲį
èĲ¥ æķĳ
èİ·å¾Ĺ èĢħ
ĠA ct
éº» çĥ¦
å»ºæĪĲ åĲİ
ãĥ¬ ãĤ¤
ç½ļ æ¬¾
ä¹ĭ éĹ¨
å¹¶ åĲĮæĹ¶
ä¸ľ å¹³
ä¸ľ å®Ŀ
æĪĺ çº¿
å°Ĩ çĶ±
åħĥ ä»£
æ¸ħ æĻ¨
æŀľ çĦ¶
æ´¾ åħµ
é²ľ åįĳ
æŀ¢å¯Ĩ éĻ¢
A pp
j a
ä¸º çĲĥéĺŁ
æľĢ å¸¸è§ģçļĦ
åŁİ æ±ł
è¯Ń æĹı
çŁ³ åĭĴ
çĵ¦ ä¼¦
ic us
æķħäºĭ çļĦ
åĩ¯ æĴĴ
åħį äºİ
èģĮä¸ļ èģĶèµĽ
éĥ¨éĺŁ çļĦ
æĲľ éĽĨ
åİĨä»» æł¡éķ¿
æİł é£Ł
èįĥ æ¹¾
r Ã©
Ñ Ī
ì §
Ġ å¸ĥ
åľ° è²Į
æĭī æĸĲ
ç«Ļ åīį
ä»Ĭ æ²³åĮĹçľģ
æ¯į è¯Ń
æī¿ åĬŀ
èĳ¡èĲĦ ç³ĸ
ç¾İæľ¯ åŃ¦éĻ¢
ĠIn stit
çĮĽ çĥĪ
AC ç±³åħ°
èĬŃèķ¾ èĪŀ
ì Ĥ
å¤ Ķ
ä¸İ è¥¿
å°Ķ ç¾¤å²Ľ
åĪĨ ä¼ļ
æµ· æĬ¥
çĻ½ è¡Ģ
åħŃ è§Ĵ
è¾Ľ æł¼
op e
åĽ½åŃĲ çĽĳ
åĩº å¾ģ
æ¯ ĺ
ä¸ľ ç«¯
å°ı åłĤ
æĪĺ çļĦ
åı² åŃ¦å®¶
æł¡ åĿĢ
å²Ľ åĴĮ
æ´» åĮĸ
å¼Ģå§ĭ è¿Ľè¡Į
äº² å¯Ĩ
åħĪ å¤©
æ°Ķ çļĦ
æŀĦ å»º
çĶ» åĥı
çģ« çĥ§
åĽ´ åĽ°
çĭ¬ å¥ı
åıĭ äºº
å¹´ä»£ åĲİæľŁ
ĠW e
è¿¹ è±¡
è¿ĺæľī ä¸Ģä¸ª
ou gh
èĥ½å¤Ł åľ¨
ä»·åĢ¼ çļĦ
Ġ or
ä¸Ĭ éĩİ
ä¿ ¾
èĭı çıĬ
çĶ±äºİ åľ¨
æ·± èī²
æĿ° æ£®
èī¾ ç¾İ
éŃĶ çİĭ
è¿· å®«
æ½ľ åħ¥
è½¬ç§» èĩ³
Ġ æ³°
åİŁ çĶŁ
å¸¸ åľ¨
æıĲ ç¤º
åİĨåı² åįļçī©é¦Ĩ
çļĩ åĨł
å¯Ĩ å°Ķ
è´Ŀ å¤ļ
ä¸¹ å¨ľ
æĿ¨ æ°ı
äºĮåįģ åħ«
æĺı è¿·
V al
Ġ éĵ¶
çļĦ èĭ±åĽ½
åľ¨ ä¸ĸçķĮ
åĴĮ åīį
æĹ¥ åĪ°
ä¸ľ éŃı
æķ° å¹´
è§£ çº¦
åĬŁ å¤«
åģļ åĩºäºĨ
å®¾ é¦Ĩ
çīĽ é¡¿
èİī èİī
å°Ĭ èĢħ
åĽ½ç«ĭ å¤§åŃ¦
åı²èĴĤ å¤«
åĩºå¢ĥ åĲİ
æĢ»é¢Ŀ ä¸º
çļĦ ä¿ĿæĬ¤
å·¥ åľº
å¥³ åıĮ
çĻ½ æ²³
å¸Į å¾·
ä¹Ļ éĨĩ
ĠV ol
éĺª ç¥ŀ
æ´Ĺ æīĭ
çĢ ļ
èĬ±å²Ĺ å²©
ð ª
åľ¨ æķ´ä¸ª
ä¼ļ å¯¹
éķ Ģ
ä¸ĭ è¡¨
è° Ĵ
éº¦ éļĨ
è¾ĸ å¢ĥ
åŃ© åŃĲçļĦ
ä»¥ä¸ĭ çļĦ
ç¡¬ ä»¶
çĺ ¾
åĤ¨ èĵĦ
åŃ¤ çĭ¬
å·´å¡ŀ éļĨ
åī¥ å¤º
åįĹæĬķ åİ¿
ãĥĨãĥ¬ ãĥĵ
åį¡å°Ķçĵ¦ å¤ļæĸ¯
k s
ä»ĸ æĽ¾åľ¨
åĲį æ¬¡
å½ĵ æĪĲ
æŁ ĳ
ç±³ æŃĩå°Ķ
åħ³ ä¸Ń
å¼º å¥¸
å»ºçŃĳ è®¾è®¡
å»ºçŃĳ é£İæł¼
ä¸ģ å¿§
åıĤä¸İ èĢħ
éģĩ å®³
åĲ¬ éĹ»
å¹¶äºİ åĲĮå¹´
ç¨İ æĶ¶
ç¯®çĲĥ è¿ĲåĬ¨åĳĺ
é¢ģåıĳ çļĦ
èµĦæľ¬ ä¸»ä¹ī
B I
çĶµ èį·
ä¹Ł åĽłä¸º
éŁ ¬
ç»Ħ ä»¶
æīĭ å¥Ĺ
æ¸¯ çļĦ
æıĲ æĸ¯
å·² å©ļ
14 00
å¡ŀ åĨħ
è½® å»ĵ
çļĦé¦ĸ å¸Ń
åºŀ å¤§
æĤ² ä¼¤
ï¼ħ ï¼Į
èĲ¨å°Ķ çĵ¦
èħĲ è´¥
åı¸èģĮ åīįéĶĭ
ä»ĸ æĬĬ
çİ° æķĪåĬĽäºİ
åħ¥ æľĿ
åħ¨ èµĦ
æ¯Ķ åħĭ
å¥³ å·«
åģ ķ
èº« ç©¿
ç¬¬ä¸Ģ ä¸ŃåŃ¦
åĵĪ è¿Ī
èİ« å¤«
è°· å·Ŀ
åª ³
ä½© å¾·ç½Ĺ
åıªæľī åľ¨
ov er
è©¹ äºĭ
åı±åĴ¤ ä¹ĲåĿĽ
æľ¬ å±ŀ
çŁ «
å¤© ä¸»
at o
å·Ŀ éĥ¡
éħį æľī
æŃ¥ éģĵ
ĠP e
å®Ŀ åĨ¢
æĢĿ ç»´
æŀ¶ é£ŀæľº
åı·çº¿ åĴĮ
çļĦåľ° çĲĨ
ĠI II
éĤ® ä»¶
éģ£ ä½¿
åİĮ æģ¶
ç»ħ å£«
Ġ ä¹Į
çļĦ éķ¿åŃĲ
åįĹ éŁ©
èĢĮ è¿Ļ
æĸ° æ³½è¥¿
ä¼Ĭ èİīèİİçĻ½
æ²¡æľī è¢«
éŁ³ä¹Ĳ çļĦ
çľĭ æĿ¥
åįł äºĨ
os h
åĲĽ åŃĲ
åĪ¤ å¤Ħ
ä¼ĳ åħ»
çĹĩ çļĦ
è®¢ è´Ń
ĠIn c
çļĦæĦı è§ģ
éĽĩ åĳĺ
å¡ŀæµ¦ è·¯æĸ¯
C al
Ġ åħ¨åĽ½
å¾· é²ģ
å¼Ģ åħ³
éĩį åĪĽ
åŁº åºķ
æ²³ åĴĮ
åį¡ è½¦
åĽŀ é¡¾
æĶ¯ åĩº
èħ ¥
éĽ· å°Ķ
çĹħ æĥħ
é²ģ åĽ½
é¢Ħ èŃ¦
èĢ³ æľµ
éŀ ĳ
åı°åĮĹ åİ¿
èĬ³ é¦Ļ
çļĦçī¹ æĢ§
é©¾é©¶ åĳĺ
ãĢľ ï¼Ī
iss ion
E r
Ġ èĥľ
Ġ å§ľ
ä¸Ģ æī¹
å¤ĸ åŀĭ
æľ¨ åĪ¶
è¡¨ç¤º è¯¥
ĠW al
um p
ãĤ¹ ãĤ¿
åįĪ å¤ľ
oy al
äººå¤§ ä»£è¡¨
Ð Ķ
Ġ æ²Ī
20 5
å°Ĩ å£«
ä¹¦ çĶ»
çķĮ çº¿
å¡ŀ ç»´
èµŀ æĪĲ
Ðµ Ð»
æĶ¶åħ¥ ä¸º
çļĦçī¹ èī²
èĤĿ èĦı
åį¡æĸ¯ èĴĤ
d en
l ing
Ġ âĸł
å¹´ æĶ¹ä¸º
ä¸Ń éĥ½
çģ ¼
æ°Ķ ç®¡
çĶµè§Ĩ é¢ĳéģĵ
èµ° åĪ°
ĠR ep
æĪĲåĳĺ ä¹ĭä¸Ģ
èµı èµĲ
æĺ¯ä½įäºİ æĹ¥æľ¬
åĲīå°Ķ åĲīæĸ¯
IG N
åĻª éŁ³
æĺ¯ ç§į
å¤§ åĿĿ
æĪĲ å¸Ŀ
ä¸ĭ ä¸Ģä¸ª
ä¸ĩ ä½Ļ
å¥¥ åħĭ
å°ĳ äºİ
é²ģ çī¹
å§Ķåĳĺ éķ¿
ä¼ı å°Ķ
ãģŁ ãģ¡
æľīæīĢ ä¸įåĲĮ
p le
Ġ å®ĥ
ä¸į ç¨³å®ļ
å¾· åľ¨
å¯¹ ä»ĸçļĦ
æīĢ åıĸä»£
çķ ¸
å¹³ æĹ¥
å½ĵ åľº
åĽĽ åįģä¸Ģå¹´
éĺ¿ éģĵå¤«
æ³¢ æĹģ
è½¬ åĬ¨
æ¯ı å¹´çļĦ
æİ§åĪ¶ äºĨ
åĪļ å¥½
ãĢı ï¼Į
èĻİ å°¾
åĩ¤ ç¿Ķ
åįļå£« åĲİ
åľ°ä¸ĭ è½¦ç«Ļ
m un
ì Ĺ
æĺ¯ éĿŀ
æŀ ĭ
èĢĮ å¯¼èĩ´
çī¹ æ´Ľä¼Ĭ
åı¯ æĮģç»Ń
é»ĳ èī²çļĦ
åıĮ èĥŀèĥİ
å®£ èªĵ
å·¥ç¨ĭ éĻ¢
äº¤éĢļ è¿Ĳè¾ĵ
ri gh
å·¡ èĪª
ov a
åıĽ åıĺ
æķĻä¼ļ çļĦ
æĬĦ æľ¬
å¾·å·Ŀ å®¶åº·
é¥¥ é¥¿
çīĻä¹° åĬł
èĭıé»İ ä¸ĸ
P er
Â ²
Ġ 1979
æĺ¯ åŁºäºİ
åĴ ³
è¥¿ ç«¯
æĮ £
æľŁ éĻĲ
æĽ´ åľ¨
æŃ¦ èĹı
ä¹ĭåĲİ åıĪ
åı¯èĥ½ ä¸İ
è¿½ éĢĲ
ç¬¬åĽĽ å±Ĭ
å°Ĭ æķ¬
çĨĬ çĮ«
å¼± çļĦ
åī² è®©
åĽ½éĺ² åĨĽ
NG C
å¤§ çĶ²
ä¼ļ äºİ
ä¼ļ å±ķ
èĢĮ ä¸Ĭ
æľº ç¿¼
æ±Ł å®ģ
å¥¥ å§Ķä¼ļ
è¿ĺ å°Ĩ
å±Ģ éĽĨåĽ¢
åįĥ ä¸ĩ
ur al
æķħäºĭ å¤§çº²
å¢ŀåĬł åĪ°
æ¶² æĢģ
è®¯ åı·
Ġ åŁĥ
å¹´ æĽ´åĲįä¸º
äºº åĲį
ä¸ľ è¾¹
èµĽ åīį
åı¯ çĪ±
å¯¹ æĸ¹çļĦ
ç«Ļ åĨħ
åł º
å¸Ī çļĦ
é¦Ļæ¸¯ å¤§åŃ¦
æľ¨ è´¨
å²ģ æľĪ
éĢĢ ä¼į
çªģ åĽ´
æĪĲåĳĺ çļĦ
æĤ£ èĢħçļĦ
èģĮæ£Ĵ çĶŁæ¶¯
g o
Ġ at
Ġ éŁ©åĽ½
åĪ ®
ä¸º æŃ£
åĽ½ å°ĨåĨĽ
åĲİ å°±
ä¸Ĭ ä¸İ
ä¸į æĿ¥
åħ¬ è½¦
åĲĮ ä½įç´ł
å¯¹ éĿ¢
åİŁ çīĪ
é©» åĨĽ
è§¦ åıĳ
åº·çĨĻ å¸Ŀ
å¤§éĺª å¸Ĥ
tain ment
G A
R ed
â Ļ
ä¸Ģ åŃĹ
å¤§ é©¬
èµ Ĥ
ä¸į ä¸¹
ä¸İ å¼ł
åĪĨ åŃĲçļĦ
å¹¶ èİ·
é«ĺ æĿ¾
èĩª ä¼ł
èµ· çļĦ
é¾Ļ çİĭ
è§ģ çļĦ
ä¿® è¯»
è´¹ å°Ķå¾·
èĤ¡ ä»·
ãĥ¼ ãĤº
å¿ħ éľĢ
ãĥĹ ãĥŃ
é¢Ħå¤ĩ éĺŁ
çıĬçĳļ ç¤ģ
çļĦ æł¸å¿ĥ
éĿ ¡
åĿ ľ
æĶ¹ ç§°ä¸º
æ¶ §
äº² æĪļ
æĬķ å¥Ķ
ä½ķ å¡ŀ
åĩł ä½į
ĠW illiam
ä¸īåįģ äºĶå¹´
ath er
è¾© æĬ¤
å¹¶æŃ¢äºİ åİ¿éģĵ
æ¬º éªĹ
D r
æ° Ĺ
ä¸į åĪĨ
éķ¿ ä¹ħ
éĢļ éī´
ä¸¤ èīĺ
èĭ± ç¤¾
æ· ¤
å¤« åį¡
åįķ è¯į
ä¿¡ å¿ĥ
éĵģè·¯ çº¿
Ġd el
ç¯® çĲĥéĺŁ
èĢ¶ç¨£ ä¼ļ
Ð ¢
åı¯ æ¢¦
æīĢ èĩ´
åİ¿ å¸Ĥ
åıª åī©ä¸ĭ
æ¸ħ å»·
èĲ¨ å°Ķçī¹
æ±ī ä»£
æĤ Ħ
èĪ¹ éĺŁ
åįģäºĮ çłģ
éĥ½çĿ£ åºľ
å¹´ç¾İåĽ½ äººåı£æĻ®æŁ¥
çĭ¸ èĹ»
ä¾ı ç½Ĺ
ĠAssoci ation
ë ¦
çļĦ æĢģåº¦
è¡Į è¿Ľ
ä¸ī é¡¹
ä¸ľ ç»ı
ä¸ľ æĺł
èµĽ å°Ķ
å¤ı æľĹå¾·
çĥŃ çĪ±
ä»į ä¸º
ri an
ä½© éĩĮ
ãĥ¼ãĥ ł
åĥ§ äºº
æ±¡ æ°´
é©¬æĭī éĽħ
ç»ıçºª åħ¬åı¸
æļ¹ ç½Ĺ
çĹĩåĢĻ ç¾¤
Ġ åĲķ
Ġ 1978
ä¸Ń æĢ§
è¥¿ æ¬§
æĢ§ è¡Įä¸º
åħ± éĿĴ
äºĶ åĲį
èĭı æĭī
ĠC ity
åī¯ æĢ»è£ģ
ĠT r
ä¸Ģ æıĲ
åĴĮ ä¸ĢäºĽ
èĢĮ èİ·å¾Ĺ
æĸ¹ éĴĪ
ç¨ ·
åİĨåı² æĸĩåĮĸ
13 6
ä½Ľ éĻĢ
ä¸¥ åİī
è¯Ńè¨Ģ çļĦ
éĺ» æĮ¡
ĠĠĠĠ ĠĠĠĠ
çļĦ ç»Łæ²»
åľ¨ æ¸¯
éĿ¢ ä½ĵ
åħĥ å¸Ŀ
éĢī åħ¥
æĿİ ç»´
16 5
æĬĬ å®ĥ
èµ« çī¹
åĤ »
ç½² çĲĨ
Âł Âł
åĩłä¹İ æ²¡æľī
é¢ĩ ä¸º
P M
Ġ æ¬§
çļĦ T
åľ¨ æ¸¸æĪı
ä¸Ģ å¥³
ä¸º èĥĮæĻ¯
å¼ Ī
çľ Į
ä¸ī å¥½
å² ¬
åĽĽ åĪĨä¹ĭä¸Ģ
æĻ® åĭĴ
ä¸ĥ æĹ¥
åıĮ æīĭ
æł¹æį® ç¾İåĽ½
æľ« æĹ¥
è½¨ è¿¹
ç»¿ åĮĸ
æģĴ å¤§
å¹´è¢« åĪĹä¸º
é©¾ å´©
ç²¤ åī§
è¯ģæĺİ äºĨ
) ï¼Ľ
w a
åĲİ åįĬ
ä¸į é¡¾
é© ¸
åĬ¨ æ¤įçī©
çİ° è¡Į
èĭ± åĲīåĪ©
at ch
åĨį ä¸Ģæ¬¡
é¸ ¾
ä»ĸä»¬ æĺ¯
èī¾ è¿ª
éĢģ åĽŀ
åĿļ åĽº
ç»¼åĲĪ å¾ģ
çĩĥ æ²¹
Ġ** *
éĽĨæķ° ä»¥
ä¸ĸçºªä¸Ń åı¶
æµı è§Ī
A BC
P al
m ar
ä»¥ ä¸Ģ
ä¸ĭ çĽ®
æīĢ ä½¿çĶ¨
æľº çĶµ
ä½¿ äºº
çºª å¾ĭ
æĸĩåĮĸ ä¸Ńå¿ĥ
æĿ¿ æ¡¥
è¯¯ å·®
çĵ¶ åŃĲ
ç¡Ŀ éħ¸
è¶³åĪ© ä¹ī
ener al
ä»£çī§ åĮº
ä¸Ńéĥİ å°Ĩ
Ġ 25
å¤§ ä¸Ń
æľī åĲį
ä¸Ĭ è¡¨
æĭī ç½ķ
åħ± çĶŁ
ĠP ol
ç»ıèĲ¥ çļĦ
åĩºèº« çļĦ
man n
ES T
X X
æĸ¯ éĢļ
å¦ Ĭ
æīĢ ç»ĦæĪĲ
åħ¨ åī§
çĽ¸ æīĳ
å½± åŃĲ
18 58
ä¸»è¦ģ ä»İäºĭ
çİĩ çļĦ
éŁ³ä¹Ĳ äºº
è¸ ©
æĴ¤ åĽŀ
çŀ Ĵ
æĻ¤ å£«
Ï ħ
Ġ è¢«
çļĦ èµĦæĸĻ
å¹´ åħ¥éĢī
ä¸Ģ ä¸¾
åıĳ æĶ¹
åįĹ éģĵ
éĩĳ åŁİ
18 54
çĽ´ è¾¾
æĶ¶ åıĸ
åįĩ åħ¥
æĽ¼ æģ©
op s
çĦ¶åĲİ åľ¨
åĪ¶çīĩ åİĤ
çº¬ åº¦
ç§ĳçļĦ åħ¶ä¸Ńä¸Ģç§į
æ°ĳèĲ¥ åĮĸ
Ð°Ð´ Ð°
3 30
F F
å¹´ å®Įå·¥
ç» ¯
ä»ĸ äº¦
æĭī æł¼
ä½Ĩ å°¼
å¸¦ çļĦ
é£İ è²Į
çĳŀ å®ī
çĶ·åŃĲ åįķæīĵ
èĢĹ èµĦ
èµ«å°Ķ æĽ¼
t t
Ġ å°Ĩ
æĭ Į
ä½ľ èµĽ
ä¹ĭ éģĵ
ä¸ī åŃĲ
ä¸ľ å¾ģ
éĺ¿ ä¼¦
éĺ¿ è¯º
ä¹Ŀ ä¸ª
çľĭ ä¼¼
åıĳçĶŁ åĲİ
ĠF ilm
é¸Ł çļĦ
ç¬¬åĽĽ åŃ£
æĶ¶å½ķ åľ¨
çļĦéĩįè¦ģ æĢ§
æĬ« éľ²
éªļ æī°
å¼Ģ çļĩ
å°ı åĮº
åĲĳ åĲİ
åı¤ æĸ¯å¡Ķå¤«
ĠR eg
åĶ® åĩº
å¹³æĸ¹ èĭ±éĩĮ
èĩªåĬ¨ è½¦éģĵ
Û Į
åĽ½ äº§
ä¸į å½ĵ
ä¸» å¸ħ
çī¹ æĸ¯
åıĬ ç¬¬
å¼Ģ é¦Ĩ
ç§ĳ ä¸¾äºº
æ¡ ħ
ä¸¤ åĳ¨
èµ· çĶ¨
æĿĳ è¢«å¹¶åħ¥
ä¼ł è¾¾
çŁ³ çļĦ
æĮĩ çļĦ
è½¬ ä¸ľåĮĹ
çļĦä¸Ģ æ¬¾
äººæ°ĳ åĮ»éĻ¢
ç´¢ é©¬éĩĮ
ĠN o
ä¸»é¢ĺ æŃĮ
åħ¬å¸ĥ äºĨ
å¼¯ éģĵ
ãģĻ ãĤĭ
åĶ®ç¥¨ æľº
D J
æľī æĿĥ
ä¸ª æ¡Ī
ä¸į éĢĤ
æĶ¹ éļ¶å±ŀ
éĹ¨ åı£
åħ¶ä»ĸ äººçī©
è¾ĥ éķ¿
å®¹ è®¸
è¿½ å¹³
å¿ł ä¹ī
Ġd er
è®¤è¯Ĩ äºĨ
çİ°ä»Ĭ çļĦ
çŁ® æĺŁ
å¤ĸåĢŁ èĩ³
oot ball
f ield
r ing
åĲİ å®«
æµ· å¾·
åħ¨ æ¸¯
éĺ¿ åĭĴ
åĪĻ åı¯
æľĿ åľ£
èĭı å·ŀå¸Ĥ
åĬ© æķĻ
ä½ı éĻ¢
èģĮä¸ļ æĬĢæľ¯åŃ¦éĻ¢
ï½ŀ ï¼Ī
åĩ¤ å±±
ä¹³ æĪ¿
è¡° éĢĢ
ç«ĭæ³ķ ä¼ļ
Ġw ith
Fran k
ä¸Ģçº¿ éĺŁ
èĭıéĹ¨ çŃĶ
6 50
Ġ 24
æĺ¯ æĸ°
æĸĩ å®Ĺ
æĭī æĭī
ä¸¤ ç»Ħ
åıĸ æĿĲ
èĤ² æľī
æİ¨ åĬĽ
ĠP ri
åģľ æ³Ĭ
ĠG ames
å·® ä¸įå¤ļ
æ·· åĲĪçī©
ä¸ľäº¬ çĶµè§Ĩåı°
Î¿ ÏĤ
UND AM
å¹´ èĢģ
å¹´ æĪĲç«ĭçļĦ
ä¸Ģ å¹¶
çĲ ¥
å·´ é¡¿
çĻ½ éĵ¶
ä¸° åİŁ
ä¸»æīĵ æŃĮ
Ġ è¶ħ
åĮĹ æĸĹ
è¾¾ å§Ĩ
åįķ çº¿
å°ĳ ä½Ĳ
ä¾ĭ è¡Į
å¾Ī å°ı
åįı åĴĮ
çĻ¾ æµİ
ĠH ill
èķ ¨
è¥¿åįĹ èµ°åĲĳ
ä½ĵéĩį çº¦
å·´æĭī åľŃ
è¯ºæĽ¼åºķ å¤§åĮº
) :
B attle
åĽ½ åı²
çĶ¨ æ³ķ
åĮĹ æ¸¯
å¼Ģ å¤´
è§Ħ å®ļçļĦ
ĠA s
ĠB o
å®½ çº¦
æĹģ çļĦ
æ®ĭ éª¸
éºĴ éºŁ
å·ħ å³°
k o
Ġ åįĥ
è¥¿ åı¯åīįå¾Ģ
å¤ĸ å¢Ļ
åħ° åħĭæŀĹ
é¦ĸ éķ¿
ä¿Ŀ éĢģ
çĵ¦ çº³
ä¼¦ çĲĨ
çº¢ åįģåŃĹ
ç»Ĩ å·Ŀ
å¹² æµģ
è¯į æĽ²
æĺĮ å¹³
æļ´ éĽ¨
å¤§çº¦ æĺ¯
ä¹ĭæĪĺ ä¸Ń
éĵº è®¾
) .
V iu
Ġ æ³¢
å¤§ éĿ©åĳ½
ä¼ļ åĴĮ
èĢĮ åıĹåĪ°
æĪĺ ä¿ĺ
éĩį åĽŀ
æ® ´
åĢ ¦
åį¡ çº³
å¼º è¡Į
æĻ¯ æ³°
æ³° æĻ¤å£«
ç´¢ å§Ĩ
åĨľ çĶ°
çł´ ç¢İ
èŃ¦ å®ĺ
è¿½ åĬł
å®¡ è®®
åĽº å®ļçļĦ
å¥ī è¯ı
ç¡¬ åĮĸ
é¸Ń åĺ´
éŁ¦æĸ¯ åĴ¸
çļĦ å¾·åĽ½
ä¸Ģ åĲĳ
ä¸º ä»£è¡¨
è¿Ļ æĺ¯ä¸Ģ
åı· å·ŀéĻħåħ¬è·¯
æĪĲä¸º ä¸ĢåĲį
çłĶ è®¨
åĽ½å®¶ éĺŁçļĦ
ä»½ åŃĲ
ä¼ĺ è´¨
éªĳ é©¬
ä¼ĳ æĸ¯
ir st
èĥ½åĬĽ çļĦ
æµģè¡Į æ¦ľ
æĬ¢ æķĳ
åĲīä»ĸ æīĭ
G T
L E
Ġ å¦Ĥæŀľ
å¸ ĺ
ä¸į çĽ¸
èµĽ åĴĮ
é¦ĸ æŃĮ
äº¤ åĩº
æŃ» ç¥ŀ
å© ¢
å®Ŀ åı¯æ¢¦
Ð¸ Ðº
ç¥Ŀ ç¦ı
ric on
M BC
Ġ ç§ĳ
çļĦ åħ³éĶ®
åħ¶ æĹ¶
çī¹ å·¥
äºĮ èĢħ
æĹł åı¯
çĥŃ æĥħ
ä¾¿ å®ľ
æĸŃ ç»Ŀ
éĺ¿å°Ķ è´Ŀ
å¡« æµ·
oun g
èµĮ åľº
åĲįåı¤å±ĭ å¸Ĥ
å®ľåħ° åİ¿
æĪĺåĪĹ èĪ°
Ġ 50
åľ¨ çº½çº¦
åħ¬ çīĽ
çĶµ åİĤ
éĴ Ľ
æĺŁ æĺŁ
çĶ° çº³è¥¿
åĽ½å®¶ èģĶçĽŁ
è± ģ
åĦ¿ å¥³
æŀª ç®¡
å« ī
im a
èĴĻçī¹ åĪ©å°Ķ
å¤ĸéĩİ æīĭ
L uc
çļĦ æ³ķåĽ½
çļĦ æĿĥåĬĽ
åľ¨ åį°åº¦
æĢ§ åĳ½
å·² éĢĢå½¹
å¥¹ è¿ĺ
å®¤ çĶº
æ´¾ ç³»
è®¾è®¡ åĴĮ
åįļå£« çĶŁ
æĮģç»Ń åĪ°
å®ŀéĻħä¸Ĭ æĺ¯
Ġ èĩ³
Ġ ä¹Ŀ
è¡ ®
æĹ¥ åīį
ç½Ĺ å§Ĩ
æ°´ åĴĮ
æµģ æĦŁ
çº¢ æ¥¼
å±Ĥ éĿ¢
åįĬ å¹´
ä»£è¡¨ æĢ§
è¶³çĲĥ ä¹Ļçº§èģĶèµĽ
åĪĩ éĻ¤
è®¸å¤ļ äºº
èķ Ļ
ÑĢ Ð¾Ð¼
å°ĸ ç«¯
å·ŀåºľ çŁ¥åºľ
ä¸»ä½ĵ ç»ĵæŀĦ
å·²çŁ¥ çļĦ
åĪĳéĥ¨ ä¸»äºĭ
èĪĨ è®º
A æ¢¦
C ap
Ø ©
í ĺ
Ġ éĴŁ
ãĢ ħ
çļĦ ä½ľèĢħ
ä¸Ń å¤ĸ
æľī ä¸įåĲĮ
åĴĮ éĩĳ
åįĹ éĢļ
åĽ½å®¶ åĴĮ
ç¥ĸ å¸Ī
çĽĳ æİ§
ä½Ľ åĥı
ç§ĳåŃ¦ åŃ¦éĻ¢
å¨ģå»ī å§Ĩæĸ¯
æ¸Ķ æ°ĳ
åŁĭ èĳ¬
ç½¢ åħį
ä¹Łå°±æĺ¯ è¯´
éħ° èĥº
å¨ģæĸ¯ åº·
ç§ĳç´¢ æ²ĥ
) (
P at
çļĦ ä¸Īå¤«
æ± ²
ä¸ĭ æ»ĳ
æĺİ çıł
ç»ĵ æł¸
çĻ½ æ²Ļ
åĽ¾ çļĦ
åĽ½å®¶ å®īåħ¨
ç¦ı äºķ
17 00
æŃ» åīį
æķĪ å¿ł
ç§ĳåŃ¦éĻ¢ éĻ¢å£«
çļĦ è·Ŀç¦»
èµ Ī
åŃ¦ ä¸Ń
ä¸ľ å°¼
ä¸ľ åįİ
é«ĺ æĸ¯
å°ı è°ĥ
åı£ æľį
å¤´ è§Ĵ
æīĵ å·¥
åĨ³ æĸĹ
çĵ¦ è¥¿éĩĮ
ä»¤ ä»ĸ
åĬŁ æķĪ
æĵ Ĥ
æĳ© çº³
äºĮåįģ äºĮ
çļĦåľ° éĿ¢
çŃĶ æ¡Ī
å½Ń åŁİ
ä¸ªæľĪ çļĦ
çļĦ ç»Ħç»ĩ
æĸ ¡
ä¸Ģ æĬĬ
çĽ¸ å¤Ħ
éĴ °
æ´» æ³¼
åı¯ä»¥ çľĭåĪ°
æľį ä»İ
å·¦ æīĭ
éľĩ æĥĬ
æį¢ä¹ĺ ç«Ļ
ç¨» çĶ°
èĬĻ èĵī
åķ¦ Aæ¢¦
ÑģÐº Ð¸Ð¹
ç§ĳè¥¿ åĺī
èĭıéĹ¨çŃĶ èħĬ
P K
ä»ĸ åĽł
é© ´
åı· é©±éĢĲèĪ°
åħ¨ å¸Ĥ
ä¸¤ éĿ¢
éĢī é¡¹
è¶Ĭ éĩİ
ä¸»å¸Ń åĽ¢
è°ĥæķ´ ä¸º
çļĦåİŁ åŀĭ
åı°é£İ èŃ¦æĬ¥
p en
å¹´ åĨįæ¬¡
åľ¨ å®¶
èĢĮ æ²¡æľī
æĸ¹ ä½į
18 51
èµ· å§ĭ
å¤´ é©¬
ç¥¨ æķ°
ä½Ĩæĺ¯ çĶ±äºİ
åĪ¤ å®ļ
æŀª æ¢°
åĿĤ æľ¬
ä½ıå®ħ åĮº
æĺ¾å¾® éķľ
å¤įæĹ¦ å¤§åŃ¦
èĶ· èĸĩ
å®īæĿ¡ åħĭ
çĤĢ å¸Ŀ
W WE
é Ĭ
çļĦ æĿİ
åĴĮ æĿİ
çĶ± æĹ¥æľ¬
åĬł è¾¾
å±± ä¹¡
å¸ĥ éĩĮäºļ
18 55
åħļ éŃģ
æ°¸ ç¦Ħ
æĶ¿æ²» å±Ģ
le ct
å½Ĵ æĿ¥
äºĨä¸Ģ ä½į
ä¹Ķ ä¸¹
èµ¦ åħį
çļĦ æĸĩåĮĸ
æĺ¯ åĽł
å¼ ©
å¤§ ä¸»æķĻ
å¤§ ä¹ĺ
åĴĮ æ³ķåĽ½
éĻ ĭ
æĸĩ åŃ¦å®¶
ç§į çļĦ
èĬĤ çľģ
åħŃ æĹ¥
ç»Ĩ éķ¿
ä¸¹ å°¼æĸ¯
è·Ŀ ä»Ĭ
ç²ī çº¢èī²
å®ŀçİ° äºĨ
Ġ195 9
åĥ§ ä¾£
ä¾ĽåºĶ åķĨ
å®¾å¤ķæ³ķ å°¼äºļ
L in
o de
u i
çļĦ B
éĿ ¼
è¥¿ è´¡
äºĭ åıĺ
âĢĿ (
éĥ½ æĺ¯çĶ±
æĹł ç©·
ar ia
is ter
éĻĪ è¿°
çļ® çī¹
è¯¥åºĦ ç¼ĸåħ¥
åı¤åħ¸ ä¸»ä¹ī
æŃ¦åĪĻ å¤©
ä¹Ł è¦ģ
ç¬¬ä¸Ģ åľº
æĮģ èĤ¡
èĬ± äºĨ
åħ« å¹¡
åł¡ çļĦ
èĦ± èĲ½
åĲ¬ ä¼Ĺ
æ®ĭ ä½Ļ
æŀĦæĪĲ çļĦ
ç¿»è¯ĳ æĪĲ
Ġ é²ģ
ï¼ī ,
âĢ °
ä¼ļ è§ģ
åħ¬ è®¤
ãĢį ï¼īï¼Į
åįİ ä¸Ń
ç¼ĸ æİĴ
16 8
ĠS ec
13 00
æīĺ åħĭ
æ½ ŀ
åī¯ éĥ½ç»Ł
æ°¸ åİĨ
çĶŁäº§ äºĨ
ç»¿ åľ°
ä¹Ļ éħ¸
æįŁ æ¯ģ
Ġ æ±ī
çļĦ è§ĤçĤ¹
åĲ ł
åľ¨ æ²¡æľī
è¿Ļ éĩĮçļĦ
ç¾İ æĭī
å½ĵ ä¸ŃçļĦ
on a
ç¼ĸ å®¡
åĲĦ çľģ
ä»Ĭ æĹ¥çļĦ
å®£ å¾·
å¹´ä»£ å¼Ģå§ĭ
æľĢä½³ å¥³ä¸»è§Ĵ
om a
æĬĹæĹ¥ æĪĺäºī
åĻ¶ å°Ķ
Ð ł
Ġ åĪĿ
çī¹ éĩĮäºļ
é©¬ åħŃçĶ²
ä½¿ æĮģèĬĤ
æĹł æ¯Ľ
èİ· æİĪ
å±Ĭ ä¸ŃåĽ½
éªĮ æĶ¶
å±ĭ èĭĳ
åĵ¥ä¼¦ å¸ĥ
æ³¢å¤ļ é»İ
çĶŁéķ¿äºİ æµ·æĭĶ
éĤ¯ éĥ¸
F or
P A
åľ¨ çĶµå½±
åŃĲ ä¸Ĭ
ä¹Ł ä¸įä¼ļ
éĢļ å·ŀ
18 56
è¯´ ä»ĸ
17 5
Ð¾ Ñģ
æĪĪ çĻ»
æī§è¡Į èĳ£äºĭ
ãĥĥ ãĥĹ
çļĦçī¹ æľī
èľĢ æ±ī
Ð¾Ð² Ð¸Ñĩ
è¯ «
å¤§ å±±
æĹ¥ çħ§
çī¹ æľīçļĦ
æ³ķ åĪĻ
é«ĺ åį¢
åħĥ çļĦ
ç¼ĸ å¯¼
çº¢ æĺŁ
èĲ½ åľ°
å¯Ł è§ī
çİĽ ä¸¹å¨ľ
ç¾½ çĲĥ
åı« å£°
æ·¹ æ²¡
N BC
T r
U T
æĺ¯ è¥¿çıŃçīĻ
æĿ¥ åĪ°äºĨ
åŃ£ éĢī
ç¬¬ä¸Ģ æľŁ
è®¤ çľŁ
åıª éľĢ
æĶ¶ çľĭ
éĽ· æĭī
éĿĴ é¾Ļ
éĿĴ æ¢ħ
çģ« èį¯
æ·± å¤Ħ
å¸ķ çī¹éĩĮ
æµģè¡Į çļĦ
çĬ¹å¤ª æķĻ
å¤§è§Ħæ¨¡ çļĦ
- ï¼ī
H T
n ie
å¤§ åĪĨ
çĶ¨ è¯Ń
ä¸ī åįģä¸Ģå¹´
å¸ĥ æŀĹ
æĶ¹ ä»¥
ç¬¬ä¸Ģ ç§į
çĵ¦ å°¼
åĤ Ģ
åĲĪä½ľ ä¼Ļä¼´
è¾ī çħĮ
èľľ èľĤ
èĤł éģĵ
y an
Ġ è´¾
åĮº è®®ä¼ļ
éģĵ å£«
çº¦ åįł
å¨ ±
ä»İ åīį
éĽĨ èĭ±ç¤¾
å¤Ħ ç½®
åº§ çļĦ
çĶµè§Ĩ å¹¿åĳĬ
åį¢ åį¡æĸ¯
æ¿Ģ æĪĺ
Ð¾Ð ´
æŃ¦è£ħ éĥ¨éĺŁ
ç¦ħ å¸Ī
æ³¢å¤ļé»İ åĲĦ
g en
Ġ 1970
çļĦ è¯ģæį®
ä¸Ĭ ç©º
æį Ĩ
å¨ ł
éŁ³ èĬĤ
ä¸¾ åĬ¨
åĺ Ľ
æ¨¡ èĮĥ
ol o
æĿ¥æºĲ æĺ¯
åºĶè¯¥ æĺ¯
éŀĳ éĿ¼
S i
Ã ±
ê °
å¹´ æ³ķåĽ½
ä¸Ģ ä¸Ń
ï¼ī ãĢĬ
å¤§ èĭ±
åĲİ ä»¥
æĮ ļ
å¤ļ ä»¥
çİ° æľīçļĦ
éĩĳ éĵ¶
æŃ£ åĢ¼
å¸¸ æķ°
13 7
å»¶ å®ī
ç»ĦæĪĲ äºĨ
æµĻæ±Ł å¤§åŃ¦
çŃ¾è®¢ äºĨ
C M
ä¸ĭ å±ŀçļĦ
åı¯ åı¯
å¤ļ ç¦Ħ
è½¦ èº«
at ed
åħ« åį¦
å¡ŀ åħĭæĸ¯
åºķ ä¸ĭ
çĶļ ä¹Ī
ä½ĵèĤ² ä¸Ńå¿ĥ
åĮ¹ åħ¹åł¡
åĮĸçŁ³ åıĳçİ°äºİ
ric t
ict or
æĪ ®
æĹ¥ æĪĲç«ĭ
ä¸į åłª
å¼Ģ åľº
è° ¯
æ¬¡ å¥³
åĽĽ çĻ¾
åį¡ çīĩ
é£ŀ é©¬
æķħäºĭ ä¸Ń
çİ¯å¢ĥ å½±åĵį
æĸ°éĹ» åı°
è§£åĨ³ æĸ¹æ¡Ī
é©¬æģ© çľģ
ä¸ĢçŃī å¥ĸ
ä¿®æŃ£ æ¡Ī
å¹¼åĦ¿ åĽŃ
èĥ°å²Ľ ç´ł
D R
Å ¡
çļĦ åįĬ
å¤§ éĥ½
å¤§ åŀĭçļĦ
å¸Ĥ éģĵ
ä¸ľ åı¯åīįå¾Ģ
å¤ļ åįĬ
è½¦ æīĭ
éĩĳ æ²Ļ
ä¹Ĳ å¤©
åĩ» çł´
å¾Ī åı¯èĥ½
æīĺ åĪ©äºļ
ĠB r
åį´ æ²¡æľī
çŃ¾ åĲį
å°ıæĹ¶ åĨħ
æĺĨ ä»ĳ
åı¸æľº å®¤
å¹¶åıĳ çĹĩ
Ġ åī§æľ¬
å¹´ éķ¿
ä¸º ç¬¬
ä¸į å·²
ä¸į åĮħæĭ¬
æľº èĥ½
æĪĺ åīį
18 57
æĹł èĦĬæ¤İåĬ¨çī©
æĬ¥ åºŁ
ä¾Ŀ éĻĦ
åĸľ çĪ±çļĦ
ĠF ormation
éħ¸ æĢ§
æ¸¡ è½®
Ð½ Ñĭ
æĲ¬ è¿ģèĩ³
æ¨± äºķ
æĸ¯æīĺ åħĭ
å°ıåŃĹ åĲį
çļĦ æ¯Ķ
äºº ä»¥
ä¸į åĴĮ
æ³ķ çĶ²
åħ¨ ç§°
æ°´ çĶŁ
å¤ª åı¤
æ¸¸ çī§
å¥ĩ çļĦ
åĽ½éĻħ ç±³åħ°
èµĽåŃ£ çļĦ
ĠV er
ç¼ĵ åĨ²
é¥¥ èįĴ
O ricon
çļĦ ç²¾ç¥ŀ
å¹´ èĭ±åĽ½
åĽ½ æŃĮ
åıĳ çĹħ
éĩĳ å¥ĸ
å½±åĵį åĬĽçļĦ
ãĢı ãĢĤ
åĳ³ çļĦ
ĠCh ina
åºĶçĶ¨ ç¨ĭåºı
çļĦä¸» åľº
åŃ©åŃĲ ä»¬
ï¼ļ ãĢİ
ä¸į ç¡®å®ļ
æĪĺ èŃ¦
è½¬ ä¸ľåįĹ
æīĵ äºĨ
åıį åĿ¦åħĭ
ä¸»è¦ģ åĪĨå¸ĥäºİ
ä¸½ èĹıæľ¬
ä¹Į åħ°
åį´ ä¸į
åĩºçīĪ çī©
çļĦåĲİ ä»£
çķĻä¸ĭ äºĨ
èĲ¨çĵ¦ çľģ
Ġ èĲ¨
åĴĮ B
èĩª ç«ĭ
åħ¨ æĺİæĺŁèµĽ
ç§° åħ¶ä¸º
æ¹ ³
åıĺ è´¨
æ±ī å§Ĩ
è°ĥ åº¦
å¼ķ çĪĨ
çĶ² åŃĲ
éĻį èĩ³
éĻį çıŃ
èĴĤ å§Ĩ
éĺ¿å°Ķ å¸ĥéĽ·
å¹³åĿĩ æ¯ı
ãģ¡ãĤĥ ãĤĵ
P N
Ġ çĽ¸
Ġ éŁ¦
Ġ æ½ĺ
ä¸º éĿŀ
æĺ¯ æ¬§æ´²
éĻ Ĥ
æ² ħ
äºĮ æľĪåįĩ
ç±³ å¾·
å¸¸ è®¾
å¹¿ éĻµ
æĥħ ä¾£
13 9
å¹² è¾¾
å¼¹ åĮ£
çĸĹ åħ»
ä¸Ńåįİäººæ°ĳåħ±åĴĮåĽ½ æĪĲç«ĭåĲİ
æĬĺ åıł
æī§å¯¼ çļĦ
æĲ¬ è¿ģ
ç´¯è®¡ ç¡®è¯Ĭ
ç±³çļĦ åľ°åĮº
èĤ¾ èĦı
æĪĬ è¾°
åĢ¡ è®®
F L
äºİ ç¬¬
ä¹ĭ æŃ»
å±± ä¸ĺ
çº³ å§Ĩ
âĢĶ ãĢĬ
åľŁ åı¸
å¥½ åĥı
ä¸ĥ äºº
ĠP aul
åĪ¶ä½ľ äºĨ
æłĳ çļĦ
æĳĦ åĥı
ä½ĵèĤ² ä¼ļ
æĦıå¤§åĪ© è¯Ń
æ½® æ±Ĳ
è´Ŀå°Ķ æł¼
åĽ½æ°ĳ éĿ©åĳ½åĨĽ
äººåı£æķ°éĩı ä¸º
ä¸º åīį
æĿ µ
åı¯ ä¸İ
at ive
åħļ æ´¾
èİ± å§Ĩ
åĽ´ å¢Ļ
èĢĥ éĩı
æ°¸ å¹³
os aurus
å½¢æĪĲ ä¸Ģä¸ª
å°ıæĹ¶ çļĦ
è£ģ åĨ³
çļĦé«ĺ çº§
çĸ¾çĹħ çļĦ
ãĥŀ ãĥ³
æĬĳ éĥģ
åı²ä¸Ĭ æľĢ
Ġ æ¯ı
çļĦ é¢Ĩå¯¼
å¤§ å±łæĿĢ
éķ¿ å°¾
å¤ļ åªĴä½ĵ
é¦Ļ èķī
åĲĦ æĸ¹
æī§ çħ§
é¡¶ å°ĸ
å°½ åı¯èĥ½
å±ħä½ı çļĦ
èħ¹ é³į
åĩıå°ĳ äºĨ
åĬ©çĲĨ æķĻç»ĥ
åĤ¬åĮĸ åīĤ
ä¹Įåħ¹åĪ« åħĭ
Ġæĸ°åŁİ åĬ²çĪĨ
è§Ĵèī²æī®æ¼Ķ æ¸¸æĪı
P I
çļĦ ç®¡çĲĨ
åĲİ åĶĲ
æĹ¶ èĩ³
è¾ Ĺ
ä¼ł æİĪ
åħī åº¦
åħ¶ä»ĸ åľ°åĮº
åĽłä¸º åħ¶
æĿ° åĩºçļĦ
å¹´ä»£ åĪĿæľŁ
çļĩå®¶ æµ·åĨĽ
å¿«éĢŁ åħ¬è·¯
å¼Ģè®¾ äºĨ
éĶħ çĤī
n d
× Ļ
çļĦ åĪĽä½ľ
çļĦ è±¡å¾ģ
è´ ±
éĩĮ å¾·
ä»» ä¸º
æī¿ è½½
ro id
æ¤į æłª
å¥Ī å°Ķ
éº» çľģ
å¤§åŃĹ ä¸ĭæľī
éĽħåĲĦ å¸ĥ
æĳ©çº³ åĵ¥
Ġ 22
Ġ ç§¦
å¤§ çł´
åĴĮ å¯¹
æĹ¥ æİ¨åĩº
åŃ¦ å¾Ĵ
éĹ ·
åįĹ æ®µ
æ¡ ¢
18 52
æŀģ åľ°
ç³»ç»Ł åĴĮ
é³ Į
å·²ç»ı æľī
éľĢè¦ģ åľ¨
. ï¼Į
Ġ çĶµå½±
ä¸Ń çİ¯
æĺ¯ èĭıèģĶ
èĥ ª
ä¿ ¨
çĶ± èĭ±åĽ½
å±± ç¾Ĭ
ç©¶ ç«Ł
åıĮ å±Ĥ
è¿ģ éĥ½
è½¨ è·Ŀ
çļĦå¤§ éĩı
å¹½ å·ŀ
è´¿ èµĤ
M ed
S al
çļĦ è¶ħ
çļĦ æĦŁè§ī
éķ¿ ä¸º
åħĭ éļĨ
å·¥ åħµ
ä½Ĩ å½ĵ
æŀĦ æĢĿ
ä»ĸä»¬ è®¤ä¸º
çĵ¦ è§£
çĶ² åįĪ
æīį å¼Ģå§ĭ
åį´ åĽł
ur t
om an
æīĢä»¥ åľ¨
æ°ĳæĹı ä¸»ä¹ī
éŁµ æ¯į
æİł å¤º
æĳ§æ¯ģ äºĨ
èĤ¯å°¼ è¿ª
Ġ äº¬
20 3
ä½į å¤Ħ
å¯¹ å³Ļ
éĺŁ åıĤåĬł
æŃ¤ ä¸º
èī² ç´ł
ä¸ŃåĽ½ äºº
æıĲ æĹ©
çĶ° ç«Ļ
åķĨ è®®
ä¿Ħ åĭĴåĨĪ
ç»Ĩ äºļ
ä½Ľ è¯´
ĠÐ ļ
çł² åħµ
çĦ¦ èĻĳ
å°¼åı¤ æĭīæĸ¯
åĩĨåĨ³èµĽ ä»¥
é²¨ é±¼
F A
w in
ì ĭ
åĨĽ æĶ¿
åįĹ äºļ
ä¸ī æµ¦
èĩª å°½
åı² ä¸¹
éĽĨ èµĦ
å¥¥ åĮĪ
åĦ ¡
å®« åĨħ
æ°¸ åĴĮ
æľĢä½³ å¯¼æ¼Ķ
æ£Ģ è®¨
ç¬¬åįģ äºĶ
çĪĨåıĳ åĲİ
æĨ ©
éº¾ ä¸ĭ
å¥¥å¼Ĺ æ¶ħ
å¦Ĭ å¨ł
Ä ±
Ġ ãĤ¢
çļĦ çİĭ
åĴĮ æµ·
åħ¬ åŃ¦æł¡
ä¸» ç¥Ģ
åĮĹ å¤§
å¤ļ æĿ¡
åİŁ å¸Ĥ
åŁİ ä¸ĭ
åĽĽ æĿ¡
çĽ¸ è·Ŀ
åħ° æĸ¯
ä¹¦ ä¿¡
åį¡ æĸ¯çī¹
æĽ´ å®¹æĺĵ
æłĩ çŃ¾
çĥŃ çļĦ
æłĳ çļ®
åŃĿ å®Ĺ
èĪĴ éĢĤ
ä¸įæķĮ èµĽä¼ļ
æ²¿æµ· çľģä»½
ien ce
F e
R O
Ġ å¨ģå»ī
æĹ¥ éļı
åĩº äºĳ
ä¸ī å®¶
ç¾İ å®¹
æ°ĳ è°£
å¸ĥ åĭĴ
å¸¸ ç»¿
çĹħ åıĺ
åĨĻ ä¸ĭ
å°¤åħ¶ æĺ¯åľ¨
o id
p ress
r ol
çļĦ èµĽäºĭ
å¹´ å»ºç«ĭ
å¯¹ å¥¹
éĢļ èĪª
åŁİ ä¹¡
éĩĳ çĲĥ
åį¡ éĩĮ
åı¤ è£ħ
å¤§åŃ¦ åŃ¦ä¹ł
çĶ° åĮº
å¸Ŀ æ±¶
åħ« è§Ĵ
åĲī æĢĿ
åĻ¨ æĿĲ
è½½ äºº
ä½Ļ ä¸ĭ
èī¾ åĵĪè¿Ī
æĺł å°Ħ
çīĽ èĤī
Ġv s
f ra
Ġ åĲĮ
å¹´ åıĳè¡¨
åĽ £
ãĢģ ãĢĮ
æĹ¶ éļĶ
ä¹Ł éĥ½
æĢ§ åľ°
éĥ¡ åħ¬
å®ģ å¸Ĥ
è½® èĥİ
åĨĪ å±±
çŁ¿ äº§
ä¸¤äºº åľ¨
åĢĴ æķ°
èĴĻåı¤ åĽ½
å¹³åı° ä¸Ĭ
å®´ ä¼ļ
u ff
Ġ 40
å¹´ äºĮæľĪ
ä¸º ä¾ĭ
åľ° æĿ¿
çĶŁ çĲĨåŃ¦
å¹³ éĺ³
å¹¿ ä¸º
åį¡ åĪ©
ĠC ap
è¶³çĲĥ åĳĺ
èµµ åĽ½
éĽª å±±
èĵĿ æĹĹ
ãĥª ãĤ¢
çķľ çī§
âĦĥ ï¼Į
çĦĬ æİ¥
ĠEnter tainment
çĲ ®
è¡¨ æī¬
åī§ ä½ľå®¶
æĮĩ å¼ķ
ĠS ystem
åĵ¥ åĲīæĭī
åĪ¶ä½ľ åħ¬åı¸
ä¾ĭå¦Ĥ åľ¨
çĴ Ł
æĸĲ æµİ
åłª èĲ¨æĸ¯
æ¿ĳ æĪ·
é¦ĸå¸Ń æī§è¡Įå®ĺ
å¤ĸæĺŁ äºº
åĤĢ åĦ¡
Ġ åĽ½å®¶
åľ° ä¸»
ä¸į åģľ
è·¯ è½¨
è¾¾ ç§ĳ
åįķ èº«
åĽŀ åĵį
è®¤ å®ļä¸º
æĬķ èº«
13 2
ç²¾ åĵģ
æĿ° æĺİ
åĨħéĥ¨ çļĦ
çŁ® äºº
å¹´åĩºçīĪ çļĦ
æ¤Ń åľĨ
Jos eph
A v
a us
m on
â ĳ
ä¸İ é«ĺ
çī© ä»¶
å¹³ å¸¸
åı£ çļĦ
åŃĹ ç¬¦
çĸ ®
æ¸ħ æ´Ĺ
åĵĪ ç»´
å¾Ī å¥½çļĦ
å°ģ å»º
å³ ĩ
å¾® åĪĨ
å®ª ç«ł
æĬ¤åį« èĪ°
1 100
M ax
h an
çļĦ è®°å½ķ
åĮº çļĦä¸Ģä¸ª
èĢĮ å°Ĩ
èµĽ éģĵ
ãģ Ĵ
å¹³ å£¤
åħī åŃĲ
æīĵ èĢħ
æ°Ķ çĲĥ
æ¯į åħ¬åı¸
èĲ¨ åĪ©
éº¦ å½ĵ
æľįåĬ¡ åĻ¨
æ²ĥ æĸ¯
æ¦ľ ä¸Ĭ
åĨ· æĪĺ
æ£®æŀĹ ä¸Ń
ãģķ ãĤĮ
èĴ¸ åıĳ
V ID
çļĦ æ¯Ķä¾ĭ
åľ ĥ
æĹ¥ åĩº
è¿Ľ åº¦
çĽ¸ æľĽ
åı² æıĲ
åĲī å¸ĥ
éĽ· éľĨ
åº· æĭīå¾·
é¼ ¬
å®ľ æĺĮ
å¸Ĥåľº çļĦ
if f
ç»ıçĲĨ äºº
è¯¥çľģä»½ä¸ºæ³ķåĽ½ ä¸ľéĥ¨
åĢ¡ å¯¼
.... ..
éĺ¿æĭīæĸ¯ åĬł
åľ¨ åĲĮå¹´
è¢« çĶ¨ä½ľ
ä¸ľ æŃ£æķĻ
å£ ķ
æľº éķ¿
ä½Ĩ ä»įçĦ¶
åŁº çļĦ
æ°Ķ æ°Ľ
æ²Ļ æ²³
ä¹Į æĭīå°Ķ
è½½ å®¢
èĹı ä¼łä½ĽæķĻ
éĶ¦ è¡£
å®īè£ħ äºĨ
ç¨į å¾®
æ¸ł éģĵ
éĻª åĲĮ
çī¹æľĹ æĻ®
éªł éªĳ
K ing
k i
Î ¯
ä¸Ģ éĹ¨
éķ Ĳ
èĢĮ åİ»
å±± éĺ³
å¸ĥ èµĸ
çľģ æĶ¿åºľ
åįİ å±±
åį¡ å¡Ķ
ä»Ĭ å·Ŀ
èĲ¨ éĩĮ
æ±ī å¯Ĩå°Ķé¡¿
éĩĮæĸ¯ æľ¬
ä¸īåĽ½ æ¼Ķä¹ī
S BS
çĶŁ è¿ĺ
ä¸ī ä¸Ģ
éĥ½ çģµ
æį į
èİ· éĢīä¸º
åįķ åľº
éħį åģ¶
åĲ¸ åħ¥
éĢĥ éģ¿
å®ĺæĸ¹ ç½ĳç«Ļ
æĶ¹åĪ¶ å¹¶
å°¼å°Ķ æ£®
åºĦä¸º çķĮ
çĮľ æµĭ
M in
R h
çļĦ æŃĮ
å¹´ å°ģ
ä¸Ģ ä¸ĭ
åħ¥ æĽ¿
åĲĳ åħ¬ä¼Ĺ
çķĮ éĿ¢
çŁ³ åĮĸ
å¸¦ åĬ¨
æ¯ı ç§Ĵ
ä¹ĭåĲİ ä»ĸ
ç´¢ æĸ¯
è°· çī©
åİĭ è¿«
å¼ĢæĶ¾ å¼ı
éī Ħ
çļĦ çº¢
çļĦ æ³ķå¾ĭ
æĹ ·
åľ¨ ä¸ĸ
å¤§ æ³ķå®ĺ
éĢļ åĪ¤
ç½Ĺ ç»´å¥ĩ
èħ »
å®¢ è§Ĥ
æł· åĵģ
åī¯ å°Ĩ
é¹ Ī
ĠP ar
å³ ª
æ²ĥ å¾·
åĨ³èµĽ åĳ¨
åªĴ ä»ĭ
åĿļ å®Ī
éĨĴ æĿ¥
æĤł ä¹ħçļĦ
éĺĲ è¿°
ä» Ħ
æľī åĪ«
åıĳ åħī
åĨħ çī¹
æŁ ¿
è¾¾ åħĭ
å¥ĸ æĿ¯
èĤ² æľīä¸Ģ
ä¼Ĺ çĶŁ
ä½ı å®¿
è¯į åħ¸
æĳ© è¥¿
èı² æĸ¯
æĺł çĶ»
é²į åĭĥ
è¯± æĥĳ
J ul
Ġ é¦Ļ
ä¸Ģ å¤§
çī¹ èī²çļĦ
åı¯ ä½ľä¸º
å»º æŃ¦
å°ı ç±³
æŁ ļ
åİŁ æĺ¯
er i
æŁ¥ çľĭ
åıĳå±ķ æĪĲ
æī¿ åĮħ
ä½Ĳ å¤«
ad io
ie w
æİĮ æİ§
åıĮæīĵ åĨłåĨĽ
Ã¼ r
g ar
çļĦ çĭ¬ç«ĭ
çļĦ èµ·æºĲ
æİ Ģ
æĸ° ä¸ĸçķĮ
æ¬¡ çº§
å¸ĥ åĲķ
å¢ ĺ
æŃ£ æķĻä¼ļ
çŁ³ æ¡¥
å¤Ħ å¤Ħéķ¿
ç¬¬äºĮ å¹´
èĢĥ éªĮ
èīºæľ¯ ä¸İ
éĺ¶ æ¢¯
st r
è¶ħè¿ĩ äºĨ
åįıä¼ļ çļĦ
å¹» å½±
æĴĴ åĵĪæĭī
å¤ĸäº¤ éĥ¨éķ¿
æºĲèĩª äºİ
å¨¶ äºĨ
Ġ ãģĤ
ç» Ľ
åľ¨ è¿ĩåİ»
åĨĽ åĬ¡
å¾· å¡ŀ
å±± å½¢
æĭī èĴĻ
è®¾ ç«Ļ
ç¥ŀ ç¥ĩ
ĠS an
éĿĴ æ£®
14 1
ä¿® éĻ¢
æī¿ è¢Ń
è¿Ľåħ¥ çĽ´è·¯
èŃ¦ æĪĴ
çļĦäºº åĳĺ
éŃı åĽ½
æ®ĭ éħ·
æķħå®« åįļçī©éĻ¢
ĠÐ³ ÑĢÐ¾Ð¼
è´Ŀå¤ļ èĬ¬
Ġ 1950
çļĦ ä»ĸ
çļĦ èĩªçĦ¶
ä¸Ń è§Ĩ
ä¸į å±ŀäºİ
ä¹ĭ æīĭ
å¸Ĥ éĥĬ
é©¬ èµ«
å¹³ åĩ¡
18 47
å¤ª ä¸Ĭ
å¤´ ä¸Ĭ
æīį åįİ
ä½Ľ å¯º
un e
æķħäºĭ ç®Ģä»ĭ
äº¤éĢļ å±Ģ
ç»Łæ²» æĹ¶æľŁ
ord s
åħ¬äº¤ è½¦
çĭĲ çĭ¸
è¥¿èĹı èĩªæ²»åĮº
ä¼ļè®¡ å¸Ī
s q
t or
ä¸º çĶŁ
åĨĽ æł¡
çĶµ ç¦»
è¿Ļ ä½¿
åŁİ å¤ĸ
åĲĦ å·ŀ
äº² è¿ĳ
åıĮ çº¿
å£° è°ĥ
åī¯ æĢ»çĲĨ
éĢĢ åĮĸ
æł¹æį® åľ°
èµĽåŃ£ ç»ĵæĿŁåĲİ
ĠÐ ¼
ĠSt ates
åĪĨéĴŁ çļĦ
è§Ħæ¨¡ æľĢå¤§çļĦ
æľºåĬ¨ æĪĺå£«
çĥ¦ æģ¼
åĢĻè½¦ å®¤
ĠÐ³ÑĢÐ¾Ð¼ Ð°Ð´Ð°
äºİ ä¸ĸ
æ¸ ļ
åįĹ åİ¿
è¿Ľ æ·±
éĩį çĶ¨
å±ŀ çļĦä¸Ģç§į
å¸¸ å·ŀ
ä¼ł éģĵ
å¸Ī çĶŁ
åĸľ é©¬æĭīéĽħ
ç»Ŀ æľĽ
æ³ī æ°´
éĴ± å¸ģ
æķĻåłĤ çļĦ
ç¬¬åįģ åħŃ
è¿Ŀ æ³ķ
è¾£ æ¤Ĵ
èī° éļ¾
éĩĳåŃĹ å¡Ķ
åĮ Ŀ
äºĨ è¿Ļä¸ª
åľ° åĿĹ
çĶ± åİŁ
è½¦ æ¬¡
æľŁ å¾ĴåĪĳ
ä¸ĩ æĪ·
çĻ½ å®«
çº³ çī¹
13 1
ä¾Ľ æ°´
é¹ Ĭ
éĻį è§£
æłĳ æŀĿ
Ð¸ ÑĤ
ä¿ĺ èİ·
å¹´ä¸Ĭæĺł çļĦ
è¡Ļ éĹ¨
åĳķ åĲĲ
ä¼ļ éĢłæĪĲ
è¥¿ åį¡
åĪĨ éĻ¢
åĲĪ æł¼
åħ¨ æĹ¥æľ¬
åŁİå¸Ĥ è§ĦåĪĴ
å»ºç«ĭ ä¸Ģä¸ª
èĴ¸ é¦ı
åĬ¨è½¦ç»Ħ åĪĹè½¦
æľºç»Ħ äººåĳĺ
å¹´ æĽ¾
ä¸º çĽ®æłĩ
å¤ļ çī¹
æµ· è±ļ
é©¬ éŀį
äº§ åĢ¼
æĶ¯ éĤ£
çĳ Ħ
es ter
ç¬¬äºĮ éĺ¶æ®µ
å£° èªī
å¯Į åħ°åħĭæŀĹ
äººåı£ æľī
å·¥ç¨ĭ äºİ
çªģ èµ·
un t
åĩ¡ å°Ķ
åĸĢ éº¦éļĨ
æĥ¯ ä¾ĭ
éħ¿ éĢł
ä¸Ģ çķª
ä¸Ĭ åİ»
ä¼ļ ä½¿
èĢĮ è¯¥
æĸĩ äºº
ä»£ è¨Ģäºº
18 44
è¯´ éģĵ
æľ¨ åħ°
éĻį ä¸´
æ²ĥ å¤«
è®¿ è°Ī
æµ® æ¸¸
æµ·æĭĶ é«ĺåº¦
éĻª ä¼´
æĪĲ ç¥ĸ
ç§ĳ çļĦä¸Ģç§į
18 49
æĮĩ åĲĳ
æĥ³ èµ·
å°ģ ä¿¡
æĿ¾ äºķ
åĸľ å¥½
å¼Ĥ æŀĦ
åįļçī©é¦Ĩ çļĦ
ĠÐ Ĳ
éĿĴå¹´ åĽ¢
å±ħä½ı äºİ
åĬŁçİĩ ä¸º
å¿ħè¦ģ çļĦ
è°¨ æħİ
ç½Ĺè®· çľģ
å¤§æ²³ åī§
l et
Ð Ŀ
çļĦ å¥³åŃĲ
ãĢĤ (
ä¸º éŁ©åĽ½
çĲ Ĳ
ä¸Ĭ çıŃ
åĵ ĳ
æ³ķ è¥¿æĸ¯
äºĮ åŃĲ
ä½¿ åı¸
æĢ» é¢Ĩäºĭé¦Ĩ
æīĭ ç¨¿
æ· ŀ
åı¤ æĸ¯
ç¬¬ä¸Ģ æĿ¡
éĢĢ ä½į
æłĳ ä¸Ĭ
ä¾į è¯»
æ·±åľ³ åľ°éĵģ
æĹłè®º æĺ¯
C ent
j i
çļ Ī
çļĦ å½¢çĬ¶
ä¸Ń ä¸İ
åĩ Ľ
20 2
æľĪ æĹ¶
ä¼ļ å½±åĵį
å®¶ å±ħ
æĢ§ æĦŁ
æĺİ åı²
ç±» åĬ¨çī©
åį¡ è¿ª
çº³ æ£®
ä¼Ĭ äºĪ
çĵ ®
am i
æĺ¥ èĬĤ
ä¾Ŀ æ³ķ
çļĦäºº å£«
è®¾æľī ä¸Ģä¸ª
æįķ é±¼
åħ¬æĸ¤ çº§
é¢ĩ æľī
èĭ±åĲīåĪ© æµ·å³¡
K G
v an
çļĦ æĿĥåĪ©
å¹´ éĢĢä¼ĳ
ä¸Ń åĶ¯ä¸Ģ
æľī åı²ä»¥æĿ¥
Â· ãĢĮ
ä¸İ èĭ±åĽ½
æĮ ł
åīį åĪĹ
èĩª å°ı
å·¥ éĥ¨å°ļä¹¦
å®ī å¹³
å®ī æħ°
æ® ¡
in us
åĲĦ ç«Ļ
å¼Ģåıĳ åķĨ
åĪĽåĬŀ äºĨ
å¤ªç©º äºº
è¿Ļä»¶ äºĭ
è¯¥çľģä»½ä¸ºæ³ķåĽ½åĮĹéĥ¨ åĨħéĻĨçľģä»½
H enry
ä¸Ń åľŁ
æĺ¯ å±ŀäºİ
å°Ķ æľ±
åĬł å¾·
å¦ ²
åľº åĿĩ
è¯Ń æĸĩ
åľ£ æĹ¥èĢ³æĽ¼
æĸ½ çĵ¦
éĵģè·¯ è¿Ĳè¾ĵ
èįī æ¡Ī
è´Łè´£ ç®¡çĲĨ
å¥ī çĮ®
è¯¾ é¢ĺ
æıŃ ç¤º
ĠAr t
amp ion
æľĢæľī ä»·åĢ¼
åĮĹæĿ¡ æ°ı
S im
c ess
Ø ª
æĺ¯ ç¬¬
è½¦ è½®
è¯¥ éķĩ
18 46
éĻĪ åĽ½
èĢĥ çĶŁ
èĴĻ åĵ¥
åºķ çĽĺ
æŃ£å¼ı å®£å¸ĥ
éľĢè¦ģ çļĦ
åĨ¬ å¥¥
åı¸èģĮ ä¸Ńåľº
æĺ¯ éĿŀå¸¸
æĹ¥ ç»ĵæĿŁ
ä¹ĭ ä»ĭ
å¦ ³
æīĢ è¿°
æ¬¡ è¦ģ
æ´» åĬĽ
åľĨ é¡¶
èµĦæĸĻ æĿ¥æºĲ
çĩĥ æ°Ķ
æľĢä½İ çļĦ
ä¸ĵçĶ¨ çº¿
oci ety
åŁĥå¾· èĴĻ
éĺ¿åŁº åĿ¦
å¹´ éĿĴ
æĹ¥ åī§
ä¸ª èµĽåŃ£
ä¸ī æ²³
æĸ° çº¦
çĲĥ å½¢
ä¹Ł éĹ¨
ä¹Ł æĹłæ³ķ
è¿Ĳ ç®Ĺ
æŀĹ çļĦ
åİĨ å¹´
æµģ å¤±
ç¦» ä»»
ä¼¦ å·´
å¼ķ èĩ´
åĺ »
éģŃ åĪ°äºĨ
ä¸ªäºº ä¸ĵè¾ĳ
æĺ¯ä¸Ģä¸ª ä½įäºİ
ç©¿ ä¸Ĭ
æ¦ľ é¦ĸ
è¡¨çİ° åĩºèī²
æĤ£ çĹħ
åģ· åģ·
éĥ ¢
æľĪ æľŁéĹ´
æ± ŀ
ç§° åħ¶
è¯¥ å¯º
éĥ½ æĮĩæĮ¥ä½¿
æ±ī æĸĩ
14 8
ä»¤ åħ¶
éĺ² æ²»
éĩįè¦ģ æĢ§
æİ¢ åĳĺ
æ¨ª æī«
æ¸¡ æ²³
éĥ¨éķ¿ ä¼ļè®®
åĸĢ å°Ķ
å¼ĹæľĹ è¥¿æĸ¯
çĵ· åĻ¨
èĹĶ åºĦ
å¼ĹåĲī å°¼äºļ
t y
å¹´ åĨį
ä¸º ä¹ĭ
æĹ¥ æ¸Ĳ
ä¸Ĭ è½¦
åıĳ è¨Ģäºº
åı° è¯į
åº¦ ä¸º
éĩį åĪ¶
è¯¥ å±Ĭ
ä¸¤ å¤©
å¹¿ çĶµ
åĪĻ æĺ¯åľ¨
æ³¢ åĬ¨
æĮģ æľīçļĦ
åıį ä¹ĭ
éļı æĦı
ç§¯ ç´¯
æ¯ĶèµĽ å¼Ģå§ĭåĲİ
ä¼ĺ èī¯
éĴŁ å¥ĸ
æ¢ģ å±±
çī¹åĪ« çļĦ
è·Ł ä»İ
å« Ĥ
èĮĥåĽ´ åĮħæĭ¬
é¼ĵ æ¥¼
St ev
In d
æľ¬ä½ľ çļĦ
ç¯®çĲĥ èģĶèµĽ
eor g
äºĨ å¥¹
ä¸ª éķĩ
è¥¿ å¥¥
æĺİ äº®
ç±³ çī¹
18 5
é¦ĸ å®¶
èº« ä½ĵçļĦ
ç©º å¿ĥ
ĠS aint
åĪ» æĦı
ä¸»æ¼Ķ çļĦ
JR è¥¿æĹ¥æľ¬
é£İæĻ¯ åĮº
ç»ıçºª äºº
M on
S an
h r
ç» ¢
åľ¨ èĭıèģĶ
åĲİ æĶ¹ä¸º
è¥¿ æĸ¯ç§ĳ
é¦ ħ
ä¸ī æľŁ
åħĭ ä¼¦
åĲĮ å±ħ
åīį ç§¦
åĬł è´º
ãĢį Â·
åŁº å±Ĥ
å°± ç®Ĺ
å°ĳ ä¿Ŀ
åľ£ è·¯æĺĵ
el e
æĿ¯ èµĽ
å¿ł å®ŀ
ãĤ¹ ãĥĨ
å¸Ĥåľº ä¸Ĭ
æģĭ æĥħ
åĽ½æ°ĳ è®®ä¼ļ
ä¸įè¶³ ä»¥
åıĳæĺİ äºĨ
åıĭè°Ĭ èµĽ
éĩĩè®¿ æĹ¶
åıĳæĶ¹ å§Ķ
Ġ Â
Ġ æ²³
Ġ åľŁ
çļĦ æĸĩç«ł
äºİ æĹ¥æľ¬
é«ĺ çº¦
å®ī åĵ¥æĭī
èº« åĲİ
13 3
ĠM ont
åıĳçİ° èĩªå·±
æķĪ çĽĬ
çĶŁäº§ æĢ»åĢ¼
æºª åİ¿
éŃı åĨĽ
å¤©ä¸»æķĻ ä¼ļ
ä¼łè¯´ ä¸Ń
äºŃ ä¾¯
å¡« è¡¥
èħ¾ åł¡
çĶ²ç»Ħ èģĶèµĽ
ear ch
èĴ¸æ±½ æľºè½¦
äºı æįŁ
í Ļ
Ġ å¿Ĺ
çļĦ æľĢä½³
åı ¡
ä¸Ń éĵģ
äºİ åħ¶
åı¯ è¿½æº¯èĩ³
çĲĥ æĺŁ
éĵ ¬
ä¹¦ éĿ¢
æİ¥ åħ¥
15 6
èĭı èı²
éĽ· çī¹
çļĩ æĹı
æİĴ åĩº
èĴĻ å¤§
æ¢ħ éĩĮ
èģļ çĦ¦
ri e
åºŁ å¢Ł
é¥® éħĴ
å¿½ è§Ĩ
é¢ĦåĳĬ çīĩ
æİ¥é©³ äº¤éĢļ
Ġ æĻ®
æĪĲ åĽł
ä¸ī ä¸ĩ
ä¹Ł å¯¹
çº¿ ä¸İ
éĹ¨ åīį
åľ£ ä½Ĩå°¼
åĪĺ å¾·åįİ
è¶³çĲĥ åľº
éĻĦ å½ķ
é¢Ħ åħĪ
ç§ĭ åħĥ
å¢ĵ ç¢ĳ
èĮ¶ åı¶
åħ¬åħ± åį«çĶŁ
å¤ļå¹´ çĶŁ
åĿĲèĲ½ åľ¨
åįĥåı¶ åİ¿
çĬĢ çīĽ
éĻĽ ä¸ĭ
u le
Ġ 1976
çļĦ åı¦ä¸Ģ
è® ¶
æĿ¥ å®¾
èĤ ´
éĢī åĿĢ
æ¸¯ å¸ģ
æĹł æľº
å¤Ħ ä»¥
èģĮ æĿĥ
æľª æĪĲå¹´
å¼ķ äºº
æ¥¼ å®ĩ
æľĢåĲİ è¢«
çĶĺ éľ²
è®¢ åįķ
å¸¦é¢Ĩ ä¸ĭ
èĭ· éħ¸
B ç»Ħ
Ê ĥ
çļĦ æĸ¹åĲĳ
ä¸º åĽĽ
åĲĮ ç±»
æ±Ł ä¸ľ
å¾Ģ åįĹ
é£ŀ è½¦
éĻĪ æħ§
ĠB ur
åİĭ åĢĴ
åĿļ ç¡¬
æ³¢æĸ¯ å°¼äºļ
è§Ĥèµı é±¼
ç¼ª å°Ķ
æĻ®æŀĹ æĸ¯é¡¿
S D
å¥³ æİĴ
18 45
åī§ çĥĪ
åıĮ è¾¹
åºĨ éķ¿
ä¼¤ åı£
æĭ¥ æľīä¸Ģ
çļĦåľ° åĲį
æł¼åħ° çī¹
å¥ı è¯·
ä¼Ł å¤§
åĭĥ åħ°
åħ¬äº¤ çº¿è·¯
éķ° åĪĢ
è®¸åı¯ è¯ģ
éĺ¿å°Ķå¸ĥéĽ· å¸Įçī¹
Ġ ä¸ģ
ä¸Ń é£İ
åĴĮ C
ä¸į æŃ»
è½¦ éĹ¨
æķħ åĲį
éŃ Ħ
13 8
é²ģ è¿ħ
æģ© çļĦ
åº· ä¹Ĳ
çľĭ å®Ī
èįī é£ŁæĢ§
éĢĿä¸ĸ åĲİ
æ§ Ľ
ä»¥åīį çļĦ
ä½įäºİæ³ķåĽ½ è¯ºæĽ¼åºķå¤§åĮº
ç»´åħĭ å¤ļ
èĥļ èĥİ
å®īå¤§çķ¥ çľģ
d a
Ġ i
Ġ é½Ĳ
çļĦ è¿ĲåĬ¨
è¯ Ģ
åĲİ æ¢ģ
éĥ¨ æĹı
ç½Ĺ å°¼äºļ
ä½¿ é¦Ĩ
é¦ĸ èĦĳ
ä¹¦ å±Ģ
åĽ¢ åĳĺ
æĴŃ æĬ¥
ĠC re
åŁĥ æĿ¾
èī¾ åĪ©æĸ¯
åģļ å¥½
èĭ¥ æĺ¯
æĪĴ æĮĩ
éĢ¼ è¿ĳ
ĠInstit ute
Ġ èĭıèģĶ
çļĦ ç©ºéĹ´
çļĦ æłĩå¿Ĺ
å¤§ åĶĲ
æĹ¥ æĴŃåĩº
äºļ éĤ£
ä»£ è¨Ģ
çİĭ å®Ĺ
ä¸ļ çķĮ
éĩĳ èĹıå¹¿èĥľå¯ºæľ¬
æľĿ æĶ¿
å®ĥ åı¯ä»¥
æİ¨ ç§»
å¯Į åĲ«
æ¿ ¬
å®¾ å®¢
å¹³æĸ¹ åħ¬å°º
ĠÐ Ĵ
ç³ĸ æŀľ
å¤±è´¥ åĲİ
æ»¨æµ·å¡ŀçº³ çľģ
ä¸Ń åĮ»èį¯
äºĨ åľ¨
åħ¶ ç§įåĬłè¯į
å¹¶ æľĢç»Ī
åı¯ è¡ĮæĢ§
æµ· éĩĮ
ç¥ŀ é¾Ļ
æīĵ åĲ¡
åĪĴ ä¸º
æĬķ è¯ī
åĿĩ è¡¡
æĪ· éĥ¨å°ļä¹¦
å¯Į è±ª
è¿Ī å°Ķ
ä¾¦ æµĭ
æıŃ åıĳ
éļ¶å±ŀ ä¸įåıĺ
å¼łåŃ¦ åıĭ
A p
å®ī è¿ª
ä¼ł æĦŁ
æĪĲä¸º ä¸ŃåĽ½
è½¬ è¥¿åĮĹ
åħĪ ç¥ĸ
ĠS erv
æľª æĽ¾
çģ« å½±
çĻ¾ åĪĨ
è´Ŀ èĴĤ
é¡¿ æ¶ħ
èĢĥ æł¸
è¯Ĺ æĸĩ
ĠSt ar
åĽĽåįģ ä¸īå¹´
Ġb y
righ t
Ġ 23
Ġ çİī
Ġ æĪ´
Ġ çĽĳåĪ¶
å¹´ å¹³åĿĩ
ï¼ī âĢ»
ä¸į ä¾¿
ä¸İ åįĹ
å°Ĩ è¿ĻäºĽ
å¹³ æ»ĳ
çĽ¸ è¯Ĩ
è¾¾ æĭīæĸ¯
å¨ģ åħĭ
èĲ¨ ä¼ı
è¯º äºļ
å®Ŀ èĹı
åģľ äº§
ç½Ĺé©¬ çļĩå¸Ŀ
è¥¿çıŃçīĻ çļĦ
è¯Ńè¨Ģ åŃ¦
ĠÐ ľ
od y
åľ°çĲĨ ä½įç½®
åįģåħŃ åĽ½
Ġ ï¼īï¼Į
ä¸Ģ åĪĨ
æĺ¯ åĬłæĭ¿å¤§
æľī ä»¥ä¸ĭ
äºļ è§Ĩ
æ°´ çĶµç«Ļ
åŁº åĩĨ
èµ· äºĭ
è£ħ ç®±
14 6
æĸ½ å¡Ķçī¹
åı³ åį«éĹ¨
ï¼ģ ï¼Ī
oc al
èļ Ĥ
å¼¦ ä¹Ĳ
ä¼ª éĢł
JR åĽĽåĽ½
æĢİ æł·
èĮī èİī
æĹ¶ å·²
ä¸į åĸľæ¬¢
äºļ è¶³èģĶ
å°Ĩ è¦ģ
åı¤ å°Ķ
åĩ» æºĥ
çº³ ç¨İ
ä¼Ĭ æĸ¯åĿ¦
æĿİ ä¸ĸ
æĿİ åŃĺ
é¦Ļæ¸¯ æĹ¶éĹ´
çŁ¥ äºĭ
æĢĿ è®®
çĶŁæ´» ä¸Ń
om b
åĨ° çĲĥ
åĽŀå¿Ĩ å½ķ
çĶ±è¯¥éģĵè·¯ åĲĳåĮĹ
N E
T e
ì ķ
ì ĺ
çļĦ æııè¿°
çļĦ åĳ½ä»¤
æľ ķ
å¹´ å¤ı
åľ¨ åİŁ
è· ª
åĬł å¤§
é©¬ éĩĮäºļ
åĲĪ èĳĹ
æľŁ è´§
è¯¥ ç³»åĪĹ
æķ° æľĪ
åŃ¦éĻ¢ éĻ¢éķ¿
è´¹ åĪ©
ĠL ife
æ¬§æ´² çļĦ
åĨĪ å¸Ĥ
åĢŁ åĬ©
ä¸ľåįĹ èµ°åĲĳ
è¡Ķ æİ¥
æµ© çī¹
å©Ĩ å©Ĩ
å¤Ń æĬĺ
Viu TV
D i
æľĪ åħī
åľ° åºķ
ä¼ļ ä½¿çĶ¨
å¹¶ è¦ģæ±Ĥ
ä¸ī åĨł
åĬł å¯Ĩ
ç§ĳ çĽ®
çł ·
å£« æ°Ķ
14 3
çĵ¦ åĭĴ
åģĩ åĲį
ç¼© åĩı
å¨ģå»ī æĸ¯
ant a
Ð» Ðµ
eb ook
æĶĢ çĻ»
æĤŁ ç©º
éĺ¿å°Ķåįĳæĸ¯ å¤§åĮº
æ°Ľ åĽ´
ä¸Ńçº§ äººæ°ĳæ³ķéĻ¢
åľ¨ åĲİ
èĭ ³
äºļ çī¹
æµ· åľ°
éĵ ¨
åħ¨ èģĮ
éĥ½ æŁıæŀĹ
èµ· æĿ¥çļĦ
ç»´ äº¬
èĴ ľ
å¼º å£®
14 4
è¨Ģ è¯Ń
åĮĹäº¬ åľ°éĵģ
å¥³åŃĲ åįķæīĵ
ç´« èįĨ
åŃŁ ä¹°
å½ĵä¸Ń åĮħæĭ¬
è´¢æĶ¿ éĥ¨
å¤§çĲĨ å¯º
ĠEn g
ä¸ºé¦ĸ çļĦ
Ð ĳ
Ġ åĪ©
Ġ èĮĥ
èĢ į
çŃ Ŀ
ä¸ľ å¾·
æµ· ä¸Ń
è¿ĩ å¢ĥ
åĪ¶ è®¢
å½ĵ äºĭ
å¤ĸ åĩº
åİ¿ æĶ¿åºľ
ä¿Ŀ æľī
it ter
am er
æľºè½¦ è½¦è¾Ĩ
éĺ´ æĢ§
ç¥Ń åĿĽ
ç¬¬åįģ åħ«
è¯ı ä¹¦
å¦ĸ ç²¾
è£ģåĪ¤ æīĢ
èľ¿èľĴ èĢĮè¡Į
d uction
Ġ æĸ¯
ä¼ İ
æµ· è±¹
æĢ§ æĥħ
é£İ åĬĽ
çĪ± åĽł
åıĪ æĺ¯
åŃĺ æľī
ĠM al
åĿĩ ä»¥
æ±Ĥ å©ļ
åĪĩ æį¢
åŃ© ç«¥
æĥĬ éŃĤ
çļĦä¸» äºº
å¤ºå¾Ĺ åĨłåĨĽ
èŃ¦å¯Ł å±Ģ
ä¸Ń å®Ĺ
ç¬ Ļ
ä¸į ä½ı
ä¸» ç°¿
ä¸ľ æ®µ
æĦ §
éŁ³ æķĪ
æ³¢ éķ¿
è§£ æŀĲ
å¢ŀ å¤§
æĦŁ çŁ¥
åĩ¯ åĪ©
æµ·åĨĽ èĪªç©ºéĺŁ
æ®¿ è¯ķ
å¾½ å®Ĺ
ç´§ éĤ»
æĹģ éģ®
St ar
æµħ äºķ
çī©è´¨ çļĦ
åĸ· æ°Ķ
èĮĦ èĭ³
é«ĺæŀ¶ æ¡¥
éĿĴæµ· çľģ
R C
çļĦ æĪĲåĬŁ
è¡Į èĢħ
åĪ° è®¿
å±± çº¿
æ¯Ķ åħ¶ä»ĸ
çł ¸
åħ¬åı¸ äºİ
è®® å¤§å¤«
æĿİ æĸĩ
è½¬ éĢŁ
åıĸ åĲįä¸º
å¼Ģå§ĭ å¯¹
ĠM ich
çº½ æĸ¯
åĩĢ åľŁ
åĴĸåķ¡ é¦Ĩ
å¤Ħå¥³ ä½ľ
Ġ ä½Ļ
Ġ éħįéŁ³
ä¸Ń åĩºãģĹ
ä¸ī åĪĨä¹ĭä¸Ģ
æľĢ åĸľæ¬¢
æ³ķ ç½Ĺ
ç¥ ī
åĮĸ åĴĮ
ç½Ĺ å¾·éĩĮ
æ¡ §
éĩĳ éĹ¨
å¥³ å©¿
å¤§åŃ¦ æł¡éķ¿
åĸ ĺ
æ³¢ çļĦ
ĠC H
ä¾¿ åľ¨
çļ® è´¨
èŃ¦ åĬ¡
æĺł åĥı
åĸľåī§ çĶµå½±
èĤĿ çĤİ
æ¼Ĥ æµģ
é²¤ é±¼
æĹģéģ® æĻ®
s ter
ï¼ī âĨĴ
éĢ µ
ä¼ļ çĶ¨
æĸĩ çĲĨ
èĩ³ ç¬¬
å°ı å±ĭ
å°Ĩ å¥¹
è§Ĩ ä½ľ
éĶ ļ
å·´ æŀĹ
åı¤ ä»Ĭ
çĿ Ĳ
èĬ± åįī
æ¥ Ķ
æĺ¯ä¸Ģ é¡¹
çĥŃ éĤ£
çĳŀ å°Ķ
æĪ· ç±į
èį¯ å¸Ī
åĨ² åĪº
çīµ è¿ŀ
äºļä¼¯ æĭīç½ķ
o int
çļĦ ä¿¡æģ¯
ä¸Ģ è¡Įäºº
åĩº èµ°
ä¸» ä¿®
åŃĲ ä¸İ
ä¸ĸ åįļ
æķĻ åĮºçļĦ
çŃī éĹ®é¢ĺ
èĭ± åĭĩ
æĹł èī²
ä½įäºİ ä»Ĭ
å¼Ģå§ĭ ä½¿çĶ¨
æĶ¯ è¡Į
æĿ¡ è¯Ħè®º
é»ĳ æ´ŀ
æĳĦ åıĸ
ä½įç½® ä¸º
æįķ æīĭ
ä¸Ļ ç»Ħ
æĹº è§Ĵ
Ġ196 9
é©¬éĩĮ å¥¥
å¼Ģåºľ ä»ªåĲĮä¸īåı¸
S u
å¹´ åĽĽæľĪ
å¤§ æºª
åĲİ çĶ±
è¢« å°ģä¸º
çĶ± ç¾İ
æľĢ ä¸»è¦ģçļĦ
å·´ å°¼
å®ĺ éĤ¸
æĿİ èĩªæĪĲ
åħµ åıĺ
é¦Ļæ¸¯ è¶³çĲĥ
æ¸ħ åįķ
é»Ħ éĹ¨
ä¼¯ åĪ©
çİĽ æĭī
åģļ æĪĲ
åĪĹè½¦ æľįåĬ¡
é¡¶ çº§èģĶèµĽ
çĩ ®
åģĩ å¦Ĥ
å±ŀçļĦ æ¤įçī©
In st
åĽ½åĬ¡éĻ¢ æī¹åĩĨ
èĹ» ç±»
ide o
é©»æīİ åľ¨
çº¢å¤ĸ çº¿
ĠSm ith
Ġ äºļæ´²
çļĦ å¸®åĬ©ä¸ĭ
æľĪ åĴĮ
æ² Į
åĪ° å¤Ħ
åīį ç«¯
åı° ä¸Ĭ
å¡Ķ çº³
æĲ ħ
åį«çĶŁ éĥ¨
é¸£ äºº
ect ion
sk y
F O
åı ®
ä¸Ģ å¿ĥ
åĽ½ åĲĽ
çĽ ¼
äºĨ å¤§éĩı
åħ¬ ä¿¡
åĪĨ éĺŁ
å¼Ģ æĪĺ
æ°´ æµĴ
åľ£ çº¦ç¿°
16 2
16 6
å¨ģ åĪ©
çĶµè§Ĩ çĶµå½±
æĶ» çķ¥
èĥľ åľ°
å®¤ å¤ĸ
çľŁ å®Ĺ
åħ´ åĽ½
èĬĤçĽ® çļĦ
åıįå¯¹ åħļ
éĽĮ éĽĦ
éĤµ æ°ı
æ°Ķè±¡ å±Ģ
ä¸°èĩ£ ç§ĢåĲī
é©¬å°¼ æĭī
è·Ĺ è·ĸ
æĭīæĸĲ å°Ķ
çļĪ ä¾Ŀ
çļĦ å½¢æĪĲ
çļĦ èĥľåĪ©
ä¸Ģ ä½ľ
ï¼ī ï¼ı
æĹ¶ æĽ¾
æĸ° æ½®
æŃ¤ çīĩ
åįķ åŃ£
è§£ æķĳ
è¶ħ èģĶ
åĩł ä¸ªæľĪ
æīĢæľī äºº
çħ§ å°Ħ
æķĳ åĬ©
è¾Ľ éĤ£
æĭĨ è§£
ãģĵ ãģĨ
éĿĻåĨĪ åİ¿
çĻ¾ç§ĳ åħ¨ä¹¦
æļ± ç§°
çĲ¥ çıĢ
æ´ ®
åħ¬ æĺł
æİ ĸ
å·´ æīĺ
æ±Ł åĮº
æĥħ æĻ¯
çĶ· çĶŁ
ur es
éĿ© èģĮ
èĪį å°Ķ
åĲķ å¸ĥ
ist rict
æ¾³éĹ¨ çī¹åĪ«è¡ĮæĶ¿åĮº
åįĹæĺĮ å¸Ĥ
W est
çļĦ åıĳçİ°
æĹ »
å¸Ĥ è¾ĸåĮº
ä¸ľ éģĵ
éĩį çĶŁ
éĩį åĲ¯
åİ¿ éķ¿
æ°´ çĶµ
èµ· åĪ°
ä¹Ŀ åįģ
éĩİ å¿ĥ
åı¯èĥ½ å¯¼èĩ´
å½ĵåľ° æĹ¶éĹ´
æĤ£ ä¸Ĭ
æ»ĳ ç¿Ķ
Ð¾Ð ³
ç¿»è¯ĳ ä¸º
èĢ¶ç¨£ åŁºçĿ£
èĬŃ èĬŃ
å±Ĭåħ¨åĽ½ äººæ°ĳä»£è¡¨å¤§ä¼ļ
å½±è¯Ħäºº åįıä¼ļ
w av
çļĦ ä½İ
å¹´ ç»Ī
åľ¨ ç»ıè¿ĩ
ä¸Ģ è¡Į
ä¸Ģ ç¯ĩ
çĶŁ åĳĺ
åĮĹ è¾¹
çİĭ æĺŁ
å®ī åĮº
é¾Ļ æ³ī
ç¥ŀ å®«
å®ĥ çĶ±
åĵ¥ æĸ¯è¾¾
æĸ½ å¯Ĩçī¹
åİħ éķ¿
æĺ¾ çİ°
çļĦä¸Ģä¸ª ç§į
èŃ¦ åį«
ä½Ĳ ä½Ĳæľ¨
åĬ¨çĶ» çīĩ
æľĢåĪĿ æĺ¯
è£Ĥ ç¼Ŀ
åĬ³åĬ¨ åħļ
ä¸Ĭé¢Į éª¨
d y
åŁ Ĺ
åħ¶ äºİ
å¤© æ²³
èĤ ĺ
çİĭ åħĥ
åı· èĪ°
18 12
æ²» æīĢ
é»Ħ æµ¦
è£ħ æľº
æĬ¥ ç¤¾
çĻ¾ ä½Ļ
ĠT own
æķĳ æĬ¤
åºŁ é»ľ
åħħ çĶµ
åĶ¯ æľī
ä»Ķ åºĦ
ak er
çģ«å±± åı£
çłĤ å²©
ä¸¾è¡ĮçļĦ ä¸ĸçķĮ
åīĬ åĩı
C an
M al
Ã «
ä¸į ä¸ĭ
ä»» ä¸Ĭ
å¹³ æīĭ
èģĶ ä¼ļ
æ°´ åĪĨ
18 15
åİĨ éĻ©
äº² ç¼ĺåħ³ç³»
è°ĥ æİ§
å·± æĸ¹
åĵ¥ ç½Ĺå¾·
éĩĩ çŁ¿
èĴĤ åĨĪ
è´µ äºº
éĢģ åĩº
éĺ¿å°Ķ å¼ĹéĽ·å¾·
ev el
çıĢ æĸ¯
åĲĳåįĹ åįĹ
å®½åº¦ çº¦
å¼ĹåĲī å°¼äºļå·ŀ
æł¼å¥¥å°Ķ æł¼
çļĦ çĬ¶åĨµ
åĲį åŃ¦çĶŁ
ä¸ĭ èĲ½
åīį åį«
åħ¨ åĲį
18 20
å¥ĸ æıĲåĲį
å¤Ħ åĪĨ
ä¹Ŀ æĹ¥
èĪª æ¯į
é¹ Ľ
çīĻ åĵ¥
éĻĦ æľī
ä»ĭ è´¨
èīºæľ¯ ä¸Ńå¿ĥ
ä¹Ļ ä¸ĳ
åĮ¹ éħį
çĤ¸ èį¯
æıĲé«ĺ äºĨ
èľĺèĽĽ äºº
åĨĻçľŁ éĽĨ
äºĨ è¿Ļä¸Ģ
åľ° åľ¨
ä¸ī è·¯
ä¸ī åŀĴ
åħĭ èİīä¸Ŀ
åĽł ä¸İ
åĨħ åįİè¾¾
å¤© é¡º
éĤ ķ
æł¼ å±Ģ
åı² çī¹
18 14
éĢī çĶ¨
éĽĨ è£ħç®±
ç¾İåĽ½ ç©ºåĨĽ
å¾Ģ åĲİ
é¸ ®
å¾Ī é«ĺçļĦ
åĿĩ è¢«
ä¹Į é²ģ
éª¨ æŀ¶
ac ebook
ä¸ºäºĨ è®©
æľĢé«ĺ äººæ°ĳæ³ķéĻ¢
æ¨ª é¡»è´º
åĽ½æ°ĳ åŃ¦æł¡
ĠY ork
æĺ¯ä¸Ģä½į ç¾İåĽ½
U M
çļĦ ç¬¬åĽĽ
ä¸Ģ å¹´çļĦ
æĭ ·
ä¸Ĭ éĻĲ
ä¹ĭ è¯´
å·¥ åĨľ
åİŁ äº§äºİ
ä¸¤ å±Ĭ
éĴ Ĭ
è¯º çĵ¦
æĬĢ èīº
ç»§ èĢĮ
æĽ¼ å°¼
æİĴ åľ¨
ç¡® å®ļçļĦ
çŁŃ çļĦ
èĬĤçĽ® ä¸»æĮģäºº
å¿ħ å®ļ
æķ£ å°Ħ
æŀª åĩ»
Ġç¬¬ åħŃ
èµĲ äºĪ
åĵĪå°Ķ ç§ĳå¤«
Ġ196 1
æ©¡ æłĳ
ĠMus eum
è¿·ä½ł ä¸ĵè¾ĳ
ï¼Į ï¼Į
çļĦ ä¾ĭåŃĲ
å¤§ åŁİå¸Ĥ
æľī ä¸įåĲĮçļĦ
åĴĮ T
ä¹ĭ é¦ĸ
éķ¿ å¾ģ
èİ ª
éĩį å¿ĥ
æĹł å¥Ī
åı¤ æĭī
ç©º ç¼º
å¥¥ æł¼
æĻ® åħ°
åľ£ å¾Ĵ
æĴŃ éŁ³
èĢĥ åħĭ
çĭ¬ åŃ¤
æ¥¼ éĿ¢
å¾ģ ä¼Ĳ
è¿ľ è¿ľ
éĩįè¦ģ ä½ľçĶ¨
ä¹Ķ ä¼Ĭ
éĴ± å¡ĺ
id er
æħĪ ä¾įä¸ĭ
åĸ· çģ«
éĽĨä¸Ń èĲ¥
å¹´æ¬§æ´² åĽ½å®¶æĿ¯
éªĨ é©¼
åĴĮ å¾·åĽ½
åįģ åĽ½
ä½ĵ åĬĽ
10 000
æ²³ ä¸Ĭ
ç»Ł ç§°
æĶ¯ æŁ±
ä¸»è¦ģ åĪĨå¸ĥåľ¨
ä»Ĭ å¹´
åį¢ åį¡
æľīä¸Ģ æ¬¡
ãĥ¼ ãĥ³
æķĮ äººçļĦ
è´º å²ģ
ç° ĩ
ç¥ŀè¯Ŀ ä¸ŃçļĦ
åľ°äºļ åĵ¥
æīŃ æĽ²
ç¦ıå°Ķ æĳ©æĸ¯
æľīåĪ© äºİ
é¡ºä½į è¢«
èĲİ ç¼©
N a
W ii
s ur
Ë Ĳ
Ġ èĸĽ
åħ¶ æ¯į
å¹¶ è¡Į
çĶ± æĿİ
åĽł ä¼¤
æľº åĴĮ
æĪĺ ä¹±
å¤© çĶŁ
ç§į ç±»çļĦ
æ°´ æĸĩ
å¤§åŃ¦ éĻĦå±ŀ
ç¬¬äºĮ æī¹
æĺ¯ä¸Ģ äºĽ
åıĮ åŁİ
ä½Ļ å§ļ
èį¯ çĶ¨
å¾® æ³¢
å¦ĩ äºº
å°ĸ æ²Ļ
æĪĬ æĪĮ
åĢ¼å¾Ĺ ä¸ĢæıĲ
å¦ĵ å¥³
èĴĻå¤§ æĭ¿
e ff
Ġ è¥¿çıŃçīĻ
ä¸Ń æıĲåĪ°
æĹ¥ å¼ĢéĢļ
äºĨ å¾Īå¤ļ
åŃĲ éĩĮ
èĩª æ°ĳåħļ
æķĻ æ´¾
å¤© èµĭ
åı· çĲĥè¡£
åħ¨ éĽĨ
å®ĺ è¯Ŀ
åıĪ ä½ľ
éĿĴ çĿĲ
æĹ© å·Ŀ
è¿ľ æ´ĭ
ĠG o
çĴ Ĳ
å¤ªå¹³ åĨĽ
çĬ¯ è§Ħ
æĹħæ¸¸ æĻ¯çĤ¹
åįĴ å¹´
å¤ĸäº¤ åħ³ç³»
å·´å°Ķ å¹²
æ·Ģ ç²ī
å¤įä»ĩ èĢħ
âĹ ı
éĻĮ çĶŁ
F re
Ġ èĵĿ
å¼ ĳ
å¤§ åĨħ
å¯ Ľ
åľ° å£³
åĲį ä¹ĺå®¢
å¹¶ æĪĲåĬŁ
å¦ ¨
éĵ ī
å¹¿ éĺĶ
æĽ¾ åħĪåĲİ
éķĩ æµ·
å¥¹ ä¹Ł
åŃ£ é£İ
æ¡¥ å¤´
çļĦäºº çĶŁ
åĩºçīĪç¤¾ åĩºçīĪ
å¨ģå£« å¿Į
ãĢĤ ï¼Į
å¹´ çĶŁ
ä¸Ģ åħ±æľī
åħĭ æľĹ
éĵ µ
ç² ²
åŃĹ å¹ķ
è®° äºĭ
æľ¨ ç»ĵæŀĦ
çİĩ éĥ¨
ä¼Ĺ å¤ļçļĦ
åı¶ æŀĹ
åĶĲ å¤ªå®Ĺ
å¼Ĺ å°Ķ
èī¾ å°¼åħĭæĸ¯
åį¢ æĸ¯
åĪĹè½¦ åľ¨
ä¸īåįģ åĽĽå¹´
çº½çº¦ æ´ĭåŁº
åŃ£èĬĤ æĢ§
æ±¤çİĽ æĸ¯
B D
C L
J im
k in
çļĦ æ¬§æ´²
è¾ ķ
å¾· æŀĹ
å¸ĥ éļĨ
åħ¨ å¿ł
ä¹¦ é¦Ĩ
15 3
åŁĥ ç±³å°Ķ
æľ« ä»£
æľīä¸Ģ ä½į
çĽĸ çĳŀ
å¾® ç¬ĳ
å¹¶ä¸Ķ æĺ¯
éģ¿ å¼Ģ
é£ŀæľº çļĦ
çºµ æ¨ª
å®£ä¼ł æ´»åĬ¨
èĴ¸ æ°Ķ
æ¢µ èĴĤåĨĪ
åĽ½éĵģ åĪĨåī²
âħ ¡
Ġ åįļ
Ġ 1960
ä¸İ é©¬
ä¹ĭ å²Ľ
å®¶ æĶ¿
è· ¤
å¼Ģ æĿ¥
å±± åĴĮ
æ¼Ķ è¯´
èģĶ æĴŃ
åı¸ åı¸éķ¿
å·² ä¸į
æĶ¯ åħ¨åŀĴæīĵ
èĪª éģĵ
çľĭ åĪ°äºĨ
åĲĽ çİĭ
éľ² è¥¿
ç§ģ èĲ¥
ĠÐ ¿
æ²Ī éĺ³å¸Ĥ
èĩ³å°ĳ æľī
180 6
èĩªèº« çļĦ
æ»¡æ´² åĽ½
åįıåķĨ ä¼ļè®®
åİĦçĵľ å¤ļå°Ķ
çļĦ çľŁå®ŀ
åľ¨ ä¸įåĲĮ
ä¸Ģ å¤ľ
æĸ° æ¸¯
ãĥ ¦
æĸĩ åįİ
èĪ µ
è¯¥ å¸Ĥéķĩ
åħ³ æĬ¼
è®¡ æĹ¶
åİĨ æĿ¥
ç¦ı å·ŀå¸Ĥ
æĹ© éĢĿ
åĽ½éĻħ è´¸æĺĵ
æķĻèĤ² å±Ģ
ãģ® ãģ¡
åĩºçĶŁ çļĦ
åĲ¯ èĴĻ
æįķ èĻ«
ä¸ľåįĹ æİ¥
çŁ¥è¯Ĩ äº§æĿĥ
æ³¡ æ²«
å°ıå§Ĳ ç«ŀéĢī
ç¾Ł åŁº
è¿Ļå¹ħ çĶ»
åı°é£İèŃ¦æĬ¥ ä¸Ńå¿ĥ
S L
i as
Ġ åı¯
å¹´ è¿Ľè¡Į
ä¸Ģ æ¥¼
ï¼ī /
ä¸Ń æĺ¯
åĴ İ
ä¸İ åıĳå±ķ
ä¹ĭ ä½Ļ
è¡Į äºĭ
åıĳ è§ī
éķ¿ ç¯ĩ
çī¹ åĬ¡
ä¸ī çľģ
åīį ç§°
èĲ ©
æĶ¹ å±ŀ
é£Ł æĿĲ
æķ´ å¤ĩ
ä»£è¡¨ äºĨ
èģĶåĲĪ åı°é£İèŃ¦æĬ¥ä¸Ńå¿ĥ
èĭ±éĽĦ ä¼ł
ç¼ĸå¹´ åı²
n et
Ġ æł¹æį®
æŃ ©
åĪ° ç¾İåĽ½
é¢ ¤
åĲĮ å±ŀ
æĸ° ç¤¾
èģĶ éħĭ
è§Ĩ åĬĽ
ĠS al
es c
åħ¶ä¸Ń ä¹ĭä¸Ģ
èĩ´ æŃ»
éĢļè¿ĩ çļĦ
çªģ åĩºçļĦ
æľºåľº çļĦ
éĤ® æĬ¥
æ¼«çĶ» ä½ľåĵģ
æĮ¯ åĬ¨
åĲĦåľ° çļĦ
çİ°å®ŀ ä¸»ä¹ī
çŁŃæļĤ çļĦ
èµŀåĬ© åķĨ
ç»ĩçĶ° ä¿¡
æ¿Ĵ ä¸´
ç½ķè§ģ çļĦ
6 18
á º
Ġ æ¸©
Ġ æĺ¥
Ġ 1977
æ° ¦
ä¸Ĭ éĥ½
ä»ĸ æľī
èĥ Ħ
è¥¿ ä¹¡
åĨĽ åĮ»
å¸Ĥ åĴĮ
åĲĮ æĥħ
ç»ı è´¸
å°Ĩ ä»ĸä»¬
çº¿ æĿ¡
çĽ´ èĲ½
æ³¢ æ³¢
è½¬ èĩ³
åħ« éĩĮ
æ´Ľ ç»´å¥ĩ
èİ·å¾Ĺ åĨłåĨĽ
åĽłä¸º ä»ĸä»¬
æīį æľī
ç¬¬ä¸ī ä½į
èŃ¦ åĳĺ
èĭ¥ çĳŁ
ra il
èĤ¯ å°¼äºļ
ä¸Ńåįİäººæ°ĳåħ±åĴĮåĽ½ æĶ¿æ²»äººçī©
æķ°éĩı çļĦ
è®°å½ķ äºĨ
èĩ³ä»Ĭ ä»į
è£ħçĶ² å¸Ī
In ternational
Ġ ä¸»
Ġ éŃı
å¹´ åħŃæľĪ
ä¸Ń å¤§
ä»ĸ èĩªå·±
å°Ĩ ä»¥
éĩĳ åº¸
æĪĸ åľ¨
æ¶ ª
æ²³ éĹ´
æıĲ èµ·
æ¸¸ è¯´
è®° å¿µ
åįĥ åħĭ
æī¹ åıĳ
æ²¹ çĶ°
åĶ® ä»·
em a
Ð» Ð°
ug h
ĠUn ited
èģĮä¸ļè¶³çĲĥ åĳĺ
åĲīæĢĿ æ±Ĺ
O l
Ġ ä»»
ä¸Ń çļĦä¸Ģ
æī ¯
ä¸İ ä¸ľ
åĨĽ æ°ĳ
è¿Ľ åĩºåı£
æł¼ å°¼
åı² è¿¹
18 41
âĢĶ ï¼ī
è¿ĳ èĹ¤
éĺ³ æĺİ
åħ« ä¸Ģ
è§Ĥ å¡ĺ
èĹı åľ¨
å¹´ä»£ èµ·
ĠH ot
å»ºè®¾ çļĦ
æļ´ é¾Ļ
è¢ģ ç»į
æĹłçº¿çĶµè§Ĩ ç¿¡ç¿łåı°
è¸¢ çĲĥ
èĲ¨å°Ķçĵ¦ å¤ļ
äºİ ä¸Ģ
æĹ¥ åıĳå¸ĥ
ä¸į ä¸º
çº¿ ç²Ĵ
ç³ ¯
er b
å¹¿ ä¸ºäººçŁ¥
å¾Ī éķ¿
æĭħ å¿§
çĻ¾ èĬ±
ä½ľä¸º ä¸Ģç§į
æĽ¼ åĬª
èĪ° è½½
å®Ŀ ä¸½
å¯Į è´µ
éģĹ æĨ¾
å°¾ éķ¿çº¦
çİ¯å¢ĥ çļĦ
ãĢı ãĢģ
ç©ºéĹ´ ç«Ļ
åħ½ åĮ»
æ®Ĭ èį£
å®ļå±ħ çĤ¹
èĲ½æĪĲ åĲ¯çĶ¨
åĽ½éĵģåĪĨåī² æ°ĳèĲ¥åĮĸ
çļĦ æĿ¥æºĲ
çļĦ æĤ£èĢħ
åĴĮ S
ä¹ĭ åĬĽ
å¸Ĥ å·Ŀ
åħĭ æĭīæĸ¯
éļ į
å£« æ¯Ķäºļ
çĽ¸ å·®
æĪĸ ä»¥ä¸Ĭ
éĴ ı
ç¾İåĽ½ äºº
å¥¥ æģ©
èĬĤ è½¦åİ¢
æ±ī äºº
åħļ ç±į
çĲĨè®º ä¸Ĭ
ell o
ang u
åº·æĸ¯åĿ¦ ä¸ģ
% ï¼īãĢģ
Ġ 1973
åľ° æ®µ
è¢« åıĸæ¶Ī
åįĹ åĶĲ
çī¹ åĪ©
çĶ± çºª
å¾· ä¹Ļ
å®ī æģ¯
ç³» æķĻæİĪ
éĹ¨ ç¥¨
éĴ ¹
åºĶ ä¸º
åıĺ éĩı
ä¸ĵ èĳĹ
æĬ¥ åĪĬ
13 4
æ¡¥ éĿ¢
æ°¸ æĺĮ
å¾·åĽ½ äºº
éª¨ é«ĵ
åı·çº¿ ä¸ĢæľŁå·¥ç¨ĭ
èĤ¯ çī¹
æĭĽ åķĨ
äº¤æµģ çĶµ
å¼¥ è¡¥
Ġ195 2
åĪ· æĸ°
ç¢± æĢ§
å®īæıĲ æŁ¯
åħĭéĩĮæĸ¯æīĺ å¼Ĺ
K i
L am
åĽ½ æ³°
ä¸į ä¸Ģå®ļ
åĲĮ æºĲ
æķĻ æĿĲ
çŃī ä»·
äº¬ å¹¿
è¿ĳ æ±Ł
åıĳå±ķ ä¸º
çªģ åıĳ
æł¸ æŃ¦åĻ¨
èİİ å£«æ¯Ķäºļ
Ġ195 7
è¾¾å°Ķ æĸĩ
åįĩéĻį æľº
w ork
çļĦ æŃ»
åľ¨ ç¬¬äºĮæ¬¡ä¸ĸçķĮå¤§æĪĺ
ä¸İ éĻĪ
å±± éĹ¨
è¶ Ł
åİŁ å®ļäºİ
æĢ» åħ±æľī
åıĪ è¢«ç§°ä¸º
éħį æĸ¹
äººæ°ĳ å§Ķåĳĺ
èİ± åħĭ
åĩĨ è®¸
åıĳå±ķ åĴĮ
ç»Ŀ åľ°
å¤ªå¹³ å¤©åĽ½
æŁ´ çĶ°
åıįå¯¹ æ´¾
è¯Ħè®º åĳĺ
ç»Īäºİ åľ¨
æĥ¨ éĩį
Y O
ç ·
Ġ åĽł
çİ° åĨµ
é»ĳ æµ·
è¡Ĺ ç«Ļ
çĽĳ æĬ¤
è°· æĿĳ
åģļ è¿ĩ
åĤ £
æµ·åĨĽ éĻĨæĪĺéĺŁ
å®ľ è¯ºæĸ¯
é¼ĵ æīĭ
ç¬¬åįģ ä¸ĥ
æłª æ´²
åİŁå§ĭ çļĦ
æ¾Ħ æ¸ħ
çļĦæĥħ èĬĤ
ä¸įæĿ¥ æ¢ħ
c il
çļĦ èµĦæł¼
å¹´ è®¾ç«ĭ
å¼ ĭ
æľī åŃĲ
éķ¿ æĸ¹å½¢
æĭī è¶Ĭ
çİĭ èİ½
éĩĳ çīĽ
å¾Ī ä¹ħ
æĶ¿åºľ åĨĽ
å¥ı é¸£
èĶ µ
çĽĹ é¾Ļ
uk e
æĹ¶åĪ» è¡¨
ĠAward s
èľ¥èĦļ ç±»
éĴ¢çŃĭ æ··åĩĿåľŁ
w ell
Ġ an
çļĦ é¢Ĩåľ°
å¸Ĥ å§Ķ
ä¸ī ä»£
æĸ° å¹´
çŃī è®¾æĸ½
å¹³ åľ°
çĽ¸ äº¤
èµ· å±ħ
æŀģ é«ĺ
è¾ĸ ä¸ĭçļĦ
ä»ģ äº²çİĭ
æ¿Ģ åĬ±
ç¾¤å²Ľ çļĦ
æ·® æ²³
ç¨į åĲİ
æ´¾åĩº æīĢ
7 37
M el
è¢« æ·ĺæ±°
æµ· æ·Ģ
è®¾ ä¸º
æ¯Ķ æķ°
èº« ä¸ĬçļĦ
å¢ŀ å¤ļ
åĪĩ æĸ¯çī¹
èĵĿ è°ĥ
ä¾¯ æĻ¯
è¾Ľ è¾ĽéĤ£
ç§ģ ä¸ĭ
à¸ Ļ
çķª ç¦º
ãĤ¯ ãĥª
æĲ¬ åĪ°äºĨ
è®°èĢħ ä¼ļ
è´ª æ±¡
åģľåĬŀ äºİ
éĻįéĽ¨ éĩı
å©Ĩç½Ĺ æ´²
æľĢæľīä»·åĢ¼ çĲĥåĳĺ
V L
W e
à ¼
çļĦ èº«
äºİ å¤§
åħ¥ ä¼į
å¹³ éĿĻ
æ°´ æ±ł
åħī æ³½
å¥¹ ä¸º
å¨ģ æĸ¯çī¹
åŃĺ æ¬¾
æĬ¤ åĨĽ
çº¢ æµ·
æ¸¸æĪı ä¸ŃçļĦ
ĠB ank
æ°¸ åĺī
èģĮä¸ļ è¶³çĲĥè¿ĲåĬ¨åĳĺ
åĢĴ éĹŃ
æ¢¯ éĺŁ
ç¥ŀç»ı ç³»ç»Ł
å«ģ ç»ĻäºĨ
ä¸Ńå±± è·¯
éĴ¢çĲ´ å®¶
CR H
åħĸ å·ŀ
åį°åľ° å®īäºº
çº¢æ¥¼ æ¢¦
Ð ŀ
á Ł
Ġ é£ŀ
æĺ¯ éĺ¿
æľ¬ èįī
çī¹ åħĭ
èĩ³ æŃ£
å¤© å±±
ç±» ç¾¤
æĽ¾ ä»¥
åĵĪ æĸ¯
çĹħ æŃ»
çª ¥
éĺ² å¤ĩ
èĪ° éĺŁçļĦ
éĵ¶ èī²
ç«ł ç¨ĭ
æĪĺäºī ç»ĵæĿŁåĲİ
st ein
è´º åİ¿
ç¥Ŀ åľ£
Ġst ation
sq mi
Å ĭ
çļĦ æĿ¡ä»¶
æĺ¯ è¥¿
éĩĮ å¤ļ
æĸĩ åħ¬
ç³ ¸
æĺİ å·ŀ
æİ¥ åı£
ç¤¾ åĮºçļĦ
ä¼¯ ç½Ĺ
ĠT echn
äºĨä¸Ģ æ®µ
æĿ¿ ä¸Ĭ
éĺ´ èĮİ
åĬŀåħ¬ æ¥¼
éļĭ åĶĲ
çĪµå£« ä¹Ĳ
CO VID
Ð¸Ñ ı
çī¹ç§į éĥ¨éĺŁ
åİļåº¦ çº¦
k h
Ġ 1975
ï¼ »
ï¼ ½
çļĦ æ¼Ķåĳĺ
ä¸º ç«Ļåİħ
æĺ¯ åį°åº¦
æĹ¥ éĢĿä¸ĸ
åĩº åĬ¨
è¥¿ æ®µ
åįĹ éĹ¨
çī¹ çº§
ä¸ī éĿ¢
åħĭ è°¢
äºļ è¿Ĳ
çĲĥ æīĭ
æīĢ çĶ¨
å¸Ī çĪ¶
çĤ¹ çĩĥ
15 1
çłĶç©¶ åĴĮ
å¤į éĻ¤
å¥½ æĦŁ
éĽħ åĬłè¾¾
ĠD ay
ç½² éķ¿
åħ¶åĲİ åľ¨
è·ĳ é©¬
çıį è´µ
ç¡®å®ļ ä¸º
Ġ195 1
çĭĤ çĥŃ
éļĭ çĤĢå¸Ŀ
æŃĮåĶ± å¤§èµĽ
å¾·åħĭ èĲ¨æĸ¯
éĬ ®
çĪ±åĽł æĸ¯åĿ¦
Ð ¶
Ġ é»İ
ä»¥ åĨħ
èĢĮ æĹł
å·ŀ è®®ä¼ļ
åĪ¶ è£ģ
æį £
åįİ å°Ķ
ç»ĵ æĪĲ
ä¿¡ æµĵ
æľª ç§ĳä¼ļè¯ķ
æĤ ĸ
et a
éª¨ æĬĺ
å°ıè¯´ ä¸Ń
äº§åĵģ çļĦ
ãĤ¢ ãĤ¤
æ¶¦ æ»ĳ
G N
H O
L ouis
Ġ éĴ±
Ġ éĵĥæľ¨
äºº ä¸Ń
åĴĮ åĮĹ
æĹ¥ çĶŁäºİ
ä¹ĭ åĽ½
åħ¶ å¼Ł
å¼Ģ æľº
ï¼Ľ ãĢĬ
æ°Ķ æµģ
é¢Ħ æĬ¥
ĠSt ate
Ġs h
AR S
çłĤ æĭīè¶Ĭ
åĪĨéħį åĪ°
è·¯æĺĵæĸ¯ å®īéĤ£
å¹¿å²Ľ åİ¿
æĭľåįłåºŃ å¸ĿåĽ½
æŃ¦çĶ° ä¿¡
Ã £
å¹´ åįģæľĪ
ä¸Ń å°ı
å¤§ å°ıçļĦ
äºº éģĵ
è¢« çĶ¨æĿ¥
é©¬ èĴĤ
éĥ½ çĶ±
18 43
æŀĹ åŃĲ
å¤§åŃ¦ éĻ¢
è¿ĺ æľª
æĻ® èİ±
é»Ħ æµ·
é»Ħ èī²çļĦ
æ¯ı ä¸ªäºº
è°ĥ åĳ³
å£° ä¹Ĳ
ä¸´ æ²Ĥ
ä¼¤ å¿ĥ
os a
è¿Ļç§į æĥħåĨµ
èİ² å¨ľ
æĥĬ è®¶
åĩºåľº æľºä¼ļ
èŀºæĹĭ æ¡¨
æ¸¸ä¹Ĳ åľº
ç³Ł ç³ķ
Ġ ç»´
Ġ ãĢĲ
ä»¥ éģ¿åħį
ä¸į éĢĤåĲĪ
åįĹ å¹³
æľĢ ä¸Ĭ
éĿ¢ éĥ¨
éĩĳ èİº
å¤ª æ¹ĸ
çĭ ł
15 68
çīĩ åĮº
è¶ħ æĸ°æĺŁ
ĠT HE
éĽĦ é±¼
åĲ¦ å®ļ
à¤ ¾
åĮºéģĵ ä¸Ń
åıĳ è¨Ģ
æĪĺ å¹³
æ°´ äº§
å²Ľ å¸Ĥ
çļĦä¸Ģ éĿ¢
èĲ¥ åĪ©
èĢģ é¹°
ç¾¤ é©¬
åĿĩ åı¯
æĹħ éķ¿
è¯¯ ä¼ļ
é¼» åŃĲ
ç¾½æ¯ĽçĲĥ è¿ĲåĬ¨åĳĺ
åıĤè°ĭ éĥ¨
è¯Ħå®¡ åĽ¢
åĵĨ åķ¦Aæ¢¦
åħ±éĿĴ åĽ¢
Ġ is
Ġ ä¸Ńå¤®
Ġ åĩ¯
ä¸Ģ æĺ¯
ä¸Ģ ä¸ģçĽ®
èĢĮ ä»£ä¹ĭ
å¤ļ çĳĻ
ç»ı æĸĩ
è° Ľ
ç½Ĺ æ£®
éĩĳ é©¬
æ°´ è§£
å°¼ éĩĩ
æĹł éĩı
åı¯ä»¥ çĶ¨æĿ¥
ä¸»è¦ģ è´Łè´£
é»Ħ å¸Ŀ
é¡¹ ç¾½
ä¼¯ å¤ļç¦Ħ
å±ħ å£«
èĲ½ éĢī
è¯ķ çĤ¹
èİ« åĵĪ
è¯» åįĸ
èĪ¬ èĭ¥
å®ª åħµ
åİĿ åºĦ
çĤ¼ éĩĳ
åŁ¼çİī åİ¿
N orth
b or
Ġ 21
çļĦ æľ¨
åĴĮ å¥¹çļĦ
å¹¶ è¿Ľè¡Į
èĩª å®¶
å°Ĩ èĩªå·±
çİĭ ä¸ĸ
å¥³ éĥİ
æ·± è¿ľ
è¿ľ æľŁ
et s
æīĢæľī æĿĥ
åı¦ä¸Ģ åĲį
æŃ¤å¤ĸ è¿ĺæľī
å¹¼ åŃĲ
æ»ļ çŁ³
å¤ļé¡¹ å¼ı
L es
çļĦ åĲĦç§į
ä¸º å®ĺ
èĢĮ ä¸ĭ
é«ĺ å°Ħ
å¤ĸ æı´
èĭ± äº©
ç©º æł¼
å¤ĩ æ³¨
ol ution
ä½İ åİĭ
å¹´ä»£ ä¸º
çŁŃ ç¼º
é»İ åĬł
åºŁ å¸Ŀ
åĪĽå»º äºĨ
æĸ¯åĽ¾ åĬłçī¹
ëı Ļ
åĬłæ³° ç½Ĺå°¼äºļ
D E
ä¸Ń ç»§
è¡Į ç»ı
åĨĽ å£«
ç¾ ģ
éĤ Ŀ
æ°´ è´¨
ä¹Ĳ éĺŁçļĦ
çĻ½ çİī
åľ°åĮº èģĶèµĽ
å®¢ åº§
åħ´ éļĨ
æ¨¡ æł·
åŁĥ åħĭ
æľŁéĹ´ çļĦ
ro t
ä¸¥ èĤĥ
æķĮ æ£ĭ
ä¹ĥ æľ¨
A ç»Ħ
B ob
L ove
ä¸ «
çļĦ èĳĹä½ľ
åľ¨ æĦıå¤§åĪ©
æĺ¯ ç»§
åĴĮ æĶ¿æ²»
ä¸İ æ³ķåĽ½
äºĭ åħĪ
æł¼ æ´Ľ
æ²¡æľī äºº
æĬķ äº§
èĽ Ł
åĨĪ çĶ°
éĵ¶è¡Į çļĦ
ĠÐ ł
è±ª æ£®
æ§ ĺ
æĮĩå¯¼ ä¸ĭ
å¾Ĺç¥¨ çİĩ
M ont
u f
æĺ¯ æ¬¡
äºİ ä¸ŃåĽ½
ä»¥ å¤§
å¹¶ è®¤ä¸º
çī¹ è¾ĳ
åı¯ è°ĵ
éĵ Ĥ
åį¡ èĲ¨
ä¸ĩ ç«ĭæĸ¹ç±³
å¤Ħ åľ¨
åıĪ åĽł
ĠS T
is on
éħį ä»¶
ä»ĸçļĦ ä½ľåĵģ
ä¹ĭåĲİ è¢«
æŀģ å°ĳ
èĪŀ èĢħ
æ¯ģ åĿı
è´ŀ åħĥ
äºĭä¸ļ åįķä½į
å¥ł å®ļäºĨ
åĪĿçº§ ä¸ŃåŃ¦
åįĹåįĹè¥¿ èµ°åĲĳ
å¹³ç«ł äºĭ
Ġ ä¹Ķæ²»
Ġ 1941
çļĦ è¡¨æ¼Ķ
çļĦ çī¹æ®Ĭ
çļĦ ä¸»é¢ĺæĽ²
ä»ĸ åĩºæ¼Ķ
éĿ ĵ
åİ¿ å¿Ĺ
æ¸¸ è§Ī
ç¬¬ä¸Ģ åı°
å®ĥ ä½įäºİ
çĶµå½± å¥ĸ
å®Į å¥½
éħį ç§į
æľĢä½³ çĶ·ä¸»è§Ĵ
æŁĵ æĸĻ
çĶ³ æĬ¥
ä¼łè¯´ ä¸ŃçļĦ
åģ· è¢Ń
è§Ĥæµĭ åĪ°
èĲĿ åįľ
ä¸¢ å¤±
å¥ıé¸£ æĽ²
A st
D F
M TV
ê ¹
åľ¨ ç½Ĺé©¬
æľī å¤ļç§į
ä»¥ ç¤º
ä¸İ äºº
åħ¶ ä¸İ
åĪĨ æĭĨ
èĢĮ è¿ĻäºĽ
æīĢ äº§çĶŁçļĦ
ç«Ļ ä¸İ
éĥ½ å°Ĩ
äº¦ ä¸į
æİ¨ ä»ĭ
éļĨ èµ·
æłĳ èĦĤ
åİĤ æĪ¿
ãĥ» ãĥ»
æŀ¶ ç©º
äº¤éĢļ éĥ¨
èµĽåŃ£ ä¸Ń
çŁ¿ å±±
éľĩ åĬ¨
ä¸īåįģ ä¸īå¹´
çĥŃå¸¦ ä½İæ°Ķåİĭ
èµĮ åįļ
æµİåįĹ å¸Ĥ
å¹³å®ī æĹ¶ä»£
âĺ ħ
W al
p a
çļĦ èĩªçĶ±
ä¸Ń æī®æ¼Ķ
ä¸Ń åĿľ
åĲİ éĥ¨
åĲİ æŀľ
åŃĲ åĨħ
å¤ļ éĩį
åĲĪ åĬĽ
æ°´ ä¸ĭ
èĭ± ç¾İ
é¦ĸ åľĪ
åĽ¾ æĭī
ç¦» å¿ĥ
æ¥ ŀ
ĠC ont
åĨĻ åŃĹ
æ¸© å¸ĥ
å¿« çļĦ
å°ıæĹ¶ åĲİ
au x
è®· çľģ
åįģåŃĹ åĭĭç«ł
ann el
åĮĸå¦Ĩ åĵģ
g a
s en
Ġ '
åľ¨ æ¸¸æĪıä¸Ń
ä¸Ń æł¡
è´ ²
ä¸Ĭ æĿĳ
åįĹ å®ī
å±ŀ èĤīé£ŁæĢ§
æıĲ å°Ķ
é¾Ļ åįİ
æ±Ł åĮĹ
åįķ ä¸ª
æ¨ µ
è§£ è¯»
éĽ· ç¥ŀ
é¢ĺ çĽ®
æĿĢ æİī
çĥŃ éĩı
æİ§åĪ¶ ç³»ç»Ł
èĿ °
è§Ħæ¨¡ çļĦ
èĭ±æĸĩ åĲį
Ġ196 7
åº¶ åŃĲ
ä¸Ńä¹¦ çľģ
æµ·åĽł éĩĮå¸Į
æĬĴ æĥħ
å·¥ç¨ĭéĻ¢ éĻ¢å£«
é©¸ é©¬
èī¾åĵĪè¿Ī å¾·
çĥŃéĤ£ äºļ
H S
Ã ¸
Ġ éĵģ
Ġ äº¨åĪ©
Ġ 1972
ä¸Ń ä¸ŀ
ä¸ª ç¤¾åĮº
ä¸į åĲ¬
è¢« åĬ¨
èĩª å¼º
å¤© çº¿
ä¸ļ çļĦ
å¤ĸ è²Į
åįİ è§Ĩ
åħĪ ç«¯
çļĦä¸Ģ ä»½
å§Ķåĳĺä¼ļ æĪĲåĳĺ
é©» åįİ
ir c
Ġå¤§ éĺª
åı¸é©¬ æĩ¿
éĺħ è§Ī
ä¹¡è¯ķ ä¸¾äºº
åħĪåıĳ æĬķæīĭ
è´Ŀå°Ķæł¼ èİ±å¾·
æįį åį«
I X
Ġ è°Ń
æĪĲ åĵģ
ä¸Ĭ åı¸
çĶŁ çĹħ
éķ¿ åŃĻ
åĪ© æĸĩ
ãĤ ©
æģ ³
éĩĳ æ£®
å·´ æĸ¯èĴĤ
åŃ£ ä¸Ń
æĿİ å®¶
å·Ŀ åĮº
è¶ħ éŁ³éĢŁ
æĺĵ åĲįä¸º
æī¿ å¾·
æĶ¿æ²» åįıåķĨä¼ļè®®
èĴĤ å®ī
å·²ç»ı æĪĲä¸º
çĤ® åĩ»
ig o
æľīäºº è®¤ä¸º
ç½¢ å·¥
è¤Ĵ è´¬
å¸ĥè¾¾ ä½©æĸ¯
å¾·å¡ŀ å¤«åĭĴ
è¿Ľåħ¥çĽ´è·¯ åĲİ
A merican
Ġ æ±¤
åľ¨ åĬłæĭ¿å¤§
å¤§ åĽ½
äºĶ è§Ĵ
ä¸ĩ çī©
èĦ ĸ
çº³ çĵ¦
ä¼Ĭ æ¯ĶåĪ©äºļ
å¾Ģ åĮĹ
åĨį ä»¥
èľ Ĺ
ç»ıæµİ æĬĢæľ¯
èĭıèģĶ çļĦ
ĠJ r
é½¿ é¾Ļ
çĤ¸ æ¯ģ
åĽ½åĨħ å¤ĸ
è¿Ľä¸ĢæŃ¥ çļĦ
our t
çĪ±æĥħ æķħäºĭ
ä¿®å»º äºĨ
åī©ä½Ļ çļĦ
p H
Ġ å½ķéŁ³
ä¸º åĽ½å®¶
çĶµ ç¼Ĩ
åı· åĪĹè½¦
æĹł ç½ª
å²Ľ æĿĳ
æ¸¸ ç¦»
å¤´ æĿĳ
åį³ ä»Ĭ
å¤± æİ§
ĠB ay
æľĢåĲİ ä»¥
ç²¾ åº¦
èĪ¹ çļĦ
ç¤¾ä¼ļ æ°ĳä¸»åħļ
å½Ĵ éĻĦ
åħ¬åĽŃ åĨħ
ç¿¼ éķ¿çº¦
ĠJ apan
Ġp l
ç¥ŀç»ı åħĥ
å¿ĥçĲĨ åŃ¦å®¶
ãĤħ ãģĨ
é©¬åħĭè¥¿ ç±³
èĬŃèĬŃ æĭī
z h
å¹´ éĩįæĸ°
ä¸º å¥¹
ä¸º çĻ½èī²
åĩº åĲį
åĮĸ çī©
éĩį èĩ£
çŁ³ èĭ±
åĦ¿ æŃĮ
ĠC enter
åıĮ äº²
åįĥ éĩĳ
ol i
æĸ¯çī¹ æĭīæĸ¯
å°¤ æĸĩ
æŃ»äº¡ çļĦ
è¾ŀ å®ĺ
åįİçĽĽé¡¿ å·ŀ
æĳĶ è·¤
éĵ¶æ²³ ç³»
ç¿°æŀĹéĻ¢ ç¼ĸä¿®
ä¹¦æ³ķ å®¶
éķ¿éĩİ åİ¿
A çļĦ
v i
Ġ åıĬ
ä½ľ äºĨ
åı¯ æĢķ
å¹³ æģ¯
ä½Ĩ ä¸İ
è¯¥ è®¡åĪĴ
18 42
åī§ çĽ®
ç¼ĸ ç¨ĭ
ç¬¬ä¸Ģ éĺ¶æ®µ
é¦Ļæ¸¯ ä¸Ńæĸĩå¤§åŃ¦
çĳ ł
çłĶç©¶ ä¸Ń
çłĶç©¶ æľºæŀĦ
çĮ ·
åį« å¤§å°ĨåĨĽ
èĪª ç¨ĭ
22 5
am m
ä½İ çļĦ
ä¼ĺ éĽħ
ãĥ³ ãĤ¹
çĭĦ å¥¥å¤ļ
Ġ196 2
ç»Ĵ æ¯Ľ
Ġ Âł
å¤§ è±¡
ä»ĸ ä¸į
è¡Į éķ¿
æķĻ çłĶ
å®ī èĳ¬
æİ¥ ç»Ń
åĪĻ ä¸İ
å±ķ åĵģ
çģ« çĤ¬
ä»ĸçļĦ æ¯įäº²
å·¦ è¾¹
å®Ŀ åº§
è¡Ģ ç³ĸ
ĠR ev
æĥł å·ŀ
åĪĳ éĥ¨å°ļä¹¦
åĽ½éĺ² éĥ¨éķ¿
Ġ196 8
éĶĻè¯¯ çļĦ
æµ·åįĹ çľģ
åħĪè¿Ľ çļĦ
äºĮæ¬¡ å¤§æĪĺ
é¡¿æ¶ħ èĮ¨åħĭ
M R
ãĢĭ ï¼īï¼Į
è¿Ļ åľºæ¯ĶèµĽ
æīĢ çļĦ
å¸ĥ å®ľè¯ºæĸ¯
èģĶ è½¦
è¯¥ åŁİ
èµ· éĻį
åįİ å¤ı
éĹ¨ äºº
éĹ¨ æĪ·
å½¢ åĪ¶
æĹ¥æľ¬ æĹħå®¢éĵģéģĵ
åıĺ åİĭåĻ¨
æ³¢ éĩĮ
çłĶç©¶ è¡¨æĺİ
é»Ħ çŁ³
éĻĪ å®¶
åĲĮæĹ¶ è¿ĺ
åı³ è¾¹
çļ® äºļ
æľ± åħ¨å¿ł
ä¸ºäºĨ éģ¿åħį
ç£ ¡
éĢļå¸¸ çĶ±
çĶµè§Ĩåī§ éĽĨ
æ¯ģ äºİ
æĸ¯åĿ¦ ç¦ı
åģı åĲĳ
å¼ķåħ¥ äºĨ
H a
M k
Ø Ń
Ġ çİĽ
æľī ä¼ł
æł ¾
åĲİ èĹ¤
ä¸į å®ļ
åı¯ è¿½æº¯åĪ°
è¿Ļ ä¸İ
åĪ© çī¹
çİĭ å®«
ç§ĳ ä¸¾
åŁİ åĮĹ
éĥ½ æĭīæĸ¯
å·´ å¡ŀå°Ķ
èº« çļĦ
èħ Į
èĲ½ äºİ
æ¨¡ åŀĭçļĦ
å½ĵæĹ¶ åľ¨
ç»Ĩ å°ıçļĦ
éģĹ å¿ĺ
çº½ ä¼¦åł¡
çİ°åľ¨ æĺ¯
æĮĩæĮ¥ å®¶
åľ°æĸ¹ çļĦ
å¢Ļ ä¸Ĭ
Ġ195 3
æ®ĸæ°ĳ èĢħ
åĸĻ å®½åº¦çº¦
æ´Ĺæīĭ éĹ´
è·Ĺè·ĸ éķ¿çº¦
A B
åĴĮ åŃĲ
æĭ ¢
âĢ ł
éķ¿ çĶŁ
å¤ļ å¾·
ä¹Ł äºİ
ç«Ļ åľº
èī² è°ĥ
éŁ³ ç¬¦
èĬ± å¼ı
ä»½ é¢Ŀ
éĩİ åħ½
ĠP al
å·¦ å¸ĥæĶ¿ä½¿
åºĹ éĵº
çīĽ ä»Ķ
ri b
è°Ī è®º
æ²ī æ·Ģ
å¼ĢæĶ¾ çļĦ
ç»ıå¸¸ åľ¨
çļĦé¦ĸ éĥ½
ä¼ĺç§Ģ çļĦ
our n
åĸĻ åİļåº¦çº¦
åĽŀåĽ½ åĲİ
ros oft
åĤį æĻļ
M a
åĴĮ åıĳå±ķ
ä¾ Ī
è½¦ åĨħ
ç½Ĺ çļĦ
å¤ª å¤§
èº º
ä¸ĩ å²ģ
åıª åĪĹåĩº
è± Ĭ
ä¼ĺ ç¾İ
ãĥ¼ ãĤ¯
è¿½ èµ¶
åŃĺåľ¨ çĿĢ
è§ī éĨĴ
æ§ ĥ
ä¸Ļ è¾°
çļĦå¤ĸ è§Ĥ
åľ¨ åĮĹç¾İ
âĢ ²
ä½ľ ä¹±
ç¾ §
èĭ Ľ
èĭ± æł¼
é¦Ļ æ§Ł
åĪ« ç§°
è½¬ è¥¿åįĹ
çłĶç©¶ ä¼ļ
ä»Ĭ éĻķè¥¿çľģ
éļı éĺŁ
è¾ĥ å·®
ç´¢ å¤«
æĹħ åĽ¢
éĢģ èĩ³
åģĩ è£ħ
op le
çĮİ æĿĢ
æĬļ é¡º
ĠU p
èĨľ çĤİ
æŃ¦æ±ī å¤§åŃ¦
åį¡æĭī OK
å¾·å·Ŀ å®¶
Ġ è´Ŀ
Ġ ç§ĭ
çļĦ æľįåĬ¡
åĪ ģ
åľ¨ æīĢæľī
ä¸Ĭ åŃ¦
ä¸ī åħĥ
èĩª åĬ©
æĭī åĽ¾
ä¹Ł ä»İ
éĩį äºİ
æ¹ Ħ
æĶ¹ åĬ¨
æĶ¹ çīĪ
ä¹¦ çļĦ
ä¸ĩ å¯¿
åħ¬åı¸ åĴĮ
æ´Ľ å°¼äºļ
èī¾ å¾·
ä»ĭ ä¹İ
æ´»åĬ¨ ä¸Ń
ä¹Ļ éħ°
åį°ç¬¬å®ī çº³
Bl ack
Ġ ×
ä¸ī åıłçºª
æĸ¹ åĿĹ
é«ĺ æ¬¢
åīį ä¸¤
çŃī å¤ļç§į
åİŁ æĿĳ
è¯¥ é¦Ĩ
æł¼ æ´Ľåħĭ
ä¸ĩ åįĥ
åħī è¾ī
å°ĳ å°ī
åį³ ä¾¿
21 4
æ¯ı å¹³æĸ¹åħ¬éĩĮ
ä¹Ŀ ä¸ĸ
ĠP rin
æŃ£å¼ı æĪĲä¸º
æķĳ æµİ
ad o
èµĽäºĭ çļĦ
æ³¨æĦı åĬĽ
åĦĴ å®¶
é¾Ļç§ĳ çļĦ
T ype
Ġ åĲĳ
Ġ 1945
æľĪ ç»ı
åĴĮ ä¸Ģ
è§ Ĳ
ä½ľ åĩºäºĨ
æľĢ ä¼Łå¤§çļĦ
å®ŀ æĹ¶
å¤į æķ°
æºĲ åİ¿
åĶĲ é«ĺå®Ĺ
ĠL ee
èīºæľ¯ èĬĤ
æľĢé«ĺ çĤ¹
é½¿ åħ½
åĮĸåŃ¦ å¼ıä¸º
ç²ī æľ«
æ®ĭ çķĻ
åĲįåįķ ä¸Ń
æĮĳæĪĺ èĢħ
åįĳ è¯Ĺ
æĪĺåľº ä¸Ĭ
åķ¦ åķ¦
å¥¥åĪ© å¼Ĺ
à¥ į
G UNDAM
æľī äºĶ
æĹ¥ ä¸º
çī¹ æĬĢ
äºĮ çļĦ
ãģ ¼
åįİ å·ŀ
éĿĴ èĽĻ
ï¼īãĢģ ãĢĮ
æĸĩåĮĸ è´¢
åģľ çĶ¨
å®¡ æł¸
è¥¿çıŃçīĻ äºº
ç§¦ çļĩ
èĮĥåĽ´ ä¸º
ç¬¦ èħ¾åł¡
Ġv ar
æ°Ķè±¡ åİħ
çĽ´è¾ĸ å¸Ĥ
ä¸ Ĳ
å¹´ åĳ½åĲį
ä½ Ł
è¯ ¹
æľī åĲįçļĦ
åĴĮ ç»ıæµİ
æĪĲ åĲīæĢĿæ±Ĺ
åĲį è§Ĥä¼Ĺ
è¥¿ åŁİåĮº
åĨĽ ç¬¬
ä¸ĭ è½¦
å¼Ģ éĹ¨
è¯¥ ä½ľ
è¯¥ çī©ç§į
èį Ł
æ» Ķ
14 2
äººæ°ĳ å§Ķåĳĺä¼ļ
çĭ¬ è¡Į
æ³° å®ī
æĥ³ è±¡
å¯Į å±±
ä¸ºäºĨ çºªå¿µ
è¯¸ å°Ĩ
åıĳå¸ĥ ä¼ļ
å°ıåŃ¦ é¦Ĩ
åıĳå°Ħ åĻ¨
å¼ĹæľĹ èĮ¨
å¿½ å¿ħ
ä½įäºİè¯¥ åĮº
å°ĸæ²Ļ åĴĢ
G e
ä¸Ģ æĹł
æĺ¯ ä¸ŃåĽ½å¤§éĻĨ
å¤§ åī§éĻ¢
é©¬ è½¦
è¾¾ æĭī
ç¤¾ çļĦ
åı¯ä»¥ è®©
çĻ¾ å®ĺ
ĠB el
éº¦ è¿ª
å°ĨåĨĽ è¡Ķ
å¢ŀåĬł èĩ³
å´ĩ å¾·
åŁĶ éĩĮ
é«ĺä¸Ń çĶŁ
æ¨± æ¡ĥ
æĪĲå°± å¥ĸ
åŃº äºº
G r
u y
ä¸º èĩªå·±
åľ° é©¬æĭī
å¼Ģ åŀ¦
æ¡ ľ
18 35
æ¸¯ å¸Ĥ
åĽ¾ ä¸Ń
åľ°åĮº åĴĮ
åħĪ åľ¨
å²ģ å¼Ģå§ĭ
ĠM ill
æ°¸ åħ´
ĠG r
å²© å±Ĥ
èŀ ¯
æĭĵ å®½
åĳĬè¯ī ä»ĸ
ï¹ Ĳ
ä¹Įåħ¹åĪ« åħĭæĸ¯åĿ¦
éĿĴæ¢ħ ç«¹
åĺ» åĵĪ
è¾Ľè¾ĽéĤ£ æıĲ
Ġ åĬ¨çĶ»
Ġ und
çļĦ è®¸å¤ļ
çļĦ å»ºè®¾
ï¼Ī ãĢĮ
ä¸Ĭ åı°
éķ¿ äºİ
ä¸ľ å®«
èµĽ åľº
èį ¥
èĬ± çĶŁ
ä¸»è¦ģ é£Łçī©
éĽ· å¾·
é£ŀ é¾Ļ
æĺĵ äºİ
æ·± éĢł
ä¸ĢèĪ¬ èĢĮè¨Ģ
åįĹéĥ¨ åĴĮ
ä¸īå¹´ åĲİ
åħ±åĲĮ ä½ĵ
é«ĺçŃī æ³ķéĻ¢
az z
é£ŁæĢ§ ä¸º
åĪĩå°Ķ è¥¿
ä¼łæŁĵ çĹħ
R eg
Ġ ä¸¹
Ġ 1971
çļĦ èĥ½éĩı
åľ¨ ä¸į
åıĳ åħµ
èĢĮ å¾Ĺ
æ³ķ åħ¸
ç© Ĥ
ä¸¤ å¹¿
ä¸ŃåĽ½ åĨħåľ°
ä¿¡ å¿µ
åħŃ äºº
åıĸ èĢĮä»£ä¹ĭ
çª ĸ
æ±Ĥ åŃ¦
ĠP at
æī¿ å»º
ä¼ģ çĶ»
ç¼º å¤±
åĹ ħ
æĬ« éĴĪ
éĽħåħ¸ å¨ľ
itt le
å¥Īèī¯ åİ¿
æľ¬åľ°åĮºåıĳå±ķè¾ĥæĹ©çļĦèģļèĲ½ æľī
éĶ¦è¡£ åį«
åĭĥåħ° çĻ»åł¡
f or
çļĦ çħ§çīĩ
æĹ¶ äºĭ
åĪĨ æµģ
çĶ¨ æ°´
çī¹ æķĪ
ä¸ľ çº¿
è½¦ éªĳ
æĭī ç±³
ç½Ĺ å°Ķ
ä¸¤ åıª
æį ¡
äºĶ éĹ´
åı¤ åĿĳ
ç¿ İ
äº¬ çķ¿
åĳ¨ éģŃ
è½¦ç«Ļ æ¥¼å±Ĥ
æīĺ ç®¡
ä»ģ çĪ±
ä»Ģ ç»´åħĭ
è¡¨éĿ¢ ä¸Ĭ
ç½ĳç«Ļ ä¸Ĭ
Ġ196 3
èİ±èĮµ æ²³
æ¨¡å¼ıç§į æĺ¯
çĶ²å£³ ç±»
å¸ķçī¹éĩĮ åħĭ
å¿½å¿ħ çĥĪ
4 20
Ï Į
Ġ ex
Į Ģ
çļĦ äº§åĵģ
éĢ į
ä¸Ĭ çº§
ä¸» çļĦ
ä¸ľ æ¬§
åı¯ çŁ¥
èĭ± æ³ķ
åį¡ å°¼
15 9
æ³¢ çī¹åħ°
è§£ èĦ±
éĻį æ°´éĩı
ä»į ä»¥
ç²¾ èĩ´
å½Ĵ åĽ½
çĽ®åīį ä¸ºæŃ¢
æļ´ åĬ¨
å®ĥä»¬ æĺ¯
çīł çļĦ
æ¡ĥ çĮ¿
å¥¥åĮĪ å¸ĿåĽ½
Ġ å°¹
å¤§ ä½ĵ
å¿ ı
æľ¬ çĶ°
åĪ¶ ç³ĸ
è®¾ æľīä¸Ģ
æ°ĳ åĬŀ
æ¸¯ å²Ľ
æĮĩ å®ļä¸º
çº³ å¤ļ
è¿ĺ è®¾æľī
åı¯ä»¥ åĪĨä¸º
åĮħæĭ¬ æľī
å¡ŀ æĸ¯
æ²Ļ é¾Ļ
ĠM il
ä½ľåĵģ æľī
å»¶ å¹³
åĽ½æ°ĳ ä¸ŃåŃ¦
ãĥ³ãĥ Ģ
å¿§ éĥģ
åĭĺ æİ¢
éĤº åŁİ
2 18
r act
åĽ½ åºĨ
æĪĲ ä¸Ģä¸ª
æīĢ å»º
ä½Ĩ å¯¹
çĽ¸ çŃī
æŀĹ åľ°
äº¤ è·¯
å®ŀ å°ģ
çŁ³ çĶ°
æĮĩ å®ļçļĦ
å¤´ çĽĶ
å®ĥ äºİ
æ°Ķ åĳ³
èĬ± çµ®
çłĶç©¶ åıĳçİ°
ç»Ī åĪ°
çŃĳ å·¢
æ³ķåĽ½ åĽ½å®¶
çĥŃ åĨħ
æĶ¿æ²» çĶŁæ¶¯
æĸĩåĮĸ éĥ¨
åºĨ åºĶ
ot e
æĻ®éĢļ çļĦ
èĤĥ å®Ĺ
å·¥åķĨ ç®¡çĲĨ
ç ¸
Ġ å¸¸
åŃ Ģ
æĺ¯ ä¹Įåħĭåħ°
åĽ½ å¾½
ä¸İ åĮĹ
ä¸İ å¦»åŃĲ
ä¹ĭ æĹ¥
ä¸ī åĵģ
ãģ ¹
ãģ ĸ
ç§ĳ ä¸īçĶ²
æ¯Ķ çļĦ
çĥ ¨
15 7
åĪĿ æİĪ
ĠS ociety
æĬ¥ ç«ł
åľŁ åŁİ
ĠM ark
è¿ľ èĹ¤
æĭ¥ æĬ±
å¼Ģåıĳ äºĨ
em b
åįıåĬ© ä¸ĭ
çľŁå®ŀ çļĦ
æĭĺ æįķ
æĹ¥åľ¨ç¾İåĽ½ ä¸Ĭæĺł
åıĺéĢŁ ç®±
ä¸Ń éĩİ
äºº æľī
äºº æĢ§
ä¸į å¿ħ
æ³ķ åĴĮ
ä¸ŃåĽ½ ä¸Ńå¤®çĶµè§Ĩåı°
æ¶ Ł
äº¤ éĶĻ
è£ħ è½½
14 9
èĪªç©º åħµ
æĺĮ åİ¿
æĸ°éĹ» èĬĤçĽ®
ut sch
è¥¿åĮĹ ä¾§
Ð¾Ð ¹
ä¸Ģå¸¦ çļĦ
oun cil
åŁĭ ä¼ı
çļĦç¥ŀ ç§ĺ
äºĮæľŁ å·¥ç¨ĭ
ä¿¯ åĨ²
çĬ¹ä»ĸ å·ŀ
å¯ĨèĭıéĩĮ å·ŀ
ä¼ıå°Ķ åĬł
D B
çļĦ è½¨éģĵ
åľ¨ ä¸ľäº¬
ãĢĭ -
è¢« æĭĨéĻ¤
å°ı åĲĥ
è®¾ æĥ³
éĺ¿ çĳŁ
å®ŀ ä¸º
çĶµå½± äºİ
å¥½ å¥ĩ
è¯º çļĦ
ä¾§ å®¤
ç±į è´¯
ç¯ĩ æĸĩç«ł
ig a
æĢĢ ä¿Ħ
æ±ĩ åĲĪ
æľĢåĪĿ çĶ±
æŃ¦è£ħ åĬĽéĩı
Ġ196 6
èĻ¹ æ¡¥
æĪĲçĨŁ çļĦ
åį¡æĸ¯èĴĤ åĪ©äºļ
V V
Ġ è½¦
Ġ èĳĽ
å° Ĥ
æĺ¯ ä½¿çĶ¨
æĹ¥ åħī
ä¼ļ å£«
åħ¶ æłĸæģ¯åľ¨
åįĹ è¶Ĭ
æŀĹ å®¶
ar ch
ä¹ī åĨĽ
æĻ® æľĹ
ç¦» æķ£
èħ ĭ
åħ´ åĮĸ
éĻĦ è®¾
è¯į è¯Ń
éº¦ æĸ¯
åħ±åĴĮåĽ½ çļĦ
è¡¥ éĢī
èĩªçĶ± æ³³
ä¿±ä¹Ĳéĥ¨ çļĦ
å®ĥä»¬ åľ¨
è¾ħ éŁ³
ç¹ģ ä½ĵ
ãĤŃ ãĥ£
çĺŁ çĸ«
ä¾ıç½Ĺ çºª
3 10
g y
çļĦ è´¨éĩı
åį ŀ
ä¸Ģ è¿ŀä¸²
å¤§ åħ¸
åĴĮ D
åĴĮ æĦıå¤§åĪ©
æľ¬ ç¬ĥ
åıĬ å¤§
ä¸ľ æĿĳ
éĩį çİ°
å¸¸ æľī
æ²³ åİ¿
ä¼ł çĲĥ
ç¥ŀ çģµ
èĭı å¾·
èĲ¨ ç±³
is a
åºĦ åŃĲ
é»ĳ å±±
æ¸¸æĪı æľº
è¿ª çº³
çīĮ åŃĲ
èŃ ¬
æĿ¨ å®¶
å¼Ģåıĳ èĢħ
åı¦ä¸Ģ æĶ¯
å°ļä¹¦ ä»¤
å¥¥æĸ¯ æ±Ģ
åĿİ è´Ŀå°Ķ
æĸ°ç«¹ å¸Ĥ
åľ£åľ° çīĻåĵ¥
åĲŀåĲĲ éĩı
v in
ä¸º æķ°
æĺ¯ ä¸Ń
æĹ¥ åıĬ
åī ĥ
çĶŁ æ°Ķ
ä¸į è´¥
æľĢ å¹´è½»çļĦ
åĨħ åľ¨
éĿ¢ ç²ī
18 37
æīĭ å·¥
æĽ¾ èİ·å¾Ĺ
æľĿ åĲĳ
æ³¢ è¥¿
åĲĦ çķĮ
é£Ł åłĤ
è¡Ĺ ä¸Ĭ
çıŃ è½¦
æµĭ ç»ĺ
åĩºçīĪ åķĨ
æĿ¿ çĲĥ
ĠW est
æµ·åĨĽ ä¸Ĭå°Ĩ
ä¼ĳ æĸ¯é¡¿
çĲ´ è°±
æĪĪ éĩĮ
Ã© e
åĴĮ ç®¡çĲĨ
é«ĺ å°Ķ
åħ¨ æĺİæĺŁ
åİŁ ç§°
èĭ± èģĶéĤ¦
å¥¥ å¸ĥ
æĿİ æĸ¯çī¹
ä¸¾ ä¾ĭ
éĺ³ æĺ¥
ĠC D
æĺ¯ä¸Ģ éĹ´
æĬķ å½±
æĻ¯ èī²
åĲĮæĹ¶ æ®µ
åºĵ å°Ķå¾·
åį´ åıĳçİ°
åĨ· éĿĻ
å¹¶ä¸į èĥ½
çī¹å¾ģ æĺ¯
èį£èªī ç§°åı·
æ°ĳä¸» ä¸»ä¹ī
çĺ «çĹ
ãĥ¼ãĥ Ĺ
éķ¶ é»ĦæĹĹ
éħµ æ¯į
çĦļ æ¯ģ
çĺ«çĹ ª
h o
çļĦ é»Ħ
å¹´ åĮĹäº¬
ä¸Ģ è§Ī
æľī å®³
ä¸İ åħ¶å®ĥ
åĮĹ éģĵ
çĽ¸ ç»ĵåĲĪ
ä½įäºİ éŁ©åĽ½
ä¸ĸçķĮ åį«çĶŁ
çĹħ çĲĨ
å¤± åĪĨ
å¤± æķĪ
æĸ½ æ³°åĽł
çħ ľ
æ°¸ å®ģ
é¢Ħ ç§ĳ
ç¤¾ä¼ļ ç§ĳåŃ¦éĻ¢
å°½ å¤´
è®¢ å©ļ
æ½® æµģ
av a
è¯ı ä»¤
è¿¦ å¤ª
èıĬ æ±ł
åºĶå¤©åºľ ä¹¡è¯ķ
W TA
Ġ æ¯Ķ
åĴĮ åĬłæĭ¿å¤§
ä¸Ĭ ä¼ł
ä¸İ ä¸ī
ä¸İ å¥¹
äºļ è¿°
è·¯ åĴĮ
ãĢį ï¼īãĢĤ
ç§° è°ĵ
éħ ¥
18 39
å·´ æł¼è¾¾
åı¤ å¢ĵ
è¿ĳ ä¹İ
åĲĦ æł·çļĦ
ä¼¯ çĪ¶
æĺ¯ä¸Ģ é¦ĸ
ä½³ ç»©
ä»£è¡¨ ä¸ŃåĽ½
æŃ¢ æŃ¥
ä¾¿ å¼Ģå§ĭ
æĻº åĬĽ
è¡į çĶŁçī©
é©¬éĩĮ åħ°å·ŀ
æī©å±ķ åĪ°
æīĢèĳĹ çļĦ
æ·±æ°´ åŁĹ
Ġ éĽª
çļĦ åĮĸåŃ¦
åĲİ å°Ĩ
åĩº ä¸Ģä¸ª
èĢĮ ä½ľ
å·¥ åŃ¦
å·ŀ éģĵ
er d
åĽŀ äºĨ
çĹ Ĵ
åį³ åľ¨
é²ģ èĥ½
åħ´ çĽĽ
è¿ª çĵ¦
äº¿ å¹´åīį
è¿Ļæĺ¯ ä»ĸ
åľ°ä¸ĭ å®¤
è¥¿éĥ¨ åıĬ
éĺ» åĬĽ
åħ¶åĲİ äºİ
åīª æİ¥
R ock
w an
Å «
å¹´ å¹´åºķ
20 6
åľ° è¯´
çĶµ æĬ¥
åıĤ å°Ĩ
å²Ľ æł¹
çĻ½ å±±
éĿŀ çī©è´¨
æ·± æµ·
ä»£è¡¨ æĢ§çļĦ
è´¹ è¿ªåįĹ
ĠL i
è¡ĮæĶ¿ æĢ»è£ģ
æľĢé«ĺ å³°
ĠN e
æĬµ æĮ¡
æĭīæĸ¯ ç»´
æµª è´¹
å¤ĦçĲĨ åĻ¨
S outh
å¼Ģ è½¦
ä¸ĸ ç³»
ç±³ å¤Ħ
æĪĸ è¯ĳ
å¼Ģå§ĭ åīį
åı¯ä»¥ å¾ĹåĪ°
ĠM in
åĶĲ å±±
ç³»åĪĹ ä¸Ń
æľīéĻĲ çļĦ
çĭ¬ç«ĭ åĲİ
å»ī ä»·
å½© ç»ĺ
ĠCh urch
ä»·åĢ¼ è§Ĥ
Ġ196 5
ãĥī ãĥ©
åĲĪä¼Ļ äºº
åħ¬ä¿¡ æ¦ľ
C or
Ù ĩ
æł ĥ
ä»¥ åĲİçļĦ
çī¹ ä¼¦
åĮĸ æĪĲ
æ¯Ķ ä¸º
å°± æĺ¯åľ¨
æ¯ı ä½į
æĽ¼ çļĦ
éŁ³ä¹Ĳ å¥ĸ
åĿ¦ æ¡ĳ
ç»Ŀ å¤§éĥ¨åĪĨ
åĨ· åĨ»
ð« ĸ
æļĳ åģĩ
èĤ¯å¡ĶåŁº å·ŀ
à¼ ĭ
è¯¹ è®¿
R T
n ess
Ã ª
çļĦ çº³
çļĦ åħŃ
æĺ¯ è¿ĩåİ»
æĹ¥ å¹³åĿĩ
æĭ ĩ
éĩĮ å¤«
éģĵ åľº
ä¹Ł åı«
æŃ¤ æĹ¶çļĦ
åĽĽ åºĵ
åħ³ ç¨İ
ä¿Ŀ åħ¨
éļı ä»İ
è°ĥ è½¦
æĸĩåŃ¦ ä½ľåĵģ
è¯¯ ä»¥ä¸º
åĩłä¹İ æīĢæľī
å¿ĹæĦ¿ èĢħ
èł ķ
è¶³çĲĥè¶ħçº§èģĶèµĽ çĲĥéĺŁ
ĠCor por
åįİçº³ åħĦå¼Ł
Ġ çĭ¬ç«ĭ
Ġ ä¸»é¢ĺæĽ²
åĲ ¼
ä¸Ń åĨĽ
ç« ¿
ä¾ ®
æľĢ çĪ±
å¤ļ æĳ©
èĬ ĭ
æ°´ æĹı
éĺ¿ åħ°
18 38
ç±» èį¯çī©
ç©º æīĭ
æĶ¶ åĪ°äºĨ
åıĪ ä¸İ
éĽ· å°Ħ
ä»ĸä»¬ å°Ĩ
æķ´ ç¼ĸ
æĿľ å°Ķ
çĶŁäº§ åķĨ
æĮī éĴ®
ãĤ¤ ãĥ³
çĶŁåĳ½ çļĦ
åħĭæĭī èį·é©¬
é²į å°Ķ
ç§ĺä¹¦ å¤Ħ
è´Ńä¹° äºĨ
èģĺ ä¸º
éĢ¸ å¤«
è°ĭæĿĢ æ¡Ī
è½¿ è½¦
åħ³è¿ŀ é¡¹çĽ®
ë ĭ
çļĦ æĶ¿çŃĸ
ï¼Ī ãĢİ
å¤§ æľ¬
åĴĮ é¦Ļæ¸¯
ç± ½
æ³ķ åĪ¶
è¿Ļ æĺ¯ä¸Ģç§į
è° ª
ä½ĵ å¤ĸ
å®ī çļĦ
åı² èĢĥçī¹
å¤§åŃ¦ æł¡
14 7
åħ¶ä¸Ń æľĢ
æİ¨ å´ĩ
il a
ol it
æľĢåĲİ ä¸Ģä½į
å°½ å¿«
èĳ£ åįĵ
çī§ ç¾Ĭ
åĬŁèĥ½ çļĦ
ç¬¬äºĶ å±Ĭ
å¥Ķ è·ĳ
èĻĶ è¯ļ
çļĦ æķĻèĤ²
å¹´ åħ¨åĽ½
å¸Ĥ äººæ°ĳæĶ¿åºľ
è¯¥ éĵģè·¯
æ°´ çīĽ
éĺ¿ çº³
èµ· æŃ¥
æīĭ åĬ¨
äº¤ è°Ī
ç¬¬äºĮ æľŁ
åįĩ ç©º
el a
æ¥¼ çļĦ
æ°¸ å®ļ
éĽĦ èķĬ
è¡¥ ä½Ĳ
Ġd a
ä¼ı è§ģ
å¤§ä¼ļ ä¸Ĭ
äºļåİĨå±± å¾·ç½Ĺ
æĺ¯åĲ¦ æľī
ä½įäºİæ³ķåĽ½ å¥¥å¼Ĺæ¶ħ
èĬ¯ çīĩ
æ»¥ çĶ¨
èĶĵ å»¶
æľĪ ä¸İ
åĲİ çĩķ
æ³ ĵ
èĭ± çĶ²
åį¡ åĨħ
å®ŀ çļĦ
ä»Ĭ æ²³åĮĹ
åŁŁ åĲį
å´ Ń
çĶº çļĦ
ä»į æĹ§
åĶĲ çº³å¾·
éħĴ åİĤ
èĭıèģĶ è§£ä½ĵ
ä»»åĬ¡ æĺ¯
èµł éĢģ
çĮª èĤī
éĶ¦æłĩèµĽ åĨłåĨĽ
å¯Ħ å®¿
æ¡ĵ åħ¬
Com p
æĲģ ç½®
ê¹ Ģ
å¤§ ä¸¾
åĴĮ æĬĢæľ¯
è¾ »
åĩº æīĭ
åı¯ èİ·å¾Ĺ
æµ· è¾¹
éĢļ å¿Ĺ
åı· åı¬
éĩĳ å¸ģ
é¦ĸ åº§
çŁ³ çªŁ
æŃ¦ çİĭ
ä¼Ĭ æģ©
è½¬ è§Ĵ
åľ£ é©¬
åĲī å·Ŀ
è¯ķ é£ŀ
åģļ åĪ°
éª¨ å¹²
ä¸¥ è°¨
ç«¹ æŀĹ
ä¼ĳ å£«é¡¿
ç»§ç»Ń åľ¨
å¥³åŃĲ åĽ¢ä½ĵ
æģ¶ æĢ§
æĹ¥åľ¨ æĹ¥æľ¬
æ¶² åİĭ
æĬµ æĬ¼
çĸĳ éĹ®
éĿĴå¹´ åĨĽ
ab y
é¸¿ èĥª
çĶµæ°Ķ éĵģéģĵ
az ine
éĻª å®¡
app y
éŁ§ å¸¦
8 50
Ġ el
ãĢĤ âĢ¦âĢ¦
å¤§ ä¹±
æĹ¶ å°±
ä¸į æĪĲ
èĩª ä¿¡
éĩĳ åĨĽ
å½± éŁ³
18 32
èµ· èįī
æĹ¥æľ¬ æĶ¿åºľ
è¶ħ åĩº
åħ´ ä¸ļ
æĻļ æĬ¥
ä¸ĢèĪ¬ æĺ¯
è¾Ľ æĻ®æ£®
æĽ¹ ä¸ķ
æĢ¥ æķĳ
äºļæ´² æĿ¯
è¾ħ æĶ¿
à¸ ±
ak a
ç¢ĳ æĸĩ
æ°ĶåĢĻ åıĺåĮĸ
åıªèĥ½ åľ¨
ç»Ħå»º äºĨ
æ²¦ éĻ·
åĲīç¥¥ çī©
è¿Ħä»Ĭ ä¸ºæŃ¢
Ġ æ¯į
ä¸Ģ åĳĺ
åĴĮ åħ¶å®ĥ
éĥ¨ ä¼Ĺ
æ³ķ çİĭ
æµ· è¿Ĳ
ç«Ļ ç«ĭ
ç±³ æĸ¯
åŃĹ çļĦ
ç¼ĸ è¯ĳ
æīĵ åĢĴ
ç¬¬äºĮ çĶ²
éĽ· æģ©
æĬķ å°Ħ
èİ« æĭī
å·¨ çŁ³
ec ial
å¿ħé¡» è¦ģ
åĶ¯ä¸Ģ ä¸Ģä¸ª
å¤©ä¸»æķĻ å¾Ĵ
Ar ch
æ¼Ĥ äº®
æĶ¹ç»Ħ ä¸º
å¡ŀåĨħ åĬłå°Ķ
Ġ èĢĮ
Ġ äºļåĨĽ
çļĦ åıĳçĶŁ
æĸ Ľ
20 7
æľī å¤§éĩı
çī¹ çº³
é«ĺ èĢĥ
åĬł åĽº
æĪĺ åľ°
æķĻ çľģ
æ¯Ķ ä¸ĺ
æ¡ Ķ
èĬĤ çļĦ
æĮĩ æ´¾
ä¸¾ èįĲ
ĠS ing
ĠS outh
ä¸ĥ æĺŁ
æīį å¾Ĺä»¥
çĨ ı
åĩł åįģ
æľ± æ££
å¾Ĵ å¼Ł
è±Ĩ èħĲ
ĠCount y
åŁĥæĿ¾ çľģ
B ig
ì Ī
Ġ çģ«æĺŁ
çļĦ åķĨä¸ļ
æľī åħ¶
ä»¥ éĺ²æŃ¢
é«ĺ æĸ°æĬĢæľ¯
çĶµ è§£
åĿ į
äºĮ ä¸ª
å¯¹ æİ¥
å¤© å®«
çĻ £
å¤ĸ éĿ¢
æ¯Ķ åĸ»
ä¿Ŀ åħ»
æĺŁ è¾ī
åıĹ çĽĬ
åħ« çĻ¾
å±ħ æīĢ
å¿Ĺ ä¼Ł
æ¹ĸ å·ŀ
è¶Ĭ åīį
åĳĬ çĻ½
æ¾ Ī
æ¢ħ åĪ©
ur y
éĢģ åħ¥
çĶ¨äºİ æ²»çĸĹ
èĨ º
é¢ģ æİĪ
æīİ åħĭ
çİ©å®¶ çļĦ
å®ĹæķĻ ä¿¡ä»°
åĩºåľŁ çļĦ
çĳľ ä¼½
åĸĩ åĺĽ
çİĦæŃ¦ å²©
çĵ¶åŃĲ èįī
N T
åľ¨ ä¸ĭ
å¤§ è¾ħ
æĹ¥ å¤ľ
å°ı åŀĭçļĦ
çŃī åĽ½
ä½Ĩ ä»¥
éĩĳ çļĦ
ä¸¤ é¢Ĺ
æ°´ è·¯
æ³¢ æµª
è½¬ å¾Ģ
çĪ± ä¸ĬäºĨ
åħĪ æĺ¯
å£° åĲį
çĳŀ å¾·
æķĻèĤ² çļĦ
æĻļ é¤Ĳ
æŃĮæĽ² çļĦ
æŃĮæĽ² å¥ĸ
éľį æģ©
åħ¬å¸ĥ çļĦ
ens e
æĺ¯ä¸Ģéĥ¨ äºİ
é¢Ī æ¤İ
åĲĦèĩª çļĦ
æĻļæľŁ çļĦ
And roid
æ¼³ å·ŀ
èĲ¨æĳ© äºļ
ç²ª ä¾¿
åĿ¦æ¡ĳ å°¼äºļ
D M
K ar
u h
ä¸Ń æŀ¢
æĹ¥ æľĪ
åĲİ ä¸»
éĩĮ åĬł
è½¦ ä¸Ĭ
è¯¥ æ¡¥
ä¸¤ æĢ§
ç¥ŀ æ®¿
åĳ½ é¢ĺ
è¿ŀ ç»ľ
16 44
èĬ± çº¹
çĶµå½± åĪ¶çīĩåİĤ
éĻĲ éĩı
åįł æĢ»äººåı£
è¯Ĺ ç»ı
ç½Ĺé©¬ äºº
è¿İ å¨¶
å®īåħ¨ çļĦ
é¹¿ æ¸¯
çĤİ çĹĩ
éĢŁåº¦ ä¸º
å¤ªåŃĲ å¤ªä¿Ŀ
G rand
çļĦ çĶ·äºº
åĬ Ń
å¤§ èĥĨ
åĩ ĭ
åĬ¨ èį¡
åĽł äºİ
ä¹Ł è®©
åº¦ éĩı
ç½Ĺ æĭī
èµ· ä¼ı
å·² æĺ¯
åľŁ åį«
éº Ŀ
å¢ŀ åİĭ
æ³° å¾·
åĶĲ äºº
è¿Ļä¸ª è§Ĵèī²
ĠL ive
çİĽ åĪ©æ¬§
éĥĳ æĪĲåĬŁ
åĩ»è´¥ å¯¹æīĭ
èĤ¡ä»½ åħ¬åı¸
åĽĽåįģ äºĶå¹´
ãĤ¸ ãĤ§
è¡° åıĺ
ç¦ħ å¯º
åĩºåĶ® ç»Ļ
åį¡ç½Ĺ èİ±
ä¸Ńä¹¦ ä»¤
Ed ward
ï¼Īï¼ŁâĢĶ ï¼Łï¼ī
á ¼
èĢ ¦
éĹ ¾
ä¹ĭ æīĢ
æľ¬ çľģ
èĢĮ äºİ
è¿Ļ æĦıåĳ³çĿĢ
åĬł åī§
è½¦ æ¬¡ä¸º
å»º å¾·
åĨħ è®¾æľī
å¥³ çľŁ
å¤ª æŃ¦å¸Ŀ
åıĤ èµŀ
ä¸ĩ ä»½
å®ĺ ç½ĳ
æĪĲä¸º è¯¥
æ³¢ åĪ©æĸ¯
åħ¶ä»ĸ æĶ¿æĿĥ
åĪĨåĪ« çĶ±
åĬ³ æĭī
åľ°æĸ¹ åĪ¶åº¦
çĶļèĩ³ åľ¨
åĪĨéĴŁ åĨħ
ç¥Ń éħĴ
ç¬¬äºĶ åĲį
å¾¡åı² å¤§å¤«
ä¾¦ æŁ¥
ä¸ŃåĽ½äººæ°ĳ æĶ¿æ²»åįıåķĨä¼ļè®®
ä¸ĩåħĥ äººæ°ĳå¸ģ
ä»ĸè¢« ä»»åĳ½ä¸º
åĵ¥ä¼¦æ¯Ķäºļ å¤§åŃ¦
åĵª éĩĮ
æ³Ħ éľ²
ä¸¥æł¼ çļĦ
æĸ¯åĽ¾ å°Ķçī¹
IF A
O ne
çļĦ åľºæĻ¯
ä¸Ń è®°è½½
åĽ½ åĨħçļĦ
ä¸į æ¸ħ
ä¸İ ç¤¾ä¼ļ
å®¶ çĶ¨
èĭ ĵ
æĸĩ åı²
æģ ¬
åĽĽ åįĥ
çº¢ èĬ±
ç½ĳ èĨľ
å»¶ å¯¿
åį¢ åħĭ
ĠF re
å¨ľ å¡Ķ
æĥł åŃĲ
èĤ¯ èī²
åĲĥ æİī
çĶŁäºİ é¦Ļæ¸¯
é¸¡ èĽĭ
åħħæ»¡ äºĨ
ç»ĵè¯Ĩ äºĨ
C BS
åĴĮ éĿŀ
ä»¥ æ±Ĥ
åľ° çĽĺ
åĩº è¡Į
èĥ «
ä¸ľ å¤§
ç¥ ľ
ä¸¤ èĢħçļĦ
èµ· çģ«
éŁ³ åĵį
å®ŀ åľ°
è¿ĳ æµ·
åı¯ä»¥ çĶ±
åı¯ä»¥ éĢīæĭ©
è¶ħ ç§ĳ
éĿĴ å·ŀ
åįĥ ç¦§
am in
ä¹Į é¾Ļ
æ»¡ äºĨ
ä¸´ ç»Ī
éĢı éķľ
çİ¯å¢ĥ ä¸ĭ
id d
åľ°çĲĨ åŃ¦
ç¾İæ´² åİŁä½ıæ°ĳ
ãģŁ ãģĦ
çļĦäºĭ çī©
æĦıä¹ī çļĦ
åºļ æĪĮ
åĵŃ æ³£
è¾ĥä½İ çļĦ
æĺ¯ä¸Ģæ¬¾ çĶ±
å¹´ ä¸īæľĪ
åľ¨ è¥¿çıŃçīĻ
å¹¶ æıĲä¾Ľ
ä¸ī æ±Ł
ä¹Ł éļıä¹ĭ
èĤ ±
å®ī çī¹
æĴ ¼
åı¤ ç±į
å±ķ é¦Ĩ
æĿĢ ä¼¤
æĻ¯ å¸Ŀ
æİĪ è¯¾
ä¸ĸçºª ä¸ŃæľŁ
èµ° ç§ģ
æµ·åĨĽ çļĦ
åĩı ä½İ
æ¸¡ åı£
éĶģ å®ļ
éĽĨä¸Ń äºİ
æ°¢ æ°§åĮĸ
æ¼Ķå¥ı å®¶
ĠRo bert
ried rich
ì Ľ
Ġ 1949
çļĦ æ¯ĶåĪĨ
ä½ ĺ
ä¹ĭ åĳ½
ä¸ī åº¦
æīĢ çĶ¨çļĦ
äº¤ æīĭ
éĽĨ ç¾¤
åŀĭ å®¢è½¦
å®Ĺ çļĦ
ç¬¬äºĮ åľĪ
ĠC al
åıĮ æĸ¹çļĦ
ĠH ol
è®¡åĪĴ ä¸Ń
å¿ł è´¤
éĥ¨éĹ¨ çļĦ
äºĮçŃī å¥ĸ
è¯¬ éĻ·
çļĦ åħ¶ä¸Ńä¸Ģä¸ª
å¹´ ä¿Ħç½Ĺæĸ¯
ä¸Ĭ å±Ĭ
ä¸į æĸĻ
å¹¶ ä½¿çĶ¨
å¹¶ åıĸå¾Ĺ
é«ĺ æ½®
é©¬ ç»į
ç¼ Ļ
éĩį å¤§çļĦ
æĢ§ äº¤
18 21
æĺŁ ç©º
ä»¥åıĬ å¯¹
åħ· ä½ĵçļĦ
ä¹¡ ä¾¯
æŀģ åħ·
æĿ¨ æ¢ħ
ä¸° åİ¿
å¥Ī çī¹
èĩªçĦ¶ èµĦæºĲ
ä¸įä¹ħ ä¹ĭåĲİ
çĲĥä¼ļ çĶŁæ¶¯
åĩī å·ŀ
ä¸Ńä¹¦ èĪįäºº
ãģł ãģĦ
çĸ² åĬ³
åĪĨè¾¨ çİĩ
èļĤ èļģ
7 47
Ð ĵ
Ġ éĺ¿å°Ķ
ä¼ļ è®©
çķ ł
æ°´ ç¨»
18 36
æĺŁ èĪ°
ç¥ŀ ä»Ļ
å¸Ī å¸Īéķ¿
è¿ĺ æľīä¸ĢäºĽ
åĲī éĩİ
äº¦ åį³
å°Ħ æĿĢ
å¯Ĩ å°ģ
å½ĵæĹ¶ ä»ĸ
éĵ¶ å¹ķ
ç²¾ å¯Ĩ
æ³¨ çĽ®
èµµ æ°ı
åĪļ éĵİ
åģı å¥½
ä¼° ç®Ĺ
å®ĺæĸ¹ å®£å¸ĥ
åĲ¸å¼ķ åĬĽ
æľ¬ç§ĳ ä¸ĵä¸ļ
ãĤĦ ãģ¾
æİ· å¼¹
Ġ 1943
åľ¨ è¿Ľè¡Į
ä¸Ń åĮĹéĥ¨
çĶŁ äºĨ
ãĢĭ ï¼īãĢĤ
ä½Ĩ è¿ĻäºĽ
éĢī å®ļ
ç¦» å®¶
çĶµè§Ĩ åħ¬åı¸
ç»Ī ç«¯
çĻ¾ å¤§
åį° æľī
å°Ħ ç®Ń
ç³»ç»Ł äº¤æµģéģĵ
æĬĬ å¥¹
æĸ°éĹ» ç¤¾
æģ¶ é¾Ļ
ç¦ģ å¿Į
ä¸īåįģ ä¸ĥå¹´
ï¼ģ ãĢĭ
ä»Ķ ç»Ĩ
åŁĶ åºĦ
æŀĦæĪĲ äºĨ
æĢ»éĿ¢ç§¯ ä¸º
æĮīå¯Łåı¸ ä½¥äºĭ
éĦĤåĽ¾æĽ¼ å¸ĿåĽ½
åį¡ç½ĹæĿ¥ çº³å·ŀ
ä¼łæĦŁ åĻ¨
G DP
n i
è¾ į
ä¸Ĭ è¯¾
ä¸į åħģè®¸
åħ¶ åĲį
ä¸ī ç»´
å°ı æĿ¾
å°Ĩ å®ĥ
æ¬¡ åºı
åħ¨ å¤©
18 3
åı¤ åħ°
åħī å¤į
æĪĲä¸º ç¾İåĽ½
èĬ± æľµ
åħ« æĹĹ
å¢ŀ å»º
åı°æ¹¾ éħįéŁ³
ä¸ĸçºª åĲİæľŁ
ĠP aris
ä¹ĭéĹ´ æľī
åıĳçĶŁ åĨ²çªģ
çļĦä¸Ģä¸ª åİ¿
è¯Ĺ ä½ľ
th er
æĭįæĳĦ äºİ
ãĢī ãĢĤ
è´º éĥ¡
ab eth
æĸľ åĿ¡
å¡« åħħ
æĬĦ è¢Ń
ç¬ł åİŁ
å¯¡ å¦ĩ
ç· ı
è¤Ĵè´¬ ä¸įä¸Ģ
çļĦ ä¸Ńå¤®
å¹´ åıĸå¾Ĺ
åľ¨ åĲĮ
ä¸º åľ°ä¸ĭ
æŃ Ļ
ä»¥ ç¡®ä¿Ŀ
åĲį æĪĲåĳĺ
åıĬ æĸĩåĮĸ
æĸ° å¢¨è¥¿åĵ¥
äºĮ ä¸ĩ
æŃ¤ æ¸¸æĪı
åı° å±±
çİĭ çĪ·
æ¸¯ æ¹¾
çĶµå½± çīĪ
æ´Ľ ä¼¦
çĶ² æĸĲ
æī§ äºĭ
æł¸ åĩĨ
å¾® åĮĹ
èĵĿ æľ¬
åĿļ åĨ³
æ³Ľ æ»¥
æĺĤ è´µ
æĥĬ å¥ĩ
æĿĲæĸĻ çļĦ
æ´Ĺ è¡£
æĬķåħ¥ è¿ĲèĲ¥
é¸¿ ç«ł
å¤ĸåĽ½ äºº
æĳ©å°Ķ å¤ļçĵ¦
çĵ¦åħ¹ æ²³è°·çľģ
çĪ±ä¹Ĳ ä¹ĲåĽ¢
èĲ¨ä¼ı ä¾Ŀ
a ff
çļĦ å£«åħµ
ä¸Ģ è´¯
20 8
æĭ Ļ
ä¸į æĥľ
å¹¶ è®©
èĢĮ å¯¹
è¿Ļ åľ¨
ä¹Ł åĮħæĭ¬
å¤© å¹³
å¤ĸ è¡ĮæĺŁ
an z
æ¶ ¤
éĹ¨ åºĹ
å§ĭ çļĩ
å¼Ģå§ĭ çļĦ
åħ¶ä¸Ń ä¸Ģä½į
æīĺ æĸ¯åį¡
ä¾Ľ åħ»
éĻį æ°´
äººåı£ çº¦
èĵĿ èī²çļĦ
ç¬¬åįģ ä¹Ŀ
æĺŁæľŁ äºĶ
æľ¬åľ°åĮº å°ļæľī
èĳ¡èĲĦçīĻ è¯Ń
ust ral
åŃķ å¦ĩ
Un ited
å¾·æĦıå¿Ĺ å¸ĿåĽ½
ä¸įè¿ľ å¤Ħ
èĺ ĳ
çļĦ åħĥç´ł
æĺ¯ åĲĮ
èĩ »
åĲİ è¿Ľåħ¥
åĬł è¥¿äºļ
å°ı åĵģ
åı° åºĨ
çİĭ åĨł
æ¬¡ ä¸īæĮ¯
æł¼ åĪĹ
æĢ» ä¹¦è®°
æ¶ ¿
æłĩ æ³¨
çľŁ çĶ°
çĻ» è¿Ľå£«
åĨľ ä½ľçī©
æĹ§ çļĦ
ĠH ist
ä½Ĳ é¢Ĩ
éĩĩçĶ¨ çļĦ
éĢĥ çĶŁ
èĩªçĦ¶ ä¿ĿæĬ¤
æļĹ æģĭ
éĻ· èĲ½
ä¼ı åĩ»
åįıåĬ© çĲĥéĺŁ
âĨ Ĳ
åħ¥éĢī äºĨ
oh ann
å²Ĺ ä½į
ä¿¡åı· åľº
ä½įäºİä¸ŃåĽ½ å¹¿ä¸ľçľģ
åį°ç¬¬å®ī äºº
å®īè¾¾ æĽ¼
Ġæµ·åĨĽ å¤§ä½Ĳ
2 11
Ġ ä¹ī
Ġ ãģĬ
çļĦ äºļ
çļĦ èĤ¡ä»½
åħ¬ åį¿
ä¸ī éĹ¨
è½¦ èĩ£
å¤© ä¿Ŀ
çŃī ç¦»åŃĲ
èģĶ åĲĮ
éĩį æķ´
å£« åįĴ
æĺİ å¾·
åħ³ ç¾½
æĢ» ç¼ĸè¾ĳ
å¤ª è¿ĩ
ä¼Ĭ æľ¬
åıĸ åĩº
æ®µ èĲ½
ä¿® é¥°
å¼ķ ç§į
å¯Į ç¿ģ
éģĹ éª¸
ä¹ĺ åĳĺ
çļĦäºº æķ°
æĿľ é¹ĥ
çĽĬ å·ŀ
ä»»ä½ķ äºº
åĳ¨è¾¹ åľ°åĮº
ä¸ŃåĽ½äººæ°ĳè§£æĶ¾åĨĽ æĢ»
åħĭæŀĹ é¡¿
ä¸ľæµ· éģĵ
æ§Ł åŁİ
M ad
Å į
å¹´ éĢĢå½¹
ä¸Ń çĻ»åľº
äºº åıĬ
åĴĮ å¥¹
æĭ Ĥ
è´ »
åħ¬ çĲĨ
å®ļ åŀĭ
éĥ½ ä¸İ
ä¸Ģä¸ª æĸ°çļĦ
éĺ¿ å¡Ķ
18 4
éĽĨ ä¼ļ
é£İ çļĦ
å°Ħ è¿Ľ
æķ´ æķ°
æ¯ĶèµĽ ç»ĵæŀľ
æŀģ åĬĽ
è½½ ä½ĵ
ç²¾ å¿ĥ
å°¾ èĽĩ
åħĦ å¦¹
ra b
è¥¿çıŃçīĻ è£Ķ
å°Ķæĸ¯ åŁº
æĭįæĳĦ äºĨ
åĳ¼ åĴĮ
è±ª éĹ¨
æ±¤ æĻ®æ£®
èĩªåĬ¨ åĶ®ç¥¨æľº
æĶ¶åħ¥ ä¸Ńä½į
æŁĶ è½¯
çĽ¾ çīĮ
iz ation
å¤§èĩ´ä»¥ è¥¿åĮĹ
çļĦ æ¤įçī©
ä¸Ń æ²¡æľī
å¤§ æĶ¹æŃ£
éģ ı
çĶ± éĻĪ
æ³ķ æĸĩ
å¼Ģ åĩº
äºĮ éĺŁ
æµ· å±±
å¤© åĨħ
å·¥ åĮł
çĽ¸ æĴŀ
é¦ĸ åįķæĽ²
æĶ¹ å°ģ
åı£ åĳ³
åıª åī©
æ¯ı ç»Ħ
è°ĥ åĴĮ
æĹ© é¤Ĳ
ĠB er
ä¸ĢèĪ¬ ä¸º
å°¤ éĩĳ
è´Ŀå°Ķ ç¦ı
ä¿Ĭ æĿ°
Ñģ ÐºÐ°
å°ĸ éĶĲ
å±ķè§Ī é¦Ĩ
åħ¨åı° åľ°æĸ¹åĪ¶åº¦
ä½įäºİè¯¥ ä¹¡
éĩĮçº¦ çĥŃåĨħ
éĿŀçī©è´¨ æĸĩåĮĸéģĹäº§
V II
Ġ ac
çļĦ é£ŀæľº
çļĦ å¨ģèĥģ
å¹´ èĲ½æĪĲ
äºº å®¶
åĴĮ å¯Į
åĪ© ä¹Įæĸ¯
å°ı å±±
åİ¿ åĨħ
ä¹Ĳ é«ĺ
al y
åĪĺ æĺĵ
æİ¨ è®º
è¾ĵ ç»ĻäºĨ
èµŀ èªī
å±ħæ°ĳ åĮº
åįĹäº¬ å¤§åŃ¦
è¿Ĳè¡Į äºİ
è¡¡ éĺ³
IS O
ond on
å¤§åħ¬ åĽ½
çĽĪ åĪ©
å¥ķ è¿ħ
èĪħ èĪħ
èĦĤèĤª éħ¸
åĵ¥çī¹ å¼ı
ë¦ ¬
åħ¨åı°åľ°æĸ¹åĪ¶åº¦ å¤§æĶ¹æŃ£
éĩĮçº¦çĥŃåĨħ åį¢
M or
d om
Ï ī
çļĦ ä¼łè¯´
å¹´ åħ¥
ä¸º åįĹ
åĩ ³
æĹ¥ å¼Ģå·¥
ä¸į ç¬¦åĲĪ
è¥¿ å·Ŀ
æµ· éĿ¢
æīĢ éĥ¨
ä¹Ł ä¸įèĥ½
è¿ĩ éĩı
æµģ æ°´
æĽ´ è¢«
ä¼Ĭ çī¹
è®° å¾Ĺ
åľ£ çģµ
è§£ éĶģ
åĨį äºİ
è¡Ĺ æľº
æ·± æ·±
æĹ¶éĹ´ éĩĮ
è¡¨ç¤º èĩªå·±
ç¬¬åĽĽ ä»£
èĤī è´¨
è´¡ å£«
çĭ± ä¸Ń
å±ķå¼Ģ äºĨ
åħĶ åŃĲ
çĮľ æĥ³
å¤§èĩ´ä»¥ ä¸ľåĮĹ
ĠCorpor ation
G E
Ġ çīĩå°¾æĽ²
çļĦ åŃ¦æł¡
çļĦ æīĢåľ¨åľ°
æľī éĥ¨åĪĨ
æ° ¹
ä¸Ĭ èħº
ä¸ª è¡ĮæĶ¿æĿĳ
å¹¶ åĽłæŃ¤
èĩª åį«
å¯¹ æµģ
åı° åľ°
ç®¡ æ²»
åº§ è½¦ç«Ļ
å¥½ å¥½
çº¢ çīĮ
çĻ¾ åº¦
ä½ı æĮģ
çĥŃ çĥĪ
ä¸¹ ä½Ľ
æĳ© æĭī
åħ¬åĽŃ ç«Ļ
æ·· æ²Į
åĨĽäºĭ è¡ĮåĬ¨
èĭĹ æĹı
æĥ¨ è´¥
æ³Ħ æ¼ı
æĽĻ åħī
éĩĬè¿¦ çīŁ
c k
Ġ åħ¶
Ġ è¢ģ
ï¼ Ŀ
å¤§ æıĲçĲ´
ä½į çĤ¹
ç¾İ åŃ¦
è¦ģ ä¹Ī
æ°ĳ æĦı
å·´ ä¼¦
ç®¡ å®¶
çº³ è¨Ģ
at i
æŃ» åľ¨
è¡Ĺ åĴĮ
æĹ§ åĪ¶
èįī èİĵ
å½Ĵ ä¹¡
äºĨä¸Ģ æĿ¡
è´¢ çī©
å¹ķ åĥļ
åĨįæ¬¡ è¢«
æģĲ æħĮ
èħ¹ éĿ¢
æŁĶ éģĵ
å¤ªç©º èĪ¹
ä»Ĩ äºº
åĳĪçİ° åĩº
æĿĳåĲĪå¹¶ä¸º æĸ°
I U
Ġ 1974
å¹´ åĪĽåĬŀ
æľĪ å®ĮæĪĲ
æĪĲ èĻ«
ä¸» çĤ®
è¢« åĽ°
æĿ¥ æ¸¯
ä½Ĩ ä»ĸçļĦ
ç¼ İ
åŁİ ç«Ļ
åı¤ éģĵ
é£İ åĳ³
çļĦä¸Ģ èĪ¬
èİ± æĽ¼
æīĺ æ´Ľ
è¯ķ åĪ¶
èĪ° ä¸Ĭ
è½½ åħ·
ç²¾ ç»Ĩ
éħĴ äºķ
åģľ æĪĺ
æĺ¥ æĻļ
èĬĤçĽ® ä¸»æĮģ
ĠH er
ĠW indows
äºĭä»¶ åĲİ
åĪ» çĶ»
ĠJ ames
op er
ĠÐ Ł
äº¨ çī¹
éĻ· å®³
ä»² è£ģ
åįĹåĮĹ èµ°åĲĳ
åįµ å·¢
é²į éĩĮæĸ¯
è¿Ŀ è§Ħ
çģĮ ä¸Ľ
ç§ĳç½Ĺæĭīå¤ļ å·ŀ
2 15
M ary
W orld
Ġ ro
çļĦ ä¸»è§Ĵ
çļĦ çī©è´¨
åľ¨ åľº
åľ¨ ä¸¤
æĸ¯ åĭĴ
ä¸Ĭ èİ·å¾Ĺ
ä¹ĭ ç±»çļĦ
åıĳ è½¦
è·¯ åŁº
ç¾İ å¥½
è§Ĩ å¯Ł
æıĲ åĪ°äºĨ
æĶ¾ åĩº
å¼º åĬĽ
é¡¹ æıĲåĲį
è¡ĮæĶ¿ ç®¡çĲĨ
éĽĨåĽ¢ æĹĹä¸ĭ
æĭ¥æľī ä¸Ģä¸ª
éĽ¨ æ°´
çİ°ä»£ ä¸»ä¹ī
ç¦ģ åĮº
åĪ¶éĢł ä¸ļ
å®Ļ æĸ¯
çļĦäºĭ å®ŀ
èĢĹ å°½
Ar t
W A
i OS
çļĦ D
çļĦ çĶ·åŃĲ
ä¸º éħįåĲĪ
å¤§ çŁ³
20 4
ä»ĸ ä½ľä¸º
è¥¿ æ¸¸è®°
åĪĨ æ®µ
åŃĲ çĪµ
èĩª è½¬
æĸĩ åºĻ
è¿ĩ èĳĹ
è¡¨ çļ®
éĩĳ æ³½
çº¦ åĽ½
åıĹ ç²¾
å®ĺ åĥļ
çĻ½ è¢ľ
å¤´ é¡¶
ĠC up
åħ¶ä¸Ń ä»¥
å·¥ç¨ĭ æĬĢæľ¯
è¡Ģ èħ¥
ĠD on
ç©Ĩ åĭĴ
ç§Ł çĶ¨
ä¿ĥ æĪĲ
æĤ¬ çĸĳ
èħ° å¸¦
èĤ¾ ä¸Ĭèħº
åŃĺåľ¨çļĦ åħ¶ä»ĸæĶ¿æĿĥ
å¯Ĩè¥¿ æł¹
æĮĩåĲį äºļç§į
v al
åĴĮ åĲİ
åĴĮ æĭī
åĨĽ éĺĢ
æµ· éĺ²
çİĭ èĲ§
ç¼ ĩ
æ°´ åĿĿ
åı² åŃ¦
åį¡ æ¯Ķ
ç»´ å°¼
èµĦ æ²»
ä»Ĭ å±±ä¸ľçľģ
åįł åįľ
åħ¼ å®¹
æ·® å®ī
å¼ĵ ç®Ń
æ»ĭ çĹħ
à¹ Ģ
çļĦ å°¸ä½ĵ
ä¸º äºİ
ä¸Ń å¯¹
æĹ¥ åİ»ä¸ĸ
æ¯ ĭ
åıĬ çĽ¸åħ³
èĩª åı¤
å¹³ å¹³
çİĭ åĤ¨
å¤ĸ åı·
åİŁ çĶº
çº³ è¾¾
åľ£ è·¯æĺĵæĸ¯
ä¸ĸçķĮ å·¡åĽŀæ¼ĶåĶ±ä¼ļ
åıį æģĲ
ç»Ļ å¥¹
äº¦ ä»¥
å¼ķ åĩº
åįł çĶ¨
åĺī å¹´åįİ
æĻĭ æľĿ
æĳ© è¯ĥ
å²© æīĭ
èģĮä¸ļ åŃ¦æł¡
æŃ»äº¡ çİĩ
èĭ±æł¼åħ° çļĦ
Ġc on
eg a
åįĩçº§ ä¸º
å£¬ è¾°
éĺ¿åįľæĿľ åĭĴ
è¾Ĺ è½¬
F acebook
Ġ æľĢé«ĺ
çļĦ èĥĮæĻ¯
å¹´ ä¸ºæŃ¢
åľ¨ çİ°ä»£
ä¸Ģ çļĦ
ä¸Ģ ç±»
äºİ åīį
å¯ ŀ
ä¸Ĭ åıĳè¡¨
ä¸İ é»Ħ
æľ¬ åĽ½
çŃī åħ¶ä»ĸ
ç§ĳ æĭī
é¦ĸ æĪĺ
å·´ è¿ª
å²Ľ æ°ĳ
el d
ä¸Ńå¿ĥ ç«Ļ
ä½Ĩæĺ¯ ä»ĸ
èĥ¡ åŃĲ
èģĶåĲĪ æĶ¿åºľ
æĿĤ é£ŁæĢ§
ri a
Ġç¬¬ ä¸ĥ
éĨ ¯
æ¿Ģ åĬ¨
åĪĨä¸º ä¸¤
å¹¼ é±¼
æĺ¯ä¸ĢåĲį ç¾İåĽ½
å®¢è¿Ĳ ä¸ļåĬ¡
çĶľ èľľ
å±ł é¾Ļ
åĩ¹ éĻ·
æ³ķå°Ķ èĮ¨
åŃļ æĹ¥
å¤§æ´ĭ æ´²
åįĹå¼Ģ å¤§åŃ¦
I O
L u
Ġ åįķ
å¹´ è¯ºè´Ŀå°Ķ
åľ¨ ä»ĸä»¬
å¤§ ä»Ļ
æĪĺ ç¥ŀ
éĢļ ä¿Ĺ
ãĤ ¼
è¯¥ å·ŀ
ä¸¤ çº¿
æĺİ æĪĲç¥ĸ
åı£ ä¸Ń
æ²³ æ®µ
äºĶ åĵģ
é£ŀ é¸¿
æĹ© å®ī
åıĮ æĺŁ
è¨Ģ ä¹ĭ
çķĻ åŃ¦çĶŁ
ç´ł è´¨
as c
åŃĻ çŃĸ
åĩ¯ æģ©
éŃĶ åĬĽ
çļĦåľ° éľĩ
ç©Ĩ å®Ĺ
çĩķ åŃĲ
éĺ¿æĭī å·´é©¬
è½´ çº¿
all y
æĸ¯åħĭ å·ŀ
åıĹæ¬¢è¿İ çļĦ
æ¡ĵ çİĦ
éĢ¼ è¿«
æĺ¯ä¸Ģåº§ ä½įäºİ
çī¹çĤ¹ æĺ¯
æİ¨çĲĨ å°ıè¯´
ĠPh il
å¼łå®¶ åı£
é©¬èĲ¨è¯¸å¡ŀ å·ŀ
ç§ĳå¤ļå°Ķ çľģ
è¾¾ç§ĳ ä»ĸ
çº¿ç²Ĵ ä½ĵ
B T
Â »
Ġ ï¼Ľ
å® ķ
è® ¹
å¾· èĲ¨
äºĮ èĩ³
åĪ© è¯º
æ°ĳ æŃĮ
å®ī åĽ½
æł¡ åĨħ
åŃ£ çļĦ
çĳ ķ
å²ģ çļĦæĹ¶åĢĻ
çĻ¾ åĪĨä¹ĭ
åĲĮæĹ¶ æľŁ
è¶³çĲĥ æ¯ĶèµĽ
éģĹ å¤±
åĬ³ åĬ¨åĬĽ
çĭ¬ç«ĭ æĪĺäºī
å®¡ æī¹
ç©¿ éĢı
å¹³åĿĩ æ°´å¹³
åĪĨç±» ä¸º
æĬĺ ç£¨
å°ļä¹¦ å·¦
æķĻåŃ¦ æ¥¼
æ¿Ĵ å¤§è¥¿æ´ĭ
t ra
Ġ æ¼Ķ
åľ¨ éŁ©åĽ½
æĺ¯ æĹł
èĢĮ ä½¿
å»º æł¡
è¿ĩ å¤§
çĥ ½
ç¾İåĽ½ æĶ¿åºľ
æĿİ åĹ£
åĵĪ æ¯Ķ
é£ŀ ç¿Ķ
æĪĳ è¦ģ
å¥ĩ å¦Ļ
æĦŁ åıĹåĪ°
ĠP et
åģľ åĪĬ
åĲ´ è¶Ĭ
å¾® åįĹ
çº¿è·¯ æ®µ
éĦ Ļ
è¿Ŀ èĥĮ
æīĳ åħĭ
IV E
ä¸ľæĹ¥æľ¬ æĹħå®¢éĵģéģĵ
é³ĥ çĽĸ
åĢ¼å¾Ĺä¸ĢæıĲ çļĦæĺ¯
y e
Ġ ä¹ħ
Ġ ä¿Ħç½Ĺæĸ¯
çļĦ P
å¹´ ä¸ĭåįĬ
æĹ¥ é¦ĸæĴŃ
æĹ¥ æĹ©ä¸Ĭ
ç¬ ĭ
è¢« æ´¾å¾Ģ
å¼Ģ æĶ¯
åīį æ¯į
ç§ĳ éĻ¢
åĮĸ åİ¿
æ¸ħ æĶ¿åºľ
å¿Ĺ å¼º
èİ± å£«
æīĺ åĪ©
åĪĺ å®¶
ç²¾ éĶĲ
ç§» äº¤ç»Ļ
èī¾ æ£®
è¯» éŁ³
æĿĤ è´§
è§ĦåĪĴ ä¸Ń
è®Ńç»ĥ çıŃ
çĬ¹å¤ª ä¼ļåłĤ
æĵįä½ľ ç³»ç»Ł
ä¼½ åĪ©
Ø§ ÙĨ
èıģ èĭ±
åĨħçĩĥ æľºè½¦
ä¸»è¦ģé£Łçī© æĿ¥æºĲæĺ¯
çļĦ ç»Ĩèĥŀ
çļĦ æĹ©æľŁ
æľī é©¬
ä¸į ä¸Ĭ
åĨĽ åĬŁ
åı¯ è¢«
ä½ĵ èĥ½
å®ī åĢį
åŁº åº§
åŀ ®
18 24
æ²³ åºĬ
é£İ éĽ¨
æ²¡ æĥ³åĪ°
åĲī çī¹
åĵĪ å¯Ĩ
è®¤ä¸º è¿Ļ
æĿ¾ é¼ł
ãĢįï¼Į ãĢĮ
å®ĭ åĽ½
éŃı æĻĭ
ä¼ı çī¹
èħ¹ æ³»
est ival
çĭ® éĺŁ
èħº çĻĮ
çĿ¡ è§ī
åį¢çĵ¦ çľģ
- ï¼Ī
G i
S F
çļĦ ç³»ç»Ł
ç§ ½
éĺ ĩ
æľ¬ ä¸º
å¹¶ ä½ľä¸º
ä¸ĭ è¾¾
ä¸ī åı°
æĮ Ľ
æľĢ æĸ°çļĦ
é©¬ èĢ¶
å°Ĩ ä»ĸçļĦ
éĩį èģĶ
å°¼ åĬłæĭī
åħĥ åĺī
18 01
åİ» æī¾
éħį ä½ĵ
åįĥ ç§ĭ
ĠP ort
é¡¶ å³°
é½Ĳ äºļ
ĠN ight
éĢīä¸¾ ç»ĵæŀľ
æłĩåĩĨ åĮĸ
ĠÐ ²
æ§ Į
åĩĿ èģļ
IC E
å¯ĵ æĦı
éĻĩ è¥¿
ä»£çĽ® å±±åı£ç»Ħ
ven ue
æĬ«éĴĪ å½¢
3 40
äºļ ç»Ĩäºļ
è¯¥ ç³»ç»Ł
åħ± è®¾æľī
åį¡ ç´ł
çĵ ¯
åľ£ ä¹Ķæ²»
ä¼¯ åĭĴ
éĩİ å¸Ĥ
ç´ł æĿĲ
éŃĶ ç¥ŀ
æķĳ ä¸ĸ
åĪĬ è½½
è¸ Ŀ
è¯¾ éķ¿
ĠO l
ell i
ç»ķ è¿ĩ
ãĤ· ãĥ¥
æľ¬èº« çļĦ
åľŃ äºļéĤ£
çľģçļĦä¸Ģä¸ª æĹ§å¸Ĥéķĩ
è¥¿åħĥ åīį
åĲĮæľŁ åŃĺåľ¨çļĦåħ¶ä»ĸæĶ¿æĿĥ
osp ital
æĽ¼åĬª åŁĥå°Ķ
è¿¦å¤ª åŁº
4 30
r d
çļĦ åħĦå¼Ł
åľ¨ æİ¥åıĹ
ä¸º çķĻ
æľĪ äºİ
èĢĮ ä»¥
çī¹ æĿĥ
å¤ĸ åľ°
18 25
å¿ĥ æĥħ
éĢł ä»·
åħŃ åĲį
çĪ± ä½ł
æŃ» ä¼¤
æ¬§ èģĶ
å¢ŀ æ·»
æİĴ æ°´éĩı
ç¾¤ èĲ½
ro me
èµŀ ç¾İ
èĤī ç±»
è¿İ æĿ¥
åĪĨéĴŁ åĲİ
æĥĬ äººçļĦ
çĶŁæĢģ ç³»ç»Ł
é¾ĻçļĦ åĮĸçŁ³
å¸ĥå°Ķ ä»Ģç»´åħĭ
å¾Īå¤§ ç¨ĭåº¦ä¸Ĭ
çİĭä½į ç»§æī¿
æ¶© è°·
m us
Ġ Â°
çļĦ éķ¿åº¦
æĺ ¶
å¤§ éº»
éĹ´ è·Ŀ
åİŁ è®¡åĪĴ
é² Ģ
èĦ ĵ
çĶ° éĥ¡
è¿ŀ éĺŁ
å·Ŀ ç«Ļ
èīº æĸĩ
åĪĺ å®ĭ
æİĴ æĸ¥
ĠB rown
çŁ¿ çŁ³
æ¶ħ å¤«åĭĴ
çłĶç©¶æīĢ æīĢéķ¿
ai re
è¿Ļåº§ åŁİå¸Ĥ
å²Ľå¼ı è½¦ç«Ļ
çī² çķľ
ç±³åĵĪ ä¼Ĭ
V ol
ä¸º éĩĳ
ä»ĸ åĪ°
åħ¬ èģĮ
é©¬ èĢ³
å½ĵ å®¶
æ°´ åĬĽ
é¾Ļ èĻİ
æµģ åĩº
çĤ¹ åĩ»
æĽ´ æĶ¹ä¸º
è¿ŀ äºĳ
åħ« æĻ¯
å¡Ķ å°¼äºļ
å¼º å°¼
åĽ½éĻħ åħ³ç³»
çĿĢ æīĭ
å®Ŀ å±±
çļ® éĿ©
å¤º ä¸ĭ
ç§¦ çİĭ
çŁ¿ å·¥
é¢Ĩå¯¼ å°ıç»Ħ
äºĮå¹´ çº§
oc ial
og raph
æħ¢ è½¦
è¿Ĳè¾ĵ æľº
çĽ¸å¯¹ è®º
ãĥģ ãĥ£
èĤĩ åºĨ
æĺ¼ å¤ľ
2 17
s i
çļĦ ç¼ĺæķħ
æĺ¯ è¦ģ
æĹ¥ åĩºçĶŁ
æĪĲ çĶ°
åħ¬ æĬ¥
èµĽ æ®µ
å¼Ģ çģ«
éģĵ çĲĨ
åįģ åĲį
èĥ½ åĲ¦
ç½Ĺ çº³
æŃ£ æľĪåįĩ
åģ ĥ
æ® Ĩ
ä¸ŃåĽ½ ä¼łç»Ł
æĻ® æ³ķå°ĶèĮ¨
16 3
éĥ¡ å½¹æīĢ
è±¡ çīĻ
èĭ¥ æľī
å»ºç«ĭ äºİ
çī¹åĪ« å¥ĸ
è®² è¯Ŀ
Ð° Ð»
ä¸ľåĮĹ ä¸İ
åĪĨç±» åŃ¦
çĽĹ çªĥ
éĥ½ä¼ļ åĮº
åľ°è´¨ åħ¬åĽŃ
èĤ¢ ä½ĵ
éĽķå¡ĳ å®¶
ç¿°æŀĹéĻ¢ åº¶åĲīå£«
åľ°ä¸ĭäºĮå±Ĥ ä¸º
ä¼Ĭèİİ è´Ŀæĭī
n o
à ¯
Ġ éº»
çļĦ æ²»çĸĹ
åľ¨ ä¿Ħç½Ĺæĸ¯
ä¸Ģ ä¹¦ä¸Ń
ä¸º æ°ĳ
æµ £
æŀ Ń
ä¸į ä¿Ĺ
ä½ľ æ³ķ
ç¬¬ æĸ¯
ä¸ī æľĪåįĩ
åĪ© æĺĤ
å¹³ åĴĮ
15 73
å¥¹ å¯¹
æŃĮ å£°
çĪ± å¾·
æĶ¶ å®¹
is ch
è¯ģ äºº
å±Ĭ å¥¥æĸ¯åį¡
æłĳ å¹²
çĽ®åīį æķĪåĬĽäºİ
éĽ¨ æŀľ
åĿİ åŁİ
An gel
æĢ»éĥ¨ è®¾åľ¨
æĺ¯ä½įäºİ ä¸ŃåĽ½
çİ¯å½¢ å±±
éĶ» çĤ¼
å®Ŀä¸½ éĩĳ
çļĦ èº«åĪĨ
å¹´ NBA
ä¸İ é¦Ļæ¸¯
åĪ° æľŁ
åįĹ çĽ´éļ¶
å®ī æīĺ
äº¤ ä»£
äºĶ è¡Į
åķ Ħ
è¯Ħ åĪ¤
çıŃ çº§
åħ¸ ç±į
as k
æĳ© ç½Ĺ
æĿŁ ç¼ļ
å¾® åŀĭ
40 1
æ±ĩ æĬ¥
çĴ ľ
éĿĻ æŃ¢
éĿĻ æĢģ
å¸ĮèħĬ äºº
åĩ½ é¦Ĩ
Ġv an
å¤§åŃĹäº¦æĶ¹åĪ¶ä¸º éĩĮ
åĺ² ç¬ĳ
H A
Ġ éģĵ
çļĦ æĹ¶ä»£
æĹ¥ æīį
åľ° éģĵ
ä¸ī äºķ
éĩĮ æľī
ç¾İ åĽł
çŃī é¢ĨåŁŁ
å·ŀ æĶ¿åºľ
é£ Ļ
åħ¨ æĿĥ
åŁİ éĥ¡
å°¼ åŃĲ
åħĥ åħĥå¹´
00 1
çĪ± åªĽ
åľ£ åľ°äºļåĵ¥
æ´Ľ éĺ³å¸Ĥ
è®º çĤ¹
å¥½ æľĭåıĭ
åºĵ å®¹
è¯į æºĲ
ç§» åĪ°
æ±ł å¡ĺ
ä¸ľåįĹ ä¾§
éĽĩ ä¸»
ath an
æĭ± éĹ¨
é¥² æĸĻ
uro pe
C he
Ġ åı°åĮĹå¸Ĥ
çļĦ é¢ĨåľŁ
å¤§ éĢļ
åħ¥ ä½ı
åĬĽ åħĭ
çģ ı
æŀĹ æł¹
å¿ĥ èĤĮ
çĶ° ä¸Ģ
ç¼ĸ æĴ°
çĶ· æĢ§çļĦ
çľŁ è¨Ģ
è´Ł è½½
äº¿ æ¬§åħĥ
ĠJ os
çĽĲ æ¹ĸ
à¸ ģ
å¹¿å·ŀ åľ°éĵģ
ç¾Ĭ æ¯Ľ
æıĲåįĩ ä¸º
å¼Ģå¹ķ å¼ı
ìļ °
ä¼ĬåĪ©è¯ºä¼Ĭ å·ŀ
W ar
Ê Ĵ
× ķ
é İ
Ġ åŃ¦æł¡
çļĦ ä¼Ĭ
å¸ §
ä¸Ń ç¾İæ´²
æĹ¥ åħ¬å¸ĥä¸º
è½ ¼
æĸ¯ åłª
ä¸Ĭ ä»¥
åīį ä¸ī
è¿Ļ çīĩ
æĸĩ çİĭ
è¡¨ æĥħ
æŃ£ å®¤
å¸¸ ä»»
æĽ¾ è¿Ľåħ¥
å¤§åŃ¦ çŁŃæľŁå¤§åŃ¦éĥ¨
ç®¡ é£İçĲ´
åĪĿ çŃī
éĿŀ æŃ£å¼ı
åķĨ ä¸ĺ
es h
ä»¤ çĭĲ
æ¹ĸ åı£
è®¤ä¸º ä»ĸ
æ½ ĩ
æĸ½ åĬł
çĭ¬ åĶ±
åĥı ç´ł
ä¾¿ åı¯
ĠR ail
ä»ģ åĴĮ
åıĸå¾Ĺ èĥľåĪ©
è¢Ń å°ģ
ik a
è½° åĬ¨
åĪĽåĬŀ äºİ
è¥¿å®ī å¸Ĥ
æĺ¥ç§ĭ æĹ¶æľŁ
éĩĮå¤ļ å°¼äºļ
r ation
Ġ ä¸Ģä¸ª
åľ¨ åįİ
å¤§ çīĩ
æµ· æ¸¯
çŃī å¤ļä¸ª
éĥ½ ä¸º
çº³ åħĭ
åĪĿ æģĭ
at al
è¶Ĭ é«ĺ
23 5
èģĶèµĽ çĲĥéĺŁ
å¯Į éĤ¦
çļ® å°Ķæĸ¯
çªģ å°¼æĸ¯
æ²ĥ ä¼¦
ä¸ĢèĪ¬ åľ¨
um mer
æ³Ľ æĮĩ
åľ¨è¿Ļ æ¬¡
çŃ¹ æ¬¾
å±ı éļľ
Mar c
çĽ¸éĤ» çļĦ
é§ ħ
éĵľéĶ£ æ¹¾
å¸ĥå®ľè¯ºæĸ¯ èī¾åĪ©æĸ¯
Ġ ä¸°
Ġ å½Ń
çļĦ A
çļĦ è°ĥæŁ¥
ä¸º é¢ĺæĿĲ
19 2
æĹ¥ ä¿Ħ
æĹ¶ ä¸İ
å¹¶ ç»§ç»Ń
åįĹ æ¢ģ
é«ĺ ä½İ
é©¬ é¾Ļ
éĢļ åķĨ
åı· èĪªç©ºæ¯įèĪ°
åŁº è´¨
åı£ åı·
ä¼ł å¯¼
å¤§åŃ¦ æ¯ķä¸ļ
åĪ« çļĦ
æľª ç§ĳè¿Ľå£«
å¸Į å§Ĩ
æľ¨ åİ¿
åĪĺ ä¹ī
æĿ¾ çĶ°
ĠT el
èĤ¡ éģĵ
èµĽäºĭ æĪĲç»©
æ±ĩ éĽĨ
æłĩåĩĨ æĹ¶éĹ´
ä½įäºİæ³ķåĽ½ æ³ķåħ°è¥¿å²Ľå¤§åĮº
æµ¸ ä¿¡
çľŁäºº ç§Ģ
ç§ŁåĢŁ åĪ°
ä¸ŃåĽ½ç§ĳåŃ¦éĻ¢ éĻ¢å£«
éĩĳåĥı å¥ĸæľĢä½³
é¦Ļæ¸¯æĹ¶éĹ´ éĢ¢æĺŁæľŁ
çļĦ ç»ŃéĽĨ
æĺ¯ å°ı
åĴ ķ
éķ¿ åħ¬ä¸»
éĩĮ æĿĳ
é©¬ æĪ¿
åŁİ è¥¿
18 31
ä¿Ŀ ç®¡
çŁ³ äºķ
è¿ĳ çķ¿
å¼ķ è¯±
âĢĿãĢĤ ãĢĬ
ĠT ime
èĵ ĵ
éĿ¢ç§¯ è¾¾
èŀ Ĥ
çĶļ å°ĳ
æĢ¥ åī§
NA SA
Ġ196 4
å·¥äºº åħļ
åĭĺ å¯Ł
èĨĿ çĽĸ
ä¼Ĭå¤« æŀĹ
èģĮæ£ĴçĶŁæ¶¯ æĪĲç»©
åįļå£«çĶŁ å¯¼å¸Ī
éĢį éģ¥
P T
Ġ é©¬æĿ¥è¥¿äºļ
ï¼ Ĭ
çļĦ S
çļĦ æĬ¥åĳĬ
å· ½
çŃ µ
è¢« éĩįæĸ°
ä¸ī å®Ŀ
æľĢ åıĹ
å°ı éĥ¨åĪĨ
æĭī æ¯Ķ
å¤ĸ æĻ¯
äº§ éĺ¶çº§
al s
16 7
è¿Ľè¡Į æĽ²
åįı ä½ľ
ĠA f
å®Ī å°Ĩ
å·¦ ä¼ł
åºķ æłĸ
æŀª æĿĢ
éŁ¦ æĸ¯çī¹
ç¥Ń æĭľ
çŀ ¿
åĸĢ éĩĮå¤ļå°¼äºļ
æĦıè¯Ĩ å½¢æĢģ
èĲĿ æĭī
åĪ¶å®ļ äºĨ
å¼¹éģĵ å¯¼å¼¹
èµĦæ²» éĢļéī´
9 78
P rin
o i
çļĦ è·¯çº¿
ä¸Ń è¯´
æľĪ ä¸Ĭ
å¥ Ħ
åĴĮ ä¸¤ä¸ª
ä»ĸ æĽ¾ç»ı
åħ¶ ä¸ĭ
åıĳ åŀĭ
ç½Ĺ å°¼
ä½Ĩ å½ĵæĹ¶
å®ŀ ä¾ĭ
åĪĻ ç§°ä¸º
çĸ ¡
çĪ± åįİ
ä¸ĥ åįģäºĮ
è¯Ħ å§Ķ
åĽ½éĻħ èµĽäºĭ
çĭ¬ å±ħ
åŁĥ çº³çľģ
èĭ±åĽ½ æĶ¿åºľ
èİ« æīİ
om en
èµ« ä¼¯çī¹
å·¨ ä¹³
å¤§éĻĨ çļĦ
à¸ ´
io ec
éĤĢè¯· èµĽ
èĩªè¡Į è½¦éģĵ
æĢ§è´¨ çļĦ
ãģĵ ãģ¨
çļĦ ç»ĦåĲĪ
çļĦ å°ĳå¥³
çļĦ åİĭåĬĽ
ä»ĸ è¿ĺæĺ¯
ãĢĭ âĢĶâĢĶ
ä¸į æ²»
é«ĺ å¤§
åŁİ éļį
æĦı åį³
ä¹ī åĴĮ
åºĶ åıĺ
ä¸»è¦ģ æ¯ĶèµĽæĪĲç»©
å¥Ī åŃĲ
è¾½ æľĿ
éĩĬè¿¦çīŁ å°¼
2 12
G L
Î ¸
åľ¨ åŃ¦æł¡
åľ¨ æİ¥ä¸ĭæĿ¥çļĦ
ä¸Ń åĿļ
è´ °
åĩº çĭ±
è¥¿ å°¼
å§ ī
èĢĮ åıĪ
èĢĮ åħ¶ä»ĸ
è¿Ļ å®¶
å·ŀ åİ¿
å·ŀ è¯¸åĨĽäºĭ
æ¬¡ ä¼ļè®®
ä½¿ ä»ĸä»¬
åŃĹ åħ¸
éĻĨ çĶŁ
ä»ħ æľīçļĦ
ç²¾ åĩĨ
ĠH old
æ´¥ å¸Ĥ
ç³»åĪĹ çĶµå½±
æľįåĬ¡ äºİ
ä¹ĺ åĬ¡
å·¨ èĽĭ
Ð° ÑĤ
è®°è½½ äºĨ
ãģ£ ãģ
åı°ä¸ľ åİ¿
Ġ åĪ°
Ġ çĳŀ
å¹´ åħ«æľĪ
äºº ä¹Ł
åĴĮ èī¾
æĹ¶ æīį
ä¹ĭ å¤§
åħ¬ ä½¿
å¹¶ åı¯
ä¸ĸ éĹ´
ç¾İ å°Ķ
æķĻ å®ĺ
åĪ¶ å®ļçļĦ
æĺİ æĻº
åħ° å°¼
ç»´ å¾·
å®ŀ çī©
ç¥ŀ çĶ°
å¤Ħ åŃĲ
è¿ĳ éĥĬ
çłĶç©¶ é¢ĨåŁŁ
ä¾ĭ ç¡®è¯ĬçĹħä¾ĭ
åĵį å°¾èĽĩ
é½Ĳ æł¼
th ur
æŁ³ å·ŀ
æĺİæ²» ç»´æĸ°
æĤ¬ æµ®
180 4
ier re
åĸĿ éħĴ
åħĭåĬ³ å¾·
åľ¨ä½į æľŁéĹ´
ä¾Ŀèµĸ äºİ
åı²åħĭå¨ģå°Ķ èī¾å°¼åħĭæĸ¯
å¹´ ä¸¾è¡Į
æĺ ¨
ä¸Ģ åŀĴ
å¤§ æ¸ħ
æī Ī
éĥ¨ ä¸º
æľ¬ åİ¿
è¢« æīĵ
èģ Ĩ
éķ¿ çŁ³
é«ĺ ä¸Ńéĥ¨
æĺİ æľĪ
èį »
èį ¼
å¿ĥ è¡Ģç®¡
æº §
ä¸ĩ åĽ½
ç² ¥
æĶ¯ éĺŁä¼į
ç¦ı å¸ĥæĸ¯
åĲĮæĹ¶ äº¦
å°¾ æ¤İ
éº¦ èĤ¯
çļĦåľ° è´¨
èĪªç©º çļĦ
å·¨ é¢Ŀ
è½¯ éª¨
å¹³åĿĩ å¾ĹåĪĨ
è´¾ æĸ¯æ±Ģ
æĿĤå¿Ĺ çļĦ
äº¿ç¾İåħĥ çļĦ
ç¥Ī æ±Ĥ
å¾Ĺå¥ĸ åĲįåįķ
åĪĿåĽŀ éĻĲå®ļçĽĺ
åĨ²éĶĭ æŀª
M K
r ont
ì Ĭ
è¾ º
éĩĮ å®ī
å¤ļ æĺİ
æĸ° è§īç½Ĺ
å»º æŀĦ
å¸ĥ è¢ĭ
éĩį å·¥ä¸ļ
é¥ µ
åŀĭ çĶµåĬĽåĬ¨è½¦ç»Ħ
åıĹ è¿ĩ
èĳĹ æīĭ
æį® æĬ¥å¯¼
17 95
çĶ² è¾°
30 1
ĠM od
ĠA t
åĪĩ æĸ¯
éĽª åĦ¿
äºĴ æį¢
æİ§åĪ¶ åĻ¨
ä¸īåįģ åħŃå¹´
ĠÐ ¸
çİĦ åŃĻ
IN E
è°¥ æĸĩ
åºļ åŃĲ
ä½Ĳæ²» äºļ
U C
å¹´ åı°æ¹¾
æľī å¦Ĥ
ä¼ļ æ´¥
ä¸» æľº
è½¦ ç¥¨
å¾Ĺ çļĦ
å°ı è·¯
åİ» èģĮ
åķĨ è®¨
èĲ¨ å¾·
å¸Į å°Ķå¾·
é¢ĺ ä¸º
ä¾¿ ä»¥
åĨľ äº§åĵģ
çĽ®åīį åľ¨
ra z
åľĨ çİ¯
è§£åĨ³ äºĨ
å¿į åıĹ
èĦĬ é«ĵ
æŃ£ä¹ī èģĶçĽŁ
èĤĭ éª¨
å¸½åŃĲ æĪı
ä¾ĭè¡Į èµĽ
H C
P e
Ġ äºĳ
Ġ éľį
åľ¨ èĭ±æł¼åħ°
ä¸º å°ı
çº ¥
åī Ķ
æĸ¯ è¯ºåħĭ
ä¿ ³
å±± éĺ´
ç¾İ ç¬¬
èĩ³ æĸ°
éĹ´ éļĻ
å°Ĩ ä¸İ
åĽĽ åŃĲ
on i
æ¨ ½
çĪ¶ å¼Ĥæ¯į
åĻ¨ æ¢°
æ¯ı äºº
æºĲ æµģ
å®¢ æĪ¿
ä¸Ķ æľī
é£ŀ é¸Ł
æ²Ļ éĺ¿
ĠM a
[...]
