#version: 0.2
ä ¸
ç ļ
çļ Ħ
ä º
ã Ģ
å ħ
å ı
ï ¼
Ġ Ġ
æ ľ
ä »
å Ī
å ®
ï¼ Į
ç »
è ¿
ä ½
ç Ķ
å Ĭ
å ¤
å ľ
å Ĳ
å Ľ
æ ĸ
æ ĺ
ãĢ ģ
è ®
ä ¹
å Ń
ãĢ Ĥ
ĠĠ ĠĠ
i n
æ Ī
è ¯
ä ¼
Ġ a
Ġ t
æ ķ
å Ĵ
å º
åĴ Į
æĺ ¯
ä¸ Ń
ä¸ Ģ
r e
æ Ģ
å Į
æ Ŀ
å ¹
åľ ¨
å ¯
é ĩ
å ¼
è ¡
åĽ ½
æ Ĺ
o n
æ Ķ
å į
å Ĩ
h e
äº º
æľ ī
è §
- -
ä¸ º
å °
t i
ç Ľ
åŃ ¦
é Ģ
æ ³
è Ģ
å ±
æ ī
ç §
è ĥ
ç İ
è ´
æ Ĭ
å ĩ
å ¾
åı ĳ
æ ł
ä¸ į
æ °
å ·
ç Ĳ
å ¸
e n
è ¦
çĶ Ł
ä» ¥
è¦ ģ
çĶ ¨
å ½
æ³ ķ
ä ¿
ç ī
e r
æ ŀ
ä¸ ļ
é Ŀ
çĲ Ĩ
äº Ĩ
å Ł
é Ļ
Ġ o
å¤ §
å¯ ¹
æ µ
èĥ ½
æ İ
åĮ ĸ
è¡ Į
Ġ c
Ġ s
ç Ń
è µ
Ġt he
a l
ĠĠĠĠ ĠĠĠĠ
e d
â Ģ
æĢ §
æ Ń
ä¼ ļ
é Ĺ
å® ŀ
é ¢
å ¿
ä½ ľ
æĪ Ĳ
ä½ ĵ
Ġ in
a t
ç º
Ġ p
äº İ
æĸ ¹
æ Į
ä¸ İ
ä¸ »
e s
è ĩ
ä¸ ª
o r
Ġa n
åĪ Ĩ
ç ¨
å® ļ
åĪ ¶
è¿ Ľ
äº §
çİ °
åĬ ¨
åı ¯
æĹ ¶
å İ
Ġ w
å± ķ
Ġo f
ç» ı
i s
ä¸ Ĭ
åľ °
ç ¤
ä ¾
a n
åĩ º
æ ²
åĲ Ī
é ĥ
æ ı
åĬ Ľ
ç ®
ç ³
è ¾
è¿ Ļ
å ĳ
å¹ ´
åĲ Į
æĸ °
ç «
-- --
ti on
r o
æľ ¬
å »
i t
Ġ m
æ° ĳ
ç³ »
å· ¥
åħ ¨
åº Ķ
åħ ³
æķ Ļ
çŃ ī
Ġan d
Ġ d
åº ¦
éĩ į
æ į
è¿ ĩ
é «
æĶ ¿
è Ĥ
æķ °
Ġ f
é« ĺ
i c
åıĳ å±ķ
åħ ¶
å» º
æĿ ¥
ç¨ ĭ
a s
a r
æ ±
ç ½
Ġ b
èĢ Į
æı Ĳ
åŁ º
åĪ °
æĸ ĩ
éĿ ¢
ç ł
è® ¾
in g
å ĵ
ç ©
ç¤ ¾
èĩ ª
æ Ħ
æ ĭ
æ ĥ
è ½
æľ º
èµ Ħ
èĢ ħ
å® ¶
ä¹ ĭ
ç ¡
å ¢
é ĺ
ä» £
¦ Ĥ
å ī
Ġ (
åĬ ¡
éĩ ı
å¤ ļ
çī ©
éĢ ļ
e l
ç ¬
ç§ į
en t
æ ¯
å Ģ
ç¤¾ ä¼ļ
æ ´
ç» Ł
ä¹ ī
åĨ ħ
è °
æī Ģ
ä¸Ń åĽ½
çĽ ¸
Ġ re
éĥ ¨
è§ Ħ
æĿ ĥ
åı Ĭ
æį ®
åĬ ł
è ·
l e
æĪ ĳ
åħ ¬
ä¿ Ŀ
é ¡
è ģ
æĬ Ģ
ä¸ ĭ
å¼ ı
åĪ ©
é ģ
å ¥
ç® ¡
åĽ ł
æ Ľ
ç Ł
ç Ĥ
çł Ķ
ä¿ ¡
æľ ¯
å¼ Ģ
å ¦Ĥ
ç» ĵ
è® ¡
ä¹ Ł
åĲ İ
ç ķ
äº ĭ
ä» İ
ĠĠĠĠĠĠĠĠ ĠĠĠĠĠĠĠĠ
e c
é ļ
Ġt o
2 0
âĢ ľ
âĢ Ŀ
éĹ ´
çī ¹
æ² »
æµ İ
ç¬ ¬
å¹ ³
æĪ ĸ
ä½ ¿
å Ŀ
a tion
å° ±
é¢ ĺ
ç»ı æµİ
å½ ĵ
æ ¬
æŀ Ħ
è§ £
æĺ İ
å¹ ¶
Ġ e
ä» ¬
ç§ ĳ
é ķ
ç© ¶
è¡ ¨
å ģ
è® º
æľ Ł
ç« ĭ
è ¶
æł ĩ
çĽ ®
é ľ
è´ ¨
å¼ º
ç ´
åı ĺ
çĤ ¹
ç ľ
è ī
å¸ Ĥ
æ º
æ ģ
å½ ¢
u s
åħ ¥
å¾ Ĺ
ç ±
æ Ļ
æ ¸
åħ ±
åī į
çłĶ ç©¶
åħ ļ
èĤ ²
çĶ ±
å¯ ¼
å ŀ
u l
æĦ ı
åĮ º
æķ Ī
ç ¾
éĹ ®
å¿ ĥ
æ Ł
å¤ ĸ
å° Ĩ
ç» Ħ
åħ ·
ä¸ ī
æ± Ĥ
çĶ µ
æĽ ´
o m
æŃ ¤
---- ----
æ ¶
ç Ħ
æĬĢ æľ¯
a c
é Ľ
æľ Ģ
åĪ Ľ
æº Ĳ
æĮ ģ
æĶ ¹
i g
åĲ ĳ
ä» ¶
æĢ Ŀ
éķ ¿
éľ Ģ
ä¼ ģ
ä» ĸ
e t
åŃ Ĳ
Ġt h
åĲ Ħ
Ġ n
è¯ Ĩ
ç Ŀ
åŀ ĭ
ç± »
æ´ »
åı¯ ä»¥
åİ Ł
åĽ½ å®¶
è¿Ľ è¡Į
ä½ į
Ġ h
o l
ä¸Ģ ä¸ª
æ ¨
åĵ ģ
æĮ ĩ
ä¼ģ ä¸ļ
ç ¼
Ġ T
ç½ ĳ
ç¡ ®
çĦ ¶
éĹ® é¢ĺ
= =
åľ º
æ° ´
é ª
o s
æŃ £
äº Į
è® ¤
ä¼ ł
é £
å¢ ŀ
æŀ ľ
è° ĥ
éĩ ĳ
æ¨ ¡
ä¸» ä¹ī
ç ĸ
ä» ·
ç®¡ çĲĨ
u r
æ ¡
i m
æĿ ¡
æ ·
æķĻ èĤ²
åĨ ³
v e
æĥ ħ
æİ ¨
ãĢ Ĭ
ãĢ ĭ
ä» »
ç Ĺ
i d
éĢ ł
l y
ç ²
æģ ¯
äº Ľ
å® ī
çİ ¯
åĳ ĺ
u n
ä¹ ł
çŁ ¥
å §
æĹ ł
æĢ ģ
åĨ ľ
ä½ Ĩ
æµ ģ
æķ° æį®
è Ĳ
åĪ Ļ
è§ Ĥ
é¢ Ĩ
å° ı
åŃ¦ çĶŁ
è¿ Ĳ
Ġ 1
é ħ
åŃ ĺ
æĹ ¥
æİ ¥
Ġ l
è¯ ģ
éĢļ è¿ĩ
0 0
éĿ ©
è½ ¬
æ ®
it h
ä¾ Ľ
å¤ Ħ
é Ķ
è Ĭ
æ¯ Ķ
ç³» ç»Ł
èµ ·
å¸ ¸
å»º è®¾
äº ¤
ï¼ ī
e re
éĥ ½
è ¢
å·¥ ä½ľ
Ġw ith
éĻ ħ
æľ į
åĩ Ĩ
æĪ ĺ
ï¼ Ī
å¾ ĭ
çĿ Ģ
äºº æ°ĳ
åį ģ
Ġ g
åĢ ¼
å¢ ĥ
ä¿¡ æģ¯
æĸ ½
o t
èģ Ķ
ç ¥
åı ²
éģ ĵ
çİ ĩ
éĩį è¦ģ
ç Ļ
Ġ C
æĶ ¶
å¥ ½
ä¸ ĸ
c e
re s
åı ĸ
è¢ «
Ġs t
éª Į
è¯ ´
é¡ ¹
é ĵ
å ķ
åį ķ
è¿ ĺ
ç´ ł
å Ļ
Ġf or
çķ Į
i l
ä¸ ĵ
éĽ Ĩ
åı į
åŁ Ł
åı Ĺ
è Į
æ¬ ¡
t er
æŃ ¥
çº §
Ġp ro
ç¾ İ
å¿ ħ
Ġ A
åķ Ĩ
æĥ ³
çŃ ĸ
æĢ »
å® Į
u t
ä¸ ¤
éĻ ¢
æµ ĭ
ï¼ ļ
è ŀ
è· ¯
æĬ ¤
è¯ ¾
æķ ´
åı ¸
å®ŀ çİ°
æĶ ¾
åĻ ¨
a ti
æĪĳ ä»¬
ç Ĭ
å® ¹
Ġc on
èī ²
æľį åĬ¡
åĮ ħ
æ¡ Ī
èŀ į
åİ Ĩ
a m
è ĭ
çĽ Ĭ
ä¸» è¦ģ
å½ ±
ç® Ĺ
è¾ ĥ
æł ·
æĶ ¯
è į
æĸ¹ éĿ¢
æĸ Ń
i f
o w
å¤ į
åŁº ç¡
Ġa s
åŁºç¡ Ģ
æł ¹
åĪ¶ åº¦
Ġ S
Ġ I
æĸĩ åĮĸ
æ· ±
å¼ ķ
è¿ĩ ç¨ĭ
å¸Ĥ åľº
è Ī
1 9
åĪ «
el l
è¾ ¾
u m
èĮ ĥ
çº ¿
å· ²
æİ §
åħ Ī
Ġ is
çĹ ħ
éľĢ è¦ģ
Ġ v
ä¼ ĺ
èĥ½ åĬĽ
å® ĥ
èĢ ĥ
åĵ į
é£ İ
åĽ ¾
è Ħ
è® ®
èĬ Ĥ
æł ¼
[ @
é ©
ä¾ ĭ
ä¹ ¦
u c
å¸ Ī
åħ ĥ
o c
æľ Ī
ç ¦
å± Ĥ
è¯ ¥
Ġe x
at ed
o d
ç» ĩ
æĪĳ åĽ½
è £
ï¼ Ľ
a b
éĿ ŀ
æĸ¹ æ³ķ
æŀ Ĳ
ç¤ º
çİ¯ å¢ĥ
è ±
ç² ¾
è¿ ĳ
åħ· æľī
å ĸ
éĻ ©
æķĻ åŃ¦
å®ī åħ¨
ä½ İ
s t
åŁ İ
è¯ Ħ
åº ľ
ä¸į åĲĮ
çĶŁ äº§
ä¾ Ŀ
å £
ä¸Ń çļĦ
ç»Ħ ç»ĩ
ç» ´
æĦ Ł
åħ »
s i
æ® µ
å¤ ĩ
ç§ĳ åŃ¦
æł ¸
åħ³ ç³»
åĳ ½
åĪĽ æĸ°
å½± åĵį
è´ £
åĬ Ł
é Ĵ
çĲĨ è®º
è Ļ
åĽ Ľ
ä½¿ çĶ¨
åŃ Ĺ
åį ı
èģ Į
) .
æĺ ĵ
æī į
ç» Ĩ
æĶ¿ åºľ
r a
æŀ ģ
ä½ĵ ç³»
çĽ ĳ
åŃ¦ ä¹ł
éĹ ¨
æıĲ ä¾Ľ
ĠĠĠĠĠĠĠĠĠĠĠĠĠĠĠĠ ĠĠĠĠĠĠĠĠĠĠĠĠĠĠĠĠ
æ £
äº Ĵ
t s
Ġth at
åı Ĥ
æĬ Ĭ
äº ī
m ent
åĪĨ æŀĲ
ti c
æľ ª
è± ¡
a g
è º
åį ³
é ¦
åĪ Ĵ
çº ¦
it y
èĩ ³
åŁº æľ¬
è¦ģ æ±Ĥ
æł ¡
æ³ ¨
æĺ ¾
Ġ P
æĬ ķ
è¯ Ń
å° ĳ
è§ Ĩ
ç¥ ŀ
ä½ľ çĶ¨
å¤ ©
éĢ ī
æ° Ķ
æĶ¹ éĿ©
èº «
åºĶ çĶ¨
æ³ķ å¾ĭ
æĹ ı
Ĥ £
Ġb e
èĲ ¥
åİĨ åı²
u d
ç ĥ
è§Ħ å®ļ
ç» Ń
ä½ľ ä¸º
å¿ µ
çĽ ´
è® °
èĩ ´
åº ı
æĬ ¥
åĿ ļ
èµĦ æºĲ
o p
ç© º
ä½ ķ
ç»ĵ æŀĦ
è ¥
ç» ľ
éĩ ĩ
ç ģ
r i
æĸ¹ å¼ı
Ġ M
åĬ ¿
éĻ Ĳ
åĨ µ
åı £
v er
åŁ ¹
è¥ ¿
ä»¥ åıĬ
éĢ Ĥ
å± Ģ
åı ª
è´ ¹
åį ĩ
Ġw as
æĿ ĳ
åħ¬ åı¸
i r
æĸ Ļ
çľ ĭ
Ġ on
ç§ ¯
1 0
ä¸ ľ
æŁ ¥
æıĲ é«ĺ
åı¯ èĥ½
o g
Ġa l
ç½ĳ ç»ľ
éĢ Ł
äº§ ä¸ļ
è¯ ķ
çķ ¥
æµ ·
å¹ ¿
Ġw ere
çŁ¥ è¯Ĩ
è¡Į ä¸º
æ »
-------- --------
s e
å¾ Ī
éħ į
æ² ¡
at e
é¢ Ħ
å¸ ¦
å½¢ æĪĲ
y p
è· µ
æĭ ¬
æ¶ Ī
åĸ Ħ
ĠT he
== ==
ç½ ®
è´ ¢
å® ¡
è®¾ è®¡
ä¸ĸ çķĮ
ä¸Ģ ç§į
ħ §
æĢĿ æĥ³
æĶ¿ æ²»
ç ª
æī ĭ
Ġb y
ç» Ļ
u p
å¸ ĥ
çĬ ¶
çİ° ä»£
åĽ½ éĻħ
åĲĮ æĹ¶
è ¨
Ġc ell
e m
å®ŀ è·µ
åĨ Ľ
æĻ º
ç¤¾ä¼ļ ä¸»ä¹ī
åĬ ³
) ,
åģ ļ
çĽ¸ åħ³
æī ¿
è§ ģ
åĨħ å®¹
è¨ Ģ
éĺ ¶
åħ ī
åĲ į
åŃĺ åľ¨
å¾ ģ
åį İ
Ġ 2
æ²¡ æľī
he r
Ġ H
äº Ķ
é¡ »
åı °
è İ
å¾ ·
ä¸ Ķ
Ġa c
t ed
æ¸ ħ
æĶ¿ çŃĸ
è¿Ļ äºĽ
åĮħ æĭ¬
éļ ¾
æıĲ åĩº
ç¾ ¤
éĻ ¤
çĽ® æłĩ
æ´» åĬ¨
ä¿Ŀ æĬ¤
æ£ Ģ
åħ ĭ
æłĩ åĩĨ
åĬ ©
åľ Ł
ä» ħ
Ġ \
å°± æĺ¯
ç ¢
u re
éĺ ²
è¿ °
a y
åĪ Ĺ
t h
å§ ĭ
å»º ç«ĭ
æĪĲ ä¸º
å¤ ±
åĽł æŃ¤
ä»· åĢ¼
çĲ ĥ
åĮ »
Ġo r
ï¼ Ĥ
Ġc om
åħ¶ ä»ĸ
Ġ *
ro m
å¿ «
äº§ åĵģ
q u
æĥħ åĨµ
ic al
éĥ¨ åĪĨ
çľ Ł
è¶ Ĭ
åĳ Ĭ
ç§ °
ä¼ Ĺ
åĽ ´
éļ ı
âĢ Ķ
å¿ħ é¡»
çĸ Ĺ
éļ ľ
åħ ħ
Ġre s
äºº çļĦ
ä¹ĭ éĹ´
ç¨ İ
å¹ ²
å± ŀ
èĥ ŀ
ä¸ ¥
è¶ ³
åĩ ı
ç ĭ
åı Ī
æł¹ æį®
åĨ į
æī §
ä¿ ĥ
åħ¨ éĿ¢
æİ§ åĪ¶
æ Ĵ
é© ¬
å¤Ħ çĲĨ
å¯¹ äºİ
æ¯ ı
æĪ ·
ent s
åĬ³ åĬ¨
Ġ D
æĿ Ĳ
åį Ĺ
ä¹ Ī
åĮ Ĺ
d i
åĿ ĩ
åĽ ŀ
è´¨ éĩı
éĩĳ èŀį
åıĳ çĶŁ
æ°ĳ æĹı
åĪ© çĶ¨
Ġa re
an t
20 1
è® ©
v el
è¿Ļ ç§į
é¢Ĩ åŁŁ
æĪĸ èĢħ
éĻ į
å¯ Ĩ
è§£ åĨ³
æĹ¶ ä»£
å§ Ķ
Ċ Ġ
Ġ im
åħ ´
å¤ Ł
æĹ¶ éĹ´
åİ »
æľº åĪ¶
ç»Ĩ èĥŀ
çĶŁ æ´»
ä¸ ĩ
ç¦ »
æľī æķĪ
å Ķ
é£İ éĻ©
èİ ·
ç ħ§
ä¼ł ç»Ł
äº§ çĶŁ
åĪ ¤
Ġ r
æ°´ å¹³
Ġd e
æİ ¢
å· ®
åı ·
" ,
Ġ R
Ġ 3
å®ŀ æĸ½
åĽ ¢
a d
a in
ç« ł
Ġex p
åħļ çļĦ
ä¸į æĸŃ
è®¡ ç®Ĺ
é¦ ĸ
çª ģ
æ¨¡ å¼ı
Ġ F
éĩ Į
as e
ç» Ī
Ġd is
åĬŁ èĥ½
è®¤ ä¸º
å¼ Ĥ
å® ³
è¡Į æĶ¿
æ¬ ¾
è´ Ł
in e
é¡¹ çĽ®
Ġ N
æİ Ĵ
è¯ ī
åĪ ĩ
è´£ ä»»
Ġ us
Ġ B
f f
æ ¿
è ĳ
è¡ Ģ
si on
æİ¨ è¿Ľ
å· ±
Ġ 0
æĿ¡ ä»¶
es s
æľº æŀĦ
åıĳå±ķ çļĦ
æ ¦Ĥ
åĢ º
åĬ ŀ
æĮ ī
å¤ ®
è¿Ļ ä¸Ģ
æ¿ Ģ
Ġa t
åģ ¥
æĬķ èµĦ
æĢ§ çļĦ
å®ŀ éĻħ
çĶ± äºİ
ç¬¬ ä¸Ģ
è¶ ħ
ä¸ĵ ä¸ļ
æİ¨ åĬ¨
äºº åĳĺ
* *
æķ° åŃĹ
æŁ Ĳ
å¾ Ģ
çĶŁ æĢģ
ç¨ ³
å ²
å®ļ çļĦ
æĭ ħ
åıĺ åĮĸ
o re
èį ¯
åĳ ¨
ç§ »
è® ¸
ç»ĵ åĲĪ
Ġin c
Ġc h
ç²¾ ç¥ŀ
æķĻ å¸Ī
Ġ E
åŁİ å¸Ĥ
ä¿ ®
å¦Ĥ æŀľ
å¯ Į
u b
åİ ĭ
åĲ ¦
20 0
åĿļ æĮģ
æĪĺ çķ¥
åĪ Ŀ
è¯¾ ç¨ĭ
p h
åľ° åĮº
åĬł å¼º
èĩª å·±
å·¥ ç¨ĭ
Ġf rom
å¿ Ĺ
é »
åŁ¹ åħ»
æį Ł
æ ¼
è¯ ·
ä¸į èĥ½
çº ª
åħ± åĲĮ
t e
æĬ Ĺ
Ġst ud
ä¸Ĭ çļĦ
p l
ä¿ĥ è¿Ľ
r an
çĭ ¬
Ġw h
ç¾İ åĽ½
çļĦ åıĳå±ķ
ç§ĳ æĬĢ
è¾ ĵ
åĨľ ä¸ļ
èĤ ¡
éĥ¨ éĹ¨
ç¼ ĸ
èī º
ä¸Ń å¤®
un d
éĺ¶ æ®µ
yp e
ig n
ä¹ ¡
æ ¢
é Ł
æīĢ æľī
èĥ½ å¤Ł
çĻ ¾
er s
æĻ ®
or m
å Ĥ
æĻ ¯
å Ħ
è§ Ĵ
ç» ¼
ç¼ º
åĩ ł
Ġn e
åĲĪ åĲĮ
åº ·
æ²» çĲĨ
å ĥ
è£ ħ
è´ §
åĲĪ ä½ľ
éĺ Ł
å± ±
Ġp ati
èĩª çĦ¶
å¯ Ł
1 2
å¼ ł
æł¸ å¿ĥ
çł ´
åĩº çİ°
çľ ģ
èĲ ½
ig h
ä¸ ´
re f
ä»ĸ ä»¬
å¤§ çļĦ
å·¥ ä¸ļ
ĠI n
éľĢ æ±Ĥ
ä¸Ń å¿ĥ
åħ¨ çĲĥ
ä¸Ģ æŃ¥
åºĶ å½ĵ
é Ĥ£
i es
é¢Ĩ å¯¼
Ġcell s
çī¹ èī²
è½ ¦
u g
æ ĵ
åı ¤
c h
å® ¢
éĶ ®
æŁ ĵ
æĸ° çļĦ
å½¢ å¼ı
å¾ ®
æĸ ¯
ä¸Ģ äºĽ
åħ į
ç»ĵ æŀľ
æī ĵ
p or
ä¿Ŀ éļľ
i b
æĶ¯ æĮģ
Ġ le
ç½ ª
éĵ ¾
æĭ ©
å¼Ģ åıĳ
å¢ŀ éķ¿
Ġcom p
æĮ ¥
. "
å¢ŀ åĬł
åİŁ åĪĻ
çĻ ½
ç Ī
èĢ ģ
Ġ he
ç® Ģ
d uc
æī ¹
ec t
è ħ
çĥ Ń
Ġa d
ç¬¬ äºĮ
å·² ç»ı
åĮĸ çļĦ
ç´ ¢
åıĳ çİ°
ç Į
è¿Ļ ä¸ª
è¿ ŀ
å®ŀ éªĮ
èµĦ æľ¬
Ġcon t
æī ©
åħ· ä½ĵ
i z
åĲ «
ä» Ĭ
çĶŁ çī©
åı ¦
ä¸» ä½ĵ
éĩ Ĭ
å®Į åĸĦ
ä»£ è¡¨
æĻº èĥ½
è® Ń
çº ³
æıĲ åįĩ
if ic
o us
å¤§ åŃ¦
åį ł
åı Į
N A
ç©º éĹ´
éĢī æĭ©
ä¸ ¾
åĪ© çĽĬ
Ġ G
ä¸ª äºº
è¿ ľ
æ» ¡
y s
Ġs h
çļĦ æĺ¯
ç»¼ åĲĪ
æĦı ä¹ī
äºº æīį
ç§¯ æŀģ
äºº ç±»
1 1
åįķ ä½į
Ġg en
èĪ ¬
ä¸Ń åįİ
çļĦ éĩįè¦ģ
Ġ 4
ä¸į æĺ¯
è¯ »
ç« ŀ
è¡ ¥
è¿Ľ ä¸ĢæŃ¥
æľī åħ³
æĺİ ç¡®
ç¨ĭ åºı
è½ ½
ti ve
æį ¢
çĽ´ æİ¥
C R
re d
æĿ Ĥ
å¦Ĥ ä½ķ
åħ³ éĶ®
æ Ĥ£
æĪĲ æľ¬
ation s
ab le
åĨ Ļ
Ġ L
è¿ĩç¨ĭ ä¸Ń
å¤ ´
ç» §
åħ¨ åĽ½
åĥ ı
é£ Ł
en ce
ä¸Ģ èĪ¬
] (
åĽł ç´ł
å¼Ģ æĶ¾
Ġin f
æŃ ¢
ç« ¯
is t
æı ¡
es t
æĮģ ç»Ń
ĠĠ Ġ
Ġc an
å ł
éĵ ¶
èĭ ±
æ ĳ
åħ³ äºİ
èĮĥ åĽ´
è¯ Ŀ
ti v
en d
éĿ© åĳ½
Ġ 5
å¸ ģ
è¾ ¹
åıĤ ä¸İ
\ ]
éĴ Ī
ä¾ ¿
e p
ä¹Ł æĺ¯
æī§ è¡Į
çĽ® åīį
åĽ º
ç»Ł ä¸Ģ
å¼Ģ å±ķ
ä» ĭ
èī ¯
åħ ¸
ag e
é¢ Ŀ
Ġp er
ar y
è¯Ħ ä»·
èĳ Ĺ
å¯¼ èĩ´
å® ĺ
a p
æ³ķ éĻ¢
åħħ åĪĨ
ç¬¬ ä¸ī
æķ ħ
éĢ Ĳ
åıĳ æĮ¥
ä¼ °
åį ±
i p
æĹ ¢
èµ °
i al
ä» Ģ
éĩį å¤§
ç»ı èĲ¥
Ġpati ents
åĽł ä¸º
Ġ W
æİ ª
åĲĦ ç§į
é©¬ åħĭ
çī¹ å¾ģ
åħ¬ åħ±
i on
å° Ķ
æĿĲ æĸĻ
) {
åĦ ¿
å¾Ĺ åĪ°
p ec
å° Ħ
åĨľ æĿĳ
å± ħ
Ġas s
çĿ £
èµĦ äº§
è® ²
æĵ į
æ¶Ī è´¹
å ¡
or s
ä»İ èĢĮ
åľ° æĸ¹
é©¬åħĭ æĢĿ
æĪ ¿
æ ¹
å ĭ
ac t
çĬ ¯
t her
æ¨¡ åŀĭ
ä»» åĬ¡
Ġ\ [
å¹³ åı°
åħ¶ ä¸Ń
çī Ī
t ype
åĮº åŁŁ
èĥ½ æºĲ
g e
äº Ī
æĿĥ åĪ©
è¡¨ çİ°
è´ ¸
v i
å½ ķ
æ ½
ä»Ģ ä¹Ī
ä» į
åŁº äºİ
Ġn ot
åĤ ¨
éĩį çĤ¹
è¡Į ä¸ļ
é Ĥ
äº «
ç«ŀ äºī
è§Ħ èĮĥ
if f
åŃ¦ æł¡
åģ ¿
åħ Ń
èİ· å¾Ĺ
åĪ¶ éĢł
åĪ ĳ
éĶ Ģ
ä½Ĩ æĺ¯
è®¤ è¯Ĩ
éĩĩ çĶ¨
ere n
1 5
è®¾ å¤ĩ
èģĮ ä¸ļ
å¼Ģ å§ĭ
æĹ¶ æľŁ
. .
ä¸į ä»ħ
ç¨ĭ åº¦
å° ½
âĢĿ ï¼Į
ol og
ä¸¤ ä¸ª
è§Ħ åĪĴ
ä» ĺ
å£ «
æ³ ¢
i a
ç¢ ³
åĲ ¸
æŀ Ĺ
æ Ĥ
åĨ³ å®ļ
æĸ Ĺ
Ġs ign
ç¡® å®ļ
æİ Ī
en ti
Ġc o
æĦı è¯Ĩ
çŁ ³
æ ¤
ic h
ç¬ ¦
æĿ¥ çļĦ
Ġh a
çī ĩ
è®¡ åĪĴ
çĸ «
1 8
res sion
éļı çĿĢ
åĪĽ éĢł
Ġin t
æ¶ ī
èģ ļ
åħ± äº§
è¡ ¡
çİ ĭ
ä¸º äºĨ
æ¸ ©
æ¦Ĥ å¿µ
Ġth is
Ġc l
] \]
åħ «
æ± Ł
è¿Ļ æł·
= "
Ġw e
ul ar
æĮĩ å¯¼
Ġ [
çĲĨ è§£
an d
æ¯Ķ è¾ĥ
]( #
" }
æŀĦ å»º
è¾¾ åĪ°
at h
å¾ Ħ
ä¾ µ
è§Ħ æ¨¡
Ġd iff
å¤ ª
åį «
è¿ Ŀ
èģĶ ç½ĳ
ä¸ŃåĽ½ çī¹èī²
çī¹ åĪ«
æ ļ
3 0
Ġs e
Ġd i
ä» ½
ä¹ĭéĹ´ çļĦ
çļĦ ä¸Ģ
éŁ ³
ç»ı éªĮ
æ¸ ¸
v ed
Ġ O
Ġp re
çĶ¨ äºİ
äº ļ
æ²» çĸĹ
åº ĵ
Ġs y
å ¨
ä½ĵ çİ°
æ°ĳ ä¸»
è ı
æĺ¯ åĲ¦
çŃ ĳ
å ¦
äº ¬
è® ¨
tion s
çī¹ çĤ¹
æ± ¡
2 1
Ġ\[ [@
Ġa p
or y
åģ¥ åº·
ran s
æĵį ä½ľ
v id
åº ķ
as t
è¿Ĳ åĬ¨
an ce
å®Į æĪĲ
è¿ĳ å¹³
å£ °
p le
â ĳ
ä¹ł è¿ĳå¹³
ä½ ı
ä¸ĸ çºª
åĽ °
==== ====
è Ĩ
çİ°ä»£ åĮĸ
ç» ¿
æĸĩ æĺİ
æīĢ ä»¥
çĶµ åŃĲ
æĹ ©
Â ·
å® ¤
åĩ »
é ¼
æĸ¹ æ¡Ī
åĢ Ł
éģ Ĺ
æ¯ Ĵ
è´ Ń
çĮ ®
æ¼ Ķ
çĹ ĩ
çĽ® çļĦ
åıĸ å¾Ĺ
äº ¿
è½ ¯
Ġha ve
ç¨³ å®ļ
ĠĠĠĠĠĠĠĠĠĠĠĠĠĠĠĠĠĠĠĠĠĠĠĠĠĠĠĠĠĠĠĠ ĠĠĠĠĠĠĠĠĠĠĠĠĠĠĠĠĠĠĠĠĠĠĠĠĠĠĠĠĠĠĠĠ
æİª æĸ½
åĿ Ĺ
ãĢ Ģ
ä¹ Ĳ
è§ ī
éĵ¶ è¡Į
åľŁ åľ°
æĤ£ èĢħ
as ed
äº¤ æĺĵ
il l
æŀ ¶
éĢł æĪĲ
éĿ Ĵ
è´ «
æĬ¥ åĳĬ
Ġe ff
ä¸ļ åĬ¡
åĽ½ åĨħ
æľº åħ³
äºº ä»¬
æĸ¹ åĲĳ
è¿Ļ æĺ¯
æľī çļĦ
çº ¢
æĶ¶ åħ¥
p t
åŃ¦ ç§ĳ
é¢ ĳ
æĪĲ æŀľ
os t
Ġp ar
ä½ĵ åĪ¶
èĻ ĳ
ä¼ Ł
re n
ç« Ļ
u e
ç Ĩ
åĪ »
Ġ =
æĢ§ åĴĮ
èĩª çĶ±
Ġstud y
è® ¼
p on
ä¾ĭ å¦Ĥ
Ġg ro
è¿ ½
å½ Ĵ
" .
æľ Ľ
ä¼ĺ åĬ¿
çĽĳ çĿ£
æ Ĳ
çŁ Ń
å¼º è°ĥ
ä» ¤
å¾ ª
Ġwh ich
5 0
åĲĪ çĲĨ
é ¥
ç £
æ¤ į
p ro
æ³ Ľ
çļĦ åŁºæľ¬
1 3
æ¬ §
èĥ Į
æ² ³
è¯ī è®¼
è¿Ľ åħ¥
æĽ´ åĬł
Ġ it
æĭ Ł
Ġ k
1 4
åº Ń
çļĦ åŁºç¡Ģ
æ³ķ æ²»
åĬ ±
å· ŀ
re at
çļĦ éĹ®é¢ĺ
ç´ §
Ġb et
éķ¿ æľŁ
æĮī çħ§
åıĬ åħ¶
å¢ŀ å¼º
åĢ Ļ
èĻ ½
æł¹ æľ¬
çĶ ³
éĿ ł
è£ ģ
---------------- ----------------
ï¼ İ
ä¿Ŀ è¯ģ
ç¾¤ ä¼Ĺ
1 6
åĪ¶ å®ļ
èĢĮ ä¸Ķ
Ġan al
al ly
æĮĩ åĩº
ä»¥ æĿ¥
éĻį ä½İ
åī Ĥ
ati ve
ä¸Ģ å®ļ
ä»¥ ä¸ĭ
å¤į æĿĤ
Ġin ter
é©¬åħĭæĢĿ ä¸»ä¹ī
ä¸ŃåĽ½çī¹èī² ç¤¾ä¼ļä¸»ä¹ī
è´¸ æĺĵ
æ ħ
Ġ 6
w e
æİ Į
æ± ī
èīº æľ¯
Ġdiff eren
çĶ »
æ´ ¾
è¯ į
æī ĺ
éĩı çļĦ
å¥½ çļĦ
äº ĳ
æķĪ çİĩ
ro l
åĨ ²
è¯Ħ ä¼°
çĬ¶ æĢģ
åŁº åĽł
åĩı å°ĳ
è¿Ĳ è¡Į
æĴ Ń
Ġa b
çķ Ļ
å» ¶
åİ ¿
at a
Ġre g
res s
çī© è´¨
å¯¹ è±¡
âĢĶ âĢĶ
ä¼ ¼
å§Ķ åĳĺ
ä¸įåĲĮ çļĦ
, "
ä¹ Ŀ
æĺ Ł
è Ľ
en c
æ± ĩ
è¶ ĭ
åİŁ åĽł
çļĦ çłĶç©¶
éĺ ³
å® £
ç± ³
åľ° ä½į
å»º çŃĳ
è¯Ń è¨Ģ
çĽ¸ äºĴ
è¾ ĳ
ä»» ä½ķ
è¿Ĳ çĶ¨
åºĶ è¯¥
un c
Ġm od
å¾ ħ
al l
è°ĥ æķ´
Ġ U
æİ¢ ç´¢
çİ° å®ŀ
æĺ¯ åľ¨
èĢĥ èĻĳ
éĶ Ļ
æĺ¯ æĮĩ
Ġm et
åŃ¦çĶŁ çļĦ
ar i
åħ±äº§ åħļ
Ġsh ow
é ¾
åı¸ æ³ķ
v al
ä¹ĭ ä¸Ģ
ä½ Ļ
ç ı
ä¸¥ éĩį
æĶ¹ åıĺ
åĽ Ń
ç» ĥ
éħ ¸
çĶ ļ
ä¸ °
å® Ĺ
æľ Ŀ
f ig
äºĨ è§£
d ing
åıª æľī
1 7
çĽ¸ å¯¹
ç»Ħ æĪĲ
éĴĪ å¯¹
ä¿Ŀ éĻ©
èĦ ĳ
éķ ĩ
éĩįè¦ģ çļĦ
00 0
è´§ å¸ģ
ä½ĵ çļĦ
çł ģ
èµĦ éĩĳ
éģ ¿
æŃ »
æ¶ ²
èŀį åĲĪ
è¯ ¯
Ġs ub
Ġp l
åį °
åł Ĥ
çļĦ äºº
è®¾ æĸ½
ç» Ŀ
çĭ¬ ç«ĭ
æľª æĿ¥
åĬł å¿«
Ġo b
ĠĠĠĠĠĠĠĠ ĠĠĠĠ
Ġt rans
æīį èĥ½
l ow
è¡¨ ç¤º
çĶ¨ æĪ·
on g
æ° §
âĢĿ ãĢĤ
æĺİ æĺ¾
èĩªå·± çļĦ
æĭ ī
èģĶ ç³»
å¥ ³
Ġre c
Ġ [@
åıį åºĶ
åĨ³ çŃĸ
ç»´ æĬ¤
Ġm e
è®¸ å¤ļ
s o
2 2
oc i
çļĦ å½±åĵį
åĲ ¯
m un
è§£ éĩĬ
çĲĨ å¿µ
èĩª èº«
F ig
èĭ ı
æķ £
æĽ´ å¤ļ
éĥ½ æĺ¯
ä»¥ ä¸Ĭ
æīĭ æ®µ
ç±» åŀĭ
ä¸ ĥ
åĨħ éĥ¨
æ·± åħ¥
çļĦ æĸ°
om e
e ar
igh t
ç ĺ
æŀĦ æĪĲ
åį Ĭ
èĻ ļ
Ġm ic
è½ »
ul t
äºĭ ä¸ļ
Ġ -
ä»· æł¼
è® ¢
åıĹ åĪ°
é ī
åĬĽ éĩı
æĶ »
çĽĳ ç®¡
éī ´
çĸ ¾
ti m
å¹¿ æ³Ľ
åĨľ æ°ĳ
we en
ä¸Ģ æĸ¹éĿ¢
æİĮ æı¡
å· ¨
2 5
åĬĽ çļĦ
æĢĿ ç»´
çĬ¯ ç½ª
v en
Ġinc re
è Ĺ
æĺ ł
é¦ĸ åħĪ
é ²
åº Ĭ
ä¼ĺ åĮĸ
çİ° è±¡
ç§ ģ
Ġac tiv
å® Ī
éĩĩ åıĸ
æĸ° æĹ¶ä»£
æĿ Ł
os e
ä¸į åı¯
Ġbet ween
: "
åķĨ ä¸ļ
èĭ ¥
Ġd et
ä¼ ¤
a k
ä¹ī åĬ¡
èĦ ±
ä¿Ŀ æĮģ
åį ´
è´ ¯
æŃ£ ç¡®
åħ³ æ³¨
ac h
å½ĵ åīį
äºĴ èģĶç½ĳ
ä¼ļ è®¡
f orm
æĹł æ³ķ
å®Į åħ¨
å¹´ çļĦ
ĠT h
å¸ ®
è´ ·
å¼ķ å¯¼
è´¢ äº§
éĢĤ åºĶ
ä¼ļ è®®
èĪ ª
at es
å ª
èĽ ĭ
è· ¨
ç»¿ èī²
Ġw he
te in
ï¼ Ł
åį ļ
èĢħ çļĦ
æĢ ¥
æķ´ ä½ĵ
æ´ ²
åģ ĩ
æķĪ æŀľ
r ac
por t
æī¿ æĭħ
l ud
Ġan ti
æ±¡ æŁĵ
æŃ ¦
ç¦ ı
ec tion
]\] .
æ¡Ī ä»¶
æ»¡ è¶³
åįı è°ĥ
Ġle vel
åĮĸ åŃ¦
è§Ħ å¾ĭ
æ¸ Ĳ
ri b
8 0
ä½ľ åĩº
ç³» åĪĹ
] ,
Ġin d
l o
åĮ» çĸĹ
ä¾Ŀ æį®
æıĲä¾Ľ äºĨ
åįı è®®
å¨ ģ
å¿ĥ çĲĨ
éĢ ģ
o ur
çĶļ èĩ³
ä¹¡ æĿĳ
ç ¯
éĢ Ķ
è´¢ æĶ¿
è Ĵ
ä¼Ł å¤§
è¯ Ĺ
çĽ ¾
Ġs c
c er
éĿŀ å¸¸
å½ĵ äºĭ
åį ĥ
ç¬¦ åĲĪ
éĽĨ ä¸Ń
çļĦ ä¸»è¦ģ
åª Ĵ
åĪĨ åŃĲ
è§Ħ åĪĻ
4 0
é» Ħ
Ġm ay
Ġsign ific
å·¥ åħ·
çĪ ±
Ġ "
å± ¥
ãĢĤ âĢĿ
ec h
å¼ ±
è¦ģ ç´ł
å®ĥ ä»¬
Ġal so
Ġ en
éĻĲ åĪ¶
er m
äºº åı£
æł ĳ
åĵ ²
å§Ķåĳĺ ä¼ļ
å±ŀ äºİ
éĻ Ħ
Ġexp ression
äºĭ å®ŀ
æĽ ²
æĥħåĨµ ä¸ĭ
èı Į
ug h
Ġ 7
èĨ ľ
çŁ Ľ
ä¹¦ è®°
è¡¨ è¾¾
æ£Ģ æµĭ
çģ µ
æĹ¥ æľ¬
æĪĲ ç«ĭ
èĻ½ çĦ¶
ç ¿
æ¶ī åıĬ
è½¯ ä»¶
Ġc or
éģĵ å¾·
éĢļ å¸¸
åĪĨ éħį
å¹´ æĿ¥
Ġdis e
è°ĥ æŁ¥
çŁĽ çĽ¾
ul d
ç¼ ©
å° ģ
# #
æĿ ¿
éĺ »
ul ation
al th
åĶ ®
æĺ¯ ä¸Ģä¸ª
é¡ º
è¡¨ æĺİ
Ġthe se
èĽĭ çĻ½
éĢ ı
T he
æı ı
Ġanal ys
19 9
i ed
æĮ ¯
Ġp h
u al
Ġh as
æĸĩ ä»¶
çī© çĲĨ
Ġgro up
å° ¤
æĮĩ æłĩ
Ġus ing
è° Ī
æĦı è§ģ
èģĶ åĲĪ
Ġd ata
çī© çļĦ
éĹ®é¢ĺ çļĦ
è· Ŀ
çģ «
ç³»ç»Ł çļĦ
e w
æ² ¹
åľ¨ äºİ
äººæ°ĳ æ³ķéĻ¢
æĬĢ èĥ½
ec ted
Ġbe en
o und
èµ· æĿ¥
æĮ ĳ
ä¹ °
è¡Į åĬ¨
çĽ ĸ
æī ¾
æľĢ ç»Ī
ä¸° å¯Į
æ· ·
è¯ģ æĺİ
å¿ħ è¦ģ
å¥ ĭ
å® ª
åĢº åĬ¡
éĢ Ģ
éģ ĩ
çĶ³ è¯·
åķĨ åĵģ
è¿ĺ æĺ¯
æĪĲ åĬŁ
ä¸ŃåĽ½ åħ±äº§åħļ
Ġ y
â Ī
Ġcon s
Ġp res
æİ¥ åıĹ
Ġ {
ra p
i ti
æĿĥ çļĦ
Ġin v
é«ĺ åº¦
åĵ² åŃ¦
Ġsignific ant
åıį æĺł
2 3
äºĭ ä»¶
Ġ Â
è®¡ç®Ĺ æľº
æ³ķ è§Ħ
å°± ä¸ļ
æķ° åŃ¦
çŃ Ķ
æĸ¹éĿ¢ çļĦ
å° ļ
å¹¶ ä¸Ķ
âĢ ¦
æ½ ľ
æ® Ĭ
on e
Ġc a
ä¿¡ åı·
y t
æ´ ĭ
st r
Ġre l
åĪĨ å¸ĥ
çĨ Ł
åĪĨ ä¸º
an g
çļĦ å¤§
reat ment
èĦ ī
è¯ Ĭ
Ġ V
åĪĨ åĪ«
æµĭ è¯ķ
ç«ĭ æ³ķ
ra in
æ³¨ æĦı
å¹´ ä»£
éĩį è§Ĩ
çĺ ¤
ç½ Ĺ
éĢ »
ä¾Ŀ æ³ķ
å½¢ æĢģ
æľī åĪ©
éģĵ è·¯
æķ´ ä¸ª
æĺ¾ ç¤º
èĩª ä¸»
Ġ( [@
å¼ķ èµ·
ç¥ŀ ç»ı
æī© å¤§
å½ »
as es
en s
æĢ§ èĥ½
çĽ¸ åºĶ
èĲ½ å®ŀ
ç½ ļ
éª ¨
Ġ1 0
æĦ ¿
å·® å¼Ĥ
ä½ľ èĢħ
6 0
ç»§ ç»Ń
è§Ĥ çĤ¹
éĢ» è¾ĳ
il ity
éģ į
åĲİ çļĦ
å¿« éĢŁ
vel op
ä¾Ľ åºĶ
åĮĹ äº¬
çĻ »
å¸® åĬ©
éĵ ģ
f ter
çĶŁ åĳ½
æĢ§ è´¨
åĬ¨ åĬĽ
å¥ Ĺ
ä¼ģä¸ļ çļĦ
èĬ ±
as s
ä¸ī ä¸ª
åŁ¹ è®Ń
å®ļ ä¹ī
ä¸Ńåįİ æ°ĳæĹı
è¯´ æĺİ
Ġpro tein
äº¤ éĢļ
Ġus ed
èĤ ¿
èµĦ æĸĻ
ä¼ł æĴŃ
åĽ½ æ°ĳ
ç» ©
åĳ Ī
è¶ħ è¿ĩ
èį ī
tion al
éĢĤ çĶ¨
le c
é¼ ĵ
æ¶ µ
é£ ŀ
éļ Ĳ
å½ĵäºĭ äºº
æ ¥
Ġs ur
è¥¿ æĸ¹
æľĢ é«ĺ
ä¹ ı
ç¬ Ķ
å±¥ è¡Į
æĬ µ
ç»ı è¿ĩ
çŃ ¹
è¿Ľ ç¨ĭ
èĥ ľ
æĺ¯ ä¸Ģç§į
ç¼ ĵ
çŃ ¾
æ¯ Ľ
å®¶ åºŃ
ç ĵ
ä¸´ åºĬ
at ing
è° ĵ
ro s
Ġres pon
ç¡ ¬
å ³
è¯¾ åłĤ
Ġal l
è½¬ åŀĭ
å¼º åĮĸ
æĿ İ
åĪ ¸
ç§° ä¸º
äº¤ æµģ
Ġ un
çī¹ æ®Ĭ
å® ½
Ġinc lud
è½¬ åıĺ
ç¡® ä¿Ŀ
åĳ ³
éĿ¢ ä¸´
Ġ 9
äºº å·¥
çĸ¾ çĹħ
æľĢ å¤§
ul ts
æĮĳ æĪĺ
è´Ł è´£
% ,
æĭ ĵ
åĩ ½
è¯ģ æį®
çĸ ĳ
æ ħ§
æĽ ¾
å®ŀ è¡Į
å· ¦
ç ĩ
st em
æ·± åĮĸ
2 4
ç¥ ¨
ä½ ł
uc h
ac k
åģ ı
èĩª åĬ¨
ar d
æĿ¥ æºĲ
èĩª æĪĳ
ec ts
çľ ¼
o ut
èĹ ı
ç®Ģ åįķ
æĿ¥ è¯´
è¶ĭ åĬ¿
äº ²
è® ¿
èµ Ķ
æĶ¹ åĸĦ
ot h
å¤ «
å¸ Ŀ
åĪĨ ç±»
ç´ ¯
å¾Ī å¤ļ
Ġo ther
å· ´
çĤ İ
æ± ½
re e
åĬ ª
ç§ Ł
Ġass oci
å»º è®®
Ġp os
ç« ¥
os is
Ġcont rol
çľŁ æŃ£
ç½ ²
Ġm ed
æĢ» ä¹¦è®°
éĢŁ åº¦
çªģ åĩº
è§Ĵ åº¦
åİŁ çĲĨ
Ġs am
è¯ ¸
ä¾ §
Ġs up
Ġt reatment
èĢĮ è¨Ģ
æĺ¾ èĳĹ
æŃ¤ å¤ĸ
çİ¯ èĬĤ
Ġ und
Ġth an
æķ ĳ
æķ° éĩı
å¹¶ ä¸į
ç»Ł è®¡
ä¸Ģ æĺ¯
el y
ç¯ ĩ
è½¬ ç§»
åħ± äº«
1 00
æĸĩ åŃ¦
duc ed
éĢļ ä¿¡
Ġf act
ä¸» åĬ¨
å¸ Į
èĢĮ æĺ¯
è§Ĥ å¿µ
äº ¡
éĺ ħ
C A
é¡ ¾
è®¨ è®º
åıĬ æĹ¶
éĽ ¶
Ġde velop
o x
Ġac c
åŃ¦ æľ¯
ä¹ĭ åĲİ
Ġ K
å±Ĥ æ¬¡
å¤Ħ äºİ
an c
æ¸ ¯
æ² ¿
éģ µ
æıĲåĩº äºĨ
å¾ª çİ¯
æĭ ¥
éĢĲ æŃ¥
æ³ķ çļĦ
é«ĺ æł¡
æ£Ģ æŁ¥
å¤ļ ç§į
çŃĸ çķ¥
çĻ Į
å¹³ è¡¡
ä¹ İ
çļĦ åİĨåı²
åĲ ¬
éĤ£ ä¹Ī
çĦ¶ èĢĮ
éħį ç½®
çº ·
7 0
æ¯ı ä¸ª
Ġn o
èĢ Ĺ
äº§ æĿĥ
å ©
Ġ ro
åĿ ı
çī¹åĪ« æĺ¯
çļĦ ç¤¾ä¼ļ
æ·± åĪ»
éģ¿ åħį
å± Ĭ
Ġstud ies
Ġv ari
æĻº æħ§
æĪĺ äºī
R NA
å¹ ħ
ç» į
c l
ç´ł è´¨
éĻ Ī
åĬª åĬĽ
æľī æľº
in ical
æĶ¯ ä»ĺ
å°¤ åħ¶
b er
ç² Ĵ
Ġa m
æľŁ éĹ´
Ġ{ #
ä½¿ å¾Ĺ
Ġa r
Ġt um
Ġ 8
g en
Ġdise ase
è Ń
Ġm an
ç ¹
ä¸į å¾Ĺ
èĥĮ æĻ¯
Ġm ore
n e
Ġa g
æ°ĳ äºĭ
äºĮ æĺ¯
ä¸į è¶³
è¯ķ éªĮ
çļ ®
e ver
åī §
ä¸Ĭ è¿°
åĵ ª
ä¸Ģ èĩ´
ä¸ĭ çļĦ
åı ³
r ic
Ġh igh
æĽ ¿
Ġs p
è´ ¡
Ġthe ir
æįŁ å®³
å®¢ è§Ĥ
Ġs pec
æľī éĻĲ
éĺ¶ çº§
ä¸º ä¸»
æĻ® éģį
Ġd es
åĪ¤ æĸŃ
Ġanalys is
æĢ» ä½ĵ
æĴ ĳ
og en
åİ Ĥ
çĽ Ł
Ġ el
ä¸¤ ç§į
Ġf unc
ç¹ ģ
åĶ ¯
ç³ ĸ
i le
è½¬ åĮĸ
ç¢ į
å® ı
at er
h ib
is m
ar g
è¿Ľè¡Į äºĨ
æľ¬ è´¨
Ġc ol
t al
Ġund er
Ġmod el
ä¹ ħ
éĻ Ĩ
åħĪ è¿Ľ
åŃĺ åĤ¨
çº ł
. (
å¾Ģ å¾Ģ
æ¯Ķ å¦Ĥ
å¤§ éĩı
or d
è®¾ ç½®
åĩĨ ç¡®
è§Ĥ å¯Ł
çļĦ æĸ¹æ³ķ
id e
èµ ĸ
è´ ¥
æįŁ å¤±
Ġc ar
æĶ¯ æĴĳ
è§ ¦
é© ±
Ġb ut
ç»ıæµİ åıĳå±ķ
Ġt im
å¹² éĥ¨
çĶ ²
åĽ¢ éĺŁ
ç ħ
s er
åĩ½ æķ°
è ĵ
ç£ ģ
åī ¯
æ³ ½
I n
ç§ĳ çłĶ
æľ¬ æĸĩ
w o
æĿĥ åĬĽ
Ġp ath
ä»ĭ ç»į
] ).
ç¼º ä¹ı
çı Ń
d e
è¿Ľ æŃ¥
è ĸ
Â ł
æĬķ åħ¥
Ġ qu
æĬĬ æı¡
ä¸ĭ éĻį
åº Ł
åĦ¿ ç«¥
æ± ł
è¦ Ĩ
æĬ ĳ
åģ ľ
åħ¬ å¹³
Ġgen e
ä» ª
or k
Ġim mun
ä¸Ģ å®ļçļĦ
çİ° åľ¨
æľº åĻ¨
l u
éĢĲ æ¸Ĳ
éĽĨ ä½ĵ
ä½ľ åĵģ
è¶ £
Ġd ec
å ´
n i
åĴĮ åıĳå±ķ
èµĶ åģ¿
æľīåĪ© äºİ
æĬ ĵ
æľ¬ èº«
ç¬¬ åĽĽ
is k
Ġa fter
è° ±
åıĳ å¸ĥ
ï¼Į âĢľ
Ġhe alth
a il
æľĢ åĲİ
æ¯ į
å¤ļ æķ°
å° Ĭ
è¾ ©
enti f
u res
åģ¥ åħ¨
å¸¦ æĿ¥
åĨ Į
é«ĺ è´¨éĩı
çĶ °
2 7
åĩ Ŀ
åĪ° äºĨ
åŃ¦ éĻ¢
è®Ń ç»ĥ
èµ ĭ
ä¸ŃåĽ½ çļĦ
ur ing
æĹ ħ
çļĦ æĸ¹å¼ı
9 0
æ¡ Ĩ
ç§ Ģ
æķ ı
ç®Ĺ æ³ķ
æĪĲ åĳĺ
é» ĳ
çĹħ æ¯Ĵ
âĪ Ĵ
åį ·
é Ĩ
æĬĢæľ¯ çļĦ
åħ· å¤ĩ
æµģ åĬ¨
ä¹łè¿ĳå¹³ æĢ»ä¹¦è®°
åĽ½ çļĦ
éľ ²
è¿ ģ
æĿ¥ çľĭ
åĴĮ ç¤¾ä¼ļ
Ġst r
um an
åĽ½ æľī
éļ¾ ä»¥
åįı åĲĮ
çĽĳ æµĭ
çĥ Ī
Ġo ut
æĢ» ç»ĵ
Ġ 20
at ory
æķĻ æİĪ
è´¢ åĬ¡
å±Ĥ éĿ¢
å·¥ä½ľ çļĦ
åħį çĸ«
C T
ä½į ç½®
åį± æľº
ĠTh is
è¶Ĭ æĿ¥
2 6
èŃ ¦
ï¼ī ï¼Į
è¶ĬæĿ¥ è¶Ĭ
t en
is s
y l
2 8
çĽ¸ åĲĮ
è¿ŀ æİ¥
åĩº çīĪ
æ±½ è½¦
çļĦ æķ°æį®
åį« çĶŁ
æĿĥ çĽĬ
æŃ£ å¸¸
æµĭ éĩı
æĶ¹éĿ© å¼ĢæĶ¾
t ain
åĽ½å®¶ çļĦ
é¼ĵ åĬ±
çĬ¶ åĨµ
a red
Ġcan cer
è¯ ĳ
Ġv al
å¯ »
é¢Ħ æµĭ
iz ed
è¿ «
on s
p er
å¿ħ çĦ¶
ä¸ĵ å®¶
çģ ¾
Ġsy stem
am m
ä¸Ĭ æµ·
è´¡ çĮ®
ay s
èį¯ çī©
æ¢ °
æķ°åŃĹ åĮĸ
å¤ļ æł·
Ġlevel s
ä¸¥ æł¼
vel y
æ¯Ķ ä¾ĭ
æķĪ åºĶ
å¹³ åĿĩ
åŃ¦ èĢħ
Ġ id
é ¸
æģ ¶
åŁº éĩĳ
åĮħ åĲ«
S C
è¿ĺ æľī
çªģ çł´
åħ µ
æĹ §
in al
è° Ĳ
çļĦ åħ³ç³»
Ġ J
èŀį èµĦ
] .
è®º æĸĩ
é«ĺ çļĦ
Ġm o
å¤ļ ä¸ª
ter n
re c
æĢĿ èĢĥ
c ess
è¯· æ±Ĥ
é«ĺ çŃī
è´ µ
çłĶ åıĳ
å±ħ æ°ĳ
éĿ Ļ
å½ĵ æĹ¶
è¯ ¢
olog ical
æ¡Ī ä¾ĭ
r on
è¯Ĩ åĪ«
u es
3 5
éĻ ·
å¤§ ä¼ļ
ä¾Ľ ç»Ļ
r y
å®Į æķ´
æµģ ç¨ĭ
ï¼ļ âĢľ
åį ĸ
Ġf ol
åĲĦ ä¸ª
å®¢ æĪ·
in ed
çļĦ ä½ľçĶ¨
åĳ¨ æľŁ
éĹ »
Ġl ow
å¥ĭ æĸĹ
åºĶ å¯¹
åı ¶
y m
ati c
æ³¨ éĩį
å§ĭ ç»Ī
åªĴ ä½ĵ
åı ¥
èĤ¿ çĺ¤
re l
ar k
Ġs uch
åıĮ æĸ¹
ç» ķ
è¾ ħ
æ°§ åĮĸ
Ġs er
Ġl i
æľ «
åıĳ è¡¨
åĬ¨ æĢģ
æŃ£ åľ¨
èĤ¡ ä¸ľ
Ġme as
çľŁ å®ŀ
æĬ ĺ
ä¿¡ çĶ¨
Ġcl inical
åĢ į
Ġh yp
æķĻ æĿĲ
å¯¹ å¤ĸ
% )
S A
æĺ¯ ä¸Ģ
ç¤¾ä¼ļ çļĦ
il d
è½ ®
åĢº æĿĥ
ac ter
he m
äºĨ ä¸Ģ
o k
ä¸ĵ åĪ©
æ° ¸
äº ¦
ç² ®
åĿ Ģ
å®¹ æĺĵ
åħļçļĦ åįģ
èĤ º
è®° å½ķ
åıĺ éĿ©
æĽ´ å¥½
olog y
è§Ħå®ļ çļĦ
æĿ¥ èĩª
ä¼ ¦
æĸ° åŀĭ
åŁºç¡Ģ è®¾æĸ½
åıĤ èĢĥ
æ¶ ¦
åħ¬ æ°ĳ
Ġres ults
Ġ Î
çĦ¶ åĲİ
ç¤ ¼
åĨħ çļĦ
éĻ¤ äºĨ
çº ¯
ç¤¾ åĮº
. ,
æ·± åº¦
2 9
ç»ıæµİ åŃ¦
åĲĪ æ³ķ
Ġb oth
éĢĶ å¾Ħ
åħ ¼
Ġo ver
Ġt wo
åį ¡
' s
å®ª æ³ķ
æīĢ è°ĵ
æĬ ½
åħ °
è¡¨ éĿ¢
é² ľ
Ġpar tic
å® ĭ
åı¯ æĮģç»Ń
è´ ¦
Ġ1 9
æī ¬
al s
æī ¶
çļĦ ä¸Ģä¸ª
åĶ Ĳ
ä¸» å¼ł
éĢ Ĵ
ce pt
Ġper form
ä¼ ´
è®¤ å®ļ
ä»į çĦ¶
åĬł å·¥
ä¸Ģ ä½ĵ
æħ ¢
t ing
çĲĨ æĥ³
he d
è´¹ çĶ¨
è£ Ĥ
è´¯ å½»
åħ¨ éĥ¨
éĩ İ
ow ever
ag n
ç¦ ģ
é¦ Ĩ
æķ´ åĲĪ
é£Ł åĵģ
è¿ ħ
r im
ĠÂ ±
Ġb i
è®¤ çŁ¥
ä¸Ń å°ı
çĩ ĥ
åİĭ åĬĽ
Ġw ill
æļ ´
ä¸į ä¼ļ
) ãĢģ
ä¹Ł æľī
c ent
æ¹ ĸ
Ġ Ċ
Ġr isk
ow n
åŃ Ķ
å®¡ è®¡
äººå·¥ æĻºèĥ½
æł¼ å±Ģ
çļĦåŁºç¡Ģ ä¸Ĭ
å® ģ
æĶ¶ çĽĬ
é ½
å¤į åħ´
on d
ĠW e
åĲĦ ç±»
æİĴ æĶ¾
æ¡Ĩ æŀ¶
åĽ° éļ¾
åĢ ¾
é Ń
pl ic
Ġmet h
æĸĹ äºī
éĺ Ĳ
åħ± åĴĮ
ac e
é«ĺ æķĪ
åŁİ éķĩ
èį £
åīį æıĲ
G F
æģ ¢
å¹³ çŃī
çĽ¸ æ¯Ķ
Ġmic e
Ġid entif
éĺħ è¯»
Ġn um
ä¸Ģ æ¬¡
ç¾İ åħĥ
å® ľ
Ġap pro
çī© æµģ
é º
æķĻèĤ² çļĦ
æ½ ®
çŁ ¿
æĸĩ ç«ł
tic al
éĺ ¿
åĽ½ åĬ¡
Ġin hib
èİ· åıĸ
b le
Ġexp er
é¡ µ
äº§çĶŁ çļĦ
æĢ İ
å¤ĸ éĥ¨
A P
åĨ ·
åħ¸ åŀĭ
Ġ* *
Ġh uman
in ding
æĭ Ľ
æĿ ¾
ç¼ ĺ
ï¼ī ãĢĤ
çļĦ è§Ħå®ļ
in es
åŁİ ä¹¡
åĩº çļĦ
æº ¶
æľ ¨
æıı è¿°
æ¸© åº¦
è¿½ æ±Ĥ
ic i
å·¥ èīº
å¹ ¼
åıĳ è¾¾
éĶĢ åĶ®
é¾ Ļ
åŁº å±Ĥ
å®¡ æŁ¥
it e
å¤§ æķ°æį®
ĠA l
æĸĩ çĮ®
çĽ ĺ
æĹ¶ åĢĻ
æĬ ¼
åħ ģ
he n
ä»İ äºĭ
è¿ĩ åİ»
Ġfol low
e f
æĦŁ æŁĵ
å¡ ĳ
å®ī æİĴ
åĪĳ äºĭ
æģ¢ å¤į
åı¦ ä¸Ģæĸ¹éĿ¢
åĽ½åĬ¡ éĻ¢
Ġtim e
Ġon e
Ġassoci ated
d er
çĻ» è®°
è¯Ĭ æĸŃ
éĶĻ è¯¯
æľº æ¢°
æĺ¯ å¯¹
åĳ ¼
åı ¬
ere d
Ġpro g
ä¹ĭ åīį
æ® ĸ
an ts
"} ).
æĪ ı
å¸ĥ å±Ģ
Ġpro vid
ä» ²
åĩº åı£
I P
Ġm on
ä¸Ģ çĽ´
orm al
æ¯ ķ
åĪ ĺ
ar t
åħ¬ å¼Ģ
èĻļ æĭŁ
è° ĭ
åĴĮ è°Ĳ
åĲĮ æł·
Ġob ser
æĹł è®º
åĪĽ ä¸ļ
è®¾ ç«ĭ
æĭ¥ æľī
æ¤į çī©
ä¼ł è¾ĵ
åįĩ çº§
èĤ Į
å°½ ç®¡
åĩº äºĨ
Ġdifferen t
å®ŀ ä½ĵ
åįģ åĪĨ
a re
çŃī æĸ¹éĿ¢
è½ ¨
Ġint o
éĥ¨ ç½²
å®ļ ä½į
è¡ °
20 20
å¸ Ń
æłĩ å¿Ĺ
æŃ Į
us e
Ġind ic
é©± åĬ¨
Ġpres ent
çº ²
Ġd uring
è·¯ å¾Ħ
çĦ ¦
çī¹ å®ļ
èĤ Ŀ
åĩº åıĳ
èħ Ĳ
çļĦ èĥ½åĬĽ
ä¸Ń åħ±
æĺ ¥
ç»Ł çŃ¹
Ġs ug
Ġe t
çĽ¸ å½ĵ
çī¹ æĢ§
åıĤ æķ°
åĨħ æ¶µ
ä¸Ģ åĪĩ
ç¿ »
éĩį æĸ°
çĽ¸åħ³ çļĦ
ä¼ĺ ç§Ģ
ãĢ Ĳ
ç»ıæµİ çļĦ
æ² ī
ãĢ ĳ
Ġre p
é¾ Ħ
éĹ Ń
åĪ¶éĢł ä¸ļ
åĲĦ åĽ½
ĠC D
ä¾Ŀ èµĸ
éħ ¶
åİ ļ
Ġde f
æĥ ¯
C C
0 5
o uld
åĨĽ äºĭ
é¦ Ļ
Ġfor m
Ġn on
åı ĭ
åĲĮ å¿Ĺ
éĴ ±
æĻ® éĢļ
4 5
e x
å³ °
ĠS t
æĦı åĳ³
ł éģĵ
Ġf ound
åĬł å¤§
èĭ± åĽ½
ple ment
å¤ļ åħĥ
äºĮ åįģ
å° ¼
æķĪ çĽĬ
ä¸Ģ æł·
çī ¢
Ġe ach
iz ation
è· Ł
ä¿¡æģ¯ åĮĸ
æ¯Ľ æ³½
å© ļ
æ² Ł
åĮ» åŃ¦
ä¹ ±
çĶŁ æĪĲ
å¼ ¹
æĥ ł
å£ ¤
æ¯Ľæ³½ ä¸ľ
duc tion
è¦Ĩ çĽĸ
A T
éĿ¢ å¯¹
ä¸ª ä½ĵ
çļĦ å·¥ä½ľ
c ri
ç© ¿
è¿Ĳ è¾ĵ
åıª æĺ¯
çĽ¸ ç»ĵåĲĪ
Ġsug g
æ°Ķ åĢĻ
å®£ ä¼ł
3 3
Ġex am
Ġt iss
å®ŀè·µ ä¸Ń
å®ı è§Ĥ
çļĦ è¿ĩç¨ĭ
æ¡ £
è´· æ¬¾
æĬĳ åĪ¶
åº¦ çļĦ
Ġe m
Ġ up
èģĮ èĥ½
f t
çļĦ çĲĨè®º
å¼ķ é¢Ĩ
oc k
åĬ© äºİ
æŁĲ äºĽ
åĳĪ çİ°
åĲĦ çº§
è°ĥ èĬĤ
äºĭ åĬ¡
ä»¥ åĲİ
æ¬§ æ´²
ä¿ Ĺ
åıĤ åĬł
C D
æĹ ¨
Ġincre ased
åĬ¨ çī©
Ġ end
ç§ ©
è¯ ļ
Ġ( [
çĶ¨ çļĦ
at ure
ç» ĺ
åķĨ æłĩ
por ted
æĹ© æľŁ
è¿Ĳ èĲ¥
r ation
éĽĨ æĪĲ
ä¼ł æĦŁ
åĬŀ æ³ķ
m on
è§£ æĶ¾
p os
æĻ ¶
ä¼ĺ åħĪ
é¢ĨåŁŁ çļĦ
æĹ¥ çĽĬ
éĽĨ åĽ¢
ä¸Ĭ åįĩ
æĥħ å½¢
çĶµ æ±ł
åıª èĥ½
è½¬ æį¢
çļĦ åĨħå®¹
ä¼łç»Ł çļĦ
ä¹Ł åı¯ä»¥
Ġh ad
å² Ĺ
ti t
ut e
di tion
åħļ ä¸Ńå¤®
æµ ĵ
å¼ ĥ
æµ· æ´ĭ
çĶ± æŃ¤
çļĦ è¦ģæ±Ĥ
åħ¬ ä¼Ĺ
æ² Ļ
éļľ ç¢į
ç¨İ æĶ¶
çĹ Ľ
Ġa ut
åĬ³åĬ¨ èĢħ
åĽ´ ç»ķ
èĴ Ļ
æĶ¹ éĢł
åĽ¾ åĥı
Ġo ur
èĪ ¹
ç»§ æī¿
lo od
Ġthe rap
è ¸
ç§© åºı
åĪ º
å¥ ĸ
C P
Ġt est
å½ ©
çī Į
å² Ľ
ation al
å»ºè®¾ çļĦ
çĽ¸åºĶ çļĦ
åĽĽ ä¸ª
Ġs im
èĬĤ çĤ¹
æ® ĭ
r am
è° ¢
å°± ä¼ļ
çĻ¾ å¹´
ur ther
äº¤ æį¢
æľīæķĪ çļĦ
ç¬¬ åįģ
åĩĨ å¤ĩ
ç»Ļ äºĪ
ä¸»è¦ģ æĺ¯
ä¸Ģ èµ·
çģ Ń
åľ° çĲĨ
éŁ³ ä¹Ĳ
å®ĥ çļĦ
æĽ´ ä¸º
åĪ¶åº¦ çļĦ
çĶŁæĢģ çİ¯å¢ĥ
åľŁ å£¤
c c
éĥ½ æľī
æķ°æį® åºĵ
Ġcomp le
çļĦ è¡Įä¸º
æ¿Ģ åıĳ
è¿ŀ ç»Ń
å¥ ĩ
åĢ ¡
3 6
çħ ¤
å¦Ĥ æŃ¤
å½¢ åĬ¿
æĦıåĳ³ çĿĢ
åı¦ å¤ĸ
19 8
æī °
è¯ģ åĪ¸
çŁ¥è¯Ĩ äº§æĿĥ
é¡ ¶
åĳĺ å·¥
ç¾¤ ä½ĵ
m ed
åŁ¹ èĤ²
åĪ Ĭ
æĢ Ģ
k e
ä¾µ æĿĥ
æ ¾
u tion
æ¹ ¾
æĶ¶ éĽĨ
è¿Ļ éĩĮ
æĶ¹ è¿Ľ
Ġcomp ared
é¢Ħ éĺ²
ä¸» é¢ĺ
çº ¤
éķ ľ
ä¸ĵ éĹ¨
çļĦ åħ³éĶ®
3 8
Ġactiv ity
ä¸Ģ ç³»åĪĹ
åĦ Ĵ
è¿Ļæł· çļĦ
ç§ ĺ
å° ¿
èĩª æ²»
) ãĢĤ
ul ated
æŃ£ å¼ı
ot he
Ġs ec
ä¸ŃåĽ½ äººæ°ĳ
i v
åŃ £
ä¿® æĶ¹
è¿ĳ å¹´æĿ¥
éļ Ķ
æı Ń
çł´ åĿı
Ġgen er
æĸĩåĮĸ çļĦ
ä¿ Ħ
D P
" "
æľº ä¼ļ
æ´ ģ
ear s
Ġre se
è´ ´
è¯ º
Ġsy n
è¿ħ éĢŁ
Ġon ly
re g
åŃ¦ çļĦ
å½¢æĪĲ äºĨ
åĽ¢ ç»ĵ
åľ¨ æŃ¤
å® Ŀ
éĿ¢ ç§¯
ç¡® ç«ĭ
å² ģ
éĩĳ å±ŀ
æĪĲ å°±
c es
åĲ¸ æĶ¶
è¿Ŀ æ³ķ
è´« åĽ°
è¯ ¦
æľī æīĢ
éĺ² æŃ¢
æĮ¯ åħ´
åĮº åĪ«
ab ility
ç»ıæµİ ç¤¾ä¼ļ
m in
å° º
o in
ro ugh
çĶŁ éķ¿
Ġ çļĦ
Ġm in
å®ŀéĻħ ä¸Ĭ
Ġw ell
ech an
Ġtum or
ar ch
åĩł ä¸ª
è¯¾ é¢ĺ
ren t
ment s
ä¸ī æĺ¯
æ£ ®
l i
ver s
S T
ä½ Ľ
Ġit s
å½ĵ ä»£
åº §
åĴĮ å¹³
é½ Ĳ
ĠĠĠĠĠĠĠĠĠĠĠĠ ĠĠĠ
æĭħ ä¿Ŀ
is e
Ġmeth od
éĿ¢ åĲĳ
æ¿Ģ åĬ±
å®ŀ è´¨
åı¯ éĿł
Ġp ot
ä½ĵ èĤ²
Ġmeas ure
çº¦ æĿŁ
ç§» åĬ¨
çļĦ é«ĺ
å¸Į æľĽ
æ¶Īè´¹ èĢħ
çļĦ æ³ķå¾ĭ
åģļ å¥½
I T
Ġd em
æ£Ģ å¯Ł
enc y
ir st
åħ¶ æ¬¡
æİ¨ å¹¿
ç»Ħ åĲĪ
çº¦ å®ļ
å°¤åħ¶ æĺ¯
l ic
Ġin s
è Ķ
it ed
Ġm ut
r al
åĽº å®ļ
o ugh
æĹħ æ¸¸
s y
åħĥ ç´ł
Ġ $
è°ĥ æİ§
enti al
åĪ© çİĩ
Ġdet erm
ä¼ į
c i
p it
æĪĲ çĨŁ
åŁº åľ°
Ġeff ect
3 4
åħ´ è¶£
åĽł èĢĮ
æ¨¡ æĭŁ
å¤§ åĬĽ
a v
Ġm ost
çĸ« æĥħ
ç ŀ
åĪĽ å»º
i tion
od y
ä»² è£ģ
åģļ åĪ°
ç±» ä¼¼
ag es
çłĶç©¶ çļĦ
åħģ è®¸
çŁ¥ éģĵ
Ġdi agn
çºł çº·
èµĦæľ¬ ä¸»ä¹ī
å¯¼ åĲĳ
è¡Į çļĦ
è¿Ľ èĢĮ
äº¿ åħĥ
çļĦ åıĺåĮĸ
æ¨¡ åĿĹ
è¿ ¹
ä» ¿
çº µ
åĨ ł
A R
äºĪ ä»¥
å¹¿ å¤§
èĤ ¥
Ġk n
un g
åħ±åĴĮ åĽ½
Ġre m
èģĮ è´£
Ġ åľ¨
b ib
æ° ¢
arg et
3 1
Ġpati ent
æ³¨ åĨĮ
3 7
Ġnum ber
Ġb lood
ãĢĭ ,
n al
A C
å®ŀçİ° äºĨ
Ġus e
å¦Ĥ ä¸ĭ
èī¯ å¥½çļĦ
è¡Ģ ç®¡
Ġim port
ãĢĭ ï¼Į
å± ĭ
èº« ä»½
o b
ç¥ ĸ
çº³ åħ¥
å¼º åĪ¶
us t
æŀ¶ æŀĦ
å»º æĪĲ
Ġass ess
us ion
éĿĴ å¹´
è® ¯
ä¼łæĦŁ åĻ¨
åĿļ å®ļ
Ġex t
èĪ ŀ
æ³ķ å®ļ
åĪ ļ
å®ŀéªĮ å®¤
éĴ ¢
çļĦ ä¿¡æģ¯
çĶµ åĬĽ
çļĦ ç»ıæµİ
çĶµ è·¯
Ġ 200
åħļ åĳĺ
å¸¸ è§ģ
åı¯ è§ģ
ä¹Ł å°±æĺ¯
åįı åķĨ
åĨ² çªģ
ç ĳ
è¾ĵ åħ¥
è¾ ¨
çĪ ¶
ä¸Ńåįİ äººæ°ĳ
Ġwh o
Ġ\ <
Ġ( *
çļĦ æľĢ
å½ĵ çĦ¶
å®Ĺ æķĻ
çļĦ åĲĮæĹ¶
äºī è®®
Ã Ĺ
% .
çľĭ åĪ°
å¤§ å¤ļæķ°
Ġm echan
Î ²
Ġfunc tion
è¿ Ķ
æŃ» äº¡
å·¦ åı³
m a
end ent
æ£Ģ éªĮ
u ro
Ġdis t
éľ ĩ
æ¥ ļ
çļĦ ä¸Ģç§į
ç¡® è®¤
æĥħ æĦŁ
åĩ Ģ
èĥ½ éĩı
çŃī çŃī
åį± éĻ©
åĪ© æ¶¦
åįķ åħĥ
======== ========
ä¸ªäºº ä¿¡æģ¯
éĺ µ
åħļ åĴĮ
çĶŁ åŃĺ
ul ti
è½¬ è®©
äººæ°ĳ ç¾¤ä¼Ĺ
I I
Ġb l
Ġpro cess
èĢĥ æł¸
Ġrespon se
ĠH owever
in d
èĭ ¦
åľº æĻ¯
èį ·
3 2
è· ĥ
c om
Ġh ig
ç´ł åħ»
åĨħ åľ¨
æĺ¯ ä»¥
æľī åĬ©äºİ
çĽ Ľ
Ġco uld
åĪĨ ç¦»
Ġeff ects
å¡ ŀ
åĬĽ åº¦
æİ¢ è®¨
ä½ĵ éªĮ
E R
an s
Ġshow n
vi ous
å¿ ½
-- -
æ´ ŀ
æģ ©
M P
æĺ¯ çĶ±
æĸ° éĹ»
Ġin di
ä¹Ł ä¸į
åĲĮ ä¸Ģ
æ´» æĢ§
å¸Ĥåľº ç»ıæµİ
ä»·åĢ¼ è§Ĥ
uc t
ãĢģ "
å·¨ å¤§
qu i
vi ew
.. ..
äºĴ åĬ¨
è´Ń ä¹°
éªĮ è¯ģ
è¢« åĳĬ
ç»ı åİĨ
Ġth rough
å¾Ī å¤§
âĢ¦ âĢ¦
ç¬¬ äºĶ
æķ°æį® çļĦ
or t
Ġro le
è¡Į ä½¿
) ;
l es
Ġ 201
ï ½
4 9
S P
æĸĩ åŃĹ
Ġs el
Ġthe re
éĢĤ å½ĵ
ĠĠĠĠĠĠĠĠĠĠĠĠĠĠĠĠĠĠĠĠĠĠĠĠĠĠĠĠĠĠĠĠĠĠĠĠĠĠĠĠĠĠĠĠĠĠĠĠĠĠĠĠĠĠĠĠĠĠĠĠĠĠĠĠ ĠĠĠĠĠĠĠĠĠĠĠĠĠĠĠĠĠĠĠĠĠĠĠĠĠĠĠĠĠĠĠĠĠĠĠĠĠĠĠĠĠĠĠĠĠĠĠĠĠĠĠĠĠĠĠĠĠĠĠĠĠĠĠĠ
è¾ĵ åĩº
æĭĵ å±ķ
çļĦ æĬĢæľ¯
èĢĥ è¯ķ
èĦ ı
çļĦ æĢĿæĥ³
è®¿ éĹ®
20 21
æĢģ åº¦
çļĦ æĥħåĨµä¸ĭ
Ġp red
an ge
ä¼ ĳ
ç¦» åŃĲ
å¾· åĽ½
æī§ æ³ķ
ec tive
è¡¥ åģ¿
èĦ Ĥ
åħ³ èģĶ
äººæīį åŁ¹åħ»
æµ ª
åī ²
çļĦ æķĻåŃ¦
æīĢ å¾Ĺ
è¿Ľ å±ķ
å±ŀ æĢ§
si ve
l amm
çĶ¨ äºº
æİ¢ ç©¶
éĽ ·
èĢ ķ
Ġne ur
è®© åŃ¦çĶŁ
ä¸» å¯¼
ç»Ł æ²»
åľ Ĩ
æİ ĺ
Ġsignificant ly
er g
Ġm em
ç®¡çĲĨ çļĦ
èĩª è§ī
Ġwhe n
4 8
åĲĦ é¡¹
å®¡ åĪ¤
çļĦ æĹ¶éĹ´
æĿ¡ä»¶ ä¸ĭ
Ġo p
Ġperform ed
çĽ Ĳ
on str
Ġdevelop ment
å¯Ĩ åĪĩ
Ġv ir
æĢĿ è·¯
çļĦ ä¸į
åı¤ ä»£
ç²® é£Ł
æ° ı
ar ly
ç»ĵ è®º
i ve
éģµ å¾ª
ro ph
ä¸Ģ æĿ¡
å°Ĭ éĩį
Ġc yt
Ġde p
ä»ĸ äºº
ti g
val u
æŃ£ æĺ¯
ti l
ä¹ Ļ
ä½ ³
å· Ŀ
äºº åĬĽ
ä¹ĭ å¤ĸ
Ġgen es
è¾ ĸ
æ ĩ
åħ³ç³» çļĦ
æĿ Ģ
Ġs m
æĳ Ħ
æīĵ éĢł
å¼º çļĦ
è·¯ çº¿
è£ ķ
vid ual
ä½ľ ä¸ļ
Ġcon f
æĪĳä»¬ çļĦ
in ation
åĬł éĢŁ
æ¹ ¿
èĭ± è¯Ń
æĹ ĭ
å® ĩ
ç§¯ ç´¯
ä¾ĽåºĶ éĵ¾
éĢ Ĩ
Ġa ge
Ġp rim
9 5
å°ĳ æķ°
è·Ŀ ç¦»
un t
Ġc ur
ãĢĭ ãĢģ
éĺŁ ä¼į
I D
é¢Ħ æľŁ
0 1
ç¤º èĮĥ
æĶ¹éĿ© çļĦ
ä»£ çĲĨ
Ġspec ific
D NA
ç»ıæµİ å¢ŀéķ¿
iti es
å ĺ
æī§ æĶ¿
å¤ļ çļĦ
æī© å±ķ
åĤ ¬
æ°ĳ æ³ķ
éĩı åŃĲ
åħ¬åı¸ çļĦ
P P
åľ¨ ä¸ŃåĽ½
èĥ ģ
çļ ĩ
æķ Į
Ġfact ors
éģ Ń
ä¿¡æģ¯ æĬĢæľ¯
å¼ķ åħ¥
èĥ Ģ
äº§åĵģ çļĦ
ar acter
tic s
å±ķ å¼Ģ
ä¸º æł¸å¿ĥ
è¾ĥ å¤§
æīĢ åľ¨
åĮĸ åĴĮ
o v
å¤Ħ ç½ļ
åĲ Ľ
è¾ĥ ä¸º
ä¹ĭ ä¸Ń
it s
æ¡ ¥
æĤ ¨
å¹¼ åĦ¿
o id
Ġg l
Ġ â
ra ph
Ġanti b
åĩº æĿ¥
æľŁ éĻĲ
åį³ ä½¿
æ¸ łéģĵ
çļĦ æ¦Ĥå¿µ
å½¢ è±¡
i tive
éģĹ ä¼ł
çĲĨ æĢ§
å¤ ı
Ġim p
åĭ ĩ
" (
åŃĺåľ¨ çļĦ
æľī çĿĢ
Ġ ra
è ª
Ġthe y
åıĺ éĩı
Ġp ol
% ï¼Į
as c
Ġp op
Ġb rain
ä¾Ŀ éĿł
al e
A S
æĪĲ éķ¿
çº ¸
èģĮä¸ļ æķĻèĤ²
7 5
Ġl oc
ç¨ĭåº¦ ä¸Ĭ
Ġobser ved
ä»Ĭ å¤©
C O
èµ Ľ
èĮĥåĽ´ åĨħ
æĴ ¤
ol d
ç§ ¦
Ġinv ol
çĪ Ĩ
æ·· åĲĪ
èĸ Ħ
èĥ½åĬĽ çļĦ
å¯¹ åħ¶
æĶ» åĩ»
ĠC h
äºĭ æķħ
ä¹ ĥ
ĠI L
o ver
éĤ ¦
åĵª äºĽ
åĳ ¢
å°ı ç»Ħ
i x
åĮ» éĻ¢
æĹ ¦
èĢĮ ä¸įæĺ¯
ç½ĳç»ľ å®īåħ¨
Ġt arget
ä»ĸ çļĦ
ĠĠĠĠĠĠĠĠĠĠĠĠĠĠĠĠ ĠĠĠĠ
èµ° åĲĳ
ĠThe se
èĤ ī
æı ´
æĻ ļ
ç»© æķĪ
Ġ es
èĭ Ĺ
èĥ ¶
äºº ä¸İ
c rib
åľ° çĲĥ
Ġd o
æ´»åĬ¨ çļĦ
è¿Ŀ åıį
å¦ ĩ
l ed
èµĦæºĲ çļĦ
ä½¿ åĳ½
åıį å¯¹
åĬł ä»¥
è¯ ±
ç± į
æĿ¡ æ¬¾
æŁĲ ç§į
ti vely
Ġf irst
åŃ ©
Ġinclud ing
Ġmic ro
åº Ĩ
çī© èģĶç½ĳ
6 5
åĲĪ æĪĲ
é¢Ħ ç®Ĺ
Ġre f
å½¢æĪĲ çļĦ
æ¸ Ĺ
åŁºç¡Ģ ä¸Ĭ
åį« æĺŁ
3 9
å¤ª éĺ³
æľįåĬ¡ åĻ¨
ä¹ł æĥ¯
æ°ĳ éĹ´
Ġre cept
è¡¥ åħħ
er y
h a
äºº å¤§
æ¯ķ ä¸ļ
å¼Ĥ å¸¸
éĴ Ł
çĹĩ çĬ¶
éĢļ çŁ¥
çļĦ æł¸å¿ĥ
æĹ¥ å¸¸
èĥľ åĪ©
Ġindi vidual
å·¥ èµĦ
èĭ¥ å¹²
åħ¨ ä¼ļ
Ġch ang
Ġn ormal
I V
ç»´ æĮģ
äºĭ é¡¹
A D
æĪĳä»¬ åħļ
é¦ĸ æ¬¡
ä¸ Ŀ
iz e
Ġshow ed
ä»ĸä»¬ çļĦ
Ġre ported
èĢĮ ä¸į
Ġe valu
201 8
ä¸º ä¸Ńå¿ĥ
æĹ Ĺ
pl es
ä¸Ńåįİäººæ°ĳ åħ±åĴĮåĽ½
ç²¾ åĩĨ
Fig ure
èī¯ å¥½
o od
æĪ ª
a x
4 4
æĹ¶ çļĦ
åĲ¯ åĬ¨
éĺ ´
Ġa ff
åŀ Ħ
å¥ ĳ
æ¢ ģ
åĴĮ åħ¶ä»ĸ
èħ º
ep endent
E S
é² ģ
20 19
Ġwhe re
r in
ä¸ĩ åħĥ
åĪĽ ä½ľ
ä½ĵç³» çļĦ
Ġinf orm
éĤ£ äºĽ
åĲĦ åľ°
åħ» èĢģ
Î ±
Ġhig her
Ġexper im
Ġmed i
åĬł åħ¥
æľī äºĨ
ä¸º åŁºç¡Ģ
å°Ĩ åħ¶
å¸¦ æĿ¥çļĦ
ãĢĤ "
çĶŁäº§ åĬĽ
ent ly
æĿ¡ ä¾ĭ
çļĦ ç»ĵæŀľ
åı¬ å¼Ģ
åį± å®³
å¯¹ åºĶ
å¼º åº¦
çİ ī
åĢ Ĵ
éª ¤
åĽł åŃĲ
åĵ Ī
uc le
åŀĦ æĸŃ
å£ ģ
åĪĩ å®ŀ
çļĦ åºĶçĶ¨
Ġmechan ism
\ *
èĢĥ å¯Ł
åĮº åĿĹ
æĽ´ æĸ°
es tig
èī °
çĶŁ çļĦ
å¥ ¥
ãĢĤ âĢľ
ä¼Łå¤§ å¤įåħ´
Ġsign al
åħħåĪĨ åıĳæĮ¥
p tion
l is
è®¸ åı¯
ä¼ ¸
é¥ ®
æĿ Ĩ
åı¯èĥ½ ä¼ļ
åıª è¦ģ
èĳ £
R I
Ġimport ant
æľįåĬ¡ çļĦ
èĤ¡ æĿĥ
Ġch aracter
åĪĿ æŃ¥
æľī äºĽ
å¹ ¸
Ġch ild
é«ĺè´¨éĩı åıĳå±ķ
æ²Ł éĢļ
åĬ³åĬ¨ åĲĪåĲĮ
re ated
Ġdec re
Ġtiss ue
ä¸º ä»Ģä¹Ī
å¸Ĥåľº çļĦ
åķĨ åĬ¡
æī £
Ġy ears
çĶ¨äºº åįķä½į
æ¢ ¦
æĸ° åħ´
P S
ç»ı å¸¸
è¯ķ çĤ¹
å±ķ ç¤º
èµ ¢
æĬµ æĬ¼
çĤ ¼
âĳ ł
èĢ Ĳ
Ġpre vious
om a
åº Ħ
éĢĤ åĲĪ
ä¼¦ çĲĨ
éĿŀ æ³ķ
æĽ¿ ä»£
æĸ¹ éĴĪ
åĪ° çļĦ
å½ĵ åľ°
ic e
å¼ķ åıĳ
Ġs tim
ãĢģ âĢľ
å¢ ¨
ĠA n
åĪ¶ çº¦
è½ ´
Ġth ree
è ļ
Ġgro w
an n
äºº åľ¨
Ġne w
00 1
é¢ĳ çİĩ
è¡Įä¸º çļĦ
å¿ Ĩ
rec t
Ġs ome
ä¸Ĭ å¸Ĥ
éĻ¢ æł¡
åįģ åĽĽ
è¿ İ
åĽ½ å¤ĸ
ati s
åĩł ä¹İ
å£ ®
è ķ
åĳ½ è¿Ĳ
è§Ĵ èī²
Ġrese arch
æĸ½ å·¥
ä¸Ģ æĸ¹
Ġreg ion
Ġwith in
ç§ĳæĬĢ åĪĽæĸ°
å² ¸
s es
4 6
-------------------------------- --------------------------------
é¦Ļ æ¸¯
ä¸į åĨį
ä¼ ¯
èĤ ¾
O S
201 7
ç»Ħç»ĩ çļĦ
æ¨ ª
" ãĢĤ
åįļ å£«
å§ ĵ
å¹´ äºº
é© ¾
ä¹ĭ è·¯
ç´§ å¯Ĩ
æĻ °
æıŃ ç¤º
å· ©
åı¯ä»¥ éĢļè¿ĩ
åįģ äºĮ
èĩª ä¿¡
ç¤¾ä¼ļä¸»ä¹ī çİ°ä»£åĮĸ
7 8
çĿĢ åĬĽ
åģļ åĩº
t he
çļĦ æĶ¿æ²»
Ġb ec
å¹¶ éĿŀ
æĽ´å¥½ åľ°
Ġin j
t able
å·® è·Ŀ
op h
é¥ °
çĭ¬ çī¹
äººæ°ĳ å¸ģ
äº§ä¸ļ éĵ¾
æ½ľ åľ¨
éģĹ äº§
E T
ç¼º éĻ·
ç¨ ¿
r ug
è£ħ å¤ĩ
Ġth ose
åĪº æ¿Ģ
Ġw ork
æĮ ĸ
ç»Ŀ å¯¹
Ġm ulti
åħ±åĲĮ ä½ĵ
Ġinv estig
Ġpartic ip
åĪ¤ åĨ³
éĽ ¨
5 3
å§Ķ æīĺ
æĬ½ è±¡
èĻ «
å «
éĩĳèŀį æľºæŀĦ
æ¼ ı
Ġo cc
åľ Ī
a i
æ´ ¥
ä¸ ½
M S
Ġpath w
Ġc al
âĳ ¡
å¹¶ åľ¨
åŃ Ļ
Ġgroup s
ä¸į è¿ĩ
åħ« å¤§
ç» ª
æŁ ±
Ġdem onstr
éĹ´ çļĦ
çİ° æľī
åİŁ åŃĲ
ç¼ ´
å¨ģ èĥģ
ä»£ çłģ
Ġcor rel
å® «
èĬ ¯
åĩ ¡
4 7
en si
çļĦ çī¹çĤ¹
æī¹ åĩĨ
Ġdis c
ç»ĦæĪĲ éĥ¨åĪĨ
ä¸» è§Ĥ
Ġ +
æİĪ æĿĥ
ä¼ł éĢĴ
I S
è¯Ń æĸĩ
èĳĹ ä½ľ
éħ ¬
m s
éħ Ĵ
ä½ĵçİ° äºĨ
Ġ |
æİ¥ è§¦
å®ŀ æĹ¶
èģĮ å·¥
è¿Ļ å°±
tiv ity
åħ¨ ä½ĵ
Ġim pro
åĬ³åĬ¨ åĬĽ
è§Ĩ ä¸º
åİŁ å§ĭ
å·© åĽº
å¤ º
æĢİ æł·
åħ¶ å®ĥ
åĨĽ éĺŁ
è¿ĳ ä»£
åĢ¼ å¾Ĺ
C s
Ġ ly
åľ° äº§
o res
æĭ Ĵ
Ġap p
æıĲåĩº çļĦ
éĩĩ è´Ń
% ãĢĤ
ç² ī
ä¸Ńåįİæ°ĳæĹı ä¼Łå¤§å¤įåħ´
i ved
re qu
æŃ¥ éª¤
Ġne ed
è¾ Ĳ
éĩį å¤į
æłĳ ç«ĭ
Ġinhib it
ç»ĵ æĿŁ
S ec
ä¼ Ļ
ress ed
çİ¯ ä¿Ŀ
éĽ Ħ
Ġf e
Ġ .
æ¬ ²
åĩĨ åĪĻ
æ¸ ¡
çĽĳ æİ§
ç½ĳ ç«Ļ
æĽ´å¤ļ çļĦ
ä¸ª æĢ§
åĮºåĿĹ éĵ¾
åĴ ¨
çİ° çĬ¶
ä» ģ
äºĨ ä¸Ģä¸ª
å¤į åĲĪ
å²Ĺ ä½į
åĽ½å®¶ å®īåħ¨
e g
Ġchang es
æĥ ©
å¯Į è£ķ
Ġpred ic
5 5
åı «
æļ Ĥ
éĩĬ æĶ¾
S D
åı¯ä»¥ åľ¨
æĿ ¨
åĩº åı°
ä½Ĩ åľ¨
é«ĺ çº§
éĿ¢ çļĦ
201 5
_ {
å¤§ å¤§
äºĭ çī©
æ´» åĬĽ
ç§ĳåŃ¦ å®¶
æģ °
Ġ1 2
Ġdes crib
ç¬Ķ èĢħ
åĵį åºĶ
ãĢĭãĢģ ãĢĬ
è¿ĺ è¦ģ
Ġle ad
å¤§ è§Ħæ¨¡
æĸ°æĹ¶ä»£ ä¸ŃåĽ½çī¹èī²ç¤¾ä¼ļä¸»ä¹ī
æĿ¡ è§Ħå®ļ
éĤ ĵ
åĸ ľ
å¼º åĽ½
ĠA s
åįķ ä¸Ģ
èĤ ł
ä» °
å¤§ éĩıçļĦ
é¢ Ĺ
çĥ §
201 6
Ġcons id
ç§ ĭ
çº³ ç±³
æ° ¨
åĨį æ¬¡
èĲ¥ åħ»
on al
Ġm ain
åŃ© åŃĲ
ä¹¡æĿĳ æĮ¯åħ´
ä¼ Ĭ
åĲ¸ å¼ķ
è¡¨çİ° ä¸º
éī´ å®ļ
ent al
æĿĥ å¨ģ
äºº ä¸º
å¤§ éĥ¨åĪĨ
æĳ Ĩ
æģ Ĵ
Ġrep res
çļĦ åŃ¦ä¹ł
up plement
Ġ j
æĦ Ī
èĥ ¡
é¡ ¿
åī ©
Ġsub j
è®¤ è¯ģ
æµ Ļ
æĪ¿ å±ĭ
çģµ æ´»
èĵ Ŀ
ç¼ĸ åĪ¶
åĻ¨ çļĦ
Ġd el
æĮĩ æķ°
éĶ ģ
ä½¿çĶ¨ çļĦ
å¥ ł
Ġpro m
ä¹Ł ä¼ļ
Ġca re
ä¸Ģ å¸¦
è¾ħ åĬ©
æ¾ ³
e k
Ġincre ase
çº¤ ç»´
æľ ±
åı ī
Ġc ases
ĠF or
si ble
ä¿¡æģ¯ çļĦ
åĮ ¹
çłĶç©¶ äººåĳĺ
åĪ¶ ä½ľ
æĶ¯ åĩº
Ġmo lec
è¯¦ ç»Ĩ
åįģ ä¸ī
Ġf inding
åĪĳ æ³ķ
å°ģ å»º
åºı åĪĹ
çļĦ çĽ®æłĩ
åıĳ è¡Į
å°ı åº·
å² ©
ä¸» ç®¡
åĬ¨ æľº
çļĦ å½¢å¼ı
åĲĮ æŃ¥
èĤ ¯
åıĳ çĶµ
tain ed
_ _
Ġb as
å»º æŀĦ
Ġs et
ç©º æ°Ķ
åĪĻ æĺ¯
5 6
ç¡¬ ä»¶
N F
åĴ¨ è¯¢
åĢŁ éī´
å·¥ äºº
], [@
åģĩ è®¾
åĲĮ æĦı
åľ £
èĢģ å¸Ī
on t
åľ°åĮº çļĦ
éĺ² æ²»
æľĢ å¤§çļĦ
it er
z ed
å´ ĩ
ain ing
äº ®
åı° æ¹¾
ä¹ ĺ
4 2
E M
Ġ ç¬¬
åĿ Ĳ
ate g
Ġt ri
ĠP ro
Ġm or
åľ° åĿĢ
l as
åŃ¦ å®¶
ĠD NA
v ing
è¸ ª
] ;
Ġinf ection
ä¿® å¤į
é© ¶
ä¸Ģ é¡¹
çī Ľ
yt es
è° ģ
er ation
é¼ ł
å¤© çĦ¶
Ġl im
çļĦ æķĻèĤ²
æ¯ «
åıĳçĶŁ çļĦ
çļĦ åİŁåĪĻ
ä¸Ń åħ¨ä¼ļ
ä¸ľ è¥¿
Ġfact or
è®º è¿°
ä¸Ńåħ± ä¸Ńå¤®
i e
ä¼ ı
æĸĩ æľ¬
åıĸå¾Ĺ äºĨ
æµģ éĢļ
å½ ¹
ä¸Ģ æĹ¦
os ph
å¹² é¢Ħ
Ġt ype
Ġpro t
éħį åĲĪ
è®¤ åĲĮ
æĲ ľ
æ¶Ī éĻ¤
Ġse qu
ak e
å¤§ åŀĭ
ï¼ī ãĢģ
åħ¬ æŃ£
æĳ ĺ
éŁ ©
ä¸Ģ ä»£
a use
in k
og raph
æ» ĳ
ater ial
çłĶç©¶ æīĢ
ä¸į å°ĳ
åĩºçİ° äºĨ
åĢ¾ åĲĳ
ä¼ł æī¿
asc ular
çļĦ ä»·åĢ¼
ĠR es
çĥ Ł
çļĦ æĥħåĨµ
åįģ å¹´
Ġre qui
å¤§ å°ı
æĪĲ åĪĨ
æĬķèµĦ èĢħ
Ġme an
åĩ Ń
Ġp ost
ĠĠĠĠĠĠĠĠĠĠĠĠĠĠĠĠ ĠĠĠĠĠĠĠĠ
æķħ äºĭ
20 00
c in
ä¾Ŀ çħ§
en g
èĦ ļ
9 9
Ġ ,
Ġpot ential
L A
Ġinf lamm
yp es
åħ¶ å®ŀ
æ» ŀ
è¿Ľ åı£
å¹´ é¾Ħ
åĿĩ è¡¡
ç«ŀäºī åĬĽ
å» ī
åĬŀ çĲĨ
æĺ¯ ä¸ŃåĽ½
æ±ĩ çİĩ
ç»ĵæŀĦ çļĦ
å¸¦ åĬ¨
èµĦ æł¼
æľº éģĩ
æ¸ħ æ¥ļ
äºº æĸĩ
n ess
Ġm ark
èŀį åħ¥
il ar
è ²
ä¸Ģä½ĵ åĮĸ
å±Ģ éĥ¨
è¾Ĳ å°Ħ
4 3
çī Ļ
æī İ
éĻ ¶
æī¿ åĮħ
å¤§ å¹ħ
æĺ¯ ä¸į
é«ĺ éĢŁ
Ġactiv ation
åıĳ èĤ²
æ¬ ¢
ros s
çĵ ¦
æķı æĦŁ
çļĦ åĽ½å®¶
ical ly
ä¹ ³
è£ħ ç½®
c le
Ġcar di
P D
åĪĴ åĪĨ
æĪ¿ åľ°äº§
å¿ ł
G DP
åŃ¦ ä¼ļ
åºĶ æĢ¥
ti s
çŃī çº§
èĬĤ èĥ½
çĶ ·
å¯¹ æŃ¤
pt om
ä»£ è°¢
åĮº åĪĨ
ä¸Ģ è·¯
ç¬¬ ä¸Ģä¸ª
çĽ¸ ä¼¼
å®¡ çĲĨ
è®¤ çľŁ
ab ol
å¤§ å®¶
æĤ ī
ur al
åħ¨ å±Ģ
æ´ Ľ
åıĳå±ķ åĴĮ
Ġres ult
åĨľ äº§åĵģ
èª ī
ag ing
æĪĲ äºĨ
Ġse ver
å¡ «
åĲĦ èĩª
èĮ ¶
æķ ¢
) ï¼Į
Ġl ong
Ġe vid
éĺ Ķ
Ġa v
çĶŁæ´» çļĦ
æī «
Ġe v
æł· æľ¬
èĦ± è´«
å¾Ĺ ä»¥
Ġ1 5
æ¯ı å¹´
åħ¬åħ± æľįåĬ¡
v es
o h
å· §
é¦ Ī
è§£ éĻ¤
et h
u ce
å¹² æī°
å¾ ¡
åŃ¦ä¹ł çļĦ
Ġsugg est
äººæ°ĳ çļĦ
Ġb ased
æŃ£ ä¹ī
èµĭ äºĪ
Ġsam ples
## ##
çŃ¾ è®¢
å¾ĭ å¸Ī
g an
æİ¥ åı£
çļĦ åħ·ä½ĵ
upplement ary
æľī åºı
éĩĩ éĽĨ
æĸ° æĬĢæľ¯
æİ¥ æĶ¶
é«ĺ äºİ
; (
Ġf ib
èĩ³ å°ĳ
P C
ä¸»ä¹ī çļĦ
æīĢ éľĢ
åıĺ æĽ´
ä¸į åĪ°
è¾ Ĩ
Ġr at
te x
çº³ ç¨İ
æĶ¿åºľ çļĦ
æ¯Ķ éĩį
èĥĮæĻ¯ ä¸ĭ
ä»£è¡¨ å¤§ä¼ļ
æīĢ ç¤º
Ġcont rib
åĨ² åĩ»
åī Ĭ
ä½İ ç¢³
Ġd rug
in s
ç»ı åħ¸
æĹł æķĪ
é ±
ä¼łç»Ł æĸĩåĮĸ
åĨį çĶŁ
ç«ĭ åľº
æ¡£ æ¡Ī
éª Ĺ
di tional
æ· »
y n
è½¬åĮĸ ä¸º
ĠĠĠĠ Ġ
å¤įæĿĤ çļĦ
äº« æľī
åĩºçīĪ ç¤¾
çĶµ æµģ
âĢĿ âĢľ
) :
èµ ģ
æµĵ åº¦
å¾® çĶŁçī©
æĦŁ çŁ¥
åĢº åĪ¸
è§£åĨ³ æĸ¹æ¡Ī
] ^
é± ¼
æį ķ
çĶµ åİĭ
Ġidentif ied
v ir
ç§Ł èµģ
çļĦ ç§ĳåŃ¦
çļĦ æĹ¶åĢĻ
Ġr ate
åĨ °
çļĦ é£İéĻ©
æĥħ å¢ĥ
Ġinform ation
åĵģ è´¨
è§Ĩ é¢ĳ
éĢļè¿ĩ å¯¹
6 7
æ³ķ äºº
4 1
æĦı å¿Ĺ
Ġf urther
Ġc ult
å¤ĸ äº¤
åĲ ´
æ¶ ¨
åĭ Ĵ
a j
Ġdifferen ti
å¯Ĩ åº¦
20 22
èĥ½åĬĽ åĴĮ
ĠI t
æ³ ¥
å¹¶ æ²¡æľī
åĵģ çīĮ
æ¦Ĥ æĭ¬
Ġt r
+ ^
ç®Ģ ç§°
Ġcon cent
æ¥ ¼
æįŁ ä¼¤
Ġcl ass
è¿ Ī
è¿Ŀ çº¦
éļı æľº
çĶŁæĢģ æĸĩæĺİ
ic ation
Ġne uro
åĲ ¨
Ġc ent
ç¼ĸ è¾ĳ
or ding
æĻ ĭ
ä»Ĭ å¹´
åĳ¼ åĲ¸
Ġ Y
ç¬¬ä¸Ģ æ¬¡
æľī åĬĽ
å° Ŀ
Ġs o
è´¢ å¯Į
è½½ ä½ĵ
çĸ Ĩ
èħ Ķ
æ¸ħ æĻ°
è§Ĩ è§Ĵ
5 7
æĸ° åıĳå±ķ
æ» ¤
s is
çļĦ çĽ®çļĦ
Ġgrow th
" ãĢģ"
^ [@
ĠĠĠĠ ĠĠ
åħ± è¯Ĩ
æĭ ¿
Ġres pec
çļĦ ç®¡çĲĨ
è¡ Ķ
çļĦ æĿĥåĪ©
Ġf requ
éĢĤ çĶ¨äºİ
æŃ£ å½ĵ
è ľ
è¾ĥ ä½İ
", "
ä¸Ģ æī¹
I C
a ir
é» ĺ
çŁ ©
æĪĳåĽ½ çļĦ
åĶ¯ ä¸Ģ
th ough
å¾Ī éļ¾
ere st
åĲ ī
ä¸» ä»»
çļĦ ç²¾ç¥ŀ
è§Ĥ æµĭ
ä¸Ĭ ä¸ĭ
ä½İ äºİ
çļĦ å®īåħ¨
å°ļ æľª
æī© å¼ł
èĽĭçĻ½ è´¨
æī¹ åĪ¤
ä¸ī ç§į
6 8
çŁ¥è¯Ĩ çļĦ
Ġ å¹´
åı Ļ
æ°ĳ çĶŁ
æµ ®
ä½¿ åŃ¦çĶŁ
æ¸Ĺ éĢı
åĲİ æŀľ
çļĦ æĸĩåĮĸ
åģ ¶
Ġad dition
èĢĮ åľ¨
æī¶ è´«
åħļ åĨħ
å® Ļ
ic s
æľīæķĪ åľ°
éĢļ éģĵ
è° ·
ä½¿ åħ¶
æ³ķ åĽ½
ä¸¾ æİª
Ġsy m
ç¦ģ æŃ¢
ack age
S t
å¾ Ĵ
è®° èĢħ
ä»¥ åīį
å¯¹ æ¯Ķ
é¢ ģ
at or
æĮĸ æİĺ
çº¿ æĢ§
æľįåĬ¡ ä¸ļ
ãĢĤ ãĢĬ
èĥ İ
ha vi
ul in
5 8
èĭı èģĶ
çĲĨ çĶ±
A I
è½¬ åĲĳ
Ġp ub
åı¯æĮģç»Ń åıĳå±ķ
éĢī ä¸¾
-------- ----
ä¸Ń æľī
h ip
t o
èĬ¯ çīĩ
å¹¶ ä¸įæĺ¯
ä¸Ń éĹ´
ĠH e
Ġpop ulation
åĬŀ åħ¬
Ġb re
è¯ Ī
æľª æĪĲ
an ti
å·¨ å¤§çļĦ
æĬ¥ éģĵ
Ġtherap y
ć ć
è¿ Ł
äºº çī©
æķĪ åĬĽ
Ġca us
çļĦ ä¸ŃåĽ½
å¼ı çļĦ
G A
äº§çĶŁ äºĨ
Ġanal y
çł´ äº§
çĸ ı
å¼º çĥĪ
æĽ´ é«ĺ
éĨ Ĵ
èĩªåĬ¨ åĮĸ
æľ¬ ä¹¦
å¤§ æ°Ķ
å¡ Ķ
Ġprotein s
Ġre le
è´ Ŀ
Ġac id
çİ° åľº
æī¾ åĪ°
Ġocc ur
æĶ¾ åľ¨
âĢ ķ
ĠÎ ¼
å®ĩ å®Ļ
Ġstr uct
çļĦ åĬŁèĥ½
Ć Ĉ
è¯¾åłĤ æķĻåŃ¦
è®° å¿Ĩ
ä¸ĵ é¡¹
é«ĺçŃī æķĻèĤ²
è¾¾ æĪĲ
å®ļ äºĨ
20 10
åĲĪ å¹¶
ven tion
åĪĨ å·¥
os pit
ä¸» å¸Ń
è°ĥ è§£
Ġthe n
åĽŀ çŃĶ
Ġcom mon
è¯¸ å¤ļ
å®ĥ æĺ¯
äº§ çī©
is ion
æī¹ è¯Ħ
èĥ Ĩ
æĸ°æĹ¶ä»£ä¸ŃåĽ½çī¹èī²ç¤¾ä¼ļä¸»ä¹ī æĢĿæĥ³
çŃī éĹ®é¢ĺ
Ġh ist
Ġt ech
Ġm y
è² Į
å¤§ åŃ¦çĶŁ
çĶ ĺ
åĴĮ å®ŀè·µ
Ġc ap
æľī æĿĥ
åĢºæĿĥ äºº
å¾ĹåĪ° äºĨ
æīĭ æľ¯
å µ
éĺĲ è¿°
æĪĲ ç»©
Ġe p
èĪª å¤©
æ°Ķ ä½ĵ
ous e
äº¤ äºĴ
u ff
if ied
s pec
åĲĪçĲĨ çļĦ
Ġsh ould
èº« ä½ĵ
æĦıè¯Ĩ å½¢æĢģ
ve re
çĶ¨ æĿ¥
çŁŃ æľŁ
å§Ķ ä¼ļ
Ġto tal
Ġam ong
è¿Ĳ ä½ľ
é²ľ æĺİ
æİ¥ è¿ĳ
èĲ¥ éĶĢ
æĪĲ æķĪ
åĿļ åĨ³
ä¸ª æľĪ
6 9
ä¸º æŃ¤
è§Ĩ è§ī
c op
W e
ä¸į èī¯
åıĳ æĺİ
âĢ Ļ
èį Ĳ
Ġcom b
åıĳè¾¾ åĽ½å®¶
Ġre t
er v
åľ¨ çº¿
åģļ æ³ķ
åĪ¶ çļĦ
å¥ ı
ron ic
èĤ¡ ç¥¨
å±Ģ éĻĲ
åīį è¿Ľ
å½ ¼
åĬĽ åĴĮ
å¤Ħ ç½®
å¤© ä¸ĭ
æ³ķ å®ĺ
å¦ »
åĲ« éĩı
å¤ļ å¹´
ĠC om
åı ł
æĻºèĥ½ åĮĸ
om en
éĺ² èĮĥ
æĲ ŀ
è´Ł æĭħ
æŀģ å¤§
åħ¬ çĽĬ
Ġab out
vers ity
ä¸ŃåĽ½ å®¶
æĶ¿çŃĸ çļĦ
å¤ĸ åĽ½
è¾© è¯ģ
çķ ´
èĤ¡ ä»½
ç¨³ å®ļçļĦ
è¾¹ ç¼ĺ
æ¸¸ æĪı
æĢ» éĩı
æĶ» åĿļ
ç¿» è¯ĳ
å°± åı¯ä»¥
ä¸ī å¤§
ç¹ģ èį£
å¿ħè¦ģ çļĦ
çİ°ä»£ åĮĸçļĦ
æ¯ı ä¸Ģä¸ª
ç¨³å®ļ æĢ§
äº¤ åıī
T P
æľī åı¯èĥ½
åĨħ åŃĺ
Ġre view
ä¸ §
ä¸į åı¯èĥ½
å°ı åŃ¦
enc es
Ġm i
è¾¹ çķĮ
åĮº çļĦ
ä» ĵ
Ġlow er
çļĦ è®¤è¯Ĩ
ç§ĺ å¯Ĩ
é¢ Ī
Ġ3 0
åħļçļĦ é¢Ĩå¯¼
Ġ ä¸Ģ
Ġp ers
es ted
æ°´å¹³ çļĦ
ä¿Ŀ çķĻ
è¾ĥ é«ĺ
L C
èĳ£ äºĭ
èµ ŀ
æĲ Ń
aj or
é« ĵ
åĿ ¡
im al
æı Ĵ
o f
çļĦ è¿ĩç¨ĭä¸Ń
çļĦ åİŁåĽł
Ġmem b
ä¾µ å®³
åıį é¦Ī
oin t
åĲį ç§°
ä¸Ģå¸¦ ä¸Ģè·¯
ãĢĭ (
æģ Ĳ
èµ ı
çĻ¾ åĪĨ
åĽ½åĨħ å¤ĸ
éĤ »
Ġsim ilar
Ġd ue
å±Ģ éĿ¢
å®¡ ç¾İ
èģĶåĲĪ åĽ½
åºĶçĶ¨ äºİ
S S
at ely
6 4
201 4
Ġd id
éº ¦
Ġsur vi
Ġprim ary
am et
åħļçļĦåįģ åħ«å¤§
æ° ®
æľºåĻ¨ äºº
ç«ĭ è¶³
æ¬§ çĽŁ
ä¼ ª
ç¬¦ åı·
åľ° çļĦ
æĺ¾ çĦ¶
åĤ¬ åĮĸ
Ġp e
äººæ°ĳ æĶ¿åºľ
æłĩåĩĨ åĮĸ
æµĻ æ±Ł
ĠĠĠĠ ĠĠĠ
åĿ ¦
æ£® æŀĹ
æĮĩ åįĹ
ï¼Ĥ ,
åħ¨çĲĥ åĮĸ
æķħ éļľ
åħĪ åĲİ
è¯Ŀ è¯Ń
ä¾Ŀ æ³ķæ²»
åıĺ å¾Ĺ
ref ore
* ,
ç£ ·
æĽ² çº¿
æĺ¯ ä»Ģä¹Ī
ĠM ed
7 9
ä¸ºæł¸å¿ĥ çļĦ
åįł æľī
æĭ į
çļĦ ä¸įåĲĮ
èħĲ è´¥
çªģ åıĺ
æ´ ª
çļ Ĩ
åľ°æĸ¹ æĶ¿åºľ
Ġp at
åįı ä½ľ
åł Ĩ
å¹¸ ç¦ı
us ep
ä¸º ä¾ĭ
Ġst and
A M
åĲĪ çī©
ä¸ ģ
âĳ ¢
ä½ĵç³» åĴĮ
æĦı æĢĿ
æĳ ©
i od
ä¼ Ĳ
ä¸ī è§Ĵ
ac tion
E C
Ġimmun e
æİ¢ æµĭ
Ġfollow ing
usep ackage
i el
æĸ¹ ä½į
çĽĳ å¯Ł
æĢĿæĥ³ æĶ¿æ²»
Ġmet abol
èķ ´
éĹ´ æİ¥
åŃĺåľ¨ çĿĢ
çĤ¹ çļĦ
Ġsam e
ä¾Ŀ çĦ¶
æĬĢæľ¯ åĴĮ
åħ¨ åħļ
å¢ŀ åĢ¼
äºº æł¼
æĸ° ä¸ŃåĽ½
è¶ħ è¶Ĭ
å¯ ¿
Ġan y
Ġevid ence
æ³ ¡
åĵģ ç§į
ar ge
è®² è¯Ŀ
Ġo x
å»ºç«ĭ äºĨ
Ġwh ile
Ġw ould
Ġrecept or
âĢĿ ãĢģâĢľ
ä¿¡ ä»°
è½¨ éģĵ
èĮĥ çķ´
éļ Ĩ
e v
èħ ¹
Ġsm all
çģ Į
å°ı å¹³
ç¤¾ä¼ļ ç§ĳåŃ¦
Ġexp l
è§ Ī
ä¾Ŀ æīĺ
èĢ ³
Ġ if
å¥ ¹
Ġrespec tively
æĶ¿ åħļ
ç»Łä¸Ģ çļĦ
Ġexp os
é«ĺ ä¸Ń
201 2
å¤ļ æ¬¡
e u
è¾ Ł
åĪĨ æķ£
åĲ« ä¹ī
ä½ı æĪ¿
è¡ į
æŃ£ç¡® çļĦ
ĠT o
çī §
Ġrepres ent
æķ°åŃĹ ç»ıæµİ
ãĢĤ ï¼Ī
Ġchild ren
Ġfinding s
Ġcomp ar
ç Ĵ
l ial
æį ·
æīĢæľī çļĦ
ç§į ç±»
in f
é£İ æł¼
çº ¹
åĩĿ èģļ
ä¾µ çĬ¯
çļĦ æľīæķĪ
æĮĩ æĮ¥
å¼º å¤§
es is
Ġm ajor
åĮ¹ éħį
æ´ Ĺ
åĽ½ æĥħ
Ġbe havi
éħį å¥Ĺ
Ġl ung
æĬĹ æĹ¥
m ph
Ġpl as
æĻ® åıĬ
ä¸į åĪ©
æıĲé«ĺ äºĨ
Ġpos itive
Ġwith out
ä»·åĢ¼ çļĦ
é ¹
Ġl ine
Ġm at
æŁĲ ä¸Ģ
å¼ ĺ
Ġreg ul
éĿ ¶
åıĳ çĹħ
c ell
æĿ¡ä»¶ çļĦ
sy ch
æ°ĳ ä¼Ĺ
æ¿Ģ åħī
æ¶Ī èĢĹ
Ġ1 1
Ġinf lu
Ġsec ond
Ġdis ord
Ġe arly
åľ¨ ä¸Ģèµ·
Ġcur rent
Ġtrans cri
ä»ħ ä»ħ
æĹł çº¿
çļĦ éľĢæ±Ĥ
éĵ ľ
ä¿® è®¢
çĽ¸äºĴ ä½ľçĶ¨
èĥ½ åĲ¦
å¤§ åĽ½
åĮ» èį¯
åĬŁ çİĩ
æľī äºº
éļ¾ é¢ĺ
ä¹łè¿ĳå¹³ æĸ°æĹ¶ä»£ä¸ŃåĽ½çī¹èī²ç¤¾ä¼ļä¸»ä¹īæĢĿæĥ³
éĽ ħ
æĢ§ ä¸İ
Ġdescrib ed
åĲ ĥ
åĽ½ éĺ²
ar di
éģµ å®Ī
å·¥ä¸ļ åĮĸ
Ġn ucle
åıĺ åĬ¨
åıĳ å°Ħ
çĤ Ń
åĪĨ è§£
çļĦ çŁ¥è¯Ĩ
æĭ Ķ
ä½į äºİ
åıĳçĶŁ äºĨ
Ġaut h
åı¦ ä¸Ģä¸ª
åĨ³ è®®
ç®¡ è¾ĸ
åĢŁ åĬ©
çĽ¸ åıį
Ġ X
çķ ħ
æ¿Ģ æ´»
è¥¿ éĥ¨
Ġ1 8
an e
ç¬¬ åħŃ
åįģ ä¹Ŀ
M A
æļ Ĺ
æīĢæľī æĿĥ
Ġdifferen ces
ä¸Ģ å¹´
è´Ł åĢº
ing le
et y
ä¸ ²
æ³ķ åŃ¦
æ³¢ åĬ¨
å¢ Ļ
å·¥ åİĤ
äº¿ ç¾İåħĥ
èĳĹ åĲį
6 6
med i
ĠF ig
Ġpro l
Ġcomple x
se qu
å¹ ķ
è¿Ľè¡Į çļĦ
äºĨ ä¸ŃåĽ½
m it
T able
ä¹Ł è¦ģ
i o
æħ İ
f er
åħ±åĲĮ å¯Įè£ķ
å°ı æĹ¶
å°Ŀ è¯ķ
ĠA d
201 3
éĢ ĥ
å¤± è´¥
l d
äºº ä½ĵ
ä¼° è®¡
ç© ·
ä¸ľ åĮĹ
äºº ç¾¤
èĩ £
o ve
es ts
åİĨåı² ä¸Ĭ
çļĦ éĩįå¤§
çĽ® çļĦæĺ¯
é©¾ é©¶
åĴĮ ç®¡çĲĨ
èĵ Ħ
éĥ½ ä¼ļ
åħ¬ å¸ĥ
Ġv is
ä¸İ æŃ¤
åĶ¯ çī©
in duced
çº¢ èī²
éĤĵ å°ıå¹³
çļĦ æł¹æľ¬
Ġel ect
ï¼ ĳ
Ġin iti
åıĸ åĨ³
éĵģ è·¯
åıĳ éĢģ
æİ¨ èįĲ
çĶŁ çĲĨ
å¢ŀåĬł äºĨ
åĪĽéĢł æĢ§
å¤ĸ çļĦ
Ġpro f
Ġv it
9 8
å¤į åĪ¶
ä¸ĸçķĮ ä¸Ĭ
Ġdes ign
æ¸ħ æ´ģ
åĬ¨ èĦī
çī µ
âĢ ĺ
è¯Ħ è®º
200 8
é¡º åºı
R T
Ġ Q
N P
Ġc r
Ġwhe ther
è¾ ī
æıĲ åıĸ
åıĸåĨ³ äºİ
å°Ĩ ä¼ļ
åįı ä¼ļ
å¿½ è§Ĩ
åĲİ æĿ¥
éĢłæĪĲ çļĦ
åħ¨ è¿ĩç¨ĭ
ç² Ĺ
éĤ ®
äºĭå®ŀ ä¸Ĭ
ä¸ĭ åĪĹ
Â °
ä¸¤ èĢħ
åľ¨ è¿Ļ
æıĲ äº¤
çĪ± åĽ½
èµ µ
åĽ¾ ä¹¦
å¼ ¥
å¯» æī¾
æī¿ è®¤
èĥ ¸
è¶³ å¤Ł
èĩªèº« çļĦ
B S
oc ytes
ä½ĵçİ° åľ¨
äºĶ å¹´
éº »
Ġc y
ä¼ĺ è´¨
çī¹ å®ļçļĦ
ä¸į å¤Ł
oc h
å¢ŀ éĢŁ
æĮĩ ä»¤
ir c
Ġhyp er
çĶµ ç½ĳ
æĤ Ł
å¦ĩ å¥³
çŃ Ľ
p ar
èģ ĺ
èĪ Ĩ
re en
Ġval ues
å®¹ éĩı
æĮ Ĥ
å½» åºķ
åħļåĴĮ åĽ½å®¶
è¡Ķ æİ¥
æľīéĻĲ åħ¬åı¸
çļĦ è§Ĵåº¦
æĴ¤ éĶĢ
å®ļ æľŁ
åĽŀ å½Ĵ
ain s
æľĢ ä¸º
ç¾İ å¥½
Ġ ï¼Ī
Ġvir us
æķ´ çĲĨ
å° ĸ
ç§¯æŀģ æĢ§
Ġf lu
T h
å°ĳ å¹´
æĸ¹ ä¾¿
åĴĮ å®ĮåĸĦ
in c
ä¸ĩ äºº
å® ħ
æŃ¤ æĹ¶
ä»¥ ä¸ĬçļĦ
çĸ« èĭĹ
èĪª ç©º
èģļ çĦ¦
ãĢĭ ãĢĬ
Ġprom ot
Ġinclud ed
æ³ķå¾ĭ æ³ķè§Ħ
ç« Ł
ç½Ĺ æĸ¯
çºª å¾ĭ
éĢı æĺİ
åı¯èĥ½ æĢ§
æĽ´ æĺ¯
å·² æľī
åİĨ ç¨ĭ
Ġsym ptom
di tions
æµģ éĩı
æ° Ľ
å±ħ ä½ı
æķĻåŃ¦ ä¸Ń
åĻ ª
å®ī è£ħ
çļĦ ä¼ģä¸ļ
æ¼Ķ åıĺ
ç¦ı åĪ©
5 9
æĪĳä»¬ è¦ģ
R P
åĭ ¤
Ġv ol
çļĦ åĪ¶åº¦
åĦĴ å®¶
åĽ½å®¶ æ²»çĲĨ
å·² æĪĲä¸º
å¸Ĥåľº åĮĸ
st and
ro w
ä¸İ åħ¶ä»ĸ
5 1
çļĦ è®¾è®¡
al ity
et es
æĥħ ç»ª
å¥ ī
çļĦ çĶŁäº§
çĽ Ī
åĻ¨ ä»¶
7 7
å¤ļæł· æĢ§
åŁİéķĩ åĮĸ
w ork
å± ı
s et
ç²¾ åº¦
ä¿¡ å¿µ
æıĲä¾Ľ çļĦ
n ing
æıĲ èµ·
æĬ «
èį¯ åĵģ
åĪĨ åī²
6 3
äººåĬĽ èµĦæºĲ
Ġes tim
çŁ³ æ²¹
çĹħ äºº
å¸Ŀ åĽ½
æĹłè®º æĺ¯
èµ· è¯ī
ad e
è¾ ŀ
æ¼ «
çĩĥ æĸĻ
th s
æ¯ ģ
çļĦ ç»ĵæŀĦ
æľ¬ ç§ĳ
æĢİ ä¹Ī
iel d
ç»ı è´¹
çĶ¨ åľ°
è¡ĮæĶ¿ æľºåħ³
åľº æīĢ
Ġly mph
ç¼ĸ çłģ
å®ŀ çĶ¨
çģ¾ å®³
æĢĿ æĶ¿
åľ¨ æĪĳåĽ½
Ġra di
ç»´ åº¦
äºĭ æĥħ
5 4
çĳ ŀ
ospit al
ar c
åµ Į
çĽ®æłĩ çļĦ
å¼ķ è¿Ľ
5 2
R S
èĲ¥ éĢł
æİĴ éĻ¤
t y
i or
ä¹Ł å°±
Ĉ Ĉ
æ°ĳæ³ķ åħ¸
ific ation
æľī ä¸Ģä¸ª
åº Ĺ
æľ Ĺ
æī¿ è¯º
y d
åİ ħ
æĶ¿ æĿĥ
Ċ ĠĠ
æ³ķ åĪ¶
Ġav ail
åĬŀ åŃ¦
ä½ĵåĪ¶ æĶ¹éĿ©
lis hed
äº§ éĩı
ç¡ «
æł¸ ç®Ĺ
it her
ot her
C I
Ġmodel s
ä¹Ł åı¯
ä¸į åıĺ
8 8
åĲ¦ åĪĻ
Ġs ensi
è´§ çī©
æ½ľ åĬĽ
èİ «
èĨ ¨
åĳ½ ä»¤
Ġcol lec
åĩº èµĦ
åĴĮ æĸ¹æ³ķ
æĹ¨ åľ¨
Ġdi ab
Ġcon ditions
äºĳ è®¡ç®Ĺ
0 2
g ative
ä»¥ æŃ¤
èı ľ
Ġf am
å§ »
åīį æ²¿
Ġre duced
åĪĨ äº«
å¯¹ ç§°
ä½ľ çī©
è½¦ è¾Ĩ
I L
æīĵ çł´
åĽ½æľī ä¼ģä¸ļ
åıį æĢĿ
è®° è½½
çİ¯å¢ĥ çļĦ
å¤§ ä¼Ĺ
å¯ Ħ
er c
æĺ¯ æĪĳåĽ½
ä¿¡ ä»»
ç»Ĩ èıĮ
é¡¹çĽ® çļĦ
åĽ¢ ä½ĵ
åīį æĻ¯
åı¯ä»¥ è¯´
æŃ §
ç¾İ æľ¯
Ġat t
Ġl ess
åħ·ä½ĵ çļĦ
æĥħ èĬĤ
in u
og ni
ä¸ĸçķĮ çļĦ
åĳ¨ åĽ´
Ġ1 00
éŃ ı
Ġdiagn os
{ \
^ +^
ä¸» æµģ
c ed
ä¸į åĬ¨
ĠU ni
æĸĩ èīº
è®¡ éĩı
if e
åĿ Ľ
ä¿¡ è´·
ç®¡çĲĨ åĴĮ
èĸ ª
ç»Ĩèĥŀ çļĦ
å±ķ çİ°
Ġkn own
å¯ ¸
Ġs k
è£ģ åĪ¤
ä¸Ģ éĥ¨åĪĨ
çº ½
çļĦ çĽ¸åħ³
è§Ĩ éĩİ
Ġ( **
åľ¨ ä¸Ģå®ļ
åŃ ¤
æ¦Ĥ çİĩ
è¿Ļ å°±æĺ¯
æµ ħ
Ġrel ated
ç¢ ±
A L
ĠE x
ä¸İ ç¤¾ä¼ļ
å¾ Ĳ
å½ °
å° ¾
åĢºåĬ¡ äºº
el s
æĺ¯ æľĢ
åį° åº¦
è¡ £
ï¼ Ĳ
åĤ¨ å¤ĩ
E P
å¤§ äºİ
Ġ äºĮ
éĺ² æİ§
æ ¦
å»¶ ä¼¸
è¦ģ åľ¨
ä¿Ŀ åŃĺ
äº§ä¸ļ åıĳå±ķ
åĨħå®¹ çļĦ
Ġph osph
w ard
çĲĨè®º çļĦ
åħ¬ éĩĮ
æĹ¥ èµ·
åĩı è½»
ç±»åŀĭ çļĦ
Ġg ra
I N
åįģ åħŃ
os s
ain ed
ä»¥ ä¾¿
æĽ ¼
Ġpres ence
ç¨İ åĬ¡
è¿Ļ ç±»
Ġob tained
Ġsur g
æľī æĹ¶
åŀ Ĥ
åĬ¨ ä½ľ
i ly
è¿ĩç¨ĭ ä¸ŃçļĦ
åĨĻ ä½ľ
Ġc hem
è¿ĺ åı¯ä»¥
æ¢ ¯
æµģ åŁŁ
C S
åľ° åŁŁ
è¡ Ĺ
çİ¯å¢ĥ ä¿ĿæĬ¤
èĩ³ ä»Ĭ
åĩº æĿ¥çļĦ
åĲ Ĺ
éķ¿ æ±Ł
ic k
201 1
C M
å¿ ĺ
ä¸»è¦ģ æľī
å½ĵ ä»Ĭ
Ġad d
çļĦ ä½¿çĶ¨
æŀĦ éĢł
b ased
0 3
æĺİæĺ¾ çļĦ
Ġdiagn osis
èį ¡
ç¼ĸ ç¨ĭ
çª Ĺ
ac y
Ġm us
äºİ æĺ¯
ut ed
å¹¿ ä¸ľ
æİ¨ è¡Į
Ġman y
F P
èģĶ çĽŁ
7 3
ç® ±
Ġ åĴĮ
O R
å£° æĺİ
Ġre ce
é© »
çļĦ å¤ļ
çļĦ åīįæıĲ
çİ° éĩĳ
å¤Ħ åĪĨ
å®¡ æī¹
è ¹
åĴĮ æĬĢæľ¯
D A
å®ŀ åĬĽ
åºĶçĶ¨ ç¨ĭåºı
åŃ¦çĶŁ åľ¨
åĪĨå¸ĥ å¼ı
æ· ĭ
æł· çļĦ
åįģ äºĶ
Ġdi rect
Ġper iod
Ġt erm
è®¤ åı¯
l ine
å°ı çļĦ
è´§å¸ģ æĶ¿çŃĸ
åŃĲ çļĦ
æĸ¹ ç¨ĭ
åĩ ¸
äºĴ çĽ¸
æĭĴ ç»Ŀ
ä½ľ æĪĺ
Ġc le
is sion
Ġ5 0
ä¸Ńå°ı ä¼ģä¸ļ
Ġag ain
æĸ¹ çļĦ
æĹł äºº
æľĢé«ĺ äººæ°ĳæ³ķéĻ¢
æķ ¬
ĠĠĠĠĠĠĠĠĠĠĠĠ ĠĠ
éļĲ ç§ģ
Ġprovid e
A l
Ġt ra
ç»ıæµİç¤¾ä¼ļ åıĳå±ķ
Ġpartic ular
çłĶç©¶ éĻ¢
ä¹ Į
æº ¯
ç§ĳåŃ¦ æĬĢæľ¯
ç³»ç»Ł ä¸Ń
çļĦ åĽ½éĻħ
å¾ģ æĶ¶
Ġgene tic
æĥ³ è±¡
èĲ ¨
s c
Ġ2 4
Ġsurvi val
Ġbec ause
Ġl ab
é¢ ľ
åĪ©çĽĬ çļĦ
å¤ ľ
f ore
è¾ Ľ
5 00
å¤± åİ»
åĲİ èĢħ
ä¹ĭ æīĢä»¥
çĶŁ åĬ¨
éĨ ĩ
ens ity
æ·» åĬł
ä¹ĥ èĩ³
ä¸İ åıĳå±ķ
ĠAl l
] ãĢĤ
Ġsignal ing
ä¹¦ éĿ¢
s ec
ä¸¥éĩį çļĦ
ç§ĳåŃ¦ çļĦ
ç¨ »
æ³ Į
éĢļ è®¯
! [
Ġpat tern
æĦŁ åıĹ
åī ¥
è¯´ çļĦ
äº¤ å¾Ģ
æĦŁ è§ī
æķ° çļĦ
Ġd ays
Ġp hen
åĬłå¼º å¯¹
7 6
æľĢ è¿ĳ
ici ent
Ġs ingle
Ġm al
qu e
åĽ½å®¶ åĴĮ
ys is
Ġis ol
èĬĤ çº¦
ä¸»ä½ĵ çļĦ
å©ļ å§»
ç²¾ ç¡®
åħ¬ å®ī
è¿ĩ åº¦
ç¼ĸ åĨĻ
I F
um ent
ç¨ Ģ
ä¿® æŃ£
æ´»åĬ¨ ä¸Ń
Ġsever al
Ġval ue
çīĪ æĿĥ
Ġmechanism s
äº ķ
Ġinvol ved
çī© æĿĥ
åŁ ĥ
ä¼Ĺ å¤ļ
æĸ° èĥ½æºĲ
ĠĠĠĠĠĠĠĠ ĠĠ
B P
åĲĪæ³ķ æĿĥçĽĬ
åįģ åħ«
it es
è¿ĩç¨ĭ çļĦ
æĩ Ĥ
ĠĠĠĠĠĠĠĠĠĠĠĠ Ġ
C L
ä¸»è¦ģ åĮħæĭ¬
è®º è¯ģ
äºĮ æ°§åĮĸ
Ġwe ek
â Ħ
Ġsup port
çľŁ çĲĨ
æĬ ¢
\ '
é¢Ĺ ç²Ĵ
è¡¡ éĩı
åįķ çĭ¬
æŁ¥ è¯¢
è°Ī åĪ¤
åħĭ æľį
ä¸°å¯Į çļĦ
åĬ £
éĢļ çĶ¨
å¤ĸ æ±ĩ
åĲĮæĹ¶ ä¹Ł
æĿ ľ
å·® åĪ«
èĨ¨ èĥĢ
Ġres ist
çķĮ å®ļ
æķ° é¢Ŀ
åŀ ĥ
åı¯èĥ½ æĺ¯
åħĪ çĶŁ
Ġs ol
he s
åľ ¾
å¦ ¥
Ġad v
èģĮ åĬ¡
m m
åŀĥ åľ¾
æ°ĳ èĲ¥
ĠR NA
æĹł çĸĳ
æ°ĶåĢĻ åıĺåĮĸ
å±± ä¸ľ
Ġ Z
ï¼ ģ
è½¬ è½½
. ãĢĬ
Ġst atis
ç®Ģåįķ çļĦ
Ġg reat
äºº åĿĩ
çĭ Ń
å¦Ĥ åĽ¾
ä»¥ å¾Ģ
ĠĠĠĠĠĠĠĠ Ġ
æµģ è¡Į
è®¤è¯Ĩ åĪ°
Ġst ress
åŃĺ æ¬¾
éĽ ĩ
æ³ Ħ
è¿Ĳ ç®Ĺ
æĭ Ĩ
çĶµåŃĲ åķĨåĬ¡
7 2
æĽ´ å¤§
èĢĥ åı¤
Ć ć
ä¹ĭéĹ´çļĦ åħ³ç³»
B M
Ġmulti ple
ç² ĺ
ï¼Į ãĢĬ
æł¡ åĽŃ
å¹´ åº¦
200 9
éĩįè¦ģ ä½ľçĶ¨
ä¹łè¿ĳå¹³ åĲĮå¿Ĺ
lo b
ç»ĥ ä¹ł
åħļçļĦåįģåħ«å¤§ ä»¥æĿ¥
éļ¾ åº¦
â ħ
å¸¦ é¢Ĩ
é¡º åĪ©
od ies
åĪĿ æľŁ
çłĶç©¶ çĶŁ
åľ¨ è¿Ļä¸ª
èĢħ åĴĮ
ä¸ĵ é¢ĺ
æ³ ī
çľĭ æĿ¥
å¹³ éĿ¢
e y
åıį å¤į
r ast
Ġen h
å¯¹ è¯Ŀ
æŃ¦ è£ħ
å» ·
ç§į æ¤į
åıĳå±ķ ä¸ŃåĽ½å®¶
çĪĨ åıĳ
çļĦ åıĳçĶŁ
E D
} }
è¿ĩ æ¸¡
æļ ĸ
éĥ½ è¦ģ
Ġab s
æ³ °
åĪ Ģ
anc ed
at us
å¼º å¤§çļĦ
Ġcult ure
æĺ Į
æľĢ ä½İ
I M
ç³ Ĭ
åĽ½æ°ĳ ç»ıæµİ
åĶ ±
åģľ æŃ¢
åŁºåĽł ç»Ħ
Ġmeasure d
è¡¥ è´´
ap p
å®ŀ ä¾ĭ
Ġser um
å¼ķèµ· çļĦ
7 1
ä»ª åĻ¨
åĪĨæŀĲ åĴĮ
Ġde ath
å¸Ī çĶŁ
ot ype
Ġ âĪĴ
om y
Ġt reated
vir on
éĩį ç»Ħ
åĬł å¯Ĩ
ä¸į ç¡®å®ļ
C l
çĶµ æºĲ
et work
Ġstand ard
om et
æ» ¥
f ul
Ġdise ases
å¸¸ è§Ħ
N S
çģ ¯
å¾ ½
è¯ģ ä¹¦
çŃī æĸ¹éĿ¢çļĦ
ç¼ĵ è§£
6 2
ĠHe alth
éķ¿ çļĦ
åĢ¡ å¯¼
Ġph ys
è¢« ç§°ä¸º
l ation
åĪ ł
èĦ Ĭ
âĢ ¢
å¼ĺ æī¬
Ġp rac
å»ºè®¾ åĴĮ
è¯ ŀ
ç»Ī ç«¯
ĠI m
Ġexp ressed
Ġsam ple
Ġdemonstr ated
æ¶Ī æģ¯
è¿ľ ç¨ĭ
æłĩåĩĨ çļĦ
ä»£è¡¨ çļĦ
ä¸Ń æīĢ
èģĶ éĤ¦
éĵ ¸
çłĶç©¶ åĳĺ
å¥ ´
åĬĽ åŃ¦
å¹¶ æľª
ti es
æĬĢæľ¯ åĪĽæĸ°
ac c
æĹ¶ä»£ çļĦ
å¿ §
å±Ĥ çļĦ
æĶ¿ åĬ¡
åĽ½æ°ĳ åħļ
å¤§ èĦĳ
æĬ« éľ²
æĬĹ ä½ĵ
n er
Ġ ed
åİĨåı² çļĦ
æĤ£èĢħ çļĦ
Ġpar t
Ġrespon ses
te g
Ġint erest
Ġ1 4
Ġbe fore
å¼ķå¯¼ åŃ¦çĶŁ
Ġcal c
æ¬ º
è°ĥ åĬ¨
éĥ ĳ
è§£ è¯»
åħļ å§Ķ
6 1
Ġre ve
æľª æĿ¥çļĦ
æħ¢ æĢ§
0 8
ro und
åĮħ è£ħ
o ol
å¾® è§Ĥ
æ¯ı ä¸Ģ
çĨŁ æĤī
Ġm m
ä¹Łå°±æĺ¯ è¯´
æĺ¯ ä»İ
Ġli k
f ace
æĸĩ çī©
èĴĻ åı¤
åľ¨ åħ¶
ç¡® å®ļçļĦ
çĶŁæĢģ ç³»ç»Ł
åĨľä¸ļ çĶŁäº§
Ġd om
çľĭ åĩº
è· ³
. [
çĵ ¶
çģ °
ç³ĸ å°¿
Ġidentif y
æİ ī
åıįæĺł äºĨ
åĪĨ åĮĸ
p ression
åľ° è´¨
æł· åĵģ
çļĦ åı¯
åĢŁ æ¬¾
ç¢³ æİĴæĶ¾
ĠUni versity
å¤§ éĻĨ
æ· Ģ
çĶµ è§Ĩ
æºĲ äºİ
çº¿ ç¨ĭ
b l
åı¦ ä¸Ģ
Ġc ase
åį³ åı¯
å¯¹ ä¸ŃåĽ½
èī² å½©
D M
st e
ç¢ İ
Ġprevious ly
èļ Ģ
å®ŀ ä¹ł
å¹¶ å°Ĩ
çĶŁçī© åŃ¦
å¼ Ĭ
éĽĨ ç¾¤
åĽŀ æĶ¶
æĶ¯ éħį
è¿Ļ é¡¹
å®¡ æł¸
åħļçļĦåįģ ä¹Ŀ
ĠH IV
èĤ ĥ
ï½ ŀ
ä¹Ł åľ¨
Ġor gan
Ġsubj ects
rel ated
å¹¿ åĳĬ
ran e
äºº åĴĮ
Ġt em
åªĴ ä»ĭ
Ġh ow
è¿ģ ç§»
é¢ģ å¸ĥ
ç»ĵæŀĦ æĢ§
æĸ° åĨł
äººåĳĺ çļĦ
¤ Ĳ
èµ ¤
p ir
å½Ĵ çº³
Ġn ec
8 5
ä¿ĥ ä½¿
Ġb en
ä¸» æĿĥ
Ġre d
è¾ĥ å¤§çļĦ
åħ¨éĿ¢ å»ºæĪĲ
Ġpro b
æĿ °
èµ· åĪ°
åīį çļĦ
è¦ģ æľī
ç³ĸå°¿ çĹħ
è¯ģ å®ŀ
æ §
çİ° è¡Į
R A
Ġmethod s
åĽ¾ å½¢
Ġmed ical
ç£ ¨
èĥ ĥ
å¤ļ å°ĳ
ä¸ī å¹´
æľĢ æĹ©
çļĦ éľĢè¦ģ
ç³» æķ°
æĸ ľ
Ġm g
Ġhe m
, ãĢĬ
Ġavail able
Ġpathw ay
a f
åĲİ æľŁ
u ally
æĺ¯ éĢļè¿ĩ
è¿ ·
åľ¨ è¿Ļç§į
ĠĠĠĠĠĠĠĠ ĠĠĠ
æķĻå¸Ī çļĦ
Ġcharacter is
i um
1 000
ä¹ĭ ä¸ĭ
o unt
re ad
åĪĿ å§ĭ
äºº å£«
Ġb ody
åĪĨ è£Ĥ
çļĦ æĪĺçķ¥
åĨ ¬
çı ł
ogen esis
ä¹ĭ å¤Ħ
èĤ² äºº
åŁ¹åħ» åŃ¦çĶŁ
ur y
çĥ ¯
å¾ģ ç¨ĭ
è¡Ģ æ¶²
çĽ¸åĲĮ çļĦ
en e
p s
ell ular
ä¸ ¹
éĹ ²
çİ¯å¢ĥ ä¸Ń
æŁĲ ä¸ª
æĻ ĵ
åıĺ æĪĲ
éĿ¢ä¸´ çļĦ
æ¦Ĥ è¿°
éĽ ª
ul l
Ġr ati
æ¬ ł
è°ĥ çłĶ
æĹ¶æľŁ çļĦ
åĩºçİ° çļĦ
] )
åĴĮ æľįåĬ¡
åĿļæĮģ ä»¥
å¿ĥ èĦı
ä¿Ħ ç½Ĺæĸ¯
Ġgl uc
èĩ³ åħ³
m l
çī¹ å¼Ĥ
çļĦ å½¢æĪĲ
Ġli ver
æĢ¥ æĢ§
å¾Ī å¤§çļĦ
ç»ı çĲĨ
Ġimpro ve
0 4
Ġl arge
éģ ¥
å® ¿
am s
æĦıä¹ī ä¸Ĭ
oc y
Ć ą
å¾Ĺ åĩº
çĪ¶ æ¯į
oc ial
Ġp ri
çļĦ çī¹å¾ģ
åıĸ ä»£
å¯¹ æİ¥
Ġneur ons
spec ific
Ġch ronic
ç¡ ħ
ä¼¼ ä¹İ
Ġparticip ants
ä¸§ å¤±
æĬĵ ä½ı
åįĹ äº¬
å½¢å¼ı çļĦ
Ġw omen
åħ¬ å¼ı
Ġe ither
å®ŀçİ° ä¸Ńåįİæ°ĳæĹıä¼Łå¤§å¤įåħ´
éĥ¨ éĺŁ
ĠF urther
å¯» æ±Ĥ
Ġv i
ç¡ ķ
å¤« å¦»
åħħ æ»¡
ä¸İ åħ¶
éĩĳ é¢Ŀ
è¯ķ åĽ¾
çĽ® å½ķ
Ġf oc
åľ° éľĩ
å®Įæķ´ çļĦ
ĠU n
D L
è´¯ ç©¿
Ġpos sible
éĻ ķ
ä¸ĭ æĿ¥
æĿĲæĸĻ çļĦ
c on
Ġ1 6
åħ¬ çº¦
ä¿ ±
è¡¨ è¿°
in a
æ¶ Į
åŃ¦ ä½į
eren ce
Ġprol if
j ect
æĿĳ æ°ĳ
è®¾è®¡ çļĦ
å°ıåº· ç¤¾ä¼ļ
åİŁ åĳĬ
Ġ est
Ġg u
Ġloc al
: (
èĢĮ éĿŀ
ver se
è®¢ ç«ĭ
T T
æīĵ åĩ»
Ġm ight
ä¸įæĸŃ æıĲé«ĺ
ä¹° åįĸ
Ġc irc
Ġ i
åĻ¨ å®ĺ
** )
åĽ Ĭ
ä¾ĭ åŃĲ
æĭħ å½ĵ
Ġs us
æŃ£ å¦Ĥ
éļ ¶
è¾ĥ é«ĺçļĦ
R F
ations hip
è¯¯ å·®
Ġm RNA
å°½ åı¯èĥ½
æŃ¦ åĻ¨
éľĢè¦ģ çļĦ
Ġauth ors
ä¸Ń çŃī
å®¶ æĹı
om ic
M O
ä¾ ¦
C h
æĪĳä»¬ åı¯ä»¥
èĤ¯ å®ļ
æıĲ ç¤º
æµĭ å®ļ
åıĳ åĩº
éĽĨ åĲĪ
è´¦ æĪ·
Ġdist rib
Ġch ange
200 5
ar m
äºº èº«
æŁĵ èī²
Ġind ependent
ph a
äººæ°ĳ ä»£è¡¨å¤§ä¼ļ
æ· ¡
Ġim aging
Ġexperim ents
Ġv s
ä¾¿ åĪ©
å¸¦æĿ¥ äºĨ
çĻĮ çĹĩ
ter m
åĲĪ è§Ħ
æłĩ çļĦ
æłĩ è®°
ä½ĵåĪ¶ æľºåĪ¶
æĸ¹æ³ķ çļĦ
æ»¡ æĦı
200 7
ä¼ĺ çĤ¹
å¸Ī èĮĥ
Ġagain st
æ¶ Ĥ
åĨ³å®ļ äºĨ
çĭ¬ç«ĭ çļĦ
äºº å¯¹
){ #
Ġanaly zed
åĬł ä¸Ĭ
od e
Ġconsid ered
çĽ ²
åĽĽ æĺ¯
çĶŁæ´» ä¸Ń
å¥³ æĢ§
is ed
ro p
åī ĸ
è¡Ģ åİĭ
æĲ º
Ġindividual s
è¿Ķ åĽŀ
ä¾Ŀæ³ķæ²» åĽ½
åĮĸ è§£
ç¤¾ä¼ļ ä¿Ŀéļľ
ä»¿ çľŁ
æľĢ ä½³
å¸¸è§ģ çļĦ
èµ ł
è¯± å¯¼
è·Ł è¸ª
ä¿¡ å¿ĥ
èĴ ¸
æĿĤ å¿Ĺ
Ġappro ach
åħ³ èĬĤ
çŁ¥è¯Ĩ åĴĮ
åķĨä¸ļ éĵ¶è¡Į
Ġp ress
Ġs ep
v ent
7 4
åŃ ķ
è®¾ å®ļ
i an
viron ment
è°ĥ çĶ¨
Ġunder stand
ä¸ī ç»´
æľĢ æĸ°
å°± èĥ½
ä¸ŃåĽ½ ç»ıæµİ
å¯Ĩ çłģ
Ġcon duc
çļĦ å¸Ĥåľº
æµ· å¤ĸ
å¯¹ æĸ¹
éŃ Ĥ
å« Į
ä¸¾ è¡Į
æľªæĪĲ å¹´äºº
Ġdeterm ine
åĭ ĥ
å· ¡
æĳ ĩ
ear ch
ul es
ä¸¤ å¤§
åŃ Ł
éĶ ĭ
Â ±
D S
æĺ¯ æľī
i ven
Ġ1 3
æĹ¢ æĺ¯
æĴ °
P A
çĻ¾ å§ĵ
Ġreve al
å¤§ å¤ļ
åįķ çº¯
èµĦäº§ éĺ¶çº§
åľ ³
Ġtum ors
Ġs ize
çĶŁ æķĪ
æĬ¤ çĲĨ
Ġfunc tional
èĩª è¡Į
Ġhe l
æ¨¡å¼ı çļĦ
çī© ä½ĵ
ä½Ľ æķĻ
min ist
ç»Ī æŃ¢
å Ĺ
ç« Ń
é¢Ħ èŃ¦
Ġhe art
çłĶç©¶ ä¸Ń
plic ation
äºº æĿĥ
éĶ »
å¼Ģ åĲ¯
ä¸Ń åĴĮ
as ing
ĠE n
äº¤ ä»ĺ
è¾ ½
çļĦ æłĩåĩĨ
Ġal low
Ġbre ast
ec tions
è° ¨
Ġl oss
æĽ °
ç«ĭ åį³
ç¬¬ ä¸ĥ
è¯» èĢħ
y si
Ġcomp on
çŃī æĸ¹å¼ı
éĥ¨éĹ¨ çļĦ
çĽ´ åĪ°
Ġmon ths
æ¢ ³
Ġdecre ased
s tit
in ce
e an
re t
æŀ ¢
is h
æł¼ å¼ı
ä¸į å¼Ģ
çĹħ åıĺ
åĨħ å¤ĸ
åľ¨ åĽ½éĻħ
æĹ¢ æľī
æĮĩ å®ļ
æī© æķ£
äºļ æ´²
åľ° ä¸ĭ
ä¸į è¦ģ
åĩı æİĴ
Ġstim ul
ç§ĳåŃ¦ éĻ¢
æĢĿæĥ³ çļĦ
æ·± åľ³
ver age
æĮĩ å¼ķ
åĵ ¥
æī« æıı
Ġm ac
âĦ ĥ
ro up
åĲ« æľī
Ġl ip
é»Ħ æ²³
èµ· çĤ¹
ĠA m
ç»ĵåĲĪ èµ·æĿ¥
å¿ĥçĲĨ åŃ¦
åĿļ å®ŀ
A B
is ts
âĢ ²
ä»İ ä¸¥
ä¸ª åĪ«
æĿ¡ çº¦
Ġb inding
åı¯ çĶ¨
äºĮ èĢħ
as is
åĲĦ æĸ¹
Ġ '
Ġacc ording
èį Ĵ
è´£ä»» çļĦ
æĿĥ éĻĲ
åľ¨ ä¸Ģä¸ª
as k
ä¸ŃåĽ½ å¼ı
ä¸Ģ æ®µ
çĶµ ç£ģ
éĥ¨ ä»¶
åħ¨ æĸ¹ä½į
å¤§ åĪ©
Ġsymptom s
res pon
r u
ä¾ĽåºĶ åķĨ
åĪ¶åº¦ åĴĮ
å®ŀ è®Ń
å¼ķ çĶ¨
çļĦ çĶŁæ´»
æĭħ ä»»
Ġins ulin
æīĢå¾Ĺ ç¨İ
åħļ ç»Ħç»ĩ
å»ºç«ĭ åģ¥åħ¨
Ġin duced
æŁ Ķ
å¸¸ æĢģ
åĲĪ éĢĤ
at al
èĥ º
Ġ ç¬¬äºĮ
æľª ç»ı
3 00
es ion
ab les
Ċ ĠĠĠĠĠĠĠĠĠĠĠĠĠĠĠ
èµ· æĿ¥çļĦ
çŃī çļĦ
èµĦæºĲ éħįç½®
æĸ ĳ
åŃĲ å¥³
è¿Ļä¸Ģ çĤ¹
åı¯éĿł æĢ§
æ·ĭ å·´
è§Ħ ç«ł
åįł æ¯Ķ
è·¯ çĶ±
]\] ,
å¼¹ æĢ§
Ġf ac
æīĭ æľº
Ġp ur
å¡ĳ éĢł
åħ³ å¿ĥ
çº¢ åĨĽ
æīĢ è¿°
Ġdet ected
å¼Ģ è¾Ł
ol es
Ġconf ir
A n
éļ¾ çĤ¹
å·¥ åķĨ
æľ¬ æ³ķ
åıĳ æĢ§
0 9
æľ¬ åľ°
ç»ıæµİ åıĳå±ķçļĦ
äºĨ å¯¹
Ġpar amet
åħ¬ æľī
Ġbe ing
æĪĲ åĥı
å¤± ä¸ļ
å®³ äºº
å°ı é¼ł
Ġrel ationship
æĴ ŀ
å°± è¦ģ
æ²» åħļ
Ġm ouse
æľºæŀĦ çļĦ
æ±Ł èĭı
åįģ ä¸ĥ
åĲĪ æł¼
ĠC l
åĨ »
æķĻèĤ² éĥ¨
å®īåħ¨ æĢ§
çĥŃ çĤ¹
åĪĨ è¾¨
åĮ» çĶŁ
åĩł ä½ķ
ĠC T
éĤ£ æł·
èĢĥèĻĳ åĪ°
è¯īè®¼ æ³ķ
çİ »
éĺ² æĬ¤
r ing
å¢ ĵ
éĥ¨ ä½į
æ¸ħ åįķ
å¸¸ å¸¸
é£Ł çī©
éĴ ¥
æĮĩ ç¤º
Ġex c
Ġdifferen ce
åĸĦ äºİ
çļĦ åĪĨæŀĲ
æ°Ľ åĽ´
ĠA D
åħ± å»º
æĥ Ĭ
S O
é ŀ
çļĦ æĶ¿çŃĸ
å¯ Ĵ
er ative
åı¤ åħ¸
m ath
éĴ Ļ
Ġexam ple
Ġap op
äººç±» ç¤¾ä¼ļ
èĪĨ è®º
ä¿ĥè¿Ľ äºĨ
é¢Ĩå¯¼ å¹²éĥ¨
å·¥ä½ľ ä¸Ń
å®ĺ åĳĺ
çº¿ ä¸Ĭ
éĩįè¦ģ çļĦæĺ¯
Ġcontrol s
æĪ Ĵ
æĬ¥ éħ¬
Ġdeterm ined
ä¸į åıĹ
u k
Ġstr ateg
Ġd own
å¯¹ ç«ĭ
å¯¹ æĬĹ
æķħ æĦı
id ence
P CR
ä½ľä¸º ä¸Ģç§į
Ġ ä¸ī
Ġcom mun
8 9
æĪ ´
å¸¦ æľī
èĲ½ åĲİ
200 6
æĽ´ å¥½çļĦ
éĻĲ åº¦
çļĦ æĹ¶ä»£
Ġd ys
çłĶ åĪ¶
Ġext rac
ä¸İæŃ¤ åĲĮæĹ¶
oc ument
æĶ¾ å¼ĥ
èĩ³ äºİ
Ġmolec ular
æ°Ķ è±¡
ç»Ħ ä»¶
ä»¤ äºº
ä¿¡ æīĺ
é¥ ±
el ine
åĽŃ åĮº
å°º åº¦
çļĦ ç»Ħç»ĩ
å¼Ģ åĪĽ
ä¸º ä¸»è¦ģ
èĴ ĭ
ĠP h
å¤§ æĬ¥åĳĬ
am in
å¾ħ éģĩ
c ome
Ġv er
è¢ Ń
æ¶µ çĽĸ
d rom
Ġ <
ä¸»ç®¡ éĥ¨éĹ¨
er ic
éĢŁ çİĩ
çļĦéĩįè¦ģ æĢ§
èĥ °
ç¬¬ä¸ī æĸ¹
æľŁ åĪĬ
çłĶç©¶ åĴĮ
Ġne gative
æľĢ åĪĿ
æł ª
å°±æĺ¯ è¦ģ
Ġassoci ation
èµ° åĩº
f n
éĥ½ åľ¨
åĲĪåĲĮ çļĦ
Ġv iv
èĤ ¤
â Ĺ
ç¡® å®ŀ
åįı å®ļ
it or
ä½ľ äºĨ
Ġl esion
Ġb one
Ġpro duction
Ġdiab etes
othe rap
åĲĮ åŃ¦
æĽ´ é«ĺçļĦ
ç¾İåĽ½ çļĦ
åĪĽéĢł äºĨ
ä»Ĭ åĲİ
åĳ½ é¢ĺ
d s
çº¿ çļĦ
ĠR e
Ġf our
M L
ï¼ Ĵ
æ®ĸ æ°ĳ
am p
åįĩ é«ĺ
è¡¨çİ° åĩº
u le
/ /
åĬŁèĥ½ çļĦ
ç¬¬äºĮ ä¸ª
æĶ¿ åįı
Ġp sych
éĺ¶æ®µ çļĦ
å½± åĥı
at ors
ä¸Ģ çº§
åħ± æľī
æĸ¹å¼ı çļĦ
åĸ ·
Ġrec om
Ġ ç¬¬ä¸Ģ
ĠC I
äºĴ èģĶ
æļ´ éľ²
åĲİ ç»Ń
è§£ æŀĲ
N O
Ġmi R
å®ļ éĩı
åĽ¾ çīĩ
ä¼ģä¸ļ åľ¨
è¢« åĬ¨
com es
ç¢ ĳ
åĪ¶ å¤ĩ
èĤº çĤİ
Ġe pit
Ġy o
ç§ĳåŃ¦ åıĳå±ķ
çī© åĵģ
çŃĶ æ¡Ī
T O
Ġf ail
åįļ çī©
ri al
å¯¹ çħ§
Ġl o
åĻª å£°
ç¤¾ä¼ļä¸»ä¹ī æł¸å¿ĥ
8 6
åįı åĬ©
tex t
ä¸į åºĶ
æĽ¾ ç»ı
çķ ľ
åĪ ·
op le
çŃī äºİ
å®£ å¸ĥ
ä¸¾ åĬŀ
æµ Ĩ
â ĸ
ï¼Ĥ .
èĪ į
Ġcont rast
èĲ¥ ä¸ļ
Ġbl ock
è· ĳ
ä»Ģä¹Ī æĺ¯
çļĦ çİ°è±¡
ä½ĵç³» å»ºè®¾
å¥ĭæĸĹ çĽ®æłĩ
9 6
åħ¨éĿ¢ å»ºè®¾
Ġstr ong
äº« åıĹ
ç²Ĵ åŃĲ
Ġcons ist
éĿ©åĳ½ çļĦ
æ¨¡ ç³Ĭ
Ġco unt
Ġlik ely
åĲĦ æĸ¹éĿ¢
åī© ä½Ļ
èĢķ åľ°
é¢Ħ è®¡
ãĢĤ (
Ġantib ody
æ²» åĽ½
Ġde g
Ġqu es
ep ti
äº§ä¸ļ ç»ĵæŀĦ
çĶ¨ éĢĶ
Ġ &
åĲ¦ å®ļ
æ¢³ çĲĨ
æłĩ è¯Ĩ
åħ´ èµ·
æķĻåŃ¦ çļĦ
å°º å¯¸
æĸ ¥
Ġviv o
äº§ éĺ¶çº§
äº ©
åĬ© åĬĽ
ç§ Ĵ
è´Łè´£ äºº
éļĶ ç¦»
ĠP D
çĶµ å½±
åħ¨åĽ½ äººå¤§
ç§ģ äºº
Ċ Ċ
ore d
9 7
èĩ´ åĬĽ
å¼ Ł
åħļ åı²
ç³»ç»Ł æĢ§
ter s
çļĦéĩįè¦ģ ç»ĦæĪĲéĥ¨åĪĨ
æŀģ ç«¯
æµģåĬ¨ æĢ§
Ĉ ą
éĿĴ å°ĳå¹´
Ġanalys es
ä¼ł æŁĵ
ati vely
æľĢ éĩįè¦ģçļĦ
um e
æ¢ ħ
è§Ħå®ļ äºĨ
ĠI I
Ġmet ast
æĹ¢ è¦ģ
ä¸´ æĹ¶
cri pt
åĪĿ å¿ĥ
çĲĨè®º åĴĮ
Ġmut ations
æĢģ åĬ¿
Ġm it
è¿ĺ åİŁ
å¯¹ å¾ħ
$ $
^ âĪĴ
çĮ ª
çļĦ ä¸Ń
ä¼¤ å®³
äºĭä¸ļ åįķä½į
å§ Ĩ
å¹² ç»Ĩèĥŀ
æĶ¾ å¤§
ogen ic
b ility
é¦ĸ è¦ģ
æľª èĥ½
åıĹ ä½ĵ
at in
åħħåĪĨ åĪ©çĶ¨
çłĶç©¶ èĢħ
Ġt ypes
* ~
äºī åıĸ
å®Ĺ æĹ¨
æĭ ¨
ç °
age ment
æĦı åĽ¾
èĢ ¦
çı į
æĢ» ä¹ĭ
å¸¸ å§Ķä¼ļ
å¸¸ çĶ¨
å®¹ åĻ¨
åıĳå±ķ æĪĺçķ¥
çº² è¦ģ
r ight
åıĸ åĲĳ
åıĤ çħ§
å·²ç»ı æĪĲä¸º
åŃĶ åŃĲ
æĪĺ æĸĹ
ĠN o
å»º æ¨¡
çīĪ æľ¬
éĽ ķ
ç¼ Ķ
è¿½ ç©¶
éļı åĲİ
Ġar ter
and om
çŃī é¢ĨåŁŁ
\ [
ä¼Ļ ä¼´
Ġ )
é«ĺ ç«¯
é£ŀ æľº
å¹¶ åıĳ
ç½ĳ ä¸Ĭ
éķ¿ åº¦
é ¤Ĳ
æĦıä¹ī çļĦ
å¹´ åºķ
åĲį ä¹ī
Ġad j
å¸ ľ
çĲĨè®º ä¸İ
åĪĨ æ³Į
éķ¿ è¿ľ
ä¸į ä½Ĩ
ç»ıèĲ¥ èĢħ
åı¯ åĪĨä¸º
tic ally
* -
é£ŀ è¡Į
m ission
åħ¬ è·¯
å¼Ģ æĭĵ
åıĺ è¿ģ
å¥ł å®ļäºĨ
Ġvari ous
åŃ¦ è¯´
ä¸įä»ħ ä»ħ
å£° éŁ³
ur ation
Ġ2 5
Ġexpos ure
Ġass ay
200 4
æ±¡æŁĵ çī©
ce p
ä¹ĭ ä¸º
Ġ ä¸ŃåĽ½
0 6
çŃī äºº
çłĶç©¶ ä¸Ńå¿ĥ
éģ £
Ġst atus
è¿ĩ éĶĻ
æ°´ åĪ©
æ´» è·ĥ
çĶŁäº§ çļĦ
åĲĦ æĹı
æĭ ľ
å°ĳæķ° æ°ĳæĹı
Ġp ul
Ġpress ure
çľģ çº§
å¤® è¡Į
éĩı åĮĸ
æ£Ģå¯Ł éĻ¢
åıĹ çĽĬ
åıĺåĮĸ çļĦ
Ġ x
éģĩ åĪ°
æĬĢ å·§
---------------- ----
åĮĸ åĲĪçī©
== =
äºĶ ä¸ª
D R
Ġtiss ues
\ <
Ġhe p
å¹¶ å¯¹
Ġcyt ok
æĺİç¡® äºĨ
é«ĺ èģĮ
çļĦ æĦıä¹ī
ä¿¡æģ¯ ç³»ç»Ł
Ġf low
åħ¨ ç¤¾ä¼ļ
å¯¹å¤ĸ å¼ĢæĶ¾
è¥¿ èĹı
éģĹ åĿĢ
çī© ç§į
Ċ ĊĠ
Ġpro ced
çļĦ åħī
ä¸» æĮģ
æĢ ķ
æĪĳä»¬ åľ¨
è¯ļ ä¿¡
èĦ± ç¦»
Ġinclud e
â Ĩ
æĳĺ è¦ģ
åľ° éĿ¢
ç§» æ¤į
åį ĵ
pos ed
Ġfoc us
ç¬¬ä¸ī äºº
å¥ĳ çº¦
çļĦ åľ°æĸ¹
ic es
éĻĲ äºİ
ä¸Ń åŃ¦
æĹ¶ æķĪ
cl usion
æľīåħ³ éĥ¨éĹ¨
ra y
er r
å¯¿ åĳ½
æľ¬ ç½ĳ
ver y
å°ı è¯´
ä¸ª äººçļĦ
åıį å°Ħ
å°½ éĩı
Ġresist ance
æķ°æį® ä¸Ńå¿ĥ
æī Ń
å®¶ éķ¿
E N
æľīåħ³ çļĦ
ĠA c
ul ations
Ġ --
è¡Įä¸º äºº
çĤ ¸
å¯Ĩ éĽĨ
p ut
Ġ ÃĹ
é» İ
ĠB i
H C
ĠC O
s p
åĪĿ çº§
Ġst rain
çİ° æľīçļĦ
æĢ» é¢Ŀ
çļĦ çĲĨè§£
åľ¨ æĸ°
æĽ´ å¤§çļĦ
åľ¨ åĨħçļĦ
ow led
åĢ¼ çļĦ
åĮ Ģ
ç¼º å°ĳ
å¹³ æĸ¹
ä¸Ĭå¸Ĥ åħ¬åı¸
åŁº åĩĨ
ç´ «
åİŁ æĸĻ
å¯¼ ä½ĵ
åīį èĢħ
Ġgluc ose
å¦Ĥ ä»Ĭ
æĢ» æĺ¯
200 3
åİĨåı² æĢ§
éĩį å»º
çī ²
çļĦ æľ¬è´¨
Ġin teg
å¢ŀ å¤§
åĩł å¹´
åħ¶ ä¸ŃçļĦ
åħ¸åŀĭ çļĦ
åĪ© æģ¯
Ġdevelop ed
åĳĬ è¯ī
å®ŀä½ĵ ç»ıæµİ
å½¢ çĬ¶
end ed
è¦ģ ä»¶
åħ¨ æ°ĳ
ä¹¦ æ³ķ
çħ¤ çĤŃ
çļĦä¸Ģ éĥ¨åĪĨ
è´Ł éĿ¢
æĹ¶ åĪ»
éĥ½ åı¯ä»¥
çķĮ éĿ¢
çĿĢ çľ¼
åĽ° å¢ĥ
ç»ĺ çĶ»
åĪĽæĸ° èĥ½åĬĽ
æĹ¶ ç©º
Ġ u
æĤ ¬
ä¸Ĭ æĺ¯
Ġhyp othe
çºł æŃ£
åıĹ çĲĨ
æµ ¸
åľ¨ å¯¹
R C
çļĦ èĮĥåĽ´
æıĲ åīį
Ġca use
è·µ è¡Į
éĺĲ éĩĬ
eu tic
è¿« åĪĩ
åį° åıĳ
ab ly
åĳ¨ è¾¹
M I
çĤİ çĹĩ
ç´¯ è®¡
å¿«éĢŁ åıĳå±ķ
åīį åĲİ
çĶµ è¯Ŀ
æľŁ çļĦ
at ures
åıĪ æĺ¯
èħ Ĭ
è¿ĺ éľĢè¦ģ
è¦ģ æĬĬ
çļĦ æĢ§è´¨
å¤§ çº¦
è¢«åĳĬ äºº
Ġle ast
ç¬¬ä¸Ģ çĻ¾
èĲ½ åľ°
Î ³
ĠM ore
z ym
Ġt rain
Ġexper i
Ġout comes
çļĦ çİ¯å¢ĥ
è¢« è®¤ä¸º
ä¸į å¹³è¡¡
æĺİ äºĨ
èµ «
æ³ķå¾ĭ çļĦ
å»¶ éķ¿
ī ¥
Ġp ain
èĪ Ĵ
åĩł ç§į
Ġv ery
åĪł éĻ¤
el et
çļĦ åĪ©çĽĬ
åĬł åī§
åº¦ åĴĮ
è¯Ī éªĹ
å·¥ä½ľ äººåĳĺ
Ġthe m
Ġper cent
Ġb el
äºº çĶŁ
éĶ Ĥ
tal ity
Ġinj ury
èįī æ¡Ī
Ġl ife
çĶŁ ç´ł
ç¨ĭåº¦ çļĦ
Ġn etwork
èĳ ¡
ä¸Ĭ æ¶¨
Ġantib odies
ĠO n
æ¬ £
T A
Ġc ri
Ġst ate
ä¸įä»ħ æĺ¯
åĪ° åºķ
è®¾å¤ĩ çļĦ
æľº çĲĨ
Ġv ia
Ġtech ni
Ġrati o
v ant
åĽŀ é¡¾
äº§ èĥ½
d ependent
åĺ ī
o y
æ·±åĮĸ æĶ¹éĿ©
ç»ĵæŀĦ åĴĮ
plic ations
ä¸į åŃĺåľ¨
unc tion
è´¯å½» èĲ½å®ŀ
åĨľ æĪ·
åİĭ ç¼©
åµĮ åħ¥
æĸ° å¢ŀ
è´Ł è½½
åĪĨ æĶ¯
å£ ³
ä¼ĺ æĥł
æĸ¹æ³ķ åĴĮ
çª Ħ
æĺİç¡® çļĦ
Ġpro ble
çłĶç©¶ æĪĲæŀľ
æİ¨ çĲĨ
çļĦä¸Ģ é¡¹
åıĸ æ¶Ī
t osis
Ġr ange
åħ¨éĿ¢ æİ¨è¿Ľ
èĩ´åĬĽ äºİ
éĩĳèŀį åį±æľº
Ġvit ro
äº§ä¸ļ çļĦ
åĩ ¯
0 7
ogen e
èŀ º
åĪĽæĸ° çļĦ
ç¤¾ä¼ļä¸»ä¹ī å¸Ĥåľºç»ıæµİ
ãĢĭ ãĢĤ
äºº æķ°
åĽĽ å·Ŀ
ï¼ ħ
Ġindic ated
ç½ĳç»ľ çļĦ
çĦ Ĭ
ç»ĦæĪĲ çļĦ
Ġgener al
ĠS ci
æ» ĭ
Ġad minist
å½° æĺ¾
t a
Ġbehavi or
å¹¿ å·ŀ
æīĢæľī åĪ¶
æº¶ æ¶²
æ·± è¿ľ
eng th
çĵ ·
æĹ¶éĹ´ çļĦ
å®īåħ¨ çļĦ
ä½ĵ åĨħ
Ġd ay
å¾Ī å°ĳ
åĬ³ åĬ¡
å³ »
èĦ±è´« æĶ»åĿļ
is on
æĢ» ç»Ł
ä¸ĭ éĿ¢
å®ŀéĻħ æĥħåĨµ
æŃ¤ ç±»
èģĮ æĿĥ
æĬ Ľ
è¦ģæ±Ĥ çļĦ
å¤ļåħĥ åĮĸ
æĶ¶ è´Ń
æķĳ æµİ
Ġest ab
Ġare a
æİ¨ åĩº
è¾ĥ å°ĳ
ä»£ æĽ¿
ç¼º å¤±
éĿĻ èĦī
Ĉ ć
æĬ ļ
éĵ¾ æİ¥
ro c
åįķ ä¸ª
å¹¿æ³Ľ çļĦ
9 4
Ġben ef
SC s
èģĶ åĬ¨
ä¸ĵ çĶ¨
æ» ´
åĪ° è¾¾
æ¶Ī å¤±
Ġac ross
æĪĲ çļĦ
å·¥ä½ľ èĢħ
æĿ ł
æĹ ±
åľ¨ åħ¨åĽ½
Ġ9 5
å¢ŀéķ¿ çļĦ
S M
ä¸Ģ æµģ
pon e
ĠRes earch
Ġsyn drom
æ²»çĲĨ èĥ½åĬĽ
è®º åĿĽ
é¸ Ł
æĿ¥ å®ŀçİ°
Ġor der
çĽ¸ ä¿¡
çĹħ çĲĨ
æķĻåŃ¦ åĨħå®¹
ç¼© å°ı
éĺ¶ å±Ĥ
ap s
éĺ» ç¢į
Ġse vere
åŀ Ĵ
" ;
åº ŀ
Ġrequi red
Ġplas ma
Ġmus cle
éĶ Ĳ
Ġprolif eration
âĳ £
åıĮ éĩį
Ġe qu
8 7
æľī ä¸Ģ
åĴĮ ç»ıæµİ
çºª å¿µ
Ġh owever
op ath
T R
æīİ å®ŀ
åĲĮ æ¯Ķ
ograph y
9 3
ç»ĵ ç®Ĺ
è¯ŀ çĶŁ
çļĦ åŃ¦çĶŁ
å¤© æ´¥
Ġmemb rane
è¿Ļ æ¬¡
è¡¨çİ° åľ¨
çĽ¸å½ĵ äºİ
æ®ĭ çĸ¾
) **
ä¸Ń ä»ĭ
è·¨ è¶Ĭ
Ġinflamm atory
ä¸Ĭ çľĭ
Ġpro duc
æĻº åĬĽ
ç¬¬äºĮ æ¬¡
åĨ Ĵ
å¹¿ éĺĶ
Ġac ute
æķ°åŃĹåĮĸ è½¬åŀĭ
Ġfam ily
ĠC on
å¤ĸ èµĦ
ti ce
æķĪ èĥ½
è¿Ļ ä¸¤ä¸ª
ãĢĭ ï¼Ī
è¿ ª
èİ ±
ç«ł ç¨ĭ
å®¶ çļĦ
ç¦» ä¸įå¼Ģ
æľŁ è´§
èĻļ åģĩ
æ±¡ æ°´
str uc
åĩ¸ æĺ¾
Ġcr iter
Ġl ines
ä¸ Ļ
ĠI g
åįļçī© é¦Ĩ
ç¼ Ŀ
m an
é«ĺåº¦ éĩįè§Ĩ
Ġb acter
çļĦ å®ŀè·µ
Ġl ink
Ġqu ality
Ġregion s
èİ·å¾Ĺ äºĨ
è£ģ å®ļ
é¡¾ å®¢
åħ¨éĿ¢ åıĳå±ķ
è°ĥ åº¦
ane ous
m ore
] ),
li ke
åıĳ èµ·
å¯ º
.. .
Ġhel p
Ġform ation
æľĢ å°ı
æĹł äº§éĺ¶çº§
æĹ¥ æĬ¥
åŃ Ŀ
å° ĺ
ä½ľ é£İ
åľ¨ ä¸įåĲĮ
å»¶ ç»Ń
Ġm en
Ġcell ular
çĶ³ æĬ¥
ä¸į éľĢè¦ģ
åı¯ åĨįçĶŁ
å¤ªéĺ³ èĥ½
ç»Ĩ åĮĸ
] --
åĩº äºİ
åįģåĽĽ äºĶ
ä¸įåĲĮ äºİ
Ġp a
çĽ Ĺ
ent er
Ġr andom
æľ¬ æ¡Ī
]-- [@
çĻ¾åĪĨ çĤ¹
çĴ ĥ
åıĺ å¼Ĥ
æĦı æĦ¿
éľ ¸
Ġpri or
å½¼ æŃ¤
Ġsc ore
Ġe ven
æ¼Ķ åĮĸ
æ³¨ åħ¥
ç® Ń
ç®¡ æİ§
è¿Ļ ä¹Łæĺ¯
çļĦ è¯Ŀ
Ġan g
ç¢ °
anc es
ä¹¡ éķĩ
Ġsur face
éľ į
åıĺ æį¢
Ġ enc
ä¼ģä¸ļ åĴĮ
è½¬ å½ķ
åĪĨ éĴŁ
åĪĨåĪ« ä¸º
æ¯ķä¸ļ çĶŁ
éĻĦ åĬł
æĲľ ç´¢
Ġhealth y
å½ĵ ä¸Ń
otherap y
èµ ¶
éŁ µ
çļĦ åŃĺåľ¨
Ġof ten
æĤ ²
ç² ¹
å¦ Ļ
èĥ½ èĢĹ
ogni tive
Ġpe ople
åĽł æŀľ
ç¤¾ä¼ļ æ²»çĲĨ
çļĦ å»ºè®¾
æļ´ åĬĽ
200 1
A A
å®ŀ äºĭ
ä¹īåĬ¡ æķĻèĤ²
Ġpub lic
Ġmor tality
å°½ å¿«
çļĦ åĲĦç§į
es sion
ç±» åĪ«
ä¸ºæł¸å¿ĥçļĦ åħļä¸Ńå¤®
åĪĹ å®ģ
çº§ åĪ«
l er
çļĦ è§ĤçĤ¹
å¢ĥ çķĮ
çłĶ è®¨
Ġp o
èĤ ¢
åľ¨ åħ¨çĲĥ
åĮħ å®¹
æ²³ åįĹ
ä½ĵ ç§¯
æī¿ è½½
åĳĪçİ° åĩº
åįģ ä¸Ģ
å®ŀ åĬ¡
Ġre port
t rans
çĽ¸ éĢĤåºĶ
æĶ¾ å°Ħ
our s
æĹĹ å¸ľ
æ³ķå¾ĭ è§Ħå®ļ
Ġ æľ¬
Ġ ä¸Ń
åĿĲ æłĩ
åħī è°±
Ġa im
åı¯ è¡Į
æĻ¯ è§Ĥ
åħ¬ åħĥ
åıĪ æľī
ä¿Ŀ å¯Ĩ
éľĢæ±Ĥ çļĦ
Ġreveal ed
ro gen
ä½ľåĩº äºĨ
å¼Ģ è®¾
çĶµ æ°Ķ
ç±» çļĦ
Ġ ç¬¬ä¸ī
ç¾İ ä¸½
x im
æľŁ æľĽ
è¥¿ åĮĹ
ä»¥ ä¹łè¿ĳå¹³åĲĮå¿Ĺ
å± Ī
åī ª
ç«Ļ åľ¨
owled ge
ä»» æĦı
Ġpathw ays
ä¸¾ è¯ģ
ç®¡ åĪ¶
çŃī åĽłç´ł
èĤ ª
çĿ ¡
å°Ĩ åľ¨
èĥ ļ
i at
çĽ´ è§Ĥ
èī ¾
id em
Ġprovid ed
ĠThe re
å¯¹è±¡ çļĦ
åįĹ åĮĹ
ä¸Ģ ä¸ĭ
åıĺ å½¢
C G
ä»ĭç»į äºĨ
Ġb ar
Ġ ill
in ant
å·¥ä¸ļ äºĴèģĶç½ĳ
ä¹¦ åĨĻ
M T
ä¸Ńåįİ ä¼ĺç§Ģ
Ġd am
è§£åĨ³ äºĨ
ç¥ŀç»ı åħĥ
èĦĤ èĤª
9 2
è¿Ľç¨ĭ ä¸Ń
è¿ĩ äºİ
å¤ļ åªĴä½ĵ
æĮĩ åĲĳ
éĺ² å¾¡
im als
Ġconcent r
âĢĿ ï¼Ī
Ġ1 7
å®ŀ è¯ģ
çļ® èĤ¤
æĪĺçķ¥ æĢ§
æĸ¯ åĿ¦
ur n
æĺ¯ ä¸ºäºĨ
ĠTh us
æĲ ¬
: ãĢĬ
k g
ä¾ ¯
Ġcar cin
é¢Ĩ åħĪ
ow er
ä¼ĺ èī¯
çļĦ ç©ºéĹ´
æĬĹ åİŁ
è´ ¤
Ġst age
ï¼Ľ ï¼Ī
è¯Ĺ æŃĮ
H D
R E
æłĩ çŃ¾
æĲŃ å»º
å® ¾
ç¥ĸ åĽ½
å»ºç«ĭ åľ¨
pl ant
it ation
Ġo l
åŃ¦ æ´¾
é«ĺ æ°´å¹³
ä»¥ä¸ĭ ç®Ģç§°
a w
æĹł éĻĲ
äºĮ æ¬¡
ä¸Ńå°ı åŃ¦
Ġfrequ ency
Ġad ditional
äººä»¬ çļĦ
å¸Į èħĬ
ä¸Ģ è½®
ç¿ ¼
n ormal
oc ol
ut es
å®ļ ä»·
åħ·æľī éĩįè¦ģ
Ġ ãĢĬ
8 4
é¼ »
åİ¿ çº§
çļĩ å¸Ŀ
åĽ½ åľŁ
ç®Ģ åĮĸ
æ¶Ī çģŃ
Ġcharacteris tics
A s
ä½¿çĶ¨ æĿĥ
ä»¥ ä¸º
èĢģ å¹´
ä¸ª çĻ¾åĪĨçĤ¹
æ°´ èµĦæºĲ
Ġpresent ed
æĸĩåĮĸ éģĹäº§
i j
éģŃ åıĹ
is c
æµª è´¹
åĬ ²
æ¼ ł
å·¥ç¨ĭ å¸Ī
d es
Ġdisord ers
Ġeff ective
æ¸ Ķ
Ġd ose
ä»¥ å¤ĸ
é£İéĻ© çļĦ
çŁ© éĺµ
P I
åĬ¿ åĬĽ
æĪª èĩ³
Âł Âł
å®ĥä»¬ çļĦ
è¾ĥ å¤ļ
æĸ°ä¸ŃåĽ½ æĪĲç«ĭ
æŀģ ä¸º
éŁ §
è·¨ åĽ½
åĬ¨ åĳĺ
å¤§ æī¹
A N
å°ģ éĹŃ
Ġim ages
Ġdef ined
çĽ¸ å¯¹äºİ
æīĵ åį°
é¢ľ èī²
èµ· æºĲ
çİ» çĴĥ
éĵ º
åĭ ĺ
ç®Ģ ä»ĭ
åı¸æ³ķ è§£éĩĬ
ç»ıåİĨ äºĨ
çĶµ è§£
Ġinflamm ation
æķ° åĢ¼
Ġimp act
æĻ¶ ä½ĵ
åĪĽæĸ° åĪĽä¸ļ
â Ķ
Ġ Â·
åĽŀ åºĶ
ac tions
åħ¶ åľ¨
æīį æĺ¯
åħī åŃ¦
æĦ¿ æĦı
åħļçļĦ å»ºè®¾
Ġd at
æ°¸ è¿ľ
åı¦ ä¸Ģç§į
æ¨¡åŀĭ çļĦ
ä½Ĩ çĶ±äºİ
éĥ½ èĥ½
Ġab ility
æĿł æĿĨ
Ġprog ression
åĸ »
è¿Ľ åĮĸ
æ£Ģ ç´¢
ak ing
æ¸ħ ç®Ĺ
è¿ Ń
æ¿Ģ ç´ł
æīĢ æľª
% ;
Ġr ates
ç»Ī èº«
æ ©
åĪ¶ å®ļçļĦ
ç»Ħç»ĩ åĴĮ
Ġassess ed
çļĦ è´£ä»»
Ġcorrel ation
çħ Į
å¹¶ éĢļè¿ĩ
åĨ³ å®ļçļĦ
ä¸Ń æľŁ
èģļ éĽĨ
æħ Ī
è§£åĨ³ éĹ®é¢ĺ
æĵ ¦
å®ŀæĸ½ çļĦ
æĦıä¹ī ä¸ĬçļĦ
æĮģ ä¹ħ
éĻ µ
éĥ Ń
éĩį åºĨ
éļ Ļ
g et
pl ied
å¹´ è½»
è± Ĩ
çľŁæŃ£ çļĦ
è¡Įä¸ļ çļĦ
æ¿Ģ çĥĪ
p ress
ç¥ Ń
åīĤ éĩı
Ġpre val
æĮģ æľī
èĢ¦ åĲĪ
200 2
oc hem
et a
åıĳçĶŁ åľ¨
Ġph ase
ĠIn stit
å¢ŀ å¤ļ
Ġval id
Ġ z
æĪĸèĢħ åħ¶ä»ĸ
ä½ľçĶ¨ çļĦ
æĪĸ åħ¶ä»ĸ
#### ##
åĲ¯ åıĳ
ä¸Ń æĸŃ
ä¹ĭ ä¸Ĭ
ä¾Ľç»Ļ ä¾§
åħ ĳ
åĳ¨ å¹´
æĵįä½ľ ç³»ç»Ł
è´Ł èį·
Ġco h
ä¾Ŀèµĸ äºİ
ros cop
ĠĠĠĠĠĠĠĠĠĠĠĠĠĠĠĠĠĠĠĠĠĠĠĠĠĠĠĠĠĠĠĠ ĠĠĠĠĠĠĠĠĠĠĠĠĠĠĠĠ
çİĩ çļĦ
æ¤ İ
éĢĢ åĩº
ä»½ é¢Ŀ
Ġinhib ition
g l
çĶŁ èĤ²
æķĻèĤ² æķĻåŃ¦
Ġconcent ration
C o
èĲ Ħ
è´¨ çļĦ
æĸĩ ä¹¦
æľī åĬĽçļĦ
åħ±äº§ ä¸»ä¹ī
æı´ åĬ©
. ](
çļĦ ä¸»ä½ĵ
å¾· èĤ²
æĭ ĺ
ä¾¿ äºİ
åĪĽ æĦı
çľĭ æ³ķ
ĠC ell
c ence
è¦ģ åĿļæĮģ
åį µ
æĹł å½¢
r id
Ġle ft
éĻ· åħ¥
å½±åĵį çļĦ
b i
Ġapop tosis
çľ ł
Ġ ãĢģ
ç§ģ æľī
çĽĳ æĬ¤
æŃ¥ ä¼Ĳ
Ġwhere as
åľ° çĤ¹
Ġf em
ĠAl though
Ġgreat er
Ġinc ub
åĲ Ĳ
Ġepit he
è´¨éĩı åĴĮ
æł¹æľ¬ ä¸Ĭ
æĺ¯ åĽłä¸º
æıŃç¤º äºĨ
ater al
F N
æĹ ģ
æ¼ı æ´ŀ
T o
ç¾ Ĭ
ont rol
R O
äº§ åĩº
8 3
å£® å¤§
åĳ½è¿Ĳ åħ±åĲĮä½ĵ
æł ĵ
A d
l ing
å¤§ èĩ´
åĭ Ł
Ġl arg
åĴĮ åºĶçĶ¨
åĮĸ å·¥
ç¾İ åŃ¦
Ġsc reen
ä¹ĭ æĹ¥èµ·
Ġg iven
çŃĽ éĢī
èĳ¡ èĲĦ
è¿Ľè¡Į åĪĨæŀĲ
æľ ĭ
åģļ äºĨ
ç¼º çĤ¹
æķ°æį® å®īåħ¨
åĪĿ ä¸Ń
èµĦ åĬ©
Ġdet ect
iti s
ä¸»è¦ģ çļĦ
p ri
8 2
ĠIn t
Ġrel ative
çŃī å¤ļ
èĩªçĦ¶ ç§ĳåŃ¦
æĬ¥ è¡¨
æ° ¯
å¥ĸ åĬ±
GF R
ä¸ĵä¸ļ åĮĸ
Ġwe ight
éĴĪå¯¹ æĢ§
å»º éĢł
éĿŀ æ´²
éĿĻ æĢģ
å¿Ĺ æĦ¿
ç»Ħ å»º
æİ¥ åħ¥
å°ı äºİ
Ġtherap eutic
å¸Ĥ æ°ĳ
æł ı
å·¥ ä¼ļ
çº¦ å®ļçļĦ
Ġweek s
ç¬¬ åħ«
åĪĽ è®¾
æĶ¶ åĪ°
åĴĮ æĸĩåĮĸ
P ro
Ġfollow ed
è¡ĮæĶ¿ ç®¡çĲĨ
çī º
å¹ħ åº¦
èĩªæ²» åĮº
è± ª
äº§ä¸ļ åĮĸ
ç»ıæµİ ä½ĵ
çİĭ æľĿ
åıĸå¾Ĺ çļĦ
èħ ¾
m ic
å§ ¿
Ġk ey
æ»¥ çĶ¨
çĶ¨ æ°´
) -
ä¼ļ å¯¼èĩ´
er n
å®¡ è®®
åľ¨æŃ¤ åŁºç¡Ģä¸Ĭ
ä¸ ¢
å¼ Ĺ
éĢļ è´§
æĢ§ éĹ®é¢ĺ
èĮĥ å¼ı
Ġsensi tivity
æķ ¦
å¹´ éĹ´
åį Ī
och ond
ä½ľä¸º ä¸Ģä¸ª
ä¸¥ å³»
æ¼Ķ è¿Ľ
ä¸ªæĢ§ åĮĸ
Ġh ospital
çĩĥ çĥ§
åİ ĺ
ä¸į ç¬¦åĲĪ
åŀĤ çĽ´
åĳĬ çŁ¥
éĩį æŀĦ
çļĦ æĢ»
è·¨ å¢ĥ
èĩª æĦ¿
å»ºç«ĭ èµ·
p p
L S
åı¯åĨįçĶŁ èĥ½æºĲ
åĩº è¡Ģ
ĠO ur
Ġd er
ä¹ĭ å¤§
åĴĮ æĸ°
è½¬åŀĭ åįĩçº§
H O
çĶµ æŀģ
æīĵ å¼Ģ
èµĦäº§ çļĦ
çī¹å¼Ĥ æĢ§
çİĩ åħĪ
Ġ âĢľ
å© ´
s upplementary
æĿ¥æºĲ äºİ
åŁºæľ¬ çļĦ
Î ¼
G G
åį ¢
9 1
åľ¨ è¿Ļä¸Ģ
ä¸Ĭ çº§
åŃ¦çĶŁçļĦ åŃ¦ä¹ł
çļĦ æĤ£èĢħ
ä¹Ł å°Ĩ
ĠThe refore
an cer
çīº çī²
ä¸ĸçķĮ ç»ıæµİ
æĬĹ æĪĺ
ic ine
m aterial
Ġl ack
om p
ç½Ĺ é©¬
äºĴ è¡¥
äººä¸İ èĩªçĦ¶
å¯¹ çŃĸ
çĭ¬çī¹ çļĦ
é«ĺ è¾¾
Ġdifferenti ation
å¹¿ ä¹ī
av a
t ure
è¡ĮæĶ¿ æ³ķè§Ħ
æ±Ĥ æĺ¯
Ġv acc
C F
æľī çĽĬ
å¤©çĦ¶ æ°Ķ
e ff
Ġexam ined
æĳĨ èĦ±
P V
çļĦ ä¸»
Ġindic ate
é¢ ĩ
çª ĥ
éĩį çļĦ
Ġbet ter
æ¹¿ åľ°
8 1
E x
Ġincre asing
Ġcardi ac
æ² Ī
èĤ łéģĵ
ä¸ľ åįĹ
æ¹ĸ åįĹ
Ġaff ect
Ġacc ur
Ġ\ >
Ġrec ent
t t
èĩªçĦ¶ èµĦæºĲ
åħ¬ åĬ¡
Ġconduc ted
Ġ4 0
ï¼ į
æĹł åħ³
Ġassess ment
æĺ Ĩ
é«ĺ æ¸©
Ġpro per
å¼¥ è¡¥
Ġdet ection
éĶ» çĤ¼
m i
è½¬åıĺ ä¸º
çļĦ æķĪæŀľ
åĲ¸ éĻĦ
è Ŀ
ä¸ŃåĽ½å¼ı çİ°ä»£åĮĸ
æ±ī è¯Ń
èĤ ©
Ġprog ram
åįł æį®
ç¤¾ä¼ļä¸»ä¹īæł¸å¿ĥ ä»·åĢ¼è§Ĥ
åīį æľŁ
è· Į
çİĩ ä¸º
Ġparamet ers
Ġs ocial
ä»¥ä¹łè¿ĳå¹³åĲĮå¿Ĺ ä¸ºæł¸å¿ĥçļĦåħļä¸Ńå¤®
åĴĮ åĪĽæĸ°
è¿ĺ æ²¡æľī
Ġen vironment
æľŁ å¾ħ
Ġpre vent
åĬ¨ èĥ½
èĸĦ å¼±
éĽĨ èģļ
k n
è¿ĲåĬ¨ çļĦ
åħ» æ®ĸ
å¼Ĥ è®®
çļĦ å°ı
çªģ åıĳ
æĶ¹åıĺ äºĨ
éĢļ èĥĢ
Ġa x
æĭ ¼
é¡¶ å±Ĥ
åĶ¯çī© ä¸»ä¹ī
ç¦» å©ļ
ix ed
æł¼ æĸ¯
èį §
Ġs uc
äºĮæ°§åĮĸ ç¢³
è®¾è®¡ åĴĮ
è£ģ åĨ³
Ġsel f
Ġsyndrom e
ĠÎ ²
å¯¹ åŃ¦çĶŁ
Ġt e
æľ¬ åľŁ
é¥ ²
ä¹¦ ä¸Ń
Ġac t
ren ce
P T
Ġcriter ia
ä¹Ł ä¸º
æĺ¯ å®ŀçİ°
æľī å¿ħè¦ģ
ĠS c
è®² è§£
ç»Ĩ èĬĤ
ä»İ ä¸Ń
èĶ ½
åĽ¾ä¹¦ é¦Ĩ
éĻįä½İ äºĨ
åĬ¨åĬĽ åŃ¦
åħ¬ åĽŃ
in t
æĩ Ī
å¯¼èĩ´ çļĦ
æĹ¶éĹ´ åĨħ
Ġre duction
åľ¨ ç»ıæµİ
å¸¸ çĶ¨çļĦ
é£Łåĵģ å®īåħ¨
å¢ŀåĢ¼ ç¨İ
res sive
en se
ä¸İ ä¹ĭ
om es
éĿ¢ä¸´ çĿĢ
çļĦ éĢīæĭ©
her s
ib le
å¹¿ æĴŃ
ç§° ä¹ĭä¸º
ocy te
ere b
Ġdistrib ution
åħī ä¼ı
E E
çĶŁåĳ½ åĳ¨æľŁ
ç¡ķ å£«
ä½¿ ä¹ĭ
ä¸ŃçļĦ åºĶçĶ¨
u tions
æłĩå¿Ĺ çĿĢ
y stem
æ¬¢ è¿İ
äºº å¿ĥ
åŃ¦ çķĮ
ici ency
æľº åĬ¨
åŁºæľ¬ ä¸Ĭ
å¾Ī å¿«
Ġsystem s
çĮ Ľ
ãĢĤ [
æī¶ æĮģ
çİ ©
åĪĨæŀĲ äºĨ
ĠSt ud
çļĦ ç½ĳç»ľ
çĹħ ä¾ĭ
äº Ł
æıĲ åĢ¡
ĠW h
ä¸Ģ å¥Ĺ
Ġg o
ä¹Ł æ²¡æľī
ol ution
Ġinter action
é¡º åºĶ
* .
æķĳ åĬ©
çŃī å¤ļç§į
ol ar
w ay
æµģ è½¬
h old
åĩĨ åħ¥
é¥® é£Ł
å¹ »
æĪĸ æĺ¯
åħ¨éĿ¢å»ºæĪĲ å°ıåº·ç¤¾ä¼ļ
ĠFurther more
ut ure
ĠU SA
Ġout come
æįŁå®³ èµĶåģ¿
åŀĭ çļĦ
çłĶç©¶ è¡¨æĺİ
åĲį ä¸º
ç»¼åĲĪ æĢ§
æĺ Ĥ
Ġt ub
å®ŀçİ° çļĦ
é©¬åħĭæĢĿä¸»ä¹ī ä¸ŃåĽ½
ial ly
an tit
çĤ ī
çļĦ æĮĩå¯¼
åĪ¶åº¦ æĶ¹éĿ©
æľ¯ è¯Ń
C N
ç«ĭ ä½ĵ
çĲĨè®º ä¸Ĭ
Ġf ield
ä¸º äººæ°ĳ
åı² ä¸Ĭ
ly ing
æºĲ å¤´
Ġcor respon
æŀ Ŀ
æĵ İ
Ġreg ulation
Ġprog n
æĶ¶ ç¼©
Ġno vel
M D
Ġp ap
åıĳæĮ¥ äºĨ
åĴĮ æĶ¿æ²»
ä¸º æŃ¢
Ġab ove
Ġvir al
çĽĳçĿ£ ç®¡çĲĨ
anc y
Ġs ite
Ġ unc
çĶŁäº§ ç»ıèĲ¥
Ġmac roph
olog ic
ä¸ļ æĢģ
Ġan imals
Ġhigh ly
åıĳ åĬ¨
Ġdi et
æ³¨ æĺİ
Ġstruct ure
en sion
ĠA fter
èĩ´ ä½¿
æī ĳ
åŃ¦ä¹ł åĴĮ
åĽº ä½ĵ
Ġth us
it ud
Ġconcentr ations
b o
ç» ¸
éĥ ģ
in ase
çĶµ ä¿¡
åħĪ è¡Į
it al
åħ¬æľī åĪ¶
éĢĤå½ĵ çļĦ
ä¸į å½ĵ
èµ· ä¹ī
çĶµ éĺ»
å¹´ ä»¥æĿ¥
å¿½ çķ¥
èį§ åħī
C E
Ġat ten
å¹´ çº§
Ġch rom
çļĦ æīĢæľī
Ġcon dition
åıĬ åħ¶ä»ĸ
ç§ĳåŃ¦åıĳå±ķ è§Ĥ
Ġpl ay
åĲĪ éĩĳ
"} ,
æľĿ é²ľ
Ġne ut
C V
Ġem b
åŃ¦çĶŁ å¯¹
ä¸į äºĪ
Ġdo es
f act
enc ing
ç§į ç§į
B D
ä¹Ł ä¸įèĥ½
å®Į å¤ĩ
åľ¨ ç¤¾ä¼ļ
èģļ åĲĪ
æĪĺ çº¿
åľ° åĽ¾
Ġrecept ors
çļĦ å®ļä¹ī
äºĳ åįĹ
Ġvis ual
Ġrat s
is ing
æĿĥ åĴĮ
Ġ ï¼Į
åħ³ ç¨İ
Ġstim ulation
åł ¡
å¿ĥ èĤĮ
å¹´ ç¬¬
è¯ī æ±Ĥ
w are
èĬ ½
æĽ´ æľī
æīĢè°ĵ çļĦ
äºĨä¸Ģ ç³»åĪĹ
g o
ä¹łè¿ĳå¹³æĢ»ä¹¦è®° åľ¨
è¯¸ å¦Ĥ
Ġfe atures
éī´ äºİ
Ġgu id
å¹´ åīį
Ġar tic
Ġ ^
ä»ĭ åħ¥
å¤Ħ çļĦ
åħ ¹
ä¸Ģèĩ´ çļĦ
åĮĸ çŁ³
å®Ŀ è´µ
éĻĦ è¿ĳ
er ing
å¤į ä¹ł
Ġen zym
æĥħ æĻ¯
ĠS T
Ġ ir
ä¸º ä»£è¡¨çļĦ
é¢ ł
c m
C on
é¸ £
çĿĢ éĩį
çĶµ èĦĳ
åŁ¹åħ» åŃ¦çĶŁçļĦ
Ľ èµ·
èµĦæľ¬ å¸Ĥåľº
å¯¼ èĪª
and s
Ġvol ume
ä¾§ éĩį
ĠC A
è¹ Ī
åĴĮ éĿŀ
æĹ© åľ¨
é¢ĳ ç¹ģ
Ġre ad
å®¢ ä½ĵ
å½±åĵį åĬĽ
ac tive
Ġsub st
L R
ä¸ĵä¸ļ çļĦ
åĪ¶ è®¢
æĺİç¡® æıĲåĩº
èĦī åĨ²
a ff
åħ¼ é¡¾
åħ¨éĿ¢ ä»İä¸¥
Ġover all
oin ts
ä¸ĩ äº¿åħĥ
Ġ ä»İ
æł¼ å°Ķ
åºĶçĶ¨ çļĦ
ä¾¦ æŁ¥
ä¸į è®º
ä¸ľ æĸ¹
åĬł æ·±
* ^
æ¸ħ åģ¿
äºĭ çī©çļĦ
ol ic
æľº çļĦ
çĸĹ æ³ķ
Ġ ur
å·² çŁ¥
çŃ¾ ç½²
Ġhe ter
èĳĹä½ľ æĿĥ
è¦ģ ä»¥
çĬ ¹
åįĬ å¯¼ä½ĵ
çŁŃ æĿ¿
èĥ½ åľ¨
r act
å¾Ī å¥½
åįģ æĿ¡
åºĶ åĬĽ
ç¾İ çļĦ
Ġevalu ated
Ġinv as
èĤĮ èĤī
æ³ķ åºŃ
ä¸İ ä¸ŃåĽ½
å¤§ å±Ģ
å°± å¿ħé¡»
æį Ĳ
æĽ ¹
çļĦ æĿ¡ä»¶
I O
åĲĪ ä¼Ļ
äººä»¬ å¯¹
]^ .
Ġp epti
æ¶īåıĬ åĪ°
Ġsyn the
æľ¬ åĽ½
Ġco un
4 00
å½ĵäºĭ äººçļĦ
Ġc ognitive
åĲ¯ ç¤º
åĿĩ åĮĢ
ä»İ ä¸ļ
Ġcol l
éļı æĹ¶
åĨ Ģ
å¿ħ éľĢ
èĤ ½
Ġg ly
Ġm ig
ç²¾ç¥ŀ çļĦ
åıĪ ç§°
è¥¿ åįĹ
ne y
å¼ ¦
erg y
U S
èĸª éħ¬
our ce
ç§ĳåŃ¦ çłĶç©¶
èĩ³åħ³ éĩįè¦ģ
C H
å°± æľī
Ġor ig
æ³¨æĦı çļĦæĺ¯
ą ć
åºĶ åľ¨
é«ĺçŃī åŃ¦æł¡
åŁİå¸Ĥ çļĦ
ä¸įå¾Ĺ ä¸į
å®ī å¾½
å½ĵä»£ ä¸ŃåĽ½
éĺ Ģ
çĦ¦ çĤ¹
æĺ¾ å¾Ĺ
å¼ķ æĵİ
it ing
å¯¹ ä¼ģä¸ļ
ç¦» å¼Ģ
s h
å¤© æ°Ķ
è¦ģ çĤ¹
é© ³
ç¼© çŁŃ
ä¸į ç§»
L D
è´ ¬
äººç±» çļĦ
op las
Ġst aining
ä½ĵ ä¼ļ
åºĵ åŃĺ
åĪĽ ç«ĭ
åŃ£ åº¦
Ġtri als
éģ Ĥ
æĭĽ çĶŁ
ç»¼åĲĪ å¾ģ
B V
ä¸Ģ åĽ½
ĠD ata
o le
ï ¿
çĸ ¼
æĿĥåĪ© çļĦ
æĢ§ åĪ«
åĢŁ è´·
çº º
æī ®
Ġr ight
p ose
âĨ Ĵ
Ġev ents
åĽ½éĻħ åĮĸ
å¤ļæł· åĮĸ
åħ±äº§ åħļçļĦ
èī¯ æĢ§
ä»¥ä¸ĭ åĩłä¸ª
__ __
å¤įæĿĤ æĢ§
å¤ ¹
å¢ĥ å¤ĸ
æĸ° å¾ģç¨ĭ
çŀ »
çļĦ ç»ıéªĮ
çļĦ å¯¹è±¡
ä½ĵç³» ä¸Ń
ä»İ æł¹æľ¬ä¸Ĭ
æ¸ Ĭ
Ġsurg ery
ç§į åŃĲ
åıĳå¸ĥ çļĦ
til l
çĹħ çļĦ
æĺ¯ å°Ĩ
å®ĮæĪĲ äºĨ
ç§ĳæĬĢ æĪĲæŀľ
Ġrec ord
åıĤä¸İ èĢħ
è¡¨ æ¼Ķ
ç»ĵæŀľ è¡¨æĺİ
æº ĥ
is tic
åıĺ ä¸º
æĳ ¸
S upplementary
Ġobser v
è¯´ æ³ķ
åŁİå¸Ĥ åĮĸ
k ing
R es
ĠT able
Th is
èµ¢ å¾Ĺ
èī° èĭ¦
an y
è°ĭ åĪĴ
] [@
åľ¨ä¸Ģå®ļ ç¨ĭåº¦ä¸Ĭ
éĻ¢ éķ¿
F S
èĢģ å¹´äºº
Ġcri tical
åĨľæ°ĳ å·¥
çĨ Ķ
i er
Ġ6 0
ç¥¨ æį®
ac tiv
ä¸º ä¸»ä½ĵ
P E
æ¶Ī åĮĸ
çº² é¢Ĩ
è¡Ģ æ¸ħ
æķĻèĤ² åĴĮ
äººæ°ĳ æ£Ģå¯ŁéĻ¢
å¿ħé¡» åĿļæĮģ
åģ¥åº· åıĳå±ķ
é£İéĻ© ç®¡çĲĨ
åĮĹ æĸ¹
è¯¾ç¨ĭ çļĦ
ri es
æ·±åº¦ èŀįåĲĪ
id es
åķĨä¸ļ ç§ĺå¯Ĩ
Ġf at
Ġdiff ic
Ġinter vention
æ¶² ä½ĵ
å®ļ å¾ĭ
H R
éĽĨä¸Ń åľ¨
æŀģ åħ¶
ç´§ å¼ł
çĲ ´
Ġf il
è¯Ń éŁ³
å®ŀè·µ æ´»åĬ¨
åīį æīĢæľª
å¿ħ å°Ĩ
çĥŃ æĥħ
åı¯ä»¥ çľĭåĩº
çĬ¯ç½ª çļĦ
le x
ä½ı å®ħ
æĺ¥ ç§ĭ
å¤ª å¹³
åĴĮ ä¼ģä¸ļ
æ²ī ç§¯
qu es
æ²¿ æµ·
ä¼ļ ä¸Ĭ
ç®¡çĲĨ èĢħ
lec t
ĠC a
Ġsep ar
Ġdecre ase
åĥ ļ
æģ¶ æĦı
ä½Ĩ åħ¶
Ġlim ited
ov ascular
çĽ¸ ç»§
Ġend othe
Ġcollec ted
å¢ŀ è¿Ľ
ä¿¡æģ¯ å®īåħ¨
å¹¶ è´Ń
åħļ æ´¾
Ġ %
åĲ ŀ
Ġal ter
a z
ox ic
æĪĳåĽ½ ç»ıæµİ
æĥ© ç½ļ
ä»ĭ è´¨
å¾Īå¤§ ç¨ĭåº¦ä¸Ĭ
t reated
ä»£ ä»·
å¦ ¨
éĶ ¦
åı¯ åľ¨
åĴĮ åĽ½å®¶
Ġcalc ulated
åħĥ ä»¶
åĽĽ å¤§
åº Ļ
åĿļ å¼º
æīĢéľĢ çļĦ
em ia
yl ation
um m
çļĦæĸ° åŀĭ
è´ ¿
ï ¹
Ġ2 1
ak en
æģ© æł¼æĸ¯
æ¡Īä»¶ çļĦ
é½ ¿
è¿½ æº¯
Ġare as
çº¿ è·¯
çī¹æ®Ĭ çļĦ
æŀĦæĪĲ äºĨ
æŃ¤ åĲİ
ve ment
æ³ķ åĴĮ
åİŁ æľī
åĲĪä½ľ ç¤¾
ä¼ļ æľī
iz ing
Ġcon n
ä¸įåĪ© äºİ
å®£ åĳĬ
çļĦ ä¼Łå¤§
æĬĢæľ¯ ä¸İ
Ġunderstand ing
æľ¬ äºº
æŃ¦ æ±ī
ç´§ æĢ¥
éĤ Ģ
è¿ĳ æľŁ
éĢ ¼
ra d
Ġtranscri ption
199 8
æ°ĳ åĽ½
ç¬ĶèĢħ è®¤ä¸º
ä»ĸ åľ¨
ç§¯æŀģ åıĤä¸İ
å»¶ è¿Ł
B C
åħ³éĶ® è¯į
Ġp oint
åı¯ è§Ĩ
ä¸Ģå®ļ è¦ģ
å´ Ľèµ·
Ġac tive
åıĻ äºĭ
éĢłæĪĲ äºĨ
èĪ ¶
åıĳå±ķçļĦ éĩįè¦ģ
Ġa verage
Ġmit ochond
ä¿ĿæĬ¤ åĴĮ
æĸ° çĸĨ
ĠA t
èİ·å¾Ĺ çļĦ
ä¸į ç®¡
Ġtrans f
äºº äºº
ĠD i
L I
ä¸¤ æ¬¡
åĤ¨ åŃĺ
åįıè°ĥ åıĳå±ķ
æĦŁ åĪ°
åŃĺåľ¨ äºİ
åĤ¬åĮĸ åīĤ
æķĻ è®Ń
åĤ¨ èĥ½
è®º çļĦ
çĶŁäº§ åĴĮ
è¯¥ çłĶç©¶
å®ŀäºĭ æ±Ĥæĺ¯
è§£åĨ³ éĹ®é¢ĺçļĦ
Ġbi om
or ld
ä¸Ń å±±
Ġpre c
por ts
æģ¶ æĢ§
V A
æĺİç¡® è§Ħå®ļ
åħļçļĦ äºĮåįģ
ç¼´ çº³
% ãĢģ
æŁ ı
ä¿ĿæĬ¤ çļĦ
æ¨ª åĲĳ
us cript
Ġperform ance
n s
Ġof f
è¾© æĬ¤
åıĮ åĲĳ
æĸĩ ä¸Ń
åº· å¤į
Ġdisc us
æĻ® æĥł
åıĳ åĬ¨æľº
ä¼ļ åľ¨
æĥ ĳ
æĺ¯ å¦Ĥä½ķ
ros is
éĩĳèŀį å¸Ĥåľº
Ġthe refore
Ġtrain ing
å² Ń
åı¥ è¯Ŀ
çľĭ ä½ľ
éĩįè¦ģçļĦ ä½ľçĶ¨
è®® é¢ĺ
å¤ĦçĲĨ åĻ¨
éĻį è§£
ä¸ī ä¸Ńåħ¨ä¼ļ
æĺ¯ ä¸º
Ġmeas ures
å¼ Ī
å¨ ±
æĶ¿çŃĸ åĴĮ
å¯¹ ç¤¾ä¼ļ
å®¤ åĨħ
Ġbas eline
mon ary
Ġim age
Ġmark ers
èĦ Ĩ
åįĹ æĸ¹
åıĳçİ° äºĨ
ç¨³ æŃ¥
æĹł éľĢ
åĨľä¸ļ åĨľæĿĳ
é«ĺ åİŁ
è¾ĥ å¼ºçļĦ
Ġshow s
ä»·åĢ¼ éĵ¾
Ġel ev
å®ŀè·µ çļĦ
L P
Ġdam age
ä¸¤ ç±»
n ot
ç¢³ ä¸ŃåĴĮ
ç¼ĵ æħ¢
ä¸įåĬ¨ äº§
ç« ¹
Ġ ãĢĤ
ç¥ŀç»ı ç½ĳç»ľ
åħī çº¤
çļĦ æ°´
èĳ ¬
æĬ ±
m g
æīĭ ç»Ń
å®£ è¨Ģ
Ġser v
ä¸º ä¸Ģ
æľĢå¤§ éĻĲåº¦
çļĦ å®ŀéĻħ
Ġse x
medi ated
æĮ ¤
s ing
Ġprocess es
éļı ä¹ĭ
æĺ¯ æĪĳä»¬
ä¸¤ åĽ½
ä¸ŃåĽ½åħ±äº§åħļ é¢Ĩå¯¼
199 9
Ġv ascular
reg ulated
M R
å±Ĥ çº§
æİ¨åĬ¨ äºĨ
åĪĳ ç½ļ
Ġs ites
Ġvari ables
Ġmut ation
å¤Ħ åľ¨
m e
1 20
å®¢æĪ· ç«¯
ä¸ĭ æ¸¸
Ġtest ing
æ¶ Ľ
ä¸Ĭ è¯ī
å¾Ī å¥½çļĦ
r as
æľĭ åıĭ
Ġde v
æ£Ģå¯Ł æľºåħ³
çĶŁäº§ æĢ»
è¿ľ è¿ľ
åħļ å»º
er tain
çķĮ éĻĲ
çļĦä¸Ģä¸ª éĩįè¦ģ
ç¬¬ ä¹Ŀ
å¼Ģ åħ³
åįģ ä¸ĢæĿ¡
am e
èķ´ åĲ«
ä¸įæĸŃ åľ°
y gen
è´ ª
in ary
Ġam pl
å®ĺ æĸ¹
Ġres id
éŁ© åĽ½
æµ· ä¸Ĭ
ä¾µ çķ¥
ç»¿èī² åıĳå±ķ
æĶ¿æ²» å±Ģ
è§Ħ åĪ¶
çļĦ ä¸ĸçķĮ
åĴĮ åĪĨæŀĲ
Ġdrug s
ç¦ı å»º
åīį åĪĹ
Ġle ar
ç®¡çĲĨ åĪ¶åº¦
éĢī åıĸ
ä¹Ł èĥ½
Ġt ested
éĽ¶ åĶ®
Ġman uscript
åĪĨ çº§
ip her
è±¡ å¾ģ
çĶ³è¯· äºº
Ġind ex
ä¼ł å¯¼
ç»´ ä¿®
åĨ³å®ļ æĢ§
Ġch all
S E
åĻ ¬
ul ate
Ġphys ical
åĿļå®ļ ä¸įç§»
æĸ¹å¼ı åĴĮ
éĻ¤ å¤ĸ
æĭ ĸ
è¡į çĶŁ
Ġt ests
æľį ä»İ
åĩºåıĳ çĤ¹
æ°´å¹³ åĴĮ
==== ===
è¶Ĭ å¤§
èµĭ èĥ½
çĵ¶ é¢Ī
Ġpo or
anti f
çªĹ åı£
è¾ħ å¯¼
g ment
èĭ± éĽĦ
çº· çº·
åĨħ æł¸
çļĦ éĥ¨åĪĨ
Ġm ade
çĶµ åĬ¨
éĢĤ å®ľ
èĭ ¯
èĢĥ éªĮ
é«ĺ åİĭ
ab il
iat ric
A G
Ġab normal
---------------- --------
Ġsec re
æ£ ī
çļĦ éĩįçĤ¹
ĠS p
åŃ¦çĶŁ åŃ¦ä¹ł
èĻ İ
Ġinvestig ated
äºĮ ç»´
Ġcol on
åŁ ĭ
çĽĪ åĪ©
o un
ï¿ ½
] {
æĸ° ä¸Ģä»£
å«Į çĸĳ
Ġprot ocol
è¡ĮæĶ¿ å¤Ħç½ļ
ä¾¿ æĺ¯
æĸĩæĺİ çļĦ
åĶ ¤
æĿ¥ è®²
æķĻå¸Ī åľ¨
or atory
æĸ° çĶŁ
éŁ ¦
æ·· åĩĿ
æİ ©
Ġ å¯¹
éĢī çĶ¨
Ġac h
æıĲ åĪ°
é«ĺ èĢĥ
å¤© åľ°
Ġre nal
åĨľ èį¯
è¡ĮæĶ¿ éĥ¨éĹ¨
å®ĮåĸĦ çļĦ
æŀ ª
Ġcomb ination
in ally
åĩº åĶ®
é»Ħ éĩĳ
çİ¯å¢ĥ ä¸ĭ
åºĶè¯¥ æĺ¯
ä¸º åħ¶
æ²³ åĮĹ
rac tion
Ġanti gen
åĩº ç§Ł
æ½® æµģ
ä¸Ń å¤ĸ
æ´¾ éģ£
Ġc at
åįļ å¼Ī
l ess
Ġto ol
è¿Ļ ä¹Ł
è¿Ļä¸ª éĹ®é¢ĺ
Ġpreval ence
éĽ ¾
æĻºèĥ½ åĪ¶éĢł
éī´ åĪ«
åĢ¡ è®®
Ġ /
å»ºçŃĳ çī©
r h
é¸ ¡
çķĮ çļĦ
æĸ° åįİ
éľĢè¦ģ åľ¨
ti f
Ġ$ \
H z
ten sion
æķ¢ äºİ
ãĢ Į
æ¯ı å¤©
å¸Ĥåľº ä¸»ä½ĵ
æº ¢
å¼ ¯
âĢķ âĢķ
ä¸Ń ç¾İ
å½ĵ ä¸ĭ
åĮĹäº¬ å¸Ĥ
åĲĦ æ°ĳæĹı
éĢĤ åº¦
å¤į è®®
èĪŀ åı°
çļĦ çĬ¶æĢģ
Ġpol ym
éĺ³ æĢ§
çļĦ ç¬¬ä¸Ģ
è¡¨ å¾ģ
åī ĳ
çļĦ ä»»åĬ¡
ãĢ į
Ġfunc tions
) "
åıĳ æī¬
æ¶Ī æŀģ
çī© èµĦ
Ġh om
Ġrecom m
åħ³ éĹŃ
ä¸Ń åĮ»
ä¸º å®ŀçİ°
Ġcont inu
éĩĮ çļĦ
åľ¨ ç¾İåĽ½
ä¸ĩ åĲ¨
ä¸ļ ç»©
å¹¶ è¡Į
åĲĦæĹı äººæ°ĳ
çĤ ®
èĪŀ è¹Ī
Ġtech n
äºĮ çº§
åĴĮ ä¸ŃåĽ½
çļĦåīįæıĲ ä¸ĭ
Ġs till
ot or
ä¸įç¡®å®ļ æĢ§
å¹¼åĦ¿ åĽŃ
å°Ħ çº¿
å¸¸ åĬ¡
L E
es tern
g n
çļĦ äº§åĵģ
ä¸Ŀ ç»¸
éĻĪ è¿°
èĥ½å¤Ł åľ¨
d ocument
åŁºç¡Ģè®¾æĸ½ å»ºè®¾
æĺ¯ åĽ½å®¶
æĹ¥ æľŁ
pir atory
å¯¹ æĪĳåĽ½
H A
Ġprac tice
Ġ rap
å¼ Ħ
ä¸Ń åİŁ
åħ¨éĿ¢å»ºè®¾ ç¤¾ä¼ļä¸»ä¹īçİ°ä»£åĮĸ
ä¼´ éļıçĿĢ
Ġdiagnos tic
A b
æŃ¤ æ¬¡
Ġox id
åĽ½éĻħ è´¸æĺĵ
am ine
Ġach ie
æ² «
Ġsequ ence
c oh
Ġst ep
I R
æİ§åĪ¶ åĻ¨
è®¤å®ļ ä¸º
a ve
Ġc ross
ä¸Ńåįİä¼ĺç§Ģ ä¼łç»ŁæĸĩåĮĸ
åĲĪ çº¦
, ï¼Ĥ
ç¤¾ä¼ļ ç»Ħç»ĩ
Ġtim es
åį³ å°Ĩ
ĠĠĠĠĠĠĠĠĠĠĠĠĠĠĠĠĠĠĠĠĠĠĠĠĠĠĠĠĠĠĠĠĠĠĠĠĠĠĠĠĠĠĠĠĠĠĠĠĠĠĠĠĠĠĠĠĠĠĠĠĠĠĠĠĠĠĠĠĠĠĠĠĠĠĠĠĠĠĠĠĠĠĠĠĠĠĠĠĠĠĠĠĠĠĠĠĠĠĠĠĠĠĠĠĠĠĠĠĠĠĠĠĠĠĠĠĠĠĠĠĠĠĠĠĠĠĠĠ ĠĠĠĠĠĠĠĠĠĠĠĠĠĠĠĠĠĠĠĠĠĠĠĠĠĠĠĠĠĠĠĠĠĠĠĠĠĠĠĠĠĠĠĠĠĠĠĠĠĠĠĠĠĠĠĠĠĠĠĠĠĠĠĠĠĠĠĠĠĠĠĠĠĠĠĠĠĠĠĠĠĠĠĠĠĠĠĠĠĠĠĠĠĠĠĠĠĠĠĠĠĠĠĠĠĠĠĠĠĠĠĠĠĠĠĠĠĠĠĠĠĠĠĠĠĠĠĠ
è´¨ çĸĳ
é» ı
èĵ ¬
ĠMore over
ï¼ Ļ
oc ardi
å¯Į æľī
ä¸ľ éĥ¨
å¯¼ å¸Ī
è¿ĳ æĹ¥
Ġphosph ory
çļĦ åĪĽæĸ°
é¸ ¿
çĶŁäº§ è¦ģç´ł
å¢ĥ åĨħ
åı¯ä»¥ ä»İ
Ġcont aining
æ°´ çļĦ
ĠP CR
çĥ ·
å·¥ä½ľ ä¼ļè®®
æĮĩ çļĦæĺ¯
Ġcent ral
ul ating
åĩŃ è¯ģ
on es
çł ĸ
ä¸ºä¸» çļĦ
ai red
æĿĥ åĬĽçļĦ
æī® æ¼Ķ
} {
Ġe th
é¥ Ń
ç¡®ç«ĭ äºĨ
åĲĪ ä¸Ģ
Ġsp ect
ĠA r
åħ± èµ¢
åıĳ æİĺ
ĠR ec
ati ents
Ġpro posed
æ³¨ å°Ħ
çļĦ æ´»åĬ¨
ä¸Ģ çĤ¹
æĸ½ è¡Į
æĺ¯ä¸Ģ é¡¹
F A
çķĻ ä¸ĭ
15 0
è¶ħ å£°
Ġcl us
ä¸Ĭ æľī
ä»ĸ è®¤ä¸º
éĴ¢ éĵģ
Ġy ear
Ġre st
çĽ®æłĩ æĺ¯
çĸ¼ çĹĽ
æľī å®³
éĢļè´§ èĨ¨èĥĢ
çķ ª
ri x
è¿Ļ æĦıåĳ³çĿĢ
éħ °
Ġlesion s
ç®¡çĲĨ ä½ĵç³»
å¹³ ç¨³
å¯¹ è¯¥
Ġm ass
ect or
çº¦ ä¸º
ä»İèĢĮ ä½¿
Ġtri al
è¿ĩ çļĦ
è¿Ń ä»£
åľ¨ å®ŀéĻħ
åĿļæĮģ åĴĮåıĳå±ķ
Ġcar ri
\[ [@
çĶŁæĢģæĸĩæĺİ å»ºè®¾
ä¸ļ ä¸»
åĩº çĶŁ
çĸĹ æķĪ
Ġexp ress
åŁºæľ¬ åİŁçĲĨ
çļĦ ç³»ç»Ł
åģı å·®
Ġpub lished
am ic
åĬłå¿« æİ¨è¿Ľ
Ġques tion
çļĦ åĽłç´ł
æ· ®
Ġcoh ort
åħ» æĪĲ
å±Ĭ ä¸īä¸Ńåħ¨ä¼ļ
ç®¡çĲĨ ç³»ç»Ł
æ°¨ åŁº
Ġsel ected
å½±åĵį äºĨ
çļĦ ä½įç½®
Ġkn owledge
çļĦ åħ¶ä»ĸ
it u
Ġst em
è¨Ģ ä¹ĭ
å®ŀ çī©
èĪ °
åı¯ä»¥ å°Ĩ
Ġf l
æī¿ åıĹ
duc ing
æĶ¶ æĶ¯
æ¯ı æ¬¡
* )
äºĴ éĢļ
èı ²
ä¸¥æł¼ çļĦ
èĢĮ ä¸Ĭ
åľ¨ è¯¥
. [@
ç¥ ¥
çĸ¾çĹħ çļĦ
ä¿Ŀ åģ¥
ç»Ļ åĩº
å¡ĳ æĸĻ
ç§ĳ éĻ¢
åľ¨ å®ŀè·µä¸Ń
åħ¥ æīĭ
åĪ¶ åĵģ
ãĢ Ķ
ä¸İ æĹ¶
L T
çģµ éŃĤ
åįĬ å¹´
ĠN ational
ä¸º å¯¼åĲĳ
ãĢ ķ
æ»ŀ åĲİ
äº ı
Ġsuggest ing
Ġinflu ence
åİŁ åĪĽ
éĥ½ å¸Ĥ
åħ¬åħ± åį«çĶŁ
åıĪ è¦ģ
è¾¾åĪ° äºĨ
æľīåħ³ è§Ħå®ļ
æľĢå¤§ åĮĸ
Ġed uc
è¾ĥ å°ı
åħ¬åı¸ æ³ķ
æĺ¯ åŁºäºİ
è¿Ļ æĹ¶
çİĩ åĴĮ
in ing
Ġpredic t
åħ¬ åĳĬ
M E
æľ¬ è¯¾ç¨ĭ
ip p
è§ģ çļĦ
Ġdep end
Ġnec ess
H T
æ¸© å®¤
çİ¯å¢ĥ åĴĮ
Ġint ra
Ġb ack
ç¤¾ä¼ļ åŃ¦
Ċ ĠĠĠ
åįģäºĮ æĿ¡
èº« å¿ĥ
å¯¹åºĶ çļĦ
% ),
CP U
ran si
æĢĿ æ½®
ä»į æľī
è¿Ŀ èĥĮ
æİĴ åºı
Ġrep e
ä¿Ŀ å®Ī
å®ıè§Ĥ ç»ıæµİ
åıĳå±ķ ä¸Ń
ĠE R
å¯¼èĩ´ äºĨ
pl oy
éĴ ł
ä¸į åľ¨
çĲĨè§£ åĴĮ
Ġman agement
ä½ľ å®¶
çĹħ åİŁ
å®ĺ åĥļ
le ft
æĪĺ åľº
ä¸į é«ĺ
å¸ ķ
ä¸ĸçķĮ åĲĦåĽ½
åĪĹ åħ¥
Ġsub sequ
Ġo per
ä¼Ł å¤§çļĦ
ç®¡çĲĨ äººåĳĺ
çļĦ æĥħå½¢
Ġv ers
f unction
äººæ°ĳ ä¸ºä¸Ńå¿ĥ
æİĴ åĪĹ
Ġc ereb
Ġinhibit or
Ġexperim ental
æ¯Ĵ æĢ§
åĬł éĩį
Ġcaus ed
åĩ Į
r s
RNA s
çłĶç©¶ åıĳçİ°
éĺ ģ
èµ· çĿĢ
åħ¥ ä¾µ
ro id
éģĵ çĲĨ
åİŁ æĿ¥
éľ ī
æİĪ äºĪ
å¤ ¯
Ġfail ure
åħ¬å®ī æľºåħ³
èĪ¹ èĪ¶
oc al
æķĻåŃ¦ æ¨¡å¼ı
ç»Ŀ å¤§å¤ļæķ°
Ġsh ort
åħ¨ çľģ
çļĦ åŁ¹åħ»
çļĦ æķ´ä½ĵ
æĿ Ń
å¤ļ è¾¹
éĽ· è¾¾
é¢ ĸ
éĶ ¡
"} .
çļĦ å¤ĸ
åİĤ åķĨ
a di
åĽŀ æĬ¥
tim e
æĦŁ æĥħ
æ°ĳäºĭ è¯īè®¼
èĳ£äºĭ ä¼ļ
å¤§åĬĽ åıĳå±ķ
ä¸ŃçļĦ ä½ľçĶ¨
æ± Ĺ
ä½ĵç³»åĴĮ æ²»çĲĨèĥ½åĬĽ
Ġt yp
Ġisol ated
æĬĢæľ¯ åľ¨
æĪĳä»¬ å°Ĩ
æĦıè¯Ĩ åĴĮ
æĻº åºĵ
oci ated
çļĦ åı¯èĥ½æĢ§
20 23
éķ¿ å¾ģ
ä¸¤ä¸ª æĸ¹éĿ¢
ä¸¤ å²¸
æĴ° åĨĻ
æł¹ æºĲ
ch ool
éĿ¢ åīį
éķ¿æľŁ ä»¥æĿ¥
éĹ®é¢ĺ æĺ¯
Ġrese arc
199 7
ub le
åĭĩ äºİ
é£ŀ è·ĥ
æĭĵ å®½
åĬŀ äºĭ
çī¹å¾ģ çļĦ
Ġs uff
ç£· éħ¸
ç¨ į
ç©¶ ç«Ł
: ï¼Ĥ
od es
è¿ĺ åĮħæĭ¬
ä¸ŃåĽ½ ç§ĳåŃ¦éĻ¢
ä¼ģä¸ļ å®¶
åı¯ éĢļè¿ĩ
Ġset ting
äºº ä¹ĭ
è¿ŀ å¸¦
æĪı åī§
or ph
ä¸įæĸŃ å®ĮåĸĦ
å¾Ĵ åĪĳ
æ°¨ éħ¸
èµĦæľ¬ çļĦ
Ġsugg ested
æİ§åĪ¶ çļĦ
Ġs l
Ġse en
äººæ°ĳ æ°ĳä¸»
è®® ä¼ļ
Ġad he
èŀįåĲĪ åıĳå±ķ
æľºåĻ¨ åŃ¦ä¹ł
æ¶Į çİ°
ag ed
æ¹ ĺ
å°± åĥı
( )
Ġal though
çī¢ çī¢
éļĲ æĤ£
åĸľ æ¬¢
æŀģå¤§ åľ°
re am
æĺł å°Ħ
åıĤèĢĥ æĸĩçĮ®
çļĦå¤§ å°ı
Ġhist ory
æ¡¥ æ¢ģ
æĿĥ äºº
ï¼ļ ãĢĬ
Ġsur ve
Ġc ateg
è£ħ é¥°
z e
æµ· åįĹ
å¤ĦçĲĨ çļĦ
ag en
åŃĹ ç¬¦
èĮ ¨
an k
åĲĦ éĥ¨éĹ¨
è§ĦèĮĥ åĮĸ
åĶĲ ä»£
æľºåĪ¶ çļĦ
å°¤ ä¸º
G B
éĽ¶ ä»¶
å¤ļ å¹´æĿ¥
åĨľ çĶ°
èµĦæºĲ åĴĮ
æĿĥåĪ© äºº
ç©ºéĹ´ çļĦ
ur se
over y
pl ay
ĠĠĠĠĠĠĠĠĠĠĠĠĠĠĠĠ ĠĠ
åĽ½ ä¼ģ
ti al
åĴĮ å¯¹
å¤§ çº²
/ -
Ġf ew
åĽŀ åĪ°
ot s
éĥ ¡
^ {
form ation
æĸ° ä¸Ģè½®
å±± è¥¿
çĪĨ çĤ¸
åº ¸
ç´¢ å¼ķ
r ate
åįģåĽĽ æĿ¡
æķĻ ç§ĳ
çļĦ æĶ¯æĮģ
ĠÎ ±
Ġbi ological
æĸ°åıĳå±ķ çĲĨå¿µ
è¯¾ç¨ĭ æłĩåĩĨ
## #
åİ ī
æ¹ĸ åĮĹ
å¼ºåĪ¶ æĢ§
ä»£çĲĨ äºº
ĠÂ ł
éĴ »
Ġl iter
æķ° æİ§
æİ¥ ç§į
å¤ª ç©º
åĬŀåħ¬ å®¤
ĠC ol
åĬ³åĬ¨ åħ³ç³»
âĢ ĵ
Ġu til
å¤į èĭı
çļĦä¸Ģ åĪĩ
ur rent
ç¥ Ŀ
èµ ´
è¿ĻäºĽ éĹ®é¢ĺ
åħ»èĢģ ä¿ĿéĻ©
S I
éª¨ å¹²
Ġmem ory
ç§ĳ çĽ®
çĶ¨ å·¥
ä¹łè¿ĳå¹³æĢ»ä¹¦è®° æĮĩåĩº
T ç»Ĩèĥŀ
åı¯ æİ§
åĲĪæ³ķ æĢ§
Ġrece ived
çİ Ħ
è¿ĺ èĥ½
Ġt ask
Ġs ens
è¿ĩ å¤±
æ² ĥ
b y
ç§¯æŀģ çļĦ
éĢ ¸
Ġsc ores
Ġinf ected
Ġso ft
Ġ :
æĥħ æĬ¥
ç² ¤
å¤ļ å¹´çļĦ
ã ĥ
å®ļ æĢ§
Ġex hib
æľĢ ä¼ĺ
éĢīæĭ© æĢ§
å¸¦ å®½
åľ¨ è¿ĻéĩĮ
Ġmedi um
æ··åĩĿ åľŁ
Ġis s
æ¸ħ åįİ
åĲĪåĲĮ æ³ķ
æĿ¡ ç¬¬
Ġm M
çĽ®æłĩ åĴĮ
ter ior
Ġm ax
Ġmetabol ic
åı¯èĥ½ çļĦ
å¸ĿåĽ½ ä¸»ä¹ī
æ³ Ĭ
eth od
ä¸İ ç®¡çĲĨ
Ġevalu ation
Ġab le
ç£ģ åľº
è¡ĮæĶ¿ åĮº
çĩ ¥
æ¨¡ ä»¿
Ġincre ases
ç¤¾ä¼ļ ç»ıæµİ
æĶ¹éĿ©å¼ĢæĶ¾ ä»¥æĿ¥
ç¨ĭåºı çļĦ
æ¢ Ĺ
å±Ĥæ¬¡ çļĦ
åĪ¶å®ļ äºĨ
ut ri
è¾ Ī
çī©è´¨ çļĦ
è´¯ éĢļ
è¯Ħ å®¡
å¨± ä¹Ĳ
åĽºå®ļ èµĦäº§
Ġrele ase
æ°ĳä¸» ä¸»ä¹ī
Ġstud ied
åįģä¸ī æĿ¡
è´µ æĹı
ä¸Ĭ ä¸ĸçºª
åħ¬åħ± åĪ©çĽĬ
é¦ĸåħĪ è¦ģ
éĻķ è¥¿
åĪĨè¾¨ çİĩ
igh ts
enc ed
è´¨éĩı çļĦ
æĹĭ è½¬
çł´ è§£
Ġcle ar
Ġf ive
ĠT NF
éģ ı
çŁ¥ åĲį
Ġpot enti
æľīæķĪ æĢ§
Ġiniti al
ä¸įæĸŃ åıĳå±ķ
ro b
ĠI FN
åĽ¾ è¡¨
è´¢ çī©
ĠĠĠĠĠĠĠĠĠĠĠĠĠĠĠĠ Ġ
éĹ ª
åĲĪ åĬĽ
å¾Ī å®¹æĺĵ
ä¸Ń èį¯
èĪ Ł
åħ¨éĿ¢ æ·±åĮĸæĶ¹éĿ©
çĶŁæ´» æĸ¹å¼ı
åıį èĢĮ
} $
æĹ º
Ġl ight
éĵ Ŀ
âĶ Ģ
çļĦ éĿŀ
æĢĿæĥ³ åĴĮ
åĽ½å®¶ çº§
Ġcl in
æı ½
çļĦ å®ŀæĸ½
Ġdirect ly
e qu
f or
åĨį åĪ°
v ari
èĩªçĶ± è´¸æĺĵ
çļĦ æľºä¼ļ
ä¸¤ å¹´
å®ıè§Ĥ è°ĥæİ§
ä¸Ģ çĻ¾
æ¬¡ æķ°
åıĺ å±Ģ
è¢ ĸ
og n
Ġap plied
åħ¼ å®¹
Ġph ysi
Ġob es
è§¦ åıĳ
èĦ ¸
\* \*
æŁĵèī² ä½ĵ
ä¸ ĺ
Ġpro por
è®© äºº
Ġresult ing
çļĦ äº§çĶŁ
éĥ¨ çļĦ
åħ¨éĿ¢ä»İä¸¥ æ²»åħļ
çİī ç±³
å£ģ åŀĴ
å°Ĩ æĿ¥
Ġinter p
è¿Ļ ä¸¤ç§į
Ġint rac
åºŁ å¼ĥ
æĺĵ äºİ
M B
å®ŀ åľ¨
ç¤¾ äº¤
Ġsugg ests
Ġinter val
Ġdel i
or b
å´ ©
çļĦ ä¼łç»Ł
è¸ ı
ä¸º åŃ¦çĶŁ
åı¯ä»¥ æł¹æį®
æĺ¯ è¦ģ
çļĦ æ¯Ķä¾ĭ
æľŁ å¾ĴåĪĳ
å¹´ çīĪ
Ġv ent
æľ ´
æ¸ħ éĻ¤
Ġhe re
å¿ į
èĬ ³
è¶ĬæĿ¥è¶Ĭ å¤ļ
åıªæľī åľ¨
Ġabs ence
æĶ¯ æŁ±
åıĳ æĶ¾
äººç±» åĳ½è¿Ĳåħ±åĲĮä½ĵ
Ġcorrel ated
éĺ» æŃ¢
Q L
Ġfac il
åľ° è¯´
åĲ ı
.... ....
çİ¯å¢ĥ æ±¡æŁĵ
ç»Łä¸Ģ æĪĺçº¿
æ³ķ åĪĻ
Ġcompon ents
ä¸º æĮĩå¯¼
åĽĽ ç§į
çļĦ åīį
çĹ ķ
åł µ
el e
ĠG en
å¥ł å®ļ
å¸ĪèĮĥ å¤§åŃ¦
æ°´ ç¨»
Ġh and
çŃī å¾ħ
äºĮ åħĥ
å¼Ģåıĳ çļĦ
éĻ¢ å£«
è¶³ ä»¥
åĨħéĥ¨ çļĦ
åĴĮ åİĨåı²
å¾® ä¿¡
S V
æĶ» åħ³
æĸ°çļĦ åİĨåı²
å°ı ç»ĵ
çī© ä»·
ä¸ĩ çī©
åĴĮ æķ°æį®
æİ§åĪ¶ ç³»ç»Ł
èĥĮ åĲİ
ä¸į ä¹ħ
Ġs al
éĴ ©
åĪĨ å±Ĥ
éĥ½ éľĢè¦ģ
ç»¼ ä¸Ĭ
éħ µ
Ġpl ace
Ġ ess
he st
ç»ıæµİ æķĪçĽĬ
if y
Ġpattern s
æł¹æį® åľ°
ä¿± è¿Ľ
èĭ ·
Ġcompar ison
æĿĳ åºĦ
çºµ åĲĳ
ograph ic
éĢı è¿ĩ
åħį è´¹
è¢ ģ
ç½® äºİ
Ġred uce
éĩĳèŀį æľįåĬ¡
çĲĨæĥ³ ä¿¡å¿µ
Ġ 80
ech n
æ¡ ĳ
Ġf und
æĶ¶ è´¹
Ġlead ing
Ġconfir med
ç´§ ç´§
Ġper ipher
çļĦ åħ±åĲĮ
ä¸İ åºĶçĶ¨
åĪĨ ç»Ħ
Ġsk in
åħ¶ ä¸Ģ
om as
çģµ æ´»æĢ§
çľŁå®ŀ æĢ§
åħ¨ æĸ°çļĦ
æľĢ å¤ļ
åģļ çļĦ
Ġinter ven
äºº äºĭ
Ġdisord er
åľ¨ åĽ½å®¶
Ġaff ected
Ġinf ections
èµ· äºĨ
ä»¥ åħ¶
lis h
å·² è¢«
æŀĹ ä¸ļ
å¤ĩ æ¡Ī
å½ĵ å¹´
é¢Ĩå¯¼ äºº
lob al
ĠC o
æĸĩåĮĸ å»ºè®¾
å¸Ī èµĦ
æł¡ éķ¿
Ġconsist ent
æľ¬ ä½ĵ
ar row
m L
im um
reg ulation
åºķ çº¿
em s
æľĪ çĲĥ
çļĦ åĬĽéĩı
ç»ıæµİ å»ºè®¾
è¯Ń åı¥
æķĻåŃ¦ æĸ¹æ³ķ
çļĦ æķ°éĩı
çļĦ æĪĲæľ¬
åŃ¦ åĪĨ
ef ul
çŃī ä¸Ģç³»åĪĹ
çļĦ ä¼ĺåĬ¿
Ġpop ulations
çļĦ æĸ¹åĲĳ
æĪĳä»¬ å¿ħé¡»
Ġad ult
ç¡ Ŀ
Ġdet ail
ä¼ļ äº§çĶŁ
æĺ¾ å¾®
æķ´ æ²»
ç¼ĸ è¯ĳ
ä¸İæĹ¶ ä¿±è¿Ľ
çļĦ è´¨éĩı
åĨ³ å¿ĥ
ĠFig ure
c o
åºŁ æ°´
P O
è¿ĩ æ»¤
Ġto x
æĿĨ èıĮ
è¿ĩ åī©
æľĪ ä»½
Ġ\ *
our ces
I g
æº¶ è§£
éħ ¯
è¾ĥ å¥½
çº¿ ç´¢
Ġrap id
et al
èĢĥ æŁ¥
å¹´ èĩ³
) (
ä¹ĭ éģĵ
æ® ¿
çĶ¨ çĶµ
æł¸å¿ĥ æĬĢæľ¯
æ¸ħ ä»£
ĠA p
è¿Ķ è¿ĺ
æŀĦ çŃĳ
Ġch ann
åįģåħŃ æĿ¡
è¯į æ±ĩ
çĶŁäº§æĢ» åĢ¼
é Ħ
åºŁ çī©
åİ» å¹´
é«ĺæķĪ çļĦ
ç½ļ æ¬¾
Ġvers us
ä¿® åħ»
Ġmor ph
ä»Ģä¹Ī æł·çļĦ
æĵ ħ
æ³ķå¾ĭ è´£ä»»
Ġ2 2
å¹´ åĿĩ
S p
ä¸» æľº
C a
åŃĺåľ¨ çļĦéĹ®é¢ĺ
èµĶåģ¿ è´£ä»»
æķĪçİĩ åĴĮ
çĶµ åķĨ
Ġan imal
Ġ ä¸º
ä» Ķ
æĳ© æĵ¦
éļ ĭ
å®Įæķ´ æĢ§
Ġparticular ly
od el
ä¿® é¥°
çļĦ äºĭå®ŀ
he re
ç¦ ½
çī© ä¸ļ
æ¦ ľ
ä¸º çĽ®çļĦ
è¡ ·
æŀģ å¤§çļĦ
çķ ¸
çĪ±åĽ½ ä¸»ä¹ī
ç§ ī
ä»¥ æĿ¥çļĦ
è¡Ģ ç³ĸ
======== ==
æ·· ä¹±
ä¸įä»ħ è¦ģ
è¾ĥ å¥½çļĦ
ist ry
æľī æľĽ
æ°ĳ ä¿Ĺ
æĮ¯ åĬ¨
çĽ´æİ¥ å½±åĵį
ä¸īä¸ª æĸ¹éĿ¢
æĬµ æĬĹ
Ġad ap
å¸ §
å¤ ·
å¼Ģå±ķ äºĨ
åľ¨ ä¸ĸçķĮ
éĹ®é¢ĺ ä¸Ĭ
ä¸ŃåĽ½åħ±äº§åħļ äºº
åħ¶ æīĢ
Ġc all
åİ» éĻ¤
äºī è®º
Ġrem ains
èĵ¬ åĭĥ
å±ĢéĻĲ æĢ§
åĺ ±
ä¸ī åĨľ
åıĳçĶŁ åıĺåĮĸ
ç§ĳ æĻ®
Ġp an
ç¢° æĴŀ
æĿ¥ è¿Ľè¡Į
çļĦ è¡¨è¾¾
ä¹ł é¢ĺ
æĻļ æľŁ
æĻºæħ§ åŁİå¸Ĥ
b ers
åħĪè¿Ľ çļĦ
å±± æ°´
Ġcy cle
Ġepithe lial
äºĨ ä¸Ģç§į
å¤§ æĪĺ
Ġli ke
ç»ĵ æł¸
ac hes
å°ı åŀĭ
G C
ĠS D
æµģ å¤±
åįģ å¹´ä»£
çļĦä¸Ģ ç³»åĪĹ
çĩ ķ
çĲĨ å·¥
æŃ§ è§Ĩ
åĨ ¶
å¼ºçĥĪ çļĦ
çĸ ²
Ġevalu ate
è¶ĬæĿ¥è¶Ĭ å¤ļçļĦ
éļı æĦı
äº¤éĢļ è¿Ĳè¾ĵ
Ġ æĺ¯
ï¼ ĵ
O H
çĽ Ĩ
ä¹Ł åı¯èĥ½
è¯» ä¹¦
ç¡¬ åĮĸ
Ġre as
çī¹åĪ« æĺ¯åľ¨
Ġun i
æĲº å¸¦
in o
å¹¶ ä¸įèĥ½
Ġstatis tical
åħħ çĶµ
å½¢åĬ¿ ä¸ĭ
æĺ¯ äººç±»
Ġk inase
Ġendothe lial
éĥ¨ éķ¿
ä¸»è¦ģ çŁĽçĽ¾
èģĶ åĤ¨
ç»ıéªĮ çļĦ
pri ate
åħļ ç«ł
å¹² æ¶ī
Ġsm ok
pec ially
å®ĭ ä»£
åĲĪéĢĤ çļĦ
Ġrele vant
åŃ¦ çłĶç©¶
åĪĨ æķ°
éĹ®é¢ĺ åĴĮ
Ġs ince
ing s
B I
è¶³å¤Ł çļĦ
coh ol
ç½ ķ
Ġt ransi
Ġf uture
å¯Ĩ éĴ¥
æľ¬è´¨ ä¸Ĭ
Ġsuc cess
Ġag g
Ġlip id
åįķä½į çļĦ
çŁ ¢
æĺ¾ çİ°
çķĻ åľ¨
Ġne u
åĴĮ é«ĺ
Ġl ig
æĢĿæĥ³æĶ¿æ²» æķĻèĤ²
ä¼ĺ è¶Ĭ
èĢ ¶
Ġm aterial
Ġk id
å¤§ åľ°
å»ºè®¾ å·¥ç¨ĭ
å®ļ åĲĳ
er ate
ä¸º éĩįçĤ¹
æ¢¦ æĥ³
å¥½ å¤Ħ
ç¨İ çİĩ
pos itive
S F
ä¸Ń åĮ»èį¯
ind ow
åıĻ è¿°
åį° åĪ·
M RI
æµ ©
od ing
æł¹ åŁº
Ġrequi re
Ġf ile
çļĦ åĩºçİ°
199 0
åĲĮ ä¸Ģä¸ª
G E
Ġth ough
è¡° ç«Ń
on ic
il i
æĪĲ äºº
æ³ µ
éģ¥ æĦŁ
æĭį åįĸ
å¿ł è¯ļ
éĿ©åĳ½ åĴĮ
Ġinc idence
é«ĺè´¨éĩı åıĳå±ķçļĦ
ç¦ ħ
åĲĽ ä¸»
åĴĮ ä½¿çĶ¨
P R
åħħåĪĨ çļĦ
éĩį å¤§çļĦ
ä¹ĭä¸Ģ çļĦ
rol og
çģµ æķı
æĪĲåĬŁ çļĦ
æ¸Ĳ è¿Ľ
vere x
çļĦ æĢģåº¦
è¿ĺ ä¼ļ
ç¼ĵ åŃĺ
ä¸Ĭ å±Ĥ
åĲ ¾
éĩĩ æł·
åĬ³åĬ¨ äºīè®®
èįī åİŁ
æĸ ¤
çķħ éĢļ
èĥ° å²Ľ
åı¦ æľī
åıĳå±ķ åĪ°
æĬĵ å¥½
æł¸å¿ĥ ç´łåħ»
æĪĺ å½¹
inf lamm
æĹ¥ åĨħ
Ġf inal
Ġ ve
çļĦ èīºæľ¯
æĢ§ çĸ¾çĹħ
Ġdom ain
Ġreg ression
æµĭ åºı
T C
å°± æ²¡æľī
y g
i k
åŃ¦ä¹ł èĢħ
le ep
Ġg ast
åıĳ çļĦ
ä»ĺ æ¬¾
åºĶ æľī
c are
åĽŃ æŀĹ
çĶŁäº§ çİĩ
çļĦ å¤ĦçĲĨ
Ġqu antif
åĪ¤ å®ļ
çĲĨ äºĭ
è¯Ń å¢ĥ
äººä¸º æľ¬
ç§» æ°ĳ
Ġl og
ä¸ĭ ä¸Ģ
Ġ3 7
åı¯ çĶ¨äºİ
çļĦ ä¸ĢäºĽ
ä¸įæĸŃ æıĲåįĩ
å»¶ å®ī
çº¢ å¤ĸ
æĪĺ åĽ½
çļĦ çĲĨå¿µ
åħ¨ ä¸ĸçķĮ
æķ° éĩıçļĦ
ä¾¿ æį·
Ġsc i
å»ºè®¾ çĶ¨åľ°
Ġmolec ules
ä½ķ ç§į
Ġang i
æĸ°åħ´ äº§ä¸ļ
ç«¯ åı£
S H
000 1
æĸ°åıĳå±ķ æł¼å±Ģ
æī¿ ç§Ł
ç¾¤ ä½ĵçļĦ
Ġv ess
åĪĴ åĪĨä¸º
çĶŁçī© å¤ļæł·æĢ§
ä¸ĭ åİ»
æľī åĵªäºĽ
ä¸Ŀç»¸ ä¹ĭè·¯
ç«ŀ èµĽ
èĬĤ å¥ı
æĹ¶éĹ´ åĴĮ
åįģä¸ī äºĶ
çŃī æĬĢæľ¯
Ġan other
Ġdec ision
ç»ĺ åĪ¶
æľī åħ¶
ç½ª çļĦ
æ³ķ åħ¸
P M
Ġ >
Ġgener ated
åºĶå½ĵ åľ¨
Ġpl at
åĪ¶åº¦ å»ºè®¾
Ġa ir
çķ ı
æ± ¤
å¿ħé¡» åľ¨
è§ĦåĪĴ åĴĮ
çļĦéĩįè¦ģ åĨħå®¹
æĢĿæĶ¿ è¯¾
Ġstrateg ies
æĶ¿åºľ éĥ¨éĹ¨
æī§è¡Į çļĦ
Ġp ref
æĥ Ł
y th
ĠIn c
åĨ· åį´
éĢļ è·¯
åįĥ å¹´
ass ociated
Ġpre gn
å¤¯ å®ŀ
åħħ è¶³
} \
ä¸Ģ éĥ¨
æ» ¨
âĢĿ ãĢģ
åħ¨éĿ¢ çļĦ
r ated
Ġactiv ated
äºĶ å¤§
åĥ µ
åįģä¸ĥ æĿ¡
è¡ĮæĶ¿ è¡Įä¸º
å½Ĵ å±ŀ
Ġim plement
Ġsup plement
è´£ ä»¤
åĴĮ åĽ½éĻħ
Ġre al
çº³ç¨İ äºº
å®½ æĿ¾
as h
æĦıè¯Ĩ åĪ°
ĠĠĠĠĠĠĠĠĠĠĠĠĠĠĠĠĠĠĠĠ ĠĠ
ä¸º æľ¬
a id
ĠM RI
æ³Ħ éľ²
æīĢ è¯´çļĦ
è¯Ń ä¹ī
Ġacc um
" )
Ġbiom ark
ä¸į æĺĵ
è¿Ľ åĩºåı£
èµ· æŃ¥
ä¸ Ľ
ä¸įæĸŃ å¢ŀå¼º
ä¹Ł ä¸įæĺ¯
t le
è¯¾é¢ĺ ç»Ħ
Ġ err
ĠO ne
Ġop tim
ä¸İ ä¼ģä¸ļ
åĬ¨ æīĭ
éĩİ çĶŁ
çŀ ¬
å½ĵæĹ¶ çļĦ
è¶Ĭ é«ĺ
ĠAs s
åħ¨ èº«
èħº çĻĮ
ī ¤
ä¸º ä¸ŃåĽ½
æ¸¯ æ¾³
æĸ°åĨł èĤºçĤİ
Ġcardi ovascular
æĪĸ è®¸
çļĦ ç»¼åĲĪ
æ¯ ħ
A c
åħ·æľīéĩįè¦ģ æĦıä¹ī
---------------- ------------
æĹ¥ è¶ĭ
Ġex ist
åĵª éĩĮ
ç®¡ éģĵ
Ġo ste
ĠĠĠĠĠĠĠĠĠĠĠĠĠĠĠĠ ĠĠĠ
çī©çĲĨ åŃ¦
æī£ éĻ¤
å°ģ è£ħ
Ġcontrib ute
g roup
å®ŀ æķĪ
æĪĲåĳĺ åĽ½
6 00
å¸®åĬ© åŃ¦çĶŁ
ç¾İå¥½ çĶŁæ´»
çĬ¯ç½ª å«Įçĸĳ
Ġqu antit
è¿İ æĿ¥
éħ ®
çĶ¨ èį¯
æµ ı
op erative
ores cence
Ġinter actions
éĢī æĭĶ
æ²»çĲĨ ä½ĵç³»
" ï¼Į
è¿Ļæĺ¯ ä¸Ģä¸ª
ä¾ĭ å¤ĸ
Ġle uk
çļĦ çİ°å®ŀ
çŁ³ å¢¨
å¹¶ åŃĺ
Ġmic roscop
ä¸Ģ è¯į
æµ ¦
c hem
åĮ»çĸĹ åį«çĶŁ
å» Ĭ
çļĦ è®¡ç®Ĺ
å¤ļ é¡¹
åħ¬å¹³ æŃ£ä¹ī
N K
çļĦ ä¸ĵä¸ļ
19 78
Ġdist inc
åĨ ¯
ä¸Ģ çº¿
Ġh ost
çĶ² åŁº
"} )
æĶ¹éĿ© åıĳå±ķ
19 49
æĶ¶åħ¥ åĪĨéħį
Ġpul monary
Ġ åĽĽ
r m
Ġem erg
Ġd yn
ĠS h
åİŁ æľīçļĦ
Ġcon c
èĢĥ çĶŁ
ĠMed ical
ot ypes
åħ± çĶŁ
å¯ĨåĪĩ çĽ¸åħ³
Ġç¬¬ä¸Ģ èĬĤ
èĥļ èĥİ
åıĭ å¥½
æ»¤ æ³¢
çŁ¥è¯Ĩ åĪĨåŃĲ
================ ================
çģ« ç®Ń
ĠĠĠĠĠĠĠĠĠĠĠĠĠĠĠĠĠĠĠĠ Ġ
è®² æİĪ
åīĬ å¼±
èµ· èįī
åĨĻ åħ¥
å¸Ĥåľº ä¸Ĭ
éĥ½ ä¸į
Ġmacroph ages
æľ¬ ç«Ļ
r up
åħ¨ä½ĵ äººæ°ĳ
ç½ĳç»ľ ç©ºéĹ´
å®ŀçİ° å¯¹
èĩª è´¸
ç»ĵæŀĦæĢ§ æĶ¹éĿ©
åĬł çĥŃ
æķĻå¸Ī è¦ģ
p ite
ä¸İ æĬĢæľ¯
åŁºç¡Ģ çłĶç©¶
è¿ĺ åºĶ
ro tein
ç»ı è´¸
Ġflu id
æ±Ł è¥¿
Ġvi ew
Ġneed ed
åĪĽæĸ° é©±åĬ¨
Ġme ans
èĥ½ åĬ¨
åıį åŀĦæĸŃ
ä¸Ń æľĢ
èĹ »
ä¼´ éļı
ä¸Ģ å®¶
åŁºæľ¬ åİŁåĪĻ
åĿ Ĭ
åĤ¨ èĵĦ
âĹ ı
Ġes pecially
ä¸ªäººä¿¡æģ¯ ä¿ĿæĬ¤
ä¸İ åĽ½éĻħ
åħ³éĶ® æĬĢæľ¯
L i
er ve
çİ°ä»£ åĨľä¸ļ
il t
è¢« å®³äºº
Ġus eful
PP P
çļĦ ä¿ĿæĬ¤
r ich
ç®¡çĲĨ ä½ĵåĪ¶
ä¸İ å®ŀè·µ
æĭĵ æīĳ
Ġdiffic ult
è¿Ĳ è½¬
çļĦ èĩªçĦ¶
ç¾İ èģĶåĤ¨
çļĦ çī©è´¨
Ġto p
b it
Ġad ults
ä¸Ģèĩ´ æĢ§
çŃĸ åĪĴ
çĨŁ ç»ĥ
å¤§åŃ¦ çļĦ
ä»¥åıĬ åħ¶ä»ĸ
çĽ´ çº¿
ir us
åıĳæĮ¥ çĿĢ
èĢģ é¾Ħ
ĠN ot
åįģäºĶ æĿ¡
æľĢ å¥½
è½¨ è¿¹
éĩĩçĶ¨ äºĨ
ä¹Ł éľĢè¦ģ
åıĹ æįŁ
Ġinvestig ate
ä»ĸä»¬ åľ¨
éĿ¶ åĲĳ
é«ĺ è¡Ģåİĭ
èĳĹåĲį çļĦ
Ġspec ies
é©¬åħĭæĢĿä¸»ä¹īä¸ŃåĽ½ åĮĸ
æķĮ äºº
èĶ ¬
æħĪ åĸĦ
Ġp ower
Ġ ç¬¬åĽĽ
æĹ¥å¸¸ çĶŁæ´»
çĭ Ĥ
éĿ© æĸ°
æĶ¹ ä¸º
ä¸ĸçķĮ è§Ĥ
Ġresearc hers
æ Ĩ
è¢«è®¤ä¸º æĺ¯
D C
duc es
Ġpap er
i i
è¿Ľ åº¦
b or
Ġliter ature
çļĦ æİ§åĪ¶
åİŁ æĿĲæĸĻ
åĲ¦ è®¤
åıĳ è¨Ģ
å¹³ è¡Į
åľ¨ æľ¬
æĢĢ çĸĳ
åĩı å°ı
ĠInstit ute
æĸĩ æ¡£
çĶ±æŃ¤ åı¯è§ģ
ä¾Ľ çĶµ
é¢Ĩ åľŁ
æĪĳ çļĦ
åĳ½ åĲį
ä¸į æĩĪ
åºĶ ä»¥
æłĩåĩĨ åĴĮ
æ¬£ èµı
é¡ ½
å±ķ æľĽ
èĩªæĪĳ éĿ©åĳ½
å®ĥ åľ¨
åŁºç¡Ģ æĢ§
æ¾³ éĹ¨
ic acy
åĿĩ ä¸º
Ġsup ported
å¤± æķĪ
çİ°å®ŀ çļĦ
Ġcarcin oma
è¿ Ħ
æļĤ æĹ¶
ĠS im
Ġyo ung
Ġto ward
åį° è±¡
è¡¥ åĬ©
åıł åĬł
ar ding
Ġcharacter ized
Ġtem per
èĶ ¡
å¥ Ķ
est inal
æį® æŃ¤
åĩºçİ° åľ¨
å¸Ĥåľº ç«ŀäºī
åĲĪçĲĨ æĢ§
å¹´ å¼Ģå§ĭ
æ±¡æŁĵ éĺ²æ²»
æĺ¯ ä¼ģä¸ļ
Ġmon itor
æĸ° æĹ¶æľŁ
Ġsecond ary
æķ°æį® éĽĨ
Ġç¬¬äºĮ èĬĤ
Ġd im
åĢ¾ æĸľ
çĽ´ èĩ³
è§ī å¾Ĺ
Ġt rac
d en
æľºåĬ¨ è½¦
åĲĳ åīį
O C
å¹¶ ä»¥
å¹¶ æĹł
Ġcaus es
æī¾ åĩº
åĽ½ åĢº
Ġappro xim
ç»ıæµİåŃ¦ å®¶
Ġup on
Ġox ygen
å¤ ¸
åĩıå°ĳ äºĨ
åİĭ è¿«
Ġtrans fer
å¿ĥ è¡Ģç®¡
d om
al es
ä½į çļĦ
if ically
um or
ä¼ļ åĳĺ
çº¯ ç²¹
Ġ4 8
æĥ³ æ³ķ
èī° å·¨
è¿Ļ ä¸İ
è¾ ±
åħ·æľī ä¸Ģå®ļçļĦ
om al
åĪĽæĸ° åıĳå±ķ
Ġimp air
æīĢ èĩ´
æĺ¯ ç¤¾ä¼ļ
åħ¬åĬ¡ åĳĺ
çļĦ æĶ¹éĿ©
Ġhypothe sis
éĩį å¡ĳ
è¯Ń æ³ķ
æ· ĺ
éĢ ¾
è®¤è¯Ĩ åĴĮ
å¯¹ æīĭ
åŃ¦ åİĨ
æŁĲ æŁĲ
st ate
ĠĠĠĠĠĠĠĠĠĠĠĠĠĠĠĠĠĠĠĠ ĠĠĠ
çĶµ æľº
âĢ Ĳ
åħ Ħ
N T
çļĦ è¡¨çİ°
Ġprovid es
ä»ĵ åºĵ
çºº ç»ĩ
Ġ ä»¥
Ġres piratory
è¿Ļ ä¸¤
æĬĳåĪ¶ åīĤ
æĦı å¤§åĪ©
å¿ĥçĲĨ åģ¥åº·
çłĶç©¶ äºĨ
ą ą
Ġscreen ing
è¿Ŀ è§Ħ
å¤ĦçĲĨ å¥½
ä¸ŃåĽ½ åı¤ä»£
Ġlim it
Ġperipher al
Ġf ood
" ãĢģ
ä»ĭ çŁ³
è¶ħ çº§
Ġpos ition
o tic
åħļ æĶ¿
Ġad en
çİ° éĺ¶æ®µ
çĲĨè®º ä½ĵç³»
cep ti
[ ^
å®ļ åĪ¶
Ġw ild
æĶ¹ èī¯
éħį å¤ĩ
æ°¸ ä¹ħ
åı¯ä»¥ çĶ¨
åĪĨ æĪĲ
Ġestab lished
Ġtr ig
åįł çĶ¨
Ġ** (
è¯¾ æĹ¶
é¡¶å±Ĥ è®¾è®¡
è¡Į æĺŁ
Ć Ć
éĩįè¦ģ æĢ§
å»º åħļ
åĴĮ ç»Ħç»ĩ
ä¸Ń å¯¹
åĴĮ ä¸ªäºº
æİ¥ çĿĢ
åħļåĳĺ å¹²éĥ¨
æŁ¥ çľĭ
Ġwho le
èĪ ±
å¢ŀ æ®ĸ
ç¼Ķ çº¦
Ġcorrespon ding
å®ļ çĲĨ
Ġh yd
è¿Ŀæ³ķ è¡Įä¸º
Ġh ome
Ġd ensity
åıĤ è§ģ
åº§ è°Ī
èµ· åĪ°äºĨ
Ġex erc
æĦ¿ æľĽ
æ³¡ æ²«
å½ĵ å±Ģ
æ·±åħ¥ æİ¨è¿Ľ
æķ°åŃĹ æĬĢæľ¯
éĿ¢ è²Į
äºĭä¸ļ åıĳå±ķ
Ġmetabol ism
å¥ ¶
æĬķèµĦ çļĦ
åı¯ä»¥ æĺ¯
Ġmal ign
åĪĳäºĭ è´£ä»»
éģŃ åĪ°
h ood
äºĶ åĽĽ
éĩį å¿ĥ
ä¼ļ å¯¹
Ġpos si
æ·± åİļ
åĨħ å¿ĥ
ogen ous
åĴĮ ç²¾ç¥ŀ
åı² æĸĻ
èĴĭ ä»ĭçŁ³
åĪ©çĶ¨ çİĩ
ç»Ļ åŃ¦çĶŁ
è¿Ľ æĶ»
æľīéĻĲ çļĦ
çŁŃ ç¼º
O D
æ¬º è¯Ī
im mun
åĪĽæĸ° åŀĭ
ĠN F
åįģä¹Ŀ æĿ¡
æł Ī
åĴĮ è§£
åİŁ æľ¬
åĮ ł
Ġm uch
æĢ» çĲĨ
å·¥ ä¼¤
Ġto get
Ġtoget her
ä¸į æŃ£å½ĵ
èĲ Į
éĤ£ éĩĮ
Ġrec ru
ä¸ľ äºļ
Ġh ours
æģ¶ åĮĸ
çĲĨ æĢ§çļĦ
Ġ ent
Ġs umm
ä¸´åºĬ è¯ķéªĮ
çļĦ éĢŁåº¦
ç»Ļ ä»ĺ
è¾ī çħĮ
00 2
æł ½
å®ļä¹ī ä¸º
åı¯ çŁ¥
åĮº éĹ´
Ġm id
èĩª åŃ¦
çĲĨè®º åĪĽæĸ°
æł¡ ä¼ģ
æĢ§è´¨ çļĦ
res hold
æĭĽ æłĩ
é¢ł è¦Ĩ
åįģåħ« æĿ¡
åºķ å±Ĥ
äº¤æĺĵ æīĢ
éģı åĪ¶
ir d
å¥´ éļ¶
ç¤¾ä¼ļ åıĳå±ķ
ĠAm eric
æ³ķå¾ĭ åĪ¶åº¦
åĳ¨ æģ©
æµı è§Ī
é¢Ħ åĲİ
åīį éĿ¢
W TO
Ġdi rec
åı¯ ä¿¡
Ġinterven tions
Ġcytok ines
el f
èĩª å¾ĭ
éĻĨ ç»Ń
Ġcon text
æķĻ çłĶ
éĵ¾ è·¯
æİĴ æĸ¥
åĮºåŁŁ çļĦ
å¿ĥ çģµ
ä¼łæŁĵ çĹħ
æľ¬èº« çļĦ
åĽ½å®¶æ²»çĲĨ ä½ĵç³»åĴĮæ²»çĲĨèĥ½åĬĽ
ä¹ ¾
æİ§ èĤ¡
åħ¨éĿ¢å»ºè®¾ç¤¾ä¼ļä¸»ä¹īçİ°ä»£åĮĸ åĽ½å®¶
å½ Ń
å°Ĩ æĪĲä¸º
èĲ İ
åħ¨çĲĥ ç»ıæµİ
æĿ¥èĩª äºİ
Ġâ ī¥
. )
çĹħ æĥħ
æŁĶ æĢ§
è¥¿ å®ī
èĮĥåĽ´ çļĦ
æĲ ı
çĽ®åīį çļĦ
å¹¿ è¥¿
åľ°ä½į åĴĮ
a u
Ġag ents
Ġimpro ved
è¦ģ åĬłå¼º
C IT
Ġdevelop ing
éĩĮ ç¨ĭ
Ġc m
art ment
åĴĮ æİ§åĪ¶
è¢« è§Ĩä¸º
æ°ĳæĹı çļĦ
åĲĳ éĩı
F D
a e
è§ĦèĮĥ çļĦ
ä¸Ĭæµ· å¸Ĥ
t ered
æĹ¢ çĦ¶
Ġincub ated
ç¥ŀ è¯Ŀ
ä¸įåı¯ éģ¿åħį
è¿Ľåħ¥ äºĨ
Ġbet a
ä¸Ĭ äºĨ
å®ŀè´¨ æĢ§
Ġd ri
åĲ ¹
å¾ĹåĪ° çļĦ
ç«ĭ æ¡Ī
Ġelev ated
L L
çī¢ è®°
æĹłäºº æľº
åĪĨ æŃ§
Ġphen otype
ç³»ç»Ł åĴĮ
èĴ Ĥ
æľī æĹł
æķ ²
åŃ ª
We b
çĿ¡ çľł
çī¢ åĽº
ç»ıèĲ¥ ç®¡çĲĨ
å¦Ĥæŀľ æ²¡æľī
åİ Į
Ġcomb ined
çŃ¾ åĲį
åľ¨ ä¸Ģ
æıĲ éĹ®
20 30
çªģ çĦ¶
Ġterm s
ç¼ĵ åĨ²
å¹´ ä¸ŃåĽ½
çİ Ľ
m b
åĴĮ çłĶç©¶
ä»ĸ è¯´
åĭ ¾
è®¾ æĥ³
ä¸ºåŁºç¡Ģ çļĦ
åħ ½
E G
è¦ģ ä»İ
æıı ç»ĺ
Ġder ived
åħ Ĩ
Ġind uce
ĠĊ ĠĠĠĠĠĠĠĠĠĠĠĠĠĠĠ
åģļ åĩºäºĨ
æ¸ħ çĲĨ
è§ĦèĮĥ æĢ§
ç§¯ åĪĨ
åħ¶ ä¸»è¦ģ
æĢ ĸ
åıĬ çĽ¸åħ³
å¾Ĺ å¤ļ
ä¸Ĭ éĿ¢
ç¡®å®ļ äºĨ
æ¯Ķ çī¹
æľª æľī
Ġl at
çĲĨ æĶ¿
W h
éĺŁ åĪĹ
ĠN e
199 5
ur g
æµ· åħ³
o z
æĺİ ä»£
ä¸ĵ åĪ¶
ç¬ ĳ
ĠP re
E n
ä¹Ł è®¸
199 4
çģ ¶
æĹ¥ åĨĽ
Ġob j
Ġunder lying
ä¸º ä¼ģä¸ļ
ç¤¾ä¼ļ ä¿ĿéĻ©
Ġadminist ration
æĸ¯ çī¹
æĺİ çĻ½
al pha
æľ¬ ä¸ĵä¸ļ
Ġcap ac
åħ¨åĽ½ åĲĦæĹıäººæ°ĳ
ä»¥ å¤ĸçļĦ
ot al
Ġac tion
Ġcount ries
ç´łè´¨ æķĻèĤ²
ay er
åħ³ç³» åĪ°
å¾ģ æ±Ĥ
æĺ¯ éĿŀå¸¸
æľº ä½ĵ
ä»ĸ äººçļĦ
åħĪ å¤©
u ter
åĨħ çĶŁ
æŀ ¯
åĴĮ å¸Ĥåľº
æ» ļ
åı« åģļ
ä¸į å¦Ĥ
æŁ ³
çĹħ åĽł
IS O
' ,
çĽ¸åħ³ æĢ§
Ġ ĊĠ
ç»Ħ çļĦ
ä¸Ģ ä½į
å¼Ģåıĳ åĪ©çĶ¨
åīį çŀ»
è¿Ĳè¡Į çļĦ
æıĴ åħ¥
ç¤¾ä¼ļ è´£ä»»
Ġ ä¸ª
Ġin duction
Ġ2 3
è¶ħ åĩº
Ġconsid er
ut h
Ġ ;
Ġcor tex
ä¼ł æİĪ
il s
ç»ĵ æĻ¶
ç»ĵæŀľ çļĦ
æ¦Ĥå¿µ çļĦ
er al
æ±ĩ èģļ
ä¼ł éĢģ
æĪĲæľ¬ çļĦ
Ġ2 8
ĠS er
Ġrec ently
èĬĤ çľģ
æģĲ æĢĸ
çŁ £
æľį è£ħ
åĽ½éĻħ åĲĪä½ľ
Ġinhibit ors
ï¼ ķ
æ¬¡ ä¼ļè®®
ç²¾ èĭ±
æĪĲä¸º äºĨ
å¸ĥ ç½®
çŃī çĽ¸åħ³
è®² è¿°
æ°ĳèĲ¥ ä¼ģä¸ļ
Ġs af
åĩı å¼±
æ¬¾ è§Ħå®ļ
èĩª å¼º
ĠD e
åĮĹäº¬ å¤§åŃ¦
ici ans
çļĦ æĦıè§ģ
ç¼ ļ
å¤± è¡¡
äº¤éĢļ äºĭæķħ
é«ĺ æĸ°æĬĢæľ¯
åħ¶ äºĮ
åĮħåĲ« äºĨ
æĬĢæľ¯ çļĦåıĳå±ķ
åıĳçİ° çļĦ
ä»¥ä¸ĭ åĩł
åĬłå¤§ å¯¹
Ġcomple te
éĺŁä¼į å»ºè®¾
oles ter
åı² åŃ¦
æĭī åĬ¨
æ²¿ çĿĢ
æĮ «
en z
M C
ä¸ŃåĽ½ äºº
æ°´ è´¨
Ġsignific ance
åŁº çĿ£
Ġstrain s
å¸ Ĳ
æŀģ éĻĲ
ne um
J ava
ç¤¾ä¼ļä¸»ä¹ī å»ºè®¾
æ¬§ ç¾İ
os tic
çŃī åľ°
ä½Ĩ ä¸į
y e
éĹ´ éļĶ
Ġal one
ç© Ĩ
æŀĦæĪĲ çļĦ
éĢĤåºĶ æĢ§
199 6
èĢ Ģ
çľĭ å¾ħ
æľįåĬ¡ äºİ
åıĳå±ķ è¶ĭåĬ¿
éĺĲè¿° äºĨ
B L
Ġess ential
e e
åľ¨ è¿ĻäºĽ
è¿ĳ ä¼¼
c ers
em ic
æĺ¯ ä¸İ
ç½ ¢
æ£ Ĵ
çĶ¨ ä»¥
Ġpa ren
èĭ¥å¹² éĹ®é¢ĺçļĦ
åĲ¯ èĴĻ
çŁ «
Ġp oints
èĩ Ń
æ± °
æĥ³ è¦ģ
Ġcomp os
èĩªçĶ± ä¸»ä¹ī
p H
åĬł æĭ¿
å®īåħ¨ çĶŁäº§
Ġdesign ed
Ġneur al
çļĦ ä¸ľè¥¿
è¿Ħ ä»Ĭ
çĶµ ç«Ļ
åħī åŃĲ
åı¸æ³ķ æľºåħ³
) ãĢĭ
ç±»ä¼¼ äºİ
æľī æľŁå¾ĴåĪĳ
åĨħ éľĢ
è¾¾ å³°
åĪĨæŀĲ æĸ¹æ³ķ
f old
åį Ĵ
or ies
åĩł åįģ
éģŃ éģĩ
A g
è´¢ ç»ı
ç»¿èī² ä½İç¢³
å³ ¡
E GF
èĤ ĸ
å°Ĭ ä¸¥
äººç±» æĸĩæĺİ
çļĦ æľįåĬ¡
ĠÂ µ
åŃ¦ åīį
æįŁå®³ çļĦ
ãĥ »
èī° éļ¾
å¿ħè¦ģ æĢ§
æ³ķ æ¡Ī
é¢Ħ è§ģ
çº¢ åĪ©
ä»· æ¬¾
O T
Ġd uration
Ġpl ac
Ġwh at
âĢĿ ï¼Ľ
æīĢæľī èĢħ
æ²»åĽ½ çĲĨæĶ¿
åĩº åľŁ
è¿ĺ åľ¨
çļĦ ç»Łä¸Ģ
ä½İ æ¸©
G P
çĶµ èį·
é¾Ļ å¤´
ä¸Ĭ æ¸¸
Ġd on
ä¿Ħ åĽ½
Ġproper ties
Ġpro te
çıŃ çº§
æĬĹæĹ¥ æĪĺäºī
åĽ½å®¶ æľºåħ³
åħ¶ ä½Ļ
æĲľ éĽĨ
éĢł åŀĭ
ä¸į çŁ¥
Ġmig ration
éķ¿ æĹ¶éĹ´
æĪ· ç±į
è®¢ åįķ
ä¿ĿéĻ© åħ¬åı¸
Ġsign als
erg ic
Ġcy cl
b eta
åľ¨ æķ´ä¸ª
ĠS ystem
è¿Ļæł· ä¸Ģä¸ª
è½¬ç§» åĪ°
inflamm atory
åĢ¾åĲĳ äºİ
éĺ¶æ®µ æĢ§
lud ed
Ġal cohol
åİ ¦
Ġactiv ities
Ġacc ess
ä¹¡æĿĳæĮ¯åħ´ æĪĺçķ¥
Ġlo ad
åĩĢ åĮĸ
åĨħå®¹ åĴĮ
æľī å¾ħ
åĨł çĬ¶
è¿ĩ å¤ļ
æľº åºĬ
ĠW T
c al
æĥ §
åĦĴ åŃ¦
ä»İ æŃ¤
g round
å¯ ĵ
é¢Ĩ ä¼ļ
é©¬åħĭæĢĿä¸»ä¹ī çļĦ
åıĳ ä½ľ
å®ĮæĪĲ çļĦ
Ġm ust
çĤ¹ åĩ»
èµĦäº§ è´ŁåĢº
åħ¨ ä¹¦
çĲĨ åŃ¦
åĬł åĿ¡
åĬłå¿« å»ºè®¾
ç§ĺ ä¹¦
å¹¶åıĳ çĹĩ
ro g
åķĨ äºĭ
æĥ ľ
Ġ9 0
åĴĮ æĶ¿çŃĸ
åľ¨ æķĻåŃ¦
åŁºç¡Ģ æķĻèĤ²
çĿĢçľ¼ äºİ
åħ¨åĽ½ äººæ°ĳä»£è¡¨å¤§ä¼ļ
åīįæīĢæľª æľīçļĦ
æĸĩ çļĦ
çĶŁæĢģ ä¿ĿæĬ¤
uro p
äºĭåĬ¡ æīĢ
çĸ«æĥħ éĺ²æİ§
Ġsurg ical
çŃī åĨħå®¹
æĽ´ å¿«
Ġsyn ap
æ¾³ å¤§åĪ©
è£ħ éħį
èħ °
éĤ£ ç§į
ä¾Ľ éľĢ
åľ° è¿Ľè¡Į
å¼Ĭ ç«¯
Ġref erence
** *
éĩı åĪĳ
ä¸º çĽ®æłĩ
åĲ ķ
å¤ĸ æĿ¥
åį³ ä¾¿
d uce
è¯ ł
åĪ° æľŁ
åı¯ä»¥ åĪĨä¸º
Ġc ertain
æ¾³å¤§åĪ© äºļ
é¢ĺ çĽ®
éĺ² çģ«
Ġlear ning
èĤ² ç§į
æĸŃ è£Ĥ
åıĳå±ķ éģĵè·¯
Ġappro ved
åı¯è§Ĩ åĮĸ
çģ¾ éļ¾
ex t
åıį ä¹ĭ
çŁ¥è¯Ĩ çĤ¹
çļĦ çī¹æ®Ĭ
et s
è¯Ħ åĪĨ
å»º åĽ½
è¯» åıĸ
æĪĸ ä¸į
åĩĨç¡® æĢ§
ed ing
Ġf ree
ç»¼ è¿°
s m
åįĵ è¶Ĭ
æĳ Ĭ
åĻ¨ æ¢°
æµģ åħ¥
Ġal tern
åĪ¶åº¦ ä½ĵç³»
æ±ī åŃĹ
Ġdys function
Ġ ãĢĲ
Ġmut ant
åĴĮ æ³ķå¾ĭ
é¼ İ
æĦŁ åıĹåĪ°
ä½ł çļĦ
Ġmeasure ments
ro ke
éĢĢ ä¼ĳ
éĤĢ è¯·
æĶ¯ éĥ¨
f rac
Ġpro duced
è´ º
æ²»çĲĨ çļĦ
æľªæĪĲ å¹´
åĩ ¤
ä¸º æ°ĳ
ä¸į å®¹
î Ģ
Ġel e
æľ¬ çłĶç©¶
å¤ļ å±Ĥæ¬¡
Ġtechni ques
çĽ´ å¾Ħ
Ġl ength
Ġreg ard
éĢ Ĭ
é¢ ħ
20 25
æ¼Ķ ç¤º
N I
åĮ»çĸĹ æľºæŀĦ
åŃ¦ç§ĳ çļĦ
Ġneur onal
Ġphosphory lation
l ab
Ġsup er
åĪĨ å¼Ģ
por al
ä»įçĦ¶ æĺ¯
é¢Ĩå¯¼ çļĦ
æĽ´ å®¹æĺĵ
æģ° å½ĵ
å¹¿æ³Ľ åºĶçĶ¨
anc re
èĢĥ éĩı
Ġbl ot
Ġmedi an
E V
å®ŀéĻħ çļĦ
å·´ é»İ
åĳ¨æģ© æĿ¥
Ġappro aches
æ°ĳä¸» æĶ¿æ²»
çĵ £
ç«ŀäºī ä¼ĺåĬ¿
ç¬ ¼
èĩ Ĥ
ä¹ĭ éĻħ
ä¾µæĿĥ è´£ä»»
Ġnucle ar
æ¸ħ éĨĴ
åĪĨ åĮº
Ġappro priate
o ff
å¾Ī å¼ºçļĦ
èĩªçĦ¶ çķĮ
äº² å±ŀ
è§£æĶ¾ åĨĽ
Ġestim ated
åľ¨è¿Ļç§į æĥħåĨµä¸ĭ
é¥± åĴĮ
çļĦ æľī
et ing
ç»Ħ è£ħ
èħĲ èļĢ
ä¸Ģä¸ª åĽ½å®¶
ci um
.... ..
el ines
ä¾Ľç»Ļä¾§ ç»ĵæŀĦæĢ§æĶ¹éĿ©
åıĳæĮ¥ ä½ľçĶ¨
Ġem ploy
åŃ¤ ç«ĭ
ç»Ī ç»ĵ
äºº éĻħ
è¿Ļ ä¹Ī
ç» µ
ç®¡çĲĨ éĥ¨éĹ¨
éĨ ī
ç©º çĻ½
Ġshow ing
åħ³æ³¨ çļĦ
æĬķ ç¥¨
åĨħ èĴĻåı¤
ä¸Ģ ç»Ħ
éĤ£ ä¸ª
éĥ İ
æĸ° æ¨¡å¼ı
Ġs w
ä¸ĭ è½½
åį³ åľ¨
w w
Ġcon sequ
åĲĮ çŃī
tain ing
Ġsever ity
æĮĩå¯¼ æĢĿæĥ³
æ¯ı ä¸ªäºº
æĿŃ å·ŀ
é ³
æ²³ æµģ
ä½į çĤ¹
åģ¿ è¿ĺ
å±ĤéĿ¢ çļĦ
Ġcont ent
der ived
æĶ¿æ²» ç»ıæµİåŃ¦
æľī ä»Ģä¹Ī
è¿ĩåİ» çļĦ
æ·±åº¦ åŃ¦ä¹ł
i ous
ä¹ĭ åĨħ
å¢ŀ éĩı
ä½ľåĩº çļĦ
éĩįè¦ģ è®²è¯Ŀ
çĽ² çĽ®
/ âĪĴ
Ġenh anced
ĠA nal
ä¸Ń æĸĩ
æĸ¹æ³ķ è®º
å½ĵ ä½ľ
æĸĩåĮĸ åĴĮ
åĵģ æł¼
èĦĨ å¼±
æ³ķå¾ĭ åħ³ç³»
ĠR T
ä¸Ńåįİ æĸĩæĺİ
Ġcommun ity
1 10
Ġmitochond rial
æĢ» çļĦ
Ġe ar
æ²¿ çº¿
çŃī åĲĮ
å°Ĩ æĺ¯
è¿Ļ å¯¹
æĳĦ å½±
åĪĩ éĻ¤
Ġsus cepti
å¿ħçĦ¶ è¦ģæ±Ĥ
çĻ¾å¹´ å¥ĭæĸĹ
Ġproced ure
ĠThe y
åĴĮ åľ°æĸ¹
ä»ª å¼ı
Ġw id
H S
èĲ¥ åķĨ
è¯Ħ å®ļ
Ġal ong
ï¼ļ ï¼Ī
ç»´ çĶŁç´ł
Ġrat her
åľ° å½¢
å¸¸ è¯Ĩ
æīĭ æ³ķ
çĸ ¹
é¢Ĩå¯¼ ä¸ĭ
èģĮä¸ļ åŃ¦æł¡
è¡° éĢĢ
åĽŀ éģ¿
ç²¾ç¥ŀ åĴĮ
ä»¥åıĬ å¯¹
ä¸Ģ åı·
æĿŁ ç¼ļ
è§Ħ éģ¿
åŃ£ èĬĤ
Ġkid ney
ç»Ī äºİ
Ġw ater
ä¸ī çº§
äººæ°ĳ çĶŁæ´»
è§ģ è§£
åİŁ æĿ¥çļĦ
åħī æĺİ
Ġrel atively
åħļ å¯¹
æĵį çºµ
çĲĨè§£ ä¸º
ç®Ĺ æ³ķçļĦ
åŃĺ éĩı
Ġo verex
ç´¯ ç§¯
A F
Ġmark er
o u
åľ¨ è¿Ľè¡Į
ç¤¾ä¼ļ åĮĸ
è°¨ æħİ
åĿļ å®Ī
åĽ½å®¶ æĪĺçķ¥
æĽ´å¤ļ åľ°
æ¯Ķ çİĩ
ĠW hen
æºĲ æ³ī
Ġon set
Ġcl os
æĺ¯ çĶ±äºİ
é¡¾ éĹ®
è®¡ æķ°
ä¸į åħħåĪĨ
Ġnecess ary
ç µ
äºĭ åĲİ
Ġf ull
åĽł åħ¶
c k
æĪĺ åĲİ
èĬ ¬
Ġexp ected
æĺ¯ éĿŀ
Ġapp ear
åįł é¢Ĩ
åĬĽ éĩıçļĦ
æĬĵ æīĭ
éĺĲ æĺİ
Ġd os
Ġc ut
è¿Ŀçº¦ éĩĳ
ä¹īåĬ¡ çļĦ
ure d
éĽĨä½ĵ ç»ıæµİ
ä¿Ŀ ç®¡
æ½ľ èĥ½
è´µ å·ŀ
çļĦ åħ¨
ä¹Ł åĮħæĭ¬
åĽł åľ°
im er
Ġrec ogn
Ġs ix
èĸĦ èĨľ
N D
çī¹ è´¨
pec tive
å¤ĩ ä»½
Ġha ving
Ġ ult
æĪĺ èĥľ
èĩªåĬ¨ é©¾é©¶
Î Ķ
éĥ½ å¿ħé¡»
âĳ ¤
æīĢ äº§çĶŁçļĦ
æĶ¶åħ¥ çļĦ
è´¢æĶ¿ éĥ¨
ä¹Ł åºĶ
ä¼ĳ éĹ²
åĿĩ æľī
çļĦ è¯Ħä»·
åĤ ħ
åĲĦ çľģ
è¿Ļç§į æĸ¹æ³ķ
æľª çŁ¥
æİĪ è¯¾
äººåı£ çļĦ
Ġ ä¸İ
5 000
æĢ ª
åĪ¶ å®ľ
è¯īè®¼ æĹ¶æķĪ
Ġdis play
ä½¿çĶ¨ äºĨ
ä¸¢ å¤±
æĪĸèĢħ è¯´
çĮ ľ
æĪĳä»¬ å¯¹
æĽ´ éĩįè¦ģçļĦæĺ¯
æ°Ķ ç®¡
çĻ¾ ä¸ĩ
Ġs leep
ati ent
å¤§å¹ħ åº¦
éĻ¶ çĵ·
æŃ ĩ
å¤º åıĸ
éĵ¾ æĿ¡
Ġco urse
å¤ĸ åľ¨
199 2
è°ĥæŁ¥ çłĶç©¶
è¶ĭ äºİ
æĢ§ æł¼
æ¶ ¯
x t
ç½ĳ æł¼
çĶ¨æĪ· çļĦ
ä½ĵ å¤ĸ
our nal
éĥ½ åħ·æľī
B R
è´Ł æľī
"} ),
æĹ¥ å¿Ĺ
o ti
h yd
èŀº æĹĭ
kn own
Ġg ood
ä¼° ç®Ĺ
è¯Ĭ çĸĹ
. **
Ġvent ric
åĿļæĮģåĴĮåıĳå±ķ ä¸ŃåĽ½çī¹èī²ç¤¾ä¼ļä¸»ä¹ī
Ġproble ms
å¸Ĥåľº éľĢæ±Ĥ
ä¿Ŀ åħ¨
æĺ Ń
è´ ®
çł Ĥ
æŁ¥ æī¾
çĨ Ļ
éķ¿ ä¸īè§Ĵ
Ġcon cer
ç¼ Ĩ
ä»ħ æľī
åħļçļĦåįģä¹Ŀ å¤§
æľ¬ æĿ¥
Ġal pha
èĩªçĦ¶ äºº
æ°¨åŁº éħ¸
å¢ŀéķ¿ çİĩ
Ġint ensity
Ġindic ating
å¥ĩ è¿¹
Ġc ost
ä¸º ä½ķ
çļĦ ç¨ĭåº¦
åł ª
e tic
ä¸ī åįģ
Ġg ran
ĠA b
åĮ ¿
Ġeff icacy
æ¡Īä»¶ ä¸Ń
æľºæŀĦ åĴĮ
æ¬§ åħĥ
æĽ´ åħ·
è¿Ľä¸ĢæŃ¥ å®ĮåĸĦ
G T
åĽ½éĻħ ç¤¾ä¼ļ
æıĲ çĤ¼
Ġtranscri p
åľº åĲĪ
l l
r it
Ġen g
P h
æ¢¯ åº¦
è¿Ļæĺ¯ åĽłä¸º
ic ial
In t
Ġgen ome
æĹ¶ æľº
Ġsoft ware
Ġf ram
Ġtemper ature
ĠC ancer
åĲ¬ åıĸ
ä¸Ń æ¯Ĵ
æĶ¾ çĶµ
Ġsequ ences
è¦ģ æĥ³
Ġm ental
è¯ģæĺİ äºĨ
Ġcor on
éĤ® ä»¶
æĺ¯æĮĩ åľ¨
å·¥ åĨľ
éĢļè¿ĩ çļĦ
è¢« æī§è¡Į
åıĳå±ķ è§ĦåĪĴ
ag ne
è¯ł éĩĬ
å¼ķ åĬĽ
19 80
åĮĸ çĸĹ
ar tic
ä¾Ľ æ±Ĥ
---------------------------------------------------------------- ----------------------------------------------------------------
p ect
å¤§ äºĭ
Ġrel i
åŁº å»º
å½ĵ å®¶
éĵ Ń
ä¸¥ å¯Ĩ
ç»ıæµİ ç»ĵæŀĦ
æĺİ æ¸ħ
Ġartic le
Ġpol y
æĺ¯ åħ¶
b e
str ic
è¯¾ å¤ĸ
Ġcompon ent
èĭ± æĸĩ
éĶĻè¯¯ çļĦ
m ia
Ġt reat
æĦıè¯Ĩ çļĦ
æķ°æį® åĪĨæŀĲ
æŃ¤ ç§į
è§Ħæ¨¡ çļĦ
åĵģ å¾·
ç¬¬äºĮ çĻ¾
ä¸ŃåĽ½çī¹èī²ç¤¾ä¼ļä¸»ä¹ī éģĵè·¯
U C
æīĢ åŃ¦
Ġcan cers
åºĶ åıĺ
Ġ2 6
æķ°æį® è¿Ľè¡Į
æĺ¾ç¤º åĩº
è¾¹ éĻħ
å¤§ ä½ĵ
çĽ¸ è¿ŀ
äºĭä¸ļ çļĦ
ä½į ä¸Ģä½ĵ
ä¸īä¸ª ä»£è¡¨
åĴĮ æĶ¯æĮģ
ç«ĭ å¾·
Ġth reshold
Ġf ra
at ural
çĶ² çĬ¶
ä¸ª ä½ĵçļĦ
éĺ Ī
olog ies
æ±Ĥ è§£
éĺ¿ å°Ķ
èĥ°å²Ľ ç´ł
æ± ²
è¡ĮæĶ¿ è¯īè®¼
ç²®é£Ł å®īåħ¨
å¤§ èĥĨ
Ġhuman s
ä¸į åħ·æľī
ä»ħ ä¸º
åŃª çĶŁ
å¹¶ ä¸İ
äº¬ æ´¥
æľºåĪ¶ åĴĮ
olester ol
åŃ¦ åĴĮ
Ġap plication
çļĦ èģĶç³»
çº ¬
ä»¥ å¤ª
å¿ Į
éŃ ħ
ä¸ī æ¬¡
ä¸Ńå¤® éĵ¶è¡Į
F C
éĽĨ çº¦
ç» ĳ
Ġs itu
æıĲèµ· è¯īè®¼
èľ Ĥ
è®¾è®¡ ä¸İ
æĮ ¡
ä¹ Ķ
ä¸ĭ ä¸ĢæŃ¥
æ¨¡ æĿ¿
çĬ¯ç½ªå«Įçĸĳ äºº
æ¶Īè´¹ èĢħçļĦ
çļĦ è¯Ńè¨Ģ
åĽ½æľī èµĦäº§
ot yp
ĠĠĠĠĠĠĠĠĠĠĠĠĠĠĠĠĠĠĠĠĠĠĠĠĠĠĠĠĠĠĠĠĠĠĠĠĠĠĠĠĠĠĠĠĠĠĠĠĠĠĠĠĠĠĠĠĠĠĠĠĠĠĠĠ ĠĠĠĠĠĠĠĠĠĠĠĠĠĠĠĠĠĠĠĠĠĠĠĠĠĠĠĠĠĠĠĠ
æ²ī æ·Ģ
çłĶç©¶ åĽ¢éĺŁ
èģĮä¸ļ éĻ¢æł¡
åıĳå±ķ è§Ħå¾ĭ
å¿ħ ä¿®
çĭ¬ç«ĭ æĢ§
ĠIg G
ä¸ŃåĽ½ åľ¨
æķ°æį® åĴĮ
ä¹ĭ åĪĿ
èį¯ çī©çļĦ
ç®¡çĲĨ çŃī
åľ¨ ä¼ģä¸ļ
ç¥ Ģ
åĲį è¯į
Ġop en
ç»ĵæŀľ æĺ¾ç¤º
åºĶ æĶ¶
Ġprocess ing
cl ass
æľī å¾Īå¤ļ
æ¶ī æ¡Ī
è¿½ è¸ª
å®ŀ åľ°
éĹ® åį·
å°± åľ¨äºİ
ä¸ĸçºª åĪĿ
å®ī ç½®
G S
åħ¶ å¯¹
å¤ĸ çķĮ
ari ly
ä¼ļ åĩºçİ°
ä¸ļåĬ¡ çļĦ
åĩŃ åĢŁ
çļĦ åľŁåľ°
æµ· åĨĽ
æŀĦ ä»¶
ä»¥ å®ŀçİ°
å¹¶ ä¸º
Ġm el
æİĴ åĲį
éĺµ åľ°
Ġexperi ence
Ġtrans plant
ä¼ļè®¡ å¸Ī
åĪĿçº§ éĺ¶æ®µ
Ġexerc ise
è¡Ģ çĹĩ
Ġs ide
Ġimport ance
äºº æĢ§
åı£ å¤´
æķ°æį® å¤ĦçĲĨ
å·¥ç¨ĭ æĬĢæľ¯
å»ºè®¾ ç¤¾ä¼ļä¸»ä¹ī
åºĶå½ĵ æĮīçħ§
çº¿ ä¸ĭ
çĲĨè®º çłĶç©¶
enc ies
çļĦ æ°ĳæĹı
åĨħéĥ¨ æİ§åĪ¶
Ġtarget s
åı¯è¡Į æĢ§
æľįåĬ¡ ä½ĵç³»
ç®Ĺ åĬĽ
çĭ ±
an al
Ġw ay
åĽ¢ç»ĵ å¸¦é¢Ĩ
æ¡ Į
ä¸ļ çļĦ
æ¸¯ åı£
æĪĲç«ĭ äºĨ
åĬ «
éĤ ª
Ġre action
Ġmeasure ment
Ġmat rix
ç¡®å®ļ æĢ§
ä¼ļ çļĦ
ä¸Ńåįİ æĸĩåĮĸ
ochem ical
çª ĳ
å®ŀè·µ æķĻåŃ¦
Ġcapac ity
æĵįä½ľ æĢ§
amm a
ä¸į çĶ¨
æį ī
æ¡ Ĥ
Ġass ays
ĠT rans
os ome
éĩı åĴĮ
æ½ľåľ¨ çļĦ
éķ¿ æķĪ
éĺ» å¡ŀ
æĺ¯åĲ¦ æľī
ethod s
Ġ --------------------------------
æĢ» çº¿
ç»§æī¿ äºº
å§ĵ åĲį
å¾ģ ç¨İ
åĬ¨ äº§
çĽ Ĵ
æ° Ł
åĨĽ æ°ĳ
ä½Ļ é¢Ŀ
Ġn m
å¤´ èĦĳ
ĠP T
Ġdistinc t
èĩªä¸» åŃ¦ä¹ł
t on
æĿĥ éĩį
äºĭ åħĪ
åı¯æĮģç»Ń åıĳå±ķçļĦ
åĨľ åľº
åħ¨åĽ½äººå¤§ å¸¸å§Ķä¼ļ
å¾Ī é«ĺ
æº ª
çĿ£ ä¿ĥ
çĶ» éĿ¢
çļĦ éĻĲåĪ¶
ĠN K
ç´§ è¿«
è¯ķéªĮ åĮº
çĦĬ æİ¥
C om
åħ± æĮ¯
x i
ä»¥ æıĲé«ĺ
è¿ĺ åŃĺåľ¨
çļĦ å®ŀçİ°
æ£ ĭ
åĽłæŃ¤ åľ¨
ä¸į æĺİ
æĮĩ æĺİäºĨ
% ~
æīĵ ä¸ĭ
Ġmetast asis
ãĢĭ .
èģĮä¸ļ éģĵå¾·
r ine
ä¼ļè®¡ åĩĨåĪĻ
çĦ¦ èĻĳ
Ċ ãĢĢ
de f
oc amp
å½±åĵį åĪ°
ä¸İ ä¼łç»Ł
è¾ĥ å¿«
èĩªçĦ¶ çļĦ
çĶŁ æľº
åħĭ éļĨ
omet ry
Ġç¬¬ä¸ī èĬĤ
å¼Ģåıĳ åĴĮ
åİŁåĽł æĺ¯
uff er
åĲĦ çķĮ
çŀ ©
çļĦ é«ĺåº¦
åŃ¦æľ¯ çķĮ
åĨ Ī
æĦŁ æĢ§
äº§ æĿĥçļĦ
èŃ¦ åĳĬ
èµĦ è®¯
å¤ĸ åķĨ
ä¸ŃåĽ½çī¹èī²ç¤¾ä¼ļä¸»ä¹ī åĪ¶åº¦
er red
è¿ĩ æĿ¥
ä¸»è¦ģ çĶ±
y ear
er ase
ä½Ĩ å®ĥ
è¯ķ é¢ĺ
is ted
Ġadd ed
æ¶Ī æ¯Ĵ
rom b
Ġm ul
ä¸į äºĨ
Ġm otor
èĲ §
çĶŁäº§ èĢħ
åĲĮ ç±»
ä¸į å¤§
Ġm ake
è¿ĺ åı¯
éª ĳ
èĶ¬ èıľ
% ).
èĢĮ å¯¹
u it
ï¼ Ķ
åİŁ æĸĩ
éĢļè¿ĩ äºĨ
Ġelect ro
æĹ¶ éĴŁ
æķ° ç»Ħ
ul ted
ig ma
è®© æĪĳä»¬
Ġdemonstr ate
ç²¾ åĬĽ
Ġaut o
Ġstatis tically
çĶĺ èĤĥ
ä»Ķ ç»Ĩ
åı Ľ
ä¸»åĬ¨ æĢ§
çĶ· æĢ§
âĢĿï¼Į âĢľ
å¸® æī¶
æĪĲçĨŁ çļĦ
w h
çļĦåŁºæľ¬ åİŁåĪĻ
iv ing
Ġpercent age
Ġinj ection
inu x
Ġhe ad
ä¿¡åı· çļĦ
Ġemb ry
ä¹Ł åŃĺåľ¨
R e
ç»Ĩ èĩ´
èĤĿ èĦı
æľĢå¤§éĻĲåº¦ åľ°
II I
æº¶ åīĤ
åĴĮ çİ¯å¢ĥ
Ġpe ak
med ia
æº ī
å®ħ åŁºåľ°
æ¬² æľĽ
ä¸Ģ ç±»
s ed
å¤ĸ è´¸
æ® ·
çĭŃ çªĦ
åħ¬ åħģ
æ¸ħ æľĿ
199 3
d ay
D D
åŃ¦ éĹ®
00 3
ä¸į è¶ħè¿ĩ
åı¯èĥ½ å¯¼èĩ´
åį´ æĺ¯
ç³»ç»Ł åľ°
Ġ7 0
åĢĻ éĢī
Ġintrac ellular
æĶ¿åºľ åľ¨
æ·±åħ¥ çłĶç©¶
ä¸į å±ŀäºİ
æµģ æĦŁ
ra w
åįĥ çĵ¦
ER P
Ġ her
us ted
æĬķ æłĩ
çĽ´ æµģ
æµģ ä½ĵ
åı¯ä»¥ ä½¿çĶ¨
åĲĮ æľŁ
ĠI V
ä¸ĸçºª çļĦ
çĽ´ è¾ĸ
éĢĤ æĹ¶
ç®¡çĲĨ åĬŀæ³ķ
æĶ¶ åıĸ
çĲĨè®º åĴĮå®ŀè·µ
g or
æ·± å±Ĥæ¬¡
å¹´ åĪĿ
ç»ıæµİ åħ¨çĲĥåĮĸ
è¦ģ å®ŀçİ°
æľ¯ åĲİ
çī¹ åĮº
åĽłæŀľ åħ³ç³»
Ġvari ants
åĻ¨ åĴĮ
æĸ° ä¸ļæĢģ
åºĶçĶ¨ åŀĭ
å¢ŀåĬł åĢ¼
åį³ æĺ¯
éħ¸ çĽĲ
æĪĳåĽ½ åľ¨
ec tiv
åŃ¦ ä¸ļ
ren g
åıį èħĲè´¥
æ¯Ľæ³½ä¸ľ æĢĿæĥ³
ä¸ĢèĪ¬ æĿ¥è¯´
æ®ĸæ°ĳ åľ°
ä¸įä»ħä»ħ æĺ¯
Ġrem o
æ³¨æĦı åĬĽ
å¤ĸ è¯Ń
æĺ¾èĳĹ çļĦ
æ§ Ľ
Ġadd ress
è¡¨ åĨ³
éĩĳèŀį çĽĳç®¡
ox id
æ· Ĩ
æĹ¥ åīį
èĻļæĭŁ åĮĸ
r is
åŃ¦æł¡ çļĦ
å¸¦ å¤´
éĺ² åį«
çļĦ éĢ»è¾ĳ
å¸¸åĬ¡ å§Ķåĳĺä¼ļ
Ġen ergy
éļĲ èĹı
è¾ĵ éĢģ
ai ly
^ *
çĥ ¦
Ġbi op
çļĦ ä»·æł¼
äº§åĵģ è´¨éĩı
è¯Ĺ äºº
al ing
arm ac
å¹² æĹ±
Ġdep ression
Ġh orm
ç»ıéªĮ åĴĮ
ä¾µæĿĥ è¡Įä¸º
èĲ¥ åĪ©
ĠH ospital
åĩĨç¡® åľ°
æĮĩå¯¼ ä¸ĭ
éĢł å°±
æĬķ å½±
éĴ ¾
Ġl ater
çĶŁçī© è´¨
åīį éĢĶ
é¢Ĩ è¢ĸ
ĠW ith
æĪ¿ äº§
ï¼ī ï¼Ľ
çĽĳ è§Ĩ
ç«ĭ æĸ¹
å°ı éº¦
l and
æįŁå¤± çļĦ
ap e
Ġrespon d
ä½ľ ä¸»
éĩĩ è®¿
æ± ª
I m
O X
åıĳå±ķ éĺ¶æ®µ
ä¸Ģä¸ª éĩįè¦ģ
le t
ä¸º çĶ±
è§ĦåĪĻ çļĦ
mi R
çħ§ çīĩ
çĵ ľ
åħ¬ ç¤º
ç½ĳ èĨľ
Ġyo u
åıĳå±ķ ä¸İ
åĩ½æķ° çļĦ
Ġb ro
Ġa di
æģ° æģ°
Ġapproxim ately
éĵ¶ è¡Įä¸ļ
çļĦ ä¸¤
åĬłæĭ¿ å¤§
ä¸» ç¼ĸ
é ¬
å§ĭç»Ī åĿļæĮģ
ä¸Ń æŀ¢
æ°´ åľŁ
åĲĪä½ľ çļĦ
å® °
Ġn ow
st ream
åĪ¶ è£ģ
æ·· æ·Ĩ
r amm
åı¯ä»¥ ä¸º
éĢī é¡¹
åĪĹ ä¸¾
çĽ¸ç»ĵåĲĪ çļĦ
ĠN ew
ce ption
åı¯ è¾¾
è¢ ĭ
ç»¼åĲĪ ç´łè´¨
Ġ2 7
å¯¼ åħ¥
Ġev ent
æľ¬ æ¬¡
Ġlab oratory
ä¸İ éĿŀ
èĢĲ èį¯
ogni tion
ĠI II
åŁİå¸Ĥ ç¾¤
æľī ä¸Ģå®ļçļĦ
åĴ ½
æ¸ħåįİ å¤§åŃ¦
Ġproced ures
æıĲåįĩ äºĨ
Ġb est
çŁ¥è¯Ĩ ä¸İ
åĮ» å¸Ī
äºĭä»¶ çļĦ
ä¸¥ èĤĥ
ç¤¼ ä»ª
å©´ åĦ¿
ä»»åĬ¡ çļĦ
éĻĦ å½ķ
AP I
è°ĥ åĪ¶
è´¬ åĢ¼
æŃ£ éĿ¢
Ġ --------
äºĴ åĬ©
æĭ¥ æĬ¤
A r
å®¡ è§Ĩ
æīį ä¼ļ
æ§ ½
å»ºç«ĭ çļĦ
åĲĮæ¯Ķ å¢ŀéķ¿
æŁ ´
æ®ĭçĸ¾ äºº
Ġgly c
çĭŃ ä¹ī
Ġint ro
çģĮ æºī
åıĹåĪ° äºĨ
Ġnum bers
Ġsynthe sis
ç¤¾ä¼ļä¸»ä¹īå¸Ĥåľºç»ıæµİ ä½ĵåĪ¶
Ġ enti
P LC
åİ¿ åŁŁ
ĠC enter
æķ´ ä½ĵçļĦ
Ġkn ock
ç²¾ å¿ĥ
å¼ĢæĶ¾ çļĦ
æµª æ½®
ES M
çŁ¥ æĥħ
æ²»çĸĹ çļĦ
è´¢åĬ¡ ç®¡çĲĨ
çĶµ å®¹
éĽĨæĪĲ çĶµè·¯
å±ĢéĻĲ äºİ
Ġp rin
çĻ¾å¹´ å¥ĭæĸĹçĽ®æłĩ
Ġbas is
åı¯ ä¾Ľ
Ġam ount
å¯Į å¼º
æ¤į è¢«
æľįåĬ¡ æıĲä¾Ľ
ä¹ĭ åľ°
è´¨ æĬ¼
Ġfacil it
æĸ¹ çķ¥
r ant
se e
æĤ ł
B A
Ġtreatment s
Ġcal cium
çļĦ åľ°ä½į
3 000
æ³¢ éķ¿
? "
ä¸´ çķĮ
åħŃ ä¸ª
è¯·æ±Ĥ æĿĥ
è± «
æ¶Ī éĺ²
Ġor al
åı¸ ä»¤
Ġeduc ation
åİŁåĪĻ ä¸Ĭ
Ġproble m
ç¬¬äºĮ èĬĤ
Ġculture d
åľ¨ åĨħ
éĹ¨ æ§Ľ
ä¸ī èĢħ
ĠP atients
çİ°ä»£åĮĸ å»ºè®¾
æ² ¦
ç«ŀäºī åĬĽçļĦ
ir th
èģĮä¸ļ æĬĢèĥ½
as p
ä¸º ä»£è¡¨
ä»¥ä¸ĭåĩłä¸ª æĸ¹éĿ¢
åľ° è¡¨
æł¸ éħ¸
ç¯ĩ ç«ł
è®¡åĪĴ çļĦ
ä¸¥ è°¨
è®¡åĪĴ ç»ıæµİ
ati tis
åħħ å®ŀ
åħ·æľī éĩįè¦ģçļĦ
ä¾ ¨
Ġp ancre
ä¸Ń æĮĩåĩº
è´Ŀ å°Ķ
å± ¡
åºĶ æľīçļĦ
æĿ¿ åĿĹ
åĪĹ ä¸º
am b
åī¥ å¤º
Ġdec l
æĢ§ åİŁåĪĻ
p ared
åİĨ ä»£
æĿ¡ä»¶ åĴĮ
åŁº çŁ³
Ġsubst anti
æĶ¿ æ³ķ
é£İéĻ© è¯Ħä¼°
Ġol der
ç§¯æŀģ æİ¢ç´¢
åĥ §
äºº æīĢ
Ġb ur
Ġprof il
æķĻåŃ¦ çĽ®æłĩ
çļĦ åĨ³å®ļ
Î º
æĬ Ħ
ä¸į å¹³çŃī
] :
åĪĹ è¡¨
æĶ¿åºľ å¯¹
èĲİ ç¼©
Ġenh ance
å¼Ĥ è´¨
çĶŁäº§ æĸ¹å¼ı
åŃĻ ä¸Ńå±±
éĻ¤ æŃ¤
Ġserv ices
K D
Ġmy el
è¿Ĳ ç»´
åħļåĴĮ äººæ°ĳ
Ġstud ents
éķ¿æľŁ çļĦ
: âĢľ
è½» æĿ¾
ãĢĤ $
å¯ ¡
Ġres ulted
éªĮ æĶ¶
ç¢İ çīĩ
Ġreg arding
é¦ĸ éĥ½
çĿĢ æīĭ
ĠM S
å¢ŀå¼º äºĨ
æľī ä¸¤ä¸ª
è´ ¾
å· ¢
äº² èĩª
Ġre ports
ç¿ °
ä½ Ĳ
ä¸į å®ľ
ä½İ çļĦ
çī¹èī² çļĦ
è¯ķ è¡Į
æĺ¾å¾® éķľ
iff eren
è¾ĥ å¼º
ç¬¬ä¸Ģ èĬĤ
æŁ ¯
ç»Łæ²» èĢħ
å§¿ æĢģ
Ġpepti de
l ast
åıĳ åĬĽ
ä½ĵçİ° åĩº
E F
ä¸į å¿ħ
ä¹ĭ åĲİçļĦ
åĲį åįķ
ä½ ©
èĢĮ åıĪ
æ±ī ä»£
Ġm uc
ä¸Ģ ä»½
æĥ© æĪĴ
Ġs ource
ä¸Ģ åĲį
ç«¯ çļĦ
Ġrespon sible
Ġlead s
çĶŁæĢģçİ¯å¢ĥ ä¿ĿæĬ¤
é¥² æĸĻ
ĠT GF
çīĩ æ®µ
äºŁ å¾ħ
æĪ Ī
Ġm ale
ä¸»ä¹ī åĴĮ
é¦ĸåħĪ æĺ¯
è¿Ļ æĿ¡
çī¹çĤ¹ æĺ¯
åľ°ä½į çļĦ
Ġstrateg y
iz es
æĮ ª
ç»ıèĲ¥ æĿĥ
çŃ ĭ
æĿ¡ æĸĩ
èĹ ©
ĠWh ile
æĸ° åĬłåĿ¡
å¹´ åĪ°
å½¢ çļĦ
Ġ ------------
äººæ°ĳç¾¤ä¼Ĺ çļĦ
å¤ļ éĩį
ĠCh ina
åĵª ä¸ª
ĠÂ °
ĠÎ¼ g
åį³ ä¸º
ä¸į ç¨³å®ļ
æıĲ éĨĴ
agne tic
ipp ocamp
åħ¨éĿ¢ ä¾Ŀæ³ķæ²»åĽ½
åĨį å®¡
å±ķ è§Ī
F e
Ġcons um
åħī çĶµ
Ġ3 5
ç²¾ ç»Ĩ
gor ith
é»ĳ æł¼å°Ķ
åıĳå¸ĥ äºĨ
d own
åıĹ æķĻèĤ²
éĢīæĭ© çļĦ
è´¢äº§ çļĦ
ç¯ĩ æĸĩç«ł
ç§į æĹı
ç»Ļ åĩºäºĨ
åĽłåľ° åĪ¶å®ľ
ĠIm mun
ç¼º è¡Ģ
Ġlarg er
Ġsecre tion
: //
Ġc op
ç¢³ è¾¾å³°
éĻĦ å±ŀ
æģĴ æĺŁ
åħ¬çĽĬ è¯īè®¼
æĺ¯ ä¸ª
ï¼ī ï¼ļ
ĠP l
+ +
æŀ¢ çº½
åĪĩ æį¢
Ġd il
éģĹ åĺ±
ä¸ĸçķĮ å¤§æĪĺ
æīĢ å±ŀ
ä¿ĿæĬ¤ åĮº
èĮĥåĽ´ åĨħçļĦ
ä¸Ń åİ»
Ġdat ab
æĭħ å¿ĥ
åµĮåħ¥ å¼ı
çī¹ æĿĥ
ç®¡çĲĨ ä¸İ
åĬ³åĬ¨ èĢħçļĦ
äº¿ åĲ¨
æīĵ éĢļ
è§£ çŃĶ
éĩĳèŀį é£İéĻ©
las ts
ann ing
æĢ»ä½ĵ ä¸Ĭ
å·² æľīçļĦ
èīºæľ¯ çļĦ
åīĸ æŀĲ
åıĮ è¾¹
ĠA T
Ġn g
æºĲ æĢ§
åĪ« äºº
éħį éĢģ
è¿Ļ åľ¨
è®º æĸŃ
å¥ Ī
Ġcomp ound
æŃ¤ åīį
éĻĲ å®ļ
on ia
è¦ģ ä¹Ī
ç»Ħ åĪĨ
èµ¤ åŃĹ
çĽ¸ éĤ»
è¦ģ æ³¨æĦı
åģ¥åº· çļĦ
åī¥ åīĬ
ä¹ĭ æĹ¶
æĶ¯æĮģ åĴĮ
è§Ĥå¯Ł åĪ°
Ġdeli very
æĪĳä»¬ è®¤ä¸º
åįİ åĮĹ
è§£åĨ³ çļĦ
Ġre stric
çĽ´è¾ĸ å¸Ĥ
ĠSci ence
è§Ħ æł¼
çº Ĥ
å¤© çº¿
å¿ĥ æĢģ
çĨ Ĭ
um in
æĮĩ éĴĪ
Ġclus ter
åĬŀ æ¡Ī
æĿĥåĪ© åĴĮ
çļĦ èµĦæºĲ
è´«åĽ° åľ°åĮº
ç¤¾ä¼ļä¸»ä¹īçİ°ä»£åĮĸ å»ºè®¾
æĶ¹éĿ© åĪĽæĸ°
å°¼ äºļ
ç¨³ åģ¥
æĪĸ ç¼º
ol y
äºĭ åħ³
çļĦ åĨħåľ¨
Ġcarri ed
Ġsc ale
n ai
ä¸Ģ åľº
æĢ» å±Ģ
Ġdeg ree
Ġtechni que
è¡Ĺ éģĵ
éª¨ é«ĵ
ĠĠĠĠĠĠĠĠĠĠĠĠĠĠĠĠĠĠĠĠĠĠĠĠ ĠĠ
ä¸Ĭ æĿ¥
ç¥ ī
çħ§ æĺİ
ä»£è¡¨ æĢ§
b ack
åĬĽ æ±Ĥ
MO ESM
Ġâ Ķ
Ġsubsequ ent
è¯¾ æĸĩ
æķĻç§ĳ ä¹¦
ç¤º ä¾ĭ
æĶ Ģ
å±ı éļľ
å¼ºè°ĥ äºĨ
S QL
éĩįè¦ģ æĢĿæĥ³
åĴĮ å®ŀæĸ½
s tim
ä½İ æĶ¶åħ¥
çĶ» å®¶
è¿«åĪĩ éľĢè¦ģ
é«ĺ å³°
åĢ¼ ä¸º
è§Ħæ¨¡ åĮĸ
ç¹ģ æ®ĸ
ing ly
æĶ¿åºľ éĩĩè´Ń
è¿ĺ å°Ĩ
åĪ° æĿ¥
çļĦ å±ĢéĿ¢
çļĦ è¶ĭåĬ¿
åĴĮ å·¥ä½ľ
Ġn erve
å¦Ĥä½ķ åľ¨
æľĢ å¥½çļĦ
æĺİç¡® æĮĩåĩº
Ġspecific ity
ä¸į å±¥è¡Į
åıĹ å®³
è¾ĥ å·®
çī¹ æľīçļĦ
å½ĵå®¶ ä½ľä¸»
å¼ §
Ġep idem
æīĢ èĥ½
å¯ĨéĽĨ åŀĭ
Ġindic ates
Ġstruct ures
è¿Ļç§į æĥħåĨµ
çļĦ æľĢå¤§
è¯ģ äºº
l im
Ġbec ome
å¯¹ è¿ĻäºĽ
åĿ Ŀ
é¦ĸ å¸Ń
P L
T CP
è¯¾ç¨ĭ ä½ĵç³»
å¢ŀ æĶ¶
ä¸ī åĪĨ
çłĶç©¶ æĸ¹æ³ķ
äº¤ éĻħ
èĩª åıĳ
æĤ ¦
or por
ä¼ļ ä½¿
æĶ¶ èİ·
Ġvari able
ä»ĵ åĤ¨
Ġp neum
Ġpropor tion
K I
çļĦ åĨħæ¶µ
éĻ ª
ä¸ŃåĽ½ åħ±äº§åħļçļĦ
å¦Ĥæŀľ è¯´
æıĲé«ĺ åĪ°
å·¥ä¸ļ éĿ©åĳ½
å®īåħ¨ åĴĮ
æ±² åıĸ
æłĩ æľ¬
éĺ¿ æĭī
Ġe very
æ¸©å®¤ æ°Ķä½ĵ
å¹´ åĲİ
ä¸ŃåĽ½ æ¢¦
çļĦ çĥŃ
æĶ¹ æŃ£
æ¯Ľæ³½ä¸ľ åĲĮå¿Ĺ
åŁºç¡Ģ çŁ¥è¯Ĩ
Ġradi ation
åħĪ éĶĭ
çļĦäºº åı£
entif ic
é© °
åĬ³åĬ¨ æķĻèĤ²
å¢ŀ é«ĺ
ä½Ĩ è¿Ļ
çľŁå®ŀ çļĦ
ä¸º æĪĳåĽ½
itud e
éĽ¶ éĥ¨ä»¶
åĽłç´ł çļĦ
m id
æĬĹ çĶŁç´ł
åıĳè¡¨ äºĨ
ĠÎ¼ m
Ġsol ution
ä¿ĿéĻ© äºº
ä¸Ń ç§ĳéĻ¢
éĩĩåıĸ äºĨ
plic ated
D H
ç¦ı ç¥ī
çĶµ èĥ½
æ°§åĮĸ çī©
ä» Ļ
åĽº å®ļçļĦ
ä½ £
çĬ¶æĢģ çļĦ
ec on
åĳĺ çļĦ
Ġhyper tension
åĵ º
å¤© æĸĩ
æ¼ Ĥ
ä¸ĢèĪ¬ çļĦ
é«ĺ æĢ§èĥ½
å¤ĸ è§Ĥ
çļĦä¸»è¦ģ åĨħå®¹
å¹² çĩ¥
çĥ Ĥ
8 00
Ġpre vention
æľ¬ é¢Ĩ
è¯ µ
åİĨ ç»ı
f ree
t est
ä¼´ æľī
æİ§åĪ¶ åĴĮ
é¡¹çĽ® ç®¡çĲĨ
ä½Ĩ ä»İ
Ġheter ogene
æĬĹ è¾©
è¯Ħä»· ä½ĵç³»
æįŁ èĢĹ
ä¸ī ç±»
ä¸ĵä¸ļ çŁ¥è¯Ĩ
åıĺ éĩıçļĦ
çĿ Ľ
ä¸Ģä¸ª äºº
ä¸Ģ æĶ¯
Ġdef in
ri tis
äº ¥
æĦŁ åĴĮ
è¡ĮæĶ¿ æī§æ³ķ
Ġsp e
èŃ¦ å¯Ł
çĮ İ
èģļ åĲĪçī©
æĸ° åĮº
ä½¿çĶ¨ èĢħ
äººåĬĽ èµĦæľ¬
ĠI f
æľ¬ ç«ł
æīĭ ä¸Ń
æ½ ĺ
Ġtrans l
èĶ ĵ
or ts
è ¤
åħ± æĢ§
å°± éľĢè¦ģ
Ġsel ection
w ent
åĪ© äºļ
å¹³åı° çļĦ
è¿Ļ å°Ĩ
éĩį éĩı
åĬ¡ å®ŀ
ĠA g
éĿĴ å±±
åĬ¨ çĶ»
åħ¬åħĥ åīį
Ġcon st
t or
æŃ£å¸¸ çļĦ
S R
Ġguid elines
Ġin st
id ity
ç«ĭå¾· æłĳ
éĥ½ å°Ĩ
åĪĨåĪ« æĺ¯
å¥ī çĮ®
åı¯ä»¥ å¯¹
ĠInt erest
çļ® è´¨
èģĶç³» çļĦ
çľģ å§Ķ
å·¥äºº éĺ¶çº§
ä¿¡ éģĵ
æĬĳ éĥģ
åĲĮ çĽŁ
Ġarter y
ä¸į å¯¹ç§°
æĸ° å»º
åı¯ä»¥ ä½¿
æľīéĻĲ è´£ä»»
ç»Ĩèĥŀ ä¸Ń
åĽ¾ è°±
c hed
è¾¹ çĸĨ
æķĪ çĶ¨
å¤§ åĬ¿
out h
çłĶç©¶ å¯¹è±¡
äº¤æĺĵ çļĦ
èĲ¥åķĨ çİ¯å¢ĥ
ĠN a
A p
æ°´ åĪĨ
èĩª ç«ĭ
y roid
åĲĳ ä¸Ĭ
Ġexperim ent
èĢģ çĻ¾å§ĵ
çİ°ä»£ ç¤¾ä¼ļ
æĸ° æ°ĳä¸»ä¸»ä¹ī
åĩº è®©
å¥ĳ åĲĪ
ä¸į å¿ĺ
ç¦» æķ£
Ġtox ic
Ġexam ine
ç¼ ł
åŃĹ èĬĤ
mit ted
Ġobes ity
æľī ä¸¤ç§į
Ġdiagnos ed
åģı å¥½
Ġw orld
çļĦ ä¹īåĬ¡
ç»Łä¸Ģ é¢Ĩå¯¼
çļĦ è§£éĩĬ
å¿«éĢŁ å¢ŀéķ¿
ĠD r
w ide
ä¾Ŀ æ¬¡
Ġl it
re p
ul f
åĮºåŁŁ åĨħ
æĶ¶çĽĬ çİĩ
è¥¿éĥ¨ åľ°åĮº
ä¸Ĭ çļ®
Ġsystem ic
éĹ® è´£
åıĳè¡¨ åľ¨
è¿Ľä¸ĢæŃ¥ æıĲé«ĺ
çľģ ä»½
ä¹ĭ ä»¥
m od
åħļåĨħ æ³ķè§Ħ
åľ¨ æĶ¿æ²»
Ġoccur s
åĲĳ å¾Ģ
æµĭ è¯Ħ
t ag
ĠMed icine
ä¿¡æģ¯ æĬ«éľ²
åĩ ĭ
ä¸»è¦ģ ä½ĵçİ°åľ¨
le ar
æıı åĨĻ
Ġh ippocamp
æĢ¥ åī§
ä¸į å®Įåħ¨
ran ge
ç§ĳ ä¸¾
ub lic
ĠĠĠĠĠĠĠĠĠĠĠĠĠĠĠĠĠĠĠĠĠĠĠĠ ĠĠĠ
å¾Īå¥½ åľ°
æ²» å®ī
è¯Ħ çº§
å¥ĳ æľº
Ġtrans mission
ç½ĳç»ľ åĮĸ
æ¶īåıĬ çļĦ
æ°´ æ³¥
ä¸ĩ ä¸ª
ä¸Ńåįİæ°ĳæĹı çļĦ
åĮ» ä¿Ŀ
ç»ıæµİ çļĦåıĳå±ķ
æĹ¥çĽĬ å¢ŀéķ¿çļĦ
çļĦ æ²»çĸĹ
ä¼ĺ äºİ
ä»ĺ åĩº
èĤº çĻĮ
è®¸åı¯ è¯ģ
æĬ ¬
ar b
äºĶ æĺ¯
äº§ åŃ¦
è¥¿æĸ¹ åĽ½å®¶
åĽłä¸º å®ĥ
åİļ åº¦
çĶŁ æ¶¯
00 5
è§Ĩ åĽ¾
Ġin n
Ġt aken
ä¾Ŀ åŃĺ
æĶ¿åºľ åĴĮ
åĨ Ĺ
åĪ¶éĢł åķĨ
æĪĲä¸º ä¸Ģä¸ª
l or
ä¸Ĭ ä¸Ģ
åºĶå½ĵ æī¿æĭħ
é£İ çĶµ
çļĦ åıį
Ġis chem
I A
ä¸į åĲĪçĲĨ
åı¤ èĢģ
åķĨä¸ļ æ¨¡å¼ı
åıĺ æĪĲäºĨ
Ġcom plications
ä¿ĥè¿Ľ åŃ¦çĶŁ
ç®¡çĲĨ äºº
Ġcoron ary
æľĢé«ĺäººæ°ĳæ³ķéĻ¢ åħ³äºİ
Ġmy ocardi
äººæīį çļĦ
èĤ¡ä»½ æľīéĻĲåħ¬åı¸
è°ĥ è¯ķ
F or
å¹¶ èĥ½
eth yl
f usion
æŃ£ å¤Ħäºİ
å¤ļ ä¸º
äºĴèģĶ äºĴéĢļ
å¦¥ åĸĦ
Ġidentif ication
å¯ ¨
åĪļ åĪļ
ä¿ Ĭ
ç±»ä¼¼ çļĦ
æ¼Ķ è®²
ä¹ĭéĹ´çļĦ çŁĽçĽ¾
Ġsup press
oph ag
ä¸ĵ æ³¨
Ġmemb ers
åĩº åħ·
æĤ¨ çļĦ
Ġpol ic
æ´» åĮĸ
åŁºç¡Ģ åĴĮ
è½¬ æĬĺ
èĢĮ å·²
å¤ ķ
ar ing
Ġl ast
åĪĽæĸ° æĢ§
èĥĮ åĲİçļĦ
æĪı æĽ²
åħļ é¢Ĩå¯¼
åıĹ å®³äºº
åĲ §
Ġpotenti ally
å·ŀ å¸Ĥ
æħ °
çļĦ è¯ģæį®
åħ³ æĢĢ
ä¸ĭ è¡Į
åĨľæ°ĳ çļĦ
b b
åĽ½ ä¼ļ
æķ°æį® æĺ¾ç¤º
è¯ķ åīĤ
èĦĬ é«ĵ
ãĢĭ )
éĥ Ĭ
èĢĮ çĶŁ
Ġinter nal
Ġb o
æĶ¾å°Ħ æĢ§
è¿Ľåħ¥ æĸ°æĹ¶ä»£
ä¸įåı¯ æĪĸç¼º
æ²¡æľī ä»»ä½ķ
åıĹ æīĺ
éĢģ è¾¾
çº¦ åįł
åĬ© æİ¨
Ġenzym e
================ ====
Ġphysi ological
T ab
ä¸į å¥½
åı¯ä»¥ å®ŀçİ°
res ent
ç§¯æŀģ ä½ľçĶ¨
Ġbacter ial
çļĦ æīĭæ®µ
è¯Ŀ é¢ĺ
é«ĺ ç´łè´¨
æĢĿç»´ èĥ½åĬĽ
çģ« çģ¾
Ġst ages
Ġ( %)
åĬ¨ èį¡
æķ°åŃĹ åŃªçĶŁ
a h
Ġpromot er
åħ¬å¹³ ç«ŀäºī
å¼ķèµ· äºĨ
éļĲ æĢ§
Ġ rol
æ°ĳä¸» åħļæ´¾
è¦ģæ±Ĥ åĴĮ
æķĻ ä¼ļ
ĠD es
è¿ĩ åĪĨ
ä¸ĸçºª æľ«
éĩįçĤ¹ é¢ĨåŁŁ
æĦŁ åħ´è¶£
Ġfem ale
æĢ§ æĺ¯
ä¸į æ»¡
åĨħ åľ°
00 4
20 35
ot oxic
re m
Ġs he
æĦıæĢĿ è¡¨ç¤º
æ¹¾ åĮº
ä¸¤ æĸ¹éĿ¢
æ°´ ä½ĵ
V R
å¾Ģå¾Ģ æĺ¯
äº§ æķĻ
Ġconfir m
ism s
åģ ·
åĮ»çĸĹ ä¿ĿéĻ©
ä¿¡æģ¯ åĴĮ
èº« ä¸Ĭ
Ġspec ial
éĿŀ çº¿æĢ§
ä½ľåĵģ çļĦ
æĹł æľº
é¢Ħ åħĪ
Ġcytok ine
ä¸Ńå¤® æĶ¿æ²»å±Ģ
æ°ĳæĹı å¤įåħ´
Ġsubj ect
åĪ¶åº¦ åĮĸ
æ¯į äº²
ä»¥ ç¡®ä¿Ŀ
è¾© è®º
åľ¨ å¤§
èĩªä¸» åĪĽæĸ°
å±ķç¤º äºĨ
ä¸į åħ·å¤ĩ
åºĶçĶ¨ åľºæĻ¯
âħ ¡
æŃ» åĪĳ
é¢Ħ æĬ¥
ĠS NP
æīĢ å¸¦æĿ¥çļĦ
ä¸įæĸŃ æİ¨è¿Ľ
æĳĨ åľ¨
E L
è¿ĩ æķı
è¡° èĢģ
æĽ´ è¦ģ
en ess
åĨ³çŃĸ éĥ¨ç½²
è¶ĭ åĲĳ
åŃŁ åŃĲ
è¯¾ ä»¶
O P
ä¸»ä½ĵ åľ°ä½į
åŃ µ
ac ts
åħ¨ å¸Ĥ
èµĦéĩĳ çļĦ
åĮĸ ä¸º
èĦī ç»ľ
åįıè®® çļĦ
ç»Łè®¡ åŃ¦
æĦı å¤ĸ
ign ed
Ġcons ent
æľīæľº ç»ĵåĲĪ
ä¸ª æ¡Ī
çĶŁäº§ èµĦæĸĻ
æĿ ¯
æįķ èİ·
Ġinvas ion
ą Ĉ
Ġst roke
ä¼ļè®® ä¸Ĭ
Ġtum our
æ±¡ æ³¥
indow s
è¾©è¯ģ æ³ķ
ä»¥ èĩ´
åı¦ ä¸Ģæĸ¹
Ġa round
æĸĩåĮĸ èĩªä¿¡
åŃĺåĤ¨ åĻ¨
å¼Ģ æºĲ
æĽ´ æĶ¹
V D
h tt
åĪĨæŀĲ ä¸İ
åĩºçīĪ çļĦ
ï¼ ½
åĲĮ å¹´
å°ĳ çļĦ
ä¸ĢçĽ´ æĺ¯
ĠĠĠĠĠĠĠĠĠĠĠĠĠĠĠĠĠĠĠĠĠĠĠĠ Ġ
æ¡ ĥ
Ġg lobal
atis tical
Ġchem otherapy
ç³»ç»Ł å·¥ç¨ĭ
èĩ´ çĹħ
åİ¿çº§ ä»¥ä¸Ĭ
è§£åĨ³ çļĦéĹ®é¢ĺ
ä¸Ģ äºº
åŁºåĽł çļĦ
çŃī å¤ļä¸ª
çļĦ æĿĥåĬĽ
â ī¥
çŁ¿ äº§
ç£ģ çĽĺ
æĶ¾ æĿ¾
Ġother s
å¤ªå¹³ æ´ĭ
æ¹¿ åº¦
åĲĦ åľ°åĮº
Ġins tit
æ²¹ æ°Ķ
el ed
ä¸Ń è¥¿
Ġ3 2
éħ ·
äº§ åĢ¼
Ġrepres ents
he ck
äºĴ åĪ©
èĢħ åľ¨
æ¨¡ åħ·
è¨Ģ è¯Ń
åĬŁ å¤«
çĶ· å¥³
M M
èĢĮ æĪĲ
Ġsec tions
r um
ç² ª
Ġchall eng
è¨Ģ è®º
åħ¬ è¯ģ
èīºæľ¯ å®¶
æ¯Ķ èµĽ
å®ŀéĻħ éĹ®é¢ĺ
æľī çĶ¨
åįĩ åĢ¼
æķ° åįģ
ĠD ep
æ·ĺ æ±°
et er
Ġ4 5
ä¸Ń ä¹ĭ
Ġst reng
è§ģ äºİ
éĻį æ°´
Ġsequ encing
åĪĩ åħ¥
åĬłå¿« åıĳå±ķ
: **
æĸ° æĿĲæĸĻ
t ake
å¾® ä¼ģä¸ļ
ic ro
1 30
ç®¡çĲĨ æ¨¡å¼ı
åĴĮ åıĳå±ķçļĦ
æİ¨ ç¿»
åĲ¸ çº³
Ġpath ogenesis
Ġpro duce
ç¨İ åĪ¶
æŀĦå»º æĸ°åıĳå±ķæł¼å±Ģ
è¯ļ å®ŀ
Ġgener ally
ang u
Ġvari ation
æµ· æ°´
Ġst ar
Ġ çŃī
æŀĦå»º äºĨ
åĪĳäºĭ è¯īè®¼
ç§ģ èĲ¥
ĠL e
åĲĦ é¢ĨåŁŁ
ater nal
ä¸Ģ éĹ¨
Ġmark ed
18 0
å½¢æĪĲ ä¸Ģä¸ª
Ġform s
çļĦ ç¤¾ä¼ļä¸»ä¹ī
å¹´ èµ·
å§ĭ äºİ
ĠUn ited
å¿ħé¡» æĺ¯
ä¸İ åĲ¦
åŀ «
å®¿ ä¸»
ä»ĭ å¯¼
é«ĺ å±Ĥ
Ġcollec tion
Ġdat as
åŃ¦ æľŁ
Ġm amm
çī© æĸĻ
ä»İ è¿Ļä¸ª
op e
çļĦæľĢ ä½³
O L
çļĦ æ°´å¹³
çĥŃ çĪ±
oc yt
as ter
çļĦä¸Ģ èĩ´
Ġaccur acy
ä¸İ çİ¯å¢ĥ
å¦Ĥæŀľ ä¸į
c ip
Ġmajor ity
Ġref lec
åĴĮ å¤ĦçĲĨ
ä»¥ äººä¸ºæľ¬
Ġexam ination
å¹¶ è¿Ľè¡Į
ä¸įæĸŃ æī©å¤§
çľŁ ç©º
äº¬æ´¥ åĨĢ
ï¼ »
æľī è¶£
åĴĮ ä¿¡æģ¯
ä¼ł åªĴ
ĠP er
ĠR eg
è¡ĮåĬ¨ è®¡åĪĴ
å°±æĺ¯ åľ¨
ç§Ł éĩĳ
Ġp air
è¯¥ é¡¹
è½¬ ä¸º
ac tivity
if est
åħ±åĲĮ çļĦ
ç¥ŀç»ı ç³»ç»Ł
æľī ä¸Ģå®ļ
Ġ åĽ½å®¶
èĥ½åĬĽ å»ºè®¾
id ate
æĬ Ĵ
çº§ çļĦ
æľ¬ ä½į
åı· åı¬
Ġch olesterol
Ġsuccess ful
çĲĨæĥ³ çļĦ
åĸĦ æĦı
Ġrecomm end
Ġmedi ated
åı¯ ä½¿
y c
ä¸Ń æĢ§
åĪ¶åº¦ åĪĽæĸ°
æķĻèĤ² ä¸İ
æĪĳåĽ½ ç¤¾ä¼ļ
åħļ åľ¨
N R
Ġprof ession
éĺµ åĪĹ
ä¸Ń éķ¿æľŁ
åĽ¾ æ¡Ī
æĹ¥æľ¬ çļĦ
æĪĳä»¬ éľĢè¦ģ
Ġantib io
çĶŁåĳ½ åĬĽ
oh ist
è¯± åıĳ
åĵ²åŃ¦ å®¶
Ġal gorith
æİ º
æĢĿç»´ æĸ¹å¼ı
Ġre pro
åı¯ä»¥ è¢«
æĬĬ å®ĥ
å¼± åĬ¿
åŃ¦ æĹ¶
ĠT echn
åıįæĺł åĩº
è¿Ļå°± è¦ģæ±Ĥ
æ¸ħæ´ģ èĥ½æºĲ
éĹ ½
åĨĽ çļĦ
åľ¨ ä¸ĢäºĽ
ä¸Ń è¿Ľè¡Į
éĥ¨åĪĨ çļĦ
å¹ ½
ä½Ĩ å¯¹
æ±Ł åįĹ
æĤ ĸ
ä»į æĺ¯
Ġvacc ine
o lec
Ġpro ject
è´¢ ç¨İ
åĪĽéĢł çļĦ
ä¸» åĬĽ
æĿĤ äº¤
åģı ç¦»
inf ected
å¤ĸéĥ¨ çİ¯å¢ĥ
w ell
è¯Ńè¨Ģ çļĦ
åĨľ ä½ľçī©
é¢Ŀ å¤ĸ
im ens
Ġcontinu ous
æŃ£ è§Ħ
åº¦ éĩı
ä¸Ģ éģĵ
éĺ» åĬĽ
æľīæīĢ ä¸įåĲĮ
æĪĲæľ¬ åĴĮ
è§Ĥ ä¼Ĺ
Ġexpos ed
tern al
åľ¨ åĮĹäº¬
çĽĳ ä¼ļ
åĬŀåħ¬ åİħ
ĠA cc
ĠP BS
åĩĨç¡® æĬĬæı¡
èµ°åĩº åİ»
åĢ¼å¾Ĺ æ³¨æĦıçļĦæĺ¯
åĪ¶ åīĤ
ä¸Ń ä¹Ł
Ġrecord ed
å¤±åİ» äºĨ
ä¸į å¤ļ
éŁ§ æĢ§
ç»¼ä¸Ĭ æīĢè¿°
å¤į åıĳ
éĺ´ éĺ³
çļĦ æľºåĪ¶
è¿ĩ é«ĺ
æĪĲ åĵģ
å¹´ éĻĲ
å°ı æĿ¿
èĤ¡ å¸Ĥ
n t
åĤ¬ çĶŁ
å¹¿ä¸ľ çľģ
Ġcon ven
çļĦ æ¨¡å¼ı
æµĭ ç®Ĺ
çĽ¸äºĴ ä¿ĥè¿Ľ
èĮ Ĥ
Ġspec ifically
ä¸¾ ä¾ĭ
ä¸İ åĲĪä½ľ
å°± åľ¨
æĺ¯åĲ¦ åŃĺåľ¨
æĬĢèĥ½ äººæīį
çļĦ ç¨ĭåºı
å¦¨ ç¢į
åĪĽ åĬŀ
è¢« è¿«
æķ° çĽ®
éĩį åıł
å¸Ĥåľº ç»ıæµİçļĦ
Al l
12 5
go ing
åŃ¦ åĳĺ
æ³¨åĨĮ åķĨæłĩ
æķ´ä½ĵ æĢ§
b re
èĩ³ ä¸Ĭ
èĥİ åĦ¿
Ġ æľĪ
ĠS ub
ä¹¦ ç±į
åĪ© äºİ
ist ent
éĢī ä¿®
çľ¼ åħī
ul ly
èį· åħ°
Ġm es
Ġbacter ia
è®¾å¤ĩ åĴĮ
çļĦå¤§ éĩı
åħ¨ åĬĽ
åĽ½éĻħ ä¸Ĭ
åľ° å¸¦
ä¹ĭéĹ´ åŃĺåľ¨
åı¯éĿł çļĦ
ä¼łç»Ł æĸĩåĮĸçļĦ
åĩº åįĸ
å»ºè®¾ é¡¹çĽ®
è¡Ģ å°ıæĿ¿
çīµ å¤´
ij ms
èħ ¿
åĽ½éĻħ åħ³ç³»
ä¸į æ¸ħ
Ġdep endent
ç®Ģåįķ åľ°
åĬŁ èĢĹ
ä¼ģä¸ļ ç®¡çĲĨ
æĬĢæľ¯ çŃī
æ±ĩ æĢ»
æ¯ķ ç«Ł
ç²¾ åĵģ
å¼Ģ éĩĩ
æĸ½ åĬł
Ġser ies
åĲİ ä¸ĸ
é¢ĺ æĿĲ
çº½ å¸¦
åĨį çİ°
æĸ°åįİ ç¤¾
åĴĮ ä»·åĢ¼
åīįæıĲ ä¸ĭ
ä¸į éļ¾
åĲĦ æľī
éĢļ ä¿Ĺ
ç§ĳçłĶ äººåĳĺ
çļĦ ä¸ĢèĪ¬
æķĻèĤ² èµĦæºĲ
çĶ²çĬ¶ èħº
ĠO f
ä¹łè¿ĳå¹³æĢ»ä¹¦è®° å¼ºè°ĥ
ç»ĵæĿŁ åĲİ
çŁ³å¢¨ çĥ¯
os ts
è¶Ĭ åįĹ
Ġbel ow
åĩĿ èĥ¶
Ġus ually
å¾Ĺ çĽĬ
æĹ¥ çļĦ
E A
èĵĿ åĽ¾
er ved
è¯¢ éĹ®
ĠW estern
éĿŀ çī©è´¨
èį£ èªī
ç¨İ æ³ķ
ç»¿èī² éĩĳèŀį
ä¸Ńåįİäººæ°ĳ åħ±åĴĮ
or n
å¦Ĥ åľ¨
æĹ© å·²
çĬ¯ç½ª è¡Įä¸º
Ġl ed
ç° ¿
ç´§å¯Ĩ ç»ĵåĲĪ
Ġver sion
åĪ° ä½į
ä¸¤ æĿ¡
è½ °
åİŁ åŀĭ
åĪĽéĢł åĬĽ
åı¯ä»¥ å¸®åĬ©
Ġpromot e
C B
æłĩ é¢ĺ
åģĩ å®ļ
è¡¨çİ° å½¢å¼ı
åľ¨ æ³ķå¾ĭ
å¯¼ å¼¹
å¦Ĥ åĲĮ
ul a
ra f
å¡ ĺ
Ġm agn
å¤ļ æĸ¹
è´«åĽ° äººåı£
æľĿ çĿĢ
èĢĮ æĿ¥
æĳĦ åħ¥
åĽ½åĨħ çĶŁäº§æĢ»åĢ¼
ä¼ł è¾¾
I G
éĻ¤ éĿŀ
è¯´æĺİ äºĨ
äº¤æį¢ æľº
åįģäºĮ äºĶ
m et
ĠH CC
ç´ł æĿĲ
Ġcon ver
Ġpan el
å®¢è§Ĥ ä¸Ĭ
Ġregul atory
ra di
çīĩ éĿ¢
åĲĳ ç¤¾ä¼ļ
åħĦ å¼Ł
æĺ¯ æł¹æį®
Ġcar b
ä¼ª éĢł
Ġth ick
åĴĮ è¡Įä¸º
======== ====
è¦ģ éĢļè¿ĩ
éĩįå¤§ éĹ®é¢ĺ
è¡ĮæĶ¿ å¤įè®®
åī¯ ä¸»ä»»
å¦Ĥ æľī
è¯¥ æĸ¹æ³ķ
æĮĩæłĩ ä½ĵç³»
ä¸ŃåĽ½ ç¤¾ä¼ļ
P N
çļĦ åĲ«ä¹ī
æĺ¾ç¤º äºĨ
Ġextrac ellular
æĢ§ çŃī
åĿı æŃ»
ĠP A
pl ace
Ġmonitor ing
åĬł ä¹ĭ
å®Į ç¾İ
Ġinhib ited
è¿Ī åĲĳ
Ġneut roph
ä¸Ńå¤® æĶ¿åºľ
æŁ¥ éĺħ
N o
æīĢåľ¨ åľ°
äººä¸İèĩªçĦ¶ åĴĮè°Ĳ
æĸĩ äºº
Ġ ----
åı¬å¼Ģ çļĦ
mit te
çļĦ ç»Ĩèĥŀ
çĶŁ æ®ĸ
èĦ ĵ
è¿Ļä¸Ģ æĹ¶æľŁ
æİ¨ æĸŃ
ç®¡çĲĨ å·¥ä½ľ
Ġp or
Ġtrig g
or i
æ¶ī å¤ĸ
V M
çĲĨè®º åŁºç¡Ģ
ä¸Ń åı¶
Ġh al
éĩĩ çº³
éļ §
äº« æľīçļĦ
æ³ķ çŃī
ç¾¤ä¼Ĺ çļĦ
æ°ĳäºĭ è´£ä»»
çļĦ æĬķèµĦ
æīĢ ä½ľ
Ġquantit ative
å» ĵ
è¿Ļä¸Ģ éĹ®é¢ĺ
Ġra re
æĪĲ éĥ½
åı² è§Ĥ
åĿ ĳ
å¿ħ çĶ±
ç»ĵæŀĦ è°ĥæķ´
Ġsp inal
åĮĸåŃ¦ åıįåºĶ
å¹³ æĹ¶
ç»ıæµİ åĴĮ
æī¿ç§Ł äºº
g es
åħ´ å¥ĭ
Ġpers on
æĬµ å¾¡
ä¼ļ å½±åĵį
æĮ º
æĦŁ åºĶ
Ġstruct ural
åĬłå¼º åĴĮ
åľ¨ æŁĲäºĽ
ä¸º æĪĳä»¬
em b
ç¨¿ ä»¶
Ġoxid ative
å¿ Ļ
åĬ Ŀ
Ġ3 6
ä»İ æĿ¥
ĠN O
g in
æłĩ æ³¨
é»ĺ è®¤
éľĢè¦ģ å¯¹
å½ĵä»Ĭ ä¸ĸçķĮ
âĢĿ (
199 1
åİĺ ç±³
è¯¾åłĤ ä¸Ĭ
æľī è®¸å¤ļ
åıĳå±ķ æĸ°
ĠP I
Ġacc ount
åħ¨ è¦ĨçĽĸ
èĳ Ľ
å² ³
æĪĳ è®¤ä¸º
Ġprogn osis
è¿Ļ åľº
d le
Ġt urn
åĿĩ åı¯
åģ¶ çĦ¶
éĩĳ å±±
çĽ¸ ä½į
Ġill ness
ati al
å»ī æ´ģ
Ġfib rosis
åĵ²åŃ¦ ç¤¾ä¼ļç§ĳåŃ¦
Ġclass ification
æīŃ æĽ²
14 0
ç¬¬ä¸ī æ¬¡
é©¬åħĭæĢĿ åĪĹå®ģ
ä¸ĵéĹ¨ çļĦ
èĶĵ å»¶
s on
çĽ¸å¯¹ åºĶ
åĿļæĮģ åĴĮå®ĮåĸĦ
çļĦ éĿ©åĳ½
è½¬ åŁºåĽł
è´£ä»» åĪ¶
è¡Ģ æłĵ
Ġreas on
op rotein
æľº åľº
æĶ¶ åĽŀ
F T
è§Ĩ ç½ĳèĨľ
c t
å»ºç«ĭ ä¸Ģä¸ª
ç¯ ®
çŃ¹ åĪĴ
è´¦ æ¬¾
Ġcommon ly
çĦ ķ
dition ally
ç» ³
åĪĨæŀĲ çļĦ
åı¯ è¡ĮçļĦ
æĮ ½
æĸ°åĨłèĤºçĤİ çĸ«æĥħ
ä½İ æĪĲæľ¬
äº§åĵģ åĴĮ
åŃ¦ æĬ¥
åı¯ è°ĵ
çĶŁæ´» ä¸ŃçļĦ
ç»ıæµİç¤¾ä¼ļ åıĳå±ķçļĦ
èĳ¡èĲĦ ç³ĸ
åĽ½å®¶ å¯¹
æĥ ¨
ä¹¦ çļĦ
ä¸įè¶³ ä»¥
åĽ½éĻħ ç»ıæµİ
ed iatric
Ġ2 9
ä¸Ĭ å¸Ŀ
å¹´ æĪĳåĽ½
åĲĳ äººæ°ĳæ³ķéĻ¢
éĩĳèŀį ä¸ļ
è¯¾ç¨ĭ æĶ¹éĿ©
åĽ¾ ä¸Ń
åľ¨ åŃ¦ä¹ł
ec ause
åĩ ī
y b
åıĺ çļĦ
åĲį åŃĹ
åŃķ èĤ²
ç«ĭè¶³ äºİ
Ġ éĢļè¿ĩ
æ·± å±Ĥ
ä½İ ä¸ĭ
ä¸»è¦ģ åĨħå®¹
è¿Ī è¿Ľ
å°± ä¸įèĥ½
åĲĦ åĽ½çļĦ
å³° åĢ¼
åĲĦä¸ª æĸ¹éĿ¢
çª Ŀ
Ġpolym orph
è½¬æį¢ ä¸º
æĹ¥ èĩ³
ä¸ºä¸Ńå¿ĥ çļĦ
å¹´ åľ¨
ä¸İ æĸ¹æ³ķ
å®¡ æħİ
P H
éĢļå¸¸ æĺ¯
Ġlink ed
åħ¨ ç¨ĭ
éĻ¢ æīĢ
Ġac qui
è¿ĻéĩĮ çļĦ
ab or
ten sive
å¤ĸ ç§ĳ
D ata
åıĳ ç¥¨
æŃ»äº¡ çİĩ
è¯Ńè¨Ģ æĸĩåŃĹ
åħ¶ä¸Ń åĮħæĭ¬
Ġaccum ulation
æ¸ ł
Ġsub set
ãĢģ ãĢĬ
åį ¿
ç¾ ½
Ġn utri
} _{
ĠM R
æĬķ æĶ¾
çļĦ æĹł
åĮĹ å®ĭ
ä½Ĩæĺ¯ åľ¨
å¦ Ĭ
Ġalter ations
Ġs i
éĵ¶è¡Į çļĦ
Ġfrequ ently
Ġadv anced
v ision
åķĨ äºº
åŁºç¡Ģ ä¸ĬçļĦ
ä¸ľ çĽŁ
æĥħåĨµ çļĦ
æĮĩå¯¼ æĦıè§ģ
èĢģé¾Ħ åĮĸ
åŃĺ è´§
P a
è¯¸ ä¾¯
Ã ©
èĢģ äºº
çŃī å·¥ä½ľ
ç»ŁçŃ¹ æİ¨è¿Ľ
ä¸ĭåĪĹ æĥħå½¢
å¼º è¿«
ä»¥ æľŁ
åĲ¸å¼ķ åĬĽ
åħļçļĦåįģä¹Ŀ å±Ĭ
åľ°ä¸ĭ æ°´
çļĦ èĩªçĶ±
Ġtherap ies
ĠIn ter
Ġtem poral
ï¼ ĺ
éĴ Ľ
Ġgl ut
åºĶ æł¹æį®
éĻ¤æŃ¤ ä¹ĭå¤ĸ
åħ¨éĿ¢ è´¯å½»
Ġplat elet
U N
Ġd ig
åıĪ èĥ½
ä¼Ĭ æĸ¯
Ġ æľī
äº¤ èŀį
ä¸Ĭ å¹´
è¾ĥ éķ¿
Ġv ector
Ġhig hest
Ġprogn ostic
æµ· éĩı
å¹³æĸ¹ ç±³
æľŁéĻĲ åĨħ
åĩĨç¡® çļĦ
çļĦ è½¬åıĺ
Ġb uffer
åħ¥ åŃ¦
åĲĮæĹ¶ ä¹Łæĺ¯
åĴĮ çĶŁäº§
åħī çļĦ
if t
æł½ åŁ¹
åĴĮ åŁºæľ¬
çļĦ å¢ŀéķ¿
ç© ´
ĠC ons
è¿ĲèĲ¥ åķĨ
åĽ¾ çļĦ
çī¹æ®Ĭ æĢ§
er t
çĽĹ çªĥ
Ġline ar
éĥ½ æ²¡æľī
é©³ åĽŀ
åĲį çļĦ
åŁİä¹¡ å±ħæ°ĳ
åĲĦèĩª çļĦ
è½¬ åıĳ
èĢĮ åĲİ
çĽ¸ è¾ĥ
çĤ¹ åĴĮ
Ć ,
ä½Ĩ åį´
ak es
é©¬åħĭæĢĿä¸»ä¹ī åĵ²åŃ¦
å¤§ å¤«
åįĹ æµ·
ä¸įåĬ¨ æĳĩ
Ġmet a
å¼Ģè¾Ł äºĨ
Ġdel ay
res t
å½±åĵį çĿĢ
Ġbro ad
åĽĽ ä¸Ńåħ¨ä¼ļ
é¸ ¦
èĥ½æºĲ æ¶Īè´¹
æľĿ å»·
äººæ°ĳ å½ĵå®¶ä½ľä¸»
åħ¨ å¹´
Ġam ino
d is
åĮº åĴĮ
éĿŀå¸¸ éĩįè¦ģ
åŁºçĿ£ æķĻ
B B
n o
åĦ¿ç«¥ çļĦ
ĠCl inical
åħļçļĦ æĶ¿æ²»
Ġcor tical
p ressed
ä»»ä½ķ ä¸Ģä¸ª
æĪĺäºī çļĦ
è´ŁéĿ¢ å½±åĵį
ä¸Ĭåįĩ åĪ°
èµł ä¸İ
Ġcon struc
çĽ¸å¯¹ äºº
æķĳ æı´
éľ¸ æĿĥ
åľ¨ ä¸į
Ġcurrent ly
æ°´ èĤ¿
os omal
ur b
åĲĦçº§ æĶ¿åºľ
Ġhep at
å®½ å¸¦
èĬĤ è¯¾
Ġfam il
ĠD ise
Ġass um
Ġcontrol led
os a
åħ¬ è®¤
Ġd aily
Ġ20 10
ĠS ec
åĴĮè°Ĳ ç¤¾ä¼ļ
æĿ¥ è§£åĨ³
åı¯ å°Ĩ
Ġvari ety
å¯¹åħ¶ è¿Ľè¡Į
ä¸Ńå¿ĥ çļĦ
åľŁåľ° æī¿åĮħ
ä¸Ń éĥ¨
è¶ħè¿ĩ äºĨ
é¹ ı
Ġav oid
N N
si a
ä»»åĬ¡ æĺ¯
å¿ħçĶ± ä¹ĭè·¯
Ġn ur
å®ª æĶ¿
è§Ħå¾ĭ çļĦ
Ġext ent
Ġmeth ylation
å¾® æ³¢
Îº B
æĹ ¬
Ġmain ly
åĽ½å®¶æ²»çĲĨä½ĵç³»åĴĮæ²»çĲĨèĥ½åĬĽ çİ°ä»£åĮĸ
åİŁåĪĻ çļĦ
å¿ħé¡» ä»¥
Ġatten tion
us sion
ä¸º ä¾Ŀæį®
æĬµæĬ¼ æĿĥ
ä¸Ģ çĻ¾å¹´
ä¼ģ åĽ¾
å¤§åĬĽ æİ¨è¿Ľ
æĿ¥ ç¡®å®ļ
æīĢæľī äºº
æĻ ¨
åĨĽ å§Ķ
çļĦ æ¡Īä»¶
åĲ Ĭ
éĺ ±
åĿĩ çŃī
çĶļèĩ³ æĺ¯
æ¯ı æĹ¥
æ³¨ éĩĬ
çļĦåŁºæľ¬ åİŁçĲĨ
æİ¢æµĭ åĻ¨
çĽ®åīį æĪĳåĽ½
çŃĽ æŁ¥
Ġcall ed
çĶ¨ å¥½
å°¤åħ¶ æĺ¯åľ¨
ĠC P
ĠF inally
Ġs ection
Ġy et
p r
ä¿Ŀè¯ģ äºĨ
Ġrol es
éģ ®
ä¸Ģ åº¦
ib r
ç²¾ å¯Ĩ
å¾Ĺ ä¸įåĪ°
ĠG ene
è§Ĵåº¦ çľĭ
ä»· çļĦ
çİ¯å¢ĥ å½±åĵį
çľ¼ çĿĽ
Ġh is
è§£ åīĸ
end ing
åıĳå±ķ ä¸º
äºĮ å¹´
r ig
äº§ä¸ļ ä½ĵç³»
æĪĲç«ĭ çļĦ
S h
éĩĮç¨ĭ ç¢ĳ
å¿ħé¡» è¦ģ
ro x
èĬĤ æ°´
äº§åŃ¦ çłĶ
ä¿®æŃ£ æ¡Ī
é¦ĸ ä½į
åħį éĻ¤
Ġinterp ret
Ġun til
åºŀ å¤§çļĦ
Ġr ang
a us
ä»ª è¡¨
å¤© çļĦ
åı£ åı·
éĩĳ éĴ±
åĴĮ éĹ®é¢ĺ
ti ous
ä¿Ŀ åį«
å¼Ģ æĿ¥
u fact
éĵ ħ
è¿Ľ åıĸ
åıį åĲĳ
ĠS pec
æİ¨ å®ļ
pl an
Ġgener ation
ä» Ĺ
ĠG roup
èµ° è¿Ľ
ra de
åĬŀ å¥½
Ġpregn ancy
å®ŀè´¨ ä¸Ĭ
Ġdis s
æķĪçİĩ çļĦ
äºº æĺ¯
å°± è¶Ĭ
åĪ© å®³
åĲĦä¸ª çİ¯èĬĤ
ä¸º åĽ½å®¶
åĬĽ äºī
æķĻèĤ² æĶ¹éĿ©
åħ¬åı¸ æ²»çĲĨ
Ġbenef it
æĭĽ èģĺ
éĢĨ è½¬
å¸Ĥåľº æľºåĪ¶
æ¢ Ń
æľįåĬ¡ è´¸æĺĵ
Ġinf ants
æł ħ
åĴĮ ä¸į
åŀ ¦
ĠA R
äºī ç«¯
ä½Ļ äºº
Ġinclud es
é»ĳ èī²
åİļ çļĦ
çļĦ è´¡çĮ®
os omes
çªģåĩº éĹ®é¢ĺ
åĽ½å®¶åĴĮ åľ°åĮº
ĠE urop
æĸ° å¸¸æĢģ
åľŁåľ° åĪ©çĶ¨
ä¸ĩ äº¿
] [
N a
Ġpredic ted
æįŁ åĿı
Ġ3 1
Ġbar ri
ri ef
ĠL i
æ·Ģ ç²ī
è¾½ å®ģ
çĲĨ è´¢
å¤§ åŁİå¸Ĥ
Ġb irth
åºĶçĶ¨ ä¸Ń
åı¯ ä½ľä¸º
æĹł åĬĽ
Ġcan d
æĢ¥ éľĢ
ï¼ ĩ
çļĦ çİ°ä»£åĮĸ
åĭĩ æ°Ķ
ĠO R
åĩº å¸Ń
å¨ ł
éĩį åĬĽ
å¢ŀ æķĪ
æīĢ è¯´
Ġcoll agen
æ¶ ¡
ä¸¾ æĬ¥
åĪ©çĽĬ çĽ¸åħ³
éŃħ åĬĽ
èĬ± è´¹
ä¸Ń çº§
Ġch o
äº¤ ç»Ļ
enz a
åŃĲ ç³»ç»Ł
çī¹åĪ« è¡ĮæĶ¿åĮº
å®Ī æ³ķ
æĸ°èĥ½æºĲ æ±½è½¦
Ġ æķ°æį®
eg in
å¦Ĭ å¨ł
ä¸ŃåĽ½ æĶ¿åºľ
Ġad oles
ĠIn de
çļĦä¸Ģ æ¬¡
ç§©åºı çļĦ
ä¹Ł è¢«
çł´ éĻ¤
ä¸ļåĬ¡ æµģç¨ĭ
æıĲ åıĬ
åĽŀ å¿Ĩ
çļĦ éģĵè·¯
ä¸İ åĽ½å®¶
ç¯ ¡
è§£æĶ¾ æĢĿæĥ³
æ¨¡åŀĭ ä¸Ń
ï¼ ĸ
æ¸¸ åĩ»
éĻĨ åľ°
ç´« å¤ĸ
è¿Ļ éĥ¨åĪĨ
0 10
çĽ¸ æľº
ä¸ĵåĪ© æĿĥ
æĢ Ĵ
åĬł è½½
æĶ¯ æı´
åħ¨çĲĥ åĮĸçļĦ
åĲĽ åŃĲ
ä¹ĭå¤§ åıĺå±Ģ
p en
çļĦ æĢ§èĥ½
äº§ä¸ļ éĽĨç¾¤
ç§ Ĩ
ĠR ep
åŃ¦ä¹ł è´¯å½»
äº¤ ç»ĩ
ĠL PS
è·¯çĶ± åĻ¨
æ³ ¼
åı¯ä»¥ ä½ľä¸º
æ¸Ĭ æºĲ
é©¬åħĭæĢĿä¸»ä¹ī åŁºæľ¬åİŁçĲĨ
åħļçļĦäºĮåįģ å¤§æĬ¥åĳĬ
ä¸¾è¯ģ è´£ä»»
ä¸Ģæ®µ æĹ¶éĹ´
" [
æĪĺ æľ¯
éĿĴ èĹı
Ġal tered
åĴĮ æķĻèĤ²
ç¦ Ģ
çĽ ¼
æķıæĦŁ æĢ§
è·¨ åŃ¦ç§ĳ
è¿ĺ ä¸į
éĦ Ĥ
çĶµ ä½į
çļĦ åĮºåŁŁ
èĩªçĦ¶ çģ¾å®³
æµĻæ±Ł çľģ
å¿ħè¦ģ æĹ¶
æĺ¾ çĿĢ
å¹´ä»£ åĪĿ
å¹¶ æł¹æį®
åħ¨éĿ¢ é¢Ĩå¯¼
åıª éľĢ
ä¸º åīįæıĲ
èĢĮ ä¸įèĥ½
å»ī æĶ¿
S c
æķ Ľ
Ġin put
æŃ£ åĲĳ
åĳ¼åĲ¸ éģĵ
æĺİ çŁ¥
ç¨ĭåºı è®¾è®¡
äºļ å¤ª
æ³ķæ²» åĮĸ
Ġcan not
åºĶ äºĪ
Ġb ind
il arly
æĢĿç»´ çļĦ
ç¬¬ä¸ī èĬĤ
Ġse e
ä¸Ģ å¼ł
ot t
å¸ ħ
çļĦ äºĭ
Ġw all
çł´ è£Ĥ
ä¸İ ç»ıæµİ
åķĨåĵģ çļĦ
çļĦ ä½ľåĵģ
ç»ĵæŀĦ åĮĸ
çļĦ åŁİå¸Ĥ
åı¸æ³ķ å®ŀè·µä¸Ń
è§Ħç«ł åĪ¶åº¦
éĩĩåıĸ çļĦ
åŁºæľ¬ å®ŀçİ°
os ter
äºĨ æĪĳåĽ½
éķ¿ åŁİ
æµģ ä¼ł
ä¸Ģä¸ª æĸ°çļĦ
Ġph ot
ç» İ
åĪĨæŀĲ æ³ķ
æºĲ èĩª
åľ° ä¸»
ç»´ åŁĥ
èĥ ĸ
çĶµè§£ è´¨
« çĹ
è´¢æĶ¿ æĶ¿çŃĸ
æĽ´ æį¢
U T
d ed
åıĤä¸İ çļĦ
ol l
åºĶ æ³¨æĦı
å¼º æľīåĬĽçļĦ
çĭ¬ç«ĭ èĩªä¸»
Ġapp ears
ä¸Ģ åįĬ
æĪĺçķ¥ å¸ĥå±Ģ
ç§¯æŀģ æİ¨è¿Ľ
Ġcon clusion
og lob
ä¸ī æĿ¡
Ġprof ile
ä¸»ä¹ī èĢħ
ä¸į ä¸Ģèĩ´
åıĹ ä¼Ĺ
æĤ£ åĦ¿
Ġman ner
Ġbiomark ers
ä¸įæŃ£å½ĵ ç«ŀäºī
H IV
ph al
è¿Ľç¨ĭ çļĦ
å¸ ½
Ġs aid
ä½ı éĻ¢
ĠSt ates
Ġimprove ment
è¿« ä½¿
åľ¨ åĽ½åĨħ
ä»·åĢ¼ åĴĮ
å¹¶ å°Ĩåħ¶
} $$
æĮĩ å®ļçļĦ
Ġde vi
CA M
æľªæľī ä¹ĭå¤§åıĺå±Ģ
æĶ¿æ²» åĪ¶åº¦
åĽ½ äº§
çĩĥæĸĻ çĶµæ±ł
å¤§ éĿ©åĳ½
æĺ¯ çĶ¨
Ġsensi tive
çŁĽçĽ¾ çļĦ
æĶ¹éĿ©å¼ĢæĶ¾ åĴĮ
Ġhigh l
åºĶ ä»ĺ
åĴĮ ä¿Ŀéļľ
Ġestab lish
è°Ī è¯Ŀ
é¬ ¼
åĬ³åĬ¨ æĬ¥éħ¬
å½ĵåīį çļĦ
æĸ° è¯¾
ä½Ĩ ä¹Ł
éĻĲåĪ¶ äºĨ
éĩĩçĶ¨ çļĦ
çĽ®çļĦ åľ¨äºİ
çº¿ ç²Ĵ
åĲī æŀĹ
ä¸Ģ ä»¶
åį ¸
ç²¾ç¥ŀ æĸĩæĺİ
æĹłçº¿ çĶµ
åľ¨ ç½ĳç»ľ
åŃĺ æ´»
ä»¬ çļĦ
å´ Ń
æ°ĳæĹı åĽ¢ç»ĵ
Ġs low
çŃī å½¢å¼ı
g ments
åħħåĪĨ èĢĥèĻĳ
Ġch ain
æĬķ èŀįèµĦ
æŀĦå»º äººç±»åĳ½è¿Ĳåħ±åĲĮä½ĵ
. *
èĭı ç»´åŁĥ
æ°ĳäºĭ è¯īè®¼æ³ķ
198 5
å®¶åºŃ æķĻèĤ²
éĩĮ éĿ¢
ç§ĳåŃ¦ ä¸İ
ic ations
çİ° åŃĺ
ç½ĳ åıĭ
Ġ åŁºäºİ
çĹĽ èĭ¦
ä¸į æķ¢
igh ted
ä¿Ŀéļľ åĴĮ
æ¸ ´
ä¸»è¦ģ çĶ¨äºİ
è¯´ æľį
ç«ł èĬĤ
ç§ĳæĬĢ è¿ĽæŃ¥
roc ytes
æ¯« æĹł
ãĢ ī
ĠB y
opath y
å¯Ħ åŃĺ
åĲ ģ
è¿Ľè¡Į çłĶç©¶
Ġl ate
Ġth romb
çĽ´ æĴŃ
åįļå£« çĶŁ
åľ¨ ä¸Ń
åħį è´£
å»ºè®¾ ä¸Ń
æİ ł
) =
ä¸¤ åĪ¶
é¢ĨåŁŁ ä¸Ń
æ·±åĪ» çļĦ
u tional
è¯¾ç¨ĭ åĨħå®¹
åľ¨ ä¸įåĲĮçļĦ
Ġp H
åĲĮæł· çļĦ
2 50
å±Ĭ æ»¡
å½¢ èĢĮä¸Ĭ
éĺ³ åħī
Ġf raction
or tic
Ġneed s
ä¸¥ åİī
ĠIn f
æ±ĩ æĬ¥
è£ģ éĩı
åıĳ éħµ
æłĩçļĦ çī©
åľ¨ å¾Īå¤§ç¨ĭåº¦ä¸Ĭ
æ» ©
ä¹Ĳ è§Ĥ
Ġcon cept
n c
æ¯« ç±³
é£İéĻ© æĮĳæĪĺ
æĽ´åĬł æ³¨éĩį
é«ĺ æĬĢæľ¯
è¿ĩç¨ĭ åĴĮ
çķ¸ å½¢
ä½į ç§»
ç»Ĩ åĪĨ
æķĻåŃ¦ æ³ķ
ä¸ī åĽ½
åľ¨ æľªæĿ¥
ä½ľçĶ¨ äºİ
Ġuni que
ç»ĵæŀĦ ä¸İ
ç¾İå¥½ çĶŁæ´»çļĦ
æŀģ åĮĸ
è´¨éĩı ç®¡çĲĨ
é«ĺ é¢ĳ
è¯» åĨĻ
çļĦ ä¾Ŀæį®
Ġ æł¹æį®
Ġse gment
è¿Ļ è¡¨æĺİ
Ġtarget ing
Ġenvironment al
Ġad verse
è¿Ļæĺ¯ ä¸Ģç§į
åľº åľ°
çİ°å®ŀ æĦıä¹ī
ç³» çļĦ
I t
Ġf it
æ¾ ľ
ç§¯ç´¯ äºĨ
çļĦ ç»ĵåĲĪ
Ġmel an
æĬĢæľ¯ è¿ĽæŃ¥
å®ŀæĸ½ äºĨ
p oint
Ġimp aired
æī ĩ
éĺ» æĸŃ
Ġaltern ative
c at
åľ ĭ
èİ·å¾Ĺ æĦŁ
éĴĪå¯¹ æĢ§çļĦ
oid s
è¯¾ç¨ĭ æķĻåŃ¦
N C
è¡Ģ æµĨ
ar ies
Ġem o
or ing
Ġdi vid
åľ° ç¼ĺ
å¸¸ æķ°
çļĦ å®ŀéªĮ
çī¹çĤ¹ åĴĮ
Ġacid s
Ġpl ays
æĬ½ æł·
Ġn orm
re hen
Ġinvol vement
19 79
çİ°åľ¨ çļĦ
äºı æįŁ
åį ĳ
Ġpers onal
Ġup take
ç¤¾ä¼ļ ä¸Ń
qu is
ĠO ther
æ³¨æĦı åĪ°
åĴĮ æĶ¿åºľ
medi ate
ä»İèĢĮ å®ŀçİ°
åĬ¨ çī©çļĦ
èµĦäº§è´ŁåĢº è¡¨
åŃĹ æ¯į
ç²¾ åįİ
åįģåĪĨ éĩįè¦ģçļĦ
ĠH R
èĩªçĶ± çļĦ
åħ¬åı¸ åľ¨
ç»ıæµİ å¸¦
å¾Ī æľī
ç´ Ĭ
è¯¾ åĲİ
åĴ ³
æīŃ è½¬
åºĶ æĺ¯
çĿ£ å¯¼
æİ¨ åĲĳ
å¤§ èĩ£
è¾Ľ äº¥
æ°´ ä¸Ń
éĿŀ éģĹ
åħļ æł¡
Ġneu rolog
ä¸» äºº
æĬķ ä¿Ŀ
Ġwh ite
I s
çĻ¾å¹´ æľªæľīä¹ĭå¤§åıĺå±Ģ
æµ¸ æ¶¦
æ°ĳ æĦı
ç´ł çļĦ
Ġte am
Ĉ ,
æŀ ļ
æīį æľī
å¤ĸ åĮħ
Ġen s
ä»£è¡¨ æĢ§çļĦ
å¤«å¦» åħ±åĲĮ
æĺİ æĻ°
å°Ĩ å¯¹
åį³ æĹ¶
çļĦ åĮºåĪ«
ä½ĵ éĩį
im e
æİ¥ ä¸ĭæĿ¥
ĠI P
Ġcont act
Ġcult ures
ä¸į æľį
åĬŁèĥ½ åĴĮ
åºŁå¼ĥ çī©
p ath
çĶ¨ ä½ľ
ari ate
æ°´ æºĲ
ĠI C
æ°ĳ åĬŀ
çĥŃ éĩı
is hed
éĶ Į
çļĦ åģļæ³ķ
ri a
Ġhem at
çĸ² åĬ³
ä¸ŃçŃī æĶ¶åħ¥
èĲ ĥ
å¯¹å¤ĸ è´¸æĺĵ
mitte e
è¡¨éĿ¢ çļĦ
çº½ çº¦
èĤ¥ æĸĻ
åŁİ åĮº
åº· å¾·
e b
Ġst ained
éĽĨ ä¸ŃçļĦ
Ġerr or
åħļåĴĮåĽ½å®¶ äºĭä¸ļ
èī¾ æ»ĭ
è¿Ĳ æ²³
å°ı åĮº
çĥ ĥ
æīĢ å¤Ħ
Ġun known
æĹł æķ°
æĢ»ä½ĵ å¸ĥå±Ģ
åºŁ éĻ¤
åĿļæĮģä»¥ äººæ°ĳä¸ºä¸Ńå¿ĥ
é«ĺèģĮ éĻ¢æł¡
ĠIn tern
æĤ£ çĹħ
éĽĨ èµĦ
ç®Ģ è¦ģ
è¦ģæ±Ĥ åŃ¦çĶŁ
Ġcereb ral
åĸ ĺ
ox ia
Ġsystem atic
æ¾ Ħ
è¯´ æĺ¯
å¼ºåĪ¶ æī§è¡Į
åħ»èĢģ éĩĳ
ä¸Ń æŃ¢
Ġn atural
ç¼ĸ åı·
ä¸´åºĬ è¡¨çİ°
æľįåĬ¡ å¹³åı°
el i
Ġloc ated
ä¸ĭ æĿ¥çļĦ
åĴĮ å®īåħ¨
å¼± åĮĸ
Ġcat he
æ®ĭ çķĻ
st s
ä¼ļ è¢«
éĩįå¤§ æĪĺçķ¥
æŃ£ æĺ¯åľ¨
çª ¦
åºĨ ç¥Ŀ
âĢ² -
ä¿¡æģ¯ ç½ĳç»ľ
å²© çŁ³
çļĦ çŁĽçĽ¾
å¾Ģ æĿ¥
cl er
é©¬åħĭæĢĿåĪĹå®ģ ä¸»ä¹ī
åĴĮ çĽĳçĿ£
ä¿¡æģ¯ åŁºç¡Ģè®¾æĸ½
G PS
è´¢ åĬĽ
Res ults
b egin
è¿Ļ ä½¿å¾Ĺ
èģĶ æĥ³
ib ility
æĸ¹æ³ķ æĺ¯
æ¤į çī©çļĦ
ä¸ŃåĽ½ éĿ©åĳ½
çļĦ å®¢è§Ĥ
åĴ ¸
æ¶Īè´¹ åĵģ
åĪĨ æľŁ
Ġr h
Ġimpair ment
æĹłå½¢ èµĦäº§
% ï¼Ľ
å°ļ ä¸į
åŁ¹åħ» çĽ®æłĩ
ï¼Ĵ ï¼Ĳ
X X
é¢Ĩ æĤŁ
çľģ å¸Ĥ
w ise
] ï¼Į
æ¨¡ èĮĥ
om er
å« ģ
Ġf ind
èĦ ¾
ç»ıæµİ æ´»åĬ¨
è¿Ľè¡Į æ¯Ķè¾ĥ
Ġbi as
æ°Ķ æ¸©
Ġo w
ä¹°åįĸ åĲĪåĲĮ
é¡µ éĿ¢
æĿĥ è´£
ä¾µ åħ¥
âĶĢ âĶĢ
æĴ Ĵ
äººæ°ĳæ³ķéĻ¢ åºĶå½ĵ
Ġlong er
H g
è¡¨ æł¼
ĠAmeric an
ä¹ł ä¿Ĺ
ä¼ĺ å¼Ĥ
åĩĨå¤ĩ éĩĳ
ĠG erm
Ġ æĪĳåĽ½
éģĵ æķĻ
æµ· åŁŁ
æĢ»ç»ĵ äºĨ
çŁ« æŃ£
ãĢ Ī
å°±æĺ¯ ä¸Ģä¸ª
æļĤ è¡Į
åºĶ çĶ±
é«ĺ ç§ĳæĬĢ
åįĩ åįİ
è¦ģç´ł çļĦ
èĬĤèĥ½ åĩıæİĴ
åı¤ å¸ĮèħĬ
åħĪ ç§¦
ä¿ĥè¿Ľ ç¤¾ä¼ļ
ä¸įåĨį æĺ¯
ĠAnal ysis
éĽķ å¡ĳ
æĦ¿ æĻ¯
H B
c y
å®¶ åĽŃ
åı¯ ä¸º
çļĦåıĳå±ķ åĴĮ
è¿Ľä¸ĢæŃ¥ åĬłå¼º
èĢĮ äº§çĶŁçļĦ
æīĢ éľĢè¦ģçļĦ
Ġint ake
ç¤ºèĮĥ åĮº
é¢ ¤
ĠQ u
å·¥ä¸ļ åĴĮ
è¥¿ äºļ
åį ľ
ill ion
os cop
åħī æºĲ
æĳĦ åĥı
åľ¨ ä½¿çĶ¨
éĢļ åĪĻ
Ġdev ice
åŃ ¢
åħ·æľī çļĦ
Ġatten u
è¦ģ çº¦
ç¤¾ä¼ļä¸»ä¹ī åĪĿçº§éĺ¶æ®µ
ä½ľçĶ¨ ä¸ĭ
æį¢ è¨Ģä¹ĭ
Ġ ç¬¬äºĶ
Ġbehavior al
ä¸į çĽ¸
al ance
æľī ä¸º
Ġstimul i
Ġstrong ly
åĽ½ åĬĽ
Ġult ras
Ġs pon
èģĮ ä½į
çĶµåĬ¨ æ±½è½¦
Ġloc ation
å¤ļ äºº
çĻ» å½ķ
çĽ¸åħ³ éĥ¨éĹ¨
æķ°åŃĹ è´§å¸ģ
ä»» åĳ½
èģĶç³» èµ·æĿ¥
çĽ¸ è¿ĳ
åħŃ å¤§
ç¥Ń ç¥Ģ
Ġrequi res
çļĦ æŃ£ç¡®
å¸Ĥåľº èĲ¥éĶĢ
æķ´ æĶ¹
çĥŃ å¸¦
åįĥ ä¸ĩ
cri ption
, (
Ġh ar
ä»ĸ å¯¹
arg in
Ġf ixed
% -
åĮ»çĸĹ åĻ¨æ¢°
angu age
æ°§ æ°Ķ
Ġ201 2
çļĦ åĪĨç±»
æµĭ ç»ĺ
åī¯ æķĻæİĪ
åĮ Ī
ĠÎ¼ M
çĶµåĬĽ ç³»ç»Ł
åıĳ åĮħ
æĹł æīĢ
æİĴ æ±¡
ç¼ĸ çºĤ
å·¥ åºı
åĴĮ äº§ä¸ļ
or th
\ >
è½» éĩį
m ost
æ¿ĢåĬ± æľºåĪ¶
S i
åºĶ çŃĶ
ä»·æł¼ çļĦ
æĭ¥ æľīçļĦ
) )
Ġt end
åľŁåľ° ä½¿çĶ¨æĿĥ
app ing
Ġquestion nai
å°Ĩ åĨĽ
Ġag ree
éĢĤçĶ¨ æ³ķå¾ĭ
ec tively
åĪ¤ å¤Ħ
çļĦåİĨåı² æĢ§
æĥħ æĢĢ
å±± åĮº
ec tious
æĦŁ æĤŁ
æł¸ çĶµ
åī§ çĥĪ
æł ĸ
æĶ¯ä»ĺ çļĦ
Ġth ird
äºĮ å®¡
å¾Ī åı¯èĥ½
T S
ç½ ©
çħ§ é¡¾
éĢĲ å¹´
èĻļæĭŁ æľº
è®¾è®¡ ä¸Ń
ä¾§éĩį äºİ
åıĳå±ķ åı²
ew ork
å¼º åĬ²
èĥ½åĬĽçļĦ åŁ¹åħ»
Ġs oci
ç¼º åı£
çĻ½ èī²
ä¸ĵä¸ļ æĬĢæľ¯
Ġorig in
æĽ¿ æį¢
å®ŀéĻħä¸Ĭ æĺ¯
ä¹Ł ä¸įä¼ļ
çŁ¥è¯Ĩäº§æĿĥ ä¿ĿæĬ¤
Ġexpress ing
Ġ ~
çļĦ è´¢äº§
çļĦ çĽ´æİ¥
åŁİå¸Ĥ è§ĦåĪĴ
çĽĳæĬ¤ äºº
uc tion
æĿ¡ çļĦè§Ħå®ļ
èĲ½ åĲİçļĦ
Ġpre par
ä¼ł åħ¥
å¤± ä¿¡
æ°Ķ æ°Ľ
è½¦ éĹ´
å®ŀéªĮ æķĻåŃ¦
åİĨåı² æĸĩåĮĸ
èĭı å·ŀ
å®ĥ åı¯ä»¥
å°ĳ éĩı
åĪ¶ èį¯
ĠCell s
ac hed
æĭį æĳĦ
ç¤¾ ä¿Ŀ
å±¥ èģĮ
å¹³æĸ¹ åħ¬éĩĮ
èĭ ¹
ä»¥ä¸ĭ çļĦ
ĠĠĠĠĠĠĠĠĠĠĠĠĠĠĠĠ ĠĠĠĠĠĠĠĠĠĠĠĠ
éĢļ æĬ¥
æľĪ çļĦ
è¡ĮæĶ¿ è®¸åı¯
æ¦Ĥ è®º
å¸¸æĢģ åĮĸ
æ±Łèĭı çľģ
ä¸įä»ħ åı¯ä»¥
é¾Ļ æ±Ł
Ġpredic tive
äº§æķĻ èŀįåĲĪ
Ġques tions
æľī åŃ¦èĢħ
ç¤¾ä¼ļ èµĦæľ¬
Ġtra um
å¹³ åİŁ
Ġrem ain
in ter
ä¸Ń ç«ĭ
ä¸ŃçļĦ éĩįè¦ģ
ä¼Ĭæĸ¯ åħ°
ä¸Ģ å®¡
Ġmod erate
é£İ ä¿Ĺ
æĸĩåĮĸ äº§ä¸ļ
åľ¨ ä¸İ
åŁŁ ç½ĳ
ä¸į ä¸Ĭ
ä¼ģä¸ļ ç»ıèĲ¥
æī¿æĭħ è´£ä»»
éĺĪ åĢ¼
Ġ ion
åĴĮ æĮĳæĪĺ
è¥¿ çıŃ
ä¹¡ åľŁ
F R
æĺ¯ æĪĳä»¬åħļ
è®² åº§
M ed
çļĦ è§Ĥå¿µ
æķ£ å°Ħ
å±ĤéĿ¢ ä¸Ĭ
åĽº æľī
E B
åĽ½å®¶ åıĳå±ķ
ĠT B
Ġtarget ed
æĬļ åħ»
å¾ģæ±Ĥ æĦıè§ģ
ä¸į å¤ª
åŃĲ åħ¬åı¸
æİªæĸ½ çļĦ
ç§¯æŀģ å¼Ģå±ķ
isc ussion
éĺ²çģ« å¢Ļ
éĶ ħ
å®ļ ç½ª
C ell
ä¸Ń æĹ¥
æ¤į åħ¥
äº Ń
ä¹ĭ äºİ
äºº ä»¥
åĴĮ ä¿ĿæĬ¤
è®¡ åħ¥
ä¸Ģ å¾ĭ
ä»¥ æ»¡è¶³
Ġsmok ing
æĺ¯ä¸Ģ éĹ¨
åıĳ åħī
æĿĥåĪ© ä¹īåĬ¡
s ym
æĶ¾ ç½®
å·¥ä½ľ åĴĮ
æīĭ å·¥
é¢Ĩå¯¼ èĢħ
åĪĳäºĭ è¯īè®¼æ³ķ
ç¡® åĪĩ
ä¸į ä¸Ģå®ļ
Ġnot ed
è¿Ļ æ®µ
æĥ¯ ä¾ĭ
å¢ŀåĬł åĪ°
val ue
éģĵ çļĦ
æĢ§ å¼º
åİŁåĪĻ åĴĮ
è¯Ħ åĪ¤
åªĴ ä½ĵçļĦ
åĲİ éĿ¢
è¥¿çıŃ çīĻ
èĥģ è¿«
èĤ¾ èĦı
è° ¦
æİ¨ æµĭ
å®ŀæĸ½ æĸ¹æ¡Ī
ap an
str uct
èĤĿ çĤİ
æĦ ī
æľĢ åħ·
è¿Ĳè¡Į æľºåĪ¶
ç§° ä½ľ
æīĺ ç®¡
ä¸į å¼º
D I
ä¸į ä¸Ģ
ä½ĵç³» ç»ĵæŀĦ
æĻ® æŁ¥
äºī å¤º
Ġhealth care
åĪĽ ä¼¤
ill s
Ġlit tle
èĩ´ å¯Į
Ġ3 3
åħĪ å¯¼
å®ŀéĻħ åĩºåıĳ
åĬł æģ¯
çŃī ä¿¡æģ¯
è§£åĨ³ å¥½
åħ¨ æĸ°
çľŁ çļĦ
æ±¡æ°´ å¤ĦçĲĨ
æ°¢ èĥ½
Ġrecom b
ä½ĵçİ° ä¸º
æĺ¯ ä¸ŃåĽ½åħ±äº§åħļ
åĮºåĪ« äºİ
om atic
Ġcons tit
å¼ł åĬĽ
å®ĥ ä¸İ
ĠC R
æ°¸ æģĴ
çŁ¥è¯Ĩ äº§æĿĥçļĦ
Ġs il
Ġne xt
ä¸ľåįĹ äºļ
Ġrec overy
ä¸» çº¿
Ġpath ological
éħ ¿
èĬ Ŀ
çļĦ æĪĲåĬŁ
æ© ¡
çĶµ åĮĸåŃ¦
èĩªçĦ¶ç§ĳåŃ¦ åŁºéĩĳ
ä»İä¸ļ äººåĳĺ
æģ ĭ
åĽĽ å¹´
çļĦ çİ°ä»£
åĽº éĨĩ
Ġph armac
j ection
è¦ģ å¯¹
éĿĴ æµ·
åĴĮç¤¾ä¼ļ åıĳå±ķ
Ġ ul
æģ¶ åĬ£
ä¸Ģ å¼Ģå§ĭ
èµ· å§ĭ
æħ ķ
ä½¿ ä»ĸä»¬
æ¸Ķ ä¸ļ
ä¾µ èļĢ
Ġsurve y
æķ°æį® éĩĩéĽĨ
çļĦ å·®å¼Ĥ
åģľ çķĻåľ¨
è¡Į ä¹ĭ
æĢ» éĥ¨
ç¬¬ä¸Ģ æ¬¾
lo id
Ġinter view
N H
Ġclinical ly
éĽĩ ä½£
Ġdis rup
å¹¶ä¸į æĦıåĳ³çĿĢ
198 8
æĬ¥åĳĬ ä¸Ń
æĬķ è¯ī
ĠR A
ä¸İ ä¸ĸçķĮ
ici an
åŃµ åĮĸ
ä»¥ åĲİçļĦ
ä»£ æķ°
l ength
s el
åľ° å°Ĩ
Ġproduc ts
äºİ ä¸Ģ
å¤± è¯¯
å¸Ĥåľº åĴĮ
èĤ¿çĺ¤ ç»Ĩèĥŀ
Ġ+ /-
S e
éĻį èĩ³
åľ¨ çĶŁäº§
åŃĹ æ®µ
ä¸į å°½
æĶ¿åºľ èģĮèĥ½
Ġint estinal
ä¸ĭ æ»ĳ
æĿĳ èĲ½
çĶµ åĻ¨
ĠA f
çľĭ æĪĲ
éĩĳèŀį ä½ĵç³»
æ¯Ķè¾ĥ ä¼ĺåĬ¿
çĦ ī
è¥¿ æ±ī
Ġadhe sion
çŁŃæľŁ åĨħ
éĺ¿æĭī ä¼¯
èĪ Į
Ġpro state
a rent
Ġprovid ing
åĪ¶åº¦ å®īæİĴ
åħ¨åĽ½ äººæ°ĳ
æ±ī æĹı
åº§è°Ī ä¼ļ
ä¸Ģ ä¹¦
Ġf etal
åĲİ ä»£
æĸ° åĨľæĿĳ
ç¥ŀ åľ£
æľĽ è¿ľ
åı¯ æł¹æį®
over n
æĺ¯ åı¯ä»¥
Ġse arch
ĠU sing
Ġ20 00
å¾® åŀĭ
æ»¡æĦı åº¦
est he
åĶĲ æľĿ
çħ§ å°Ħ
Ġtrans port
ç¤¾ä¼ļä¸»ä¹īçİ°ä»£åĮĸ å¼ºåĽ½
A K
æ²¡ æĶ¶
æ³ķæ²» å»ºè®¾
åı ¹
å·¥ç¨ĭ å»ºè®¾
é¦ĸ ä¸ª
çļĦåŁºæľ¬ æ¦Ĥå¿µ
åıĳå±ķ æĸ¹åĲĳ
åĽ½å®¶ éĩįçĤ¹
ĠB oth
Ġon c
è§ĦèĮĥ åĴĮ
è½¬ åħ¥
Ġco eff
å´© æºĥ
æķ°æį® ä¼łè¾ĵ
çļĦ åŁºåĽł
Ġly s
æĺ¯ çĽ®åīį
Ġd one
z he
gen eration
ä¼łç»Ł äº§ä¸ļ
Ġassoci ations
åĲ »
æĢĿç»´ åĴĮ
å±ħ ä¸ĸçķĮ
] -
åĨ» ç»ĵ
åĲĮ èĥŀ
é¸¦ çīĩ
æľī å¤ļ
åľ¨ çİ°ä»£
æµģ æ´¾
å¼ĢæĶ¾ æĢ§
Ġsub t
æ¹ĸ æ³Ĭ
Ġinhibit ory
åįģ å¤§
p i
198 2
éķ¿ è¾¾
Ġtransf ected
ä¸Ĭ è¿Ľè¡Į
æĬķ æľº
åĽ° æī°
Ġ ide
æ¸ Ŀ
ç«ĭå¾·æłĳ äºº
æķĻ å®¤
æīĵ å¥½
Ġoccur red
å¥ĭ è¿Ľ
velop ment
ç¤º æĦıåĽ¾
è¿ħéĢŁ åıĳå±ķ
æµĭ éªĮ
è¯ ı
gen ic
Ġvirus es
ç»Ĩ åĪĻ
çģµæķı åº¦
ä¿Ŀéļľ ä½ĵç³»
äºº æľº
éª¨ éª
M V
ç§ ¸
æł¡ æŃ£
éĿĴ æĺ¥
ç©º ä¸Ń
è¾¹ å¢ĥ
Ġcor rec
SC LC
å¾Ī é«ĺçļĦ
å¼Ģå§ĭ äºĨ
ĠC ontrol
æĶ¶ èĹı
ĠF irst
æīĢ è¦ģ
åĩł åįģå¹´
å¹´ä»£ æľ«
Ġl um
pl as
æĸĩä»¶ çļĦ
å®£ä¼ł æķĻèĤ²
åºĶ æ¿Ģ
å®ŀè·µ è¯ģæĺİ
LI SA
Ġconf idence
ä¼ģä¸ļ åĨħéĥ¨
Ġman ufact
åıĮæĸ¹ å½ĵäºĭäºº
Ġ201 3
åħ¬ä¼Ĺ åı·
æŀĦæĪĲ è¦ģä»¶
æłĩå¿Ĺ çī©
éĩĩåıĸ æİªæĸ½
Ġn it
æįķ æįī
èĽ ®
ĠÂł ĠÂł
çªģåıĳ äºĭä»¶
è¿ĳ å¹´
è£ħ æľº
éľĢæ±Ĥ åĴĮ
åħ¶ä»ĸ åĽ½å®¶
ä¼ ½
į åį«
æĺ¯ ä¸ŃåĽ½çī¹èī²ç¤¾ä¼ļä¸»ä¹ī
èĥ ±
çļĦ ä¸¤ä¸ª
ç° ĩ
Ġ q
å°Ħ é¢ĳ
é¢Ĩå¯¼ å°ıç»Ħ
ä¸į åĩº
çĶŁäº§ åħ³ç³»
èĢĮ å¯¹äºİ
æľįåĬ¡ åĴĮ
Ġinterest s
åıĳå±ķ æ°´å¹³
è¶Ĭ å¤ļ
ä¸į çŁ¥éģĵ
ig en
10 1
y r
æĭ ³
pec ts
åīį è¿°
ç¾¤ èĲ½
é«ĺéĢŁ å¢ŀéķ¿
Ġflu orescence
éĥ½ ä¸įèĥ½
ä¸į ä¸º
ectiv eness
Ġto ler
åı£ èħĶ
åİĨåı² åĴĮ
Ġ çİĭ
æĸ° äº§åĵģ
çī¹ è®¸
ç®¡çĲĨ åŃ¦
ä»į åľ¨
çļĦ åĴĮ
å¿ħ ä¸įåı¯
æľº çĶµ
èĲ½ åĪ°
ï¹ Ĳ
ci ence
Ġexc luded
Ġst ates
n a
ä»£è¡¨ äºº
åĨ· æĪĺ
Ġcomple ment
çĶ¨ ä¾ĭ
åı¯ä»¥ çĽ´æİ¥
** **
å®ļä¹ī çļĦ
åħĪè¿Ľ æĢ§
åĲĮ ä½į
éĢĢ åĮĸ
Ġauth or
ĠS ince
æĹħ è¡Į
ä¼ĳ æģ¯
ä»¥ ä¿Ŀè¯ģ
omet ric
Ġre plication
Ġ äºĶ
ï¼ Ĺ
èĨ Ģ
æ¬¾ é¡¹
é£Ł çĶ¨
å®ŀè·µ æĢ§
æŀĦ æĥ³
Ġneut ral
è½½ äºº
äººæ°ĳå¸ģ æ±ĩçİĩ
ac he
çºª å½ķ
éľī ç´ł
èĤ¡æĿĥ è½¬è®©
æ ª
åĴĮ ç»´æĬ¤
çī©æĿĥ æ³ķ
n m
Ġf ast
V ID
æŃ¦ å¸Ŀ
æµģ åĲĳ
åıĳ çĥŃ
Ġst able
ä¼ĺç§Ģ çļĦ
m RNA
en ge
è¿ħ çĮĽ
èĭ¹ æŀľ
Ġventric ular
å±Ģ åĬ¿
N G
qu it
çļĦ çī¹æĢ§
åį ¦
åīį è¡Į
Ġf in
æľīæľº çī©
æł¡ å¤ĸ
èµŀ åĲĮ
è¿Ľ åĪ¶
ĠM D
d ata
æľįåĬ¡ çŃī
å¼ķåıĳ çļĦ
æ² ª
èª ĵ
èµ Į
èµĦ è´¨
ç¬Ķ è®°
xi ety
( "
èĲ½ èĦļ
çĽ¸ çŃī
ç»¿ åĮĸ
çĽĳ äºĭ
ç»Ħç»ĩ ä¸Ń
è·¯ åĨĽ
è¶£ åĳ³
l ink
è¾ĥä½İ çļĦ
åıĳçĹħ çİĩ
r uct
åĩº è¡Į
éĢ ®
å¾Ī éĩįè¦ģ
ä¸İ åĪĽæĸ°
Ġbas al
å¤ļ ä¸ĩ
ä¼Ļä¼´ åħ³ç³»
Ġoverex pression
èĥľ ä»»
æĵħ èĩª
åĲĪåĲĮ ä¸Ń
Ġp ass
AP P
åıĺ æĢ§
ç§į ç¾¤
åºĶå¯¹ æ°ĶåĢĻåıĺåĮĸ
ï¼ĳ ï¼Ļ
ä¸Ģ å¤§
è¿ĺ éľĢ
" :
çī© ä½ĵçļĦ
ĠT wo
æĽ² æĬĺ
Ć ãĢģ
çļĦ ä¸ªäºº
åĪĨ ç«ĭ
è®¡ç®Ĺ çļĦ
ĠU S
åı¯ æĺ¯
åħ±åĲĮ ä½ĵçļĦ
åĮĸ çī©
æ°ĳæĹı åľ°åĮº
æĸ¯ åŁº
li um
åħ¬åħģ ä»·åĢ¼
éĶ ¥
ä»¥ åĨħ
åĩı ç¼ĵ
å®īåħ¨ ç®¡çĲĨ
åĴĮ åŃ¦çĶŁ
è°ĭ æ±Ĥ
Ġm ild
å¦ Ī
èĥ¶ è´¨
ç²¾ é«ĵ
çĽ¸ ç»Łä¸Ģ
é¢Ħ æ¡Ī
åħ¨éĿ¢ æıĲåįĩ
ç»Ĩèĥŀ åĴĮ
Ġe ye
N e
ç½ĳ é¡µ
Ġinc orpor
ĠM an
è¯ģæį® çļĦ
ĠT R
åįĹ å®ĭ
æĢ§ çĬ¶
éĻ· éĺ±
to tic
åĴĮ æıĲé«ĺ
è¯¾ç¨ĭ æĢĿæĶ¿
åĽ½ çİĭ
åĲ¬ è¯ģ
Ġ7 5
T B
è¯¯ è§£
çļĦ å¢ŀåĬł
çļĦ å·¥åħ·
éĢıæĺİ åº¦
f s
èº« è¾¹
Ġt w
å¼º åĽ½çļĦ
D B
æĸ° åªĴä½ĵ
èľ Ģ
Ġgen otype
å¹´ åĨħ
æŁ¥ æĺİ
éĩį éĩĳå±ŀ
çĶŁ åĮĸ
æĦ ¤
äºĭ åıĺ
éĩį æķ´
åıĤ è§Ĥ
ä¸»è¦ģ è¡¨çİ°åľ¨
æĬĺ å°Ħ
æ¯Ĵ åĵģ
Ġn ature
æĢ» æķ°
ç²¾ ç»ĨåĮĸ
Ġo ld
å¿ĥ åĬĽ
çİĭ åĽ½
v as
æľī ä¸ĢäºĽ
Ġc ore
åĳ¼ åĲģ
å¤ļ å½©
zhe imer
ph osph
çĹħæ¯Ĵ æĦŁæŁĵ
åĵ²åŃ¦ çļĦ
çľŁ èıĮ
s ide
å¤§ å¸Ī
ä¸Ģä½ĵ åĮĸçļĦ
ç´§ ç¼©
åĪĽ å§ĭ
ç¬¬ä¸ī ä¸ª
Ġm l
Ġthrough out
ç¤¾ åĽ¢
Ġconven tional
çļĦ åįķ
æľºæ¢° åĮĸ
èģ Ĭ
è§Ħ ç¨ĭ
è¯´ è¯Ŀ
æķ°æį® åĮħ
ma x
Ġatt rib
çī¹ æĢ§çļĦ
éļ§ éģĵ
ti tion
è´¢æĶ¿ æĶ¶åħ¥
Ġ7 2
; "
åıĸ è¯ģ
roph y
æĪĳåĽ½ åıĳå±ķ
äº® çĤ¹
æµ® åĬ¨
\ #
Ġs chool
ä¸ºä¸» å¯¼
Ġe as
æ°ĳ å¿ĥ
æŀģ ç®¡
åĽ½å®¶ æłĩåĩĨ
ch ing
æľī ä¸įåĲĮçļĦ
å·² åľ¨
Ġ å®ŀéªĮ
éĢĤçĶ¨ èĮĥåĽ´
èĢĮ è¢«
éĿŀçī©è´¨ æĸĩåĮĸéģĹäº§
Ġ201 4
å¤įåĲĪ åŀĭ
åĲĮ è¡Į
ç¥ ¸
+ )
åħ¶ ä¸ī
æĪĲ åŀĭ
Ġb ound
åħļçļĦäºĮåįģ å¤§
asp ase
çļĦ éģĵå¾·
å·® é¢Ŀ
æīĭ åĨĮ
èĴ¸ æ±½
Ġestim ates
åŁº ç«Ļ
Ġmed icine
è¿ŀç»Ń æĢ§
æĺ¯ ç¤¾ä¼ļä¸»ä¹ī
é¢ Ĥ
00 6
w ays
ç©º åīį
ç»¼åĲĪ è¿ĲçĶ¨
å¹¶ ä¸¾
åĮĹ æĸĹ
è®¿ è°Ī
Ġdeg rad
Ġrepe ated
å½±åĵį åĽłç´ł
ä¹¦ éĻ¢
ä»Ģä¹Ī æł·
Ġrec ur
èģĶ ç»ĵ
è¿Ľä¸ĢæŃ¥ çļĦ
åĲ¬ åĬĽ
å²ģ çļĦ
æİ¨ å¯¼
åħ± åŃĺ
åįķä¸Ģ çļĦ
. ^[@
Ġ200 9
åĲĦ çİ¯èĬĤ
Ġreg ulated
ar ia
198 6
ĠH uman
è¡¨è¾¾ å¼ı
æĮĤ éĴ©
çĲĨè®º çŁ¥è¯Ĩ
ç¤¾ä¼ļ åĴĮ
é¢ĳ è°±
å½Ĵ æł¹
Ġdel e
Ġsp ace
éĢĥ éģ¿
è¥¿ æĸ¯
äººä»¬ åľ¨
æł¹æľ¬ åĪ©çĽĬ
Ġsaf ety
ç¼ ħ
ä¼¦ æķ¦
Ġp ool
å¾ģ ä¿¡
åľŁåľ° çļĦ
ul atory
æľŁ æĿĥ
åĨĹ ä½Ļ
æ¼Ķ ç»İ
ç¨İåĬ¡ æľºåħ³
c n
ä¸įæĸŃ çļĦ
æĺİ æľĿ
N et
æĢ§ åŃ¦ä¹ł
Ġ æĪĸ
åħ¼ å¹¶
è´´ è¿ĳ
Ġ ç½ĳç»ľ
ç½ Ĳ
~ ,
è¡Įä¸º èĥ½åĬĽ
æĸ° éĺ¶æ®µ
Ġpro spec
å¸¦ çĿĢ
èĤ ĩ
Ġt ren
æ³ķå¾ĭ ä½ĵç³»
æľŁ åĨħ
ä»İ æľª
çĽĳå¯Ł æľºåħ³
d a
æī ģ
è ©
ati ves
éĤĵå°ıå¹³ çĲĨè®º
Ġfocus ed
æ°¢ æ°Ķ
æĽ´ èĥ½
å¿ħ å¤ĩ
ç¾İ èĤ²
çĶ³ è¯ī
* =
åĪ¶ æŃ¢
è¯īè®¼ è¯·æ±Ĥ
D O
Ġre verse
ç»Ī æŀģ
å¾ĭå¸Ī äºĭåĬ¡æīĢ
çĪ± å¥½
Ġisol ates
çļĦ èĩª
è®© ä»ĸä»¬
Ġro ut
ä¸ĭ ä¸Ģä¸ª
é¡ ·
çļĦ é¡¹çĽ®
çŃī çī¹çĤ¹
åįģ åŃĹ
u tive
åĪĳäºĭ æ¡Īä»¶
éĿĴ éĵľ
åĽ½æľī èµĦæľ¬
è¿Ļ å¯¹äºİ
çº¢ çº¿
ä¸Ģç§į æĸ°çļĦ
ti le
åĲĦ æĸ¹éĿ¢çļĦ
Ġlimit ations
åĴĮ ä¸ĸçķĮ
Ġinf ilt
g ed
å¤§ æ¹¾åĮº
æł¸ å®ŀ
è¥¿ æ´ĭ
çļĦ æ¯Ķéĩį
Ġcor d
Ġhep atic
åľ°æĸ¹ æĢ§
çļĦ åľ°åĮº
èī² è°±
ä¸į åħģè®¸
èī ³
çłĶç©¶ ä¸İ
è¯¾ æľ¬
ä¸ĭ çº§
åĨ³å®ļæĢ§ ä½ľçĶ¨
å¯¼ çĶµ
æ¨¡å¼ı åĴĮ
ç§ĳçłĶ éĻ¢æīĢ
amet er
éĢī é¢ĺ
æĬ¥ æĸĩ
ill ary
Ġ âĪ
çĶŁæĪĲ çļĦ
ä¸Ĭ ç½ĳ
æĥ ķ
å¿« ä¹Ĳ
Ġtyp ically
å·´ è¥¿
åħ¨éĿ¢ åıĳå±ķçļĦ
ä¸İ åŃ¦çĶŁ
ä¸ĢåĽ½ ä¸¤åĪ¶
oc oc
å¨ ¥
ĠD M
èĢģ åŃĲ
çļĦ å¹³åĿĩ
ç¤¾ä¼ļç§ĳåŃ¦ éĻ¢
ç»¼åĲĪ èĢĥèĻĳ
åĿļæĮģ æĬĬ
çŃī è¯¸å¤ļ
åŁºæľ¬ åħ¬åħ±æľįåĬ¡
éģ¿åħį äºĨ
æľĽè¿ľ éķľ
ä¸ ĳ
AT P
ä»» èģĮ
äººæ°ĳ æĹ¥çĽĬå¢ŀéķ¿çļĦ
æĿ¥ åĪ°
è´¢äº§ æĿĥ
é²ľæĺİ çļĦ
æ¯Ķ äºļ
åĽŀ è´Ń
å¼Ģ æĶ¯
å·¡ è§Ĩ
åŃĺ ç»Ń
ç»ıæµİ åĪ¶åº¦
æĶ¯ æŀ¶
s up
èµ £
Ġregul ate
Ġ ä¼ģä¸ļ
èµĦæºĲ åħ±äº«
Ġchann el
é©¬åħĭæĢĿä¸»ä¹ī çĲĨè®º
è´ª æ±¡
è¿ŀå¸¦ è´£ä»»
æł¸ èĭ·
è®¡ç®Ĺæľº ç½ĳç»ľ
Ġag ed
åħŃ ä¸Ńåħ¨ä¼ļ
le vel
çłĶç©¶ æĸ¹åĲĳ
ĠC X
In tern
ç§¸ ç§Ĩ
æĭħ è´Ł
en ing
é£İ æ°Ķ
å°Ĩ ä¸º
åĬŁèĥ½ éļľç¢į
." "
çĬ¶æĢģ ä¸ĭ
Ġend ogenous
ç¨ĭåºı ä¸Ń
H e
æŁ¥ å°ģ
åĽ½åĨħ åĽ½éĻħ
åİĨåı² ç»ıéªĮ
çº¿ç²Ĵ ä½ĵ
åĮĸ èĤ¥
å§ ľ
åĩĭ äº¡
Ġm aternal
ä¸ªäººä¿¡æģ¯ å¤ĦçĲĨ
åĮºåŁŁ æĢ§
elet al
Ġadv ant
äºĶ ä¸Ńåħ¨ä¼ļ
åı¯ä»¥ çľĭåĪ°
éĿĻ æŃ¢
am ics
æĬ¥ çº¸
od ium
Ġas t
çļĦæľīæķĪ æĢ§
U n
os in
æľīæľº ç»Łä¸Ģ
çĪ¶ äº²
æĺ¯ ä¸įæĺ¯
åľ¨ åĲĮä¸Ģ
c ontrol
æĸ° é¢ĸ
ä¸º é¦ĸ
åĬ¿ å¿ħ
ĠO ver
Ġd ocument
ç¾¤ä¼Ĺ è·¯çº¿
åĲ¸ åıĸ
äººæ°ĳ å¯¹
ç§ĳåŃ¦å®¶ ä»¬
åħĥç´ł çļĦ
åĲĮåŃ¦ ä»¬
èĢĮ è¿ĻäºĽ
) \
è¯Ĺ è¯į
is ation
çĶµ åľº
ç³»ç»Ł ä¸ŃçļĦ
ove red
åĩ¡ æĺ¯
æĢ» åĪĻ
é£ŀ èĪ¹
Ġ201 5
lo ad
åĨĽ äºº
åį· ç§¯
åĴĮ å¤§
åĴĮ ç§ĳåŃ¦
éĩĳèŀį ç§ĳæĬĢ
èŀįèµĦ ç§Łèµģ
éª¨éª ¼
12 8
æ°ĳ æĶ¿
16 0
çļĦä¸»è¦ģ åİŁåĽł
read y
ç»¿ æ°´
ä¸Ģæ¬¡ æĢ§
éĻĲ é¢Ŀ
åħ¸ èĮĥ
Ġsuff icient
åį §
å®ŀè·µ èĥ½åĬĽ
Ġr s
æīĵçł´ äºĨ
åĳ¨ çŁ¥
äº§åĵģ åĴĮæľįåĬ¡
åıĬ åºĶçĶ¨
æķ´ é¡¿
æĸ° çļĦåıĳå±ķ
å¿ħé¡» æľī
ä½ı æīĢ
åĳĺå·¥ çļĦ
ĠI GF
Ġrep air
Ġsuscepti bility
åĴĮ çĽ¸åħ³
é£İ æĻ¯
æķĻåŃ¦ è´¨éĩı
Ġgen der
çļĦ è¿ĲåĬ¨
Ġin duces
é²ģ è¿ħ
åºĶ ä»İ
Ġas pects
ä»·åĢ¼ åıĸåĲĳ
å½± è§Ĩ
éĿŀå¸¸ éĩįè¦ģçļĦ
æ³ķå¾ĭ è§ĦèĮĥ
Ġmax imum
i tions
æ³ķå¾ĭ è¡Įä¸º
éĩį çĹĩ
æİ¥ åľ°
åıį åĬ¨
ir ing
åĪĨ æĭħ
åı¯ä»¥ åĪ©çĶ¨
Ġmyocardi al
ĠAf ric
æľĢ æľī
åĩı ç¨İ
ä¸ŃåĽ½ ä¼łç»Ł
Ġiss ues
Ġm agnetic
æĮģ èĤ¡
ä¸į åıĬ
ç»ĵæŀĦ ä¸Ń
g ens
ä»İ ä¸Ģä¸ª
ç²¾ å½©
o S
äºĨ ä¸ĢäºĽ
19 50
äºĭ çĶ±
åŁºéĩĳ ä¼ļ
å°Ĩ è¢«
Ġcontrib uted
èĢĮ æ²¡æľī
æ´ŀ å¯Ł
åħ±åĲĮ åıĳå±ķ
Ġenti re
éľĢè¦ģ éĢļè¿ĩ
198 9
å¤± è°ĥ
X å°Ħçº¿
y le
æį įåį«
ä¸İ å¸Ĥåľº
Ġ ----------------
å®ī å®ļ
éĢ Ŀ
Ġmin utes
ch ym
åŃ¦æł¡ æķĻèĤ²
Ġdo uble
çłĶç©¶ ç»ĵæŀľ
Ġreview ed
åĳ Ĩ
æ°ĳ çĶ¨
ä¸į ä»¥
èĤ¥ èĥĸ
Ġarter ial
ä¸ľ æ±ī
ĠI s
è¡° åĩı
Ġprofil es
æ°´ çĶµ
æĺ¯ çİ°ä»£
ï¼ ı
ä¸Ĭ éĻĲ
M e
Ġ ç¬¬åįģ
ä»¥åıĬ åľ¨
Ġ201 6
æĹł ç©·
ĠB MI
çļĦ ä¸ī
è½» å¾®
èĩªè§ī åľ°
éĿ ĸ
æķĻåŃ¦ è¿ĩç¨ĭ
ç»Ĩèĥŀ åĨħ
quis ition
çĹħæ¯Ĵ çļĦ
il ateral
èĭ± åĽ½çļĦ
æĺ¯ æİ¨åĬ¨
æĩĤ å¾Ĺ
æĸ¹ å·®
ä¸ĭ è·Į
li er
çĽ¸ è¾ħ
ä¼Ĺ æīĢ
Ġol ig
Ġacqui red
æµĭ éĩıçļĦ
æİ Ģ
é«ĺçŃī éĻ¢æł¡
çŃī è¿Ľè¡Į
pos ition
æĪĳ çľģ
Ġmalign ant
æ¸ £
Ġinc l
èµ° ä¸Ĭ
çŁ¿ çī©
éĿ¢ ä¸Ĭ
æĿ¡ä»¶ ä¸ĭçļĦ
Ġvess els
åĪļ æĢ§
çĮ «
Ġgo al
å¤© æĸĩåŃ¦
çĨ µ
å·²ç»ı åľ¨
çļĦ èµĦéĩĳ
ä¸Ńåħ±ä¸Ńå¤® åħ³äºİ
Ġ ---
åĲĪ æ³ķçļĦ
æĹ¶ æľī
è®® ç¨ĭ
^âĪĴ /âĪĴ
Ġhal f
Â ®
si zed
ä¿® å»º
çĶŁåĳ½ çļĦ
æ°´ åĩĨ
è½½ èį·
ä¸º äºº
åŁº è´¨
å¢ŀ çĶŁ
æł¹æľ¬ æĢ§
èĤ© è´Ł
äºĨä¸Ģ æī¹
éĿĴ å²Ľ
å° ¸
ĠAd ditionally
Ġm iss
ä»¥ åŃ¦çĶŁ
CA D
æĥ¯ æĢ§
Ġabnormal ities
åŃ¦åīį æķĻèĤ²
å®ŀéªĮ ä¸Ń
åĲĮ äºĭ
çĶ¨ åĵģ
çĶ±äºİ åħ¶
çĲĨè®ºä¸İ å®ŀè·µ
âħ ł
åİ¿ åŁİ
åºŀ å¤§
Ġsp atial
ä¸ºä¸» çº¿
Ġmetast atic
å¹¶ äºİ
è®¾è®¡ å¸Ī
i re
Ġin ser
åĮĸåŃ¦ åĵģ
çģ« æĺŁ
Ġobserv ations
ä¿¡æģ¯ åħ¬å¼Ģ
è¢«æī§è¡Į äºº
æµģ çļĦ
å¹¶ä¸Ķ åľ¨
Ġpath ology
è®¤ä¸º æĺ¯
éľĢè¦ģ è¿Ľè¡Į
å°Ĩ è¿ĻäºĽ
æĢ ¨
çŃī ç¦»åŃĲ
æĺ¯ æĬĬ
Ġs ch
åīįçŀ» æĢ§
è¯´ è¿ĩ
ä¸º ä¸Ģä¸ª
ĠStud y
æĤł ä¹ħ
ä½ł ä»¬
immun e
æĺİ çļĦ
ä¸īè§Ĵ å½¢
åĮºåŁŁ ç»ıæµİ
åıĤä¸İ åĪ°
è¯į è¯Ń
åıĳå±ķ äºĨ
ä¸¤ éĥ¨åĪĨ
ĠInterest ingly
) [
ĠS ign
æĥł åıĬ
Ġagg reg
R L
ä¸ŃåĽ½äººæ°ĳ éĵ¶è¡Į
éĺ´ æĢ§
Ġtr act
éħ ļ
æİĪ æĿĥçļĦ
åħ¨ æĸĩ
æŁ¥ å¤Ħ
æ³ķå¾ĭ è§Ħå®ļçļĦ
Ġ3 4
è´« å¯Į
Ġro om
åı¸ é©¬
ec tivity
çĻĮ ç»Ĩèĥŀ
èĢĲ åıĹ
ä¸»å¯¼ åľ°ä½į
æ¦Ĥ åĨµ
ä¼ģ äºĭä¸ļåįķä½į
19 45
at s
ç»ĵ çĤ¹
çĦ¶åĲİ åĨį
Ġadminist ered
ĠT LR
çĪ ¬
çļĦ åķĨåĵģ
çļĦ æĵįä½ľ
å®ı ä¼Ł
por ter
éĥ½ æĺ¯åľ¨
ä¸į å½±åĵį
Ġcur ve
Ġachie ved
oph il
æĪĲ åĽł
åıĮ ç¢³
ç»Ħç»ĩ å½¢å¼ı
ç¦Ģ èµĭ
éĽĩ ä¸»
çĶŁäº§ è¿ĩç¨ĭ
æŃ£ç¡® å¤ĦçĲĨ
é»ĳ é¾Ļæ±Ł
å´ĩ æĭľ
çĽ´æİ¥ æĬķèµĦ
b s
ä¸į ä¸Ģæł·
å¤§ä¼ļ ä¸Ĭ
éĴ ī
èĤ Ĩ
ĠB l
èĻ ¹
Ġgra de
å¡ Į
è´¯ç©¿ äºİ
og ram
ä½Ĩ å¦Ĥæŀľ
è½¬ è¿Ĳ
èĥ½ ä¸º
ç¯¡ æĶ¹
çļĦ åıįåºĶ
èĵĿ èī²
ä¸į çĽ¸åĲĮ
ç»Ħç»ĩ ç»ĵæŀĦ
çª Ł
æ·ĭå·´ ç»Ĩèĥŀ
ic le
èµ· æºĲäºİ
è½¬ç§» æĶ¯ä»ĺ
æıĲé«ĺ åŃ¦çĶŁçļĦ
$ \
åıĳçİ° éĹ®é¢ĺ
Ġwid ely
çłĶç©¶ é¢ĨåŁŁ
ä¸ŃåĽ½äººæ°ĳ å¤§åŃ¦
å¼ĢåĲ¯ äºĨ
å¸ ĸ
çĳ ķ
Ġcomp are
Ġpred om
æĺ¯ åħ·æľī
ĠO r
Ġen rol
çļĦ æĬĹ
Ġback ground
éħĴ ç²¾
Ġ å¼ł
è° £
Ġdatab ase
D æīĵåį°
åĮ» åŃ¦éĻ¢
ä¸ĵ æĶ¿
æĹı ç¾¤
ĠH ere
åĹ ľ
198 7
åıĹ è´¿
ä¸į çŃī
ĠM A
åĽ°éļ¾ çļĦ
åıĳè¾¾ åĽ½å®¶çļĦ
æīĢ åįł
çļĦéĩįè¦ģ æīĭæ®µ
çķľ çī§
ĠRes ults
çļĦ çĶŁçī©
æĸ° è¯¾ç¨ĭ
å¤ļ å®¶
ä¹° åıĹ
æĢ§ è¯Ħä»·
éŃı æĻĭ
sym b
æ¸ħ æ´Ĺ
æī©å±ķ åĪ°
åħ¬ ç¤¾
åıį è¿ĩæĿ¥
è¿ľ ç¦»
èĢĮ ä¸º
ĠC F
æİĮæı¡ äºĨ
ä¼ļ éĢłæĪĲ
å¹¶ éĩį
äº¿ äºº
Ġt ake
ä»İèĢĮ å¯¼èĩ´
æ´» åĬĽçļĦ
Ġnucle us
Ġm arrow
åŃĲ å®«
Ġ âĳł
æ¬º éªĹ
å¹¶ ç»ĵåĲĪ
æĻ ķ
åĮºåĿĹéĵ¾ æĬĢæľ¯
ä¸ĢçĽ´ åľ¨
Ġcom m
éĤ£ å°±æĺ¯
ç«ĭæĸ¹ ç±³
è´ ŀ
è¦ģ æł¹æį®
å¤ĸ å»¶
éĽĨ æĿĥ
ever al
Ġn erv
Ġl ayer
æ³ķ ç³»
éĢł ä»·
å¹´ä»£ ä»¥æĿ¥
æĶ¾ ç¼ĵ
åŀĭ ä¼ģä¸ļ
oc ation
econ omic
æł¡ä¼ģ åĲĪä½ľ
ron tal
çŃī å¥ĸ
åıį æĬĹ
Ġas th
ä¸º è§£åĨ³
ç½ķ è§ģ
å¤§ å®Ĺ
ç²¤ æ¸¯æ¾³
è¿ĩ å¤§
æıĲ æ¡Ī
åĨį åĬłä¸Ĭ
åĪĽéĢł åĩº
çĶµåŃĲ æĶ¿åĬ¡
éĥ¨ èĲ½
æī£ æĬ¼
åħļçļĦåįģä¹Ŀ å¤§æĬ¥åĳĬ
ä¸Ģå®ļ ç¨ĭåº¦ä¸Ĭ
æĭī æĸ¯
åĬ¨ æĳĩ
å¼Ĥ æŀĦ
åıĳè¡¨ çļĦ
åı£ è¯Ń
Ġobj ective
ist ant
anal ysis
çļĦ å¼Ģåıĳ
Ġp ast
æĪĸèĢħ æĺ¯
æĪĲåĬŁ åľ°
ç¬¬äºĮ ç§į
åģļ å¤§
æŁ ľ
ell ing
AC E
æĹ©æľŁ çļĦ
æµģ è¡ĮçļĦ
ä¸´åºĬ ä¸Ĭ
åŃ¦ä¹ł æķĻèĤ²
ä¾µæĿĥ äºº
oti de
æĸ Į
Ġre ducing
ç´Ĭ ä¹±
çº¢ ç»Ĩèĥŀ
Î ´
ĠC or
å±ŀ æĢ§çļĦ
yb rid
NO VA
N M
åĪĽæĸ° åĴĮ
oci ation
T E
ĠF ound
Ġab und
ä»£è¡¨ äºĨ
æĶ¯ æ°Ķç®¡
L inux
èĢĮ æĹł
é«ĺ ä½İ
å±±ä¸ľ çľģ
çļĦ äººåĳĺ
ä¸ĭ ä¸Ģä»£
çīµ å¼ķ
é¥ ¥
èģĮ ç§°
Ġf ully
æŃ ¼
d im
åĴĮ æī§è¡Į
ç©º è°ĥ
å°ļ ä¹¦
åıį èħĲ
åı¶ çīĩ
Ġstimul us
Ġanti gens
198 4
ç¾İ æ´²
Ġestim ate
Ġrelationship s
Ġdef ic
éĢ¾ æľŁ
çŃī åĲĦç§į
ç¤¾ä¼ļ çĶŁæ´»
æĬµ åĪ¶
ç¡® è¯Ĭ
æĺ¯ ä¸ĸçķĮ
è¡¨ åŀĭ
è½¯ä»¶ å¼Ģåıĳ
åĮº åĨħ
åĳ¨æľŁ æĢ§
ar ray
å¾Ī å°ı
èŀį éĢļ
åħ³éĶ® åľ¨äºİ
Ġ æĿİ
åħ³ ä¹İ
00 00
Ġ201 1
æŃ¥ åħ¥
ĠJ apan
ochem istry
A MP
ĠP C
ä¾µ åįł
çĽ¸è¾ħ çĽ¸
Ġal ready
cell s
æķĻèĤ² åŃ¦
æİĮ æİ§
çĸĳ éĹ®
åĨħ çļ®
ä¸ Ī
Ġinflu enza
å´ĩ å°ļ
Ġb u
Ġatt em
åĪĩ åī²
éĿĴèĹı é«ĺåİŁ
çļĦäºº å·¥
ĠPro g
æ³½ æ°ĳ
an ol
éĽĨä¸Ń äºİ
ĠB ecause
ir al
ä¼ĹæīĢ åĳ¨çŁ¥
åĽº æĢģ
ä»ĸä»¬ å¯¹
åĽĽä¸ª åħ¨éĿ¢
v ascular
è¦ģ å°Ĩ
ç»ĵåĲĪ çļĦ
è§ģ åĽ¾
j ug
æĮ¯ èį¡
ne gative
åĪĨå¸ĥ åľ¨
èĲ½å®ŀ åĪ°
m ark
** ,
Ġag ent
Ġup per
çĸ µ
H P
èĢĮä¸Ķ åľ¨
åħ¬ çĶ¨
è´¢åĬ¡ ä¼ļè®¡
è§Ĥå¿µ çļĦ
ä»ħä»ħ æĺ¯
ä¹¾ éļĨ
æĶ¿çŃĸ æİªæĸ½
çŃ¹ èµĦ
çĽ¸äºĴ åħ³ç³»
åħ±äº§åħļ äºº
ce ived
GF P
æĭĨ è¿ģ
çĦ ļ
Ġover l
oc l
ä¸İ çİ°ä»£
åĭ ĭ
æ´¾ çļĦ
æ·ĭå·´ ç»ĵ
. \
è¡¨è¾¾ çļĦ
ĠC ent
oun ts
ç¨İ æ¬¾
Ġdef iciency
ä½¿ äºº
Ġs qu
ä¸į åħ¨
Ġsp read
ĠS ur
æĢĿæĥ³ ä¸Ĭ
åħ¨éĿ¢ æ·±åĮĸ
ä¸Ĭä¸ĭ æ¸¸
ĠE ach
åħħ å½ĵ
åĴĮ èµĦæºĲ
ç¾ Ł
Ġ201 7
al k
æĹ¶æľŁ åĨħ
Ġdiab etic
ä¸¤ èĢħçļĦ
æ¨¡å¼ı ä¸ĭ
ect in
Ġbas ic
ä¸Ĭ åįĬå¹´
Ġim m
åĪĨåŃĲ çļĦ
è·¨åĽ½ åħ¬åı¸
ĠS ome
åĬ³ å·¥
èĭ± ç¾İ
å®Į æ¯ķ
oz yg
éĢ® æįķ
Ġan at
Ġc re
Ġv ary
åı£ æľį
åĴĮ è¦ģæ±Ĥ
éĢļä¿¡ æĬĢæľ¯
Ġfe ed
èģ ª
åĥı ç´ł
Ġrepresent ative
Ġinvas ive
éĥ¨éĹ¨ åĴĮ
Ġextrac ted
ç¾İå¥½çĶŁæ´» éľĢè¦ģ
æ°´ éĩı
åįıåĲĮ åıĳå±ķ
åı¯ä»¥ åĲĳ
åģľ æ»ŀ
åĬŁ åĪ©
ä¸įæĸŃ å¢ŀåĬł
åħ¨çĲĥ æ²»çĲĨ
å¤į çĶ¨
è´« è¡Ģ
æģĲ æĥ§
æīĢ çĶ¨
ç»´ æĿĥ
åľ¨ é«ĺ
ĠU K
çŀ Ĵ
åĴĮ æĹł
åĮĹ éĥ¨
l og
åı° éĺ¶
ç¥ŀ ç§ĺ
Ġpar as
å¤§è§Ħæ¨¡ çļĦ
Ġvari ability
åĽ½ èµĦ
å¤ļæł· åĮĸçļĦ
æįŁ çĽĬ
çļĦ åį±éĻ©
è§£ é¢ĺ
çĪ µ
åĵº ä¹³
å·¥ åĮł
åİŁ çĶŁ
æĶ¿åºľ å·¥ä½ľ
ä¾Ŀæ³ķ è¡ĮæĶ¿
éĨ Ľ
éļıçĿĢ æĪĳåĽ½
K O
çļĦ çī©çĲĨ
çºª æ£Ģ
Ġcomp rehen
A m
æıĲä¾ĽäºĨ ä¸Ģä¸ª
Ġm ixed
æ·±åħ¥ å¼Ģå±ķ
ä¹ĭåīį çļĦ
U V
æĸ°åıĳå±ķ éĺ¶æ®µ
æ¶ī å«Į
ä¸ĸçºª ä¸Ńåı¶
åºĶæĶ¶ è´¦æ¬¾
ä»¥ è¾¾åĪ°
çĤ º
ä¸ĵ ç§ĳ
éĢļ è¡Į
R R
å¤ļ ç»´
Ġcommun ication
é«ĺ ä¸¾
æĥ© æ²»
ä¸į æ³ķ
äººç±» åŃ¦
r isk
åı² çļĦ
æİ¢è®¨ äºĨ
çļĦ æī§è¡Į
æĳ §
å§ĭç»Ī ä¿ĿæĮģ
CS F
å·¨ åĻ¬
è¡Ģ æµģ
Ġd oc
Ġun it
ĠV EGF
Ġthough t
æĸ° å½¢åĬ¿ä¸ĭ
ç¬¬äºĮä¸ª çĻ¾å¹´å¥ĭæĸĹçĽ®æłĩ
åĽĽä¸ª æĸ¹éĿ¢
é«ĺ åľ°
éķ¿ ä¹ħ
è¿Ŀçº¦ è´£ä»»
çĶŁçī© æĬĢæľ¯
ep t
T G
æĪĸ æľī
Co V
è´¨ åŃĲ
Ġdifferenti al
çļĦ äºĭæĥħ
è§ģ è¯ģ
Ġconf lic
ä¼ģä¸ļ ä¸İ
åĪĴ å®ļ
åı¥ åŃĲ
æµ· å²¸
ĠD ec
Ġlymph ocytes
ç ¶
åıĺ æļĸ
æīĢ éķ¿
å¡ŀ å°Ķ
ĠL V
å¿ħè¦ģ æĿ¡ä»¶
ä¸Ń åıĳæĮ¥
er ous
Ġco ord
10 5
a a
æľĢ æĸ°çļĦ
æĶ¹ åĪ¶
ä¸įåĲĮ ç±»åŀĭ
Ġtransplant ation
ä½į æķ°
Ġwe ak
ç»ĵ èĤł
æľĢé«ĺ çļĦ
è§£ æķ£
ä¸Ģç§į æĺ¯
ron ch
åįıåķĨ æ°ĳä¸»
åĽŀ è·¯
ç½ĳ åħ³
çļĦ åĲĪä½ľ
Ġc osts
éħį åģ¶
åľ¨ ä»ĸ
åı¤ ä»Ĭ
D i
ĠAl zheimer
Ġm aking
æľĢåĲİ ä¸Ģ
èĭ į
å§Ķæīĺ äºº
åĶ¯ä¸Ģ çļĦ
tag on
åī¯ ä½ľçĶ¨
ĠIn di
æĿĥ è¡¡
å¡« è¡¥
åĴĮ åĬłå¼º
ä¿¡æģ¯ æĬĢæľ¯çļĦ
çºµ æ·±
Ġ200 8
r ical
å¼Ģ äºĨ
åıĹ è¯ķ
å½Ĵ ç»ĵ
ä¸ŃçļĦ ä¸Ģä¸ª
èī°èĭ¦ å¥ĭæĸĹ
ant ly
åħī èį£
ç¿ Ķ
å¾ªçİ¯ ç»ıæµİ
å¦Ĥæŀľ åľ¨
E GFR
in ations
è®° è´¦
æĶ¿æ²» åŃ¦
ä»Ĭå¤© çļĦ
Ġdom ains
Ġnetwork s
ä¸ĢèĪ¬ æĥħåĨµä¸ĭ
æ² ¼
Ġco up
Ġin str
10 6
è§Ħ çŁ©
æĺ¯ ä¸įåı¯
çĶ¨ äºĨ
æĹ¥ åľ¨
ä¿¡æģ¯ åħ±äº«
å¹¿æ³Ľ åºĶçĶ¨äºİ
åĬ³åĬ¨åĲĪåĲĮ çļĦ
Ġprot ective
éĢ ¢
æī© å¢ŀ
èĢĮ æľī
Ġdos es
u tis
åħ¶æ¬¡ æĺ¯
å¤ĸæ±ĩ åĤ¨å¤ĩ
åıįåºĶ çļĦ
çİ°å®ŀ ä¸Ń
æī§æĶ¿ åħļ
èģļ ç±»
äººæ°ĳ åĨĽéĺŁ
op er
ä¸ŃåĽ½ æĸĩåĮĸ
d ep
ä¸ĵåĪ© çĶ³è¯·
éĶ ļ
]{ .
èĩŃ æ°§
åĴĮ ç½ĳç»ľ
æĹł æĿĥ
åľ¨ åĨľæĿĳ
çŃ¾ åŃĹ
è¿ĳä»£ ä»¥æĿ¥
æĶ¿çŃĸ æĢ§
çĶµ ç¼Ĩ
èŃ¦ æĥķ
ä¼ĺåħĪ çº§
ĠD is
åľ¨ åīį
Ġn ode
Ġgast ric
è¾Ľäº¥ éĿ©åĳ½
æī§ ä¸ļ
çļĦåıĳå±ķ è¶ĭåĬ¿
ä¹ĭ å¿ĥ
æ¯Ĵ ç´ł
åĽ½åľŁ ç©ºéĹ´
åĬ³åĬ¡ æ´¾éģ£
ä¸ĩ ç¾İåħĥ
rin s
æ®µ çļĦ
ĠO S
æľĢ éĩįè¦ģ
ĠH CV
ä¹Ł å¯¹
ç»´æĬ¤ åĽ½å®¶
çī¹å¾ģ åĴĮ
Ġmicro bi
Ġd en
ç»ı çĶ±
Ġchall enge
æ³ķ ä»¤
cl us
ĠSc ale
rob lasts
D e
çļĦ åı¯èĥ½
ä¸ľ äº¬
åħī åĲĪ
å¤ĸåķĨ æĬķèµĦ
æ´»åĬ¨ åĴĮ
Ġpl a
å¼¯ æĽ²
ins on
ID S
çĻ¾ ç§ĳ
Ġsam pl
LA N
æľįåĬ¡ æľºæŀĦ
é»ĳ æ´ŀ
åĲ¸ çĥŁ
Ġgen omic
Ġnerv ous
Ġmed ia
ä¸İ äºº
åįģ æľĪ
å¹´ åĴĮ
ä¿¡ èµĸ
å¹¶ æıĲåĩº
Ġmolec ule
Ġtool s
åľ¨ æł¡
Ġd ate
æįĲ èµł
Ġtranscrip tional
æľī æĿ¡ä»¶çļĦ
éĴ ¦
Ġele ments
åİ ¥
Ġinvol ving
ç»Ŀ ç¼ĺ
ä¿ĿæĬ¤ æ³ķ
in ated
Ġall ele
çŁ³ åĻ¨
ä¼ĺæĥł æĶ¿çŃĸ
å¸Ĥåľº çĽĳç®¡
æĹ¥ æ¸Ĳ
Ġst ri
ä¸º äººç±»
Ġp ut
Ġmanufact ure
Ġcyt oplas
å¾ Ļ
æĶ¿æ²» ä¸Ĭ
ä¸»è¦ģ éĢļè¿ĩ
ç½ĳç»ľ ä¸Ń
ć ą
éĶ ¤
activ ation
åĬłå¿« æŀĦå»º
èİ· åĪ©
ä¸İ è¢«
o T
æ±Ł æ³½æ°ĳ
è¿Ħä»Ĭ ä¸ºæŃ¢
æĸ¹ æĸ¹éĿ¢
å±Ĥ å±Ĥ
Ġâ ī¤
çŃīåĲĮ äºİ
o ot
ist ance
Ġ3 8
å¤ļ åŃ¦ç§ĳ
ĠC H
æ·¡ åĮĸ
åħ¬ ä¿¡
çıŃ åŃĲ
v ity
Ġ ç³»ç»Ł
çļĦ äº§ä¸ļ
æĶ¹åĸĦ æ°ĳçĶŁ
èĴ¸ åıĳ
å¥ ¸
éĢļ éĩı
è¿Ļ ä¸īä¸ª
èĻļæĭŁ çİ°å®ŀ
Ġf ar
åĲĮæĹ¶ åıĪ
äººä¸İ äºº
åľ¨ æķĻèĤ²
it ory
èģĶ ç»ľ
å¦Ĥæŀľ æĪĳä»¬
æĪ¿ ä»·
çĲĨäºĭ ä¼ļ
Ġv en
æĸ¹åĲĳ åıĳå±ķ
ach ing
è¡ ¬
çıį è´µ
Ġmicroscop y
è¿ĽæŃ¥ çļĦ
å¹¶ åĲĳ
ä¸² èģĶ
éĺ» æĬĹ
åĲĮä½į ç´ł
å¹¸ç¦ı æĦŁ
èĢĮä¸Ķ è¿ĺ
Ġ6 5
çªģçł´ åı£
æĺ ı
Ġsub str
Ġrecru it
å¿ħ å®ļ
ä¸¤ ä¾§
éª ļ
ile p
éĩĳèŀį èµĦäº§
Ġ å°Ĩ
Ġle g
è½¬ åĮĸçļĦ
æĢ» åĴĮ
ç¼´ è´¹
T NF
å¤© ä½ĵ
æĶ¿ æĿĥçļĦ
å¯ĦåŃĺ åĻ¨
ĠM MP
åĴĮ æ°´
åĲĮ å¿ĥ
ĠN A
èĢĮè¨Ģ ä¹ĭ
çļĦ æĿĲæĸĻ
åħ¬åħ± å®īåħ¨
é¢Ħ å¤ĩ
port un
è¯Ŀè¯Ń æĿĥ
èį Ĩ
ä¸Ĭ èĢĮ
å§ ļ
Ġvari ant
èĬĤ çĽ®
åıª ä¸įè¿ĩ
æłĩåĩĨ ä½ĵç³»
Ġprob ability
æĪĲæŀľ çļĦ
åŁĥ åıĬ
Ġpneum onia
Ġ å¤§
ä¸įå¿ĺ åĪĿå¿ĥ
åĴĮ åĨľæĿĳ
Ć ï¼Į
æī¾ åĪ°äºĨ
åĲĪåĲĮ çºłçº·
ti ally
Ġg li
äººçļĦ åħ¨éĿ¢åıĳå±ķ
çļĦåŁºæľ¬ è¦ģæ±Ĥ
å§Ķåĳĺä¼ļ çļĦ
è®©åŃ¦çĶŁ åľ¨
Ġat he
ä¸»è¦ģ è¡¨çİ°ä¸º
Ġconsum ption
å½±åĵį åĬĽçļĦ
æıĲé«ĺ åŃ¦çĶŁ
æĤ£ æľī
éĽĨä¸Ń ç»Łä¸Ģé¢Ĩå¯¼
è°Ī åĪ°
Ġan tagon
ol low
åľ°æĸ¹ åĲĦçº§
m at
åħ± è®¡
å®ļ é¢Ŀ
ç»¼åĲĪ åĪ©çĶ¨
Ġorig inal
å¯¹ ç»ıæµİ
é£İéĻ© åĴĮ
åħļ ç»Ħ
åİĺ æ¸ħ
åĽ½å®¶ åľ¨
Ġinterpret ation
è¿Ľä¸ĢæŃ¥ æıĲåįĩ
ç§ī æĮģ
æĭī åħĭ
anc ers
æĦı è±¡
ä¸¤ çĤ¹
èĲĮ èĬ½
å¤įæĿĤ åº¦
æ·± æ·±
å·²ç»ı è¢«
åĮ ®
åĽŀçŃĶ äºĨ
åĨľ æľº
Ġ ä½¿çĶ¨
ç¬¬äºĮ ç«ł
Ġpancre atic
ç®¡çĲĨ å±Ĥ
b f
ç§ĳçłĶ æľºæŀĦ
åħ¥ åı£
Ġprogram s
å¦ Ħ
é¢ĺ ä¸º
Ġsub group
ä¹ĭ åĪĨ
å·®å¼Ĥ æĢ§
çļĦ å¿ĥçĲĨ
çļĦ ç±»åŀĭ
åľ¨ å½ĵåīį
ç§ĳæĬĢ å¤§åŃ¦
èĲ½èĦļ çĤ¹
Ġexhib ited
Ġpossi bility
Ġc heck
ĠN S
èĩªä¸» æĿĥ
è¡° èĲ½
å¿½è§Ĩ äºĨ
ä¸Ńåįİæ°ĳæĹı åħ±åĲĮä½ĵ
æĬ¥ èŃ¦
çļĦéĩįè¦ģ éĢĶå¾Ħ
æĤ£èĢħ ä¸Ń
et her
ç¤¾ä¼ļä¸»ä¹ī åĪ¶åº¦
è¯¥ ä¹¦
åıª éľĢè¦ģ
k t
çŁ¿ å±±
ã ģ
éħ Į
åĽº åĮĸ
åĨľä¸ļ çİ°ä»£åĮĸ
L ED
æĸĩ ä½ĵ
äºĶ ä½įä¸Ģä½ĵ
çĳķ çĸµ
G en
æĪĸ åľ¨
ä¸¤ é¡¹
æĪĲä¸º ä¸Ģç§į
Ġs em
ĠB M
éĢł ç¦ı
çļĦ æĸĹäºī
è¿ĳ åĩłå¹´
åĴĮ æĬķèµĦ
æł¸å¿ĥ ç«ŀäºīåĬĽ
è´¢åĬ¡ æĬ¥è¡¨
çŃī æĥħåĨµ
è¿Ļç§į æĸ¹å¼ı
P AR
åĵ Ģ
å·¥ä¸ļ ä¼ģä¸ļ
CA R
æµ Ĭ
è¶ħ å¯¼
åľ° ä¸Ĭ
çĲĨå¿µ çļĦ
å¡ĳ æĢ§
]- [@
åĴĮ èĥ½åĬĽ
çļ® ä¹¦
Ġvit amin
ä½ľ æĸĩ
èµĶåģ¿ éĩĳ
éĢīæĭ© äºĨ
çĻ½ è¡Ģ
Ġ çĶ¨
å¼Ĥ åĮĸ
è¥¿ æ¬§
åĩı è´«
æľĢé«ĺ æ³ķéĻ¢
ä¸ĸ ä¿Ĺ
Ġbiop sy
èİ ²
Ġwas hed
ç»Ļ å®ļ
èµ Ĳ
è®¾ æľī
æ´¾ åĩº
å¯¹ çİ¯å¢ĥ
Ġy ield
å®ª æ³ķçļĦ
ĠS m
ä¸»ä½ĵ æĢ§
çļĦ èī¯å¥½
Ġ è¦ģ
è®º è¯Ń
ï¼ī ãĢĭ
æľĪ åºķ
p ly
ä¹ĭ æľ¬
ä¸Ń äºļ
çļĦä¸Ģ å¤§
Ġstim ulated
èĩª æĹĭ
åľ°æĸ¹ çļĦ
Ġsynap tic
ä¸įæĸŃ æ·±åĮĸ
èŃ ¬
åħ¬çĽĬ æĢ§
åĩº è·¯
ç¤¾ä¼ļ å®ŀè·µ
ç»Ŀ å¤§éĥ¨åĪĨ
çŃī æ´»åĬ¨
ç²Ĺ æĶ¾
Ġinvestig ation
Ġst er
Ġallow s
ĠFound ation
éĽ Į
4 000
å¡« åĨĻ
éĩį åľ¨
åı² è¯Ĺ
æī©å¤§ äºĨ
åħ¶ åĲİ
æİ¢ éĴĪ
æĹ¢ èĥ½
on ucle
ä¸ĸçķĮ åĴĮå¹³
è§ĦåĪĴ çļĦ
y st
çļĦ åĲĪåĲĮ
æħ ĳ
æĪĸ éĹ´æİ¥
Ġm s
æĬĢæľ¯ åºĶçĶ¨
èµ° åĬ¿
ĠAm ong
ç¨ ½
Ġm ix
çļĦ åİĭåĬĽ
ĠC ont
åħ³ç³» åĴĮ
Ġis o
æĸ° è¦ģæ±Ĥ
è ł
å±ķçİ° åĩº
æµ ĳ
äº¤ æĽ¿
æł¸ åĩĨ
åĩı åħį
æĪĺçķ¥ çĽ®æłĩ
åħ¬ æĸ¤
æĤ Ķ
00 7
åħĥ å®ĩå®Ļ
æĭħ å¿§
åĨ³å®ļ çĿĢ
æľŁéĹ´ çļĦ
æĹĭ å¾ĭ
çĳŀ å£«
ä¸Ń åħ·æľī
åĮħæĭ¬ äºĨ
ä»¥å¤ª ç½ĳ
Ġpre pared
ç§¯æŀģ æİ¨åĬ¨
è®® äºĭ
éļ¾ åħį
è¾¹ç¼ĺ è®¡ç®Ĺ
åľ¨ åŁİå¸Ĥ
ç®Ģ æĺĵ
æĲº æīĭ
åįģ åħ«å¤§
ä¾Ŀ éĻĦ
çŃī éĩįè¦ģ
ore c
åĬ© çĲĨ
å¯¹ åĽ½å®¶
ä»Ĭ æĹ¥
ç»ıæµİ ä½ĵç³»
ä¸ĸçºª ä»¥æĿ¥
å®ŀè·µ ç»ıéªĮ
Ġclass ified
Ġtechn ology
æĦ ģ
ar s
Ġobserv ation
L V
çĶ² çĥ·
ä¸ŃåĽ½ å»ºè®¾
Ġgener ate
ĠR OS
çºª å§Ķ
åĽº çĦ¶
æķĻåŃ¦ æ´»åĬ¨
å¦ ¹
åħ¬ è¯ī
Ġfat ty
um ab
Ġrecomm ended
ur ine
åĪĻ ä¸º
å¯¹ äººç±»
ä¸»è¦ģ éĽĨä¸Ńåľ¨
åĳ¨ è½¬
ä¸į æĦ¿
æĢĿæĥ³ å®¶
æĺ Ķ
âĳ ¥
Ġimmun ohist
Ġdisc rim
ä¼ļ åĲĮ
ç½® æį¢
èī ĩ
éĥ½ ä¸İ
ĠH LA
ä¸ºäºĨ å®ŀçİ°
çĶ± åĽ½å®¶
ç»ĵ å©ļ
æĢ» éĩıçļĦ
æŃĮ æĽ²
ä»¥ äººæ°ĳä¸ºä¸Ńå¿ĥ
åı² çłĶç©¶
åİĨåı² æĹ¶æľŁ
åįĬ å¾Ħ
è° Ĭ
ç»¿æ°´ éĿĴå±±
æĸ¹åĲĳ çļĦ
æ¶µçĽĸ äºĨ
åŃĹç¬¦ ä¸²
èĵ¬åĭĥ åıĳå±ķ
ä¸ĩ äº¿ç¾İåħĥ
æī¹ éĩı
Ġow n
Ġl ist
é«ĺéĢŁ åħ¬è·¯
é¼ĵ èĪŀ
Ġ ãĢĳ
åŁºç¡Ģ çļĦ
v ate
äº§ åľ°
å°ı åŃ¦çĶŁ
ä¸įå¹³è¡¡ ä¸įåħħåĪĨ
ot e
æııè¿° äºĨ
åĲį èªī
ç¤¾ä¼ļ å»ºè®¾
ç»Ļ äºĨ
ĠD C
enti a
æĮ« æĬĺ
æµģ æ°´
æĬĺ æĹ§
ç¦ Ħ
è¯ģåĪ¸ åĮĸ
æĸ° éĹ®é¢ĺ
ç»¼åĲĪ æ²»çĲĨ
æľ« ç«¯
Ġsetting s
æĽ Ŀ
è¿Ľä¸ĢæŃ¥ åıĳå±ķ
è¥¿ åĳ¨
Ġsim ple
çłĶè®¨ ä¼ļ
ć Ĉ
Ġthere by
ä½ĵåĪ¶ çļĦ
èĤĿ çĻĮ
Ġ å¯¹äºİ
d o
Ġhorm one
è¿Ļ ä¸įä»ħ
in ate
Ġit ems
Ġrec ognition
Ġmod ified
ä¸Ń ä½¿çĶ¨
æº¯ æºĲ
æĸ¹æ¡Ī çļĦ
å± ł
ur s
åĲĮ ä¸ŃåĽ½
ä¹ĭ æīĢ
Ġoptim al
æĢ ł
æĸ¹ è¨Ģ
åŃĺ æĶ¾
åĨľä¸ļ åıĳå±ķ
Ġrandom ized
çļĦ åŃ¦æľ¯
åĴĮ åŃ¦ä¹ł
èĢ »
æĸ° æĢĿæĥ³
é¢Ŀ å¤ĸçļĦ
æıĲä¾Ľ æľįåĬ¡
Ġref lect
åħ¨åĽ½ ä»£è¡¨å¤§ä¼ļ
é«ĺ å±Ĥæ¬¡
æĬ¥ åĪĬ
äºĨä¸Ģ æĿ¡
åĮ»çĸĹ æľįåĬ¡
çĶŁäº§ åĬĽçļĦ
å¸Ĥåľº åľ¨
ĠM e
ĠM aterial
è®¾ç«ĭ çļĦ
å¤ļæł· çļĦ
Ġchann els
7 00
( -
æĦŁ å®ĺ
Ġrece iving
ä¸Ģ è¾¹
æ°ĳæĹı æĸĩåĮĸ
Ġincl usion
ç§» éĢģ
åħ±äº§åħļ åĳĺ
åĮĸçŁ³ èĥ½æºĲ
é¢Ĩå¯¼ æł¸å¿ĥ
èį¯çī© æ²»çĸĹ
ä¹Ļ çĥ¯
B i
åħ·æľī èī¯å¥½çļĦ
åĢºåĬ¡ çļĦ
ĠAd ditional
æĸ° æĹ§
æĸ° æł¼å±Ģ
åĨ¬ åŃ£
ç¾İ å¾·
ra ft
é¼ĵåĬ± åŃ¦çĶŁ
éĽ į
Ġfamil ies
ä¸ª åĽ½å®¶
åĨľ èĢķ
éħ¸ æĢ§
tim es
us ed
ç½ĳ æ°ĳ
åı Ķ
åħļçļĦåįģ åħ«
Ġç¬¬åĽĽ èĬĤ
ä¼ĳ åħĭ
ä¹Ł ç§°
å°ģå»º ç¤¾ä¼ļ
æ² ¸
ĠĠĠĠĠĠĠĠĠĠĠĠĠĠĠĠ ĠĠĠĠĠĠĠĠĠĠĠĠĠĠĠ
ult aneous
èį Ģ
æ³ķå¾ĭ åĴĮ
ç¬¬ä¸Ģ æŃ¥
Ġrec onstr
è¾ĥ å¤ļçļĦ
çĶ «
çľĭ ä¼¼
Ġinj ected
åıĹ åģ¿
åįİ ä¸ľ
åŃ ¸
Ġret inal
çİ¯å¢ĥ è´¨éĩı
Ġres pect
æīĵ èµ¢
tic es
Ġ20 20
å°¤ä¸º éĩįè¦ģ
åĴĮ è¡ĮåĬ¨
ä¼ģä¸ļ æīĢå¾Ĺç¨İ
åķĨ çĶ¨
ä¹¡æĿĳ å»ºè®¾
åŃ¦éĻ¢ æķĻæİĪ
çĶ ¸
ä¼ł è¯´
äººåĬĽèµĦæºĲ ç®¡çĲĨ
å®ĥ å°Ĩ
åĬ¿ å¤´
åķĨä¸ļ åĮĸ
åĲĦç§į åĲĦ
ke y
æĹł åºı
ä½ķ æĹ¶
å¥łå®ļäºĨ åŁºç¡Ģ
å¯¹çħ§ ç»Ħ
ç§ĳ æķĻ
Ġill ust
æķ°æį® è¦ģç´ł
å°± æŃ¤
ar cin
åĨħ éĺģ
åĲİ åĨį
å¤§ å¾ªçİ¯
å±ħ äºİ
åħļåĨħ æĶ¿æ²»
å¼ı æķĻåŃ¦
åıĳè¾¾ åľ°åĮº
éĹ ¸
s w
ä¾Ľ æ°´
Ġcr uc
çŃī æīĭæ®µ
ç¨İ è´¹
æļĤ åģľ
Ġdiscus sed
Ġ er
Ġs ession
éĹ ¹
ç¨İ è´Ł
çļĦçłĶç©¶ æĪĲæŀľ
Ġmat ter
çļĦ è§Ĵèī²
Ġm other
Ġspec imens
RF ID
çĶ± æĶ¿åºľ
ä¼ĺè¶Ĭ æĢ§
å°± ä¸į
å¾® åĪĨ
ä¸Ń ä¸ľ
Ġw ide
ä¿¡æģ¯ å¤ĦçĲĨ
æİ§åĪ¶ åľ¨
çŃĶ è¾©
Ġprog ramm
å¸ Ĩ
å¤§ è±Ĩ
og ens
ord ance
Ġac quisition
ç»Ĩèĥŀ åĽłåŃĲ
ä¿ĥè¿Ľ ä½ľçĶ¨
." (
è¯¦ç»Ĩ çļĦ
æ²Ļ æ¼ł
ĠM in
çĽ´æİ¥ çļĦ
åķĨåĵģ æĪ¿
Ġpolic y
Ġan xiety
æĶ¶åħ¥ å·®è·Ŀ
Ġimmun ity
æ¯ı æľĪ
è¡Į é©¶
Ġunder went
pec ted
åħ¨ä½ĵäººæ°ĳ åħ±åĲĮå¯Įè£ķ
ä¸Ģä¸ª æĺ¯
åı¤ äºº
Ġqu al
Ġ4 2
ä¸ĵæ³¨ äºİ
åħ» åĪĨ
f l
ä¿ĥ æĪĲ
Ġepidem i
åħ± æ²»
ut ing
Ġexpl ain
m ean
æľī æ¯Ĵ
Ġac et
vari an
æł· å¼ı
ĠG u
æĹł åı¯
çľ ī
Ġne on
ä»į å¤Ħäºİ
èĢĮ æĿ¥çļĦ
åĴĮ åĬŁèĥ½
éĢł è¡Ģ
åįİ å¤ı
æį¢ åı¥è¯Ŀ
ç³ ķ
å°± å·²ç»ı
æ¡ ©
ä» ĩ
é»Ħ èī²
â ī¤
çļĦéĩįè¦ģ åĽłç´ł
A V
è¿ĺ å¿ħé¡»
Ġbur den
Ġa ud
æľĢ æł¹æľ¬
Ġrec ip
Ġinform ed
éĥ½ è¢«
ĠS ch
çļĦ æķ°åŃĹ
Ġ200 5
åĺ ´
çī¹å¾ģ æĺ¯
éļĲ èĶ½
æīĢ ç§°
æŃ£ åĽłä¸º
èµ° åľ¨
G R
æĹł åģ¿
åįķ åĲĳ
æĶ¹éĿ© åĴĮ
èģĶç³» åľ¨ä¸Ģèµ·
ä¸Ń åŃĲ
ä¸°å¯Į äºĨ
å¼ķåıĳ äºĨ
èī¾æ»ĭ çĹħ
Ġc reat
ç¬¬ä¸Ģ ç«ł
Ć ĆĈ
æ¯Ķ ä¸Ĭå¹´
" ."
c ular
æµģè¡Į çĹħ
ä¸İ æĸĩåĮĸ
è§Ĥ çľĭ
ç¢ ĺ
èģĮä¸ļ æķĻèĤ²çļĦ
é£ŀ éĢŁ
Ġpredic tion
^ ,
çļĦ æķħäºĭ
åı¯æĮģç»Ń æĢ§
è°± ç³»
P re
activ ated
åıĪ å¦Ĥ
åĩĿèģļ åĬĽ
çĲ Ĳ
å¼ºè°ĥ çļĦæĺ¯
æĽ´å¥½ åıĳæĮ¥
ç§ĳåŃ¦ æĢ§
å½ķ åıĸ
cri p
Ġalgorith m
åĪ©å®³ åħ³ç³»
åĳĬè¯ī æĪĳä»¬
W T
Ġin struc
is ons
ĠA P
å¼ķ äºº
Ġg e
13 3
èĪĨ æĥħ
è®¤è¯Ĩ è®º
åīį å¾Ģ
æ³ķ çĲĨ
è§Ĥ çļĦ
çĿĢåĬĽ çĤ¹
åĪĿå§ĭ åĮĸ
ä¹Ł æĹłæ³ķ
æķ´ æķ°
ä¿¡æģ¯ èµĦæºĲ
çĲĨè®º è¯¾
çĭ Ĺ
éĶĤ ç¦»åŃĲ
H L
ä¿¡ è®¿
Ġnormal ized
Ġremo ved
ĠB e
ä¸ª æĸ¹éĿ¢
17 0
åĴĮ å¤ļ
r if
éģĩ åĪ°çļĦ
Ġan terior
èµĦæľ¬ å®¶
15 00
Ġbenef its
ä¸Ģ æĹ¶
Ġmo vement
Ġre qu
æİ¥åıĹ çļĦ
ä¸º ç¤¾ä¼ļ
ä½ĵåĪ¶ æĶ¹éĿ©çļĦ
Ġdegrad ation
æīĢæľī è¿ĻäºĽ
åī ¿
åĲĦé¡¹ å·¥ä½ľ
æİ¢ å¯»
Ġfe ature
çļĦæľĢ æĸ°
Ġf usion
æĺĤ è´µ
éļı è®¿
ä¹Ł æĪĲä¸º
å¯Į éĽĨ
æłĳ èĦĤ
åħ·å¤ĩ äºĨ
Ġplac ed
æ± ģ
ä¸įåĲĮ ç±»åŀĭçļĦ
æķ° çĻ¾
éĻĦåĬł åĢ¼
Ġs ources
al se
çī¢åĽº æłĳç«ĭ
ç«ŀäºī å¯¹æīĭ
ä¸ĭ äºĨ
ĠL ab
åĽº æľīçļĦ
ä¸»è¦ģ æĺ¯æĮĩ
åĸ Ŀ
Ġs odium
äººæ°ĳ æĶ¿åįı
) /
! "
ç½ĳ ä¿¡
Ġbel ie
åĪ ĥ
äºĶ åįģ
åĲ» åĲĪ
æķĻèĤ² ä½ĵç³»
ä¼ĺ åĮĸçļĦ
åŁºæľ¬ æ¦Ĥå¿µ
å¹´ åħ¨åĽ½
è¡ĮæĶ¿ æ³ķ
ç«ŀäºī çļĦ
æĿ¥ å®ĮæĪĲ
- *
èĩ³ æŃ¤
çļĦ ä»£è¡¨
ost asis
Ġexpl ore
ĠĠĠĠĠĠĠĠĠĠĠĠĠĠĠĠ ĠĠĠĠĠĠĠĠĠĠĠĠĠĠ
ç¾ ģ
çŁ¥ è§ī
åħ¸åŀĭ æ¡Īä¾ĭ
è®¨è®º äºĨ
ax is
ç¿ ģ
æĬ½ åıĸ
n ic
æĭŁ åĲĪ
æĤ² åī§
éķ ģ
om ics
Ġj oint
æĺ¯ å½ĵåīį
åľ¨ è¿ĩåİ»
æĺ¯ åĪ©çĶ¨
å¹´ æľ«
t ation
ä»İèĢĮ æıĲé«ĺ
ç£ ħ
en sive
äº² åĴĮ
åħįçĸ« ç³»ç»Ł
æĺ¯åĲ¦ åħ·æľī
ä¸ŃçļĦ åľ°ä½į
} ^{
Ġ5 00
b inding
in ity
å¤© äºº
ĠA Î²
è¿Ļæł· åģļ
éª¨ æĬĺ
æľį é¥°
åİ¦ éĹ¨
é£İ è²Į
æĸ¹åĲĳ åĴĮ
æķĻåŃ¦ è®¾è®¡
çĶŁäº§ èĥ½åĬĽ
æĺŁ ç³»
10 4
éķ¿æķĪ æľºåĪ¶
å¾ģ åľ°
îĢ Ĳ
b umin
é¢Ħ è®¾
H E
Ġcle arly
Ġ å¦Ĥæŀľ
çķĻ ç½®
æį® ç»Łè®¡
è¡¨ çļĦ
Ġp en
ro duction
å¹³çŃī çļĦ
ä¸Ģ å¤§æī¹
åħ¨è¿ĩç¨ĭ äººæ°ĳæ°ĳä¸»
åĪ° ä¸Ģä¸ª
åĨį éĢł
Ġsl ight
D iscussion
Ġdes pite
æīİ æł¹
åĽŀ å¤į
s a
Ġ çĶ±äºİ
åĪ¶åº¦ æĺ¯
ä¸ĥ å¤§
Ġthe ory
v it
Ġinter act
åģĩ å¦Ĥ
l in
çĶ¨ éĩı
çī¢çī¢ æĬĬæı¡
l ated
èµ° å»Ĭ
Ġtoward s
ç¥ĸ åħĪ
è·¯ ä¸Ĭ
çŃī éĩįå¤§
Ġpepti des
Ġr un
éķ¿ æ²Ļ
è¾¾ æłĩ
å®ŀéĻħ çĽ¸ç»ĵåĲĪ
ç«ŀäºī æĢ§
Ġm illion
å»ºçŃĳ çļĦ
å½ķ éŁ³
Ġdescrib e
è°ĥæķ´ åĴĮ
åİĨ æĿ¥
ä»»ä½ķ äºº
L e
å¤§ ä¸Ń
ä½Ĩ å¯¹äºİ
Ġrem ained
æķĻèĤ² åŁ¹è®Ń
èĢĮ å¯¼èĩ´
å·®å¼Ĥ åĮĸ
Ġn or
um ber
C omp
ä¼¤ äº¡
Ġdetail ed
èĢĮ æĺ¯åľ¨
ï¼Ľ (
åħ·æľī éĩįå¤§
Ġmi RNAs
æĪĳä»¬ åºĶè¯¥
æĵįä½ľ çļĦ
æµª æ¼«
çľĭ åĪ°äºĨ
çļĦ ä¸»é¢ĺ
åıĺ æ³ķ
Ġfram ework
ä¸»è¦ģ ä»¥
ç»Ħç»ĩ å®ŀæĸ½
åį³ä½¿ åľ¨
åħ¬ ç«ĭ
çĹħ äººçļĦ
ç¼ĸ æİĴ
æıĲ åĪ°çļĦ
ä¿Ŀè¯ģ äºº
k in
n et
å®ļ æĹ¶
æĢ§è´¨ åĴĮ
ab bit
ç¬¬åįģ äºĮ
å¤§ éĥ½
Ġem ph
ç¡¬ çĽĺ
Ġwork ing
ä» ĳ
äº§ä¸ļ æĶ¿çŃĸ
ä¸ŃåĽ½çī¹èī²ç¤¾ä¼ļä¸»ä¹ī æ³ķæ²»
æĸ¹éĴĪ æĶ¿çŃĸ
Ġ æĸ°
The re
Ġro b
æĻ®éģį æĢ§
éļĲ åĲ«
çŃī åĬŁèĥ½
å½ĵ æľŁ
è§ĤçĤ¹ è®¤ä¸º
sm all
åİĨåı² ä¸ĬçļĦ
ÂłÂł ÂłÂł
Ġcor rect
å´ĩ é«ĺ
Ġinteg r
ç¬¬ä¸Ģ åįĥ
è§ĦèĮĥæĢ§ æĸĩä»¶
åĩº åİ»
ell a
èģĮä¸ļ æĬĢæľ¯
ension al
y cin
Ġl ateral
å®īåħ¨ ä¿Ŀéļľ
ä¸Ģ å¤©
è¯¾ç¨ĭ è®¾ç½®
æ¥ ·
åĲİ æĿ¥çļĦ
Ġsub un
åĪĽæĸ° ç²¾ç¥ŀ
åºŃ å®¡
é«ĺ æłĩåĩĨ
éĤĵå°ıå¹³ åĲĮå¿Ĺ
åĪĨ åıĳ
D a
æ£ ļ
éĿł è¿ĳ
çļĦ æİ¢ç´¢
çŃī éĥ½
O M
å¼º å¼±
Ġres olution
Ġw ord
æł¡ åĩĨ
æ£Ģå¯Ł å®ĺ
æī¿ æİ¥
ĠP at
è¯ģæį® è¯ģæĺİ
Ġthan k
çļĦä¸ŃåĽ½ æ¢¦
å±ı èĶ½
åİŁ ä½į
è´ ©
åı¯èĥ½ ä¸İ
åĲİ çİ°ä»£
çļĦä¸Ģ æĸ¹
ä¹° æĸ¹
å« ¦
Ġear lier
ç¦ ¹
åĭĺ æİ¢
åĩºåı° äºĨ
åĴĮ åĪ©çĶ¨
é¤Ĳ é¥®
ç¬¬ä¸ī ç«ł
åĽ½éĻħ æ³ķ
å°Ĩ è¯¥
ä¸ĭåĪĹæĥħå½¢ ä¹ĭä¸ĢçļĦ
æĬĢ èīº
çº¿ æĿ¡
è¯Ńè¨Ģ åŃ¦
ros cler
èµĭäºĪ äºĨ
åĽ½éĻħ è´§å¸ģ
Ġpur pose
è¾ĥ å¼±
åĽ½éĻħ ç»Ħç»ĩ
å®ĥä»¬ åľ¨
ly c
Ġ\ -
åĮħåĲ« çĿĢ
åħ·æľī ä¸Ģå®ļ
åĬł éĢŁåº¦
ä¼ģä¸ļ å¯¹
èĥ½å¤Ł å®ŀçİ°
æ¦Ĥæĭ¬ ä¸º
Ġheterogene ity
å¸Ĥåľº åĩĨåħ¥
æīĢä»¥ åľ¨
åıªèĥ½ æĺ¯
æĹ¶ åºĶ
å¹¿ åľº
æ³Ħ æ¼ı
ĠA TP
èĭ Ľ
ç»´æĬ¤ ç¤¾ä¼ļ
åĢ¾ éĶĢ
èĥ½ ä½¿
å¹¶ çĶ¨
é£İ æļ´
çŁŃ æļĤ
æ³ķ è¥¿æĸ¯
å¾ª åºı
ä¹ĭå¤ĸ çļĦ
è§Ĵåº¦ æĿ¥çľĭ
åıĮ å¾ªçİ¯
åħ¨ å¿ĥ
æ¯ı åĳ¨
æķı æį·
å¾ĹçĽĬ äºİ
æį¢åı¥è¯Ŀ è¯´
L M
ä¹Łæĺ¯ ä¸Ģä¸ª
Ġel im
th ritis
ĠD uring
\ **
äººçļĦ è¡Įä¸º
ĠC al
åĨħå®¹ åĮħæĭ¬
éģĹä¼ł åŃ¦
å¤§ åĲĮ
Ġdivid ed
åĬĽ åĽ¾
èĪªç©º èĪªå¤©
Ġiss ue
çļĦäºº æĸĩ
ä¸ĭ å±ŀ
ĠM et
è¿Ĳ è½½
lud e
per im
åľĨ å½¢
Ġd end
æĬķ èº«
èĨľ çĤİ
é«ĺ åĪĨåŃĲ
ä¸į æģ¯
å®ŀ å¤Ħ
å«¦ å¨¥
çİ°ä»£ ä¼ģä¸ļ
ç§ĳåŃ¦ ç¤¾ä¼ļä¸»ä¹ī
Ġinf ectious
å·¥ä½ľ æľºåĪ¶
æĶ¿æ²» åįıåķĨ
æĿ¥ è¡¨ç¤º
å®¶ å±ŀ
çĻ»è®° çļĦ
åĬŁ æķĪ
æĬĢæľ¯çļĦ åºĶçĶ¨
ĠRe view
æĻ® æ³ķ
S er
äººæ°ĳ åĩºçīĪç¤¾
èµ ļ
åľ¨ æĸ°æĹ¶ä»£
ç»ıèĲ¥ çļĦ
éĢĨ åĲĳ
Ġplas mid
åıĳçĶŁ çİĩ
ä½ĵ åĴĮ
Ġop portun
å¥ ¢
ç«Ļ çĤ¹
ä¸Ń åıĳçİ°
å·¥ä¸ļ çĶŁäº§
æĸ¯ å¤§
op o
æ³ »
ä¸İ åĪĨæŀĲ
è¶ĬæĿ¥è¶Ĭ å¤§
ĠDise ase
R ec
ä¸º åĩĨ
éĿŀ åħ¬æľīåĪ¶
æļĹ ç¤º
ç»ŁçŃ¹ åįıè°ĥ
t reatment
ä¸ŃåĽ½ ä¸İ
éĢļè¿ĩ åľ¨
Ġpl ot
è§Ħå¾ĭ åĴĮ
ä¸ªäºº æīĢå¾Ĺç¨İ
ä¸º åįķä½į
ĠĠĠĠĠĠĠĠĠĠĠĠĠĠĠĠ ĠĠĠĠĠĠĠĠĠĠĠĠĠ
æķĻåŃ¦ æķĪæŀľ
å¼Ģåıĳ äººåĳĺ
Ġ ä½ľèĢħ
Ġex ternal
æ´» æ³¼
åŁºæľ¬ çĲĨè®º
åħ·ä½ĵ æĥħåĨµ
Ġhyp oxia
è§ĦåĪĴ çº²è¦ģ
Ġob tain
éĻ Į
10 9
éĶ Ī
åĵĪ å°Ķ
ç¨Ģ ç¼º
s ub
Ġcyt otoxic
æķ¦ çħĮ
åħļçļĦ æī§æĶ¿
æĬķèµĦ åĴĮ
t aneous
ä¸īä¸ª éĺ¶æ®µ
åıĮæĸ¹ çļĦ
æĬĽ å¼ĥ
åħ¨éĿ¢ æıĲé«ĺ
è®¤è¯Ĩ çļĦ
é»Ħæ²³ æµģåŁŁ
åľ¨ è®¸å¤ļ
åħļçļĦ åħ¨éĿ¢é¢Ĩå¯¼
åīĬ åĩı
çļĦ ä¸Ńå¿ĥ
ç»ıæµİ åĪ©çĽĬ
æ¯ķä¸ļ è®ºæĸĩ
å®īåħ¨ éĹ®é¢ĺ
å¼Ĥ æŃ¥
æĲŀ å¥½
ĠC are
ç¼º æ°§
is p
ä¸Ģ çĶŁ
Ġprot ection
çļĦ ç¡®
åıĳå±ķ è¿ĩç¨ĭä¸Ń
Ġ ...
è¥¿ åŁŁ
ç¡« éħ¸
Ġdist ance
ä¾§ éĿ¢
æ±ĩ ç¼ĸ
åħ¬æ°ĳ çļĦ
Ġ20 19
æł¸èĭ· éħ¸
Ġax is
ä¸Ń åŃĺåľ¨
ä¸¥éĩį å½±åĵį
è¡Įä¸ļ åįıä¼ļ
å®ŀçĶ¨ æĢ§
åħ¨éĿ¢ åľ°
çŃĳ çī¢
Ġcl ose
çĭ¬ç«ĭ äºİ
éĹ®é¢ĺçļĦ èĥ½åĬĽ
çļĦ éĩį
ç®Ģ æ´ģ
çŃī æĸ¹æ³ķ
äºĮ æŀģç®¡
ting u
åºĶ è¿Ĳ
artic ip
å®ŀè·µ åĴĮ
ä¸Ģ ä¹Ŀ
çĸ ¡
s ection
æĥħå½¢ ä¸ĭ
æĺİç¡® è¦ģæ±Ĥ
S N
ĠS chool
å± ¯
äº§çĶŁ å½±åĵį
å¢ŀéķ¿ éĢŁåº¦
åıĳå±ķ æ¨¡å¼ı
ä¸Ń è¢«
çŃī æİªæĸ½
æķĪ åĬĽçļĦ
Ġcomp r
Ġaut ophag
å¯¹ æľ¬
æĬĢæľ¯ çłĶåıĳ
ä»įçĦ¶ åŃĺåľ¨
æĪĸ å¤ļ
ç»ıèĲ¥ æ´»åĬ¨
æ´ª æ°´
æľī æ²¡æľī
ä¸» å¹²
æİ¨ å´ĩ
èĨľ çļĦ
Ġ20 21
çļĦ é¢Ĩå¯¼
ph yl
å¤§ æ¦Ĥ
Ġst e
åı£ å¾Ħ
è¿Ŀæ³ķ æīĢå¾Ĺ
æĸ° é²ľ
ä»İèĢĮ ä¸º
Ġadj usted
éģĵ å®¶
åıĹ éĻĲ
æĪĲ å¹´
éĹ¨ ç±»
g ree
æĭ ·
ĠC hem
AC S
åįĴ ä¸Ń
è¿ŀ éĶģ
Ġcent er
æ·± åıĹ
éĺĲ æĺİäºĨ
æľĢæĹ© çļĦ
ç¨³ æĢģ
å®ľ å±ħ
ĠGerm any
Ġasth ma
ä¹ĭ ä¸ĬçļĦ
å¼Ģåıĳ åĮº
æĪĲ è´¥
Ġm L
Ġb ase
æıĲ è´¨
Ġag ing
Ġimplement ation
olec ular
åħ¬åı¸ ç«łç¨ĭ
ĠE D
åĴĮ è´¨éĩı
ç®¡ åħļ
Ġvess el
è¾ĥ çŁŃ
Ġpro p
è¿Ļ è¯´æĺİ
ber g
åħħåĪĨ è°ĥåĬ¨
Ġagree ment
åĴĮ å°ı
æĶ¶ æķĽ
çĽĳçĿ£ æ£ĢæŁ¥
Ġal most
åºĶçĶ¨ åĪ°
Ġfem ales
å¿ĥ å®¤
æ£ ĺ
ĠI D
è®¾è®¡ äºĨ
éĴĪå¯¹æĢ§ åľ°
ĠS e
æİĴ æ°´
Ġmi RNA
Ġrecur rence
çļĦ å°±æĺ¯
éĢļ é£İ
æľº èĥ½
æĬĢæľ¯ æīĭæ®µ
è§Ĩ åĬĽ
ä¹Łæĺ¯ ä¸Ģç§į
å¹³ æ°ĳ
ä¸İ åģ¥åº·
åĨľä¸ļ ç§ĳæĬĢ
ĠAcc ording
æ³¨åĨĮ ä¼ļè®¡å¸Ī
ä¼Łå¤§ å·¥ç¨ĭ
åħĳ æį¢
çĽ¸è¾ĥ äºİ
æĪĲåĳĺ çļĦ
w as
åħ³ åĪĩ
äºº æĪĸ
çĶŁæ´» è´¨éĩı
b ly
ä¸º åŁºæľ¬
er b
æķ´ å¥Ĺ
åĽ½å®¶ åħ¬åĽŃ
èĤ¡ ä»·
æģ ¨
ç®Ģ ä¾¿
er ior
ç»Ł é¢Ĩ
è¯¾ åīį
åħī çħ§
ç¤¾ä¼ļ åħ³ç³»
ä¿ĿæĮģ åľ¨
éĽĩ åĳĺ
éĹŃ çİ¯
Ġprim arily
åıĳ æĶ¹
ä¸Ĭ åİ»
Ġpresent ation
ĠS w
cl es
åĮ® ä¹ı
æĪĸ ä¸ªäºº
A E
æĬ½è±¡ çļĦ
ĠS up
çļĦåıĳå±ķ æĢĿæĥ³
å¿ħçĦ¶ ä¼ļ
ĠP K
åŁºäºİ æŃ¤
Ġno ise
åģļ å¼º
å¹¿å¤§ äººæ°ĳç¾¤ä¼Ĺ
t r
èĩª éĢĤåºĶ
èİ· çĽĬ
Ġmain tain
å±ı å¹ķ
åĲĦä¸ª é¢ĨåŁŁ
çļĦ èĥ½éĩı
åįİ ä¸º
form s
Ġneuro de
Ġ201 8
åĩĿ è¡Ģ
Ġmed ication
çłĶ åĪ¤
åħ·ä½ĵ èĢĮè¨Ģ
us es
Ġinf arc
ros pective
åĶ¯çī© åı²è§Ĥ
çļĦ å¼ºå¤§
æĪĲ äº¤
æľĢ å¤ļçļĦ
10 3
N ature
æĶ¿ åħļçļĦ
ç«ĭ é¡¹
æµ ´
Ġcirc ulating
ä¼ļè®¡ ä¿¡æģ¯
ä¿ Ń
å·¥ ä»¶
Ġth yroid
Ġne g
åħ¬ ç§ģ
çĽ´æİ¥ æĪĸéĹ´æİ¥
B IM
äº¤æĺĵ æĪĲæľ¬
æĪĺçķ¥æĢ§ æĸ°åħ´äº§ä¸ļ
åĩºåıĳçĤ¹ åĴĮ
ä¸º ä¹ĭ
ĠB o
çļĦ æľīåħ³
äº§ä¸ļ åıĳå±ķçļĦ
unc tional
éķ¿ å®ī
æ¸¸ å®¢
Ġw ound
åĮħ åĽ´
åĬł æĿĥ
éī´ èµı
ç§¦ æ±ī
æĮĩå¯¼ åŃ¦çĶŁ
çĲĨå¿µ åĴĮ
Ġbehavi our
ĠP ET
åĵ ®
ç»ıæµİ è¿Ĳè¡Į
ç§ĳåŃ¦ åĮĸ
è¯ķ çĶ¨
çºµ è§Ĥ
C u
åľ¨ åħ·ä½ĵ
ä¸į åĪĨ
èĥ½ æķĪ
åħ¶ æł¸å¿ĥ
Ġn ational
ç®¡çĲĨ åĳĺ
âħ ¢
å½ Ŀ
äºĴ ä¸º
Ġdis tingu
æ·±åħ¥ çļĦ
åľ¨ å¤ĸ
ä½Ĩ è¿Ļç§į
èĥ¡ éĶ¦
æĹł ä¸į
æĹ¢ åı¯ä»¥
çļĦ å¥½
Ġcol le
p m
åįł æĢ»
å°Ķ æĸ¯
æľĪ èĩ³
on ance
å°Ĩ ç»§ç»Ń
t ely
æ¬ł ç¼º
åĲ¬ è§ī
åįĹ éĥ¨
ä¸Ģ éĿ¢
æĦı å¢ĥ
åĽłç´ł çļĦå½±åĵį
åĽĽ é¡¹
St ud
èĥ½åĬ¨ æĢ§
Ġmechan ical
æĤ¬ æµ®
ç½ª çĬ¯
åį³ä½¿ æĺ¯
ä¿¡æģ¯ æľįåĬ¡
lud ing
æ¸ħæ¥ļ åľ°
ç«ŀäºī ä¸Ń
åįıåĲĮ åĪĽæĸ°
ĠH z
Ġde ep
åĩ ¹
æİĴæĶ¾ éĩı
æĹ¢ åĮħæĭ¬
åį± åıĬ
Ġmin im
åĭ ¿
æĸĩåĮĸ ä¸İ
ob acter
od ds
Ġrec ording
è¾ °
1 12
è¡¨ ä¸Ń
åħ¬ ç§¯
Ġ5 5
æ£ī èĬ±
Ġcompound s
åĶ¯ å¿ĥ
éķ Ģ
æľ¬æĸĩ å°Ĩ
Ġunc lear
10 2
é¾Ļå¤´ ä¼ģä¸ļ
åıĺ åİĭ
è¾ĥ å°ıçļĦ
åĢºæĿĥ äººçļĦ
Ġmor b
Ġp y
çĶŁäº§ æĢ§
å¤ª å¤ļ
åĶ¯ æľī
æ¿Ģ è¿Ľ
c ut
è¦ģ ä¹ī
çŃī éĥ¨éĹ¨
è¿Ļæł· æīįèĥ½
erc ul
^ )
æļ ¨
Ġan tic
ä¹ĭä¸Ģ æĺ¯
ä¼Ĺ å¤ļçļĦ
åįĬ å²Ľ
Ġtransi tion
ä¾Ŀèµĸ æĢ§
çļĦ æķĪçİĩ
æĥ³ åĪ°
åĩı çģ¾
çļĦäºº åĬĽ
åħµ åĬĽ
v ol
Ġn odes
æī© åħħ
çīĽ é¡¿
y loid
Â· Â·
åĪĽéĢłæĢ§ åľ°
åĽŀ èĲ½
Ġcyt ometry
åı¯ æľī
æī¿ è¿Ĳ
Ġf av
çİĩ è¾¾åĪ°
Ġsign s
Ġrel ation
æł¹æľ¬ ä»»åĬ¡
ä¹ĭ è¯ī
åĪ©çĶ¨ æķĪçİĩ
åĲĪåĲĮ æĹłæķĪ
form ed
åĬ³åĬ¨åĲĪåĲĮ æ³ķ
éĿ¶ çĤ¹
Ġcruc ial
èĢĮ è¿Ļ
æ¸ħ æĶ¿åºľ
åĮº ä½į
åĽ° æĥĳ
åĸ ī
æ¢Ĺ æŃ»
åĬŁèĥ½ æĢ§
è·¯çº¿ åĽ¾
ç¬¬ ä¸Ģç§į
æŃ¤ å¤Ħ
Ġl anguage
å¯¹ ä¸įåĲĮ
æ¼Ķ åĩº
å¹¶ çĶ±
æ°ĳä¸» éĽĨä¸Ń
æĸ¯å¤§ æŀĹ
æĺ¯ åħļçļĦ
åĨĽ éĺĢ
æ·±åĪ» è®¤è¯Ĩ
æĺ¾èĳĹ æıĲé«ĺ
åħ¬åħ± ç®¡çĲĨ
éģĵè·¯ ä¸Ĭ
ç« ĸ
Ġn am
éĢļè®¯ ä½ľèĢħ
è¿ĩ äºĨ
ä»¥ä¸ĭ æľīæľŁå¾ĴåĪĳ
Ġcyt os
Ġ --------------------
i ent
è¯ģåĪ¸ å¸Ĥåľº
ä¹³ èħºçĻĮ
åħ¶ åİŁåĽł
è£ ¸
äººæīįåŁ¹åħ» æ¨¡å¼ı
æºĥ çĸ¡
çļĦ æĢ»ä½ĵ
Ġset s
Ġcompar ing
ç´§ç´§ åĽ´ç»ķ
ç»ıèĲ¥ æĢ§
èĥ¡éĶ¦ æ¶Ľ
Ġ3 9
éħ° èĥº
åģĩ è¯´
Ġ @
å¾Ģå¾Ģ ä¼ļ
åħ¥ éĢī
äºº éģĵ
ä¸ļ çķĮ
ä¸İ åĬ³åĬ¨èĢħ
åħ¬åħ± æĸĩåĮĸ
Ġclin ic
Ġ åĽ¾
ç®¡çĲĨ å±Ģ
åľ¨ å½ĵæĹ¶
åħ³éĶ® æł¸å¿ĥæĬĢæľ¯
è½» åº¦
æķĻ åĮĸ
ĠM ethods
æ¯ı ç§į
å·¥ç¨ĭ é¡¹çĽ®
æľī èĥ½åĬĽ
æ·±åħ¥ å®ŀæĸ½
çĻ¾åĪĨ ä¹ĭ
çļĦéĩįè¦ģ ä½ľçĶ¨
å£° èªī
å¤įåĲĪ æĿĲæĸĻ
å°ĸ éĶĲ
Ġbar s
å¤ļ å¾·
ĠM ost
çŀ Ħ
ĠH D
è± ģ
æķĻåŃ¦ æĶ¹éĿ©
Ġres ources
å¾ĹåĪ° æľīæķĪ
ç¬¬ä¸Ģ ä½ľèĢħ
æ©¡ èĥ¶
æĻ®éģį çļĦ
åħ¨ çĶŁåĳ½åĳ¨æľŁ
ç¢³ æ±ĩ
æĸĩåĮĸ äº¤æµģ
éĩįçĤ¹ æĺ¯
åľ¨ æ²¡æľī
çĶ¨ æ³ķ
å¸Ĥ æĶ¿
iti vely
ĠCh ild
em ber
ä½Ĩ ä»į
æĮģç»Ń æĹ¶éĹ´
è´Ń çī©
æľī ä»¥ä¸ĭ
ad s
åħ¨ æĦı
å°± æĪĲä¸º
è¡Įä¸º åĴĮ
çĽ¸ éĢļ
ä¼ļè®¡ æł¸ç®Ĺ
se q
é£Ł ç®¡
å½ķ åĥı
åĿļå®ŀ åŁºç¡Ģ
çĶŁçī© å®īåħ¨
è¾¹ åĮº
äºĭ åīį
ç»ĵæŀľ æĺ¯
èĪĴ éĢĤ
Ġeff ectiveness
IP åľ°åĿĢ
anc ial
åī¯ æľ¬
è¦ģ å»ºç«ĭ
èĥ½ éĩıçļĦ
å½¢æĢģ çļĦ
Ġsi RNA
èĨ ³
ä¼ļ è¯Ŀ
åĨĻ éģĵ
æľ¬ç§ĳ çĶŁ
éĩİçĶŁ åĬ¨çī©
ç¤¾ä¼ļ åĬĽéĩı
æĬĹ èıĮ
Ġresist ant
çŃī åĽ½
Ġmul tiv
Ġcont ain
å¼Ģå±ķ çļĦ
ific ations
åŃ¦ ä¸İ
é«ĺ æ½®
æĦ ļ
å¤ĦçĲĨ åĴĮ
ä¸»è¦ģ ä¸º
è´§å¸ģ çļĦ
æ··åĲĪ æīĢæľīåĪ¶
ä¸ºäººæ°ĳ æľįåĬ¡
Ġdiet ary
Ġmain tained
æķĻ æĿ¡
åħļ æĢ§
æĸ¹æĸ¹éĿ¢ éĿ¢
ospit als
åĪĿå¿ĥ ä½¿åĳ½
ä¸į è¢«
åıĳçİ° åĴĮ
æĪĸ å¤ļä¸ª
åĬ³åĬ¨ çĶŁäº§çİĩ
å®ģ å¤ı
Ġhep atitis
åı¯ æī©å±ķ
ä¸ī é¡¹
æĶ¯ åĩºçļĦ
Ġchrom osome
z ing
çº¦ ç¿°
ok ine
åºĶå½ĵ ä¾Ŀæ³ķ
éĢĲæŃ¥ å½¢æĪĲ
çŃ¹ éĽĨ
å¤ļåħĥ åĮĸçļĦ
sy n
å¯¹ èĩªå·±
åİĨ æĹ¶
Ġ200 6
ste ad
Ġo varian
èĢĥ è¯Ħ
åħĥ ä»£
çĽĳ çĲĨ
Ġsup pression
å¯¹ è¢«
Ġwh ose
Ġdevelopment al
çİ° è¡ĮçļĦ
èĻ Ĳ
äº§ä¸ļ åįĩçº§
å¿ĥèĦı çĹħ
ç®¡çĲĨ æľºæŀĦ
å¦Ĥæŀľ ä½ł
èŀįåĲĪ çļĦ
å®½ åº¦
ä¸Ģ åĿĹ
èµĦæĸĻ çļĦ
æľī ä¸Ģç§į
æ¯Ķ å¯¹
æķĻåŃ¦ è¿ĩç¨ĭä¸Ń
å¤§ èµĽ
åŁº çº¿
åĨľæĿĳ åľŁåľ°
æ¸¸ ç¦»
å¯ĨåĪĩ èģĶç³»
ä¸Ń å¾ĹåĪ°
ä¹Ł ä¸İ
çİĭ æŁĲ
| |
æĺ¯ é©¬åħĭæĢĿä¸»ä¹ī
ĠSec ond
ç½ª åĲį
çĨ ¹
çļĦåŁºç¡Ģ è®¾æĸ½
è£ Ķ
çļĦåŁºç¡Ģ æĢ§
äºĴèģĶç½ĳ éĩĳèŀį
æģ¯ æģ¯
åħ¨å¿ĥ åħ¨æĦı
ĠH PV
æ¯Ķ åĸ»
ĠIntern ational
åĮ» åĬ¡
Ġanalys ed
ï¼Į "
Ġcompos ition
Ġw r
çĳŀ åħ¸
çĽ¸ å·®
æĪĸ æľįåĬ¡
æľī åģ¿
è´Ń æĪ¿
éĹ´ éļĻ
éļĲ çŀĴ
çº¯ æ´ģ
éĺ¿ éĩĮ
å¯¹ åħ¬åı¸
å®īåħ¨ æĦŁ
Ġde ple
æĪª æŃ¢
ä¸įèĥ½ æ»¡è¶³
éĻįä½İ æĪĲæľ¬
____ ____
ä¸Ģ å¯¹
åģı ä½İ
2 20
æĮ ł
æ¯Ķ åĢ¼
å°ģ éĶģ
çľĭä½ľ æĺ¯
Ġ å½ĵ
Ġthick ness
åħ¶ ä¸İ
åħ·æľī è¾ĥå¼ºçļĦ
ä¸ĸçķĮ ä¸Ģæµģ
çĳ Ł
ten ance
ç²Ĵ ç»Ĩèĥŀ
æĭĽ åķĨ
è¿ĺ æĺ¯åľ¨
é©± åĬ¨åĬĽ
Ġenzym es
éĵ ĥ
çĽ´ èĤł
ä½ĵ è´¨
æīĢ å½¢æĪĲçļĦ
å¥¥ è¿Ĳ
éĢĤçĶ¨ çļĦ
æİ¨å¹¿ åºĶçĶ¨
ç§¯æŀģ ä¸»åĬ¨
æĻ®éĢļ é«ĺä¸Ń
gl ia
åİĨåı²æĢ§ æĪĲå°±
çĲĥ èıĮ
10 8
èĮ İ
äºĨ è®¸å¤ļ
èĦĤ è´¨
æ³¢ å½¢
å¤§ æľī
åĮĸ åĲĪ
Ġchem ical
æĻ¶ä½ĵ ç®¡
åº· çĨĻ
a ren
ç¬¬äºĮ æ¬¾
Ġapp arent
èĢĮ æĺĵ
åĽĽ æĿ¡
ĠH igh
ar r
Ġaccur ate
æģ© æĸ¯
åĩ ĳ
å¼ ĵ
ä¸į å®ĮåĸĦ
å¯Ĩ å°ģ
æĶ¾ å®½
åįķ çīĩ
åĨľä¸ļ çļĦ
Ġpl an
æĮĩæłĩ çļĦ
è¿Ľ åŁİ
Ġacc omp
å±ķçİ° äºĨ
çĲ ¼
çŃī åİŁåĽł
ä¸»å¯¼ ä½ľçĶ¨
å¢ŀ çĽĬ
ç§ģ åĭŁ
Ġsepar ate
éŁ³ é¢ĳ
æĬĢèĥ½ çļĦ
å®ŀ æĪĺ
éľ ŀ
all el
ä¸ĭ è°ĥ
æĪĳä»¬ å°±
itud inal
æľīéĻĲè´£ä»» åħ¬åı¸
åĨľæĿĳ å±ħæ°ĳ
éĢļ è¯Ĩ
éĹ² ç½®
ç©¿ éĢı
å¯Ħ çĶŁ
Ġprob e
åı¯çĶ¨ æĢ§
Ġun its
çĽĽ è¡Į
è¡¨ è±¡
éĩĳ çłĸ
å¾Ĺ çļĦ
ch ron
Ġcont in
SP R
æľŁ æľ«
S m
å·¥ç¨ĭ çļĦ
å¹¿ åº¦
æ¡Ĩæŀ¶ ä¸ĭ
11 5
æ»¤æ³¢ åĻ¨
le uk
R ed
æ³ķæ²» æĶ¿åºľ
ĠEn g
Ġse iz
æ³ķæ²» åĽ½å®¶
T OR
åħ¬ é¡·
é¹ ¿
Ġfib roblasts
ä¸įåı¯ æĽ¿ä»£
åĪ¶ æĪĲ
ĠH F
ĠA I
Ġcathe ter
æĪĳ æł¡
åı² è®°
Ġ( âĪĴ
æ¶Īè´¹ éľĢæ±Ĥ
M G
å¾· åĽ½çļĦ
åĪĨ éĩı
Ġapp e
å¤įåĲĪ çī©
è§£åĨ³éĹ®é¢ĺçļĦ èĥ½åĬĽ
Ġv enti
æĺ¯ çłĶç©¶
Ġsumm ar
as al
åīĤ çļĦ
Ġinter f
ĠS uch
ï¼Ĥ ï¼Ĥ
åĲĪä½ľ åŃ¦ä¹ł
åĲİ åĭ¤
æĢĿæĥ³ éģĵå¾·
çĽĳç®¡ éĥ¨éĹ¨
æ¨¡åĿĹ åĮĸ
æľĢ åŁºæľ¬
ä¸İ æİ§åĪ¶
å§ Ĳ
press ing
Ġprospec tive
ç»ıèĲ¥ ä¸»ä½ĵ
." [
11 6
è¿Ļå°± éľĢè¦ģ
or gan
Ġg ain
å¿« æį·
é©¬ æĸ¯
ĠN P
til ity
Ġ200 7
æİ¨ ç§»
an o
ĠS erv
çļĦçłĶç©¶ äººåĳĺ
Ġpredom inant
çłĶç©¶ æĬ¥åĳĬ
10 7
å¤ļ æĸ¹éĿ¢çļĦ
æ· «
Ćć ą
Ġcap ture
ov irus
Ġstreng th
ä¼ĺåĬ¿ åĴĮ
Ġdyn amic
è¥¿æĸ¹ çļĦ
éŀ ĭ
æķĻå¸Ī éĺŁä¼į
ç§»åĬ¨ éĢļä¿¡
æıĲä¾Ľ ä¸Ģä¸ª
all ing
å¤ı åŃ£
åħĪ åīį
çĶµåŃĲ ä¿¡æģ¯
æł¸ æŁ¥
ä»£è¡¨ çĿĢ
ä¸įåı¯ åĪĨ
ä¼ļ åıĳçĶŁ
åĽ½å®¶ èĩªçĦ¶ç§ĳåŃ¦åŁºéĩĳ
æĿİ æŁĲ
åĽ½æ°ĳ æĶ¿åºľ
198 1
é¢Ĩ åĨĽ
A t
çļĦå®īåħ¨ æĢ§
act in
æĭ ±
çģ ¿
èĢģ åĮĸ
ä»»ä½ķ æĹ¶åĢĻ
en in
çŃī åħ¶ä»ĸ
èģĮä¸ļ çĹħ
æ³ ³
ud e
ĠG C
å¼Ģå§ĭ çļĦ
Ġcontrib ution
Ġultras ound
æĢĿèĢĥ é¢ĺ
æĹ¶ åºı
éĥ½ åºĶ
çļ ĸ
Ġev olution
çĶ²åŁº åĮĸ
ocl onal
å¾ªåºı æ¸Ĳè¿Ľ
çĿĢ éĻĨ
æĥħåĨµ è¿Ľè¡Į
ĠN on
å°ıåº· ç¤¾ä¼ļçļĦ
ä¸Ńåįİäººæ°ĳåħ±åĴĮ åĽ½æ°ĳ
% (
åĲĮ è´¨
yp er
ill ance
åı¯ä»¥ æıĲé«ĺ
æĺ¯ å®Įåħ¨
Ġc ry
åģı åĲĳ
ĠDep artment
æ·±åĪ» åľ°
çŃ Ĵ
âĢĿ ,
åºĦ åŃĲ
æĶ»åĿļ æĪĺ
æľ¬èº« å°±æĺ¯
çĽ´ è§ī
å·§ å¦Ļ
erv ical
åŀĭ åĴĮ
çļĦ åħ¨éĥ¨
ol ip
éº» éĨī
è¯Ħ è®®
Ġad op
O ur
er o
åĪĨ ä¹ĭä¸Ģ
èĩªä¸» æĢ§
Ġp ediatric
èĢĮ äº§çĶŁ
ç²¾åĩĨ æī¶è´«
19 56
å¦¥ åįı
ä¾ į
Ad ditional
çĽ¸ åĮ¹éħį
åħ³éĶ® çİ¯èĬĤ
æĺ¯ å¾Ī
åħħåĪĨ ä½ĵçİ°äºĨ
ä¸ŃåĽ½çī¹èī²ç¤¾ä¼ļä¸»ä¹ī è¿Ľåħ¥æĸ°æĹ¶ä»£
çļĦä¸Ģèĩ´ æĢ§
å·¥ åķĨä¸ļ
ä¸İ ç¾İåĽ½
Ġpro gen
ä¾Ŀ æĹ§
Ġsim ultaneous
at he
åĬ¡ å¿ħ
IO N
æŁĲç§į ç¨ĭåº¦ä¸Ĭ
ä¹ĭéĹ´çļĦ èģĶç³»
æĽ´ éľĢè¦ģ
Ġprog ress
é¢ģå¸ĥ çļĦ
åį° è¯ģ
Ġsmall er
Ġcateg ories
FP ar
æ±ĩ éĽĨ
Ġim plicated
Ġout put
^âĪĴ/âĪĴ ^
å¤´ éĥ¨
æľī ä½ķ
çłĶç©¶ å·¥ä½ľ
åıĳå±ķçļĦ éľĢè¦ģ
R D
æıŃ éľ²
at ch
è¯Ħä»· çļĦ
Ġj ust
æ¿ Ĵ
è´£ä»» æĦŁ
ä¼Łå¤§ äºĭä¸ļ
éĢĲæ¸Ĳ æĪĲä¸º
ä¸Ģ ä¸Ģ
ç«ŀ ä¸ļ
çĽ¸ä¼¼ çļĦ
Ġvari ance
çĹħ èĻ«
çŃī ä»·
è§Ħæ¨¡ åĴĮ
æĶ» åħĭ
è¿ľ æĻ¯
çĶŁ æŃ»
ç»Ħ åŃ¦
èµĦæºĲ çİ¯å¢ĥ
Ġexist ing
æĿĥ å±ŀ
æĶ»åĩ» èĢħ
ç¨³ å¦¥
å¦Ĥæŀľ æĺ¯
çĭ¬ ç§Ģ
am ide
äºĶ ç§į
ä¸į è´Ł
ä¸įåĲĮ ç¨ĭåº¦çļĦ
éŃ Ķ
æķ£ æĸĩ
èī² çļĦ
m ol
ä¹Ł ç§°ä¸º
Ġv es
éĤ ĳ
è¡Į åĪĹ
åħĥ å¹´
Ġimmun os
ä¸º ä¸ĸçķĮ
W indows
èĬ Ĵ
ens us
ä¸į æĪĲ
ä¸ºä¸» é¢ĺ
or al
Ġsel ective
çļĦ æĮĳæĪĺ
Ġmid dle
åģļ åĩºçļĦ
Ġ enter
åľ¨ ä¸Ĭæµ·
è¿ĳ çİ°ä»£
ĠCom p
åĪĩ èº«
å¯¹ åħ¶ä»ĸ
Ġdef ects
çĻ½è¡Ģ çĹħ
æīį èĥ½å¤Ł
çľŁ çĽ¸
Ġfollow s
åıĹ è®©äºº
åĽĽ åĨĽ
åĭ ī
Ġprol ong
12 3
åįķ ä½ĵ
é² į
ç®¡è¾ĸ æĿĥ
åŁİå¸Ĥ å»ºè®¾
çªģçł´ äºĨ
ä¿¡æģ¯åĮĸ å»ºè®¾
äºº èĦ¸
çļĦäºº çĶŁ
ç¿» è½¬
èĭ¥å¹²éĹ®é¢ĺçļĦ è§£éĩĬ
çĶµ ç¦»
ä¼¦çĲĨ åŃ¦
åĲĮ çº§
æķ° åįĥ
åħ±äº§ åħļçļĦé¢Ĩå¯¼
æ¸ħæĻ° çļĦ
æĦı åĲĳ
åĮĹ æŀģ
ä¸İ çİ°å®ŀ
èļ ķ
Ġserv ice
ä¸ĵä¸ļ äººæīį
Ġprin cip
ĠC an
çľĭ èµ·æĿ¥
ip s
Ġpos terior
éĢĤåĲĪ äºİ
ä»ħ éĻĲäºİ
ç§ģ æ³ķ
cl inical
çĶŁæ´» åľ¨
çĽĳç®¡ æľºæŀĦ
Ġsk ills
åħ¨çĲĥ æĢ§
æĶ¾ å¼Ģ
ä¸į èµ·
ç» ŀ
Ġrem aining
åħ¶ ä¸º
èĩª ä¸ĬèĢĮ
åį¡ å°Ķ
L O
åĪ¶ åĨ·
æĪ Ĭ
ec utive
å¸Ĥåľº ä»·æł¼
ell ow
Ġap plic
ä¸¤ æŀģ
çļĦ æĸĩç«ł
Y P
æ¼ Ĩ
å®ļ åĬĽ
çªģ è§¦
æĶ¿æ²» çļĦ
æĬĵ ç´§
Ġd op
Ġaff ects
Ġdown stream
åĿ İ
æĪĲä¸º åı¯èĥ½
ä¸Ģ ç»Ł
è¿ĻäºĽ éĥ½
å®¶ åħ·
Ġd raw
Ġ9 6
å¹³ å®ī
åĽ¢ç»ĵ å¥ĭæĸĹ
Ġmanufacture r
çļĦ çĽĳçĿ£
æĺ¯ ç¾İåĽ½
( \
æ¡Īä¾ĭ åĪĨæŀĲ
è½® å»ĵ
Ġspect rum
åľ¨ ä¼łç»Ł
Ġc ir
æĪ ļ
éĻ Ģ
å®ĮæĪĲ åĲİ
å¹´ ç¾İåĽ½
å¾Ī ä½İ
Ġdele tion
åĲĪ ä¹İ
æĢ§ åľ°
æķĻåŃ¦ æĸ¹å¼ı
åŃ¦ç§ĳ å»ºè®¾
åģ¥ èº«
è¿ŀæİ¥ çļĦ
æķĻ ç¨ĭ
oc rine
ç»´æĬ¤ åĽ½å®¶å®īåħ¨
éĻĦ ä»¶
å½°æĺ¾ äºĨ
æ¡ ¶
æľª å¿ħ
é¢Ħ å¤ĦçĲĨ
èĥĨ åĽºéĨĩ
æķĻèĤ² æĺ¯
åħ³ç³» ä¸Ń
ĠS EM
æĺ¯åĲ¦ ç¬¦åĲĪ
çĹ °
åħ³éĶ® ä¿¡æģ¯åŁºç¡Ģè®¾æĸ½
Ġdevi ation
éķ¿ çŁŃ
åĬłå¼º äºĨ
è¯¯ åĮº
Ġst aff
è®¾ç«ĭ äºĨ
Ġsubstanti al
çļĦ è¯ĬæĸŃ
Ġad equ
ap se
çļĦ è¡ĮåĬ¨
æľ¬æ¡Ī ä¸Ń
ä¸ĸçķĮ è´¸æĺĵ
éķ į
Ġsens ory
éķ¿ æ²»
æ± Ģ
å¦Ĥ å®ŀ
å¼º åĨĽ
ä¸Ģ ä¹¦ä¸Ń
re es
èī ĺ
Ġep is
æł¡ åĨħ
åºŁ æ°Ķ
Ġdisplay ed
é¦ĸ æī¹
ĠE d
Ġli ving
äºº åı¯ä»¥
ç¤¾ä¼ļ åħ¬ä¼Ĺ
Ġmal es
Ġcont ains
å¡« åħħ
éĹ®é¢ĺ è¿Ľè¡Į
çĭ Ħ
èģĺ è¯·
Ġphen omen
? ?
æĬĢæľ¯ äººåĳĺ
æķ°æį® èµĦæºĲ
è¯¥ ç±»
åįĹåĮĹ æľĿ
å¹¶ ä»İ
ç¯ Ĩ
æľīåĬĽ åľ°
æĸ ĭ
Ġ }
çļĦ èĥĮæĻ¯ä¸ĭ
æĸ¹ åı¯
æīįèĥ½ å®ŀçİ°
ect ing
æľªæĪĲå¹´ äººçļĦ
ä¸ĢèĪ¬ è®¤ä¸º
æĶ¾ åĪ°
Ġdi ameter
å°± ä¸įä¼ļ
æ°ĳéĹ´ åĢŁè´·
ĠM ean
T i
ä»ĸ è¿ĺ
èģĶ éĢļ
é£İ éĽ¨
ãĢĤâĢĿ [
æ°ĳæĹı ä¸»ä¹ī
Ġrob ust
G IS
11 1
ord er
åħ¬å¸ĥ çļĦ
ri ent
ä»¥ èĩ³äºİ
Ġne ar
éĻĨ åĨĽ
æĥħèĬĤ ä¸¥éĩįçļĦ
çļĦäºº æł¼
æĮª çĶ¨
èĮĥåĽ´ åĴĮ
Ġcoun ter
äºĮ æĪĺ
ç¢± åŁº
çĤ¹ æĺ¯
ines e
æ°´ åºĵ
æ¯ ĭ
ä¹Ł å¿ħé¡»
åħĭ æĸ¯
éķ¿ å®ĺ
c ancers
èº ¯
ä¿ĿæĬ¤ ä¸»ä¹ī
Ġrecogn ized
Ġrecruit ment
åĩ ¶
åĴĮ å»ºè®®
åľ¨ çłĶç©¶
èĥĮ ç¦»
åį±éĻ© åĽłç´ł
å¿ĹæĦ¿ èĢħ
æ³ķå®ļ ä»£è¡¨äºº
åľ¨ ä¸Ńå¤®
Ġ4 4
è¿½ åģ¿
åĢº æĿĥçļĦ
éħį çĶµ
ad es
æĿĤ è´¨
æ£Ģæµĭ åĪ°
åľ¨ åħ¶ä»ĸ
æĬķèµĦ èĢħçļĦ
æķĻå¸Ī åºĶ
V I
Ġse ems
ä¸Ń æĿ¥
ä¸Ģ çīĩ
æĿĲæĸĻ åĴĮ
å¼ķé¢Ĩ ä½ľçĶ¨
Ġb alance
ri tic
åħ¬å¹³ çļĦ
ĠAn ti
åĪĿ æ¬¡
èĥ¸ æĢĢ
çĶŁæĢģ ç³»ç»ŁçļĦ
Ġemploy ed
åĽ½åĬ¡éĻ¢ åħ³äºİ
is her
å£« åħµ
èĢĮ è¿Ļç§į
èĽĭçĻ½ çļĦ
Ġacc el
in ess
åľ¨ åĲĦ
åĪ¶ äºİ
åıĳå±ķ çĲĨå¿µ
ç»ıæµİ è¡¥åģ¿
åĸ Ĥ
éĤ£ æĹ¶
Ġtr ue
èŃ¬ å¦Ĥ
F s
Ġep ilep
Ġo d
ĠR el
ĠM AP
åĮĹ å¤§
L DL
çļĦ ç«ĭæ³ķ
Ġfrequ ent
) ^
è¿Ļæł· ä¸Ģç§į
å¹³åĿĩ æ°´å¹³
çĲĨå·¥ å¤§åŃ¦
åľ¨è¿Ļ æĸ¹éĿ¢
åİ» ä¸Ńå¿ĥ
Ġh ybrid
äº ¨
ãĢĭ ï¼ī
åħļçļĦ çĻ¾å¹´å¥ĭæĸĹ
åıĳå±ķçļĦ æĸ°
éĶģ å®ļ
g u
Ġeff iciency
Ġcharacteris tic
è¯´æĺİ ä¹¦
ä» ķ
Ġto m
åĪ¤ ä¾ĭ
åįķçº¯ çļĦ
éĹ®é¢ĺ å¯¼åĲĳ
Ġâ Ĩ
å±Ģ åŁŁç½ĳ
ä¹Łåı¯ä»¥ æĺ¯
çĽ¸éĢĤåºĶ çļĦ
çļĦ åĬ¨åĬĽ
Ġad mission
Ġdec line
ä½Ĩ è¿ĻäºĽ
åĿļæĮģ åħļçļĦé¢Ĩå¯¼
iz oph
Ġdiff er
V s
æµģ åĩº
çķľ ç¦½
çĨ ı
p atient
åıĳè¡¨ äºİ
çĤ Ĵ
Ġlig and
æħ ¨
cl os
æīĢ è¨Ģ
å¿ĥ å¾ĭ
Ġnec rosis
å¤±ä¸ļ çİĩ
æ¼« éķ¿
æ¨¡ æĢģ
åĪ©çĽĬ åĴĮ
åħħåĪĨ ä½ĵçİ°
T I
å ļ
åį³ ä»¥
çĶµæ±ł çļĦ
Ġdyn amics
ä¸Ģ å¹¶
å¿ħé¡» æĬĬ
åİŁ æ²¹
çİ°è±¡ çļĦ
åŃ©åŃĲ ä»¬
ĠE GFR
ç¬¬äºĮ å¤§
G D
å¹¶ æĬĬ
Ġ âĢĶâĢĶ
ç³ Ļ
ç« £
åī¥ ç¦»
åĪ» çĶ»
Ġc DNA
å¤ĩ åıĹ
CP I
å¹´ä»£ ä¸ŃæľŁ
åħ ľ
åĴĮ è¯Ħä»·
æŃ£ç¡® åľ°
æł¼ åħ°
ç§ĳåŃ¦ çĲĨè®º
Ġ4 1
izoph ren
ç¤¾ä¼ļ å·¥ä½ľ
Ġdef ine
Ġachie ve
Ġquestionnai re
æĺĨ èĻ«
å·¥åħ· çļĦ
æĪĸ ä»¥
èĬĤ æĹ¥
æİ¨åĬ¨ é«ĺè´¨éĩıåıĳå±ķ
Ġdecl are
ĠAn d
Ĉ ãĢģ
ä¸Ĭ è°ĥ
ä¸¾ ä¸ĸ
æ´Ľ éĺ³
è¿Ľè¡Į åĪĨç±»
é«ĺ ç²¾åº¦
å°± åı¯
orec tal
tion ed
åĬł å·ŀ
Ġim plications
é©±åĬ¨ çļĦ
Ġlarg ely
ç¤¾ä¼ļ çĶŁäº§åĬĽ
æİ¥åıĹ äºĨ
äºĴ æį¢
Ġk it
Ġpl us
Ġdem entia
è¯´ æĿ¥
æĮĩå¯¼ æĢ§
éħĴ åºĹ
åĴĮ æ²»çĸĹ
ï¼Ĥ ãĢģ"
Ġm il
ä»£è¡¨ åĽ¢
ç¬¬åĽĽ ç«ł
æĿ° åĩº
åĽ½ åħ±
âĪ Ĺ
åıĬ ä»¥ä¸Ĭ
æ¿Ģ éħ¶
çº ±
Ġphys icians
æ²Ī éĺ³
åĨĻ åĩº
ä¹ĭ ä¹ī
è¯¥ æĬĢæľ¯
è£ ¹
èĭı åĮº
å¤Ħ å¤Ħ
N i
ç»ĵ å±Ģ
ç§į è´¨
æİ¥ ç»Ń
Ġk g
çī©è´¨ æĸĩæĺİ
è¿Ļé¡¹ çłĶç©¶
èĢĮ å¥ĭæĸĹ
å®ŀéĻħ åºĶçĶ¨
çº¦æĿŁ åĬĽ
å¾ģ ç®¡
æĶ¾å¤§ åĻ¨
Ġmelan oma
h t
æľº ç»Ħ
Ġ å¤ļ
æŃ¥ èµ°
Ġindependent ly
å®ĥ å¯¹
åĪĹ åĩº
ä¸įåı¯éģ¿åħį åľ°
ä¸Ń èİ·å¾Ĺ
ä¹Ł åħ·æľī
le y
æİ¨åĬ¨ ä½ľçĶ¨
utis m
el ing
Ġk ill
ä¹ĭ äºī
èĩªçĦ¶ çİ¯å¢ĥ
åĬŁèĥ½ åĮº
è¯į çļĦ
æĴŃ æĶ¾
è¿Ŀæ³ķ çĬ¯ç½ª
è¯ĪéªĹ ç½ª
ati f
ch ange
åŁ¹èĤ² åĴĮ
ç±» ä¸ĵä¸ļ
Ġdiscus sion
ä¸Ĭ ä¼ł
äººæ°ĳ æĹ¥æĬ¥
ä»¥ æ±Ĥ
åĦ¿ å¥³
è¿Ŀ çºª
æıĲä¾ĽäºĨ æĸ°çļĦ
ä»¥ èĩ³
çĩĥ æ°Ķ
Ġbehavi ors
ĠE th
æķ´ä½ĵ ä¸Ĭ
è®¡ç®Ĺ æĸ¹æ³ķ
çĻ¾ å®¶
çĲĨ é¡º
Ġdev ices
æ±Ł å±±
çĽ¸äºĴ èģĶç³»
T rans
è¿Ļ éĥ¨
éĢĲæŃ¥ å®ŀçİ°
ĠInde ed
è¿ĻäºĽ æķ°æį®
èģĮä¸ļ åŁ¹è®Ń
ä¹ĭ éĹ®
æ°´ æĸĩ
ä¸Ńä¹ĭ éĩį
Ġspon taneous
Ġ ]
åĴĮ é£İéĻ©
åĢŁ çĶ¨
l ot
Ġb ronch
Ġcomple ted
éĢł å½±
æ³ķéĻ¢ çļĦ
ä¹Ŀ å¹´
çŀ© çĽ®çļĦ
Ġproduc t
æ²¦ ä¸º
å½¢å¼ı ä¸Ĭ
Ġmemb ran
çŁ¿ ä¸ļ
çľĭ çľĭ
åıĺå¾Ĺ æĽ´åĬł
a im
b il
åıªæľī ä¸Ģä¸ª
å¼ķå¯¼ åĴĮ
èĤº éĥ¨
çŀĦ åĩĨ
çĽ¸åºĶ åľ°
çĻ ¼
éľĢè¦ģ ä»İ
äº§ä¸ļ çļĦåıĳå±ķ
è¦ģ æ¯Ķ
çłĶç©¶ æľºæŀĦ
åħļ é£İ
ç§ĺä¹¦ éķ¿
ç¬¬ä¸Ģ æĿ¡
åŁºåĽł è¡¨è¾¾
ç±» æ¯Ķ
åĪĽéĢł æĿ¡ä»¶
è¿Ļ ä¸º
der ly
ä¸ºäºĨ è§£åĨ³
èĮ¶ åı¶
çĬ ¬
ç»Łè®¡ å±Ģ
Ġ åħ³äºİ
Intern et
å¾® æľįåĬ¡
å©ļå§» æ³ķ
äºº æľī
åı¯ä»¥ æĬĬ
se mb
åħī è¾ī
ä»·åĢ¼ è§Ĥå¿µ
é»ı èĨľ
çĶŁäº§ æĪĲæľ¬
æĬĬæı¡ å¥½
åĵ® åĸĺ
çļĦ é¢ĨåŁŁ
Ġreg en
ä¸Ńå¤® å§Ķåĳĺä¼ļ
æľ¬ æĿ¡
å®¹ å¿į
æİ¨è¿Ľ åĽ½å®¶æ²»çĲĨä½ĵç³»åĴĮæ²»çĲĨèĥ½åĬĽçİ°ä»£åĮĸ
æıĲåĩº è¦ģ
ä¸» åĬŀ
éĿ¢ç§¯ çļĦ
ä¸į æŃ¢
ĠV al
çĶ° åĽŃ
ä¸ºä»Ģä¹Ī è¦ģ
å¾ģ æľį
é¦ĸ åĪĽ
åıĳå±ķ æĺ¯
çļĦ è¯´æ³ķ
æľį çĶ¨
éĻĦ å¸¦
o oth
åŁİéķĩ å±ħæ°ĳ
Ġg el
éĻĦ çĿĢ
åħµ åĽ¢
ĠCom mittee
åįİ ä¸Ń
ä¸¤ä¸ª ä¸ĢçĻ¾å¹´
æł ĭ
ä¸°å¯Į å¤ļå½©
åĪĢ åħ·
åĲĳ çĿĢ
åķĨæłĩ æ³¨åĨĮ
æĹ¶ æīĢ
å»ºç«ĭ åĴĮå®ĮåĸĦ
val ent
èĬĤçĤ¹ çļĦ
it ch
an sion
Ġparen ts
åĴĮ å®ŀçİ°
äº§ä¸ļéĵ¾ ä¾ĽåºĶéĵ¾
æĹ¥ åħĥ
åįł åħ¨åĽ½
ene tic
æķ°æį® åŃĺåĤ¨
æĢ§ æĪĸ
ç³»ç»Ł è®¾è®¡
198 3
* \<
x x
æİ¥ è½¨
å®ļ åŀĭ
å¿ĥ ä¸Ń
çŃī è¡Įä¸ļ
y es
åĨ² åĬ¨
åĴĮ éĩįè¦ģ
Ġneurolog ical
ä¸Ģ æĿ¥
ww w
ä½Ĩ éļıçĿĢ
åºĶè¿Ĳ èĢĮçĶŁ
åľ¨ è®¾è®¡
Ġiniti ation
ä¼ģä¸ļ æĸĩåĮĸ
Ġcompar able
åºĶå½ĵ æĺ¯
è¿Ļä¸ª è¿ĩç¨ĭ
ä¸¤ä¸ª ç»´æĬ¤
æľī åĪ«
éĵ¶ å±±
åºĶå½ĵ åıĬæĹ¶
éĺ» æ»ŀ
æĸ¹ å½¢
è¶Ĭ æĺ¯
èĩ³åħ³ éĩįè¦ģçļĦ
åºĶå½ĵ æł¹æį®
Ġcompar isons
æĻ®æĥł éĩĳèŀį
éĽĨä½ĵç»ıæµİ ç»Ħç»ĩ
rif ug
M y
id ed
æĪĺçķ¥ çļĦ
åľ¨ ä¸ŃåĽ½çļĦ
ĠIn formation
å·¨ é¢Ŀ
........ ........
çĶ ľ
ä»¥ éĢĤåºĶ
ĠB D
ok ed
æĸ°ä¸ŃåĽ½æĪĲç«ĭ åĲİ
è° Ń
æĽ´ å¼º
åľ¨ æĸ°çļĦ
çĹķ è¿¹
é«ĺè´¨éĩı çļĦ
ç»©æķĪ èĢĥæł¸
æĲ¬ è¿ģ
çļĦ æĿ¡ä»¶ä¸ĭ
ä»·åĢ¼ ä½ĵç³»
Q u
ä¿ ĺ
æľºæŀĦ æĶ¹éĿ©
çī©çĲĨ åŃ¦å®¶
å¹³ æ»ĳ
ä¸į åºĶè¯¥
um ents
is es
æĺİ æĸĩ
åĨ³ èĥľ
ĠA NOVA
çĹħ çģ¶
åĽŀ åįĩ
R AS
è¿ľ çļĦ
çºł ç¼ł
ercul osis
Ġathe roscler
æľ ½
çļĦ éĶĻè¯¯
ç»´ ç³»
è°ĭ å¹¸ç¦ı
A pp
äºĨ å¤§éĩı
ç§ĳæĬĢæĪĲæŀľ è½¬åĮĸ
it one
å¹¶ æľī
ĊĊ ãĢĢ
S L
çļĦ è®¤çŁ¥
åĨį çĶŁäº§
å¾Ĺ åĪĨ
å¢ŀ è®¾
è¯¥ ç³»ç»Ł
å·¨åĻ¬ ç»Ĩèĥŀ
Ġg et
æĸ°çĶŁ åĦ¿
è§£éĻ¤ åĬ³åĬ¨åĲĪåĲĮ
ä¸ŃåĽ½åħ±äº§åħļ æĪĲç«ĭ
ç»Ł æĪĺ
ĠEurop ean
æīĢ å¿ħéľĢ
è´Ł æŀģ
é«ĺ çĤ¹
çĹħåİŁ ä½ĵ
è¾¨ åĪ«
æĮī è§Ħå®ļ
SA RS
çļĦ åĬŀæ³ķ
ot rop
ĠH T
åĲĪçĲĨ åľ°
at ur
æīĢ éĢłæĪĲçļĦ
æĪĲ å½¢
æĸĩä»¶ ä¸Ń
Ï Ģ
ä¿ ¯
å¤į æĹ¦
çļĦåŁºæľ¬ çĲĨè®º
ard s
åħ³éĶ® çļĦ
ä¸ŃåĽ½çī¹èī²ç¤¾ä¼ļä¸»ä¹ī äºĭä¸ļ
è¡Į æĢ§
æ¡Īä»¶ äºĭå®ŀ
å¯¹ ä¸ĸçķĮ
ä¿¡æģ¯ åĮĸçļĦ
æĬµ æ¶Ī
åºĶ å°Ĩ
ĠN I
å¤´ çĹĽ
å®ĺ åĲı
åħ·ä½ĵ æĿ¥è¯´
çļĦ æľĢé«ĺ
èĸ Ľ
Ġfeed back
åįł GDP
æ¨¡åŀĭ åĴĮ
è¿Ľè¡Į è¯Ħä¼°
ä¸įå¾Ĺ è¶ħè¿ĩ
ä¸İ åľ°æĸ¹
èĤ¢ ä½ĵ
åĪĻ åľ¨
åħ¶ä¸Ń ä¸Ģä¸ª
ä¸º ä¸Ģä½ĵ
èıĮ ç¾¤
Ġallow ed
åİŁ åħĪ
çĽĨ åľ°
èĻļ æŀĦ
çĽ¸åħ³ èģĶ
å¼ł æŁĲ
çĶŁäº§ æķĪçİĩ
æľī å½¢
ä¹łè¿ĳå¹³æĢ»ä¹¦è®° åħ³äºİ
æĨ ¾
} ,
ĠC SF
æ³¢ åħ°
è´§ è¿Ĳ
ä¸Ģ åı°
Ġrapid ly
åĬ³åĬ¨ åĬĽçļĦ
åıĳå±ķ èµ·æĿ¥çļĦ
æĹ¶ æ®µ
çĽĪ ä½Ļ
çĶŁæĢģ åŃ¦
æī§ çħ§
g ans
ä¸Ĭ åıĳè¡¨
æľ± å¾·
Ġidentify ing
éħį é¢Ŀ
Ġ200 4
çĻ½ ç»Ĩèĥŀ
ç» ħ
çī¹åĪ« å¼ºè°ĥ
äºĮ èĢħçļĦ
èĩªçĶ± åŁº
è®¡ ä»·
ç»Ħç»ĩ å¼Ģå±ķ
Ġcomple tely
æī¿æĭħ çļĦ
Ġclus ters
çļĦ çĶµåŃĲ
ä¸Ģ æĸĩ
åŃ¤ çĭ¬
ç®¡çĲĨ ä¼ļè®¡
åĪĨ æµģ
æĮģç»Ń æİ¨è¿Ľ
Ġtraum a
ä»£ ä½į
è½¬æį¢ æĪĲ
Ġref erred
Ġse ven
åĲį å½ķ
åħ¼ èģĮ
Ġinhib its
V C
æ¡Ī ä¸Ń
è®¤ å®ļçļĦ
ĠP ar
Ġ4 3
éĩĳå±± éĵ¶å±±
Ġ æĬĢæľ¯
äºº çī©çļĦ
ĠP ark
ç»ĵ èĬĤ
åıĳæĮ¥äºĨ éĩįè¦ģä½ľçĶ¨
å¤± å¸¸
å¹³åı° ä¸Ĭ
è°ĥ åĴĮ
æĬķèµĦ åŁºéĩĳ
æĮģç»Ń æĢ§
æµıè§Ī åĻ¨
rit ten
ä»¥ ä¿ĥè¿Ľ
çŃī é¢ĨåŁŁçļĦ
ç©ºéĹ´ ç«Ļ
æĬ¢ åĬ«
èķ´åĲ« çĿĢ
ĠT r
ç² ¥
çļĦ å¼Ģ
ä¸į è§ģ
çł ¥
æŃ¤ é¡¹
äºļ éĩĮ
åįģä¸Ģ äºĶ
çĽ¸è¾ħçĽ¸ æĪĲ
H F
w ith
æľī è®¡åĪĴ
è§Ħå¾ĭ æĢ§
Ġplace bo
æľī å¾Īå¤§
19 37
Ġunder st
çº¦ æľī
å¤± çģµ
å¿ĥ çļĦ
c or
æľ¨ æĿĲ
èĳ Ĩ
Ġens ure
Ġm urine
å¢ŀ äº§
çļĦ å·¨å¤§
â ĺ
åı² ä¸ĬçļĦ
é¢Ĩ åıĸ
ĠG P
æĽ´ æľīæķĪ
F i
åĴĮ ç¾İåĽ½
Ġac cept
åŃ¦ å¾Ĵ
ot a
1 19
åħ³èģĶ æĢ§
Ġtranscri pt
åķĨæłĩ æ³ķ
éĢļ æ°Ķ
ä¸ĵ èģĮ
çļĦå¤§ åŀĭ
æķ°åŃĹ ç»ıæµİåıĳå±ķ
æİł å¤º
æĮģç»Ń çļĦ
Ġrisk s
å¦Ĥ åīį
Ġres onance
Ġpromot es
åĴĮ çĲĨè®º
åĩº å¤Ħ
ç¾İ åĨĽ
Ġbre ak
æ¬¡ è¦ģ
çĮ ´
æľ± çĨ¹
å®īåħ¨ é£İéĻ©
é¡º å·®
Ġ4 6
lu orescence
èŃ¦ ç¤º
åĩ¯ æģ©æĸ¯
ç»Ī çĤ¹
æīįèĥ½ çľŁæŃ£
åįļå£« åĲİ
åĪĩåħ¥ çĤ¹
ä¹¡æĿĳ æ²»çĲĨ
AR T
Ġgra di
ä¼Ĭ æľĹ
èĢĥåı¤ åŃ¦
ä»İèĢĮ è¾¾åĪ°
æģ¶æĢ§ èĤ¿çĺ¤
ä¹Ł éĥ½
Ġexp and
Ġlocal ization
çĶµ åİĤ
æŃ£ç¡® è®¤è¯Ĩ
è®² ç©¶
çļĦ çĬ¶åĨµ
è®¾ å®ļçļĦ
æĽ´ ä½İ
Ġd rin
å¹¿æ³Ľ çļĦåºĶçĶ¨
Ġincub ation
çĶµ åĽ¾
æĪª çĦ¶
å° §
Ġpro x
12 6
Ġcand idate
åŁº æķ°
ä¸ŃåĽ½ åĪ¶éĢł
åħ¶ä»ĸ çļĦ
åħįçĸ« åıįåºĶ
f on
åľ¨ æĪĳä»¬
å½ĵåīį æĪĳåĽ½
chym al
ores cent
éĢļè¿ĩ å°Ĩ
ç¨³å®ļ æĢ§åĴĮ
SC C
ĠSim ilarly
åı¯ä»¥ åıĳçİ°
Ġcirc um
ç¬¬äºĮ æĿ¡
ä¸ĢèĪ¬ æĺ¯
åĮºåŁŁ åıĳå±ķ
äº§ä¸ļ åĴĮ
æľĢ å¿«
ä¸Ģ ç»ı
ä»²è£ģ æľºæŀĦ
æĭĴ ä¸į
æĺ¯ åħ¨çĲĥ
ä¸Ģ ç¯ĩ
ä»¥ä¸ĭåĩł çĤ¹
åħī çº¿
Ġsc an
ç³»ç»Ł åĮĸ
ç¨³ åĽº
m o
æ°´ è§£
ĠO b
å¹¶ æıĲä¾Ľ
s k
æĮ Ľ
Ġel uc
å¼ķåħ¥ äºĨ
åįĸ æĸ¹
4 50
Ġmain tenance
Ġcar ry
Ġe ight
å¿ħé¡» ä»İ
ad der
Ġpre m
æľĢåĪĿ çļĦ
è¿ĺ æ¬¾
è¿Ļä¸Ģ æ¦Ĥå¿µ
Ġexpl ained
åł ¤
åŁº åºķ
ç³»ç»Ł éĽĨæĪĲ
éķľ åĥı
æĶ¶ å½ķ
Ġman ifest
çĲĨè§£ çļĦ
æĶ¾ çĸĹ
çķĻ åŃ¦
é¢Ħ ä¹ł
ĠST AT
ac ent
å³° ä¼ļ
Ġ200 3
ä¸Ĭå±Ĥ å»ºçŃĳ
Ġw a
æĦŁ è°¢
ĆĈ ą
åŁºæľ¬ æĬĢèĥ½
c ents
è½¯ éª¨
ric hed
G O
Ġ é¡¹çĽ®
çĽ¸ æ¯Ķè¾ĥ
éĹ®é¢ĺ æĹ¶
çĶŁäº§ çĶŁæ´»
æŁ´ æ²¹
Ġ ech
æĶ¹ ç¼ĸ
ly cer
Ġas ym
Ġnot e
ĠSNP s
å¤ĩ è¯¾
èĻļ æĹł
Ġauto immune
çļĦ æ°ĳä¸»
åıĹ è®©
Ġv as
ox ide
T D
Ġas k
å¼ Ľ
åħ³éĶ® æĺ¯
ä»ħ ä¾Ľ
è¯ģå®ŀ äºĨ
å¾Ĺ åĩºçļĦ
å±¥ çº¦
çİ¯å¢ĥ ä¸ŃçļĦ
ence phal
th al
çĭ ¼
èĩªç«ĭ èĩªå¼º
ç¤¾ä¼ļ çŁĽçĽ¾
ä¸ĵ èĳĹ
*~ *
ern at
åºĶ ä¸º
ĠĠĠĠĠĠĠĠĠĠĠĠĠĠĠĠĠĠĠĠĠĠĠĠĠĠĠĠĠĠĠĠ ĠĠ
T M
èįĴ æ¼ł
Ġparamet er
im en
19 70
ä¸ĢèĪ¬ èĢĮè¨Ģ
åŃ¦ èĢħçļĦ
çĶ¨ èĥ½
ĠC RC
åĪĩ åīĬ
B s
Ġæľ¬ ç«ł
ä¹ĭ æĦı
Ġaim ed
åĴĮ åĪ¶åº¦
åĲĳ ä¸ĭ
Ġrece ive
crib ed
it ary
ç²¾ çĽĬ
ç¥ ł
Ġon line
çĹ ´
é¦ĸ éĢī
è¦ĨçĽĸ éĿ¢
å¿ĺ è®°
è½¨éģĵ äº¤éĢļ
æİ¥ åĪ°
é¢ģ åıĳ
çļĦ å¯¹
ä¹ĭ åĴĮ
çĽ¸æ¯Ķ ä¹ĭä¸ĭ
å¦Ĥä¸ĭ åĽ¾
åĪ¶ åĴĮ
çļĦçĲĨè®º åŁºç¡Ģ
éĩı å¤§
æīĭ å·¥ä¸ļ
èĩªçĦ¶ ä¿ĿæĬ¤åĮº
åı¯ æĵįä½ľæĢ§
å§ĭç»Ī æĬĬ
åįµ å·¢
çļĦ ä¸´åºĬ
å¼Ģåıĳ äºĨ
åŃ¦èĢħ ä»¬
èµĦäº§ ç®¡çĲĨ
Ġregul ating
Ġmorb idity
ä¿¡ èªī
CA T
è´¨éĩı æİ§åĪ¶
Ġmin or
si vely
åĲĮæĹ¶ è¿ĺ
Ġcorrel ations
åıĹ åĪ¶äºİ
æŃ£ ç»Ł
ac es
åıĳ åĩºçļĦ
éĺ² çĸ«
ä¸Ĭä¸ĭ æĸĩ
Ġc aspase
è®¡ç®Ĺ åĩº
Ġir on
æķ´ä¸ª ç¤¾ä¼ļ
æĦıä¹īä¸Ĭ è¯´
éģµ ä¹ī
Ġrecomb inant
çļĦ åĬ¨æĢģ
æĸ° çĲĨå¿µ
ä¸Ģæł· çļĦ
æĺ¾ æĢ§
å¼Ģåıĳ åĩº
å®ĥ æīĢ
ä¸ĩ äº©
ä½ľ èĢħçļĦ
äº§ä¸ļ åıĺéĿ©
æĶ¯æĮģ çļĦ
æĿĢ ä¼¤
Ġsol id
ä¸ĢèĪ¬ ä¸º
N E
ç»Ļ èį¯
åŁº çĤ¹
æĪĲä¸º ä¸ŃåĽ½
åĦ¿ åŃĲ
åŁºæľ¬ è¦ģæ±Ĥ
ä¹ĭ äºĮ
æĸ°åŀĭ åŁİéķĩåĮĸ
åĬ³åĬ¨ æ³ķ
æľī æĦı
Ġmo tion
çļĦ çĶŁéķ¿
Ġag on
Ġprog ressive
è§£ ä½ĵ
Ġrepresent ed
åĢŁ åĬ©äºİ
ä¼ĺåĮĸ éħįç½®
h al
Ġpl ate
er ated
ĠC NS
åıĳæĶ¹ å§Ķ
Ġim plant
Ġm is
æĬĹ åĩ»
èĩªçĶ± åĮĸ
Ġ\ #
ĠB ased
Ġmon th
åĴĮ äººæ°ĳ
åħļ åĲĪä½ľ
' t
è¯º è´Ŀå°Ķ
âĢ ĭ
åĲĪ èµĦ
åı¯ä»¥ çĶ±
åĽ½å®¶ æĿĥåĬĽ
åħ¬åħ± äº§åĵģ
oly tic
é ĸ
ä»¥ åħį
æµ· åºķ
em a
æĢĿæĥ³æĶ¿æ²» å·¥ä½ľ
åľ¨ æİ¨è¿Ľ
z ation
Ġs en
ä¸ĭéĻį åĪ°
åĲĦ è¡Į
ä¸İ çłĶç©¶
ĠA ust
å¼ĢæĶ¾ åŀĭ
Ġinvol ves
è®¡åĪĴ åĴĮ
G o
æĹłçĸĳ æĺ¯
éĥ¨ å§Ķ
äº¤ æ±ĩ
ç¾ ²
å¹´ ä¸Ń
èĤ¡ä¸ľ ä¼ļ
åĨ³çŃĸ èĢħ
Ġadj ust
è° ¬
åĲĪä½ľ ä¼Ļä¼´
Ġh ospitals
Ġex act
æĺ¯ æ²¡æľī
Ġinter n
æĮ¤ åİĭ
å¯¹ åŃ¦çĶŁçļĦ
èĩª åı¤
V O
éĹ® ä¸ĸ
äº¦ åį³
11 4
çİ°éĩĳ æµģéĩı
æĮģç»Ń åıĳå±ķ
èĤ¾ å°ı
çļĦ æľ¬
ad a
è¿İæĿ¥ äºĨ
it us
è¦ģ çĶ¨
ä¹ĭ é£İ
æĳ Ĵ
Ġair way
å¤© åŃĲ
åľ° è²Į
æ² §
èĲ½åĪ° å®ŀå¤Ħ
æĺ¯ åŃ¦çĶŁ
åľ¨ å®ŀæĸ½
anc ing
æĢ»ä½ĵ è§ĦåĪĴ
çļĦ åĶ¯ä¸Ģ
è¡¥ æķĳ
Ġst rom
è¯Ħä»· æłĩåĩĨ
çľĭ å¾Ĺ
æ¶Īè´¹èĢħ æĿĥçĽĬ
oc arcin
è¿ĻäºĽ éĥ½æĺ¯
åħ±å»º åħ±äº«
IP v
çļĦ åĢ¼
å®Ī æŃ£
Ġbl ue
Ġreport ing
èĢĹ è´¹
äºķ åĨĪ
um p
çŃī æķĪ
Ġst art
åĪĹ å¼º
åħ¬åħ± æĶ¿çŃĸ
ç»©æķĪ ç®¡çĲĨ
ä½ĵ å¾ģ
ç² Ł
çİ°ä»£ æĢ§
ĠR ed
è¿İ æİ¥
æĪĺæĸĹ åĬĽ
tic ity
æ¾Ħ æ¸ħ
Ġ ä¸Ĭ
ĠP E
Ġon ce
ç¬¬ä¸Ģ éĺ¶æ®µ
t umor
ç»ı åıĹ
Ġampl itude
Ġchild hood
çļĦ åĨħ
ä¹¡æĿĳ æĹħæ¸¸
ä¾Ŀçħ§ æľ¬æ³ķ
Ġmm ol
Ġâ Ĺ
ĠBi os
ä¸į å¯¹
IF N
ç§ĳçłĶ æĪĲæŀľ
é¥® çĶ¨æ°´
ç²¤æ¸¯æ¾³ å¤§æ¹¾åĮº
ä¹Ł åºĶè¯¥
çĶ» çļĦ
æĪĲ ä¸Ģä¸ª
çİ ²
æİ¨åĬ¨ ä¸ĭ
op ic
Ġco verage
Ġtoxic ity
åĲĦçº§ åĲĦç±»
å¤ļ æĸ¹éĿ¢
Ġform ed
èĭ± åĭĩ
è¿Ľ åĨĽ
æ¸ħ æľ«
è¿Ĳè¡Į æĹ¶
æķĻèĤ² ä¿¡æģ¯åĮĸ
åŁºå±Ĥ ç»Ħç»ĩ
Ġbe gin
ä¼° åĢ¼
èĨ³ é£Ł
åħ¨ è¦ģç´ł
æĸ° åĬ¨èĥ½
å°ı å¾®ä¼ģä¸ļ
è¶ħ é¢Ŀ
çļĦ åĪĨåŃĲ
P er
t bl
æĸ ¼
ä¸º ä¸»ä½ĵçļĦ
g ue
ĠE LISA
åĬłå¼ºåĴĮ æĶ¹è¿Ľ
ç©º åĨĽ
åı¤ ç±į
åı¯ å®ŀçİ°
åı¯èĥ½ åľ¨
éħį æĸ¹
çİ°å®ŀ ä¸»ä¹ī
Ġmem ber
å·¥ä¼¤ ä¿ĿéĻ©
Ġdeath s
d el
-------------------------------- ----
ä¹ħ å®ī
Ġprepar ation
éĩĳ çļĦ
Ġ ä¹łé¢ĺ
çĶŁäº§ çº¿
Ġmorph ology
åĴĮ ä¸Ń
æĸ° åŁºå»º
Ġch ol
Ġhome ostasis
å¸Ĥåľº è§Ħæ¨¡
æ³¢ çļĦ
çģ« å±±
ç£ģ åħ±æĮ¯
åĲĳ å¤ĸ
æĸ½ æķĻ
é±¼ ç±»
åħļ æĶ¯éĥ¨
æĬ¥åĳĬ çļĦ
C as
Ġreg ular
Ġinterval s
çŁ³ åĮĸ
èģĮèĥ½ éĥ¨éĹ¨
ç¬¬äºĮæ¬¡ ä¸ĸçķĮå¤§æĪĺ
åĲĪä¼Ļ äºº
å¹¶ ä½¿
åī¯ éĻ¢éķ¿
åıĳå±ķ æĸ¹å¼ı
æ´ ½
éĩı ä¸º
P G
ç©ºéĹ´ åĴĮ
Ġquantif ied
å½¢å¼ı åĴĮ
èģĮä¸ļ çĶŁæ¶¯
åĲ¸ åħ¥
åĩºç§Ł äºº
äºĭ å®ľ
æĭ ¾
åħ¬åı¸ ä¸İ
Ġs lic
æķı éĶĲ
place ment
Ġmo ve
æĭĺ çķĻ
ĠStud ies
å¿ĥ çĹħ
C r
åĴĮ ä¸ĵä¸ļ
æķ°æį® åħ±äº«
Ġ åĪĺ
èµ Ĥ
åħŃ æĿ¡
éķľ å¤´
å¿½çķ¥ äºĨ
åľ¨ ä¸Ĭ
ç¼ Ģ
äººæ°ĳæĹ¥çĽĬå¢ŀéķ¿çļĦ ç¾İå¥½çĶŁæ´»éľĢè¦ģ
æ³ķ æĺ¯
æĹ¢ å¾Ģ
éĻĪ çĭ¬ç§Ģ
ç»ıæµİåıĳå±ķ æĸ¹å¼ı
åĳ¨ å²ģ
ä¼ĺ åĬ£
é¥ ¿
anc ies
Ġrepro duc
on in
æľª è¢«
Ġor gans
ven ous
åħ« è·¯åĨĽ
åĹ ½
ol ysis
éĢļè¿ĩ åĲĦç§į
è§ī éĨĴ
Ġbenef icial
Ġcoll abor
Ġur ine
s in
çļĦ çĽ®çļĦæĺ¯
åĮĹ ç¾İ
ç»¼åĲĪ åĽ½åĬĽ
æİ© çĽĸ
åīį ç«¯
Ġl ob
åŁºå±Ĥ åħļç»Ħç»ĩ
ä»ĸ æĮĩåĩº
ä¸ĩ ä½Ļ
Ġcomprehen sive
dim ensional
ur ance
çĶµåŃĲ æĬĢæľ¯
æĪĸ åħ¶
çļ® å±Ĥ
S K
çļĦ æİªæĸ½
æķĻåŃ¦ èµĦæºĲ
è¡¨ å½°
æ¿Ģåıĳ åŃ¦çĶŁ
ä¸Ģ äºĮ
å¾® å°ı
åħĭ åħ°
åģľ è½¦
ç¾İå¥½çĶŁæ´»çļĦ åĲĳå¾Ģ
ä»ħ åľ¨
ol ved
åģı è§ģ
åĵĪ ä½Ľ
Ġconsequ ences
çļĦ çŃĸçķ¥
çļĦ éĢĶå¾Ħ
è¦ĨçĽĸ çİĩ
åľ¨ è¿Ļæł·çļĦ
è¾ĥ æĹ©
å¸Ī å¾·
åĿļ å®ļçļĦ
è´ŁéĿ¢ æ¸ħåįķ
Ġneutroph ils
ĠC C
äºĮæ°§åĮĸ ç¢³æİĴæĶ¾
é¸¿ æ²Ł
æİ¥ çº³
Ġtyp ical
Ġunderst ood
ä¹°åıĹ äºº
æķĻèĤ² è¡ĮæĶ¿éĥ¨éĹ¨
å¹³åı° å»ºè®¾
æĶ¿ ä½ĵ
åĽ½éĻħ æĶ¶æĶ¯
çŁ¥è¯Ĩ ä½ĵç³»
æ± ŀ
ä¼ł åĬ¨
ä¹Ļ éĨĩ
å·¥ äººçļĦ
æ¡Ī æ¶ī
Ġexperi enced
æİ¥ çıŃ
ç«£ å·¥
ä¸įæĸŃ ä¸°å¯Į
12 7
è¾©è¯ģ åĶ¯çī©ä¸»ä¹ī
ä¸¥éĩį ç¨ĭåº¦
çĶµ åĬ¨æľº
æĭ· è´Ŀ
am ple
19 60
å¯Į èµ·æĿ¥
é¡¹ è§Ħå®ļ
æķ°æį® æĮĸæİĺ
åħĪå¤© æĢ§
èľ ľ
åı¸æ³ķ å®ŀè·µ
ĠÎ Ķ
vas ive
ĠS o
ĠM od
åºĶå½ĵ ä»¥
Ġenc oding
æ°Ķ è´¨
Ġexhib it
æĮģ æľīçļĦ
å½ĵ æĪĳä»¬
Ġhist ological
Ġequ al
Ġmon oclonal
æ£Ģ çĸ«
Ġparticip ate
ç£ģ æĢ§
å´ Ķ
çļĦ å¿ĥ
è¿ŀæİ¥ åĪ°
å¾Ī éķ¿
åĮºåŁŁ èĩªæ²»
math bf
Ġfacilit ate
éĹ ¯
at ter
æī©å¤§ åĨħéľĢ
åı¯ ä»İ
åĩº å¢ĥ
ros ine
èµ ĥ
è·¨ çķĮ
Ġstep s
Ġcomp uted
æ¯« ä¸įåĬ¨æĳĩ
ä¸įåĲĮ ç¨ĭåº¦
Ġsur round
æķĻèĤ² æ´»åĬ¨
enti sts
æº¶ æĢ§
Ġorgan ization
çļĦ çĶŁæĢģ
æİ¢ç´¢ å»ºç«ĭ
çĬ¹ å¤ª
k s
an a
èĮĥ ä¾ĭ
çĪ ·
è¿ģ å¾Ļ
ç¾İåĽ½ æĶ¿åºľ
æĸ¹æ³ķ æĿ¥
äºīè®® çļĦ
æĸ° èį¯
æ¸© åĴĮ
æ²ī éĻį
min imal
) $
åıĳ è¡ĮçļĦ
æĸ¹æ³ķ ä¸İ
èĢĥ è¯ģ
æĸ°ä¸Ģä»£ ä¿¡æģ¯æĬĢæľ¯
å¥½ å¥ĩ
çĽ¸åħ³ çłĶç©¶
éĺ² çº¿
ä¼ĺèī¯ ä¼łç»Ł
å®Ĺ æĹı
çļĦä¸į ç¡®å®ļæĢ§
é«ĺ éĵģ
åĽĽä¸ª èĩªä¿¡
å¼ĢåĪĽ äºĨ
é£ ĺ
Ġg overn
è¿ĳ äºĽ
éĺ² çģ¾
åĵª ç§į
he l
åĪ¶ è¡¡
Ġf ig
éľĢè¦ģ èĢĥèĻĳ
n ight
ä¸ª æķ°
åŁŁ åĲį
åĲĦ å¤§
åİŁåĽł åľ¨äºİ
æĸĩåŃ¦ çļĦ
éĺ¶çº§ æĸĹäºī
ä¸Ń è¯´
æĺ¯ ä¸ĸçķĮä¸Ĭ
åĪĽå§ĭ äºº
Ġ 000
çĸĳ éļ¾
è¯ĨåĪ« åĴĮ
çļĦåıĳå±ķ æĸ¹åĲĳ
ç¡¬ åº¦
å¼ı åıĳå±ķ
P K
ä¸Ģ åº§
çķĻ å®Ī
åŁºæľ¬ çŁ¥è¯Ĩ
or g
èĥ½å¤Ł éĢļè¿ĩ
å¼ºåĮĸ äºĨ
å°± åı¯èĥ½
å°± æĹłæ³ķ
èĦ±è´«æĶ»åĿļ æĪĺ
çº¤ç»´ åĮĸ
æ°ĳäºĭ è¡Įä¸ºèĥ½åĬĽ
ç²Ĺ ç³Ļ
åºĦ ä¸¥
çļĦ æĸ¹éĴĪ
Ġdirec tion
s s
ä¸Ń èģĮ
æĽ´ æ·±
å½¢èĢĮä¸Ĭ åŃ¦
çļĦ åİŁçĲĨ
Ġre actions
Ġm ature
åı¯ä»¥ æľīæķĪ
Ġrecommend ations
éĹ¨ æĪ·
çĽ®åīį ä¸ºæŃ¢
åįİ çĽĽ
Ġ çłĶç©¶
å°±æĺ¯ å¯¹
æİ¨åĬ¨ æĪĳåĽ½
n ers
ä¸¥æł¼ æī§è¡Į
æĸĩèīº å¤įåħ´
åıĳå±ķ æĪĲä¸º
ä¾ĽåºĶéĵ¾ ç®¡çĲĨ
ç»ıæµİ æįŁå¤±
æĹł ç¼Ŀ
åĿļå®ŀ çļĦåŁºç¡Ģ
éĴ Ĭ
åħ ®
Ġcont ained
h o
åı¯ åıĺ
å¤ļ åıĺ
ä¸į æĺİç¡®
åĢºåĬ¡ äººçļĦ
åľ¨ è¥¿æĸ¹
éģĹ åŃĺ
æĹ¥ åŃĲ
Ġkn ow
Ġknock down
h icle
çĻ¾ å¹´æĿ¥
ä¸ĢäºĽ éĹ®é¢ĺ
æķ°åŃ¦ æ¨¡åŀĭ
æķĻèĤ² äºĭä¸ļ
19 58
é¦ ı
æ¯Ľ ç»Ĩ
ç»Łè®¡ åĪĨæŀĲ
çļĦ åĬªåĬĽ
ç¨Ģ éĩĬ
åı¯ æ¯Ķ
æŃ£ å¥½
æ°ĳæĹı åĽ½å®¶
åĳ ķ
çĽ®æłĩ ä»»åĬ¡
æ¯« æĹłçĸĳ
æĸ½ èĤ¥
n atal
å¤ĸ åĩº
æ¶ Ŀ
erm al
å®ŀæĸ½ ä¹¡æĿĳæĮ¯åħ´æĪĺçķ¥
B T
åľ¨ æķĻåŃ¦ä¸Ń
æ°´å¹³ ä¸Ĭ
çİ°éĩĳ æµģ
ĠS oci
éĤ» è¿ĳ
åĴ³ åĹ½
çļĦ çľŁå®ŀ
) *
è¯ «
åĩł åįĥ
åĨħ æĪĺ
ç¬¬äºĮ éĺ¶æ®µ
éĺ²èĮĥ åĮĸè§£
ä¸Ń èµ·
éĢļ çĶ¨çļĦ
èķ ĥ
çŁ¢ éĩı
æĸ° å½¢åĬ¿
å¹¶ ä»¥æŃ¤
ä¸İ ä»ĸäºº
çķĻ è¨Ģ
æ·»åĬł åīĤ
çİ¯å¢ĥ çĽĳæµĭ
åħļçļĦ ç»Ħç»ĩ
åı¯ä»¥è¯´ æĺ¯
å£« å¤ļå¾·
âĢĻ ï¼Į
Ġexp ansion
ä¸ĵå®¶ åŃ¦èĢħ
çļĦ ä¿¡åı·
åĿ ¤
olog ists
åŃ¦ç§ĳ ä¸ĵä¸ļ
ãĢ ĩ
åİ Ħ
è¯Ĺ ç»ı
ä¸İ æľįåĬ¡
éķ¿æ²» ä¹ħå®ī
çļĦ è¯¾ç¨ĭ
it ative
åıĤ è°ĭ
æĭ Ĳ
åħ´ åĽ½
èĨ Ŀ
ç»ĦæĪĲ åĳĺ
æĮ½ æķĳ
æ³ķ ä¸İ
æŀģ åħ·
æİ§åĪ¶ æĿĥ
å½± åŃĲ
éĴ ŀ
ä½¿ æĪĳä»¬
æĬĢæľ¯ æĺ¯
éĢļè¿ĩ åĪĨæŀĲ
çļĦ åľ°
èĦļ æľ¬
éĵ¸ éĢł
çļĦ ä¸ļåĬ¡
åı¯ä»¥ éĩĩçĶ¨
ä»²è£ģ å§Ķåĳĺä¼ļ
Ġfra gment
izophren ia
æķĻ ä¹ī
æĮĩ æĺİ
æĿľ ç»Ŀ
ç«Ļ èµ·æĿ¥
æľ¬ éĻ¢
åĽ½éĻħ éĩĳèŀį
åĨĻ çļĦ
æ³ķå¾ĭ ä¿ĿæĬ¤
Ġc ervical
å¢ŀ æ·»
å¹¿æ³Ľ åħ³æ³¨
å¥ł åŁº
æĺ¯ ç¬¬ä¸Ģ
è½¯ä»¶ çļĦ
éĢī æ°ĳ
ĠP R
ro t
ĠĠĠĠĠĠĠĠĠĠĠĠĠĠĠĠĠĠĠĠĠĠĠĠĠĠĠĠĠĠĠĠ ĠĠĠ
æĶ¯æĮģ åĬĽåº¦
äºķåĨĪ å±±
Ġsh or
åĢŁæ¬¾ äºº
ç»Ļ æĪĳä»¬
åĨ¶ éĩĳ
åıª ä¼ļ
Ġret urn
Ġst ability
ĠS P
æ°ĳä¸» çĽĳçĿ£
è®ºè¿° äºĨ
Ġvalid ated
Ġar ray
os ine
åĪĨéħį çļĦ
åħįçĸ« ç»Ĩèĥŀ
Ġw ave
é©¬ ä¸Ĭ
g amma
æ³ķ çĽĬ
Ġsubsequ ently
Ġmicro glia
Ġphen otypes
æĺ¯ æĢİæł·
Ġ6 4
èģĶåĲĪ ä¼ļ
ä¸¾ è¡ĮçļĦ
Ġl as
Ġmeas uring
åĪĽéĢł æĢ§çļĦ
æľªæĿ¥ åıĳå±ķ
I BM
åı¯ éĩĩçĶ¨
åī Ķ
Ġel derly
ä¸ī æĸ¹éĿ¢
ä¸¤å¤§ ç±»
åįķ é¡¹
bl ast
éĥ½ ä»¥
è½¯ ç¡¬ä»¶
å¿ħçĦ¶ æĢ§
çļĦ ä½İ
çļĦ åĪ¤æĸŃ
ĠL DL
Ġrati os
ran d
ä»İ ä¸ŃåĽ½
ä¿® è¾ŀ
æ³¨æĦı äºĭé¡¹
æµĵ ç¼©
ä»²è£ģ è£ģåĨ³
å¼º åĬ¿
åĨ° å·Ŀ
ang i
èī° è¾Ľ
çļĦ æĬ¥åĳĬ
æ²» æĦĪ
åħ´ æĹº
å¤§ éģĵ
ys ym
ams b
RC EP
ä½¿ ä¼ģä¸ļ
éķ¿æ±Ł ç»ıæµİå¸¦
æĬ¢ åįł
Ġsampl ing
æĶ¿ ç»©
fon ts
æĸ¯ ç§ĳ
ä¸ĸ ä»£
è¾¨ è¯Ĩ
ä¸Ģ æĹ¥
ä¸į åĮħæĭ¬
çļĦ è¡ĮæĶ¿
se ud
å¨ ľ
ams math
ams symb
ams fonts
math rs
document class
was ysym
amsb sy
mathrs fs
åı¯ çĶ±
èĦĬ æŁ±
Ġsumm ary
åľº çļĦ
æķĻèĤ² è´¨éĩı
åı¯èĥ½ åŃĺåľ¨
æĹ¶ä»£ åĮĸ
Ġne ph
æľ¬ ç½ĳç«Ļ
ä¸»è¦ģ æĮĩ
dom inal
ä¸»ä½ĵ è´£ä»»
åĨħéĥ¨ å®¡è®¡
ç¾İ å¥½çļĦ
æĻºæħ§ åĴĮ
åĢ¾ åĲ¬
us h
å¼ķ è¨Ģ
Ġsubt ypes
ç© Ĺ
up gree
ä¸ĥ å¹´
upgree k
ä¸İ åıĳå±ķçļĦ
EE E
y ing
ä¹Ł éļıä¹ĭ
ur ity
ĠJ ournal
å¤ļ åĲį
ĠAl so
ä¹Ļ èĤĿ
åĿĩçŃī åĮĸ
Ġvalid ation
çŃīç¦»åŃĲ ä½ĵ
" ),
è¯¥ é¡¹çĽ®
åīį æ¬¾
H BV
Ġ åıĤèĢĥæĸĩçĮ®
é«ĺ å°ļ
äºĶ ä»£
å¿ł å®ŀ
æ· ¤
çģŃ äº¡
idem argin
odds idemargin
åĲĮ æºĲ
æľ¬ çĹħ
è¡Ģ ç¼ĺ
pro t
Ġse em
æķĳ çģ¾
Ġpath ogenic
åľ¨ å¤ĦçĲĨ
Ġfor ce
éŁ¦ ä¼¯
ä¼łæĴŃ çļĦ
äºļéĩĮ å£«å¤ļå¾·
é¢ Į
çĽ¸ å®¹
om at
é»ĳ å®¢
Ġpur ified
æ¯Ķçī¹ å¸ģ
åĪĻ ä¼ļ
ĠS upplementary
set length
åŃ¦ä¹ł åŀĭ
è®¾ç½® äºĨ
ĠM odel
ç¨ĭåºı åĴĮ
æ²³åįĹ çľģ
åĪĹ è½¦
Ġdifferenti ally
å°ıåŃ¦ æķ°åŃ¦
æ°ĳæ³ķ éĢļåĪĻ
äºĮ è¿ĽåĪ¶
æ» ĩ
iz ations
id ent
ĠE p
æĬĢæľ¯ åıĳå±ķ
äº¿ ä¸ĩ
é¸¦çīĩ æĪĺäºī
å°± åħ¶
è¿Ļç§į çİ°è±¡
èº ģ
Ġleuk emia
Ġup regulated
ob last
åĴĮ è¿ĲçĶ¨
si ze
d ot
åĽłä¸º åľ¨
O E
b ar
ä¹Ł å¾Ī
åĩº åħ¥
od ed
è§ģ è¡¨
æī° åĬ¨
}{ -
èĪª è¿Ĳ
åĴĮ çĶŁæ´»
ä¸İ æĶ¿æ²»
æĳĴ å¼ĥ
ä¸ŃåĽ½ ä¼ģä¸ļ
æħ¢ æħ¢
âĸ ł
åĲĮæĹ¶ åľ¨
æĶ¹éĿ©å¼ĢæĶ¾ çļĦ
Ġangi ogenesis
åĮ¿ åĲį
ç¤¾ä¼ļ åĽ¢ä½ĵ
æİĴ åĩº
ä¼Łå¤§ å»ºåħļ
åħ¬ æĬ¥
Ġpro pos
è¿Ļä¸Ģ è¿ĩç¨ĭ
å¼Ģåıĳ èĢħ
é£İ å°ļ
j ects
èĲĥ åıĸ
Ġregul ates
Ġconst ant
N s
åĪ¶åº¦ ä¿Ŀéļľ
éģ ´
ĠT reatment
åħ¨å±Ģ æĢ§
ä½Ĩ ä»ĸ
Ġpar tial
rim ary
00 8
åĪĽç«ĭ äºĨ
çļĦ è®¨è®º
ĠE ff
æ¡Ī æĥħ
æ³ķå¾ĭ ä¾Ŀæį®
çĦ °
ç¬¬åįģ äºĶ
é©¬åħĭæĢĿä¸»ä¹īä¸ŃåĽ½ åĮĸçļĦ
Ġbarri er
Ï ĥ
æİº æĿĤ
ĠP M
if orm
ç§¯ æ·Ģ
åĤ ²
å°½ æĹ©
A uth
å¥½ è½¬
T L
åľ¨ äººç±»
g m
çī Ł
oglob in
âĢĿ [
éĢĤ éħį
åĸ Ģ
ĠCh inese
çĽ¸ ä¸Ģèĩ´
ol ute
å¯¹ åĨħ
ĠH A
ĠH BV
äº§çĶŁ äºİ
éļĭ åĶĲ
æµĵ åº¦çļĦ
æĲŃ éħį
å®ļä¹ī äºĨ
åİĨåı²æĢ§ åıĺéĿ©
çĶŁåĳ½ ç§ĳåŃ¦
Ġel ic
åĩ ¿
res istant
htt ps
Ġmembran es
Ġw ar
çģĮ è¾ĵ
Ġinn ate
çļĦ åħ´è¶£
èĮ ħ
ä¸»åĬ¨ èĦī
çªģåĩº çļĦ
å¹¶ åĪĹ
æ²³ éģĵ
Ġdis tal
æ²»çĲĨ ç»ĵæŀĦ
çĹħ ç¨ĭ
é¢Ŀ åº¦
Ġhippocamp us
åŁº è°ĥ
yl ated
Ġmut ants
åĴĮ åŁºç¡Ģ
æĭĵå±ķ äºĨ
çŃĶ å¤į
Ġdatas et
ç» £
åĽ½å®¶ åĪ©çĽĬ
çļĦ çĲĨæĥ³
æľĢ å¹¿å¤§
F DA
åľ¨ æī§è¡Į
åĬ¨ åĽł
å¤ĸ åĳ¨
ä¸Ńå¤® åĨĽå§Ķ
ĠS M
Ġhe at
åįİçĽĽ é¡¿
è´¢æĶ¿ æĶ¯åĩº
Ġtra ditional
æ¯ı ä¸Ģæ¬¡
åºĶå½ĵ åĲĳ
Ġindi rect
ES G
åĲŀ åĲĲ
O F
ç§ĳæĬĢ éĥ¨
ä»į åŃĺåľ¨
Ġrout ine
æ°ĳä¸»éĽĨä¸Ń åĪ¶
ä¸º ä¾Ŀæīĺ
ĠA SD
çİ° ä»Ĭ
é«ĺ èĥ½
ä¸Ńåįİæ°ĳæĹıåħ±åĲĮä½ĵ æĦıè¯Ĩ
æŀľ å®ŀ
åŁºæľ¬ æ³ķ
åħ¨éĿ¢ èĲ½å®ŀ
æĻºèĥ½ åĲĪçº¦
ä¾Ŀæ³ķ è¿½ç©¶
oph ysi
åĽ½åĨħ å¤§å¾ªçİ¯
åıĳçĶŁ åĲİ
Ġexp ect
ć ,
çļĦé«ĺ ä½İ
ç®¡çĲĨ æ°´å¹³
ä¸ĥ æĿ¡
è´« ç©·
B E
çļĦ æĦıæĢĿ
çİ¯å¢ĥ éĹ®é¢ĺ
æ¶Ĥ å±Ĥ
ï¼ħ ï¼Į
çļĦ åĪĨ
äº§åĵģ è®¾è®¡
æĺ¯ æĹł
çĥŃ åĬĽåŃ¦
ç£ ĭ
Ġvacc ination
çļĦ çĽ¸å¯¹
åłĨ ç§¯
çļĦ éĢļçŁ¥
çĽ¸åħ³ è§Ħå®ļ
èĢķ ä½ľ
å¸Ĥ çº§
æĬĺ æī£
çļĦ å»ºç«ĭ
Con clusion
c ol
æłĳ æľ¨
å®ģ æ³¢
Ġ âĳ¡
cat enin
èĹ ¤
åıĳçĶŁ äºİ
è¯¦ å°½
op en
ĠG FP
åĴĮ è§ĦèĮĥ
æĬ ¹
æĿ¥ æıĲé«ĺ
çī¹ ç§į
çŁ¿äº§ èµĦæºĲ
èī² åĪĹ
éĢļè¿ĩ ä¸İ
* (
P l
åľ¨ ä»¥
Ġmod ulation
åºŁ æŃ¢
åıĤä¸İ äºĨ
O I
å¸Ĥ å§Ķ
è¡Ģ èĦī
èµŀ æĪĲ
r ating
åĴĮ å½±åĵį
éķ¿ è¶³
ä¿¡æģ¯ è¿Ľè¡Į
19 27
si an
èµĦäº§ è¯Ħä¼°
æķĻ æ¡Ī
æĬĢæľ¯ æ°´å¹³
è¯¥ åħ¬åı¸
èĥ½å¤Ł æľīæķĪ
åĢ ļ
ä¸ŃåĽ½ æķĻèĤ²
Ġç¬¬ åħŃ
çĶµ å®¹åĻ¨
å¹³åı° åĴĮ
çī¹çĤ¹ çļĦ
ä¸»åĬ¨ æĿĥ
ĠCom mun
æī¹ åıĳ
or ption
å°± æĬĬ
æĬµ è§¦
leuk in
æ°ĳä¸» åĮĸ
èģĶç³» å®ŀéĻħ
æ¦ľ æł·
åĩº ä¸į
åĨľ æŀĹ
éĥ½ åºĶè¯¥
åĶ ĳ
N OS
åº ¶
æīİå®ŀ æİ¨è¿Ľ
Ġd est
åŃ ľ
åĬ³åĬ¨ çļĦ
ç¬¬ä¸ī äº§ä¸ļ
çĶµ ä»·
ub i
é£İ æ¹¿
æ°¸ ç»Ń
æ¿Ģåıĳ äºĨ
æĮĩå¼ķ ä¸ĭ
ä¸įæĸŃ åĪĽæĸ°
ery th
å±ħæ°ĳ æ¶Īè´¹
term inal
æĥ©ç½ļ æĢ§
æĸ° ä¸ĸçºª
æĬ ī
å¾Īå¤ļ äºº
æ¯Ľæ³½ä¸ľ åľ¨
c hes
åľº åŁŁ
åĪĨå¸ĥ çļĦ
æĺ¯ æıĲé«ĺ
å¾® éĩı
äºº éĢł
èĩª ä»İ
å°± è¢«
X çº¿
èµ İ
op y
çħ¤ çŁ¿
çļĦé«ĺ çº§
æĪ· åı£
ç¡® æĿĥ
å°ı éķĩ
ĠM ulti
åŀĭ ç³ĸå°¿çĹħ
æ°´ åĴĮ
\] .
AB A
ç»ıæµİ åŁºç¡Ģ
æ²»çĸĹ æĸ¹æ³ķ
Ġischem ia
ä¸įæĺ¯ ä¸Ģä¸ª
å¹¶ æľĢç»Ī
ti d
åºĶ è¯ķ
åħĪ éªĮ
äºº å±ħ
çĽ¸æ¯Ķ äºİ
vers ely
çļĦ æıĲé«ĺ
ĠSt ate
ä¸Ģ è´¯
éģ´ éĢī
Ġsh ape
ä¸ºäºĨ ä½¿
éĽĨä¸Ń åĬĽéĩı
ĠTechn ology
æĺ¯ åħ³äºİ
ĠD et
Ġpartic les
ä¸¤ ä½į
å®ĹæķĻ ä¿¡ä»°
è¡¥ é½Ĳ
æ±¡æŁĵçī© æİĴæĶ¾
ç¨İ ç§į
Ġ4 7
Ġfrequ encies
Ġgast ro
æ¸ ²
æĢĿèĢĥ åĴĮ
äº¤éĢļ å¤§åŃ¦
è® ½
é¡¹çĽ® ä¸Ń
è¡¨è¾¾ äºĨ
æ¼Ķ ç»ĥ
è¿½ åĬł
b rain
ä¹ĭ åŃ¦
çĵ¦ è§£
è Ł
Ġ20 22
ç¢± æĢ§
Ġ å°ı
ä»İ å°ı
åıª æĺ¯åľ¨
æĿĥå¨ģ æĢ§
Ġt el
Ġser ious
æĭ¨ æ¬¾
æ¶µ ä¹ī
æķ° çĲĨ
éķ¿æľŁ æī§æĶ¿
èģ ĭ
å°ļ æĹł
ä¸į å¿ħè¦ģçļĦ
åĨľ çī§
åºķ èķ´
èĦĤèĤª éħ¸
Ġper me
Ġdim ension
è®¤ ç½ª
åĪĻ åı¯ä»¥
Ġlong itudinal
çĻ¾åĪĨ æ¯Ķ
å¼Ģ éĢļ
ç»ıæµİ æĶ¿çŃĸ
æĢ» ç»ıçĲĨ
rins ic
ç¨³æŃ¥ æİ¨è¿Ľ
æķ°æį® ä¸Ń
ä¸įåĲĮ çļĦæĺ¯
äº¤æĺĵ å¸Ĥåľº
åĩł çĤ¹
åĪĬ çī©
çŃ¾è®¢ çļĦ
æłĵ å¡ŀ
Ġmitochond ria
ç¬¬åĽĽ èĬĤ
ä¾ĿéĿł äººæ°ĳ
å¹¿æĴŃ çĶµè§Ĩ
åĶ¤ éĨĴ
æ´ Ĵ
æľĢ åŁºæľ¬çļĦ
ody n
ä½Ĩ åıĪ
åŁº åĽ¢
å± ĳ
åĩº èĩª
Ġf ore
Ġchalleng es
èĥ½ ä¸įèĥ½
çĻ½ çļ®ä¹¦
æĮĩåĩº çļĦæĺ¯
è´´ çİ°
åŀĭ åı·
ä¸ ¸
ä¸Ń æıĲåĩº
åħ·æľī å¾Īå¼ºçļĦ
å±Ģ éķ¿
Ġfib ro
æŀģ æĺĵ
ä¸ŃåĽ½çī¹èī²ç¤¾ä¼ļä¸»ä¹ī çĲĨè®ºä½ĵç³»
äºĳ ç«¯
åħ»èĢģ æľįåĬ¡
èªī ä¸º
ä¾Ŀæ³ķæ²» åĽ½çļĦ
æ¤ Ń
éĢı è§Ĩ
Ġo rient
Ġan esthe
ä¸Ģ ä½ĵçļĦ
is ter
Ġits elf
æĸ ©
å¯¹ ä¼łç»Ł
åıĳå±ķ çĽ®æłĩ
ri e
ç½ĳç»ľ åĴĮ
æ´Ľ åħĭ
ç²ĺ èĨľ
çļĦä¸Ģ æĿ¡
Ġeff orts
çļĦ ç§įç±»
ç¬¬åįģ ä¹Ŀ
åľ° åĪ©
æħ Į
éĤ® æĶ¿
å»º æĿĲ
Ġsup ernat
m ut
åħ¶ åŁºæľ¬
ç¬¬ä¸ī çĻ¾
d ic
Ġcom pl
æī¶ åħ»
æĹ¥ æĸ°
èī¯æĢ§ äºĴåĬ¨
èĤ¡ä¸ľ çļĦ
ç»Ħ éķ¿
ä¸Ń å°Ĩ
åľ¨ æĬĢæľ¯
å¥łå®ļ åŁºç¡Ģ
åı¯ æĶ¯éħį
æĪĺ å£«
Ġ5 2
æµĵ åİļ
Ġpath ogens
æº¢ åĩº
åľ¨ åħĪ
Ġm aps
æĿ¥ åĪĨæŀĲ
éĥ½ å±ŀäºİ
äºĨè§£ åĪ°
def icient
l s
ĠS everal
éĶĻ ç»¼
Ġnucle i
æĿ¥ äºĨ
æľĪ åĪĿ
Ġsubj ected
otyp ic
æĬ¢ æķĳ
åıįèħĲè´¥ æĸĹäºī
æ¶² åİĭ
ĠPro tein
11 7
Ġcent rifug
æŁı æĭī
å· «
æµ· æĭĶ
ä¹Ł å¼Ģå§ĭ
æĸ°æĹ¶ä»£ çļĦ
åĩº ä¸Ģä¸ª
åķ ¡
çŃī ä¸įåĲĮ
æ¶² æĢģ
F I
å¼ĢæĶ¾ å¼ı
æ·± æµ·
è¯¾ç¨ĭ è®¾è®¡
ç»Łæ²» éĺ¶çº§
åı¯ å¼ķèµ·
å°Ĩ ä»İ
åİĨåı² åıĳå±ķçļĦ
åħ¨ ç¤¾ä¼ļçļĦ
åı¦ è¡Į
å±Ĭ åĽĽä¸Ńåħ¨ä¼ļ
ä½Ĩ ä¸įèĥ½
æĹł é¡»
è®® åĳĺ
åħ¼ åħ·
æĪĳ åĨĽ
Ġext rem
Ġdefic its
æıĲ è®®
é²ľ æ´»
Ġre plic
cut aneous
åıĤèĢĥ èµĦæĸĻ
è®¿éĹ® æİ§åĪ¶
Ġcolle ag
åĴĮ ç»ĵæŀĦ
ä¸ªæĢ§ åĮĸçļĦ
å½ ¦
åħĥ åĻ¨ä»¶
åĴĮ ä»¥
æľĢ åĲİçļĦ
Ġcho ice
åĲ¯ è¿ª
å¹³åĿĩ åĢ¼
æ¸´ æľĽ
W S
èµĸ ä»¥
è° ľ
Ġmon ocytes
åŃĹ ä½ĵ
è½¯ å®ŀåĬĽ
ä¸ĵ æłı
åĲĪåĲĮ çº¦å®ļ
è¯Ħä»· åĴĮ
Ġprom ising
åħ´ çĽĽ
ä¸ĬçļĦ è®²è¯Ŀ
æŃ»äº¡ çļĦ
ĠM I
æ¼Ķ å¥ı
è½» æĺĵ
çħ§ æĲ¬
åĮħå®¹ æĢ§
èĩªè´¸ åĮº
AR S
y cl
éģĹ è¿¹
h y
åįģ åĩł
å®ŀçİ°ä¸Ńåįİæ°ĳæĹıä¼Łå¤§å¤įåħ´ çļĦä¸ŃåĽ½æ¢¦
Ġt aking
SC I
è´¦ éĿ¢
åı¬ éĽĨ
å¦Ĥä½ķ å®ŀçİ°
Ġ æĹ¶
æĬķèµĦ äºº
åĨ³çŃĸ çļĦ
Ġcol um
åľ¨ å®ŀçİ°
èĢĮ æĪĲçļĦ
è´¯å½» æĸ°åıĳå±ķçĲĨå¿µ
è¯¾åłĤæķĻåŃ¦ ä¸Ń
Ġp ig
FP GA
åĨłçĬ¶ çĹħæ¯Ĵ
Al though
çļĦ æįŁå¤±
Ġadoles cents
ä¿Ŀ åĢ¼
æ³ķ ä¸Ń
èĤ¡ä»½ åĪ¶
G N
åıĸå¾Ĺ éĩįå¤§
æĭī ä¸ģ
æľ¬è´¨ ä¸Ĭæĺ¯
åĽ½åĬ¡éĻ¢ åį°åıĳ
]^ ,
Ġtoler ance
æł¸ èĥ½
çŁ¥ çļĦ
Ġpers ons
å¤ĸ åĽ´
èī² ç´ł
åľ°åĮº åĴĮ
çł º
ĠĠĠĠĠĠĠĠĠĠĠĠĠĠĠĠĠĠĠĠĠĠĠĠĠĠĠĠĠĠĠĠ ĠĠĠĠ
çĽ®æłĩçļĦ å®ŀçİ°
çĺ ¦
çļĦéĩįè¦ģ åİŁåĽł
äººå¤§ ä»£è¡¨
åı¯ä»¥ è¿Ľè¡Į
éħ¶ çļĦ
çļĦçłĶç©¶ ä¸Ń
å¨ģ å°Ķ
è¿Ļä¸Ģ åĪĩ
æ°´ æŀľ
ill in
æĺ¯ äºº
es e
ä¿Ŀéļľ æľºåĪ¶
ä»»åĬ¡ åĴĮ
æıĲåĩº éĹ®é¢ĺ
é«ĺåº¦ çļĦ
å¢ŀåĬł çļĦ
å°Ķ å·´
Ġpossi bly
åĨħ åĮĸ
Ġmacroph age
Ġsep sis
Ġcateg or
å®½ å¹¿
åĪ« çļĦ
ä¿Ŀè¯ģ éĩĳ
èĥ½å¤Ł ä¸º
Ġcontrib utions
ly ce
æ·±åĪ» åıĺåĮĸ
æıĲä¾Ľ ç»Ļ
Ġelect roph
ä¸įä»ħ èĥ½
gen erative
åıĤæķ° çļĦ
å¼ı ä¸Ń
ĠM icro
å¼Ģ åĬŀ
åİŁ åıĳæĢ§
æ³ķå¾ĭ æķĪåĬĽ
Ġs u
èĻ ŀ
Ġtom ography
ä» Ĩ
çĶ² éª¨
çļĦ éĤ£æł·
Ġsal ine
Ġ æĹ¥
è¦ģ æ³¨éĩį
ä¿Ŀéļľ åĪ¶åº¦
æ¸Ĳ æ¸Ĳ
æĢ»çļĦ æĿ¥è¯´
è¯ģ çĽĳä¼ļ
æ¯«æĹłçĸĳ éĹ®
çļĦ äº§çī©
å·¥ ç§ĳ
è¿Ļ ç¯ĩ
åħī ç»ª
f ort
æĬĹ çĸ«
åĪĻ ä»¥
ç³»ç»Ł åľ¨
æļ ĳ
ä¸Ńçº§ äººæ°ĳæ³ķéĻ¢
æ³ķ å®Ŀ
å®¶ ä¹¡
åı¯èĥ½ åĩºçİ°
åĴĮ B
åºĶ çº³ç¨İ
èĩª éĹŃ
æĭ ¦
æĪĳä»¬ æīĢ
æİ¨ éĢģ
yth on
ä¸ĭ è¾¾
åİŁåĪĽ æĢ§
çļĦ äººæīį
æĿĥ ä¸İ
Ġin vention
éĩį ä»»
ç¢ Ĺ
åľ¨è¿Ļä¸ª è¿ĩç¨ĭä¸Ń
çļĦ åĵ²åŃ¦
ç¡®å®ļ ä¸º
ä¸ŃåĽ½ ç¤¾ä¼ļç§ĳåŃ¦éĻ¢
çĿ ¦
Ġb ran
å° ī
è¿Ĳ çĶ¨äºİ
å·¥ä½ľ å²Ĺä½į
å¿« éĢĴ
æĽ´åĬł çªģåĩº
éĢļå¸¸ ä¼ļ
æĽ´é«ĺçļĦ è¦ģæ±Ĥ
éª Ħ
è¶ĬæĿ¥è¶Ĭ é«ĺ
è ³
åħ±åĲĮ åĬªåĬĽ
Ġal ways
å¤§å¹ħ æıĲåįĩ
åħ« ä¸ª
Ġactiv ate
Ġbiomark er
Ġ5 6
èº«ä»½ è¯ģ
Ġdecre ases
n g
åįķ è¯į
çĶµåŃĲ éĤ®ä»¶
åħļé¢Ĩå¯¼ äººæ°ĳ
è¿Ľè¡Į è°ĥæķ´
æī¾ åĩĨ
å¾® åįļ
11 3
15 5
å®Ī æĬ¤
æ´Ĺ éĴ±
åŃĲ åŃĻ
èĢħ å¯¹
çĬ¯ç½ª åĪĨåŃĲ
æ±¡æŁĵ çļĦ
çļĦä¸Ģé¡¹ éĩįè¦ģ
å¿ĥåĬĽ è¡°ç«Ń
å¼Ģ éĺĶ
12 4
äºĴ éī´
Ġy our
articip ants
ç¨İ é¢Ŀ
åĨį åĪĨéħį
Ġclos ely
ä¸Ĭåįĩ ä¸º
ä¸įåĪ° ä½į
ä¸Ģå®ļ ç¨ĭåº¦
éĢı éķľ
äº¦ æľī
æľī çĶ¨çļĦ
ç§į ä¸ļ
æĺ¯ ä¸Ńåįİæ°ĳæĹı
æľ¬ åįķä½į
è¦ģ ä½¿
ä¸Ń ä¸ĸçºª
ä¹Į åħĭåħ°
Ġprec urs
æĸ° å±ĢéĿ¢
ç¬¬ä¸ī æĿ¡
éģĹ çķĻ
åľ¨ å®ŀè·µ
æ· ¬
ä¼ļ éķ¿
åĲİ äºº
+ "
ĠDes pite
ĠI R
Ġbi ochemical
éĩįå¤§ å½±åĵį
Ġser ve
éĢļè¿ĩ ç½ĳç»ľ
ozyg ous
åĴĮ M
æĪĺäºī ä¸Ń
Ġs pl
åįģ ä½Ļ
f e
æĭī ä¼¸
Ġcur ves
Ġep id
çļĦ å»ºè®®
Ġm im
æĹ¥ åĲİ
æķĻèĤ² å·¥ä½ľ
è¾ĵ åĩºçļĦ
w here
åħ¨ åĳĺ
Ġpublic ation
å¤ļ å±Ĥ
ç«ĭ å®ª
ç¬¬äºĶ ç«ł
çģĮ æ³¨
æĪĲä¸º ä¸ĸçķĮ
åĿĲæłĩ ç³»
å¯¼ ç®¡
ä¸ĵä¸ļ è¯¾ç¨ĭ
Ġvari ations
gen e
Ġadj acent
Ġ5 1
é»ĳ æļĹ
Ġantibio tic
æ³ ª
æ¶ ħ
ä¸Ĭ è¯¾
åħ³éĶ® ä½ľçĶ¨
çĶ» åĥı
èĦĳ è¡Ģç®¡
eren ces
å¸Ŀ çİĭ
Ġcardi omy
Ġfil ter
åĴĮ éĩĳèŀį
å¾® è½¯
åĵģ çļĦ
çŁ¥è¯ĨåĴĮ æĬĢèĥ½
æĴŀ åĩ»
Ġsuper ior
èĻ½çĦ¶ åľ¨
åħĪè¿Ľ æĸĩåĮĸ
åİĮ æ°§
os en
ä¸ĢèĪ¬ æĢ§
å·²ç»ı å¼Ģå§ĭ
æľī å¾Īå¤§çļĦ
Ġ1 50
èĤ¾ ä¸Ĭ
*^ *
å¯¹ æĸ°
Ġpro pose
æīĢæľī æĿĥçļĦ
Ġsurve illance
ç¤¾ä¼ļ åıĳå±ķçļĦ
ä¸ĵ æľī
éª¨ è´¨
çİ¯èĬĤ çļĦ
çĽ¸ä¼¼ æĢ§
ä¸įåıĺ çļĦ
çļĦä¸Ģ éĿ¢
æŃ¦ åĬĽ
æĮĩå¯¼ æĦıä¹ī
Ġp le
è§ĦåĪĻ åĴĮ
ĠâĶ ľ
åĽ½éĻħ å¸Ĥåľº
æĭĨ éĻ¤
æŃ£ æŀģ
ĠA F
Ġartic les
åĪĻ åı¯
èĨ ı
ä¸Ĭ è®²
Ġre n
è¶Ĭ å¥½
ar com
ä¸įåı¯ æĬĹ
ä¼ĺåħĪ åıĹåģ¿
æĺ¯ è¢«
çı Ĭ
æľįåĬ¡ èĥ½åĬĽ
åģı éĩį
ãĢĭï¼Į ãĢĬ
ç¯ĩ å¹ħ
é¢ģå¸ĥ äºĨ
T H
iv es
æ¿Ģ åĬ¨
åĬªåĬĽ å®ŀçİ°
Ġgra d
Ġaim s
ä¸º éĽ¶
or rh
Ġ5 4
æĽ´ åħ·æľī
åħ¬ä¼Ĺ åıĤä¸İ
æİ¨ åĩºäºĨ
çĪ± åĽł
6 000
è§Ĵ èĨľ
ä¸įè®º æĺ¯
20 50
åį±æľº çļĦ
æķĻèĤ² ä¸Ń
Ġprob ably
äºĶåĽĽ è¿ĲåĬ¨
Ġapop totic
æĸĩçī© ä¿ĿæĬ¤
åıĳå±ķ ä¸ŃçļĦ
å§ ĳ
è¿Ľè¡Į å¤ĦçĲĨ
Ġcoeff icient
ç®¡çĲĨ æľºåĪ¶
tiv es
Ġf ract
èĤ¾ åĬŁèĥ½
Ġemo tional
ĠH E
æĬī æĭ©
å¼º åº¦çļĦ
åĲĪä½ľ åħ±èµ¢
Ġh ouse
ĠT otal
çĽ¸ åıĺ
æĹ¶ å»¶
æīĢ æĮĩ
æĢĿ è¾¨
éľĢè¦ģ æľī
çī¢è®° ä½¿åĳ½
Ġtreat ing
ä¹ĭ ç¾İ
Ġsus p
åĪ¶ æ°¢
éĹ¨ è¯¾ç¨ĭ
Ġar row
çļĦ è¿Ĳè¡Į
ä¸į åĲĪæł¼
Ġg ut
æ»¡è¶³ äºĨ
åĬ¡ å·¥
ad j
è¿¹ è±¡
ç³ Ł
åħ¶ éĹ´
te b
u z
ç¨ĭ å¼ı
éľĢè¦ģ æ³¨æĦıçļĦæĺ¯
åŃ¦ å£«
ä¸įäºĪ æĶ¯æĮģ
å¼Ĥè´¨ æĢ§
æĶ¿çŃĸ ä½ĵç³»
åŃ¦çĶŁçļĦåŃ¦ä¹ł åħ´è¶£
èĤ¾ä¸Ĭ èħº
ç®¡çĲĨ æ³ķ
ç»ıæµİå¢ŀéķ¿ çļĦ
æĹº çĽĽ
å°Ĩ ä½¿
Ġne oplas
ä¹łè¿ĳå¹³ ä¸»å¸Ń
ä»ĸä»¬ è®¤ä¸º
æĢ§èĥ½ åĴĮ
åīįæīĢæľª æľī
ri um
æ¸² æŁĵ
èĦ± èĬĤ
æľīæľº ä¼ļ
Ġcomp eting
çĥŃ çĶµ
Ig G
ä¸į å®ī
å® ´
Ġt y
h i
æľ¬ åľ°åĮº
éĩį ä¸Ńä¹ĭéĩį
æĥħåĨµ åĴĮ
åľ°çĲĨ åŃ¦
æĺ¯ éĴĪå¯¹
æĶ¶åħ¥ åĴĮ
ç²ª ä¾¿
E ff
çİ¯å¢ĥ ä¸İ
æºĲ çļĦ
åħ³ çĪ±
æŁĲ ä¸Ģä¸ª
è¿Ľä¸ĢæŃ¥ æ·±åĮĸ
os al
b al
ä¸İ æĶ¿åºľ
éľ ¾
æĮĩåĩº äºĨ
ä¸ĩ æĪ·
Ġmaterial s
ç¤¾ä¼ļ æĪĲåĳĺ
ĠP r
å½Ĵ ç±»
åľ°çĲĨ ä½įç½®
Ġrecord s
æĸ°åĨł çĹħæ¯Ĵ
L F
y te
æľ µ
äººåĳĺ åĴĮ
11 8
âĢ Ĥ
Ġcol orectal
ä¸»è¦ģ ä¾ĿéĿł
çļĦäºº ç¾¤
æĸŃ å±Ĥ
ç¨³ ä¸Ń
Ġre duces
çĪ±åĽł æĸ¯åĿ¦
ä¸º æł¹æľ¬
ä¹ĭ äºº
è®® éĻ¢
æ®ĭ ä½Ļ
ç®¡çĲĨ ä¸Ń
ç¤¾ä¼ļä¸»ä¹ī çļĦ
åĽ½ ç«ĭ
P ET
çĶ± åħ¶
Ġcl aim
çĽĳ çĭ±
ver sion
å¹´ä»£ çļĦ
medi ately
æĥħ çļĦ
Ġt it
åĲĪ è®¡
æĸĩåŃ¦ ä½ľåĵģ
Ġprac tices
é¥² åħ»
åĩº èº«
æĶ¯æĮģ ä¸ĭ
ç»Īèº« åŃ¦ä¹ł
å°ĳ å¥ĩ
çŁŃ æĹ¶éĹ´åĨħ
è´Łè´£ çļĦ
åĪ¶ åĽ¾
ä¸Ńåįİ æ°ĳåĽ½
çİĩ é¢Ĩ
åħ¶ä¸Ń æľī
Ġsk eletal
è¿Ľè¡Į åħ¨éĿ¢
å¤´ çļĦ
é«ĺ é£İéĻ©
æīĢ è§Ħå®ļçļĦ
ä¸ŃåĽ½ åĽ½æĥħ
è§ī æĤŁ
éªĹ åıĸ
æĹ Ń
æĸ¹ èĥ½
èĲ½ æĪ·
ä¸įä»ħ åľ¨
æ°´å¹³çļĦ æıĲé«ĺ
Ġ å¦Ĥ
åŁºå±Ĥ æ²»çĲĨ
Ġischem ic
resent ative
åħ¨ åĨĽ
ä¹ĭ äºĭ
åħ±åĲĮ åıĤä¸İ
ç§»åĬ¨ äºĴèģĶç½ĳ
æľĢé«ĺ äººæ°ĳæ£Ģå¯ŁéĻ¢
ä¸ĵåĪ© æ³ķ
Ġneur on
æµ· é»ĺ
ult ure
è¯Ńæĸĩ æķĻåŃ¦
èĿ ¶
è¿ĲåĬ¨ åĳĺ
åįĬ çĲĥ
åĬ³åĬ¨åĬĽ å¸Ĥåľº
Ġf lex
å¸ĥ å°Ķ
å»ºç«ĭ ä»¥
ç©ºéĹ´ ä¸Ń
Ġreas ons
åķĨ è´¸
æİ¢ç´¢ åĴĮ
è¡ĮåĬ¨ çļĦ
éĺ»ç¢į äºĨ
æĳ© å°Ķ
åŃ¤ å²Ľ
O n
ä¸ĭ åĽ¾
æĽ´å¤ļ çļĦæĺ¯
æĸ¹å¼ı è¿Ľè¡Į
å¾Ĺ çŁ¥
ĠN M
åĨľæĿĳ åľ°åĮº
ä¹Ĳ åĻ¨
Ġstr atif
ä¸ĩåħĥ ä»¥ä¸Ĭ
è¿ľ æľŁ
ä¸º æłĩåĩĨ
äºĶ åįĥ
èĨĢ èĥ±
åı¯ ç¼ĸç¨ĭ
åħ±äº§ åĽ½éĻħ
13 5
çĽ®çļĦ åľ°
ä¸¤ ç»Ħ
v ance
èĳ£äºĭ éķ¿
è´¦ åı·
åıĹè¯ķ èĢħ
ä¿ĿæĮģ äºĨ
å¯¹ æķ´ä¸ª
æĸĹäºī ä¸Ń
å¹´è½» äºº
å¹² åĩĢ
Ġpair s
æľįåĬ¡ è´¨éĩı
Ġep ig
åĪĿ è¡·
é ł
ä¸į åıĳçĶŁ
å®¢æĪ· çļĦ
Ġir radi
âĸ ³
Ġex tensive
Ġar ch
Ġpsych ological
æ°ĳä¸» çļĦ
Ġcolleag ues
ay ers
çªģçł´ æĢ§
åĬłåī§ äºĨ
ä¿¡æģ¯ ä¸įå¯¹ç§°
æĵį æİ§
ç§ĳ åĪĽ
19 48
ĠM y
ä»» æľŁ
å½Ĵ äºİ
ä¸į æŀĦæĪĲ
åĩı éĢĢ
Ġ5 3
ç¬¬åįģ åħ«
ç©ºæ°Ķ è´¨éĩı
çŀ¬ éĹ´
ĠD R
çĽ¸äºĴ å½±åĵį
å¯Ĩ ä¸įåı¯åĪĨ
åºĶå½ĵ å°Ĩ
åľ° å±Ĥ
é© Ń
è¯ķ åį·
éĽĨä¸Ń ä½ĵçİ°
ä¼Łå¤§ æĪĲå°±
Ġcaus ing
è¡į å°Ħ
åıĺåİĭ åĻ¨
ä¸Ģ åħĥ
os p
åĮ Ļ
æľī è¿ĩ
è½¬ åĬ¨
O pen
f ord
ä¸Ģ å±Ĥ
ä¸į ä½³
Ġpro st
ce ed
åķ Ĭ
åĨį å¦Ĥ
ä¸ĢèĪ¬ åľ¨
ac et
éĥ¨ åĴĮ
G AT
é½Ĳ åħ¨
çĽ® åħī
or age
ab etes
æĺ¾èĳĹ æıĲåįĩ
æĭ Į
åĨľæĿĳ éĽĨä½ĵ
å½ ª
åĨħ åĪĨæ³Į
çĿĢ çļĦ
åĨį åº¦
çıŃ ä¸»ä»»
Ġampl ification
å°Ĩ ä»¥
å®ĥ åħ·æľī
ä¸ĵä¸ļ æĢ§
ç¤¾ä¼ļ ç¦ıåĪ©
ä¸Ģ æĬĬ
åħ¬ äº¤
æĹ¶ è¦ģ
ä¸Ģ åĳ³
æ°ĳæĹı åĮºåŁŁèĩªæ²»
åıĤ æĶ¿
Ġdi verse
we ight
æľī å¤ļç§į
æ±ī ä¹¦
è¶ħè¶Ĭ äºĨ
è´¯å½» æī§è¡Į
Ġmal aria
åħ¬ èģĮ
Ġtrans genic
Ġan n
æĳ ¹
Ġrespon si
åı¯èĥ½ å¯¹
ĠD ifferen
è¶ħå£° æ³¢
ĠT reg
åŁºç¡Ģ çĲĨè®º
åĪĩ æĸŃ
Ġdisc overy
ä¸ŃåĽ½ äººçļĦ
ĠS E
é¡º çķħ
å©´ å¹¼åĦ¿
Ġeff icient
å¤ļ æ¸łéģĵ
æĪĳä»¬ åıĳçİ°
ç¬¬ä¸Ģ éĥ¨
In ter
N ew
æ¤ ħ
åħ± éĿĴ
ä¸ĸ è´¸
ĠDe velopment
Ġreg ist
åľ°ä½įåĴĮ ä½ľçĶ¨
-------------------------------- --------
å¿ĹæĦ¿ æľįåĬ¡
åıįåºĶ åĻ¨
åĽ´ç»ķ çĿĢ
æľĢ å¸¸è§ģçļĦ
å¸ĤåľºåĮĸ æĶ¹éĿ©
^âĪĴ ^
D es
ä¸İ èĩªçĦ¶
19 54
èįĢ åŃĲ
åħ Ķ
å¤§ è¿ŀ
Ġ1 000
éĶ °
St atistical
Ġtub e
æĽ¾ åľ¨
åįģåĪĨ éĩįè¦ģ
Ġprotocol s
M ethods
en vironment
æĪĳä»¬ çŁ¥éģĵ
èİ İ
ç¬¬ä¸Ģ ä½į
è´¹çĶ¨ çļĦ
é¹ ¤
abil ities
ç¤¾ä¼ļ ç¨³å®ļ
ä½Ĩ çĽ®åīį
åįķ ç»Ĩèĥŀ
è¿ĺ æľª
è¯¥ æ³ķ
è§Ĩ åĲ¬
åºĶå½ĵ å¯¹
åĪ¶éĢł ä¼ģä¸ļ
çİ°å®ŀ éĹ®é¢ĺ
Ġelect rical
å®ĭ æľĿ
res h
æľįåĬ¡ åŀĭ
éĢ»è¾ĳ çļĦ
ä¸Ģä¸ª æĹ¶æľŁ
èĽ ĩ
Ġob struc
Ġstand ardi
æİ¨åĬ¨ å½¢æĪĲ
å½¢ å®¹
we ek
åĮĪ å¥´
æĿ¥ è§£éĩĬ
b ody
æ³ķ å®ļçļĦ
Ġent ry
äººå·¥æĻºèĥ½ æĬĢæľ¯
c ont
ä¹ĭ åĬ¿
éļ ĺ
ĠT ype
åŃ¦çĶŁ ä»¬
äºĮåįģ ä¸ĸçºª
çļĦ çĶŁåĳ½
æĺ¯ æĸ°æĹ¶ä»£
åĲĪçĲĨ åĪ©çĶ¨
Ġacc ordance
æĶ¶åħ¥ æ°´å¹³
Ġinter fer
é¢łè¦Ĩ æĢ§
éĻª å®¡
Ġ ä½ľä¸º
çº¿ åľĪ
çŁ ®
çªĥ åıĸ
æģ¯æģ¯ çĽ¸åħ³
åĲĪ ç»Ħç»ĩ
Ġtask s
ä½ĵ åĬĽ
çĥŃ èĥ½
æłĩå¿Ĺ æĢ§
è¿Ļ ä½į
åħļçļĦåįģ ä¸Ģ
ä¹Ł ä½¿
æŃ¦ æľ¯
O A
å¹´ ä¸º
ĠEx pression
çĽ´æİ¥ è´£ä»»
è¡¨æĺİ äºĨ
Ġex cept
ä¸į ä½ľä¸º
å¹´ ä»¥åĲİ
å¿ħçĦ¶ éĢīæĭ©
äººçĶŁ è§Ĥ
æĪĳåĽ½ç¤¾ä¼ļ ä¸»è¦ģçŁĽçĽ¾
at t
è¶³ è¿¹
æĪĲæľ¬ é«ĺ
å¤Ħç½ļ éĩĳ
å° į
Ġs uit
ä¸į é¡¾
æŃ£ æ¯Ķ
èįī åľ°
Ġphys ician
äº¦ åı¯
æİĴ ä»ĸ
å¼ºåĽ½ å»ºè®¾
Ġe ti
èĢĮ åĩº
le ge
çĤ¹ è¯Ħ
Ġfunction ing
åĽ½éĻħ æłĩåĩĨ
amb da
è·¨ æĸĩåĮĸ
åĲĦåľ° çļĦ
è¿Ļæł· å°±
ensi tivity
Ġsci entific
Ġf ace
ĠG l
G s
éĩį åº¦
éĹ´ æĸŃ
Ġprim ers
in ib
å¼Ģåıĳ ä¸İ
Ġcomp uter
éĢŁåº¦ åĴĮ
Ġb le
å°Ĩ è¿Ľä¸ĢæŃ¥
å·² è¾¾
èĥ½åĬĽ ä¸İ
ä¸įæĸŃ åĬłå¼º
åķĨ ä¼ļ
å±Ĭ åħ¨åĽ½äººå¤§
çĹ ī
é¢ĨåŁŁ åĴĮ
åĨłçĬ¶ åĬ¨èĦī
è¦ģ æĮīçħ§
çİ°ä»£ æķĻèĤ²
åĬ£ åĬ¿
çļĦ åħ¸åŀĭ
ä¸ŃåĽ½çī¹èī² çļĦ
å´ ĸ
Ġlung s
è¶ħ åīį
åıĳå±ķ æĪĲæŀľ
èĢĮ ä½¿
ç¬ Ľ
å½Ĵ åĽł
Ġ ç¾İåĽ½
ä¸įèī¯ åıįåºĶ
Ġlat ter
Ġsh ift
å®¡åĪ¤ åĨ³
å®ŀéªĮ ç»ĵæŀľ
ä»£è¡¨ äººçī©
æ½ Ń
Ġm ap
Ġpos itively
Ġbre ath
å¼Ģ å·¥
Ġg raph
æł¡ éªĮ
e ep
ä»¥ éģ¿åħį
è®° ä½ı
12 9
ä½Ĩæĺ¯ çĶ±äºİ
G L
çĽ¸åħ³ ä¿¡æģ¯
Ġam yloid
æ°¸ èĳĨ
ä¸į æĢķ
èģĮ æķĻ
ä¹īåĬ¡ äºº
ä»¥åıĬ ä¸İ
Ġtren d
å¤§å¤§ æıĲé«ĺ
èĩª æľī
çĶŁæ´» æ°´å¹³
åįıè°ĥ æİ¨è¿Ľ
çºµ æ¨ª
éĵ¸ çī¢
éĻį éĽ¨
è§Ĥå¿µ åĴĮ
l ip
å°Ĩ æķ°æį®
å¤ª å¤§
Ġautophag y
èĲ¥ è¿Ĳ
è¿ŀ éĢļ
å¤§ åŃ¦çĶŁçļĦ
çºªå¾ĭ æ£ĢæŁ¥
æ°´åľŁ æµģå¤±
v s
S igma
çļĦ åĬ³åĬ¨
çļĦ åħ¨çĲĥ
ç§ĳåŃ¦ çŁ¥è¯Ĩ
å¼Ģåıĳ åķĨ
èµĦæľ¬ è®º
åī² è£Ĥ
èģĮä¸ļ èµĦæł¼
æķĻåŃ¦ æīĭæ®µ
å¹¿æ³Ľ åľ°
è´¿ èµĤ
çļĦ æĢĿç»´
æľĢç»Ī å®ŀçİ°
Ġ éļıçĿĢ
ä¼° ä»·
åĻ¨ æĿĲ
m p
åħĪè¿Ľ æĬĢæľ¯
æĪĳ åľ¨
å½ĵäºĭäºº åľ¨
çķĻä¸ĭ äºĨ
Ġslight ly
N ot
æĹ¥å¸¸ çĶŁæ´»ä¸Ń
å¸Ĥåľºåľ¨ èµĦæºĲéħįç½®
Ġre ag
åıªæľī å½ĵ
æĪ İ
Ġf alse
æĬ¥ éĢģ
éª¨ æŀ¶
åĲ¬ åĪ°
è¯į æĿ¡
Ġblock ed
Ġdefin ition
æĹł ä»İ
ç»¼åĲĪ åĪĨæŀĲ
èĢĮä¸Ķ æĺ¯
ç¼© åĩı
æĮĳ éĢī
ĠC ar
ä¸ĭ éĿ¢çļĦ
åı¯ä»¥ æıĲä¾Ľ
è¦ģ åģļåĪ°
æĢĿæĥ³æĶ¿æ²» çĲĨè®ºè¯¾
åħ¬ä¿¡ åĬĽ
åħ¬ å¼Ģåıĳ
è¡¨ è§Ĥ
çŁ¥æĥħ æĿĥ
æĺ¾ èĢĮæĺĵ
çļĦ èĥľåĪ©
æĻĭ åįĩ
æľīåĬĽ æĶ¯æĴĳ
Ġvi ability
ĠF ran
åģ¥åº· æĪĲéķ¿
æĪ¿ åŃĲ
ĠÎ¼ l
ä¹ĭ æºĲ
åĨħ éĻĨ
çī¹ å°Ķ
è°Ĳ æ³¢
åĽ½åĨħ å¸Ĥåľº
äºŁ éľĢ
Ġtub erculosis
åįĬ æ®ĸæ°ĳåľ°
éŀ Ń
åĪĩ çīĩ
Ġt ail
æĽ´ è¿Ľä¸ĢæŃ¥
B l
è°± åĨĻ
Ġrecru ited
roph ic
çĽ¸åħ³ æĶ¿çŃĸ
åħ¨åĽ½ æĶ¿åįı
æĬĢæľ¯ æłĩåĩĨ
éĩįè¦ģ è®ºè¿°
åıª åľ¨
æī° ä¹±
åħ³éĶ® åŃĹ
ä»ĭ äºİ
åħīä¼ı åıĳçĶµ
æĻļ æ¸ħ
çļĦ éķ¿æľŁ
ä¼ļ å¢ŀåĬł
å°± å¼Ģå§ĭ
Ġcol i
äººå¤§ å¸¸å§Ķä¼ļ
çº¤ç»´ ç´ł
å½ĵ éĢī
åŃ¦ä¹ł ä¸Ń
æŃ£å¸¸ è¿Ĳè¡Į
äººåĳĺ åľ¨
ç²ī æľ«
Ġ4 9
æµ ĩ
ç»ıæµİ æ³ķ
å»ºè®¾ ä¸İ
åıĳçĶŁ æĹ¶
éķĩ åİĭ
éĩ ī
åĨĽ åĽ¢
Ġexpl an
ç Ģ
æŀĦ æĢĿ
é¸ Ń
åĽºå®ļèµĦäº§ æĬķèµĦ
Ġg est
æ´¾ çĶŁ
æķ°æį® ç»ĵæŀĦ
åįģ ä¸ª
ç¨İ çļĦ
è¿Ļ æĸ¹éĿ¢çļĦ
ch ar
Ġadvant age
èĩªéĹŃ çĹĩ
è§£ çłģ
éĢīæĭ© åĴĮ
Ġregion al
éĴ ®
å°½ åĬĽ
Ġ{ \
åħ±éĿĴ åĽ¢
çļĦ éĺ¶æ®µ
èĢĮ ä»¥
äººæ°ĳ éĵ¶è¡Į
å°±æĺ¯ æĮĩ
çĽ¸å¯¹ è®º
13 1
åŁºåĽł çªģåıĺ
æ·±è¿ľ çļĦå½±åĵį
Z n
O N
çĽ¸ ä¼ł
Ġg ive
å½Ĵ è¿ĺ
çľŁæŃ£ å®ŀçİ°
åħ» çĶŁ
Ġ3 00
Ġtransf ection
å¸¸ ä½ı
ĠSt atistical
è´¨ è°±
** .
çļĦæĸ° éĹ»
è§£éĻ¤ åĲĪåĲĮ
æĺ¯ è§£åĨ³
æīĢ éľĢè¦ģ
ç¤¾ä¼ļ ç®¡çĲĨ
ä¹ĭ æĹ¥
èı Ĭ
åĬ¨æĢģ çļĦ
ä¸Ń è¥¿éĥ¨
èĢĮ å½¢æĪĲçļĦ
çĽ¸ æī¿
éĢĴ å¢ŀ
æ·±åħ¥ äººå¿ĥ
ç§¯æŀģ åıĳå±ķ
åıĹæīĺ äºº
åıĳæĮ¥ åħ¶
Ġam ounts
çŃī åĽ½å®¶
è¡ĮæĶ¿ ä¸»ç®¡éĥ¨éĹ¨
Ġaffect ing
åĩº åºŃ
çļĦ ç»ĵè®º
å»ºçŃĳ ä¸ļ
éĢŁåº¦ å¿«
Ġpsych iatric
åĽĽå·Ŀ çľģ
éĻĲ æľŁ
æĪĲæľ¬ ä½İ
çĶ Ħ
åıĪ åľ¨
ott om
âĹ ĭ
åĮĸåĲĪ çī©çļĦ
ĠB P
å¹¶ è¢«
14 5
æĿĢ äºº
ï¼ Ŀ
Ġsch izophrenia
åħ¬åı¸ åĴĮ
äºĮ çĻ¾
æľī éĴĪå¯¹æĢ§çļĦ
ä»¥åıĬ å¦Ĥä½ķ
è§ĤçĤ¹ åĴĮ
æĴ¤ åĽŀ
z er
ç¤¾ ç§ĳ
ä¾Ŀ è§Ħ
å© Ĩ
Ġcontrib utes
åĽ¾ æĻ¯
å°Ķ å¾·
èī¯æĢ§ å¾ªçİ¯
æĮĩæĺİäºĨ æĸ¹åĲĳ
ä¸ĸçķĮ éĵ¶è¡Į
äºĨè§£ åĴĮ
ä¼ĺ ç¾İ
æ´» æ£Ģ
åħ³èĬĤ çĤİ
ä»İ çĲĨè®ºä¸Ĭ
è®¡åĪĴ çĶŁèĤ²
Ġall el
Ġocc up
èĥ½æºĲ æ¶ĪèĢĹ
äºĭåĬ¡ çļĦ
Ġmicro g
æĭĺ å½¹
åĲĳ åŃ¦çĶŁ
åĪ¶åº¦ è®¾è®¡
çļĦåıĳå±ķ åİĨç¨ĭ
ect ors
å¤ª æŀģ
ĠWe b
ä¸İ åħ±
åħ« å¹´
ç¼ĵ åĴĮ
ĠSci entific
Ġve in
p sych
æ°´ äº§
ä¸ºäºĨ ä¿Ŀè¯ģ
åĪĻ è®¤ä¸º
14 6
åħį åıĹ
ä»ĺ è´¹
ä¸ĵéĹ¨ äººæīį
ä¸ŃåĽ½ åĨľä¸ļ
æĬķ éĻį
çĹħèĻ« å®³
çŁ¥ æĻĵ
çĽ¸å¯¹ çļĦ
æķĻ ä¸İ
ä¸į ä½İäºİ
ç»Ĩèĥŀ èĨľ
U ni
æ³ķå®ļ ç¨ĭåºı
Ġv ul
äº¤æµģ åĲĪä½ľ
å¹´ åħ¨çĲĥ
plan ted
Ġ é«ĺ
ç²¾ æ·±
éĴ ĵ
åī©ä½Ļ ä»·åĢ¼
ä¾ĭå¦Ĥ åľ¨
è¯¯ å¯¼
çĦļ çĥ§
æĬ¥ ä»·
m u
åĴĮ ä½İ
Ġg amma
è¿ŀç»Ń çļĦ
éĻķ çĶĺ
å°Ĩ è¾¾åĪ°
åįķä½į åĴĮä¸ªäºº
éº Ł
ĠAn g
Ġact in
ä¿ĿæĬ¤ ä¸İ
é¡¹çĽ® åĴĮ
é¦ĸæ¬¡ æıĲåĩº
æŁ Ħ
Ġparticip ant
Ġur inary
ç´¢ èµĶ
ĠProg ram
re ased
ä¸į åģ¥åħ¨
ä¾ ®
å¤ªéĺ³èĥ½ çĶµæ±ł
çł´äº§ æ³ķ
çļĦ éĩĳèŀį
åľ¨ æ¬§æ´²
æ²¿ çĶ¨
Ġoccur rence
d L
æķ ·
Ġdepend ing
åĲĳ ä¸ĸçķĮ
è¯Ħä¼° åĴĮ
Ġdistrib uted
åŃ¦ çĲĨ
ç³»ç»Ł çŃī
æıĲä¾ĽäºĨ ä¸Ģç§į
åı¯èĥ½ éľĢè¦ģ
äºĨä¸Ģ å¥Ĺ
Ĉ ï¼Į
åĬ¨ è¯į
åįł åĪ°
Ġimpro ving
h igh
è¯¥ åĽ½
äºĳ å¹³åı°
è¿ĺæľī ä¸ĢäºĽ
ä¼Łå¤§å»ºåħļ ç²¾ç¥ŀ
æĿ¥æºĲ çļĦ
é¡¹çĽ® å»ºè®¾
èĩ´ åĳ½
Ġdon or
èµĦéĩĳ æĬķåħ¥
æıĲåĩºäºĨ ä¸Ģç§į
æľ¬ä½ĵ è®º
åĴ ı
åºĶ æī¿æĭħ
åĵĪ å¸Į
Ġprovid ers
Ġcomplex es
åĩºåįĸ äºº
åľ¨ åĲĦç§į
åıĪ ä¸Ģ
Ġeff ectively
Ġn an
ra z
çª ¥
æŁĵ æĸĻ
b p
åı¯ä»¥ ä¸İ
å·ŀ çļĦ
åĨ· åĨ»
çĽĳçĿ£ åĴĮ
æĸ½ çŃĸ
åıĤ ä¿Ŀ
Ġappro val
æĭħä¿Ŀ çļĦ
ĠĠĠĠĠĠĠĠĠĠĠĠĠĠĠĠĠĠĠĠĠĠĠĠĠĠĠĠĠĠĠĠ Ġ
19 0
Ġk ind
æĹħæ¸¸ ä¸ļ
çļĦ æĶ¹åıĺ
åį±éĻ© æĢ§
bre ak
çļĦ æŃ£
ä¸į éĢĤåºĶ
ol i
åĽ½æľī ç»ıæµİ
æĽ´ æĸ°çļĦ
åįİ åįĹ
Ġpar tially
åı¯ ä¸İ
çĥĪ å£«
å¼Ģ å¹ķ
æĸ° åĵģç§į
å·¥ä½ľ åİŁçĲĨ
çĶ° éĹ´
ï¹ ĳ
æ¢Ĺ éĺ»
æ¶² ä¸Ń
çļĦ åĮĸåŃ¦
è±ģ åħį
æĺ¯ å½±åĵį
æľ¬ çº§
et ry
çİ¯å¢ĥ æ²»çĲĨ
éĩı è¡¨
èĥ½åĬĽ åŁ¹åħ»
çĶ° éĩİ
Ġcont rac
ul ates
è¿½æº¯ åĪ°
æĶ¿åºľå·¥ä½ľ æĬ¥åĳĬ
çŁ¥è¯Ĩ ç»ıæµİ
åĨħå®¹ ä¸İ
åĸľ çĪ±
åĴĮ C
åĪĽæĸ° æĦıè¯Ĩ
éĶĢåĶ® é¢Ŀ
Ġpul se
O ne
åĽ½ çŃĸ
æĬ ĸ
çŃī äººçļĦ
ĠH b
jug ated
åĩº ç¤º
ä¸Ģä¸ª æľĪ
Ġsm ooth
Ġlab eled
åıªèĥ½ åľ¨
æ· ¹
åĴĮæĸ¹æ³ķ è®º
è®¾ æ³ķ
åįĹ æĺĮ
èĲ į
ä¸¥ ç¦ģ
æĹ¶ å°ļ
æľ¬ çĿĢ
ĠMed ic
çĶŁçĲĨ åŃ¦
åĩłä¹İ æ²¡æľī
ĠA ge
æĮĩå¯¼ åĴĮ
Ġpl ates
åĬ¨ æ¤įçī©
av age
å¢ŀ å¹ħ
éĢĥ éĢ¸
åı¯èĥ½ æľī
Ġres ection
çİ°ä»£ æľįåĬ¡ä¸ļ
äºĮåįģ ä¸Ģ
ä»İ åİĨåı²
Ġappe ared
éĿŀ èĲ¥åĪ©
sequ ently
æĺ¯ å»ºç«ĭåľ¨
Ġre active
Ġr ise
ific ant
åĩºèµĦ äºº
å°± åľ°
00 9
æī¹åĪ¤ æĢ§
ä¸ļ åĨħ
Ġanaly ze
çłĶç©¶ æĺ¾ç¤º
Ġdom inant
åĽ½ åŃ¦
çī©è´¨ åŁºç¡Ģ
Ġto o
ĠS C
æ³¨ éĶĢ
éŃ Ħ
M AP
19 52
ul um
Ġover night
Ġclin icians
è¥¿ åĵ¥
åĮĹ å¹³
æĽ¿ å°¼
æľįåĬ¡æıĲä¾Ľ èĢħ
å¤§ ç±»
å¼Ģ èĬ±
åŀĭ äººæīį
æ¤į æł¹
hem atic
åĴĮ çĶŁçī©
è¡Įä¸ļ åıĳå±ķ
Fig ures
å¼Ģ éĶĢ
åĪĽæĸ° äººæīį
ĠH ep
å¤§åŃ¦ æķĻæİĪ
æ²³åĮĹ çľģ
çĽ¸ èģĶç³»
å¹¶ å¤Ħ
èĪ ľ
ĠD Cs
ensi tive
çŃī åŁºæľ¬
æŃ£å½ĵ æĢ§
æłĩ æĿĨ
ill i
å®ª ç«ł
Ġ\ +
æ·±åħ¥ åľ°
å±ħæ°ĳ çļĦ
ä»¥åīį çļĦ
åĪĻ éľĢè¦ģ
å¿§ æĤ£
åºĶ åĮħæĭ¬
è°ĭ åıĸ
ä¸į æĥ³
èĥ½å¤Ł å¯¹
æ¶µ åħ»
æ³ķçļĦ è§Ħå®ļ
è¿Ŀåıį æ³ķå¾ĭ
é©¬åħĭæĢĿä¸»ä¹ī æĶ¿åħļ
æ·±åľ³ å¸Ĥ
åĭŁ éĽĨ
äº ¢
åıĤåĬł äºĨ
æĹ¢ å®ļ
æķ°æİ§ æľºåºĬ
å¸Ĥåľº äº¤æĺĵ
ys ical
è·¨ åĮºåŁŁ
k er
ä¼ģä¸ļ åıĳå±ķ
åĨħ èĨľ
ä¼¯ çī¹
çļĦ è®¤å®ļ
æĸĩ éĿ©
èĬ ¦
12 1
Î¼ m
æķ ŀ
ä»İ åħ¶
ĠS yn
è®¡ç®Ĺæľº ç§ĳåŃ¦
è ¤Ĳ
è¦ģ è¿Ľè¡Į
çĭ¬ èµĦ
åĿĩ åĢ¼
æķĳ æ²»
çļĦ äº¤æĺĵ
çĽ¸ å¤Ħ
ect omy
ä¸į åģľ
ç©º æ´ŀ
ĠH ist
éĽ ģ
åı¯ä»¥ èİ·å¾Ĺ
Ġperiod s
æĻ¯ è±¡
éĶ» éĢł
Ġmetast ases
è¢ģ ä¸ĸ
éĽ ı
am ate
é¡½ å¼º
äººå·¥æĻºèĥ½ çŃī
èĥ° èħº
Ġintro duced
å°± åĮ»
ĠN eu
éĤ® ç®±
è¿ĳ è§Ĩ
çİ°ä»£ ä¿¡æģ¯æĬĢæľ¯
å®« å»·
åĪ¶ é«ĺçĤ¹
19 35
èĭ¥å¹² æĦıè§ģ
ä¹ĭ æ²»
Ġinf usion
Ġper fusion
å°¤åħ¶ åľ¨
Ġaccomp an
å·® åĪĨ
ap tic
Ġ åŃ¦ä¹ł
ä¸İ æĸ°
éľ ľ
å¿ħé¡» éĢļè¿ĩ
æģ ª
çĶµ æĦŁ
å®¶åºŃ çļĦ
ä¸º æİ¨åĬ¨
å®ĥ ä»¥
é¢Ħéĺ² åĴĮ
Ġcl ar
äº§èĥ½ è¿ĩåī©
æĿ ī
åħ¨éĿ¢å»ºè®¾ç¤¾ä¼ļä¸»ä¹īçİ°ä»£åĮĸåĽ½å®¶ æĸ°å¾ģç¨ĭ
3 60
V al
åľ¨ ç¬¬
Ġfail ed
Ġhippocamp al
å± ¿
å¦Ĥ ä¸Ĭ
åı¯ä»¥ è®©
åıĪ ä¸Ģæ¬¡
åĳ¨ æĺĵ
Ġw ays
æľĢ éĩįè¦ģçļĦæĺ¯
Ġnum erous
Ġantibio tics
åħĪè¿Ľ åĪ¶éĢłä¸ļ
ä½Ĩ æ²¡æľī
éĥ½ åŃĺåľ¨
æĶ¹éĿ© å§Ķ
æ±Ĥ çŁ¥
Ġmed ications
çļĦ ç§¯æŀģæĢ§
æĦıä¹ī åĴĮ
æĶĢ åįĩ
Ġven ous
åľ¨ åİĨåı²
Ġd ors
Ġref er
ä¸ī ä»£
å·¥ä½ľ ç»Ħ
æ¸ĹéĢı åĪ°
k m
è¡¨ å±Ĥ
å®ĥ ä¸įä»ħ
ĠSci ences
æĸ° å½¢æĢģ
Ġ5 8
éĿ¢åĲĳ å¯¹è±¡
ur ia
olog ous
å¼ºåĪ¶ æİªæĸ½
ess or
æī©å¤§ åĪ°
ä¸ ŀ
é«ĺ æĶ¶åħ¥
p ed
æ³ķæ²» æĢĿæĥ³
Ġrandom ly
en chymal
ä¸įæĸŃ æ¶Įçİ°
è¾ĵ çĶµ
c aps
Ġar m
rid ge
Ġobes e
L a
u ed
çļĦ åħ¬åı¸
Ġtum ours
åĪĻ æľī
çĶ¨æĪ· æıĲä¾Ľ
çļĦå¤§ è§Ħæ¨¡
app a
æĤ Ħ
åĽ½åĬ¡éĻ¢ åĬŀåħ¬åİħ
å¼ºè°ĥ è¦ģ
Ġ8 5
Ġw or
æŀģ æĢ§
^ -
in us
æķĻèĤ² åıĳå±ķ
ä¿Ŀ æ¸©
ç»ıæµİ ä½ĵåĪ¶
åįģ å¹´æĿ¥
ĠM on
ĠF rom
é©¬åħĭæĢĿ æģ©æł¼æĸ¯
ĠN etwork
ä»į éľĢ
éĢłæĪĲ ä¸¥éĩį
åıĳè¾¾ çļĦ
ä¸Ń æ²¡æľī
æĢ§èĥ½ çļĦ
it ect
è®º çĤ¹
Ġg reen
Ġun treated
ç»§ èĢĮ
Ġ200 2
Ġsex ual
åĮĸ ç¨ĭåº¦
æŃ ª
æĦı çļĦ
è½½ ä½ĵçļĦ
æľŁ æ»¡
ç§ĳæĬĢ çļĦ
æ¯ģ çģŃ
Ġresid ues
èĩª ç»Ļ
è§¦ åıĬ
âĢĿ ï¼ī
Ġth ym
æĽ´ å¼ºçļĦ
åĽŀ æµģ
å¼Ł åŃĲ
ä¹Ł åį³
ig m
å½¢è±¡ çļĦ
æ½ľ ç§»
æ¿Ģåħī åĻ¨
Ġfin ancial
ä¸ľ æ¬§
ä¸įä»ħ å¦ĤæŃ¤
Ġâ ĸ
æĶ¿åºľ ä¸»å¯¼
æĬĺ åıł
Ġconcer n
éĿŀ æŃ£å¼ı
åĲĦçº§ åħļå§Ķ
å¾Ĺåĩº ç»ĵè®º
uc if
ç¤¾ä¼ļä¸»ä¹ī åĽ½å®¶
æľī éĴĪå¯¹æĢ§åľ°
æ°ĳäºĭ ä¸»ä½ĵ
å¢¨ è¥¿åĵ¥
èĿ ĩ
Ġb and
çªģåĩº äºĨ
Ġerr ors
çļĦ è§ĦåĪĻ
èĮ «
å·¥ä½ľ ä»»åĬ¡
ä»İèĢĮ åľ¨
rec ip
æĸ°åŀĭ çļĦ
åģı ç§»
ä¸Ń æĸ¹
åıªæľī éĢļè¿ĩ
çĲĨå·¥ åŃ¦éĻ¢
äºĮ äºº
Ġro d
Ġinteg rated
å¾® ç±³
n on
çī¹ æľĹ
è´¢åĬ¡ æĬ¥åĳĬ
Ġbi ology
ä¾ĽåºĶéĵ¾ éĩĳèŀį
T F
å¦ Ĩ
Ġcap able
ç»§æī¿ äºĨ
åıĹ ä¼¤
åĽĽä¸ª æĦıè¯Ĩ
è¿Ľä¸ĢæŃ¥ å¢ŀå¼º
åħ¨éĿ¢ å®ŀæĸ½
æķ°åŃĹ æĶ¿åºľ
æĽ´å¤ļ ä¿¡æģ¯
åĳķ åĲĲ
Ġre v
Ġsh ock
å±¥è¡Į èģĮè´£
åŃ¦æľ¯ çłĶç©¶
Ġsupport ing
æĢ§ è§Ħå®ļ
Ġele ment
æķĳ åĽ½
æī© å¤§çļĦ
çļĦéĹ®é¢ĺ æĺ¯
è¢ģä¸ĸ åĩ¯
çĶ¨ è¯Ń
ä¸ī æĸ¹
é¢Ħ è¨Ģ
Ġdistingu ish
Ġcoun ts
åįķçīĩ æľº
ç²¾ ç®Ģ
åįıè°ĥ æľºåĪ¶
æıĲåĩºäºĨ æĸ°çļĦ
ocyt osis
çĶŁäº§ ä¼ģä¸ļ
æµ· å³¡
Ġsc ler
æ¸ħæĻ° åľ°
è¯Ħä»· æĮĩæłĩ
åľ¨ å¤ļ
ç»ıæµİ åĴĮç¤¾ä¼ļ
åıį ä¸įæŃ£å½ĵç«ŀäºī
åĪ¶å®ļ åĴĮ
åħ·æľī é«ĺ
ç§ĳæĬĢ äººæīį
c us
å¯¹ äºº
æ´» æĢ§çļĦ
å¤§ éĿ¢ç§¯
æĻºèĥ½ çĶµç½ĳ
ĠPro f
æ»ĭ åħ»
c r
è´ ±
st age
B F
å¼Ĥ åľ°
Ġcol or
ä¸¤ çº§
qu id
åľ°æĸ¹ äººæ°ĳæĶ¿åºľ
Ġepithe lium
åľ¨ å·¥ä¸ļ
åĨľ åľ°
å£ģ çĶ»
Ġpath ophysi
è´¢åĬ¡ çĬ¶åĨµ
çļĦæĸ¹å¼ı æĿ¥
æĶ¿æ²» æĸĩæĺİ
è¿· ä¿¡
è¿Ŀåıį æľ¬æ³ķ
æĳ§ æ¯ģ
H ER
æĢ§ èĦĳ
åı¯ å¾Ĺ
ĠĠĠĠĠĠĠĠĠĠĠĠĠĠĠĠĠĠĠĠĠĠĠĠĠĠĠĠĠĠĠĠ ĠĠĠĠĠĠ
ĠAss ociation
ubi quit
ä¼ļ å¼ķèµ·
å®ŀ å¹²
å¾® è¯¾
çļĦæķ°æį® åºĵ
ĠSoci ety
åľ¨ çİ°å®ŀ
Ġ %)
æĪĳä»¬ å·²ç»ı
åħļåı² åŃ¦ä¹łæķĻèĤ²
ang l
åĪ© çļĦ
åīį ç½®
Ġneon atal
å¹´åĿĩ å¢ŀéķ¿
éĢł æŀĹ
çĶŁ çĶŁ
åŁ¹åħ» åŁº
æ½ľç§» é»ĺ
ç¢³ éħ¸
åĽ½éĺ² åĴĮ
éĥ½æĺ¯ çĶ±
æ·±åĪ» çĲĨè§£
åĴĮ çĶŁæĢģ
Ġc atal
ä½¿ ä¸ŃåĽ½
Ġth or
åıĪ ç§°ä¸º
åħŃ å¹´
åįķ æĬĹ
åįĬ ä¸ª
çģ« è½¦
Ġmicro b
Ġmod e
æĻ®éģį åŃĺåľ¨
åģļ ä»Ģä¹Ī
ial ysis
å¤ļæł· æĢ§çļĦ
the less
èº«ä½ĵ åģ¥åº·
ç²¥ æł·
E X
ĠH IF
ç»´ æĸ°
æ³ķå¾ĭ æı´åĬ©
åĨħå®¹ ä¸Ĭ
Ġisol ation
, \
çī¹ éķ¿
åĨħçĶŁ åĬ¨åĬĽ
éĹ® çŃĶ
Ġgradi ent
on tal
å·¥ç¨ĭ ä¸ĵä¸ļ
åĪĨ æł¡
åĽ¾ çº¸
æĸĳ åĿĹ
åĩºä¸į ç©·
åĴĮ çĲĨè§£
åģĩ åĨĴ
çģŃ ç»Ŀ
åŃ©åŃĲ çļĦ
åľ¨ æĹ¥æľ¬
åħ¨ äººç±»
ic t
çĽ¸ åįıè°ĥ
ä¸ĭ åįĪ
å¯¹ è¿Ļä¸Ģ
å®¢è§Ĥ è§Ħå¾ĭ
- (
Ġ èĢĮ
å¿ĥçĲĨ åŃ¦å®¶
åıĸå¾Ĺ æĸ°
Ġprolong ed
S W
int estinal
Ġanal og
èĸ ¯
äººæł¼ æĿĥ
Ġavail ability
is ual
19 38
çĽ®çļĦ çļĦ
è¾¨ æŀĲ
Ć ćć
è¿Ľåħ¥ åĪ°
eli hood
Ġpol ar
13 8
ç»ĵåĲĪ åľ¨ä¸Ģèµ·
ç§ĳæĬĢ éĿ©åĳ½åĴĮ
å¢ĵ èĳ¬
åŃ¦ æ®µ
åĲĮ ä¸ļ
ä½Ĩ åĲĮæĹ¶
æľºåĻ¨ äººçļĦ
é«ĺ åį±
åĽ½éĻħ éĩĳèŀįåį±æľº
Ġdis ch
ä½ĵ ä¸Ń
éĵ¶ æ²³
èĽĭçĻ½ éħ¶
å®½ å®¹
åĴĮ è´£ä»»
æ¸¸ çī§
Ġtechn ical
Ġprox imal
O b
å°ı é¢Ŀ
çĶŁäº§ ä¸İ
Ġpar allel
å® ¦
å¾Ī å¼º
çŃī çİ¯èĬĤ
çļĦä¸Ģ éĹ¨
ig ible
am ent
åħ¨åĽ½äººæ°ĳä»£è¡¨å¤§ä¼ļ å¸¸åĬ¡å§Ķåĳĺä¼ļ
éĴ Ŀ
æ¦Ĥå¿µ åĴĮ
am ily
Ġexc it
æ°´ ä¸ĭ
äººç±» æ´»åĬ¨
å½¢æĪĲ ä»¥
C re
åľ¨ åŃ¦çĶŁ
æĮĩ çº¹
id al
ç¨Ģ åľŁ
æĸĩ ç§ĳ
ç¢ §
Ġdis ability
ç§¯æŀģ æĢ§åĴĮ
å°±ä¸ļ æľºä¼ļ
ĠC M
Ġor th
rin t
æķ£ çĥŃ
å°¼ æĸ¯
æľįåĬ¡ ä¸Ńå¿ĥ
åħ´ è¡°
Ġ éĻĦå½ķ
è¯¥ å¦Ĥä½ķ
åģı æĮ¯
åľ¨ åıĳå±ķ
ä¹ĭ è¯´
Ġdifferenti ated
æĺĨ æĺİ
è¿Ļ æĸ¹éĿ¢
æĪĳ æĥ³
æĽ´ éķ¿
æŁĲ é¡¹
P F
Ġim mediately
åĽ¾åĥı çļĦ
Ġdeterm ining
è¡Ģ çº¢
è¿Ľä¸ĢæŃ¥ çłĶç©¶
ĠL C
åħħåĪĨ è®¤è¯Ĩ
æĻ®éĢļ è¯Ŀ
æĬ¥ åĲį
éĹ®é¢ĺ è§£åĨ³
çĽ®åīį å·²
ä¸º ä¸Ńåįİæ°ĳæĹı
ä¸ĵä¸ļ æĬĢèĥ½
ç¬¬åĽĽ æ¬¡
å®ļ éĩĳ
å¿ħé¡» åħ·å¤ĩ
æĴŃ ç§į
åĵĪå°Ķ æ»¨
æµİ åįĹ
å®£ ç§°
æī¿åĮħ äºº
htt p
en n
Ġs plic
åĴ ĸ
Ġassess ing
Ġ200 1
Int roduction
æĺ¯ ä¸įåĲĮçļĦ
è®² å¥½
æľĢ ä¸»è¦ģçļĦ
åĲĦ ä¸įçĽ¸åĲĮ
åİ¿ çļĦ
Ġout side
Ġsubstr ate
ä»¥ èī²åĪĹ
èĢħ ä¸º
ä¸į ä»£è¡¨
åħ¨ åħļçļĦ
æĬĢæľ¯ çłĶç©¶
éĢļè¿ĩ ä½¿çĶ¨
å±Ĥ åĩºä¸įç©·
ä¸į æī¿æĭħ
è¡ĮæĶ¿ è¯īè®¼æ³ķ
ä½Ĩ ä¸İ
åķ ¶
ç¾İåĽ½ ç»ıæµİ
Ġexpl ored
Ġs ound
å°± èĥ½å¤Ł
çĻ «çĹ
è¾¹ çļĦ
åĲ¯ è¶ħ
ãĢĤâĢĿ âĢľ
å· ·
ci pl
ä¹ĭ æ¯Ķ
åĬłå¼º ä¸İ
åı¯ åĪ©çĶ¨
å¦Ĥ æľŁ
éĢī å®ļ
æĸ° æĸ¹æ³ķ
æ°Ķ éģĵ
èĪŀ å¼Ĭ
èĲ¨ åħĭ
å¯ ĩ
æ£ ±
ä¹ĥ æĺ¯
å¹» æĥ³
Ġ\* \*
æĸ°æ°ĳä¸»ä¸»ä¹ī éĿ©åĳ½
è¿ĺ ä¸įå¤Ł
Ġgrow ing
ä¸įå°ĳ äºİ
3 50
om ical
æľīåħ³ æ³ķå¾ĭ
çĻ«çĹ «
åĪ¤ åĪ«
æķ°æį® ç®¡çĲĨ
å®ĥ åĮħæĭ¬
éĽĨä½ĵ åŃ¦ä¹ł
æľ ĥ
ä¸Ńå¿ĥ åŁİå¸Ĥ
Ġsign alling
åĪĽä½ľ çļĦ
ĠF ollow
"( ãĢĬ
æ³¢ æ®µ
N L
ç½ĳ çļĦ
Ġwh y
ĠĠĠĠĠĠĠĠĠĠĠĠĠĠĠĠĠĠĠĠĠĠĠĠĠĠĠĠĠĠĠĠ ĠĠĠĠĠ
çĲĥ èĽĭçĻ½
ä¸ĵä¸ļ äººåĳĺ
ve olar
12 2
Ġlip oprotein
Ġn M
å¤įæĹ¦ å¤§åŃ¦
âĢĶâĢĶ âĢĶ
å¹¿éĺĶ çļĦ
åİĭ åĪ¶
æľĢ ä¸»è¦ģ
å·¥åħ· åĴĮ
ĠOr gan
Ġ âĢ¢
åĪĨ æĿĥ
è§£éĩĬ äºĨ
åĨħæ¶µ åĴĮ
Ġmat uration
Ġpar ad
ä¸ĭ å±Ĥ
æĿĢ æŃ»
åľ¨ ä»»ä½ķ
åºĶ èĢĥèĻĳ
Ġli ve
ä¸ŃåĽ½å¼ı çİ°ä»£åĮĸçļĦ
æ²» åħļçļĦ
Ġrec urrent
å¥ĭ åĬĽ
** ).
ä¸į åĲ«
æŃ£ æĸĩ
Ġconduc t
rich ment
Ġextrac tion
çĶŁæ´» åŀĥåľ¾
åŁºæľ¬ è·¯çº¿
åįĥ ç±³
åįģä¹Ŀ å¤§æĬ¥åĳĬ
ĠAust ral
åĽ½éĻħ ç«ŀäºīåĬĽ
ify ing
é©¬ å°Ķ
åıį å¼¹
æĪ¿åľ°äº§ å¸Ĥåľº
Ġf all
Ġhyper t
Ġadap tive
Ġ ä¸ºäºĨ
çļĦ åħ¬åħ±
ä¸į åĩĨ
N B
æī ¼
ç»ĵæĿŁ äºĨ
ï¼Ĳ ï¼Ĳ
Ġe qui
åĲĦè¡Į åĲĦ
ĠB r
g al
Ġa er
Ġlo ok
ä¹ĭ ä½ľ
19 21
å¿ĥå¾ĭ å¤±å¸¸
ä¸»è¦ģ ä»İ
åı¯ä»¥ åĩıå°ĳ
å¦Ĥæŀľ ä¸Ģä¸ª
åĴĮè°Ĳ çļĦ
Ġcount ry
éĢĴ åĩı
å¯ Ĥ
çģµæ´» çļĦ
ä¹¦éĿ¢ å½¢å¼ı
b an
ï¼ ĭ
Ġfe as
æ¶Ī è§£
Ġf ed
Ġmin imum
Ġap plications
ber t
Ġnur sing
Ġinstruc tions
ĠH ER
åĪĽæĸ°é©±åĬ¨ åıĳå±ķæĪĺçķ¥
Ġ eryth
åĸ Ĭ
ç¹ģ å¤ļ
æĿİ å¤§
éĩįå¤§ æĪĲå°±
åĴĮ åľ°åĮº
Ġl act
åı¯ä»¥ å¾ĹåĪ°
éĥĳ å·ŀ
------------------------ -
åĪ©çĽĬçĽ¸åħ³ èĢħ
f low
f lu
åĪĨæŀĲ ä¸Ń
ĠE r
Ġext ra
æĬķ åĲĳ
ä¸Ĭ è¡Į
å·¦åı³ çļĦ
äºĮç»´ çłģ
Ġreli able
ĠE m
åı£ å²¸
åıĳæĮ¥ å¥½
Ġvacc ines
am ples
æĭ ¯
éĥ½ å¯¹
å¾· å°Ķ
è¿ĲåĬ¨ ä¸Ń
ces sive
s um
æĭī ç¾İ
ĠH DL
g er
åĪ° çĽ®åīįä¸ºæŃ¢
çĥŁ èįī
è¿Ľä¸ĢæŃ¥ æĺİç¡®
éĥ½æĺ¯ ä»¥
åĪ¶ åĬ¨
Ġass igned
sc ale
odel ing
Ġtranscrip ts
ä¿® èº«
ï¼Ľ âĢľ
Ġen riched
å§ĭç»Ī æĺ¯
çĹħ åı²
ä¹¦ çĶ»
åĳ½ åĲįä¸º
æīįèĥ½ ä½¿
åĽ½æľī ä¼ģä¸ļçļĦ
æłı çĽ®
( ãĢĬ
éªĮè¯ģ äºĨ
v ation
åľ¨ åĵªéĩĮ
çĸ ±
19 57
ä¸İ å®ŀéĻħ
é¥® éħĴ
ä¹Ļ éħ°
åĨħåľ¨ çļĦ
åĲİ åı°
æ¬¡ åºı
æ±¡æŁĵ çī©çļĦ
å°ı åĪĨåŃĲ
ĠM T
âĪ ¶
Ġch am
èĢĮ æľª
æ¶Īè´¹ çļĦ
Ġdend ritic
ic rob
æİĢ èµ·
æľī èī²
äººéĻħ åħ³ç³»
t arget
Ġ åħŃ
å° ¹
å¯¹ äººçļĦ
ĠS outh
è¿ĳ äº²å±ŀ
æ¢ģ åĲ¯è¶ħ
ç»ıæµİ çī¹åĮº
Ġn od
æĹ¢ ä¸į
Ġth ink
Ġdatas ets
Ġt et
æľī ä»·åĢ¼çļĦ
åĲ Ł
åħ·æľī è¾ĥé«ĺçļĦ
æĪĲä¸º åħ¨çĲĥ
ä¹łè¿ĳå¹³ åľ¨
æķĻæĿĲ çļĦ
æ¬º åĩĮ
Ġa w
æİĴ æŁ¥
æĪĺçķ¥ éĥ¨ç½²
åĽ½æ°ĳç»ıæµİ åĴĮç¤¾ä¼ļåıĳå±ķ
Ġlo op
H I
ĠA S
Ġanti oxid
æĺ ¼
åħħåĪĨ åľ°
Ġfund ing
äºº è®¤ä¸º
semb ly
æķ°åŃĹ åĮĸçļĦ
y ond
åıĺ çĽ¸
è¥ Ħ
ox in
Ġ éĻĪ
ĠP sych
åħ¨éĿ¢ åĬłå¼º
oh n
t in
Ġa utism
åºĶæĢ¥ ç®¡çĲĨ
åĮĸ ä¸İ
ä¼ģä¸ļ ä¸Ń
åĻ¨ åħ·
çļĦ æľªæĿ¥
åĴ ¬
å®ŀ ä½ĵçļĦ
ä¾µ è¢Ń
Ġs atis
Ġbe yond
èĹı æĹı
} (
æĺ¯ æĶ¿åºľ
Ġinter mediate
in vasive
åĴĮ S
å·¥ä½ľ ä¸ŃçļĦ
æ²»çĸĹ æĸ¹æ¡Ī
æĺ¯ æİ¨è¿Ľ
é¡¶ çĤ¹
çŁŃ çŁŃ
çļĦ æĶ¿åºľ
å¸¸ å§Ķ
a emia
ĠCO PD
çļĦ æĢĿè·¯
è§Ĩ åŁŁ
çĽ¸äºĴ ä¾ĿåŃĺ
æ²ī æµ¸
ä»ĸ æīĢ
ä½ľçĶ¨ åĴĮ
éĩįå¤§ åıĺåĮĸ
G M
æī¹ å¤į
åħ¨ä½ĵ ä¼ļè®®
æıĲ è¯·
ä»¶ äºĭ
çļĦ çİ°çĬ¶
æ°ĳæĹı çĭ¬ç«ĭ
âĢĿãĢĤ âĢľ
äºĴ æĥł
8 000
äºİ æŃ¤
åºĶ ä¸İ
éĿĻ çĶµ
æĸ° çŁ¥è¯Ĩ
åħ± é¸£
å¹¶ åı¯
æĹ¶ æĮĩåĩº
ç¤¾ ç¾¤
è´Ń ç½®
éĢģ åĪ°
çī© åĬĽ
åīį äºº
åĪĨéħį ç»Ļ
ä»¥ åĩıå°ĳ
åĬłéĢŁ åĻ¨
å®¹ çº³
ä»İ ä¸įåĲĮ
Ġeffect or
M an
ra ys
å¥³ åŃĲ
ä¸¥æł¼ æİ§åĪ¶
è© ¹
ç§ĳæĬĢ åıĳå±ķ
13 2
éļĲ åĸ»
ä¹¦ æľ¬
æ½ľ ä¼ı
æľĢ éķ¿
å»ºè®¾ æĪĲä¸º
ĠN ature
ç«ŀä¸ļ éĻĲåĪ¶
ä¸İ æķĻèĤ²
åħĪ é©±
æĹ¶éĹ´ ä¸º
æ³ķéĻ¢ è®¤ä¸º
ç»ıæµİ ç®¡çĲĨ
ç»ıæµİ å·¥ä½ľä¼ļè®®
Ġ5 7
Ġrele ased
å°Ĩ å¯¼èĩ´
å¸ĥ é²ģ
è´¢æĶ¿ èµĦéĩĳ
ç©¿ è¿ĩ
è´£ä»» åĴĮ
æ¿Ģ æĥħ
Ġfib r
çļĦ æ¦Ĥçİĩ
ä½ľ çī©çļĦ
åĨį åĪ©çĶ¨
æĸĩä»¶ ç³»ç»Ł
ist ing
çŃ¾ çº¦
ç¤¾ä¼ļ ç§©åºı
ä¾Ľ è¿°
æĮīçħ§ åĽ½å®¶
Ġgl omer
+ âĢĿ
æĸ°åħ´ å¸Ĥåľº
éĩįçĤ¹ åħ³æ³¨
åĪĺ å°ĳå¥ĩ
ç¦» å¿ĥ
åľŁå£¤ ä¸Ń
ä¼ĺåĬ¿ äºĴè¡¥
Ġcharacter ize
å¯¹ åįİ
åĲĪ èĤ¥
æŃ£æĺ¯ åĽłä¸º
åħ¨éĿ¢å»ºè®¾ å°ıåº·ç¤¾ä¼ļ
è·³ åĩº
çļĦåŁºæľ¬ çī¹å¾ģ
é»Ħ å¸Ŀ
éĹ®é¢ĺçļĦ è§£åĨ³
Ġty rosine
ä¸ĩ éĩĮ
å±ĭ é¡¶
æ¸©å®¤æ°Ķä½ĵ æİĴæĶ¾
çļĦ æľĢç»Ī
å®ļ çĤ¹
èĻ½ æľī
Ġintern ational
ç» ¥
åŁºæľ¬ åħ»èĢģä¿ĿéĻ©
é©¬ æĿ¥
ä¿¡åı· éĢļè·¯
ocarcin oma
æĮģ æľīäºº
ad her
Ġmultiv ariate
èĩª è±ª
åı² å®ŀ
èĦ ĸ
æĺ¾èĳĹ å¢ŀå¼º
adi an
äºĴåĪ© åħ±èµ¢
ä¹Ł åĲĮæł·
ä¸ī çĤ¹
ä¾¿ å®ľ
CR I
ä¸Ģ ç«ł
çĶŁçī© åĮ»åŃ¦
ç»¿èī² åĮĸ
æĬĴ æĥħ
åĲĪåĲĮ å±¥è¡Į
el ect
Ġve hicle
çº¿ åĴĮ
æĹĹå¸ľ é²ľæĺİ
æīĭ åĬ¨
Ġunder go
çĮľ æĥ³
[...]
