{
  "version": "1.0",
  "truncation": null,
  "padding": null,
  "added_tokens": [
    {
      "id": 0,
      "content": "<unk>",
      "single_word": false,
      "lstrip": false,
      "rstrip": false,
      "normalized": false,
      "special": true
    },
    {
      "id": 1,
      "content": "<s>",
      "single_word": false,
      "lstrip": false,
      "rstrip": false,
      "normalized": false,
      "special": true
    },
    {
      "id": 2,
      "content": "</s>",
      "single_word": false,
      "lstrip": false,
      "rstrip": false,
      "normalized": false,
      "special": true
    }
  ],
  "normalizer": null,
  "pre_tokenizer": {
    "type": "ByteLevel",
    "add_prefix_space": false,
    "trim_offsets": true,
    "use_regex": true
  },
  "post_processor": null,
  "decoder": {
    "type": "ByteLevel",
    "add_prefix_space": true,
    "trim_offsets": true,
    "use_regex": true
  },
  "model": {
    "type": "BPE",
    "dropout": null,
    "unk_token": null,
    "continuing_subword_prefix": null,
    "end_of_word_suffix": null,
    "fuse_unk": false,
    "byte_fallback": false,
    "ignore_merges": false,
    "vocab": {
      "<unk>": 0,
      "<s>": 1,
      "</s>": 2,
      "!": 3,
      "\"": 4,
      "#": 5,
      "$": 6,
      "%": 7,
      "&": 8,
      "'": 9,
      "(": 10,
      ")": 11,
      "*": 12,
      "+": 13,
      ",": 14,
      "-": 15,
      ".": 16,
      "/": 17,
      "0": 18,
      "1": 19,
      "2": 20,
      "3": 21,
      "4": 22,
      "5": 23,
      "6": 24,
      "7": 25,
      "8": 26,
      "9": 27,
      ":": 28,
      ";": 29,
      "<": 30,
      "=": 31,
      ">": 32,
      "?": 33,
      "@": 34,
      "A": 35,
      "B": 36,
      "C": 37,
      "D": 38,
      "E": 39,
      "F": 40,
      "G": 41,
      "H": 42,
      "I": 43,
      "J": 44,
      "K": 45,
      "L": 46,
      "M": 47,
      "N": 48,
      "O": 49,
      "P": 50,
      "Q": 51,
      "R": 52,
      "S": 53,
      "T": 54,
      "U": 55,
      "V": 56,
      "W": 57,
      "X": 58,
      "Y": 59,
      "Z": 60,
      "[": 61,
      "\\": 62,
      "]": 63,
      "^": 64,
      "_": 65,
      "`": 66,
      "a": 67,
      "b": 68,
      "c": 69,
      "d": 70,
      "e": 71,
      "f": 72,
      "g": 73,
      "h": 74,
      "i": 75,
      "j": 76,
      "k": 77,
      "l": 78,
      "m": 79,
      "n": 80,
      "o": 81,
      "p": 82,
      "q": 83,
      "r": 84,
      "s": 85,
      "t": 86,
      "u": 87,
      "v": 88,
      "w": 89,
      "x": 90,
      "y": 91,
      "z": 92,
      "{": 93,
      "|": 94,
      "}": 95,
      "~": 96,
      "¡": 97,
      "¢": 98,
      "£": 99,
      "¤": 100,
      "¥": 101,
      "¦": 102,
      "§": 103,
      "¨": 104,
      "©": 105,
      "ª": 106,
      "«": 107,
      "¬": 108,
      "®": 109,
      "¯": 110,
      "°": 111,
      "±": 112,
      "²": 113,
      "³": 114,
      "´": 115,
      "µ": 116,
      "¶": 117,
      "·": 118,
      "¸": 119,
      "¹": 120,
      "º": 121,
      "»": 122,
      "¼": 123,
      "½": 124,
      "¾": 125,
      "¿": 126,
      "À": 127,
      "Á": 128,
      "Â": 129,
      "Ã": 130,
      "Ä": 131,
      "Å": 132,
      "Æ": 133,
      "Ç": 134,
      "È": 135,
      "É": 136,
      "Ê": 137,
      "Ë": 138,
      "Ì": 139,
      "Í": 140,
      "Î": 141,
      "Ï": 142,
      "Ð": 143,
      "Ñ": 144,
      "Ò": 145,
      "Ó": 146,
      "Ô": 147,
      "Õ": 148,
      "Ö": 149,
      "×": 150,
      "Ø": 151,
      "Ù": 152,
      "Ú": 153,
      "Û": 154,
      "Ü": 155,
      "Ý": 156,
      "Þ": 157,
      "ß": 158,
      "à": 159,
      "á": 160,
      "â": 161,
      "ã": 162,
      "ä": 163,
      "å": 164,
      "æ": 165,
      "ç": 166,
      "è": 167,
      "é": 168,
      "ê": 169,
      "ë": 170,
      "ì": 171,
      "í": 172,
      "î": 173,
      "ï": 174,
      "ð": 175,
      "ñ": 176,
      "ò": 177,
      "ó": 178,
      "ô": 179,
      "õ": 180,
      "ö": 181,
      "÷": 182,
      "ø": 183,
      "ù": 184,
      "ú": 185,
      "û": 186,
      "ü": 187,
      "ý": 188,
      "þ": 189,
      "ÿ": 190,
      "Ā": 191,
      "ā": 192,
      "Ă": 193,
      "ă": 194,
      "Ą": 195,
      "ą": 196,
      "Ć": 197,
      "ć": 198,
      "Ĉ": 199,
      "ĉ": 200,
      "Ċ": 201,
      "ċ": 202,
      "Č": 203,
      "č": 204,
      "Ď": 205,
      "ď": 206,
      "Đ": 207,
      "đ": 208,
      "Ē": 209,
      "ē": 210,
      "Ĕ": 211,
      "ĕ": 212,
      "Ė": 213,
      "ė": 214,
      "Ę": 215,
      "ę": 216,
      "Ě": 217,
      "ě": 218,
      "Ĝ": 219,
      "ĝ": 220,
      "Ğ": 221,
      "ğ": 222,
      "Ġ": 223,
      "ġ": 224,
      "Ģ": 225,
      "ģ": 226,
      "Ĥ": 227,
      "ĥ": 228,
      "Ħ": 229,
      "ħ": 230,
      "Ĩ": 231,
      "ĩ": 232,
      "Ī": 233,
      "ī": 234,
      "Ĭ": 235,
      "ĭ": 236,
      "Į": 237,
      "į": 238,
      "İ": 239,
      "ı": 240,
      "Ĳ": 241,
      "ĳ": 242,
      "Ĵ": 243,
      "ĵ": 244,
      "Ķ": 245,
      "ķ": 246,
      "ĸ": 247,
      "Ĺ": 248,
      "ĺ": 249,
      "Ļ": 250,
      "ļ": 251,
      "Ľ": 252,
      "ľ": 253,
      "Ŀ": 254,
      "ŀ": 255,
      "Ł": 256,
      "ł": 257,
      "Ń": 258,
      "ï¼": 259,
      "ä¸": 260,
      "ãĢ": 261,
      "ï¼Į": 262,
      "äº": 263,
      "çļ": 264,
      "çļĦ": 265,
      "ãĢĤ": 266,
      "æľ": 267,
      "åı": 268,
      "åħ": 269,
      "å¹": 270,
      "ä»": 271,
      "å¤": 272,
      "åľ": 273,
      "åĲ": 274,
      "åĪ": 275,
      "å¹´": 276,
      "å®": 277,
      "åĽ": 278,
      "çĶ": 279,
      "ä½": 280,
      "åį": 281,
      "æĹ": 282,
      "å°": 283,
      "æĸ": 284,
      "ãĢģ": 285,
      "æĺ": 286,
      "ä¹": 287,
      "è¿": 288,
      "ç»": 289,
      "åŃ": 290,
      "æĪ": 291,
      "åľ¨": 292,
      "ä¸Ģ": 293,
      "ï¼Ī": 294,
      "ï¼ī": 295,
      "ä¸º": 296,
      "ä¼": 297,
      "å¸": 298,
      "åĬ": 299,
      "åĮ": 300,
      "åĨ": 301,
      "æĿ": 302,
      "è¯": 303,
      "ä¸Ń": 304,
      "å·": 305,
      "æĺ¯": 306,
      "çī": 307,
      "è®": 308,
      "å¾": 309,
      "åĽ½": 310,
      "å¼": 311,
      "åº": 312,
      "éĩ": 313,
      "çº": 314,
      "å¤§": 315,
      "äºº": 316,
      "ç§": 317,
      "äºİ": 318,
      "å±": 319,
      "åĩ": 320,
      "æī": 321,
      "20": 322,
      "éĥ": 323,
      "æľī": 324,
      "è¡": 325,
      "éĢ": 326,
      "åİ": 327,
      "èµ": 328,
      "åĴ": 329,
      "æŃ": 330,
      "æľĪ": 331,
      "å¥": 332,
      "åĴĮ": 333,
      "å½": 334,
      "éĻ": 335,
      "èĢ": 336,
      "çİ": 337,
      "æķ": 338,
      "çĽ": 339,
      "æĶ": 340,
      "19": 341,
      "æĹ¥": 342,
      "éĺ": 343,
      "å¯": 344,
      "æĭ": 345,
      "èĩ": 346,
      "âĢ": 347,
      "æł": 348,
      "åĲİ": 349,
      "æ°": 350,
      "åŃ¦": 351,
      "æ²": 352,
      "æ³": 353,
      "ç«": 354,
      "ä»¥": 355,
      "æµ": 356,
      "è§": 357,
      "åĳ": 358,
      "äºĨ": 359,
      "ï¼ļ": 360,
      "çĲ": 361,
      "æĹ¶": 362,
      "è½": 363,
      "åī": 364,
      "è´": 365,
      "æĪĲ": 366,
      "åľ°": 367,
      "è¾": 368,
      "æĸ¯": 369,
      "åŁ": 370,
      "éĹ": 371,
      "ä¸Ĭ": 372,
      "æĢ": 373,
      "ç¬": 374,
      "åĩº": 375,
      "ä¼ļ": 376,
      "ä»ĸ": 377,
      "æ¯": 378,
      "çĶŁ": 379,
      "ä¸ª": 380,
      "æ´": 381,
      "éĥ¨": 382,
      "ãĢĭ": 383,
      "ãĢĬ": 384,
      "éķ": 385,
      "æŀ": 386,
      "æĽ": 387,
      "Â·": 388,
      "æ¸": 389,
      "ä¸į": 390,
      "ä¸İ": 391,
      "ä½ľ": 392,
      "ä¹ĭ": 393,
      "éĿ": 394,
      "ç¬¬": 395,
      "éģ": 396,
      "èĥ": 397,
      "æĬ": 398,
      "åĲį": 399,
      "åħ¬": 400,
      "è¡Į": 401,
      "å°Ķ": 402,
      "ä¿": 403,
      "ä¸»": 404,
      "å®¶": 405,
      "åĮº": 406,
      "è¥": 407,
      "æİ": 408,
      "ç½": 409,
      "è¥¿": 410,
      "åħ¶": 411,
      "åĪĨ": 412,
      "è¢": 413,
      "åıĳ": 414,
      "éĽ": 415,
      "åŃĲ": 416,
      "å¿": 417,
      "è·": 418,
      "çŃ": 419,
      "æ±": 420,
      "æ¬": 421,
      "æľ¬": 422,
      "åĨĽ": 423,
      "å»": 424,
      "ç¾": 425,
      "é¦": 426,
      "çĶ¨": 427,
      "åĪ°": 428,
      "åĵ": 429,
      "è¢«": 430,
      "å§": 431,
      "ä¾": 432,
      "èĭ": 433,
      "å¹¶": 434,
      "åįĹ": 435,
      "é¢": 436,
      "èģ": 437,
      "èĢĮ": 438,
      "é©": 439,
      "éķ¿": 440,
      "ä¸ĭ": 441,
      "èī": 442,
      "çī¹": 443,
      "çľ": 444,
      "åıĬ": 445,
      "ç±": 446,
      "çĶ±": 447,
      "ä½į": 448,
      "å¸Ĥ": 449,
      "ä¸ī": 450,
      "æĮ": 451,
      "201": 452,
      "ä¸ľ": 453,
      "æĿ¥": 454,
      "èµĽ": 455,
      "å¾·": 456,
      "æľĢ": 457,
      "åħĭ": 458,
      "åĲĮ": 459,
      "èİ": 460,
      "æ³ķ": 461,
      "é«": 462,
      "åĮĹ": 463,
      "éĩĮ": 464,
      "å¼Ģ": 465,
      "æĸ¹": 466,
      "åı¯": 467,
      "å£": 468,
      "éģĵ": 469,
      "å¤ļ": 470,
      "æĻ": 471,
      "å²": 472,
      "é«ĺ": 473,
      "çŁ": 474,
      "æĸ°": 475,
      "çĶµ": 476,
      "ãĥ": 477,
      "çī©": 478,
      "äºļ": 479,
      "ç¥": 480,
      "åīį": 481,
      "åĿ": 482,
      "è¿Ļ": 483,
      "èĩª": 484,
      "äºĮ": 485,
      "åĳĺ": 486,
      "çĲĥ": 487,
      "åĬł": 488,
      "æĸĩ": 489,
      "200": 490,
      "å¯¹": 491,
      "åĬ¨": 492,
      "ä»»": 493,
      "è·¯": 494,
      "åĪ©": 495,
      "è½¦": 496,
      "èĪ": 497,
      "ä¸ĸ": 498,
      "èĬ": 499,
      "å±±": 500,
      "å»º": 501,
      "å¾Ĺ": 502,
      "ç¾İ": 503,
      "å¦": 504,
      "èĩ³": 505,
      "ãģ": 506,
      "åįģ": 507,
      "æµ·": 508,
      "æīĢ": 509,
      "æ¼": 510,
      "ç©": 511,
      "å°ı": 512,
      "çİ°": 513,
      "ä»£": 514,
      "é¡": 515,
      "åĽł": 516,
      "äºĭ": 517,
      "é©¬": 518,
      "æľº": 519,
      "èĲ": 520,
      "æĪĺ": 521,
      "¦ģ": 522,
      "éĹ´": 523,
      "æĭī": 524,
      "åħ¥": 525,
      "è¿Ľ": 526,
      "åĨħ": 527,
      "éĺŁ": 528,
      "çķ": 529,
      "ä¹Ł": 530,
      "ç»ı": 531,
      "è°": 532,
      "çĪ": 533,
      "éļ": 534,
      "è¿ĩ": 535,
      "ãĢį": 536,
      "ãĢĮ": 537,
      "æķĻ": 538,
      "éĵ": 539,
      "å¤©": 540,
      "åľº": 541,
      "å°Ĩ": 542,
      "âĢľ": 543,
      "æŃ¤": 544,
      "âĢĿ": 545,
      "è¶": 546,
      "è¦ģ": 547,
      "èĤ": 548,
      "åĲĪ": 549,
      "çŃī": 550,
      "æĶ¿": 551,
      "çĻ": 552,
      "åı°": 553,
      "å·¥": 554,
      "çº¿": 555,
      "å¹³": 556,
      "ä½ĵ": 557,
      "ç¤": 558,
      "å·ŀ": 559,
      "æľŁ": 560,
      "çİĭ": 561,
      "èĥ½": 562,
      "çĲĨ": 563,
      "é£": 564,
      "æĥ": 565,
      "åĪ¶": 566,
      "ç«Ļ": 567,
      "ä¸ļ": 568,
      "éĢļ": 569,
      "æ¬¡": 570,
      "ãĤ": 571,
      "è®¾": 572,
      "ç®": 573,
      "ç«ĭ": 574,
      "æ¼Ķ": 575,
      "å½ĵ": 576,
      "å¤ĸ": 577,
      "ç§ĳ": 578,
      "æ°ĳ": 579,
      "æĦ": 580,
      "åº¦": 581,
      "åĮĸ": 582,
      "ç½Ĺ": 583,
      "ä½Ĩ": 584,
      "å¸ĥ": 585,
      "ç§į": 586,
      "éŁ": 587,
      "éĿ¢": 588,
      "ä½¿": 589,
      "å®ī": 590,
      "ï¼īï¼Į": 591,
      "åı·": 592,
      "èģĶ": 593,
      "æı": 594,
      "10": 595,
      "èĢħ": 596,
      "å®ļ": 597,
      "ç³": 598,
      "æŁ": 599,
      "æģ": 600,
      "åħ¨": 601,
      "ç§°": 602,
      "ç¼": 603,
      "åİŁ": 604,
      "æ¯Ķ": 605,
      "é»": 606,
      "åŁİ": 607,
      "éĻ¢": 608,
      "ç¦": 609,
      "è¡¨": 610,
      "éĤ": 611,
      "éĩį": 612,
      "çł": 613,
      "æ¡": 614,
      "è¯¥": 615,
      "æĢ§": 616,
      "ï¼Ľ": 617,
      "éĩĳ": 618,
      "ä¸¤": 619,
      "çĤ": 620,
      "åı¸": 621,
      "éĥ½": 622,
      "å£«": 623,
      "åİ¿": 624,
      "ä¸Ģä¸ª": 625,
      "åĬĽ": 626,
      "æį": 627,
      "åĽĽ": 628,
      "æĺİ": 629,
      "å¥³": 630,
      "çĽ¸": 631,
      "çľģ": 632,
      "æ°´": 633,
      "æł¼": 634,
      "éħ": 635,
      "å¼ı": 636,
      "å¢": 637,
      "çģ": 638,
      "å½±": 639,
      "èį": 640,
      "åı²": 641,
      "ç¨": 642,
      "åŁº": 643,
      "èĳ": 644,
      "ç³»": 645,
      "å¡": 646,
      "åħ°": 647,
      "er": 648,
      "æŃ£": 649,
      "å°¼": 650,
      "åŀ": 651,
      "ç±³": 652,
      "çº¦": 653,
      "éĺ¿": 654,
      "çĽ®": 655,
      "åħĥ": 656,
      "æ£": 657,
      "åģ": 658,
      "ç»Ħ": 659,
      "èĭ±": 660,
      "æ®": 661,
      "è¾¾": 662,
      "ä¹Ĳ": 663,
      "æķ°": 664,
      "èī²": 665,
      "è¿Ĳ": 666,
      "18": 667,
      "åĪĹ": 668,
      "an": 669,
      "æ²»": 670,
      "åħ³": 671,
      "æ¹": 672,
      "èµ·": 673,
      "é¦ĸ": 674,
      "ä¸ŃåĽ½": 675,
      "éĢī": 676,
      "åĶ": 677,
      "00": 678,
      "æĪĸ": 679,
      "æĢ»": 680,
      "æĶ¹": 681,
      "æŀĹ": 682,
      "çĦ": 683,
      "ä»¬": 684,
      "å¨": 685,
      "è®¡": 686,
      "é¥": 687,
      "æīĭ": 688,
      "åħ±": 689,
      "åı£": 690,
      "å±ŀ": 691,
      "åİĨ": 692,
      "ä»İ": 693,
      "å¿ĥ": 694,
      "é¾": 695,
      "æ¸¯": 696,
      "æ¶": 697,
      "å¸¸": 698,
      "è§Ĩ": 699,
      "è£": 700,
      "åĲĳ": 701,
      "åĢ": 702,
      "éĶ": 703,
      "æĿĳ": 704,
      "æ²³": 705,
      "æĹł": 706,
      "12": 707,
      "æ·": 708,
      "éľ": 709,
      "on": 710,
      "ç´": 711,
      "äº§": 712,
      "åł": 713,
      "éŁ³": 714,
      "199": 715,
      "åī§": 716,
      "æ¢": 717,
      "ä¹¦": 718,
      "å·´": 719,
      "åįİ": 720,
      "å¦Ĥ": 721,
      "äº¤": 722,
      "æİ¥": 723,
      "ç»Ł": 724,
      "ç»ĵ": 725,
      "æıĲ": 726,
      "éĽĨ": 727,
      "çº§": 728,
      "çķĮ": 729,
      "åĵģ": 730,
      "in": 731,
      "éĹ¨": 732,
      "å¹¿": 733,
      "æĴ": 734,
      "å¤ª": 735,
      "çĦ¶": 736,
      "åŀĭ": 737,
      "åĭ": 738,
      "éĴ": 739,
      "è¯Ń": 740,
      "èİ·": 741,
      "æĽ²": 742,
      "éª": 743,
      "ä¿Ŀ": 744,
      "ç±»": 745,
      "åį¡": 746,
      "æĺŁ": 747,
      "å¤«": 748,
      "éĩı": 749,
      "äºĶ": 750,
      "åıĤ": 751,
      "æĽ¾": 752,
      "è¯´": 753,
      "å½¢": 754,
      "ç»´": 755,
      "éĵģ": 756,
      "å®ŀ": 757,
      "èº": 758,
      "æł¡": 759,
      "çĽ´": 760,
      "çĭ": 761,
      "Ġ*": 762,
      "åĬ¡": 763,
      "æº": 764,
      "é¾Ļ": 765,
      "åĮħ": 766,
      "åºľ": 767,
      "å§ĭ": 768,
      "æĦı": 769,
      "çĥ": 770,
      "é¦Ļ": 771,
      "åĽ¢": 772,
      "å°±": 773,
      "ä¼ł": 774,
      "ç¥ŀ": 775,
      "æ±Ł": 776,
      "ar": 777,
      "11": 778,
      "æµģ": 779,
      "ç¾İåĽ½": 780,
      "èĮ": 781,
      "å¸Ī": 782,
      "ä¸ĩ": 783,
      "èº«": 784,
      "åı¤": 785,
      "å²Ľ": 786,
      "åıĹ": 787,
      "åįķ": 788,
      "ç¨ĭ": 789,
      "å¯¼": 790,
      "çŁ³": 791,
      "åħ¬åı¸": 792,
      "ä¹ī": 793,
      "åĽŀ": 794,
      "é²": 795,
      "çĹ": 796,
      "çı": 797,
      "çºª": 798,
      "å¤§åŃ¦": 799,
      "ç©º": 800,
      "èĻ": 801,
      "å¥¥": 802,
      "çĤ¹": 803,
      "åĪĻ": 804,
      "æ»": 805,
      "æ¸¸": 806,
      "ç®¡": 807,
      "å·²": 808,
      "æľ¯": 809,
      "çĿ": 810,
      "é¥°": 811,
      "æĥħ": 812,
      "å¥ĸ": 813,
      "å¤Ħ": 814,
      "ä½įäºİ": 815,
      "é¢Ĩ": 816,
      "èĳĹ": 817,
      "è®®": 818,
      "èĬĤ": 819,
      "ç¤¾": 820,
      "en": 821,
      "æľĿ": 822,
      "å®ĺ": 823,
      "ç¿": 824,
      "15": 825,
      "èĦ": 826,
      "æĮĩ": 827,
      "ç²": 828,
      "éĢł": 829,
      "çĶ°": 830,
      "äº¬": 831,
      "åħī": 832,
      "çĬ": 833,
      "èĴ": 834,
      "åºĶ": 835,
      "ï¼īãĢĤ": 836,
      "åĸ": 837,
      "è§Ĵ": 838,
      "çĻ½": 839,
      "åĩ»": 840,
      "çīĩ": 841,
      "å¼ł": 842,
      "æĪĲä¸º": 843,
      "éķĩ": 844,
      "å±ķ": 845,
      "çº³": 846,
      "âĢĶ": 847,
      "å°ĳ": 848,
      "å¥¹": 849,
      "æĽ´": 850,
      "åĪ«": 851,
      "å¤´": 852,
      "æĹ¥æľ¬": 853,
      "åŃĹ": 854,
      "äºĽ": 855,
      "åķ": 856,
      "èĭı": 857,
      "æŃ¦": 858,
      "æ´²": 859,
      "çĸ": 860,
      "çłĶ": 861,
      "ç¼ĸ": 862,
      "åŃ£": 863,
      "ç¬¬ä¸Ģ": 864,
      "ä¼Ĭ": 865,
      "è®¤": 866,
      "ä¿¡": 867,
      "è¿ĺ": 868,
      "åıĺ": 869,
      "çĵ": 870,
      "æĳ": 871,
      "æĿİ": 872,
      "198": 873,
      "æ´»": 874,
      "èģĮ": 875,
      "æ³¢": 876,
      "è½¬": 877,
      "åıª": 878,
      "åĳ½": 879,
      "Ġ(": 880,
      "è¿ĳ": 881,
      "çīĪ": 882,
      "åħµ": 883,
      "èµĦ": 884,
      "å±Ģ": 885,
      "æĮģ": 886,
      "å¸¦": 887,
      "åħŃ": 888,
      "æŃĮ": 889,
      "åıĸ": 890,
      "æīĵ": 891,
      "åĳ¨": 892,
      "æĻ®": 893,
      "è¶³": 894,
      "ç¡": 895,
      "é¦Ļæ¸¯": 896,
      "åĽ¾": 897,
      "é£İ": 898,
      "or": 899,
      "al": 900,
      "çĪ±": 901,
      "è¿ŀ": 902,
      "åĲĦ": 903,
      "éĻħ": 904,
      "æĶ¶": 905,
      "æ¨": 906,
      "åĽ½å®¶": 907,
      "å¼Ģå§ĭ": 908,
      "çŁ¥": 909,
      "å®ĥ": 910,
      "èı": 911,
      "ä¸¾": 912,
      "åİ»": 913,
      "ä¸ĵ": 914,
      "ä½¿çĶ¨": 915,
      "è®°": 916,
      "åıĪ": 917,
      "æ²¡": 918,
      "æĹı": 919,
      "èĹ": 920,
      "åı¯ä»¥": 921,
      "åľ°åĮº": 922,
      "åĪĿ": 923,
      "åľ£": 924,
      "æ¸ħ": 925,
      "16": 926,
      "æ®µ": 927,
      "æį®": 928,
      "è±": 929,
      "æĶ¯": 930,
      "åĦ": 931,
      "äº²": 932,
      "å§Ķ": 933,
      "æłĩ": 934,
      "å¸Ŀ": 935,
      "çĳ": 936,
      "åħĪ": 937,
      "ç©¶": 938,
      "ç¦ı": 939,
      "çļĦä¸Ģ": 940,
      "åĨ³": 941,
      "æ°Ķ": 942,
      "ä¸ĸçķĮ": 943,
      "éĿŀ": 944,
      "èĬ±": 945,
      "åĻ": 946,
      "éĺ³": 947,
      "17": 948,
      "æĿ¡": 949,
      "æĭ¬": 950,
      "å®Ĺ": 951,
      "çłĶç©¶": 952,
      "åıį": 953,
      "åİĨåı²": 954,
      "åº§": 955,
      "çĶµå½±": 956,
      "è§£": 957,
      "æĶ¾": 958,
      "åĽŃ": 959,
      "çĮ": 960,
      "ä¸»è¦ģ": 961,
      "åĪĽ": 962,
      "åĮħæĭ¬": 963,
      "at": 964,
      "åķĨ": 965,
      "å¾Ģ": 966,
      "åĨį": 967,
      "ä»Ĭ": 968,
      "æŃ»": 969,
      "è¿Ľè¡Į": 970,
      "ĠS": 971,
      "åħ«": 972,
      "ç¦»": 973,
      "æł¹": 974,
      "åĦ¿": 975,
      "Ġ-": 976,
      "æľª": 977,
      "æŀĦ": 978,
      "æŀľ": 979,
      "å¤į": 980,
      "çĪ¶": 981,
      "å®Į": 982,
      "æĪı": 983,
      "é¦Ĩ": 984,
      "es": 985,
      "å·Ŀ": 986,
      "æĴŃ": 987,
      "çĶ»": 988,
      "æ¥": 989,
      "é»Ħ": 990,
      "ä»¥åıĬ": 991,
      "åĲī": 992,
      "å¡Ķ": 993,
      "æ¯į": 994,
      "åį«": 995,
      "æ´Ľ": 996,
      "åĨł": 997,
      "è£ħ": 998,
      "å¨ģ": 999,
      "åĻ¨": 1000,
      "è®º": 1001,
      "åĪĴ": 1002,
      "é¸": 1003,
      "åį³": 1004,
      "æ¬§": 1005,
      "ç¬¬äºĮ": 1006,
      "çĶµè§Ĩ": 1007,
      "æĬ¥": 1008,
      "èħ": 1009,
      "å½ķ": 1010,
      "ç½®": 1011,
      "åįļ": 1012,
      "èĤ²": 1013,
      "è§Ĥ": 1014,
      "ç»Ī": 1015,
      "21": 1016,
      "èĲ¥": 1017,
      "åľŁ": 1018,
      "æ¹¾": 1019,
      "å¥½": 1020,
      "éĽ·": 1021,
      "ç¤º": 1022,
      "è¶ħ": 1023,
      "èİ·å¾Ĺ": 1024,
      "è´¨": 1025,
      "åħ¶ä»ĸ": 1026,
      "è§ģ": 1027,
      "éĥ¨åĪĨ": 1028,
      "éĢŁ": 1029,
      "èĲ¨": 1030,
      "å¼º": 1031,
      "é¡¹": 1032,
      "ä¼¯": 1033,
      "æķħ": 1034,
      "ä»ĸä»¬": 1035,
      "æ±ī": 1036,
      "åįĩ": 1037,
      "æ¯ı": 1038,
      "å±ħ": 1039,
      "éŃ": 1040,
      "éļı": 1041,
      "è¾¹": 1042,
      "çļĩ": 1043,
      "æ²¡æľī": 1044,
      "éĿĴ": 1045,
      "åĵĪ": 1046,
      "14": 1047,
      "çĵ¦": 1048,
      "å¸Į": 1049,
      "ä¿®": 1050,
      "ä»¶": 1051,
      "ĠC": 1052,
      "ç»Ļ": 1053,
      "ç»Ń": 1054,
      "ä»¤": 1055,
      "è°ĥ": 1056,
      "çģ«": 1057,
      "æĺ¯ä¸Ģ": 1058,
      "is": 1059,
      "æĬķ": 1060,
      "çĹħ": 1061,
      "åĬŁ": 1062,
      "è¾ĥ": 1063,
      "ä¸ĥ": 1064,
      "èīº": 1065,
      "æºĲ": 1066,
      "æľ¨": 1067,
      "éĻĨ": 1068,
      "ä¼¦": 1069,
      "ic": 1070,
      "ä¹Ŀ": 1071,
      "åŃĺ": 1072,
      "åĬ©": 1073,
      "çĶ·": 1074,
      "æĶ»": 1075,
      "éº": 1076,
      "äº¦": 1077,
      "æ°ı": 1078,
      "åĬŀ": 1079,
      "åħ·": 1080,
      "æĿĥ": 1081,
      "åĮ»": 1082,
      "æļ": 1083,
      "13": 1084,
      "å®¢": 1085,
      "å²ģ": 1086,
      "çŃĳ": 1087,
      "æľį": 1088,
      "ä¸Ķ": 1089,
      "å¼ķ": 1090,
      "æĬ¤": 1091,
      "åĥ": 1092,
      "åŃ¦éĻ¢": 1093,
      "åħļ": 1094,
      "197": 1095,
      "195": 1096,
      "é£ŀ": 1097,
      "äºī": 1098,
      "ä¾ĭ": 1099,
      "è®¸": 1100,
      "çª": 1101,
      "åħ¶ä¸Ń": 1102,
      "å¾Ī": 1103,
      "èĥľ": 1104,
      "å·±": 1105,
      "éħį": 1106,
      "é¢ĺ": 1107,
      "éĻ¤": 1108,
      "å®¤": 1109,
      "å¡ŀ": 1110,
      "ĠãĢĬ": 1111,
      "èĪª": 1112,
      "é²ģ": 1113,
      "æĭħ": 1114,
      "åĭĴ": 1115,
      "ï¼į": 1116,
      "22": 1117,
      "å¿Ĺ": 1118,
      "åłĤ": 1119,
      "æ´¾": 1120,
      "è½¦ç«Ļ": 1121,
      "ä»½": 1122,
      "çľŁ": 1123,
      "çº¢": 1124,
      "çĶ²": 1125,
      "æ£®": 1126,
      "è¯º": 1127,
      "åįı": 1128,
      "æĹ©": 1129,
      "çĶ±äºİ": 1130,
      "åħ´": 1131,
      "æĬĢ": 1132,
      "æ¹ĸ": 1133,
      "èĢģ": 1134,
      "é£Ł": 1135,
      "æĿĢ": 1136,
      "æ¡¥": 1137,
      "åºĦ": 1138,
      "çİ¯": 1139,
      "30": 1140,
      "æ²Ļ": 1141,
      "éĻĪ": 1142,
      "æĪĳ": 1143,
      "é»ĳ": 1144,
      "å¥ĩ": 1145,
      "el": 1146,
      "è¯Ħ": 1147,
      "è¡Ĺ": 1148,
      "194": 1149,
      "å¤ĩ": 1150,
      "çıŃ": 1151,
      "è§Ħ": 1152,
      "çİĩ": 1153,
      "åĺ": 1154,
      "äººæ°ĳ": 1155,
      "åĽ½éĻħ": 1156,
      "éĥ¡": 1157,
      "196": 1158,
      "ï¼īãĢģ": 1159,
      "éĤ£": 1160,
      "èĩ´": 1161,
      "çĻ¾": 1162,
      "èİ±": 1163,
      "ä»ĸçļĦ": 1164,
      "ç¢": 1165,
      "æĶ¿åºľ": 1166,
      "åıĮ": 1167,
      "çĬ¶": 1168,
      "æŁ¥": 1169,
      "å±Ĥ": 1170,
      "æīĺ": 1171,
      "æĤ": 1172,
      "åı¦": 1173,
      "è®¤ä¸º": 1174,
      "èĲ½": 1175,
      "ãĢĭï¼Ī": 1176,
      "åŁŁ": 1177,
      "å¢ĥ": 1178,
      "ç§¯": 1179,
      "ä¹ĭåĲİ": 1180,
      "ä¹¡": 1181,
      "åĪĺ": 1182,
      "è¨": 1183,
      "è¯ķ": 1184,
      "æł·": 1185,
      "ĠM": 1186,
      "åĽ´": 1187,
      "å®£": 1188,
      "å®¹": 1189,
      "è¨Ģ": 1190,
      "æ¦": 1191,
      "ç»§": 1192,
      "åĽłä¸º": 1193,
      "æĺĵ": 1194,
      "åį°": 1195,
      "çĽŁ": 1196,
      "æİ¨": 1197,
      "å¤±": 1198,
      "ä¸Ńå¿ĥ": 1199,
      "åĵ¥": 1200,
      "èĩªå·±": 1201,
      "å»ºçŃĳ": 1202,
      "ä¸ŃçļĦ": 1203,
      "æģ©": 1204,
      "æ¸¸æĪı": 1205,
      "åĩĨ": 1206,
      "åĽłæŃ¤": 1207,
      "Ġé¥°": 1208,
      "æĻ¯": 1209,
      "25": 1210,
      "éĻĲ": 1211,
      "æµİ": 1212,
      "å°Ħ": 1213,
      "ä½ľä¸º": 1214,
      "å¢ŀ": 1215,
      "æ·±": 1216,
      "éĩİ": 1217,
      "æĽ¼": 1218,
      "å§Ĩ": 1219,
      "å·¥ä½ľ": 1220,
      "it": 1221,
      "å¯Ĩ": 1222,
      "æ½": 1223,
      "æĦŁ": 1224,
      "ä¾Ľ": 1225,
      "å´": 1226,
      "åıĳçİ°": 1227,
      "åįĬ": 1228,
      "æ³ķåĽ½": 1229,
      "çĻ»": 1230,
      "è´Ŀ": 1231,
      "æ¨¡": 1232,
      "æħ": 1233,
      "é¡¿": 1234,
      "å®«": 1235,
      "æİĴ": 1236,
      "å©": 1237,
      "ä¹ĭä¸Ģ": 1238,
      "æĸ½": 1239,
      "å£°": 1240,
      "ç¾¤": 1241,
      "åī¯": 1242,
      "çħ": 1243,
      "æ¤": 1244,
      "éĹ®": 1245,
      "äºĳ": 1246,
      "è®¾è®¡": 1247,
      "éĵģè·¯": 1248,
      "é¹": 1249,
      "åŃ¦æł¡": 1250,
      "åı¯èĥ½": 1251,
      "è´¥": 1252,
      "æķ´": 1253,
      "æ¯ĶèµĽ": 1254,
      "ä¼Ĺ": 1255,
      "éŁ³ä¹Ĳ": 1256,
      "ç½ĳ": 1257,
      "åĿĩ": 1258,
      "èĢĥ": 1259,
      "ä½³": 1260,
      "åĲĮæĹ¶": 1261,
      "çĭ¬": 1262,
      "ä½ľåĵģ": 1263,
      "åįĥ": 1264,
      "ç¥ĸ": 1265,
      "æ±Ĥ": 1266,
      "åıĭ": 1267,
      "åŁĥ": 1268,
      "åĥı": 1269,
      "è¿ª": 1270,
      "å½ĵæĹ¶": 1271,
      "ĠA": 1272,
      "è¶Ĭ": 1273,
      "åĵį": 1274,
      "æ¥¼": 1275,
      "åº·": 1276,
      "æ³°": 1277,
      "ä½ı": 1278,
      "ä¿Ħ": 1279,
      "æĭħä»»": 1280,
      "é±": 1281,
      "å¾ģ": 1282,
      "å®ģ": 1283,
      "il": 1284,
      "am": 1285,
      "ä¾§": 1286,
      "åĨłåĨĽ": 1287,
      "éĺ²": 1288,
      "é±¼": 1289,
      "us": 1290,
      "å®Ī": 1291,
      "åħ¸": 1292,
      "æĪ¿": 1293,
      "å¤ı": 1294,
      "è¿ĲåĬ¨": 1295,
      "å§Ķåĳĺ": 1296,
      "èĭ±åĽ½": 1297,
      "ĠB": 1298,
      "æĥ³": 1299,
      "åĳĬ": 1300,
      "åºĵ": 1301,
      "æŃ¥": 1302,
      "æĹ¶éĹ´": 1303,
      "è¯ģ": 1304,
      "çĥŃ": 1305,
      "è®©": 1306,
      "ä¸½": 1307,
      "ä½ķ": 1308,
      "ç´¢": 1309,
      "ä»£è¡¨": 1310,
      "å±Ĭ": 1311,
      "å¯Ł": 1312,
      "æİĪ": 1313,
      "23": 1314,
      "è±¡": 1315,
      "ç§°ä¸º": 1316,
      "çķĻ": 1317,
      "éĩĩ": 1318,
      "æīį": 1319,
      "æ´ĭ": 1320,
      "æĸĻ": 1321,
      "æ¾": 1322,
      "åĨĻ": 1323,
      "æŃ¢": 1324,
      "èĪ°": 1325,
      "æķĪ": 1326,
      "ol": 1327,
      "è¶³çĲĥ": 1328,
      "è´¹": 1329,
      "åı°æ¹¾": 1330,
      "çīĻ": 1331,
      "åĶ±": 1332,
      "çĳŀ": 1333,
      "èĮĥ": 1334,
      "å¸Ń": 1335,
      "éĵ¶": 1336,
      "é½": 1337,
      "éĢļè¿ĩ": 1338,
      "æ¸©": 1339,
      "éľĢ": 1340,
      "ç´ł": 1341,
      "ä¸ĸçºª": 1342,
      "çľĭ": 1343,
      "ç»ĩ": 1344,
      "åįł": 1345,
      "çĿĢ": 1346,
      "ĠP": 1347,
      "èĽ": 1348,
      "ç«ł": 1349,
      "éĥİ": 1350,
      "as": 1351,
      "ç®Ģ": 1352,
      "ä¾¿": 1353,
      "å·¦": 1354,
      "çĽĳ": 1355,
      "æ¡Ī": 1356,
      "ç»Ĩ": 1357,
      "åĺī": 1358,
      "å¼Ł": 1359,
      "æĪĲç«ĭ": 1360,
      "æŀģ": 1361,
      "çĶº": 1362,
      "åıĳå±ķ": 1363,
      "ä¸ģ": 1364,
      "å®Ŀ": 1365,
      "ä½Ľ": 1366,
      "éĻį": 1367,
      "ch": 1368,
      "å°ģ": 1369,
      "åł¡": 1370,
      "å±ŀäºİ": 1371,
      "åı¶": 1372,
      "éĻĦ": 1373,
      "æĪ·": 1374,
      "è¯Ŀ": 1375,
      "ç³»ç»Ł": 1376,
      "æĿ¾": 1377,
      "æī¿": 1378,
      "æ°¸": 1379,
      "èģĶèµĽ": 1380,
      "æľĢåĲİ": 1381,
      "èĴĻ": 1382,
      "ä¸įåĲĮ": 1383,
      "ä»į": 1384,
      "çīĮ": 1385,
      "ä¸¹": 1386,
      "çĿ£": 1387,
      "ä¹Į": 1388,
      "åĶĲ": 1389,
      "å¹²": 1390,
      "åİħ": 1391,
      "è¯į": 1392,
      "âĢĿãĢĤ": 1393,
      "re": 1394,
      "çĨ": 1395,
      "è¿ľ": 1396,
      "è½½": 1397,
      "å¯Į": 1398,
      "åĩł": 1399,
      "æµĭ": 1400,
      "åĪ¶ä½ľ": 1401,
      "ä½İ": 1402,
      "æĶ¿æ²»": 1403,
      "ãĢĢ": 1404,
      "åı³": 1405,
      "ä»ħ": 1406,
      "è¿°": 1407,
      "ç²¾": 1408,
      "å³": 1409,
      "ç¤¼": 1410,
      "ä»·": 1411,
      "äººåı£": 1412,
      "æĸĩåĮĸ": 1413,
      "åĲİæĿ¥": 1414,
      "ä½Ļ": 1415,
      "è´Ł": 1416,
      "èĪ¹": 1417,
      "Ġ201": 1418,
      "æĿ¯": 1419,
      "æĢģ": 1420,
      "28": 1421,
      "ç§»": 1422,
      "åºĹ": 1423,
      "ĠT": 1424,
      "å¹´çļĦ": 1425,
      "æĬĬ": 1426,
      "åĩºçİ°": 1427,
      "å¿µ": 1428,
      "éļĨ": 1429,
      "å¯º": 1430,
      "å·¥ç¨ĭ": 1431,
      "24": 1432,
      "æ³¨": 1433,
      "æĭ¿": 1434,
      "åħ¬éĩĮ": 1435,
      "å¾ĭ": 1436,
      "éĢĢ": 1437,
      "éħĴ": 1438,
      "åĲįä¸º": 1439,
      "ç¬¬ä¸ī": 1440,
      "èĹı": 1441,
      "et": 1442,
      "åģľ": 1443,
      "æĹħ": 1444,
      "æĺ¾": 1445,
      "ç®¡çĲĨ": 1446,
      "ç¡®": 1447,
      "æ»¡": 1448,
      "åºķ": 1449,
      "æĺ¥": 1450,
      "èİ«": 1451,
      "åĨľ": 1452,
      "åºĨ": 1453,
      "ä¹ħ": 1454,
      "æĢĿ": 1455,
      "å¼Ĺ": 1456,
      "æĿ°": 1457,
      "ç»ĥ": 1458,
      "è¿Ļä¸ª": 1459,
      "æİ§": 1460,
      "ãĢĭï¼Į": 1461,
      "ç¥¨": 1462,
      "å¹´ä»£": 1463,
      "æľŁéĹ´": 1464,
      "ion": 1465,
      "å¼¹": 1466,
      "çĲĥéĺŁ": 1467,
      "åĿ¦": 1468,
      "ro": 1469,
      "æĸĹ": 1470,
      "he": 1471,
      "èµ°": 1472,
      "æľĽ": 1473,
      "193": 1474,
      "éĽĦ": 1475,
      "åĪ©äºļ": 1476,
      "èĴĤ": 1477,
      "è½®": 1478,
      "æŃ£å¼ı": 1479,
      "è´£": 1480,
      "èľ": 1481,
      "ãĢįï¼Į": 1482,
      "é¢Ħ": 1483,
      "æ¢ħ": 1484,
      "è¾ĳ": 1485,
      "ä¼ĺ": 1486,
      "æĵ": 1487,
      "çļ®": 1488,
      "ç§Ģ": 1489,
      "æĹ§": 1490,
      "æľĢç»Ī": 1491,
      "ä¸ĬçļĦ": 1492,
      "æī§": 1493,
      "éģĹ": 1494,
      "æ¶Ī": 1495,
      "åĢĻ": 1496,
      "å¿«": 1497,
      "åį´": 1498,
      "çŁŃ": 1499,
      "ä¹ĭéĹ´": 1500,
      "le": 1501,
      "å°¾": 1502,
      "éªĮ": 1503,
      "ĠL": 1504,
      "å°ļ": 1505,
      "è¿ĻäºĽ": 1506,
      "å½±åĵį": 1507,
      "ä¹Łæĺ¯": 1508,
      "ç¤¾ä¼ļ": 1509,
      "èįī": 1510,
      "æĲ": 1511,
      "å»¶": 1512,
      "çł´": 1513,
      "èī¾": 1514,
      "çģµ": 1515,
      "Ġ200": 1516,
      "èį¯": 1517,
      "åıĤåĬł": 1518,
      "èį£": 1519,
      "æī¹": 1520,
      "æ¾³": 1521,
      "åıĳçĶŁ": 1522,
      "éº¦": 1523,
      "æīĢæľī": 1524,
      "åŃĻ": 1525,
      "ç¯": 1526,
      "è°·": 1527,
      "å½¹": 1528,
      "ãĢĭãĢģ": 1529,
      "ä¼¼": 1530,
      "è¡Ģ": 1531,
      "è¿Ľåħ¥": 1532,
      "æłĳ": 1533,
      "çħ§": 1534,
      "çİĽ": 1535,
      "èĬĤçĽ®": 1536,
      "çļĦä¸Ģä¸ª": 1537,
      "ur": 1538,
      "æł¹æį®": 1539,
      "äººçļĦ": 1540,
      "èĵ": 1541,
      "åŁİå¸Ĥ": 1542,
      "èŃ": 1543,
      "æ²¹": 1544,
      "ç»ıæµİ": 1545,
      "âĢĿï¼Į": 1546,
      "ĠH": 1547,
      "è®¡åĪĴ": 1548,
      "å¤®": 1549,
      "åĲ«": 1550,
      "ä¸´": 1551,
      "å¤§çļĦ": 1552,
      "æĿ¨": 1553,
      "åĮĹäº¬": 1554,
      "26": 1555,
      "æĻĭ": 1556,
      "å§Ķåĳĺä¼ļ": 1557,
      "ç½Ĺæĸ¯": 1558,
      "ĠR": 1559,
      "äººçī©": 1560,
      "èĥĮ": 1561,
      "ç»Ħç»ĩ": 1562,
      "æľĹ": 1563,
      "é¼": 1564,
      "èŃ¦": 1565,
      "é¡º": 1566,
      "å¾·åĽ½": 1567,
      "ä¸Ĭæµ·": 1568,
      "åĨµ": 1569,
      "å½Ĵ": 1570,
      "ç«¯": 1571,
      "éĺµ": 1572,
      "åģļ": 1573,
      "è¯·": 1574,
      "éĽħ": 1575,
      "éĤ¦": 1576,
      "æĸŃ": 1577,
      "ä¼¤": 1578,
      "çªģ": 1579,
      "èĢ¶": 1580,
      "50": 1581,
      "äº¡": 1582,
      "æĹ¶æľŁ": 1583,
      "ä¾Ŀ": 1584,
      "æģ¯": 1585,
      "åĸľ": 1586,
      "å°¼äºļ": 1587,
      "ãĢįãĢĤ": 1588,
      "æĳ©": 1589,
      "æ´¥": 1590,
      "é³": 1591,
      "æ¤į": 1592,
      "èĤ¡": 1593,
      "æķĻèĤ²": 1594,
      "æľĢä½³": 1595,
      "åħ±åĴĮ": 1596,
      "èı²": 1597,
      "å¼Ĥ": 1598,
      "æĳĦ": 1599,
      "åºŃ": 1600,
      "å®ĭ": 1601,
      "éļ¾": 1602,
      "åį¢": 1603,
      "éĹ»": 1604,
      "çĶŁæ´»": 1605,
      "èĻ½": 1606,
      "27": 1607,
      "ä¸¤ä¸ª": 1608,
      "æĭ¥": 1609,
      "æĬĢæľ¯": 1610,
      "æĪĲåĳĺ": 1611,
      "ĠG": 1612,
      "ç®Ĺ": 1613,
      "éŁ©": 1614,
      "åİĤ": 1615,
      "æľ«": 1616,
      "åŃ¦å®¶": 1617,
      "è¡ĮæĶ¿": 1618,
      "åĲ´": 1619,
      "åĩºçīĪ": 1620,
      "æľīä¸Ģ": 1621,
      "2010": 1622,
      "åĬ¿": 1623,
      "åĪĩ": 1624,
      "ãĥ¼": 1625,
      "ç³»åĪĹ": 1626,
      "2019": 1627,
      "åıĳè¡Į": 1628,
      "è¯»": 1629,
      "æıĲä¾Ľ": 1630,
      "éĿ¢ç§¯": 1631,
      "èĪ¬": 1632,
      "om": 1633,
      "ãĥ»": 1634,
      "ãĢĭãĢģãĢĬ": 1635,
      "æŀ¶": 1636,
      "ä¸Ńå¤®": 1637,
      "æ¼Ķåĳĺ": 1638,
      "un": 1639,
      "åİĭ": 1640,
      "èī¯": 1641,
      "åĪĹè½¦": 1642,
      "é¡¶": 1643,
      "ä»ĭ": 1644,
      "äºĮåįģ": 1645,
      "èīºæľ¯": 1646,
      "âĢĶâĢĶ": 1647,
      "ĠD": 1648,
      "å·²ç»ı": 1649,
      "è¾ĸ": 1650,
      "ä¹ł": 1651,
      "æ¯Ľ": 1652,
      "æį¢": 1653,
      "æ´»åĬ¨": 1654,
      "æ²¿": 1655,
      "æ¿": 1656,
      "ãģ®": 1657,
      "æĪĺäºī": 1658,
      "æĸ¯çī¹": 1659,
      "ĠF": 1660,
      "èµ«": 1661,
      "éª¨": 1662,
      "éĿ©": 1663,
      "è¡¨ç¤º": 1664,
      "éĴŁ": 1665,
      "ä¸°": 1666,
      "è®¸å¤ļ": 1667,
      "å©ļ": 1668,
      "è¯Ĺ": 1669,
      "äºĨä¸Ģ": 1670,
      "èĩ£": 1671,
      "èĭ¥": 1672,
      "æ¬§æ´²": 1673,
      "å²¸": 1674,
      "åħ»": 1675,
      "çĶŁå¹³": 1676,
      "éĽĨåĽ¢": 1677,
      "ac": 1678,
      "è½»": 1679,
      "çĩ": 1680,
      "ä¸»ä¹ī": 1681,
      "ä½Ĩæĺ¯": 1682,
      "é¸Ł": 1683,
      "éĩįè¦ģ": 1684,
      "åħ±åĴĮåĽ½": 1685,
      "29": 1686,
      "ä¸»æķĻ": 1687,
      "è´µ": 1688,
      "å²©": 1689,
      "åĶ®": 1690,
      "è¯Ĩ": 1691,
      "æľ±": 1692,
      "å¿ħ": 1693,
      "ä¸ºäºĨ": 1694,
      "è¿½": 1695,
      "2020": 1696,
      "æĿ¿": 1697,
      "å®ĮæĪĲ": 1698,
      "ing": 1699,
      "æķħäºĭ": 1700,
      "æ¢ģ": 1701,
      "ä¿ĿæĬ¤": 1702,
      "000": 1703,
      "æ¯ķ": 1704,
      "åĪ°äºĨ": 1705,
      "åħ³ç³»": 1706,
      "æ¯Ĵ": 1707,
      "æĻļ": 1708,
      "ä½Ĳ": 1709,
      "ç»Ŀ": 1710,
      "åĩºçĶŁ": 1711,
      "æľįåĬ¡": 1712,
      "èģĶçĽŁ": 1713,
      "è¯ĳ": 1714,
      "åĢ¼": 1715,
      "2016": 1716,
      "2012": 1717,
      "éĢģ": 1718,
      "å¸ķ": 1719,
      "æľīéĻĲ": 1720,
      "çº½": 1721,
      "çĪµ": 1722,
      "æĺł": 1723,
      "of": 1724,
      "åĲ¯": 1725,
      "æĭį": 1726,
      "é½Ĳ": 1727,
      "çĽĸ": 1728,
      "åįģäºĮ": 1729,
      "ç£": 1730,
      "å±ĭ": 1731,
      "çĽ®åīį": 1732,
      "æĬĹ": 1733,
      "2013": 1734,
      "éļ¶": 1735,
      "æĪĲåĬŁ": 1736,
      "åħ¹": 1737,
      "åīįå¾Ģ": 1738,
      "å¾¡": 1739,
      "éªĳ": 1740,
      "2011": 1741,
      "æł¸": 1742,
      "de": 1743,
      "äºķ": 1744,
      "è§Ĵèī²": 1745,
      "åħ¼": 1746,
      "åĤ": 1747,
      "2014": 1748,
      "æĿŁ": 1749,
      "åĨ³å®ļ": 1750,
      "2017": 1751,
      "èĪŀ": 1752,
      "åĸĦ": 1753,
      "åĪĨå¸ĥ": 1754,
      "2015": 1755,
      "ä¹ĺ": 1756,
      "å¨ľ": 1757,
      "çļĦäºº": 1758,
      "æĹĹ": 1759,
      "èĥ¡": 1760,
      "éħ¸": 1761,
      "2018": 1762,
      "æ³½": 1763,
      "ä»ĸåľ¨": 1764,
      "æĭ¥æľī": 1765,
      "ç»ĦæĪĲ": 1766,
      "èŀ": 1767,
      "åį·": 1768,
      "os": 1769,
      "ç»ĵæŀĦ": 1770,
      "åĪĨåĪ«": 1771,
      "åħ¨åĽ½": 1772,
      "çİī": 1773,
      "åĩ¯": 1774,
      "ä¸¾è¡Į": 1775,
      "åĨ²": 1776,
      "2009": 1777,
      "2008": 1778,
      "±ä¹Ĳ": 1779,
      "äº¤éĢļ": 1780,
      "éŃĶ": 1781,
      "ä»ģ": 1782,
      "èģĶåĲĪ": 1783,
      "çłģ": 1784,
      "åĲĽ": 1785,
      "å¸Ĥéķĩ": 1786,
      "èĻ½çĦ¶": 1787,
      "è¿ģ": 1788,
      "ï¼īï¼ļ": 1789,
      "æĿĤ": 1790,
      "å¾®": 1791,
      "çķ¥": 1792,
      "çİ©": 1793,
      "éĢļå¸¸": 1794,
      "åı·çº¿": 1795,
      "çļĦåľ°": 1796,
      "and": 1797,
      "èĪªç©º": 1798,
      "è®Ń": 1799,
      "éĢĲ": 1800,
      "åĬłåħ¥": 1801,
      "æķ£": 1802,
      "èĸ": 1803,
      "âĢĵ": 1804,
      "ç¿°": 1805,
      "ä¸¥": 1806,
      "é»İ": 1807,
      "è½¨": 1808,
      "åıĤä¸İ": 1809,
      "æĺĮ": 1810,
      "éĹ®é¢ĺ": 1811,
      "å®¾": 1812,
      "é¡»": 1813,
      "40": 1814,
      "åĪ¤": 1815,
      "çĪ¶äº²": 1816,
      "å¦»": 1817,
      "å¤º": 1818,
      "çīĽ": 1819,
      "åĬ¨çī©": 1820,
      "éľĢè¦ģ": 1821,
      "æĻº": 1822,
      "æĺ¯åľ¨": 1823,
      "åį°åº¦": 1824,
      "åĮĹéĥ¨": 1825,
      "å°½": 1826,
      "åĪº": 1827,
      "äº¿": 1828,
      "éĶ¦": 1829,
      "æ²ĥ": 1830,
      "ä¿Ħç½Ĺæĸ¯": 1831,
      "åħĦ": 1832,
      "å»ºç«ĭ": 1833,
      "å¤ľ": 1834,
      "åŃĺåľ¨": 1835,
      "2007": 1836,
      "2021": 1837,
      "å®£å¸ĥ": 1838,
      "æľĢé«ĺ": 1839,
      "æĿľ": 1840,
      "çļĦå¤§": 1841,
      "ä¹Ķ": 1842,
      "æ¶¯": 1843,
      "å°ĨåĨĽ": 1844,
      "ä¸Ńåįİ": 1845,
      "ãĥ³": 1846,
      "è¡¥": 1847,
      "å®ĩ": 1848,
      "å½ĵåľ°": 1849,
      "2006": 1850,
      "ä»Ģ": 1851,
      "æĹ¶ä»£": 1852,
      "çŃ¾": 1853,
      "å¹¶ä¸Ķ": 1854,
      "æĿ¥èĩª": 1855,
      "ç§ĳåŃ¦": 1856,
      "ra": 1857,
      "åĲĮå¹´": 1858,
      "ç±į": 1859,
      "åĬ³": 1860,
      "190": 1861,
      "ĠI": 1862,
      "èĥŀ": 1863,
      "èģļ": 1864,
      "æĿĲ": 1865,
      "æķĮ": 1866,
      "çĶ¨äºİ": 1867,
      "æķĳ": 1868,
      "éĺ¶": 1869,
      "è¾ĵ": 1870,
      "æŀª": 1871,
      "å¹³æĸ¹": 1872,
      "åľĨ": 1873,
      "çĭ¬ç«ĭ": 1874,
      "ä»ª": 1875,
      "å¼Ģåıĳ": 1876,
      "çĶŁäº§": 1877,
      "éĻ©": 1878,
      "èİī": 1879,
      "è·Ŀ": 1880,
      "æºª": 1881,
      "ä¼ģ": 1882,
      "æ¬¢": 1883,
      "éŃı": 1884,
      "éģŃ": 1885,
      "æ£Ģ": 1886,
      "å·¨": 1887,
      "é¢ĳ": 1888,
      "é¡¹çĽ®": 1889,
      "æĭľ": 1890,
      "é¦ĸæ¬¡": 1891,
      "éĥĳ": 1892,
      "çŃĸ": 1893,
      "åħį": 1894,
      "ä¸ĢèĪ¬": 1895,
      "çĽĽ": 1896,
      "æĸ¹éĿ¢": 1897,
      "çľ¼": 1898,
      "ĠW": 1899,
      "ä¸Ŀ": 1900,
      "å·®": 1901,
      "çĶŁæ¶¯": 1902,
      "ri": 1903,
      "ç«¥": 1904,
      "åħ·æľī": 1905,
      "åħ¬åĽŃ": 1906,
      "éĶĢ": 1907,
      "èª": 1908,
      "èĹ¤": 1909,
      "æł¼åħ°": 1910,
      "åŃ¦çĶŁ": 1911,
      "æĮī": 1912,
      "Ġof": 1913,
      "çĸĹ": 1914,
      "å½¢æĪĲ": 1915,
      "è´Ń": 1916,
      "æĮ¥": 1917,
      "ç»©": 1918,
      "è´Łè´£": 1919,
      "é©»": 1920,
      "ç½Ĺé©¬": 1921,
      "è´¢": 1922,
      "è°¢": 1923,
      "å»·": 1924,
      "æŃĮæĽ²": 1925,
      "æµ·åĨĽ": 1926,
      "èµµ": 1927,
      "ĠE": 1928,
      "å°ıè¯´": 1929,
      "åºı": 1930,
      "äºĪ": 1931,
      "ä¸ĢäºĽ": 1932,
      "éĽª": 1933,
      "ãĢĭãĢĤ": 1934,
      "æİ¢": 1935,
      "åª": 1936,
      "çĥĪ": 1937,
      "éĢĶ": 1938,
      "èĵĿ": 1939,
      "çĶŁçī©": 1940,
      "è¯¸": 1941,
      "å·¡": 1942,
      "åįķä½į": 1943,
      "å¯¼èĩ´": 1944,
      "çĽ¸åħ³": 1945,
      "çĲĥåĳĺ": 1946,
      "åĨ³èµĽ": 1947,
      "çĪĨ": 1948,
      "è´§": 1949,
      "èį·": 1950,
      "äº§çĶŁ": 1951,
      "åģĩ": 1952,
      "åįĹéĥ¨": 1953,
      "éĩĩçĶ¨": 1954,
      "è¥¿äºļ": 1955,
      "èģĮä¸ļ": 1956,
      "ç«¹": 1957,
      "ä¸ĵè¾ĳ": 1958,
      "å®½": 1959,
      "Ġï¼Ī": 1960,
      "æľīéĻĲåħ¬åı¸": 1961,
      "äºĭä»¶": 1962,
      "åĿĢ": 1963,
      "çī¹åĪ«": 1964,
      "æĸ¹å¼ı": 1965,
      "åĲĪä½ľ": 1966,
      "60": 1967,
      "å¹´èĩ³": 1968,
      "ter": 1969,
      "æ··": 1970,
      "æĥħåĨµ": 1971,
      "ed": 1972,
      "Ġç¬¬": 1973,
      "å®³": 1974,
      "çĦ¶èĢĮ": 1975,
      "å¿ł": 1976,
      "ç»ĵæĿŁ": 1977,
      "ç½²": 1978,
      "æľºè½¦": 1979,
      "åĩı": 1980,
      "æ¦Ĥ": 1981,
      "è®²": 1982,
      "åĨĪ": 1983,
      "åĪ»": 1984,
      "å¹¶åľ¨": 1985,
      "ä½ł": 1986,
      "ç§ĺ": 1987,
      "å¸ĿåĽ½": 1988,
      "éģĩ": 1989,
      "è®¾æľī": 1990,
      "ä¼ĳ": 1991,
      ")ï¼Į": 1992,
      "å³°": 1993,
      "éĩĬ": 1994,
      "æ¬¾": 1995,
      "åħ¬è·¯": 1996,
      "ĠN": 1997,
      "100": 1998,
      "å¥ı": 1999,
      "ä¾ĭå¦Ĥ": 2000,
      "ad": 2001,
      "è¿Ļç§į": 2002,
      "æ®¿": 2003,
      "2022": 2004,
      "åºŁ": 2005,
      "éĤ»": 2006,
      "æ¯ķä¸ļ": 2007,
      "å¤§åĪ©": 2008,
      "æ¼«": 2009,
      "éľį": 2010,
      "æīĢä»¥": 2011,
      "è·Ł": 2012,
      "Ð°": 2013,
      "æıı": 2014,
      "çļĦæĺ¯": 2015,
      "ia": 2016,
      "ä¾¯": 2017,
      "æ³ī": 2018,
      "å¸®": 2019,
      "ç§ĭ": 2020,
      "ä¸ªäºº": 2021,
      "2005": 2022,
      "äºĴ": 2023,
      "ĠK": 2024,
      "çĶļ": 2025,
      "éŁ¦": 2026,
      "èĶ": 2027,
      "é¥°æ¼Ķ": 2028,
      "åıĸå¾Ĺ": 2029,
      "å«": 2030,
      "ul": 2031,
      "æľºåľº": 2032,
      "åģ¥": 2033,
      "æ£Ĵ": 2034,
      "æķ¦": 2035,
      "èĩªå·±çļĦ": 2036,
      "éĻĦè¿ĳ": 2037,
      "ä¸ŃåŃ¦": 2038,
      "è§ī": 2039,
      "ç»ıè¿ĩ": 2040,
      "ç»¿": 2041,
      "åıĹåĪ°": 2042,
      "çİ°åľ¨": 2043,
      "æĶ¯æĮģ": 2044,
      "å»ºè®¾": 2045,
      "ä¸įè¿ĩ": 2046,
      "çĮ®": 2047,
      "ä¸īå¹´": 2048,
      "2000": 2049,
      "åĿ¡": 2050,
      "31": 2051,
      "çĹĩ": 2052,
      "ç¾½": 2053,
      "ç©Ĩ": 2054,
      "åĲ¸": 2055,
      "æİ§åĪ¶": 2056,
      "æĺ¯ä¸Ģä¸ª": 2057,
      "æĽ¿": 2058,
      "éľ²": 2059,
      "ä½ĵèĤ²": 2060,
      "åħĭæĸ¯": 2061,
      "å¯¼æ¼Ķ": 2062,
      "å°º": 2063,
      "th": 2064,
      "èĨ": 2065,
      "ä¼ļè®®": 2066,
      "ç«ŀ": 2067,
      "æī¾": 2068,
      "ï¼ļâĢľ": 2069,
      "æľºæŀĦ": 2070,
      "å¤§éĻĨ": 2071,
      "æ¨ª": 2072,
      "çĲ´": 2073,
      "éĨ": 2074,
      "éĢĤ": 2075,
      "èµĽåŃ£": 2076,
      "å°±æĺ¯": 2077,
      "éĺ¿å°Ķ": 2078,
      "ä½©": 2079,
      "åĽ½çİĭ": 2080,
      "è¿Ļä¸Ģ": 2081,
      "äººåĳĺ": 2082,
      "åŃ©": 2083,
      "åºĻ": 2084,
      "åĲĪå¹¶": 2085,
      "æĹłæ³ķ": 2086,
      "èĳĹåĲį": 2087,
      "éĵ¶è¡Į": 2088,
      "ay": 2089,
      "èªī": 2090,
      "å¥Ī": 2091,
      "å¦¹": 2092,
      "ä¸ĢçĽ´": 2093,
      "åħħ": 2094,
      "è¾Ĩ": 2095,
      "éĢĥ": 2096,
      "æŁĵ": 2097,
      "æĺŃ": 2098,
      "å®¶æĹı": 2099,
      "ent": 2100,
      "ä¸Ģèµ·": 2101,
      "åıªæľī": 2102,
      "å¹ķ": 2103,
      "ç¯ĩ": 2104,
      "å¾Ħ": 2105,
      "æ¢¦": 2106,
      "æ¤įçī©": 2107,
      "å®¡": 2108,
      "st": 2109,
      "ç»Ĩèĥŀ": 2110,
      "éĿŀå¸¸": 2111,
      "å·¥ä¸ļ": 2112,
      "ç©¿": 2113,
      "80": 2114,
      "ä½įç½®": 2115,
      "2004": 2116,
      "å¾Ĳ": 2117,
      "çĽĺ": 2118,
      "èµĽäºĭ": 2119,
      "å¹´åº¦": 2120,
      "èĦļ": 2121,
      "æ¸Ĳ": 2122,
      "çĤ®": 2123,
      "éĢı": 2124,
      "å¾ĹåĪ°": 2125,
      "åīĳ": 2126,
      "éĻµ": 2127,
      "éĢłæĪĲ": 2128,
      "åĽº": 2129,
      "ç»§ç»Ń": 2130,
      "åĮºåŁŁ": 2131,
      "èĢ³": 2132,
      "èĿ": 2133,
      "éĢīæĭ": 2134,
      "çİ¯å¢ĥ": 2135,
      "è¿ĩç¨ĭ": 2136,
      "æĿ¥çļĦ": 2137,
      "ä¼łç»Ł": 2138,
      "æ£ĭ": 2139,
      "åĢŁ": 2140,
      "um": 2141,
      "ir": 2142,
      "é¢Ŀ": 2143,
      "ation": 2144,
      "èĬ¬": 2145,
      "å¾Ĵ": 2146,
      "ig": 2147,
      "æĢĢ": 2148,
      "ç½ª": 2149,
      "åĨ°": 2150,
      "é²ľ": 2151,
      "æī©": 2152,
      "èĭıèģĶ": 2153,
      "åįļçī©": 2154,
      "æŁı": 2155,
      "æĥł": 2156,
      "åĳĪ": 2157,
      "å¥ī": 2158,
      "ç¿¼": 2159,
      "æ´ª": 2160,
      "Ġt": 2161,
      "æ¼Ķåĩº": 2162,
      "èĮ¨": 2163,
      "å¥³åŃĲ": 2164,
      "ä¹±": 2165,
      "éĴ±": 2166,
      "ç»ĵæŀľ": 2167,
      "çģŃ": 2168,
      "å¢ŀåĬł": 2169,
      "åįģä¸Ģ": 2170,
      "å¤Ł": 2171,
      "åı¦å¤ĸ": 2172,
      "æĺ¯çĶ±": 2173,
      "èĩªçĶ±": 2174,
      "ä¹ĭåīį": 2175,
      "å¢ĵ": 2176,
      "ç¬¬åĽĽ": 2177,
      "æı´": 2178,
      "ãĢĤâĢĿ": 2179,
      "ä¸»å¸Ń": 2180,
      "åĪļ": 2181,
      "å¹´éĹ´": 2182,
      "å®¶åºŃ": 2183,
      "æĪ´": 2184,
      "ä»¥ä¸ĭ": 2185,
      "æ¿Ģ": 2186,
      "éģĵè·¯": 2187,
      "åĶ¯": 2188,
      "è¾Ľ": 2189,
      "äºİæĺ¯": 2190,
      "åĮ»éĻ¢": 2191,
      "éĿł": 2192,
      "æĸ°éĹ»": 2193,
      "ç§ģ": 2194,
      "è¦ģæ±Ĥ": 2195,
      "åªĴ": 2196,
      "æŁĲ": 2197,
      "æ¯«": 2198,
      "äº®": 2199,
      "ãĢįï¼Ī": 2200,
      "ï½": 2201,
      "è¶ħè¿ĩ": 2202,
      "å¯¹äºİ": 2203,
      "æļ´": 2204,
      "ç¼ĺ": 2205,
      "æķĻæİĪ": 2206,
      "ç¼º": 2207,
      "è¥¿çıŃ": 2208,
      "åı¦ä¸Ģ": 2209,
      "è¡£": 2210,
      "è¢Ń": 2211,
      "çº¦ç¿°": 2212,
      "id": 2213,
      "çºªå¿µ": 2214,
      "è¿Ķ": 2215,
      "è¥¿çıŃçīĻ": 2216,
      "ãĢı": 2217,
      "æŃ¤å¤ĸ": 2218,
      "ãĢİ": 2219,
      "éķľ": 2220,
      "¤Ĳ": 2221,
      "ä¾į": 2222,
      "å¦Ĥæŀľ": 2223,
      "im": 2224,
      "æ±ł": 2225,
      "åĿĹ": 2226,
      "æµĻ": 2227,
      "ä¹Ļ": 2228,
      "çĽĬ": 2229,
      "èµŀ": 2230,
      "çļĨ": 2231,
      "åŃĶ": 2232,
      "éĽ¨": 2233,
      "ä¸ľäº¬": 2234,
      "åĦ¿åŃĲ": 2235,
      "ä»Ļ": 2236,
      "å°¤": 2237,
      "ç§¦": 2238,
      "èĦ±": 2239,
      "èĪį": 2240,
      "éĥ¨éĺŁ": 2241,
      "åĩºçļĦ": 2242,
      "ot": 2243,
      "åĲįç§°": 2244,
      "Ð¾": 2245,
      "èĻİ": 2246,
      "èĤī": 2247,
      "é«ĺéĢŁ": 2248,
      "éĩįæĸ°": 2249,
      "åĪĨä¸º": 2250,
      "æĮĩæĮ¥": 2251,
      "90": 2252,
      "æİ¥åıĹ": 2253,
      "åıįåºĶ": 2254,
      "è¿Ľå£«": 2255,
      "åįļçī©é¦Ĩ": 2256,
      "æģ¶": 2257,
      "åĽĽå¹´": 2258,
      "70": 2259,
      "æĢ»ç»Ł": 2260,
      "ä¹İ": 2261,
      "åİ»ä¸ĸ": 2262,
      "Ġ199": 2263,
      "æ¦ľ": 2264,
      "èĮĥåĽ´": 2265,
      "åĲ¬": 2266,
      "èħĬ": 2267,
      "èĥ½åĬĽ": 2268,
      "çŁ¿": 2269,
      "æĶ¹ä¸º": 2270,
      "çİ°ä»£": 2271,
      "ag": 2272,
      "ä¸ľåĮĹ": 2273,
      "2003": 2274,
      "ä¿±ä¹Ĳ": 2275,
      "æ»¨": 2276,
      "æĽ¹": 2277,
      "éľĩ": 2278,
      "åľ°æĸ¹": 2279,
      "å§ĵ": 2280,
      "ä»»ä½ķ": 2281,
      "ä¿±ä¹Ĳéĥ¨": 2282,
      "èµı": 2283,
      "è®¨": 2284,
      "èĽĭ": 2285,
      "æ´ŀ": 2286,
      "æĪĺæĸĹ": 2287,
      "çĶµè§Ĩåī§": 2288,
      "é¡¾": 2289,
      "è°ĭ": 2290,
      "ç¦ģ": 2291,
      "ĠJ": 2292,
      "èıĮ": 2293,
      "35": 2294,
      "çºªå½ķ": 2295,
      "åĪĽä½ľ": 2296,
      "çĶĺ": 2297,
      "èŀį": 2298,
      "çĽ´åĪ°": 2299,
      "æįķ": 2300,
      "æ¡ĳ": 2301,
      "å¢¨": 2302,
      "âĢ¦": 2303,
      "åĨħçļĦ": 2304,
      "èĤ¯": 2305,
      "ä¼ģä¸ļ": 2306,
      "è¡¨çİ°": 2307,
      "æĵį": 2308,
      "å¯¿": 2309,
      "ä¸ľåįĹ": 2310,
      "åĨĽéĺŁ": 2311,
      "éĴ¢": 2312,
      "éĻ¤äºĨ": 2313,
      "æĪĲç»©": 2314,
      "åĨħå®¹": 2315,
      "ç¿»": 2316,
      "æ¯ģ": 2317,
      "37": 2318,
      "ç»į": 2319,
      "æµ¦": 2320,
      "åįıä¼ļ": 2321,
      "æĢ¥": 2322,
      "èķ": 2323,
      "åĲİçļĦ": 2324,
      "å¾ħ": 2325,
      "éĢīæĭ©": 2326,
      "æĪĪ": 2327,
      "åĪĬ": 2328,
      "åĨĽäºĭ": 2329,
      "è¿¹": 2330,
      "çĶµè§Ĩåı°": 2331,
      "å»ī": 2332,
      "ç»¼": 2333,
      "åĩ»è´¥": 2334,
      "è®¿": 2335,
      "åĪ©çĶ¨": 2336,
      "å°ıæĹ¶": 2337,
      "åĨ·": 2338,
      "å®ĥä»¬": 2339,
      "é¢ģ": 2340,
      "èĩªçĦ¶": 2341,
      "å¸ģ": 2342,
      "ï½ŀ": 2343,
      "è¸": 2344,
      "ä¸»é¢ĺ": 2345,
      "äººæ°ĳåħ±åĴĮåĽ½": 2346,
      "çīĪæľ¬": 2347,
      "ä¸»æĮģ": 2348,
      "è¯¾": 2349,
      "èĻ«": 2350,
      "è¯Ńè¨Ģ": 2351,
      "å°Ķæĸ¯": 2352,
      "å¹¸": 2353,
      "è¿ĲåĬ¨åĳĺ": 2354,
      "æĢ§çļĦ": 2355,
      "äºļæ´²": 2356,
      "æĭĽ": 2357,
      "éĢīä¸¾": 2358,
      "æĸĩåŃ¦": 2359,
      "éĢĿ": 2360,
      "æĭįæĳĦ": 2361,
      "æ¯įäº²": 2362,
      "ä½ľçĶ¨": 2363,
      "é½¿": 2364,
      "å½©": 2365,
      "æļĹ": 2366,
      "éº»": 2367,
      "çıł": 2368,
      "æ±ĩ": 2369,
      "åĳ³": 2370,
      "æĹĭ": 2371,
      "åĨįæ¬¡": 2372,
      "ï¼ļãĢĮ": 2373,
      "åĪ¶éĢł": 2374,
      "å¥¹çļĦ": 2375,
      "çº¿è·¯": 2376,
      "æ±½": 2377,
      "iv": 2378,
      "åŁ¹": 2379,
      "äººç±»": 2380,
      "çĶµåŃĲ": 2381,
      "éĥ½æĺ¯": 2382,
      "èİİ": 2383,
      "çĶ³": 2384,
      "åĩ¤": 2385,
      "çĴ": 2386,
      "åĬª": 2387,
      "æĹ¥åľ¨": 2388,
      "æĦıå¤§åĪ©": 2389,
      "æłĩåĩĨ": 2390,
      "éĺ´": 2391,
      "åĿļ": 2392,
      "æľīåħ³": 2393,
      "ä¾µ": 2394,
      "å¯»": 2395,
      "æĸ¹æ³ķ": 2396,
      "è¿İ": 2397,
      "æ®ĸ": 2398,
      "ut": 2399,
      "æ¶²": 2400,
      "å¹¶ä¸į": 2401,
      "ä¹Łæľī": 2402,
      "è¾ħ": 2403,
      "ç»ľ": 2404,
      "åīĤ": 2405,
      "47": 2406,
      "é»ĺ": 2407,
      "ĊĠ": 2408,
      "æģĲ": 2409,
      "æĺ¯ä¸Ģç§į": 2410,
      "2002": 2411,
      "èģĶéĤ¦": 2412,
      "åħ±åĲĮ": 2413,
      "æ¸¡": 2414,
      "å¹¿ä¸ľ": 2415,
      "48": 2416,
      "é¬": 2417,
      "ãĤ¹": 2418,
      "çĳŁ": 2419,
      "éļıåĲİ": 2420,
      "op": 2421,
      "çļĦæĹ¶": 2422,
      "éļĶ": 2423,
      "å¹´åľ¨": 2424,
      "ä¸»è§Ĵ": 2425,
      "æµĻæ±Ł": 2426,
      "çī©ç§į": 2427,
      "ä¸īåįģ": 2428,
      "æĬµ": 2429,
      "æĤ£": 2430,
      "åĪĳ": 2431,
      "46": 2432,
      "æī¬": 2433,
      "éħįéŁ³": 2434,
      "åĮ¹": 2435,
      "æĴ¤": 2436,
      "45": 2437,
      "é³į": 2438,
      "æģĴ": 2439,
      "æĸ°çļĦ": 2440,
      "å®Įåħ¨": 2441,
      "è¥¿åįĹ": 2442,
      "éĩĮæĸ¯": 2443,
      "ĠÐ": 2444,
      "è¿·": 2445,
      "èµ¢": 2446,
      "åį±": 2447,
      "åĨ¬": 2448,
      "æĶ»åĩ»": 2449,
      "åĬ¨çĶ»": 2450,
      "å¤ªå¹³": 2451,
      "è®¾ç«ĭ": 2452,
      "189": 2453,
      "å¹¼": 2454,
      "ï¼ĮãĢĬ": 2455,
      "ï¼Ł": 2456,
      "èĳ£": 2457,
      "éĿĻ": 2458,
      "æ¥ļ": 2459,
      "åįĪ": 2460,
      "æįŁ": 2461,
      "ĠO": 2462,
      "em": 2463,
      "åįļå£«": 2464,
      "ä¸Ńåįİäººæ°ĳåħ±åĴĮåĽ½": 2465,
      "æĭīæĸ¯": 2466,
      "åĳ¼": 2467,
      "åħĥå¹´": 2468,
      "ow": 2469,
      "å®ľ": 2470,
      "ä¸ĭçļĦ": 2471,
      "æ°§": 2472,
      "çĬ¯": 2473,
      "èĳ¡": 2474,
      "ç±»ä¼¼": 2475,
      "ä¹Ī": 2476,
      "å¸Ĥåľº": 2477,
      "çī¹å¾ģ": 2478,
      "æ½ľ": 2479,
      "å½¼": 2480,
      "æķ°éĩı": 2481,
      "è´¡": 2482,
      "å´ĩ": 2483,
      "çĽ´æİ¥": 2484,
      "èĦī": 2485,
      "æĽ¾ç»ı": 2486,
      "å±±ä¸ľ": 2487,
      "æľĢåĪĿ": 2488,
      "çĤ¸": 2489,
      "åĬłæĭ¿": 2490,
      "ç¾İåħĥ": 2491,
      "å®ŀéªĮ": 2492,
      "å¤§éĩı": 2493,
      "ä¹°": 2494,
      "ç¬¦": 2495,
      "ç¦»å¼Ģ": 2496,
      "è¿ĺæľī": 2497,
      "ä»»åĬ¡": 2498,
      "æıĲåĩº": 2499,
      "å®īåħ¨": 2500,
      "æīİ": 2501,
      "å¹¿æĴŃ": 2502,
      "åĮºçļĦ": 2503,
      "æĦ¿": 2504,
      "ĠV": 2505,
      "å§Ĳ": 2506,
      "åŃ¦ä¹ł": 2507,
      "åĮħåĲ«": 2508,
      "Ġå¤§": 2509,
      "2001": 2510,
      "çİ©å®¶": 2511,
      "æ»ĳ": 2512,
      "ec": 2513,
      "ä¸Ģæ¬¡": 2514,
      "äº¨": 2515,
      "ä¼į": 2516,
      "æŃ»äº¡": 2517,
      "çº½çº¦": 2518,
      "ç»ĺ": 2519,
      "Ð¸": 2520,
      "è¾½": 2521,
      "å½¢å¼ı": 2522,
      "éĶ¦æłĩ": 2523,
      "æ²³åįĹ": 2524,
      "æĹ©æľŁ": 2525,
      "åĵ²": 2526,
      "é¢Ĩå¯¼": 2527,
      "çļĦå¥³": 2528,
      "åĳ½åĲį": 2529,
      "è¿Ļæĺ¯": 2530,
      "ãģĦ": 2531,
      "åĨĮ": 2532,
      "ä¸īä¸ª": 2533,
      "è±ª": 2534,
      "Ġd": 2535,
      "åĭĩ": 2536,
      "ä¸¾åĬŀ": 2537,
      "åı¬": 2538,
      "éŁ©åĽ½": 2539,
      "85": 2540,
      "åı«": 2541,
      "éĵľ": 2542,
      "è®¾ç½®": 2543,
      "è¥¿åĮĹ": 2544,
      "çĶļèĩ³": 2545,
      "å¾½": 2546,
      "åŃĿ": 2547,
      "æ¨¡å¼ı": 2548,
      "å¹¶äºİ": 2549,
      "ä¸Ģç§į": 2550,
      "åĭĭ": 2551,
      "ä¼Ł": 2552,
      "åĲķ": 2553,
      "ä¸ĵä¸ļ": 2554,
      "äºĶå¹´": 2555,
      "å¿ħé¡»": 2556,
      "å´İ": 2557,
      "è¡ĮåĬ¨": 2558,
      "åħ±æľī": 2559,
      "è½¯": 2560,
      "ç¼©": 2561,
      "è°ĥæŁ¥": 2562,
      "èĦĳ": 2563,
      "æŁ±": 2564,
      "å¼ĥ": 2565,
      "çĽĲ": 2566,
      "ä¸įèĥ½": 2567,
      "æ±¤": 2568,
      "æĪª": 2569,
      "éģ¿": 2570,
      "å¸ĮèħĬ": 2571,
      "ç³ĸ": 2572,
      "åŁºç¡": 2573,
      "çī§": 2574,
      "åľ°ä¸ĭ": 2575,
      "è¥¿éĥ¨": 2576,
      "è·Ŀç¦»": 2577,
      "æķı": 2578,
      "æ¯«ç±³": 2579,
      "èıľ": 2580,
      "å¹³åĿĩ": 2581,
      "æĴŃåĩº": 2582,
      "éĴĪ": 2583,
      "ï¼ģ": 2584,
      "æµª": 2585,
      "è½¨éģĵ": 2586,
      "æĸ¯åĿ¦": 2587,
      "åĪĨç±»": 2588,
      "od": 2589,
      "å·ŀå¸Ĥ": 2590,
      "è®¢": 2591,
      "è°Ī": 2592,
      "äºĮå¹´": 2593,
      "è®°è½½": 2594,
      "ie": 2595,
      "åĮĸåŃ¦": 2596,
      "èĲ§": 2597,
      "æķĻåłĤ": 2598,
      "æĬķèµĦ": 2599,
      "é¢ľ": 2600,
      "çĸĳ": 2601,
      "oc": 2602,
      "éĿĴå¹´": 2603,
      "çīł": 2604,
      "æģĭ": 2605,
      "æŀļ": 2606,
      "ç¹": 2607,
      "å¦ĩ": 2608,
      "åŁºç¡Ģ": 2609,
      "éĻ¶": 2610,
      "éĤ®": 2611,
      "æŃĮæīĭ": 2612,
      "åľĪ": 2613,
      "åĿı": 2614,
      "è´¤": 2615,
      "çĽ¸å½ĵ": 2616,
      "åķĨä¸ļ": 2617,
      "éĽķ": 2618,
      "ĠSt": 2619,
      "å¦®": 2620,
      "å¢Ļ": 2621,
      "åĶ¯ä¸Ģ": 2622,
      "ãĢī": 2623,
      "åĲ¦": 2624,
      "è¯¯": 2625,
      "ill": 2626,
      "å¥Ĺ": 2627,
      "æ©": 2628,
      "ãĢĪ": 2629,
      "å°Ĭ": 2630,
      "å±ħæ°ĳ": 2631,
      "éĺ»": 2632,
      "çĲĨè®º": 2633,
      "éĥŃ": 2634,
      "åĬłæĭ¿å¤§": 2635,
      "à¸": 2636,
      "æĸĩçī©": 2637,
      "é£ŀè¡Į": 2638,
      "ï¼ı": 2639,
      "åĽĽå·Ŀ": 2640,
      "åĿĲ": 2641,
      "éĶ¡": 2642,
      "é¬¼": 2643,
      "å¹¿åľº": 2644,
      "ãĥ«": 2645,
      "è¢«ç§°ä¸º": 2646,
      "è£ģ": 2647,
      "è¿ŀç»Ń": 2648,
      "æĹ¶çļĦ": 2649,
      "ä¸Ģæł·": 2650,
      "è´º": 2651,
      "èĭ±æł¼åħ°": 2652,
      "éļ¶å±ŀäºİ": 2653,
      "åľ°çĲĨ": 2654,
      "ä»Ķ": 2655,
      "ãĤ¤": 2656,
      "åĪĨéĴŁ": 2657,
      "å¸®åĬ©": 2658,
      "æ½®": 2659,
      "åħĦå¼Ł": 2660,
      "ou": 2661,
      "åħ³äºİ": 2662,
      "æııè¿°": 2663,
      "ĠĠ": 2664,
      "ap": 2665,
      "åħ¶åĲİ": 2666,
      "é£ŀæľº": 2667,
      "åįĸ": 2668,
      "ä»ĵ": 2669,
      "æİĮ": 2670,
      "å¤ļæķ°": 2671,
      "ä¼Ĳ": 2672,
      "ä¸ºP": 2673,
      "ç¬¬ä¸Ģæ¬¡": 2674,
      "æĺ¾ç¤º": 2675,
      "æĸ¹åĲĳ": 2676,
      "æķ°æį®": 2677,
      "æ¡ĥ": 2678,
      "è¶ħçº§": 2679,
      "è¯ī": 2680,
      "æļĤ": 2681,
      "åĲįåŃĹ": 2682,
      "36": 2683,
      "ä»ĺ": 2684,
      "å®¿": 2685,
      "éĹŃ": 2686,
      "ä¹ĭéĹ´çļĦ": 2687,
      "èµ¤": 2688,
      "Ġé¥°æ¼Ķ": 2689,
      "åįĹäº¬": 2690,
      "ä¸¤äºº": 2691,
      "éĻ·": 2692,
      "ç´§": 2693,
      "é©±": 2694,
      "éĥ¨éķ¿": 2695,
      "èĥ½å¤Ł": 2696,
      "ard": 2697,
      "äº«": 2698,
      "æ²ī": 2699,
      "å»ºéĢł": 2700,
      "è¿«": 2701,
      "Ðµ": 2702,
      "æ³Ľ": 2703,
      "æŀĲ": 2704,
      "è£Ĥ": 2705,
      "æī§è¡Į": 2706,
      "è®¯": 2707,
      "èĲĦ": 2708,
      "75": 2709,
      "èĳ¡èĲĦ": 2710,
      "è¿ŀæİ¥": 2711,
      "é©¬æĿ¥": 2712,
      "èĢĮä¸Ķ": 2713,
      "ä¸ĺ": 2714,
      "å¹»": 2715,
      "åįķæĽ²": 2716,
      "è¡Įä¸º": 2717,
      "ç¹ģ": 2718,
      "åī§æĥħ": 2719,
      "çģ°": 2720,
      "é£İæł¼": 2721,
      "æĪĺå½¹": 2722,
      "ï¼ļãĢĬ": 2723,
      "ä¹ĥ": 2724,
      "av": 2725,
      "çĶ·åŃĲ": 2726,
      "è®¾æĸ½": 2727,
      "è·¨": 2728,
      "åĢĴ": 2729,
      "åıĳå¸ĥ": 2730,
      "è§ĦåĪĴ": 2731,
      "éĺģ": 2732,
      "è®Ńç»ĥ": 2733,
      "ç¬Ķ": 2734,
      "ä½ľæĽ²": 2735,
      "ä¿Ĺ": 2736,
      "æ¼«çĶ»": 2737,
      "æĭĶ": 2738,
      "å®ª": 2739,
      "ä¸»ä»»": 2740,
      "å¤ªéĺ³": 2741,
      "æĺĨ": 2742,
      "å®ŀéĻħ": 2743,
      "æĪĳä»¬": 2744,
      "ä¸Ģä¸ĸ": 2745,
      "çĩķ": 2746,
      "åĲĦç§į": 2747,
      "å¤©æ´¥": 2748,
      "33": 2749,
      "äº§åĵģ": 2750,
      "å¸ĮæľĽ": 2751,
      "1999": 2752,
      "æ²Ī": 2753,
      "æĮ¯": 2754,
      "éĿĸ": 2755,
      "åĿĳ": 2756,
      "è§¦": 2757,
      "åŁºçĿ£": 2758,
      "åħ¨çĲĥ": 2759,
      "æĺĤ": 2760,
      "èµĸ": 2761,
      "ç´«": 2762,
      "äºĮä¸ĸ": 2763,
      "è·ĳ": 2764,
      "äºĭåĬ¡": 2765,
      "å¤§æĪĺ": 2766,
      "ers": 2767,
      "åħ¬å¼Ģ": 2768,
      "ç¥Ń": 2769,
      "åľ°éĵģ": 2770,
      "å£¤": 2771,
      "çļĩå¸Ŀ": 2772,
      "è£Ķ": 2773,
      "åĬŁèĥ½": 2774,
      "ä¸įæĺ¯": 2775,
      "åľ¨æŃ¤": 2776,
      "çĨĻ": 2777,
      "åľ°çĲĥ": 2778,
      "æĢª": 2779,
      "åİŁåĽł": 2780,
      "ä¸»æ¼Ķ": 2781,
      "è®®ä¼ļ": 2782,
      "ç©ºéĹ´": 2783,
      "æŁ´": 2784,
      "åıĳè¡¨": 2785,
      "åģı": 2786,
      "çĸ«": 2787,
      "éĢīæīĭ": 2788,
      "ä¸ľéĥ¨": 2789,
      "åħŃå¹´": 2790,
      "æĺİæľĿ": 2791,
      "Ð½": 2792,
      "1990": 2793,
      "çĸ¾": 2794,
      "è´¸": 2795,
      "èļ": 2796,
      "åªĴä½ĵ": 2797,
      "æķ¬": 2798,
      "ä¸įä¹ħ": 2799,
      "é¢Ĺ": 2800,
      "ç§Ł": 2801,
      "çº¹": 2802,
      "éĶĭ": 2803,
      "ell": 2804,
      "éĢĬ": 2805,
      "åħ½": 2806,
      "çº¯": 2807,
      "ak": 2808,
      "ä½ľå®¶": 2809,
      "ov": 2810,
      "å¢ĥåĨħ": 2811,
      "1998": 2812,
      "æľĪåı°": 2813,
      "é¹¿": 2814,
      "è¾ŀ": 2815,
      "çº¸": 2816,
      "åŃ¦åĲį": 2817,
      "èĳ¬": 2818,
      "ç¬¬äºĶ": 2819,
      "åħ¨éĥ¨": 2820,
      "æ²»çĸĹ": 2821,
      "æİĴåĲį": 2822,
      "èĩªæ²»": 2823,
      "çĽ¸åĲĮ": 2824,
      "èĴĻåı¤": 2825,
      "é¤Ĳ": 2826,
      "ä»ĸä»¬çļĦ": 2827,
      "ä»¥æĿ¥": 2828,
      "è´Ŀå°Ķ": 2829,
      "èµ¢å¾Ĺ": 2830,
      "ä»įçĦ¶": 2831,
      "ç¤¾åĮº": 2832,
      "ä¼¦æķ¦": 2833,
      "åŁºæľ¬": 2834,
      "å¾Īå¤ļ": 2835,
      "å®ļçļĦ": 2836,
      "ç´¯": 2837,
      "çĲ³": 2838,
      "çıį": 2839,
      "å£ģ": 2840,
      "è®¡ç®Ĺ": 2841,
      "æķĻç»ĥ": 2842,
      "The": 2843,
      "æ°ĳæĹı": 2844,
      "æŁ¯": 2845,
      "éĵģéģĵ": 2846,
      "æĸ¯ç§ĳ": 2847,
      "ç¡¬": 2848,
      "æ¼ĶåĶ±": 2849,
      "âĢĿï¼Ī": 2850,
      "åıĪç§°": 2851,
      "ç²ī": 2852,
      "ä¸ĢåĲį": 2853,
      "ä¼¸": 2854,
      "ä¼´": 2855,
      "è·³": 2856,
      "çĲĥä¼ļ": 2857,
      "ä¿Ĭ": 2858,
      "è¾¾åĪ°": 2859,
      "å¼ĺ": 2860,
      "ä¸įåĲĮçļĦ": 2861,
      "èĭ±è¯Ń": 2862,
      "å»ºäºİ": 2863,
      "ÑĢ": 2864,
      "ãĢĤãĢį": 2865,
      "ç»Łæ²»": 2866,
      "38": 2867,
      "ä¸ºä¸»": 2868,
      "å¤©ä¸»æķĻ": 2869,
      "è§Ī": 2870,
      "ç»¼åĲĪ": 2871,
      "Ġde": 2872,
      "ä¸ŃåĽ½å¤§éĻĨ": 2873,
      "çĮİ": 2874,
      "åŃŁ": 2875,
      "ab": 2876,
      "æľĭ": 2877,
      "çĤİ": 2878,
      "éļľ": 2879,
      "çĬ¹": 2880,
      "èµł": 2881,
      "çĥ§": 2882,
      "æłĸ": 2883,
      "è¾ī": 2884,
      "ç»§æī¿": 2885,
      "èį£èªī": 2886,
      "åĩºçĶŁäºİ": 2887,
      "Ġs": 2888,
      "è´¾": 2889,
      "åİļ": 2890,
      "æģ¢": 2891,
      "Ñģ": 2892,
      "æ¢°": 2893,
      "ä¼ı": 2894,
      "ist": 2895,
      "åħĭåħ°": 2896,
      "å°½ç®¡": 2897,
      "å¦»åŃĲ": 2898,
      "Ġ198": 2899,
      "å¤ĦçĲĨ": 2900,
      "åĪĢ": 2901,
      "å±ŀçļĦ": 2902,
      "èĮ¶": 2903,
      "å¹´åĲİ": 2904,
      "çĦ¶åĲİ": 2905,
      "éĢŁåº¦": 2906,
      "åģ¶": 2907,
      "éļĲ": 2908,
      "ä¿¡æģ¯": 2909,
      "è¡Ĺéģĵ": 2910,
      "åŃ¦ä½į": 2911,
      "ä½Ĩåľ¨": 2912,
      "èĽĩ": 2913,
      "æĶ¹ç¼ĸ": 2914,
      "å¼ĢæĶ¾": 2915,
      "è¿Ī": 2916,
      "æĻ¶": 2917,
      "55": 2918,
      "æĹģ": 2919,
      "é¾Ħ": 2920,
      "Ã©": 2921,
      "åĽ°": 2922,
      "çĨĬ": 2923,
      "ine": 2924,
      "çŃīäºº": 2925,
      "ç¨³": 2926,
      "å°ĳå¹´": 2927,
      "è¯Ħä»·": 2928,
      "åıĺåĮĸ": 2929,
      "éĺ¿æĭī": 2930,
      "é¼ĵ": 2931,
      "æľĢæĹ©": 2932,
      "æ®ĭ": 2933,
      "æį·": 2934,
      "åŁĶ": 2935,
      "è°±": 2936,
      "ä½¿å¾Ĺ": 2937,
      "ä¸ļåĬ¡": 2938,
      "æħķ": 2939,
      "åħ¬åħ±": 2940,
      "ä¸Ĭæĺł": 2941,
      "ç®Ģç§°": 2942,
      "çī©çĲĨ": 2943,
      "å·´é»İ": 2944,
      "éĶĻ": 2945,
      "æ®Ĭ": 2946,
      "çģ¯": 2947,
      "èĳĽ": 2948,
      "ç»ıèĲ¥": 2949,
      "ç»ıå¸¸": 2950,
      "å®ħ": 2951,
      "34": 2952,
      "åĽŀåĪ°": 2953,
      "å¨ģå»ī": 2954,
      "1997": 2955,
      "èĥĮæĻ¯": 2956,
      "åĹ": 2957,
      "çİĭåĽ½": 2958,
      "éĺ¶æ®µ": 2959,
      "èµĦæĸĻ": 2960,
      "èİ²": 2961,
      "188": 2962,
      "çķª": 2963,
      "ç¦ıå»º": 2964,
      "æľĢå¤§": 2965,
      "ç®Ń": 2966,
      "TC": 2967,
      "æ°ĳä¸»": 2968,
      "39": 2969,
      "St": 2970,
      "ãģĹ": 2971,
      "ç¾¤å²Ľ": 2972,
      "æ¡£": 2973,
      "çļĦå°ı": 2974,
      "æŁ³": 2975,
      "éĢĿä¸ĸ": 2976,
      "åĬŀåħ¬": 2977,
      "ä¸Ńæĸĩ": 2978,
      "Ġm": 2979,
      "åİ¦": 2980,
      "ce": 2981,
      "32": 2982,
      "ä¸¥éĩį": 2983,
      "Ch": 2984,
      "ä¹³": 2985,
      "æģ¢å¤į": 2986,
      "è½´": 2987,
      "çİĦ": 2988,
      "åĩºäºĨ": 2989,
      "78": 2990,
      "æ¯Ķäºļ": 2991,
      "åħ¬å°º": 2992,
      "çĩĥ": 2993,
      "éĥ¨éĹ¨": 2994,
      "è¿ĲèĲ¥": 2995,
      "åĽ¾ä¹¦": 2996,
      "é¢ĳéģĵ": 2997,
      "ä¼°": 2998,
      "è¡¨æ¼Ķ": 2999,
      "å¹¿å·ŀ": 3000,
      "çļĦæĸ°": 3001,
      "åıĳåĬ¨": 3002,
      "ç¾İæ´²": 3003,
      "å·¦åı³": 3004,
      "åĽ½æ°ĳ": 3005,
      "èį·åħ°": 3006,
      "è¡ĮæĶ¿åĮº": 3007,
      "ĠCh": 3008,
      "éŀ": 3009,
      "æĬĺ": 3010,
      "èĢħçļĦ": 3011,
      "åĲĥ": 3012,
      "å°Ķå¾·": 3013,
      "ãĥĪ": 3014,
      "éĻķ": 3015,
      "æĮĳ": 3016,
      "æĿī": 3017,
      "çĮª": 3018,
      "çºµ": 3019,
      "éĶ¦æłĩèµĽ": 3020,
      "åŁºåľ°": 3021,
      "å¤§éĥ¨åĪĨ": 3022,
      "æ¶ī": 3023,
      "æķ´ä¸ª": 3024,
      "è§Ħæ¨¡": 3025,
      "çĶŁäºİ": 3026,
      "æĬļ": 3027,
      "çĽ®æłĩ": 3028,
      "å®ĺæĸ¹": 3029,
      "èī²çļĦ": 3030,
      "æµģè¡Į": 3031,
      "è®®åĳĺ": 3032,
      "ç¯®": 3033,
      "å°Ĩåħ¶": 3034,
      "æ±Ĺ": 3035,
      "æĴĴ": 3036,
      "åŀĴ": 3037,
      "è¿Ļæł·": 3038,
      "èº«ä»½": 3039,
      "çļĩå®¶": 3040,
      "ç¢ĳ": 3041,
      "éĽ¶": 3042,
      "åŃĲçļĦ": 3043,
      "II": 3044,
      "åĩ¡": 3045,
      "å¥´": 3046,
      "çŃīåľ°": 3047,
      "å¡ŀå°Ķ": 3048,
      "65": 3049,
      "çĮ«": 3050,
      "æ¶ħ": 3051,
      "éķ¿çļĦ": 3052,
      "ç¦Ħ": 3053,
      "èĭĹ": 3054,
      "ãĥ©": 3055,
      "èīĩ": 3056,
      "Ġp": 3057,
      "å¹´èµ·": 3058,
      "æĪĸèĢħ": 3059,
      "ç§ĳæĬĢ": 3060,
      "æķĻåĮº": 3061,
      "åĨ¯": 3062,
      "ĠæĿİ": 3063,
      "æ³ķå¾ĭ": 3064,
      "éĢĲæ¸Ĳ": 3065,
      "åĪĹè¡¨": 3066,
      "æľĢå¤§çļĦ": 3067,
      "Ġc": 3068,
      "éĤĢ": 3069,
      "åħ¬ä¸»": 3070,
      "è¦": 3071,
      "å²Ń": 3072,
      "åľŁåľ°": 3073,
      "ç¼ĸçłģ": 3074,
      "åį¿": 3075,
      "æľĿé²ľ": 3076,
      "åŃ¦èĢħ": 3077,
      "çĭ±": 3078,
      "æħĪ": 3079,
      "è¿Ĳè¡Į": 3080,
      "æ¾³éĹ¨": 3081,
      "ç»ıåİĨ": 3082,
      "çļĦç¬¬": 3083,
      "è½¦è¾Ĩ": 3084,
      "æĶ¿æ²»äººçī©": 3085,
      "çĲĥåľº": 3086,
      "æĭĨ": 3087,
      "å±ħä½ı": 3088,
      "æ±½è½¦": 3089,
      "é«ĺçŃī": 3090,
      "ç¬¬äºĮæ¬¡": 3091,
      "å¤§çº¦": 3092,
      "1996": 3093,
      "ç»ª": 3094,
      "åĪĨæŀĲ": 3095,
      "çĹħæ¯Ĵ": 3096,
      "åĪĻæĺ¯": 3097,
      "åıĽ": 3098,
      "çļĦä¸»è¦ģ": 3099,
      "æĿĤå¿Ĺ": 3100,
      "è¿ĩåİ»": 3101,
      "åıĻ": 3102,
      "ãĢįãĢģ": 3103,
      "çŃĶ": 3104,
      "ä»¥ä¸Ĭ": 3105,
      "éĥ¨ä»½": 3106,
      "æ¯Ķè¾ĥ": 3107,
      "ç½ĳç»ľ": 3108,
      "og": 3109,
      "èĽĭçĻ½": 3110,
      "æķĪåĬĽ": 3111,
      "ä»»åĳ½": 3112,
      "åĴ¸": 3113,
      "all": 3114,
      "å¤ļçļĦ": 3115,
      "å¥³æĢ§": 3116,
      "è¢«è®¤ä¸º": 3117,
      "èħ¹": 3118,
      "æĮģç»Ń": 3119,
      "å°ĸ": 3120,
      "è®°å½ķ": 3121,
      "ä½ĵçļĦ": 3122,
      "ç¾Ĭ": 3123,
      "è¯Ĭ": 3124,
      "æĸ¯çļĦ": 3125,
      "ä¸įä¼ļ": 3126,
      "Ġthe": 3127,
      "è¡Ķ": 3128,
      "è¿ĽæĶ»": 3129,
      "èĹ©": 3130,
      "èĻļ": 3131,
      "æ²Ł": 3132,
      "åĪĨå¸ĥäºİ": 3133,
      "åºĶçĶ¨": 3134,
      "è¡¡": 3135,
      "åħĪåĲİ": 3136,
      "å¥ĸé¡¹": 3137,
      "å°ļä¹¦": 3138,
      "æ½ĺ": 3139,
      "æĶ¹åĪ¶": 3140,
      "äº¤æĺĵ": 3141,
      "è´¯": 3142,
      "ç¥ĸçĪ¶": 3143,
      "æħ¢": 3144,
      "æĹłçº¿": 3145,
      "åŀĭçļĦ": 3146,
      "åįıåĬ©": 3147,
      "éĿ©åĳ½": 3148,
      "èīĺ": 3149,
      "çĺ": 3150,
      "éĺŁçļĦ": 3151,
      "èİ·å¾ĹäºĨ": 3152,
      "ç¥¥": 3153,
      "è¿Ĳè¾ĵ": 3154,
      "é¥®": 3155,
      "1994": 3156,
      "æĭĴ": 3157,
      "çģ¾": 3158,
      "æ±Łèĭı": 3159,
      "åıįå¯¹": 3160,
      "åĶ±çīĩ": 3161,
      "å¼±": 3162,
      "art": 3163,
      "åĬłåĿ¡": 3164,
      "åħģ": 3165,
      "è¯Ħè®º": 3166,
      "æŃ¦åĻ¨": 3167,
      "1995": 3168,
      "éĻĨåĨĽ": 3169,
      "å°ī": 3170,
      "æĬ¥åĳĬ": 3171,
      "ber": 3172,
      "å¹ħ": 3173,
      "å¾·éĩĮ": 3174,
      "ï¼ĮâĢľ": 3175,
      "æ¡Ĥ": 3176,
      "æ³ķéĻ¢": 3177,
      "ang": 3178,
      "èĶ¡": 3179,
      "çĽĹ": 3180,
      "ç»´å°Ķ": 3181,
      "å¤§éģĵ": 3182,
      "ãĥª": 3183,
      "æĺİæ²»": 3184,
      "åĦ¿ç«¥": 3185,
      "è§£æĶ¾": 3186,
      "åľ³": 3187,
      "å»ºæĪĲ": 3188,
      "æĸĳ": 3189,
      "ãĤ¯": 3190,
      "å¥¥è¿Ĳ": 3191,
      "ne": 3192,
      "äººä»¬": 3193,
      "ä¸Ńéĥ¨": 3194,
      "çłĶç©¶æīĢ": 3195,
      "è¿ĺæĺ¯": 3196,
      "çĨŁ": 3197,
      "æľºä¼ļ": 3198,
      "å¹´è½»": 3199,
      "åĿĽ": 3200,
      "è´ŀ": 3201,
      "ĠU": 3202,
      "ä½ľæĪĺ": 3203,
      "æĲŃ": 3204,
      "ç»ķ": 3205,
      "å¥¥æĸ¯": 3206,
      "è®¾å¤ĩ": 3207,
      "ph": 3208,
      "çļĦé«ĺ": 3209,
      "Âł": 3210,
      "è©": 3211,
      "åĩºä»»": 3212,
      "åı°åĮĹ": 3213,
      "å®ĹæķĻ": 3214,
      "æĻ®éĢļ": 3215,
      "ãģĭ": 3216,
      "åİĺ": 3217,
      "ãĤ¢": 3218,
      "æĥĬ": 3219,
      "åıĶ": 3220,
      "å°ıåŃ¦": 3221,
      "æĿ¥æºĲ": 3222,
      "49": 3223,
      "åĲĮæł·": 3224,
      "æ§": 3225,
      "æĸ°åĬłåĿ¡": 3226,
      "é©¬æĿ¥è¥¿äºļ": 3227,
      "çĹĽ": 3228,
      "å¤§èĩ£": 3229,
      "åĬłçĽŁ": 3230,
      "åĨľä¸ļ": 3231,
      "çļĦåīį": 3232,
      "åİŁæľ¬": 3233,
      "æĿĲæĸĻ": 3234,
      "ãģª": 3235,
      "ç»ĵå©ļ": 3236,
      "å½±çīĩ": 3237,
      "é©¶": 3238,
      "ï¼īï¼Ī": 3239,
      "ä¿ĿæĮģ": 3240,
      "ç¨İ": 3241,
      "åĪĿæľŁ": 3242,
      "Ġf": 3243,
      "èĳĹä½ľ": 3244,
      "ant": 3245,
      "Ġåľ¨": 3246,
      "èĬĿ": 3247,
      "çº²": 3248,
      "è·¯æĺĵ": 3249,
      "èµĦæł¼": 3250,
      "åı¸ä»¤": 3251,
      "çīłä»¬": 3252,
      "è©¹": 3253,
      "æĴŀ": 3254,
      "åľ°åĮºçļĦ": 3255,
      "åı¸é©¬": 3256,
      "æĿ¡ä»¶": 3257,
      "âĨ": 3258,
      "åĽ¢ä½ĵ": 3259,
      "ç²Ĵ": 3260,
      "éģ£": 3261,
      "est": 3262,
      "åħ¬å¸ĥ": 3263,
      "çĥŁ": 3264,
      "åĸľæ¬¢": 3265,
      "çİĭæľĿ": 3266,
      "æľĭåıĭ": 3267,
      "1992": 3268,
      "è´¸æĺĵ": 3269,
      "ï¼īï¼Ľ": 3270,
      "1980": 3271,
      "IN": 3272,
      "ä¸Ģä½į": 3273,
      "æľ¬ç«Ļ": 3274,
      "æķĻä¼ļ": 3275,
      "è¯ļ": 3276,
      "åıĳå°Ħ": 3277,
      "æ¹ĸåįĹ": 3278,
      "å¼ķèµ·": 3279,
      "1993": 3280,
      "åĤ¨": 3281,
      "Ð¾Ð": 3282,
      "çĬ¶æĢģ": 3283,
      "ãĤĵ": 3284,
      "åŁİåĮº": 3285,
      "æľīçļĦ": 3286,
      "èĭ¦": 3287,
      "æ¢¯": 3288,
      "åıĤèµĽ": 3289,
      "èº«ä½ĵ": 3290,
      "ä¸ĥå¹´": 3291,
      "éģĤ": 3292,
      "å¹´è¢«": 3293,
      "ãĥĥ": 3294,
      "76": 3295,
      "ä¹¾": 3296,
      "æīĢåľ¨": 3297,
      "ãģ¨": 3298,
      "åį¡å°Ķ": 3299,
      "æľīæĹ¶": 3300,
      "186": 3301,
      "é©¾": 3302,
      "æİ¨åĩº": 3303,
      "èĬ³": 3304,
      "ãģŁ": 3305,
      "UTC": 3306,
      "å¤§ä¼ļ": 3307,
      "åĲįåįķ": 3308,
      "æĹħæ¸¸": 3309,
      "èĩªåĬ¨": 3310,
      "äº¤æµģ": 3311,
      "çļĦä¸Ģç§į": 3312,
      "ich": 3313,
      "éħĴåºĹ": 3314,
      "æľºæ¢°": 3315,
      "åĩłä¹İ": 3316,
      "æĶ¶å½ķ": 3317,
      "é¢ĨåŁŁ": 3318,
      "44": 3319,
      "æ¯ĶèµĽä¸Ń": 3320,
      "82": 3321,
      "åı¥": 3322,
      "è§Ĥä¼Ĺ": 3323,
      "æµ®": 3324,
      "çŀ": 3325,
      "æ·¡": 3326,
      "çĶµåĬĽ": 3327,
      "éģĹåĿĢ": 3328,
      "æĶ¹åıĺ": 3329,
      "æĽ¾åľ¨": 3330,
      "å¹³æĸ¹ç±³": 3331,
      "èĮĤ": 3332,
      "æ¾³å¤§": 3333,
      "å¥½çļĦ": 3334,
      "ä¸Ģå¹´": 3335,
      "æ£®æŀĹ": 3336,
      "éī": 3337,
      "ç¬¬åįģ": 3338,
      "TV": 3339,
      "èĭ±éĽĦ": 3340,
      "å®ĥçļĦ": 3341,
      "åıĸä»£": 3342,
      "ä¹Ŀå¹´": 3343,
      "ç»ĦåĲĪ": 3344,
      "äºĳåįĹ": 3345,
      "æĶ¿çŃĸ": 3346,
      "åĿĬ": 3347,
      "Ġ2": 3348,
      "æİī": 3349,
      "ç¬ĳ": 3350,
      "è¦Ĩ": 3351,
      "..": 3352,
      "ãĢĤï¼Ī": 3353,
      "1991": 3354,
      "åĢį": 3355,
      "æŃ¤åĲİ": 3356,
      "èĭ±æĸĩ": 3357,
      "å½¦": 3358,
      "å³¡": 3359,
      "çĥŃå¸¦": 3360,
      "ç®Ģä»ĭ": 3361,
      "èµĲ": 3362,
      "èµĦæºĲ": 3363,
      "å¤ªå¹³æ´ĭ": 3364,
      "ub": 3365,
      "å¾¡åı²": 3366,
      "çīµ": 3367,
      "åĮĸçŁ³": 3368,
      "å»ºè®®": 3369,
      "éģį": 3370,
      "æĺ¯ä¸ŃåĽ½": 3371,
      "ãĢĤãĢĬ": 3372,
      "ip": 3373,
      "ä¹Įåħĭåħ°": 3374,
      "åºĬ": 3375,
      "å±±è¥¿": 3376,
      "å¹³åı°": 3377,
      "åħ«å¹´": 3378,
      "å¤«äºº": 3379,
      "éĿ¢çļĦ": 3380,
      "ian": 3381,
      "æµ©": 3382,
      "500": 3383,
      "èĥ¶": 3384,
      "çľģä»½": 3385,
      "ç»´äºļ": 3386,
      "å¤ļæ¬¡": 3387,
      "æµħ": 3388,
      "Ġ1": 3389,
      "åĨħéĥ¨": 3390,
      "éĥ½ä¼ļ": 3391,
      "é¸¡": 3392,
      "è·¯çº¿": 3393,
      "éĻķè¥¿": 3394,
      "å´Ķ": 3395,
      "å¨ģå°Ķ": 3396,
      "1950": 3397,
      "æ³ķåħ°": 3398,
      "å¿«éĢŁ": 3399,
      "ä¿ĥ": 3400,
      "èĩ³ä»Ĭ": 3401,
      "æĸ¯åŁº": 3402,
      "åħ¬åħĥ": 3403,
      "éĤĵ": 3404,
      "å¤§åŀĭ": 3405,
      "2023": 3406,
      "å¹¶åħ¥": 3407,
      "è¶ĬåįĹ": 3408,
      "äºĨä¸Ģä¸ª": 3409,
      "å¹³æĸ¹åħ¬éĩĮ": 3410,
      "éĶ®": 3411,
      "åįģåĪĨ": 3412,
      "ç»´å¥ĩ": 3413,
      "éĩįè¦ģçļĦ": 3414,
      "å½Ń": 3415,
      "åħ¥åı£": 3416,
      "ãĢįãĢģãĢĮ": 3417,
      "åĽ½å®¶éĺŁ": 3418,
      "æĭĵ": 3419,
      "çļĦä¸Ģéĥ¨åĪĨ": 3420,
      "ä¾ł": 3421,
      "å²³": 3422,
      "ä¸ľè¥¿": 3423,
      "æ¾³å¤§åĪ©äºļ": 3424,
      "åĩıå°ĳ": 3425,
      "ä¼łè¯´": 3426,
      "å¦ĥ": 3427,
      "åĩĨå¤ĩ": 3428,
      "åľ¨è¿Ļ": 3429,
      "ç½ķ": 3430,
      "æŀ¢": 3431,
      "ĠãĢĤ": 3432,
      "ç¾İæľ¯": 3433,
      "è¯ŀ": 3434,
      "å¨±ä¹Ĳ": 3435,
      "åĮ»åŃ¦": 3436,
      "å¡ĺ": 3437,
      "å¸¸è§ģ": 3438,
      "æ°§åĮĸ": 3439,
      "éĩįçĤ¹": 3440,
      "ran": 3441,
      "ç¼ĸåī§": 3442,
      "ä¹Ķæ²»": 3443,
      "çļĦä¸»": 3444,
      "çī¹æ®Ĭ": 3445,
      "ä»²": 3446,
      "çĪĨåıĳ": 3447,
      "æĽ´åĲįä¸º": 3448,
      "æĭŁ": 3449,
      "åİĦ": 3450,
      "Ðº": 3451,
      "ä¸ºä¸Ģ": 3452,
      "åĪºåı²": 3453,
      "å¤©æĸĩ": 3454,
      "æ¯ıå¹´": 3455,
      "åĮºä¸º": 3456,
      "æĺ¯æĮĩ": 3457,
      "å¹¿æ³Ľ": 3458,
      "å·´è¥¿": 3459,
      "çĻ»åľº": 3460,
      "äºŃ": 3461,
      "ä¼¯çī¹": 3462,
      "ä¹¦è®°": 3463,
      "èĢĮåľ¨": 3464,
      "çļĦæĹ¶åĢĻ": 3465,
      "åĽ½çļĦ": 3466,
      "åĲįçļĦ": 3467,
      "åĭ¤": 3468,
      "ç²¾ç¥ŀ": 3469,
      "ãĤĬ": 3470,
      "é«ĺçº§": 3471,
      "ä¹ĲåĽ¢": 3472,
      "å·ŀçļĦ": 3473,
      "56": 3474,
      "çĭ®": 3475,
      "çĵľ": 3476,
      "æ·±åľ³": 3477,
      "æĺŁæľŁ": 3478,
      "åŁºéĩĳ": 3479,
      "é«ĺä¸Ń": 3480,
      "çĵ¦å°Ķ": 3481,
      "åĭĥ": 3482,
      "Ġ3": 3483,
      "æ³¢åħ°": 3484,
      "éĢıè¿ĩ": 3485,
      "åĪĨåŃĲ": 3486,
      "å®ļä¹ī": 3487,
      "é«ĺéĢŁåħ¬è·¯": 3488,
      "01": 3489,
      "å¹´åı·": 3490,
      "å¤ļä¸ª": 3491,
      "èĨľ": 3492,
      "è¶£": 3493,
      "çŁ¥éģĵ": 3494,
      "42": 3495,
      "çī©è´¨": 3496,
      "æĥħåĨµä¸ĭ": 3497,
      "ess": 3498,
      "èĤ¡ä»½": 3499,
      "æĮĩåĩº": 3500,
      "æĿŃ": 3501,
      "å°¼æĸ¯": 3502,
      "å½ĵä¸Ń": 3503,
      "ä¸ªæľĪ": 3504,
      "åĩºæĪĺ": 3505,
      "å½¼å¾Ĺ": 3506,
      "äºļåİĨ": 3507,
      "åĽ¾ä¹¦é¦Ĩ": 3508,
      "1970": 3509,
      "é¹°": 3510,
      "æİ¥å£¤": 3511,
      "æ±Łè¥¿": 3512,
      "ç£ģ": 3513,
      "ä»·åĢ¼": 3514,
      "è¯¦": 3515,
      "åįĴ": 3516,
      "åįĵ": 3517,
      "å¯¹æīĭ": 3518,
      "au": 3519,
      "æ¬²": 3520,
      "å½°": 3521,
      "ens": 3522,
      "å®ı": 3523,
      "æĮĤ": 3524,
      "ç§Ĵ": 3525,
      "ç©ºåĨĽ": 3526,
      "çĽ¸å¯¹": 3527,
      "æ³¥": 3528,
      "æĶ¹åĪ¶ä¸º": 3529,
      "éĩĮçļĦ": 3530,
      "åĩºèº«": 3531,
      "âĨĴ": 3532,
      "ä»°": 3533,
      "åıĺæĪĲ": 3534,
      "æµĵ": 3535,
      "ä¸ĸçķĮæĿ¯": 3536,
      "åĪ¸": 3537,
      "å®ŀæĸ½": 3538,
      "æ³³": 3539,
      "èĪ°éĺŁ": 3540,
      "å®Ļ": 3541,
      "ç§»åĬ¨": 3542,
      "ä¹ĭå¤ĸ": 3543,
      "æľªèĥ½": 3544,
      "éĩįå»º": 3545,
      "ev": 3546,
      "éķ¿æľŁ": 3547,
      "ä¼Ĭæĸ¯": 3548,
      "åıĬåħ¶": 3549,
      "æĻĵ": 3550,
      "åĿİ": 3551,
      "æº¶": 3552,
      "NA": 3553,
      "éī´": 3554,
      "ä¼ļåľ¨": 3555,
      "å½ĵéĢī": 3556,
      "åĽĽåįģ": 3557,
      "éģŃåĪ°": 3558,
      "ä¹ĭåŃĲ": 3559,
      "èĻĳ": 3560,
      "çĻ½èī²": 3561,
      "åĬĽéĩı": 3562,
      "åĪ°è¾¾": 3563,
      "ä¹¾éļĨ": 3564,
      "éĦ": 3565,
      "çº¢èī²": 3566,
      "ä¸įåı¯": 3567,
      "å¡ĳ": 3568,
      "åĪ¶åº¦": 3569,
      "åħ¥éĢī": 3570,
      "ry": 3571,
      "æĺŃåĴĮ": 3572,
      "ç¬¬åħŃ": 3573,
      "ä¸Ī": 3574,
      "å¤ªåŃĲ": 3575,
      "åħĪçĶŁ": 3576,
      "æĸ¹çļĦ": 3577,
      "çĲĥåŃ£": 3578,
      "åĬłä¸Ĭ": 3579,
      "å§Ĩæĸ¯": 3580,
      "ãĥ¼ãĥ": 3581,
      "çļĦé¦ĸ": 3582,
      "è§Ħå®ļ": 3583,
      "ä»¥åĲİ": 3584,
      "Ġæĸ°": 3585,
      "æħ§": 3586,
      "åľ¨ç¾İåĽ½": 3587,
      "1988": 3588,
      "å¤ĸäº¤": 3589,
      "èĤĥ": 3590,
      "åĩºçīĪç¤¾": 3591,
      "æİ¥è¿ĳ": 3592,
      "éĺª": 3593,
      "çº¿çļĦ": 3594,
      "åĲ¨": 3595,
      "è¿ĶåĽŀ": 3596,
      "ç»ĵåĲĪ": 3597,
      "ç¡®å®ļ": 3598,
      "æ´Ĺ": 3599,
      "éĩĳå±ŀ": 3600,
      "ç¬¬ä¸Ģä¸ª": 3601,
      "ç¼ĸçłģä¸ºP": 3602,
      "1960": 3603,
      "è¡ĮæĺŁ": 3604,
      "æĺİæĺ¾": 3605,
      ")ãĢĤ": 3606,
      "æĭĴç»Ŀ": 3607,
      "ge": 3608,
      "æī¹åĩĨ": 3609,
      "ä¸ĢåĲĮ": 3610,
      "è£ķ": 3611,
      "çļĩåĲİ": 3612,
      "çĽĳçĿ£": 3613,
      "èĥľåĪ©": 3614,
      "çĳŀåħ¸": 3615,
      "An": 3616,
      "å±¯": 3617,
      "çŃ¹": 3618,
      "ä¸ĢæŃ¥": 3619,
      "æĶ¹éĿ©": 3620,
      "ue": 3621,
      "éĿŀæ´²": 3622,
      "è¿Ľè¡ĮäºĨ": 3623,
      "ãģĨ": 3624,
      "æ¯ıä¸ª": 3625,
      "ç¡ķ": 3626,
      "æĹ¥èĩ³": 3627,
      "åĲĦåľ°": 3628,
      "åĽłèĢĮ": 3629,
      "æľªæĿ¥": 3630,
      "èĳ£äºĭ": 3631,
      "io": 3632,
      "èµ·æĿ¥": 3633,
      "å¤ºå¾Ĺ": 3634,
      "åı¯èĥ½æĺ¯": 3635,
      "ç²¤": 3636,
      "æŀĿ": 3637,
      "æĢ»éĥ¨": 3638,
      "åŃ©åŃĲ": 3639,
      "çĶ¨æĿ¥": 3640,
      "æ²³åĮĹ": 3641,
      "æĦŁæŁĵ": 3642,
      "éļ§": 3643,
      "åĮĪ": 3644,
      "åħ´å»º": 3645,
      "æł¡éķ¿": 3646,
      "%ãĢĤ": 3647,
      "1989": 3648,
      "æ¦Ĥå¿µ": 3649,
      "çĶŁåĳ½": 3650,
      "å¼¥": 3651,
      "å¹´åīį": 3652,
      "ÑĤ": 3653,
      "è¹": 3654,
      "ãĤĭ": 3655,
      "å¹´å¼Ģå§ĭ": 3656,
      "æĪĺåĲİ": 3657,
      "å±ķå¼Ģ": 3658,
      "æľīäºĽ": 3659,
      "æĹ¥èµ·": 3660,
      "å±ı": 3661,
      "å®ĺåĳĺ": 3662,
      "å¤§æ¥¼": 3663,
      "éľ¸": 3664,
      "Ġb": 3665,
      "58": 3666,
      "ç»Łè®¡": 3667,
      "åĸ·": 3668,
      "ong": 3669,
      "é©¬åħĭ": 3670,
      "å¹¶æ²¡æľī": 3671,
      "åįĹåĮĹ": 3672,
      "åİĺç±³": 3673,
      "å®ŀçİ°": 3674,
      "æľīæķĪ": 3675,
      "è¾¹çķĮ": 3676,
      "èŃ¦å¯Ł": 3677,
      "ĠIn": 3678,
      "ä¸ĸçķĮå¤§æĪĺ": 3679,
      "éŃĤ": 3680,
      "99": 3681,
      "æıĴ": 3682,
      "ä¸įå°ĳ": 3683,
      "77": 3684,
      "çĸı": 3685,
      "åĲĪçī©": 3686,
      "äº§ä¸ļ": 3687,
      "1945": 3688,
      "åĩºæ¼Ķ": 3689,
      "oh": 3690,
      "åįłé¢Ĩ": 3691,
      "ãģ¾": 3692,
      "çļĦåľ°æĸ¹": 3693,
      "ä¸ľæĸ¹": 3694,
      "é¼ł": 3695,
      "åĲ¯çĶ¨": 3696,
      "ç®±": 3697,
      "ç¼ĵ": 3698,
      "ik": 3699,
      "åŃ¦ç§ĳ": 3700,
      "æıĲåĲį": 3701,
      "å°ĶçļĦ": 3702,
      "ç«Ļåı°": 3703,
      "å¤§èĩ´": 3704,
      "åĩºåı£": 3705,
      "å·ŀåĪºåı²": 3706,
      "å¸ĥé²ģ": 3707,
      "çļĦå½±åĵį": 3708,
      "ç¼ĸåı·": 3709,
      "è¡¨éĿ¢": 3710,
      "éĥ½æľī": 3711,
      "åŁºåĽł": 3712,
      "æĽ¾ä»»": 3713,
      "æĩ": 3714,
      "ä»ĸæĺ¯": 3715,
      "çİĽä¸½": 3716,
      "02": 3717,
      "æ¸ħæľĿ": 3718,
      "ä¸įæĸŃ": 3719,
      "åıĤèĢĥ": 3720,
      "æī§å¯¼": 3721,
      "å·§": 3722,
      "%ï¼Į": 3723,
      "åħĭæĭī": 3724,
      "è¯¾ç¨ĭ": 3725,
      "ä»İäºĭ": 3726,
      "if": 3727,
      "ç¬¼": 3728,
      "43": 3729,
      "1986": 3730,
      "åĩºåľº": 3731,
      "å¹¿åĳĬ": 3732,
      "Ġçİĭ": 3733,
      "åıªæĺ¯": 3734,
      "å¤±åİ»": 3735,
      "è²": 3736,
      "Ġl": 3737,
      "ä¼ĺç§Ģ": 3738,
      "æĺ¯ä¸ĢåĲį": 3739,
      "ä¸§": 3740,
      "æ¬£": 3741,
      "up": 3742,
      "èĤ¥": 3743,
      "éĶģ": 3744,
      "Ġï¼Į": 3745,
      "ãĢģâĢľ": 3746,
      "é£Łçī©": 3747,
      "è¿ĲåĬ¨ä¼ļ": 3748,
      "å°Ķåħ°": 3749,
      "æ¹¿": 3750,
      "æĶ¶åħ¥": 3751,
      "æ·®": 3752,
      "èį¯çī©": 3753,
      "å¸ĤçļĦ": 3754,
      "èĥ¸": 3755,
      "è¿ħ": 3756,
      "åĬ²": 3757,
      "è°ĵ": 3758,
      "å¥³åĦ¿": 3759,
      "Ġä¸Ń": 3760,
      "é¥Ń": 3761,
      "è±Ĩ": 3762,
      "è§Ĩä¸º": 3763,
      "å¦Ī": 3764,
      "åľ°éľĩ": 3765,
      "çł´åĿı": 3766,
      "Ġ195": 3767,
      "ç»Łä¸Ģ": 3768,
      "1985": 3769,
      "åĩŃ": 3770,
      "çĶŁæĢģ": 3771,
      "çĽ¸ä¼¼": 3772,
      "41": 3773,
      "å¢¨è¥¿": 3774,
      "å®īå¾·": 3775,
      "é¢ģå¥ĸ": 3776,
      "ob": 3777,
      "åĽ½åĨħ": 3778,
      "äº¨åĪ©": 3779,
      "æĹħå®¢": 3780,
      "ok": 3781,
      "æŃ£åľ¨": 3782,
      "ä¸ĩåİĨ": 3783,
      "æ³Ĭ": 3784,
      "æµ·å²¸": 3785,
      "æŃ¤æĹ¶": 3786,
      "çĬ¬": 3787,
      "åĪĽç«ĭ": 3788,
      "èĪĴ": 3789,
      "å®īå¾½": 3790,
      "è´¨éĩı": 3791,
      "å¸ħ": 3792,
      "ah": 3793,
      "å¨ĺ": 3794,
      "ç¢³": 3795,
      "éĩįåºĨ": 3796,
      "å°ĳå¥³": 3797,
      "éļıçĿĢ": 3798,
      "ain": 3799,
      "éļ§éģĵ": 3800,
      "ä¿ĿçķĻ": 3801,
      "çļĦçłĶç©¶": 3802,
      "æŀĦæĪĲ": 3803,
      "95": 3804,
      "çĽ´èĩ³": 3805,
      "Ġ19": 3806,
      "åĳ¨è¾¹": 3807,
      "æŁĶ": 3808,
      "æĪĲä¸ºäºĨ": 3809,
      "å¼ĢéĢļ": 3810,
      "åįĬå²Ľ": 3811,
      "æľ¬åľ°åĮº": 3812,
      "åĬ¨åĬĽ": 3813,
      "å§Ķä¼ļ": 3814,
      "äºĭä¸ļ": 3815,
      "1987": 3816,
      "ä¸Ļ": 3817,
      "çł²": 3818,
      "ç¥ŀç»ı": 3819,
      "88": 3820,
      "äºļåİĨå±±": 3821,
      "æĭ³": 3822,
      "æĸĩçī©ä¿ĿæĬ¤": 3823,
      "Ġ/": 3824,
      "å°¸": 3825,
      "åŁºäºİ": 3826,
      "300": 3827,
      "éªĳå£«": 3828,
      "BA": 3829,
      "åĲı": 3830,
      "æĪĸæĺ¯": 3831,
      "éħ¶": 3832,
      "èĳĹåĲįçļĦ": 3833,
      "ç¾½æ¯Ľ": 3834,
      "åį«çĶŁ": 3835,
      "æĤ¬": 3836,
      "çī¹çļĦ": 3837,
      "ä»ĳ": 3838,
      "çľĭåĪ°": 3839,
      "ä¹ĭæĪĺ": 3840,
      "çĶŁéķ¿": 3841,
      "æĴ°": 3842,
      "åĮ»çĶŁ": 3843,
      "é¸£": 3844,
      "Ġå°ı": 3845,
      "åı¯åīįå¾Ģ": 3846,
      "èĭıæł¼åħ°": 3847,
      "çĸ¾çĹħ": 3848,
      "åĮĸçļĦ": 3849,
      "Ġå¼ł": 3850,
      "å¤§æ¡¥": 3851,
      "èįĴ": 3852,
      "æ´ģ": 3853,
      "è¢ģ": 3854,
      "é«ĺçļĦ": 3855,
      "åĿĤ": 3856,
      "æī®": 3857,
      "å¤ıåŃ£": 3858,
      "æĬķç¥¨": 3859,
      "é¾Ł": 3860,
      "éĥ½å¸Ĥ": 3861,
      "æ¬¢è¿İ": 3862,
      "åĩ½": 3863,
      "èµ°åĲĳ": 3864,
      "çĭĤ": 3865,
      "å¿Ĩ": 3866,
      "å£®": 3867,
      "åĢ¾": 3868,
      "æ¾³æ´²": 3869,
      "çĶ¨çļĦ": 3870,
      "èĢĮæĪĲ": 3871,
      "çĬ¹å¤ª": 3872,
      "æĸľ": 3873,
      "å¢¨è¥¿åĵ¥": 3874,
      "åĴĮå¹³": 3875,
      "éĤĢè¯·": 3876,
      "æ®ĸæ°ĳ": 3877,
      "å£«åħµ": 3878,
      "çĶµåı°": 3879,
      "äº²çİĭ": 3880,
      "è¿ĩç¨ĭä¸Ń": 3881,
      "å¤§èµĽ": 3882,
      "åĺīéĿĸ": 3883,
      "66": 3884,
      "è·ĥ": 3885,
      "Ġand": 3886,
      "è®·": 3887,
      "å·¥åİĤ": 3888,
      "äººåľ¨": 3889,
      "éķ¿çº¦": 3890,
      "å©Ĩ": 3891,
      "è§£éĩĬ": 3892,
      "79": 3893,
      "è§Ĥå¯Ł": 3894,
      "èģĮæ£Ĵ": 3895,
      "åħ¬çĪµ": 3896,
      "å¤§å¤ļæķ°": 3897,
      "æĬķåħ¥": 3898,
      "çĪ±å°Ķåħ°": 3899,
      "å¤§åĮº": 3900,
      "æĲ¬": 3901,
      "åŀĤ": 3902,
      "å¤©çļĩ": 3903,
      "æĳĦå½±": 3904,
      "éĶĢåĶ®": 3905,
      "SE": 3906,
      "éĽĨä¸Ń": 3907,
      "å°Ķçī¹": 3908,
      "æĮĳæĪĺ": 3909,
      "è®°èĢħ": 3910,
      "éĥĬ": 3911,
      "âĶ": 3912,
      "Ġéĩĳ": 3913,
      "å®¢è¿Ĳ": 3914,
      "åŃ¦ä¼ļ": 3915,
      "uc": 3916,
      "çİ»": 3917,
      "äºīè®®": 3918,
      "èĳ¡èĲĦçīĻ": 3919,
      "åįµ": 3920,
      "æĿĢæŃ»": 3921,
      "ĠY": 3922,
      "ä½ľèĢħ": 3923,
      "åŁĥåıĬ": 3924,
      "çĭ¼": 3925,
      "æĪĴ": 3926,
      "è§£åĨ³": 3927,
      "è½°": 3928,
      "éĽĢ": 3929,
      "å®ĩå®Ļ": 3930,
      "åį«æĺŁ": 3931,
      "éĵĥ": 3932,
      "äººå£«": 3933,
      "äºļåĨĽ": 3934,
      "æ°ĶåĢĻ": 3935,
      "Ġv": 3936,
      "é«ĺåº¦": 3937,
      "æĻ¨": 3938,
      "éĺħ": 3939,
      "åī²": 3940,
      "éļıèĳĹ": 3941,
      "å«ģ": 3942,
      "è¾°": 3943,
      "åıªèĥ½": 3944,
      "ç¥Ŀ": 3945,
      "ä¸¸": 3946,
      "æĢĴ": 3947,
      "åįıè®®": 3948,
      "åŃ¤": 3949,
      "ä¸įåĨį": 3950,
      "ä¸ĩäºº": 3951,
      "åı¤ä»£": 3952,
      "è®®éĻ¢": 3953,
      "ä½¿çĶ¨çļĦ": 3954,
      "è¯ģæĺİ": 3955,
      "150": 3956,
      "é²į": 3957,
      "è¯ķåĽ¾": 3958,
      "æ°´å¹³": 3959,
      "Al": 3960,
      "åĨĴ": 3961,
      "æĢ»çĿ£": 3962,
      "è§ĦåĪĻ": 3963,
      "åįģå¹´": 3964,
      "éĺ¿æĭīä¼¯": 3965,
      "éĢĨ": 3966,
      "åĩī": 3967,
      "ity": 3968,
      "ä¸²": 3969,
      "åĨįåº¦": 3970,
      "æĸĩçī©ä¿ĿæĬ¤åįķä½į": 3971,
      "åıĮæĸ¹": 3972,
      "åĩĮ": 3973,
      "çĽ®çļĦ": 3974,
      "å½»": 3975,
      "çıĬ": 3976,
      "åĲĪå¹¶ä¸º": 3977,
      "ãģ«": 3978,
      "åĹ£": 3979,
      "æĹ¦": 3980,
      "å§¬": 3981,
      "1984": 3982,
      "çļĦç¬¬ä¸Ģ": 3983,
      "èµ´": 3984,
      "ä»ĭç»į": 3985,
      "æľĢåĲİä¸Ģ": 3986,
      "çĭĦ": 3987,
      "åįģåŃĹ": 3988,
      "å°ıç»Ħ": 3989,
      "åĽ¢éĺŁ": 3990,
      "æŃ¥åħµ": 3991,
      "æĿ¥åĪ°": 3992,
      "å¿į": 3993,
      "éĽĮ": 3994,
      "çŁ¥åİ¿": 3995,
      "åģ¥åº·": 3996,
      "çĦ¦": 3997,
      "è¯ı": 3998,
      "ãģ¿": 3999,
      "å¤·": 4000,
      "ä¸¾äºº": 4001,
      "åľ°åĪ©": 4002,
      "ä¹ı": 4003,
      "ãĤ·": 4004,
      "åĪĹä¸º": 4005,
      "ä¸īä¸ĸ": 4006,
      "éĩĳèŀį": 4007,
      "éĢĢå½¹": 4008,
      "ä½ĽæķĻ": 4009,
      "Ġé«ĺ": 4010,
      "åĬĽçļĦ": 4011,
      "åİĨåı²ä¸Ĭ": 4012,
      "ç®¡è¾ĸ": 4013,
      "åĤħ": 4014,
      "å¾ª": 4015,
      "æ¶¦": 4016,
      "åħĥç´ł": 4017,
      "Ġå¹´": 4018,
      "ä¿Ŀç½Ĺ": 4019,
      "ç½ĳç«Ļ": 4020,
      "ud": 4021,
      "ç²®": 4022,
      "ä¸ĭè¾ĸ": 4023,
      "åĬ±": 4024,
      "åĪĽåĬŀ": 4025,
      "åģľæŃ¢": 4026,
      "åĬ¨ä½ľ": 4027,
      "éĻĲåĪ¶": 4028,
      "ç§ĺä¹¦": 4029,
      "ort": 4030,
      "åĽĽä¸ª": 4031,
      "ç¨ĭåº¦": 4032,
      "æĺ¯ç¾İåĽ½": 4033,
      "ä¸¤ç§į": 4034,
      "èģļèĲ½": 4035,
      "å¨ĥ": 4036,
      "å¤±è´¥": 4037,
      "å°±è¯»": 4038,
      "å²Ĺ": 4039,
      "æĶ¶è´Ń": 4040,
      "åĵģçīĮ": 4041,
      "72": 4042,
      "å£³": 4043,
      "æ¯ķä¸ļäºİ": 4044,
      "âĢ¦âĢ¦": 4045,
      "æłª": 4046,
      "ä¸Ĭéĺµ": 4047,
      "çĭĹ": 4048,
      "æĶ¶è§Ĩ": 4049,
      "ä»İèĢĮ": 4050,
      "é¦ĸéĥ½": 4051,
      "ãģķ": 4052,
      "åĭĭç«ł": 4053,
      "è°ĥæķ´": 4054,
      "eg": 4055,
      "æĸ¹æ¡Ī": 4056,
      "ey": 4057,
      "æµĭè¯ķ": 4058,
      "åĺ´": 4059,
      "59": 4060,
      "éĩĮäºļ": 4061,
      "æĢ»çĲĨ": 4062,
      "ä»¥åīį": 4063,
      "å¿ĥçĲĨ": 4064,
      "ç¿»è¯ĳ": 4065,
      "æĺ¯æĹ¥æľ¬": 4066,
      "Ġ4": 4067,
      "è¡į": 4068,
      "åı°ä¸Ń": 4069,
      "çªĹ": 4070,
      "æĿĨ": 4071,
      "æľīä¸Ģä¸ª": 4072,
      "è¿Ľä¸ĢæŃ¥": 4073,
      "èĢĢ": 4074,
      "çĪ¶æ¯į": 4075,
      "é¸¿": 4076,
      "æĲľ": 4077,
      "åĥ§": 4078,
      "åħ¥ä¾µ": 4079,
      "åĲĮä¸Ģ": 4080,
      "å°¤åħ¶": 4081,
      "çļĦæķħäºĭ": 4082,
      "æµ·æĭĶ": 4083,
      "æĭīä¸ģ": 4084,
      "éĵ¾": 4085,
      "å¥ĳ": 4086,
      "æĹº": 4087,
      "å¯Ĵ": 4088,
      "man": 4089,
      "çĶ¸": 4090,
      "èĦĬ": 4091,
      "äºĭæķħ": 4092,
      "ç¿ģ": 4093,
      "éĻĢ": 4094,
      "å¹¿è¥¿": 4095,
      "çİ°è±¡": 4096,
      "åħ±äº§": 4097,
      "å¼¦": 4098,
      "çİĩé¢Ĩ": 4099,
      "ä½ľè¯į": 4100,
      "ç¢İ": 4101,
      "åıī": 4102,
      "ç¬¬ä¸ĥ": 4103,
      "æĺ¯æ³ķåĽ½": 4104,
      "æĪĲç«ĭäºİ": 4105,
      "ãģį": 4106,
      "åħ¶å®ĥ": 4107,
      "ç¢į": 4108,
      "æłĸæģ¯": 4109,
      "èĢĮè¢«": 4110,
      "âĢĿãĢģâĢľ": 4111,
      "Ġéĺ¿": 4112,
      "å¥¥æŀĹ": 4113,
      "éĤ®æĶ¿": 4114,
      "é»ĳèī²": 4115,
      "Ð»": 4116,
      "å¦ĤæŃ¤": 4117,
      "ãĥ¬": 4118,
      "å¤ªç©º": 4119,
      "èĥİ": 4120,
      "æķĻåŃ¦": 4121,
      "èĦı": 4122,
      "ä¸įå¾Ĺ": 4123,
      "åĩºçİ°åľ¨": 4124,
      "è£ħç½®": 4125,
      "å¸ĤåĮº": 4126,
      "æ¹ĸåĮĹ": 4127,
      "ä¾¦": 4128,
      "1979": 4129,
      "æĺ¯ä½įäºİ": 4130,
      "æ¯ĶåĪ©": 4131,
      "åįģåħŃ": 4132,
      "68": 4133,
      "å¸ĥæĭī": 4134,
      "ĠéĻĪ": 4135,
      "æĪıåī§": 4136,
      "å¤§å¥ĸ": 4137,
      "åĪĽéĢł": 4138,
      "æĪªèĩ³": 4139,
      "BS": 4140,
      "åŃ¦æľ¯": 4141,
      "åĮ»çĸĹ": 4142,
      "51": 4143,
      "æ°´åºĵ": 4144,
      "èĤĮ": 4145,
      "ä¸ŃéĹ´": 4146,
      "æĺ¯åĲ¦": 4147,
      "å¥¥åľ°åĪ©": 4148,
      "æĺ¯ä¸Ģä½į": 4149,
      "å®¶çļĦ": 4150,
      "å»¶ä¼¸": 4151,
      "çĳŀå£«": 4152,
      "ä»¿": 4153,
      "èĦĤ": 4154,
      "æĹ¥çļĦ": 4155,
      "ĠãĢĮ": 4156,
      "æ²³æµģ": 4157,
      "ä¼Ļ": 4158,
      "æĶ¹éĢł": 4159,
      "ä¸īè§Ĵ": 4160,
      "å®£ä¼ł": 4161,
      "ãĤī": 4162,
      "ç½ļ": 4163,
      "åİĨä»»": 4164,
      "Ġ:": 4165,
      "çļĦåİŁ": 4166,
      "åĬŀåħ¬å®¤": 4167,
      "å¡«": 4168,
      "52": 4169,
      "åĮĹæµ·": 4170,
      "57": 4171,
      "åī§æľ¬": 4172,
      "1983": 4173,
      "1978": 4174,
      "åľ°ä½į": 4175,
      "æķĻå¸Ī": 4176,
      "ç¿ł": 4177,
      "æĮĩå¯¼": 4178,
      "çŁ¶": 4179,
      "æ»©": 4180,
      "53": 4181,
      "æıĲé«ĺ": 4182,
      "æĸ¯åħĭ": 4183,
      "æĿ¥è¯´": 4184,
      "åī©": 4185,
      "ç±³å°Ķ": 4186,
      "è·¯åı£": 4187,
      "64": 4188,
      "IS": 4189,
      "å¥¶": 4190,
      "ãĤ¿": 4191,
      "è¯´æ³ķ": 4192,
      "åįľ": 4193,
      "å¤§ä½¿": 4194,
      "çľģçº§": 4195,
      "é¼»": 4196,
      "Ġ9": 4197,
      "æĽ°": 4198,
      "1982": 4199,
      "éĢļè½¦": 4200,
      "ç¼ħ": 4201,
      "çĽ¾": 4202,
      "æĹ¢": 4203,
      "ä»¥å¤ĸ": 4204,
      "åºĶè¯¥": 4205,
      "ãĤ¸": 4206,
      "ãĥŀ": 4207,
      "ä¿¡åı·": 4208,
      "æĸ¯å¡Ķ": 4209,
      "æĶ¿æĿĥ": 4210,
      "ä»ªå¼ı": 4211,
      "åĳ½åĲįä¸º": 4212,
      "è¸ª": 4213,
      "åįģä¸ī": 4214,
      "ä¸Ģå¸¦": 4215,
      "å½ĵæĹ¶çļĦ": 4216,
      "éķ¿åº¦": 4217,
      "åıĸæ¶Ī": 4218,
      "æĴŃæĶ¾": 4219,
      "èħ¾": 4220,
      "çħ¤": 4221,
      "åĲĮæĦı": 4222,
      "ast": 4223,
      "ä¹Łä¼ļ": 4224,
      "å°ıçļĦ": 4225,
      "ãĥŃ": 4226,
      "å¤Ħäºİ": 4227,
      "ç²Ĺ": 4228,
      "è¢«è®¤ä¸ºæĺ¯": 4229,
      "çļĦçī¹": 4230,
      "åıĪåĲį": 4231,
      "åħ¶ä½Ļ": 4232,
      "ä¸Ģåº¦": 4233,
      "å»Ĭ": 4234,
      "ä¸Ģå®¶": 4235,
      "çļĦå¤ĸ": 4236,
      "71": 4237,
      "æ·ĺ": 4238,
      "èĩ³å°ĳ": 4239,
      "èĥģ": 4240,
      "åĸĢ": 4241,
      "å±±èĦī": 4242,
      "ç¨³å®ļ": 4243,
      "å®¹æĺĵ": 4244,
      "éĤ£éĩĮ": 4245,
      "ä¸¹éº¦": 4246,
      "åİĿ": 4247,
      "èľĤ": 4248,
      "çİ°æĹ¶": 4249,
      "åİ¿äºº": 4250,
      "æī¹è¯Ħ": 4251,
      "çĻĮ": 4252,
      "å¤§åİ¦": 4253,
      "æŁ´æ²¹": 4254,
      "å¥¥æŀĹåĮ¹": 4255,
      "å¯Ħ": 4256,
      "æŃ¦æ±ī": 4257,
      "æİĪäºĪ": 4258,
      "æĹ¨": 4259,
      "äº¿åħĥ": 4260,
      "æ³¨æĦı": 4261,
      "é¹¤": 4262,
      "æĺ¯ä»¥": 4263,
      "æķ°åŃ¦": 4264,
      "ä¸ŃåĽ½äººæ°ĳ": 4265,
      "ç»´æĮģ": 4266,
      "å§Ĭ": 4267,
      "æŃ»åĲİ": 4268,
      "åĲİæľŁ": 4269,
      "èĸĽ": 4270,
      "çģ«ç®Ń": 4271,
      "åĩĿ": 4272,
      "è¡°": 4273,
      "æ°¢": 4274,
      "æµ·æ´ĭ": 4275,
      "åıĳåĶ®": 4276,
      "BC": 4277,
      "æ¸Ķ": 4278,
      "å®īæİĴ": 4279,
      "54": 4280,
      "æľĪåįĩ": 4281,
      "ç¥¨æĪ¿": 4282,
      "åĩºæĿ¥": 4283,
      "çŁ¥åĲį": 4284,
      "73": 4285,
      "ä¹Łè¢«": 4286,
      "çĴĥ": 4287,
      "é¾ĻçļĦ": 4288,
      "çĸĨ": 4289,
      "çļĦä¸Ģåº§": 4290,
      "æľīäºº": 4291,
      "å²ģçļĦ": 4292,
      "éĴ¦": 4293,
      "æ½Ń": 4294,
      "ä»ĩ": 4295,
      "ä¾įéĥİ": 4296,
      "è²Į": 4297,
      "'s": 4298,
      "çļĦæĦı": 4299,
      "æİ¥è§¦": 4300,
      "ep": 4301,
      "1949": 4302,
      "å¹´çĶ±": 4303,
      "éĩĳæĽ²": 4304,
      "our": 4305,
      "è£ħçĶ²": 4306,
      "çģ«å±±": 4307,
      "åĩĢ": 4308,
      "åģ·": 4309,
      "å¯®": 4310,
      "åµ": 4311,
      "èİ«æĸ¯ç§ĳ": 4312,
      "èĩªè¡Į": 4313,
      "è®²è¿°": 4314,
      "çİĭåŃĲ": 4315,
      "èĬ±åĽŃ": 4316,
      "è§£æĶ¾åĨĽ": 4317,
      "åĳ½ä»¤": 4318,
      "ç§ĳåŃ¦éĻ¢": 4319,
      "åľŁèĢ³": 4320,
      "æķĪæŀľ": 4321,
      "å®Įæķ´": 4322,
      "æ¤İ": 4323,
      "å²ģæĹ¶": 4324,
      "æķ°åŃĹ": 4325,
      "æĹ©å¹´": 4326,
      "æ»ļ": 4327,
      "äººåĴĮ": 4328,
      "ç¼ĸæĽ²": 4329,
      "åħĭéĩĮæĸ¯": 4330,
      "ãģĬ": 4331,
      "åľŁèĢ³åħ¶": 4332,
      "äººæķ°": 4333,
      "å¾Ĺä»¥": 4334,
      "ew": 4335,
      "è¿Ŀ": 4336,
      "é©¬å°Ķ": 4337,
      "èµ¶": 4338,
      "ç§įåŃĲ": 4339,
      "å±¿": 4340,
      "ãģ¡": 4341,
      "èķ¾": 4342,
      "æľ´": 4343,
      "å¦Ĥä¸ĭ": 4344,
      "åĿĿ": 4345,
      "æŁĲäºĽ": 4346,
      "èįĲ": 4347,
      "è¢Ńåĩ»": 4348,
      "æĶ¾å¼ĥ": 4349,
      "èĪŀåı°": 4350,
      "ark": 4351,
      "âĶĢ": 4352,
      "åĽ½ä¼ļ": 4353,
      "åľ°çĤ¹": 4354,
      "åľ°çļĦ": 4355,
      "æ¨¡åŀĭ": 4356,
      "igh": 4357,
      "ä¸´æĹ¶": 4358,
      "AT": 4359,
      "ä»Ģä¹Ī": 4360,
      "åŁİåł¡": 4361,
      "æŁıæŀĹ": 4362,
      "è´¡çĮ®": 4363,
      "è¾Ĳ": 4364,
      "åįģäºĮå¹´": 4365,
      "Ġä¸ī": 4366,
      "åħ¬åı¸çļĦ": 4367,
      "86": 4368,
      "æľĪèĩ³": 4369,
      "å§ļ": 4370,
      "æłĩå¿Ĺ": 4371,
      "çľģéģĵ": 4372,
      "éĿ¢å¯¹": 4373,
      "è¢ĸ": 4374,
      "åİŁåĲį": 4375,
      "ç±»åŀĭ": 4376,
      "åĽ½éĺ²": 4377,
      "åıĹä¼¤": 4378,
      "çĶ·æĢ§": 4379,
      "åħģè®¸": 4380,
      "æįĲ": 4381,
      "çģĮ": 4382,
      "èŁ": 4383,
      "æ¬¡å¹´": 4384,
      "éģĹäº§": 4385,
      "æĦŁåĪ°": 4386,
      "çİ°åľº": 4387,
      "åī§åľº": 4388,
      "æ··åĲĪ": 4389,
      "æĭīå¤«": 4390,
      "èĢĥèĻĳ": 4391,
      "åĮĹäº¬å¸Ĥ": 4392,
      "180": 4393,
      "äººæ°ĳæĶ¿åºľ": 4394,
      "åĨĽçļĦ": 4395,
      "æģĴæĺŁ": 4396,
      "åĲİèĢħ": 4397,
      "ãĥ³ãĥ": 4398,
      "74": 4399,
      "æĳĩ": 4400,
      "son": 4401,
      "éĵº": 4402,
      "é©±éĢĲ": 4403,
      "ç°": 4404,
      "è¯¥åºĦ": 4405,
      "ä¸ĢæĿ¡": 4406,
      "ä¸ŀ": 4407,
      "éĺŁä¼į": 4408,
      "ï¼ĮãĢĮ": 4409,
      "çĹĩçĬ¶": 4410,
      "ä¿ĿåŃĺ": 4411,
      "æ±¡": 4412,
      "åĽ½åĬ¡": 4413,
      "å°ĳæķ°": 4414,
      "å½¢æĢģ": 4415,
      "çĬ¶åĨµ": 4416,
      "åĲĪæĪĲ": 4417,
      "æºĲäºİ": 4418,
      "ç»ıåħ¸": 4419,
      "ä¹¡è¯ķ": 4420,
      "ä¸Ńå±±": 4421,
      "æ³°åĽ½": 4422,
      "æ¸©åº¦": 4423,
      "çŁŃæľŁ": 4424,
      "èĬĤåº¦": 4425,
      "è¯ķéªĮ": 4426,
      "èľľ": 4427,
      "ç£¨": 4428,
      "é£Łåĵģ": 4429,
      "é¡µ": 4430,
      "éªĳåħµ": 4431,
      "éģ¿åħį": 4432,
      "é»Ħéĩĳ": 4433,
      "ä¹ĭä¸Ń": 4434,
      "é¢ľèī²": 4435,
      "æĦıä¸º": 4436,
      "æīĵåĩ»": 4437,
      "1920": 4438,
      "ric": 4439,
      "åº·çĨĻ": 4440,
      "æī°": 4441,
      "å¤§å¤«": 4442,
      "æĬ¥éģĵ": 4443,
      "è´¢æĶ¿": 4444,
      "èĢĮæĺ¯": 4445,
      "oun": 4446,
      "æĢĿæĥ³": 4447,
      "ç»ĵæĿŁåĲİ": 4448,
      "ãĤ«": 4449,
      "è¥¿æ´ĭ": 4450,
      "åĴĮåħ¶ä»ĸ": 4451,
      "åĽ½ç«ĭ": 4452,
      "èĲ¨åħĭ": 4453,
      "æĬ½": 4454,
      "ä¹ĭä¸ĭ": 4455,
      "æłĩæľ¬": 4456,
      "ç«ŀäºī": 4457,
      "çİ°ä»»": 4458,
      "åĿ¦åħĭ": 4459,
      "å§ľ": 4460,
      "åŁºçĿ£æķĻ": 4461,
      "èĸĦ": 4462,
      "åħ¬åĪĨ": 4463,
      "åįģäºĶ": 4464,
      "ai": 4465,
      "éĤĳ": 4466,
      "åī§éĻ¢": 4467,
      "å¹½": 4468,
      "ãģı": 4469,
      "è£ħå¤ĩ": 4470,
      "åĳ¨åĽ´": 4471,
      "åĲĲ": 4472,
      "æĦĪ": 4473,
      "æĹ¥æ²»": 4474,
      "In": 4475,
      "ä¸įè¶³": 4476,
      "å°Ŀ": 4477,
      "åħ¸ç¤¼": 4478,
      "å¤ļç§į": 4479,
      "åĵĪå°Ķ": 4480,
      "æĺİæĺŁ": 4481,
      "èī²åĪĹ": 4482,
      "å¤ķ": 4483,
      "æĸ°å¢ŀ": 4484,
      "Â°": 4485,
      "åŁĥå°Ķ": 4486,
      "æŃ¦å¸Ŀ": 4487,
      "ä¸Īå¤«": 4488,
      "æİĺ": 4489,
      "ä¸ĳ": 4490,
      "è¿Ł": 4491,
      "è´«": 4492,
      "1981": 4493,
      "æ¨±": 4494,
      "Ġ6": 4495,
      "åĲ¸å¼ķ": 4496,
      "éļĭ": 4497,
      "æĬµè¾¾": 4498,
      "æľ¬èº«": 4499,
      "çīµå¼ķ": 4500,
      "æĸ¤": 4501,
      "æĻ®éģį": 4502,
      "äºļåİĨå±±å¤§": 4503,
      "ä¹Łåı¯ä»¥": 4504,
      "æģŃ": 4505,
      "ack": 4506,
      "æĬĳ": 4507,
      "å¯»æī¾": 4508,
      "åºŀ": 4509,
      "äº¦æľī": 4510,
      "å¼Łå¼Ł": 4511,
      "çĶ±æŃ¤": 4512,
      "ont": 4513,
      "çļĦä¸ī": 4514,
      "æīįèĥ½": 4515,
      "æĬ¢": 4516,
      "Ġä¸ŃåĽ½": 4517,
      "æĿ¡çº¦": 4518,
      "æį¢ä¹ĺ": 4519,
      "ĠåĪĺ": 4520,
      "èĭĳ": 4521,
      "åħ¨éķ¿": 4522,
      "èĬ¬åħ°": 4523,
      "å¥Ķ": 4524,
      "èŀº": 4525,
      "å¥¥æŀĹåĮ¹åħĭ": 4526,
      "åĵ²åŃ¦": 4527,
      "çĲī": 4528,
      "å¹¶éĿŀ": 4529,
      "å¤ªéĥİ": 4530,
      "äºĮäºº": 4531,
      "ä¸Ģåº§": 4532,
      "ord": 4533,
      "èħº": 4534,
      "ĠãĢİ": 4535,
      "ass": 4536,
      "Ġin": 4537,
      "çº§èģĶèµĽ": 4538,
      "å±ķç¤º": 4539,
      "åľ°éĿ¢": 4540,
      "ç¨¿": 4541,
      "æľ¬ä½ľ": 4542,
      "å½¢è±¡": 4543,
      "ä¸ĵå®¶": 4544,
      "åĦĴ": 4545,
      "èĤł": 4546,
      "ä¸ĩåħĥ": 4547,
      "æĮª": 4548,
      "æĿ°åħĭ": 4549,
      "åįģæľĪ": 4550,
      "ç¥Ģ": 4551,
      "çļĦæĸ¹å¼ı": 4552,
      "æł¡åĮº": 4553,
      "å¸¦é¢Ĩ": 4554,
      "æª": 4555,
      "çŁ¥è¯Ĩ": 4556,
      "çĶ³è¯·": 4557,
      "ç¡ķå£«": 4558,
      "éĹª": 4559,
      "ä»ĸè¢«": 4560,
      "å¯ŁéĻ¢": 4561,
      "æ±°": 4562,
      "å¾ĹçŁ¥": 4563,
      "ä¸ĵéĹ¨": 4564,
      "æł¸å¿ĥ": 4565,
      "å¹´é¾Ħ": 4566,
      "éĢļéģĵ": 4567,
      "æŃ¦è£ħ": 4568,
      "AR": 4569,
      "è¤Ĳ": 4570,
      "åľ°è´¨": 4571,
      "åľ¨ä¸ŃåĽ½": 4572,
      "ä¿ĺ": 4573,
      "æĭīåħĭ": 4574,
      "çº·": 4575,
      "æľĿå»·": 4576,
      "è¡¨æĺİ": 4577,
      "èı²å¾ĭ": 4578,
      "åįİçĽĽ": 4579,
      "èı²å¾ĭå®¾": 4580,
      "åı¦ä¸Ģä¸ª": 4581,
      "éĺ²å¾¡": 4582,
      "çļĦä½ľåĵģ": 4583,
      "å¦Ļ": 4584,
      "æıĲåįĩ": 4585,
      "åŃ¦å£«": 4586,
      "çĶµæ°Ķ": 4587,
      "ä¹Łåľ¨": 4588,
      "62": 4589,
      "éĿĴå²Ľ": 4590,
      "1940": 4591,
      "ç»ıçĲĨ": 4592,
      "æŃ¢äºİ": 4593,
      "Ġ196": 4594,
      "ãģ¯": 4595,
      "æī¾åĪ°": 4596,
      "å¾·åįİ": 4597,
      "å¥İ": 4598,
      "è¦ĨçĽĸ": 4599,
      "è½¬ä¼ļ": 4600,
      "ç¿Ķ": 4601,
      "89": 4602,
      "éĢ¢": 4603,
      "Ġè¥¿": 4604,
      "çĪ±æĥħ": 4605,
      "å¾Īå¿«": 4606,
      "æľºåħ³": 4607,
      "1000": 4608,
      "åĩºåħ¥åı£": 4609,
      "ä¹ĲéĺŁ": 4610,
      "ç¼ĸè¾ĳ": 4611,
      "æ£ĺ": 4612,
      "çĢ": 4613,
      "åįİçĽĽé¡¿": 4614,
      "æĤī": 4615,
      "é»Ħèī²": 4616,
      "ç¼ºä¹ı": 4617,
      "åłĨ": 4618,
      "1975": 4619,
      "åįģåħ«": 4620,
      "1958": 4621,
      "è¯¢": 4622,
      "æĺ¯ä¸Ģéĥ¨": 4623,
      "qu": 4624,
      "æĤ£èĢħ": 4625,
      "çĲĨäºĭ": 4626,
      "æĮīçħ§": 4627,
      "å®ŀéªĮå®¤": 4628,
      "ãģ¦": 4629,
      "ä½ıå®ħ": 4630,
      "æ³¨åĨĮ": 4631,
      "é©¬æĭī": 4632,
      "ä¸Ĭæµ·å¸Ĥ": 4633,
      "åħĨ": 4634,
      "å®ļä¸º": 4635,
      "ç¯®çĲĥ": 4636,
      "çļĦæµ·": 4637,
      "çĽĨ": 4638,
      "æĹĹä¸ĭ": 4639,
      "åī§éĽĨ": 4640,
      "ä¸ĩç¾İåħĥ": 4641,
      "ä»¥èī²åĪĹ": 4642,
      "åį¡æĭī": 4643,
      "æī®æ¼Ķ": 4644,
      "èĴ¸": 4645,
      "ä¸»é¢ĺæĽ²": 4646,
      "ER": 4647,
      "åįĹæĸ¹": 4648,
      "åĵ¥ä¼¦": 4649,
      "å¥¹åľ¨": 4650,
      "æ¹ĺ": 4651,
      "ä¼°è®¡": 4652,
      "åħĭéĩĮ": 4653,
      "æīĢå±ŀçļĦ": 4654,
      "æľºåĻ¨": 4655,
      "æĢ§è´¨": 4656,
      "åĶĲæľĿ": 4657,
      "ä¸Ńæľī": 4658,
      "å°Ĩä¼ļ": 4659,
      "æĶ¹åĲįä¸º": 4660,
      "1941": 4661,
      "åĿª": 4662,
      "åĬ©çĲĨ": 4663,
      "éĺĶ": 4664,
      "å®ŀéĻħä¸Ĭ": 4665,
      "è´µæĹı": 4666,
      "æī¿è®¤": 4667,
      "åıĳçĶµ": 4668,
      "ä»Ĩ": 4669,
      "ä»ķ": 4670,
      "çļĦäºĭ": 4671,
      "åĲ¾": 4672,
      "åı°åįĹ": 4673,
      "å¹¶æľª": 4674,
      "ä¼Ĭæĸ¯åħ°": 4675,
      "çĲ¼": 4676,
      "çªģçĦ¶": 4677,
      "åıł": 4678,
      "ä¸»åľº": 4679,
      "åħĭèİ±": 4680,
      "km": 4681,
      "69": 4682,
      "ãĢĭï¼ļ": 4683,
      "åĨħéĺģ": 4684,
      "åľ°å¸¦": 4685,
      "éĥ¨çļĦ": 4686,
      "ç»¿èī²": 4687,
      "æĸĭ": 4688,
      "éĺŁéķ¿": 4689,
      "å¥¥å°Ķ": 4690,
      "ĠâĢĵ": 4691,
      "az": 4692,
      "éŁµ": 4693,
      "å·¢": 4694,
      "æĹ¥åĨĽ": 4695,
      "éĻ¢éķ¿": 4696,
      "ä¿¡ä»°": 4697,
      "æıŃ": 4698,
      "åįĥç±³": 4699,
      "400": 4700,
      "ç¬¬åħ«": 4701,
      "å¸ĪèĮĥ": 4702,
      "çĶ¨ä½ľ": 4703,
      "æĵİ": 4704,
      "éĻĦè¿ĳçļĦ": 4705,
      "ä¸ĭæĿ¥": 4706,
      "åľ¨åħ¶": 4707,
      "æĻĭçº§": 4708,
      "è¡ĮæĶ¿åĮºåĪĴ": 4709,
      "ä¼ļçļĦ": 4710,
      "çĶ¨éĢĶ": 4711,
      "çĶŁçļĦ": 4712,
      "ä¸İåħ¶ä»ĸ": 4713,
      "ãĢĢãĢĢ": 4714,
      "åĲĪçº¦": 4715,
      "æ¼Ķå¥ı": 4716,
      "å½ĵå¹´": 4717,
      "è¯ģåĪ¸": 4718,
      "çĮĽ": 4719,
      "å¼Ģè®¾": 4720,
      "å¼¯": 4721,
      "å·ŀåºľ": 4722,
      "å¯¸": 4723,
      "arl": 4724,
      "1972": 4725,
      "é¢Ī": 4726,
      "æŃĩ": 4727,
      "1973": 4728,
      "ä¸Ģçº§": 4729,
      "éĻįä½İ": 4730,
      "1976": 4731,
      "éĨĴ": 4732,
      "aw": 4733,
      "å®īè£ħ": 4734,
      "ç»ĻäºĪ": 4735,
      "å¦Ĥä½ķ": 4736,
      "åĨ²çªģ": 4737,
      "ç§»æ°ĳ": 4738,
      "è¾¾æĪĲ": 4739,
      "éķ¿åŃĲ": 4740,
      "61": 4741,
      "ãģĤ": 4742,
      "çłĤ": 4743,
      "æ±Ŀ": 4744,
      "çļĦéĩįè¦ģ": 4745,
      "åįĳ": 4746,
      "èīºäºº": 4747,
      "1944": 4748,
      "å°¹": 4749,
      "ç§ĺå¯Ĩ": 4750,
      "ä¼ļéķ¿": 4751,
      "åħ¬äº¤": 4752,
      "åįģåĽĽ": 4753,
      "æľĢè¿ĳ": 4754,
      "åħīç»ª": 4755,
      "å¯¨": 4756,
      "ç»Īäºİ": 4757,
      "åĬłåĪ©": 4758,
      "éĵŃ": 4759,
      "æĸ©": 4760,
      "èµĭ": 4761,
      "è´Ńä¹°": 4762,
      "è®¿éĹ®": 4763,
      "åľ¨å¤§": 4764,
      "åľ¨è¯¥": 4765,
      "è¶³çĲĥè¿ĲåĬ¨åĳĺ": 4766,
      "å¨ģèĥģ": 4767,
      "éĥ¨å°ļä¹¦": 4768,
      "åľ¨ä¸Ģ": 4769,
      "äººåı£æķ°éĩı": 4770,
      "ä¸¾è¡ĮçļĦ": 4771,
      "67": 4772,
      "é©¾é©¶": 4773,
      "æ·ĺæ±°": 4774,
      "oy": 4775,
      "è¯·æ±Ĥ": 4776,
      "ä¸¤æ¬¡": 4777,
      "èĤº": 4778,
      "æŃ£æľĪ": 4779,
      "è±¡å¾ģ": 4780,
      "éĢĴ": 4781,
      "æĪĲéĥ½": 4782,
      "å¸ĥèİ±": 4783,
      "å¹¶å°Ĩ": 4784,
      "çļĦåĲĮ": 4785,
      "è¥Ħ": 4786,
      "æ±Ģ": 4787,
      "ä¸Ĭæľī": 4788,
      "è´´": 4789,
      "èģĶç³»": 4790,
      "ate": 4791,
      "è§Ĥæµĭ": 4792,
      "é³ŀ": 4793,
      "ton": 4794,
      "ä¸Ľ": 4795,
      "é³Ħ": 4796,
      "è¿ħéĢŁ": 4797,
      "è¡¨è¾¾": 4798,
      "å¤§å¸Ī": 4799,
      "è¿Ļæ¬¡": 4800,
      "å½±è§Ĩ": 4801,
      "ä¼łæĴŃ": 4802,
      "åİĭåĬĽ": 4803,
      "ç¤¾ä¼ļä¸»ä¹ī": 4804,
      "å¤įæĿĤ": 4805,
      "åħ¨çº¿": 4806,
      "ç¾½æ¯ĽçĲĥ": 4807,
      "å£°éŁ³": 4808,
      "1974": 4809,
      "èĢĹ": 4810,
      "äºĮæľĪ": 4811,
      "çļĦæ°´": 4812,
      "æłĹ": 4813,
      "1946": 4814,
      "å¤§åŃĹ": 4815,
      "ä»ĸä¸İ": 4816,
      "èģĺ": 4817,
      "è°Ń": 4818,
      "æ·»": 4819,
      "éĨĩ": 4820,
      "åľĨå½¢": 4821,
      "ä¸Ĭå¸Ĥ": 4822,
      "æłı": 4823,
      "ä»ĸäºİ": 4824,
      "æ¢¨": 4825,
      ")ãĢģ": 4826,
      "ç¨į": 4827,
      "ä¼¯çĪµ": 4828,
      "èĬĤåº¦ä½¿": 4829,
      "å±±åĮº": 4830,
      "è¥¿æĸ¹": 4831,
      "å±ķè§Ī": 4832,
      "æĸĩåŃĹ": 4833,
      "èĲ¨æĸ¯": 4834,
      "1955": 4835,
      "å¹¿ä¸ľçľģ": 4836,
      "èľ¥": 4837,
      "åľºæ¯ĶèµĽ": 4838,
      "èĥ½éĩı": 4839,
      "ina": 4840,
      "è£ħé¥°": 4841,
      "sh": 4842,
      "åĪ·": 4843,
      "ãģĮ": 4844,
      "åĩłä¸ª": 4845,
      "è¾ĥä¸º": 4846,
      "å°±ä¼ļ": 4847,
      "æĪĳçļĦ": 4848,
      "1977": 4849,
      "æĦıä¹ī": 4850,
      "è®¨è®º": 4851,
      "æĸĲ": 4852,
      "åĬĿ": 4853,
      "æĹ¶ä»»": 4854,
      "1956": 4855,
      "æĹħè¡Į": 4856,
      "éĢĢä¼ĳ": 4857,
      "ç¥ł": 4858,
      "Ġä¸ľ": 4859,
      "èģĮä¸ļçĶŁæ¶¯": 4860,
      "te": 4861,
      "ç®Ģåįķ": 4862,
      "åłª": 4863,
      "èģĶåĲĪåĽ½": 4864,
      "å§»": 4865,
      "ç¨ĭåºı": 4866,
      "åŁİéķĩ": 4867,
      "ç»ıéªĮ": 4868,
      "ç©ºæ°Ķ": 4869,
      "å¼ķæĵİ": 4870,
      "å®īä¸ľ": 4871,
      "åľŃ": 4872,
      "åĬ«": 4873,
      "å¦ĸ": 4874,
      "åįģä¸Ģå¹´": 4875,
      "çķĶ": 4876,
      "èĲ¥è¿Ĳ": 4877,
      "åıĺå¾Ĺ": 4878,
      "ib": 4879,
      "é¸Łç±»": 4880,
      "ãģĵ": 4881,
      "æ´Ľåħĭ": 4882,
      "æ£ĴçĲĥ": 4883,
      "äºĶæľĪ": 4884,
      "éĻĦå±ŀ": 4885,
      "ç¡«": 4886,
      "éĴĪå¯¹": 4887,
      "åĬłå·ŀ": 4888,
      "é¸Ń": 4889,
      "ç¢§": 4890,
      "åįłåľ°": 4891,
      "æĹłçº¿çĶµè§Ĩ": 4892,
      "èĴĭ": 4893,
      "èĢĥåı¤": 4894,
      "çļĦåĦ¿åŃĲ": 4895,
      "åĽ½éģĵ": 4896,
      "å·«": 4897,
      "æĥŁ": 4898,
      "åĽłç´ł": 4899,
      "åįģå¤§": 4900,
      "èĬĴ": 4901,
      "æ°¨": 4902,
      "æŃ£å¸¸": 4903,
      "åĸľåī§": 4904,
      "å°ıåŀĭ": 4905,
      "åıĳçİ°äºĨ": 4906,
      "æĹ¥æľŁ": 4907,
      "åħ³æ³¨": 4908,
      "ä¸ĭåįĪ": 4909,
      "çĵ¶": 4910,
      "å®°": 4911,
      "æĵįä½ľ": 4912,
      "æī¶": 4913,
      "æĸĩçĮ®": 4914,
      "è¤": 4915,
      "åľ°åĽ¾": 4916,
      "éĹ´çļĦ": 4917,
      "æĤ²": 4918,
      "ug": 4919,
      "æ³¡": 4920,
      "èįĨ": 4921,
      "æ¶Īæģ¯": 4922,
      "1971": 4923,
      "åĴĸ": 4924,
      "çľŁæŃ£": 4925,
      "CD": 4926,
      "åĪĹåħ¥": 4927,
      "ç»ĻäºĨ": 4928,
      "å¾ĭå¸Ī": 4929,
      "à¤": 4930,
      "çī¹èī²": 4931,
      "120": 4932,
      "ï¼ħ": 4933,
      "å¤ļå¹´": 4934,
      "åİ¢": 4935,
      "æ´ĽæĿī": 4936,
      "åıĤåĬłäºĨ": 4937,
      "éĥ¨èĲ½": 4938,
      "åĮĹæĸ¹": 4939,
      "æ¶Ĥ": 4940,
      "ä¸ºæŃ¢": 4941,
      "èĤ¢": 4942,
      "èĤ¤": 4943,
      "æ¸Ĭ": 4944,
      "å¯¹æĬĹ": 4945,
      "åıĳåĬ¨æľº": 4946,
      "åħ¶å®ŀ": 4947,
      "åĮĹæµ·éģĵ": 4948,
      "åĪ¶çļĦ": 4949,
      "æĮªå¨ģ": 4950,
      "åĢĻéĢī": 4951,
      "é¡¾éĹ®": 4952,
      "åı¯èĥ½ä¼ļ": 4953,
      "æ¦Ĥè¦ģ": 4954,
      "éº¦åħĭ": 4955,
      "é¢Ĩè¢ĸ": 4956,
      "ä»·æł¼": 4957,
      "æģĲé¾Ļ": 4958,
      "ç¥ŀè¯Ŀ": 4959,
      "æ³¢æĸ¯": 4960,
      "æĺİæľĿæĶ¿æ²»äººçī©": 4961,
      "æ´ĽæĿīçŁ¶": 4962,
      "Ġ5": 4963,
      "è¾½å®ģ": 4964,
      "å¼ķåıĳ": 4965,
      "è½¬ç§»": 4966,
      "åı²ä¸Ĭ": 4967,
      "åħ³éĹŃ": 4968,
      "çī¹éĩĮ": 4969,
      "çļĦä¸¤": 4970,
      "ç»Ħå»º": 4971,
      "å¤§éĺª": 4972,
      "æĦıè¯Ĩ": 4973,
      "end": 4974,
      "63": 4975,
      "æ¬§åħĥ": 4976,
      "åĢº": 4977,
      "åĽºå®ļ": 4978,
      "98": 4979,
      "è´µå·ŀ": 4980,
      "åĬłæĭī": 4981,
      "ind": 4982,
      "çľģéģĵåı°": 4983,
      "1943": 4984,
      "è´£ä»»": 4985,
      "çĶŁåŃĺ": 4986,
      "å¹´åºķ": 4987,
      "åĽĽæľĪ": 4988,
      "ç»ĦæĪĲçļĦ": 4989,
      "èĢĲ": 4990,
      "ä¹ĺå®¢": 4991,
      "æĪĺå£«": 4992,
      "å»¶éķ¿": 4993,
      "æľĢå¤ļ": 4994,
      "æİª": 4995,
      "è½¬åĲĳ": 4996,
      "ä¼ª": 4997,
      "å¯¹æĸ¹": 4998,
      "æĶ¿åħļ": 4999,
      "å¤ĸåĽ½": 5000,
      "åĨ¢": 5001,
      "ary": 5002,
      "IC": 5003,
      "åīįçļĦ": 5004,
      "ç©´": 5005,
      "æ²¿éĿ©": 5006,
      "ãĤŃ": 5007,
      "1942": 5008,
      "çĽ¸æ¯Ķ": 5009,
      "åīįèº«": 5010,
      "æ£ķ": 5011,
      "åĪĨç¦»": 5012,
      "ĠAn": 5013,
      "çļĦä¸Ń": 5014,
      "ohn": 5015,
      "ä¹īå¤§åĪ©": 5016,
      "ç¦ħ": 5017,
      "èµĦäº§": 5018,
      "æłĭ": 5019,
      "çº¤": 5020,
      "ä¿®å»º": 5021,
      "çīĻåĪ©": 5022,
      "çľģçļĦä¸Ģä¸ª": 5023,
      "ust": 5024,
      "Ġãĥ": 5025,
      "è°¦": 5026,
      "çıĢ": 5027,
      "åĮĪçīĻåĪ©": 5028,
      "ç¡®è®¤": 5029,
      "eb": 5030,
      "çİ²": 5031,
      "éĽį": 5032,
      "éĽĩ": 5033,
      "åı¯è¾¾": 5034,
      "éºŁ": 5035,
      "è¢ĭ": 5036,
      "ä¸°å¯Į": 5037,
      "Ġé¦Ļæ¸¯": 5038,
      "çĪµå£«": 5039,
      "ç»ĪçĤ¹": 5040,
      "åĨ¬åŃ£": 5041,
      "æ¼ĶåĶ±ä¼ļ": 5042,
      "åĳ¨å¹´": 5043,
      "æĬķéĻį": 5044,
      "çļĦå¥³åĦ¿": 5045,
      "çŃīçŃī": 5046,
      "æĪĺéĺŁ": 5047,
      "çļĦåĲİ": 5048,
      "èĩªæĿĢ": 5049,
      "åħ´è¶£": 5050,
      "è¿¦": 5051,
      "åıĹæ¬¢è¿İ": 5052,
      "çľŁå®ŀ": 5053,
      "éļ¶å±ŀ": 5054,
      "ff": 5055,
      "èħĶ": 5056,
      "å¹³åİŁ": 5057,
      "èģĮåĬ¡": 5058,
      "éŃĶæ³ķ": 5059,
      "ä½įäºİæ³ķåĽ½": 5060,
      "æĶ¯æı´": 5061,
      "ç¨»": 5062,
      "æĦıå¤ĸ": 5063,
      "å§ĳ": 5064,
      "åĮĹéŃı": 5065,
      "èĤĸ": 5066,
      "èĻ¹": 5067,
      "å¸ĥå°Ķ": 5068,
      "ä¸Ģæ®µ": 5069,
      "æĽ´åĬł": 5070,
      "åĽ½åĬ¡éĻ¢": 5071,
      "æķ¢": 5072,
      "æĸĩç«ł": 5073,
      "åĪ¶ä½ľäºº": 5074,
      "å°¼äºļå·ŀ": 5075,
      "ä»»åĳ½ä¸º": 5076,
      "æĽ´å¤ļ": 5077,
      "Ġ2010": 5078,
      "æ°ĳéĹ´": 5079,
      "Ð²": 5080,
      "æĶ¶èĹı": 5081,
      "æŀĦéĢł": 5082,
      "åħ¬æ°ĳ": 5083,
      "æĮĸ": 5084,
      "çģ«æĺŁ": 5085,
      "ä¸İåħ¶": 5086,
      "ath": 5087,
      "äºļç§į": 5088,
      "å±Ī": 5089,
      "éĩĳçīĮ": 5090,
      "éĤª": 5091,
      "æĪĺçķ¥": 5092,
      "æľīæīĢ": 5093,
      "å¹¶ä»¥": 5094,
      "åıĤè°ĭ": 5095,
      "å¼ĹæľĹ": 5096,
      "Ġ10": 5097,
      "èĵĿèī²": 5098,
      "åīª": 5099,
      "é¦ĸåħĪ": 5100,
      "ç§ģäºº": 5101,
      "è©¹å§Ĩæĸ¯": 5102,
      "æµ·å¤ĸ": 5103,
      "å°¼å°Ķ": 5104,
      "è¯ģæį®": 5105,
      "åĲ¹": 5106,
      "ç¨£": 5107,
      "æĽ²çĽ®": 5108,
      "è¯±": 5109,
      "åıĳæĺİ": 5110,
      "ä»¥ä¸º": 5111,
      "æ°¯": 5112,
      "é¢ĨåľŁ": 5113,
      "ĠçļĦ": 5114,
      "çłĸ": 5115,
      "èħ¿": 5116,
      "åĳĬè¯ī": 5117,
      "ä¸ĭéĻį": 5118,
      "å¹´æĹ¶": 5119,
      "å½ķéŁ³": 5120,
      "1948": 5121,
      "çĶľ": 5122,
      "äº¦æĺ¯": 5123,
      "æµĭéĩı": 5124,
      "ä¸īæľĪ": 5125,
      "å®ĺèĩ³": 5126,
      "ä¼½": 5127,
      "çŃ¾çº¦": 5128,
      "ç§ĳåŃ¦å®¶": 5129,
      "æĬ±": 5130,
      "æĻ®æŁ¥": 5131,
      "å¤§åį«": 5132,
      "å¯¹è±¡": 5133,
      "åħ«æľĪ": 5134,
      "åį³ä½¿": 5135,
      "1939": 5136,
      "ĠåįĹ": 5137,
      "åĪ¶çīĩ": 5138,
      "å¹´åĪ°": 5139,
      "åĲŀ": 5140,
      "AC": 5141,
      "éĹ²": 5142,
      "åĲ§": 5143,
      "åĽĽå·Ŀçľģ": 5144,
      "å¿§": 5145,
      "çĽ¸äºĴ": 5146,
      "æĸ¯é¡¿": 5147,
      "çĽ¸ä¿¡": 5148,
      "ä¸»æĮģäºº": 5149,
      "ä¸īåĽ½": 5150,
      "èĢ¶ç¨£": 5151,
      "ãĤª": 5152,
      "çĿ¡": 5153,
      "HK": 5154,
      "è¿Ļéĥ¨": 5155,
      "åĲĽä¸»": 5156,
      "åĨĽåĽ¢": 5157,
      "åħĭç½Ĺ": 5158,
      "å¤©ä¸ĭ": 5159,
      "æ¯Ķä¾ĭ": 5160,
      "ç¬¬äºĮæ¬¡ä¸ĸçķĮå¤§æĪĺ": 5161,
      "ãĤ¨": 5162,
      "å°¿": 5163,
      "çŁŃæľŁå¤§åŃ¦": 5164,
      "èģª": 5165,
      "çĪ·": 5166,
      "åĽĬ": 5167,
      "èĤ¿": 5168,
      "åį«è§Ĩ": 5169,
      "ç¦ģæŃ¢": 5170,
      "å¤©çĦ¶": 5171,
      "åĪ©æĸ¯": 5172,
      "çľģåĴĮ": 5173,
      "åĪĽå»º": 5174,
      "åĵ¥ä¼¦æ¯Ķäºļ": 5175,
      "å¼ĵ": 5176,
      "è´¼": 5177,
      "1947": 5178,
      "èĢģå¸Ī": 5179,
      "éľĢæ±Ĥ": 5180,
      "1937": 5181,
      "å¼Ģå·¥": 5182,
      "è¥¿å®ī": 5183,
      "åŃĹæ¯į": 5184,
      "åħŃæľĪ": 5185,
      "ect": 5186,
      "çº¦ä¸º": 5187,
      "ä»ĬæĹ¥": 5188,
      "ach": 5189,
      "éģµ": 5190,
      "æķĻå®Ĺ": 5191,
      "çŃ¾ç½²": 5192,
      "ä¸ĥæľĪ": 5193,
      "çİ»çĴĥ": 5194,
      "ä½ĵèĤ²åľº": 5195,
      "çİ°åľ¨çļĦ": 5196,
      "ãĤ³": 5197,
      "æ±ª": 5198,
      "ä¹¡éģĵ": 5199,
      "å¤©çļĦ": 5200,
      "å¯ĵ": 5201,
      "æı¡": 5202,
      "äºĨè§£": 5203,
      "èĪŁ": 5204,
      "è®¤è¯Ĩ": 5205,
      "æĵħ": 5206,
      "éķ¿æ±Ł": 5207,
      "æĢķ": 5208,
      "çķĻä¸ĭ": 5209,
      "åįģäºĮæľĪ": 5210,
      "èľĢ": 5211,
      "èħĵ": 5212,
      "1965": 5213,
      "å·®å¼Ĥ": 5214,
      "1963": 5215,
      "æķ´ä½ĵ": 5216,
      "åħ¬æĸ¤": 5217,
      "åķ¡": 5218,
      "æī«": 5219,
      "è¿Ļåº§": 5220,
      "ä¸¤ä¾§": 5221,
      "ç¥Ĳ": 5222,
      "ĠAl": 5223,
      "çĶ«": 5224,
      "å·¥äºº": 5225,
      "æľ¬åľ°": 5226,
      "1952": 5227,
      "1954": 5228,
      "åıĳåĩº": 5229,
      "å¾ĹåĲį": 5230,
      "ä¿ĥè¿Ľ": 5231,
      "è¿ĻéĩĮ": 5232,
      "1968": 5233,
      "å®ĥæĺ¯": 5234,
      "JR": 5235,
      "å¼ºçĥĪ": 5236,
      "éĴ»": 5237,
      "ä¹ĭå¥³": 5238,
      "ä¹¦ç±į": 5239,
      "çļĦéģĵè·¯": 5240,
      "éĺ³å¸Ĥ": 5241,
      "èµĦéĩĳ": 5242,
      "1930": 5243,
      "é¦ĸæĴŃ": 5244,
      "æĴ¤éĶĢ": 5245,
      "åħ¬ä¼Ĺ": 5246,
      "åįĩä¸º": 5247,
      "çļĦåħ³ç³»": 5248,
      "ann": 5249,
      "ä¸Ńè¢«": 5250,
      "è°¥": 5251,
      "èĩªæ²»åĮº": 5252,
      "Ġé©¬": 5253,
      "ä¸įæķĮ": 5254,
      "æ¡ĵ": 5255,
      "çŁ¢": 5256,
      "ãĤĮ": 5257,
      "Ø§": 5258,
      "æŁ¥çĲĨ": 5259,
      "åľ¨æĹ¥æľ¬": 5260,
      "ä¸ºäºº": 5261,
      "å·¥åħ·": 5262,
      "ä»»èģĮ": 5263,
      "ç²¹": 5264,
      "æĬķæīĭ": 5265,
      "1964": 5266,
      "åĽ½éĻħæľºåľº": 5267,
      "æĹ§å¸Ĥéķĩ": 5268,
      "è¾ĸåĮº": 5269,
      "æĸ¹è¨Ģ": 5270,
      "ä¸Ģå®ļ": 5271,
      "éģĵåħī": 5272,
      "çĶ»å®¶": 5273,
      "æľ¬é±¼": 5274,
      "èĭıä¸¹": 5275,
      "æĻļä¸Ĭ": 5276,
      "çĶµèĦĳ": 5277,
      "çĤ¼": 5278,
      "ä½ĨçĶ±äºİ": 5279,
      "æ¶µ": 5280,
      "ä¼ĺåĬ¿": 5281,
      "åŁĭ": 5282,
      "1959": 5283,
      "éĦĤ": 5284,
      "éĢĢåĩº": 5285,
      "è®¡ç®Ĺæľº": 5286,
      "è·¯æ®µ": 5287,
      "ier": 5288,
      "æĭ±": 5289,
      "èĸĩ": 5290,
      "åĲįä¹ī": 5291,
      "ĠæľĢä½³": 5292,
      "çĶĺèĤĥ": 5293,
      "ct": 5294,
      "è¿ĲçĶ¨": 5295,
      "ä¸ĸçķĮä¸Ĭ": 5296,
      "çĶµåĬĽæľºè½¦": 5297,
      "é¢ĩ": 5298,
      "æľįå½¹": 5299,
      "çļĦå·¥ä½ľ": 5300,
      "åİŁå§ĭ": 5301,
      "å±ł": 5302,
      "æĳĨ": 5303,
      "1962": 5304,
      "çĲª": 5305,
      "Ar": 5306,
      "ond": 5307,
      "å¤§èģĶçĽŁ": 5308,
      "éĽ¾": 5309,
      "Ġ7": 5310,
      "éļľç¢į": 5311,
      "åħ¬åħĥåīį": 5312,
      "è¾©": 5313,
      "å¯¹å¤ĸ": 5314,
      "äºĭå®ŀ": 5315,
      "1969": 5316,
      "åı¤åħ¸": 5317,
      "AM": 5318,
      "äº¿ç¾İåħĥ": 5319,
      "ĠåĴĮ": 5320,
      "çļĦå¸Ĥéķĩ": 5321,
      "1938": 5322,
      "ç²¤è¯Ń": 5323,
      "å¸¦æľī": 5324,
      "å¥¥è¿Ĳä¼ļ": 5325,
      "æĬĵ": 5326,
      "æ¯ķä¸ļåĲİ": 5327,
      "æĸ½å·¥": 5328,
      "å¹¶æŃ¢äºİ": 5329,
      "åİŁåŃĲ": 5330,
      "çĪĨçĤ¸": 5331,
      "æ°ĳä¸»åħļ": 5332,
      "é¤Ĳåİħ": 5333,
      "èĿ¶": 5334,
      "å®¶äºº": 5335,
      "1961": 5336,
      "é£İéĻ©": 5337,
      "æ²³åįĹçľģ": 5338,
      "èĤĿ": 5339,
      "è¾¾å°Ķ": 5340,
      "ç§°åı·": 5341,
      "å¯¼å¼¹": 5342,
      "éĢ¸": 5343,
      "ç¦»åŃĲ": 5344,
      "æĸĩä»¶": 5345,
      "éĹ¸": 5346,
      "å¹´åĪĿ": 5347,
      "èĥĨ": 5348,
      "ÃĹ": 5349,
      "éĢ¼": 5350,
      "åĮĸåĲĪçī©": 5351,
      "éħįåĲĪ": 5352,
      "æµĻæ±Łçľģ": 5353,
      "ç»´åŁĥ": 5354,
      "åĬ¿åĬĽ": 5355,
      "Ġé»Ħ": 5356,
      "çļĦåİĨåı²": 5357,
      "Ġå¤©": 5358,
      "è°Ĭ": 5359,
      "æĽ¾ç¥ĸ": 5360,
      "çŁ³æ²¹": 5361,
      "æ¼ĶåĮĸ": 5362,
      "æ³¢ç½Ĺ": 5363,
      "è½¯ä»¶": 5364,
      "æł¹å»·": 5365,
      "å¤ıä»¤": 5366,
      "éĥİä¸Ń": 5367,
      "åĮĹç¾İ": 5368,
      "çĺ¤": 5369,
      "SEE": 5370,
      "éŃģ": 5371,
      "ä¸ºæ³ķåĽ½": 5372,
      "å°¼åħĭ": 5373,
      "ç»³": 5374,
      "åįķåħĥ": 5375,
      "æ¶īåıĬ": 5376,
      "åį³ä½į": 5377,
      "ational": 5378,
      "å¤§å¤ļ": 5379,
      "ä»¥åĮĹ": 5380,
      "å±±åİ¿": 5381,
      "585": 5382,
      "ive": 5383,
      "åį°å°¼": 5384,
      "ç½ĳçĲĥ": 5385,
      "å¸Ĩ": 5386,
      "Î±": 5387,
      "æľ¬çīĩ": 5388,
      "é©¬æĸ¯": 5389,
      "å·¡åĽŀ": 5390,
      "83": 5391,
      "ĠSh": 5392,
      "è§ĤçĤ¹": 5393,
      "çĪ±å¾·åįİ": 5394,
      "å®ªæ³ķ": 5395,
      "æĿŃå·ŀ": 5396,
      "åį¡æĸ¯": 5397,
      "ä¹ĿæľĪ": 5398,
      "çļĦæĥħåĨµä¸ĭ": 5399,
      "å¼ķåħ¥": 5400,
      "åĬ³åĬ¨": 5401,
      "é¦ĸä¸ª": 5402,
      "å½¢çĬ¶": 5403,
      "é¼İ": 5404,
      "iz": 5405,
      "æİ¨è¿Ľ": 5406,
      "æ´¾éģ£": 5407,
      "éģ¥": 5408,
      "åį±æľº": 5409,
      "ç«ĭæ³ķ": 5410,
      "æ£ĢæŁ¥": 5411,
      "åĲįäºº": 5412,
      "è¥¿åħ°": 5413,
      "å¤©åłĤ": 5414,
      "çļĦæĹ¶éĹ´": 5415,
      "æ²¼": 5416,
      "å¿ĺ": 5417,
      "çĶ¨æĪ·": 5418,
      "è¾¹ç¼ĺ": 5419,
      "AS": 5420,
      "çº¬": 5421,
      "æıĲåĪ°": 5422,
      "æīĵç®Ĺ": 5423,
      "çİ°ä»Ĭ": 5424,
      "æ¶Īå¤±": 5425,
      "åħ±äº§åħļ": 5426,
      "è·Łéļı": 5427,
      "é¾Ļç§ĳ": 5428,
      "æ±Łèĭıçľģ": 5429,
      "92": 5430,
      "å®Ľ": 5431,
      "è®ºæĸĩ": 5432,
      "Ġ2011": 5433,
      "ãģ§": 5434,
      "æĢĸ": 5435,
      "çļĦæĪĲåĳĺ": 5436,
      "ä¼ĬæľĹ": 5437,
      "ç´¯è®¡": 5438,
      "è·ĭ": 5439,
      "éĢĤåĲĪ": 5440,
      "ç¥¯": 5441,
      "æĥ¯": 5442,
      "ä¸»è¦ģæĺ¯": 5443,
      "è¹Ī": 5444,
      "ä¸ŃåĽ½äººæ°ĳè§£æĶ¾åĨĽ": 5445,
      "çĭŃ": 5446,
      "åĪĨéħį": 5447,
      "ä¸įä»ħ": 5448,
      "ç¿Į": 5449,
      "æħķå®¹": 5450,
      "ÑĮ": 5451,
      "INSEE": 5452,
      "ä¼ļåĳĺ": 5453,
      "Ġ2013": 5454,
      "èĲ¨å°Ķ": 5455,
      "æº¯": 5456,
      "æīĭæľ¯": 5457,
      "é£ŁçĶ¨": 5458,
      "èĴĻçī¹": 5459,
      "çº¿è·¯åı£": 5460,
      "ä¸»äºĭ": 5461,
      "èīºæľ¯å®¶": 5462,
      "çļĦçĶµå½±": 5463,
      "æĺ¯é¦Ļæ¸¯": 5464,
      "æľŃ": 5465,
      "ĠAr": 5466,
      "Ġg": 5467,
      "çĪª": 5468,
      "æĶ¹åĸĦ": 5469,
      "å°ļæľª": 5470,
      "æĿĥåĬĽ": 5471,
      "éĤ£äºĽ": 5472,
      "éĩĬæĶ¾": 5473,
      "96": 5474,
      "å©´": 5475,
      "Ġ2012": 5476,
      "åĮºéĹ´": 5477,
      "å¾·çļĦ": 5478,
      "æ¿ĳ": 5479,
      "ç¡®è¯Ĭ": 5480,
      "èĪ±": 5481,
      "æ¸¸æ³³": 5482,
      "éĴ¢çĲ´": 5483,
      "å¾·å°Ķ": 5484,
      "å¢ŀéķ¿": 5485,
      "ä¸įæĺİ": 5486,
      "ç»´æĸ¯": 5487,
      "äº¬éĥ½": 5488,
      "1953": 5489,
      "625": 5490,
      "è¾¨": 5491,
      "å¤§åŃ¦çļĦ": 5492,
      "é©¬éĩĮ": 5493,
      "èĤ¡ä»½æľīéĻĲåħ¬åı¸": 5494,
      "æ¯ħ": 5495,
      "åĿĩä¸º": 5496,
      "æ¼ł": 5497,
      "ä½Ľç½Ĺ": 5498,
      "è¢«è¿«": 5499,
      "å°Ĩé¢Ĩ": 5500,
      "ä¸Ńåħ±": 5501,
      "281": 5502,
      "éĺµå®¹": 5503,
      "æĹ¶æľŁçļĦ": 5504,
      ")ï¼ļ": 5505,
      "ä½ĵç³»": 5506,
      "1082": 5507,
      "ä¹Ŀé¾Ļ": 5508,
      "äºİP": 5509,
      "æĻ´": 5510,
      "ä¸Ĭä¸ĭ": 5511,
      "è¥¿æĸ¯": 5512,
      "ç§¯æŀģ": 5513,
      "èĥº": 5514,
      "å¸¦æĿ¥": 5515,
      "ãĤ£": 5516,
      "æ¡Īä»¶": 5517,
      "éĵİ": 5518,
      "çĽ´å¾Ħ": 5519,
      "åįĩçº§": 5520,
      "å¤¹": 5521,
      "å£«é¡¿": 5522,
      "å¹´åĴĮ": 5523,
      "å¯Ĩåº¦": 5524,
      "å®ł": 5525,
      "æ¯ĶåĪ©æĹ¶": 5526,
      "æĭĸ": 5527,
      "é¦ĸå¸Ń": 5528,
      "çķĻåľ¨": 5529,
      "åĴĸåķ¡": 5530,
      "èĢĮè¨Ģ": 5531,
      "æ·ĳ": 5532,
      "1966": 5533,
      "çļĦåıĳå±ķ": 5534,
      "èĭ¯": 5535,
      "Ġ2009": 5536,
      "æĪĲå°±": 5537,
      "å¸Ĥéķ¿": 5538,
      "å¯¹åºĶ": 5539,
      "ãģ£": 5540,
      "æµ·å³¡": 5541,
      "åĳĺå·¥": 5542,
      "éĩįéĩı": 5543,
      "è¯¥çīĩ": 5544,
      "å®ŀè¡Į": 5545,
      "åºŁéĻ¤": 5546,
      "éĺ¿æł¹å»·": 5547,
      "èĥľåĩº": 5548,
      "æĿĢå®³": 5549,
      "æįŁå¤±": 5550,
      "å¾·æĭī": 5551,
      "èĮħ": 5552,
      "87": 5553,
      "é¢Ĩåľ°": 5554,
      "Sh": 5555,
      "ç§ĳå¤«": 5556,
      "1957": 5557,
      "åĲīå°Ķ": 5558,
      "ä¸įåĪ°": 5559,
      "æ»¡è¶³": 5560,
      "åħ¥çĲĥ": 5561,
      "ä»£çĲĨ": 5562,
      "çī¹æĭī": 5563,
      "çŃīçº§": 5564,
      "åŃķ": 5565,
      "æĽ´ä¸º": 5566,
      "å¤įåħ´": 5567,
      "çĬ¯ç½ª": 5568,
      "åľ¨ä»ĸ": 5569,
      "çļĦè®¾è®¡": 5570,
      "ä¹¦éĻ¢": 5571,
      "åįģä¹Ŀ": 5572,
      "ĠSch": 5573,
      "éĤ»è¿ĳ": 5574,
      "å¤ªå®Ī": 5575,
      "åĪĨåĪ«ä¸º": 5576,
      "éĢīä¸º": 5577,
      "ish": 5578,
      "ç§°ä½ľ": 5579,
      "å©ļå§»": 5580,
      "å·´å°Ķ": 5581,
      "ore": 5582,
      "Ġ2015": 5583,
      "å®ļå±ħ": 5584,
      "æĹłäºº": 5585,
      "æĬ«": 5586,
      "åĲ»": 5587,
      "å¼ĹéĩĮ": 5588,
      "éĥģ": 5589,
      "Ġ2016": 5590,
      "æĺ¯ä¸ª": 5591,
      "ãĤĴ": 5592,
      "è®¾å®ļ": 5593,
      "å±Ģéķ¿": 5594,
      "Mar": 5595,
      "å»ºçŃĳçī©": 5596,
      "çŃ¾è®¢": 5597,
      "Ð´": 5598,
      "æĲº": 5599,
      "ç¿ħ": 5600,
      "æī©å¤§": 5601,
      "ç¼ħçĶ¸": 5602,
      "åĩºåĶ®": 5603,
      "600": 5604,
      "ç±»çļĦ": 5605,
      "374": 5606,
      "å°Ŀè¯ķ": 5607,
      "å²Ľå±¿": 5608,
      "å·²è¢«": 5609,
      "é¢Ħè®¡": 5610,
      "éĺ®": 5611,
      "é£ŁæĢ§": 5612,
      "Ġ2014": 5613,
      "åº¶": 5614,
      "è¶³åįı": 5615,
      "å±±ä¸ľçľģ": 5616,
      "å®īå¨ľ": 5617,
      "åħ¬å¼ĢèµĽ": 5618,
      "åį¢çĵ¦å°Ķ": 5619,
      "å·²æľī": 5620,
      "å°ĳå°Ĩ": 5621,
      "éĽ·æĸ¯": 5622,
      "å¸ĥæĶ¿": 5623,
      "è¥¿ä¾§": 5624,
      "çī¹åħ°": 5625,
      "åĬŀäºĭ": 5626,
      "å´©": 5627,
      "åħĭå°Ķ": 5628,
      "ãĢľ": 5629,
      "å¯¹éĺµ": 5630,
      "AN": 5631,
      "åĲ«æľī": 5632,
      "åĩ¶": 5633,
      "åĳ¨æľŁ": 5634,
      "æķĮäºº": 5635,
      "ä»ĸè¿ĺ": 5636,
      "åħĭçļĦ": 5637,
      "èĥĮé³į": 5638,
      "èħĲ": 5639,
      "1967": 5640,
      "ä¾ĿçĦ¶": 5641,
      "åľ¨é¦Ļæ¸¯": 5642,
      "ãĢĭ(": 5643,
      "äººåı£æķ°éĩıä¸ºP": 5644,
      "BN": 5645,
      "åĪĨæĶ¯": 5646,
      "å¥³çİĭ": 5647,
      "èıĬ": 5648,
      "åıĳèµ·": 5649,
      "ä¸»è¦ģçļĦ": 5650,
      "æģĲæĢĸ": 5651,
      "åĩ½æķ°": 5652,
      "é¡·": 5653,
      "ãĥķ": 5654,
      "ç£·": 5655,
      "ç½¢": 5656,
      "æĥħæĬ¥": 5657,
      "è§£æķ£": 5658,
      "ä»¤äºº": 5659,
      "åŃ£åĲİ": 5660,
      "æĦıå¿Ĺ": 5661,
      "mer": 5662,
      "160": 5663,
      "ãĤĤ": 5664,
      "å¥³ä¸»è§Ĵ": 5665,
      "æºĲèĩª": 5666,
      "ä¸ŃæľŁ": 5667,
      "éľŀ": 5668,
      "æ¸ł": 5669,
      "æĪ¿å±ĭ": 5670,
      "æĸĩèīº": 5671,
      "ç«Ł": 5672,
      "ith": 5673,
      "ies": 5674,
      "çĽĳåĪ¶": 5675,
      "åħ¼ä»»": 5676,
      "é¥¼": 5677,
      "å§¿": 5678,
      "åĪĻä¸º": 5679,
      "å¦¹å¦¹": 5680,
      "éĩĩåıĸ": 5681,
      "æīĢæľīçļĦ": 5682,
      "è½°çĤ¸": 5683,
      "81": 5684,
      "æĭ¼": 5685,
      "æľ¬ç§ĳ": 5686,
      "ä¸ľä¾§": 5687,
      "çĽ¸éĤ»": 5688,
      "VD": 5689,
      "ä¹Łä¸į": 5690,
      "é²¸": 5691,
      "åį±éĻ©": 5692,
      "ĠæĹ¥æľ¬": 5693,
      "éĺ»æŃ¢": 5694,
      "æİ¥å£¤çļĦå¸Ĥéķĩ": 5695,
      "æİĴè¡Į": 5696,
      "ç¬¦åĲĪ": 5697,
      "èĩĤ": 5698,
      "ä¼łåªĴ": 5699,
      "ES": 5700,
      "ON": 5701,
      "å°Ķå¤«": 5702,
      "ĠCom": 5703,
      "ç¹ģæ®ĸ": 5704,
      "è¤Ĳèī²": 5705,
      "å¾ªçİ¯": 5706,
      "çļĦçĪ¶äº²": 5707,
      "å¤§å°ı": 5708,
      "å·¥ç¨ĭå¸Ī": 5709,
      "åħ¨éĿ¢": 5710,
      "ä½įäºİä¸ŃåĽ½": 5711,
      "å¤§è¡Ĺ": 5712,
      "çĤī": 5713,
      "æ·³": 5714,
      "é£İæļ´": 5715,
      "å¤ıä»¤æĹ¶": 5716,
      "å¿½": 5717,
      "èĪŀè¹Ī": 5718,
      "è¯´æĺİ": 5719,
      "å®ģæ³¢": 5720,
      "èĥ½æºĲ": 5721,
      "ee": 5722,
      "bert": 5723,
      "æ¡Ĳ": 5724,
      "æľīæľº": 5725,
      "çĻ»éĻĨ": 5726,
      "2046": 5727,
      "å¤©ä½¿": 5728,
      "å¹³éĿ¢": 5729,
      "è¥¿åĮĹéĥ¨": 5730,
      "ç§įæ¤į": 5731,
      "ly": 5732,
      "è¿ĽçĲĥ": 5733,
      "éĥ½çĿ£": 5734,
      "æĹ¶æ®µ": 5735,
      "æ¦Ħ": 5736,
      "æģ°": 5737,
      "å¹¶ä¸İ": 5738,
      "æĪĲçļĦ": 5739,
      "Ġ2008": 5740,
      "å®¶ä¸Ń": 5741,
      "æ¯Ķå¦Ĥ": 5742,
      "84": 5743,
      "åı¯ä»¥åľ¨": 5744,
      "åŁ¹åħ»": 5745,
      "ox": 5746,
      "çļĦä½įç½®": 5747,
      "ä¸ĬäºĨ": 5748,
      "æĮīå¯Ł": 5749,
      "åĽ°éļ¾": 5750,
      "æİ§èĤ¡": 5751,
      "æĪĲæľ¬": 5752,
      "äº«å¹´": 5753,
      "å¸¸è§ģçļĦ": 5754,
      "æĢ¡": 5755,
      "ĠThe": 5756,
      "æĸĩæĺİ": 5757,
      "å¨¶": 5758,
      "èı©": 5759,
      "ç¾İåĨĽ": 5760,
      "éļıåį³": 5761,
      "Ġ12": 5762,
      "åģľéĿł": 5763,
      "åľ¨äºİ": 5764,
      "åĨķ": 5765,
      "æ¸¯åı£": 5766,
      "å¥ĭ": 5767,
      "æĪĲäºĨ": 5768,
      "å·¡æĬļ": 5769,
      "ãĥĨ": 5770,
      "èĦ¸": 5771,
      "å¡ŀçº³": 5772,
      "åł¤": 5773,
      "åľ¨ä¸Ģèµ·": 5774,
      "åĮºä¸ºUTC": 5775,
      "éĢīåĮº": 5776,
      "åĲīæŀĹ": 5777,
      "æĪĲå¹´": 5778,
      "çļĦæĹ¶åĮºä¸ºUTC": 5779,
      "Ġ\"": 5780,
      "çº¦çĳŁ": 5781,
      "åĩºéģĵ": 5782,
      "INSEEå¸Ĥéķĩ": 5783,
      "è¯ºå¤«": 5784,
      "ial": 5785,
      "å··": 5786,
      "æľīèĳĹ": 5787,
      "ç¬¬ä¹Ŀ": 5788,
      "èĹ»": 5789,
      "æĬ¥å¯¼": 5790,
      "ung": 5791,
      "INSEEå¸Ĥéķĩç¼ĸçłģä¸ºP": 5792,
      "çĶµè½¦": 5793,
      "âĢ§": 5794,
      "åİ¿çļĦ": 5795,
      "è´§çī©": 5796,
      "éĤ®æĶ¿ç¼ĸçłģä¸ºP": 5797,
      "èĢĮä¸į": 5798,
      "æł¼æĭī": 5799,
      "æļĸ": 5800,
      "å¸ĥæľĹ": 5801,
      "éĤµ": 5802,
      "è±«": 5803,
      "åģľè½¦": 5804,
      "äº¤æį¢": 5805,
      "èİ·å¥ĸ": 5806,
      "åĨĴéĻ©": 5807,
      "èĩĢ": 5808,
      "éĢļä¿¡": 5809,
      "åİ¿éģĵ": 5810,
      "çļ®èĤ¤": 5811,
      "ãģĻ": 5812,
      "æľµ": 5813,
      "èĬĿåĬł": 5814,
      "åĽŀå½Ĵ": 5815,
      "å¯Įå£«": 5816,
      "å®Įå·¥": 5817,
      "èĬĿåĬłåĵ¥": 5818,
      "çħ§çīĩ": 5819,
      "æĹ¶çļĦäººåı£æķ°éĩıä¸ºP": 5820,
      "æµ·åŁŁ": 5821,
      "éļ¾ä»¥": 5822,
      "ä¸»æķĻç»ĥ": 5823,
      "one": 5824,
      "å¤§è¥¿æ´ĭ": 5825,
      "éĿ¢ç§¯P": 5826,
      "Ġn": 5827,
      "äºĶåįģ": 5828,
      "åĬ¨è½¦": 5829,
      "ä¿ĿéĻ©": 5830,
      "æĹ¶åĢĻ": 5831,
      "93": 5832,
      "çİ°å®ŀ": 5833,
      "æĭĨéĻ¤": 5834,
      "æħİ": 5835,
      "ç¨Ģ": 5836,
      "ç®¡çĲĨå±Ģ": 5837,
      "éĩıçļĦ": 5838,
      "ä¸ĢåĪĩ": 5839,
      "ĠUn": 5840,
      "Ñĥ": 5841,
      "æ»ķ": 5842,
      "é¢ģåıĳ": 5843,
      "Ġå±±": 5844,
      "ç±³åħ°": 5845,
      "åģ¿": 5846,
      "äººæ°ĳå¸ģ": 5847,
      "æĤ¦": 5848,
      "è±¹": 5849,
      "åĪĽå§ĭ": 5850,
      "å¤§å°ĨåĨĽ": 5851,
      "éĵ¸": 5852,
      "ç½Ĺä¼¯çī¹": 5853,
      "ä¸įæ»¡": 5854,
      "å¾Ģå¾Ģ": 5855,
      "æĭ¿ä¸ĭ": 5856,
      "åī¯ä½¿": 5857,
      "per": 5858,
      "è½©": 5859,
      "çļĦç¬¬äºĮ": 5860,
      "å²©çŁ³": 5861,
      "æĬ¼": 5862,
      "éĻ¢å£«": 5863,
      "åľ£ç»ı": 5864,
      "æĪĸæĹ§å¸Ĥéķĩ": 5865,
      "æĮģæľī": 5866,
      "é«ĺçŃīåŃ¦æł¡": 5867,
      "éĹ½": 5868,
      "æ½ľèīĩ": 5869,
      "ä½Ĩä»ĸ": 5870,
      "ä¿®å¤į": 5871,
      "è¶³çĲĥèģĶèµĽ": 5872,
      "è¶³çĲĥéĺŁ": 5873,
      "è¯Ĺäºº": 5874,
      "Ġ2006": 5875,
      "æĶ¶éĽĨ": 5876,
      "éĩįå¤§": 5877,
      "äº§çĶŁçļĦ": 5878,
      "åı¯è§ģ": 5879,
      "çĽ´éļ¶": 5880,
      "ick": 5881,
      "åĬłå¼º": 5882,
      "åľºæĻ¯": 5883,
      "éĢĶä¸Ń": 5884,
      "å®´": 5885,
      "ä¼Ĺå¤ļ": 5886,
      "åĬªåĬĽ": 5887,
      "AP": 5888,
      "ae": 5889,
      "èİ·èĥľ": 5890,
      "æĻ®é²ģ": 5891,
      "æĪĲç«ĭçļĦ": 5892,
      "ï¼īï¼į": 5893,
      "çĲĨå·¥": 5894,
      "åı¸èģĮ": 5895,
      "èĬ¦": 5896,
      "åķĨåĵģ": 5897,
      "å¸Ĥæ°ĳ": 5898,
      "åº¦çļĦ": 5899,
      "éĢīåĮºä¸º": 5900,
      "å¤ªåĲİ": 5901,
      "å¦ĩå¥³": 5902,
      "å¸½": 5903,
      "é¹ħ": 5904,
      "ç±³çļĦ": 5905,
      "ix": 5906,
      "å»ºçŃĳå¸Ī": 5907,
      "ç§įæĹı": 5908,
      "åŁ¹è®Ń": 5909,
      "åĪĨåĪ«æĺ¯": 5910,
      "Ġ2017": 5911,
      "æīĢå±ŀçļĦçľģçº§": 5912,
      "Ġh": 5913,
      "æīĢå±ŀçļĦçľģçº§éĢīåĮºä¸º": 5914,
      "å¿Ļ": 5915,
      "è¯¥çľģä»½": 5916,
      "è°ģ": 5917,
      "èĮµ": 5918,
      "land": 5919,
      "ãĥī": 5920,
      "æ£Ģæµĭ": 5921,
      "èĬĻ": 5922,
      "æľºåĪ¶": 5923,
      "mm": 5924,
      "æ»¨æµ·": 5925,
      "ern": 5926,
      "å¹´ç¾İåĽ½": 5927,
      "åĵ¥åĵ¥": 5928,
      "Ġ2007": 5929,
      "æĥľ": 5930,
      "ace": 5931,
      "åı¤èĢģ": 5932,
      "åĲİè¢«": 5933,
      "æĸ°åŁİ": 5934,
      "èĩªèº«": 5935,
      "ç¼ĸåħ¥": 5936,
      "éĶĲ": 5937,
      "æĺ¯ä¸Ģåº§": 5938,
      "çľģçļĦä¸Ģä¸ªå¸Ĥéķĩ": 5939,
      "èĴ²": 5940,
      "åįİäºº": 5941,
      "ç¤ģ": 5942,
      "Ġ8": 5943,
      "iss": 5944,
      "åįļå£«åŃ¦ä½į": 5945,
      "CO": 5946,
      "åľ°åĲį": 5947,
      "åĲĪåĲĮ": 5948,
      "éħįç½®": 5949,
      "åºĦä¸º": 5950,
      "æ´Ľå¤«": 5951,
      "çŁ¥åºľ": 5952,
      "ãĥ£": 5953,
      "å±±å¸Ĥ": 5954,
      "ç«ŀèµĽ": 5955,
      "æľ«æľŁ": 5956,
      "áĢ": 5957,
      "çļĦç¥ŀ": 5958,
      "ä¼łæķĻ": 5959,
      "97": 5960,
      "æĸ°äºº": 5961,
      "ä¸ľåĮĹéĥ¨": 5962,
      "æĸ¯æĭīå¤«": 5963,
      "äº¤çķĮ": 5964,
      "åĲ¸æĶ¶": 5965,
      "æ²³çķĶ": 5966,
      "ç¢Ł": 5967,
      "rit": 5968,
      "çĶµè¯Ŀ": 5969,
      "ä½ľåĩº": 5970,
      "Ð¹": 5971,
      "åĿł": 5972,
      "äº§åľ°": 5973,
      "ä¸ŃæľĢ": 5974,
      "èĮİ": 5975,
      "äººå·¥": 5976,
      "è¶³çĲĥä¿±ä¹Ĳéĥ¨": 5977,
      "und": 5978,
      "åľ£æ¯į": 5979,
      "æ¢µ": 5980,
      "1951": 5981,
      "ock": 5982,
      "æľ¬åľŁ": 5983,
      "1936": 5984,
      "æŁĦ": 5985,
      "æ£Ģå¯ŁéĻ¢": 5986,
      "æ°Ķè±¡": 5987,
      "att": 5988,
      "èĿł": 5989,
      "èĢķ": 5990,
      "è£ģåĪ¤": 5991,
      "æĪĲéķ¿": 5992,
      "è½¨éģĵäº¤éĢļ": 5993,
      "éĶĢéĩı": 5994,
      "ä»İæŃ¤": 5995,
      "æĹ¬": 5996,
      "ä¿®éģĵ": 5997,
      "æĶ»æīĵ": 5998,
      "Cl": 5999,
      "çľł": 6000,
      "çļĦåĽ½å®¶": 6001,
      "ss": 6002,
      "åĮĹä¾§": 6003,
      "æŃ¤åī§": 6004,
      "èģĮä½į": 6005,
      "çļĦè¯Ŀ": 6006,
      "æŃ»äºİ": 6007,
      "æīģ": 6008,
      "ä¾ĽåºĶ": 6009,
      "çĪ¸": 6010,
      "ç¢°": 6011,
      "æ¾Ħ": 6012,
      "çŁ®": 6013,
      "å®īæīĵ": 6014,
      "è½¦éģĵ": 6015,
      "åĽĽä¸ĸ": 6016,
      "å¤ļå°Ķ": 6017,
      "ç«ĭåį³": 6018,
      "åĲĳåįĹ": 6019,
      "åĲĪåĶ±": 6020,
      "é¢ģå¥ĸåħ¸ç¤¼": 6021,
      "å»ºç«ĭäºĨ": 6022,
      "çļĦåĲįåŃĹ": 6023,
      "ç»´å¤ļ": 6024,
      "æīĢå±ŀ": 6025,
      "æīĳ": 6026,
      "ç¢±": 6027,
      "94": 6028,
      "çļĦæĥħ": 6029,
      "åŃĲå¥³": 6030,
      "åĲĮçĽŁ": 6031,
      "åİŁæĿ¥": 6032,
      "è¿Ĳä½ľ": 6033,
      "ood": 6034,
      "ĠæŀĹ": 6035,
      "ä¸»åĬĽ": 6036,
      "æĢ§æł¼": 6037,
      "ç©ºä¸Ń": 6038,
      "Ġ2018": 6039,
      "ä¸ºåħ¶": 6040,
      "è´©": 6041,
      "ä¸Ģåľº": 6042,
      "èĪªå¤©": 6043,
      "ï¼İ": 6044,
      "åĨĽå®ĺ": 6045,
      "çİ°åŃĺ": 6046,
      "éģĩåĪ°": 6047,
      "åįģä¸ĢæľĪ": 6048,
      "å´ĸ": 6049,
      "aur": 6050,
      "ä¾ĭåŃĲ": 6051,
      "çī¹åĪ«æĺ¯": 6052,
      "éķ¿è¾¾": 6053,
      "äº²èĩª": 6054,
      "åĪĨè£Ĥ": 6055,
      "çŃĴ": 6056,
      "èµĦè®¯": 6057,
      "åĳĪçİ°": 6058,
      "é¢Į": 6059,
      "çīĻé½¿": 6060,
      "ure": 6061,
      "æĺ¥ç§ĭ": 6062,
      "å¼ĹéĽ·": 6063,
      "Ã¡": 6064,
      "èĢĥè¯ķ": 6065,
      "çĸ«æĥħ": 6066,
      "æ±ŁæĪ·": 6067,
      "æĹ¥äºİ": 6068,
      "å¹¶çĶ±": 6069,
      "ä¸īäºº": 6070,
      "è¯¥çľģä»½ä¸ºæ³ķåĽ½": 6071,
      "æł¡åĽŃ": 6072,
      "Ġ2005": 6073,
      "æĪĲçĨŁ": 6074,
      "äºĮæĪĺ": 6075,
      "åĲĦèĩª": 6076,
      "ãĢıï¼Ī": 6077,
      "çļĦéĤ®æĶ¿ç¼ĸçłģä¸ºP": 6078,
      "å·´åŁº": 6079,
      "ç©·": 6080,
      "æľ¬äºº": 6081,
      "çŁ©": 6082,
      "è¾Ĳå°Ħ": 6083,
      "91": 6084,
      "çļĦè§Ĵèī²": 6085,
      "ãĢĭï¼ī": 6086,
      "ä¸»ä½ĵ": 6087,
      "æµĨ": 6088,
      "ä¸¤å¹´": 6089,
      "æ¶Į": 6090,
      "çłģå¤´": 6091,
      "ex": 6092,
      "ä»¥åįĹ": 6093,
      "ä¼¼ä¹İ": 6094,
      "å¤§ä¼Ĺ": 6095,
      "å¾ĹåĪ°äºĨ": 6096,
      "ç«Ļåİħ": 6097,
      "æ²¿æµ·": 6098,
      "å¿Į": 6099,
      "æ¯ıå¤©": 6100,
      "åħ³éĶ®": 6101,
      "å·²çŁ¥": 6102,
      "Ġä¼Ĭ": 6103,
      "æĿ¯åĨłåĨĽ": 6104,
      "åĬłåĪ©ç¦ı": 6105,
      "Th": 6106,
      "åįĹéĿŀ": 6107,
      "ä¸ĭä»¤": 6108,
      "éĤ£ä¹Ī": 6109,
      "å°Ħåĩ»": 6110,
      "æĢ»è£ģ": 6111,
      "äººåı£æĻ®æŁ¥": 6112,
      "äºĴçĽ¸": 6113,
      "ä¿®æĶ¹": 6114,
      "ãĢĤãĢĤ": 6115,
      "åĨĽåĮº": 6116,
      "åĲ¯åĬ¨": 6117,
      "èħ°": 6118,
      "æĶ¿æ²»å®¶": 6119,
      "æİ¨èįĲ": 6120,
      "é¡ºåĪ©": 6121,
      "èĬŃ": 6122,
      "èĭıç»´åŁĥ": 6123,
      "æľºçļĦ": 6124,
      "æĢ§èĥ½": 6125,
      "åıĮæīĵ": 6126,
      "æ´»è·ĥ": 6127,
      "åŁİçļĦ": 6128,
      "æİł": 6129,
      "åĴ¨": 6130,
      "å¼Ģä¸ļ": 6131,
      "éĩĮåħĭ": 6132,
      "ä»ĸä¸º": 6133,
      "æĢ»çĽĳ": 6134,
      "ç©Ĩæĸ¯": 6135,
      "å°¼è¥¿äºļ": 6136,
      "ä¹Łå°±æĺ¯": 6137,
      "åİ¨": 6138,
      "åī¯ä¸»å¸Ń": 6139,
      "ç«ĭæĸ¹": 6140,
      "ĠZ": 6141,
      "old": 6142,
      "åıĳçĶŁåľ¨": 6143,
      "çĭĲ": 6144,
      "è´§è¿Ĳ": 6145,
      "èµĽä¸Ń": 6146,
      "é¾Ļæ±Ł": 6147,
      "ous": 6148,
      "ä¹Įæĸ¯": 6149,
      "è¯¥åħļ": 6150,
      "é±¼ç±»": 6151,
      "æ¡ĥåĽŃ": 6152,
      "å£°ç§°": 6153,
      "æĸ°ç«¹": 6154,
      "ä¸¤èĢħ": 6155,
      "å¤ĦçļĦ": 6156,
      "ç½Ĺå¾·": 6157,
      "ä¸Ĭè¿°": 6158,
      "èµ·ä¹ī": 6159,
      "è¯ŃçļĦ": 6160,
      "æĦıæĢĿ": 6161,
      "ice": 6162,
      "åĮ»åŃ¦éĻ¢": 6163,
      "æ¡¥æ¢ģ": 6164,
      "çĵ·": 6165,
      "èĩ³äºİ": 6166,
      "åįĹä¾§": 6167,
      "SA": 6168,
      "å·¥ä½ľå®¤": 6169,
      "è¡Įä¸ļ": 6170,
      "èµ·æºĲ": 6171,
      "æĳ§": 6172,
      "ãģ¤": 6173,
      "å°ıå§Ĳ": 6174,
      "çłĶåıĳ": 6175,
      "åįģä¸ĥ": 6176,
      "è¯ģå®ŀ": 6177,
      "çªģçł´": 6178,
      "åĤ¬": 6179,
      "åįĩä»»": 6180,
      "1935": 6181,
      "åĩºåıĳ": 6182,
      "é¹ı": 6183,
      "MV": 6184,
      "èµĮ": 6185,
      "çĪ±çļĦ": 6186,
      "æĺ¯ä¸º": 6187,
      "åħ¶ä¸ŃåĮħæĭ¬": 6188,
      "åĵģç§į": 6189,
      "èµĦæľ¬": 6190,
      "lay": 6191,
      "èĲĿ": 6192,
      "sk": 6193,
      "ä¸»å¼ł": 6194,
      "éķ¿å®ĺ": 6195,
      "æĥ¨": 6196,
      "ä¸»åĬŀ": 6197,
      "éĺ³åİ¿": 6198,
      "ä½ıåľ¨": 6199,
      "ä¸ľäº¬éĥ½": 6200,
      "Ġ18": 6201,
      "éĶĻè¯¯": 6202,
      "èĤ©": 6203,
      "åıĳçİ°çļĦ": 6204,
      "éĩĳå±±": 6205,
      "ä¸¤ä½į": 6206,
      "çļĦä¸ĢæĿ¡": 6207,
      "å¤§çĲĨ": 6208,
      "æķĪåĬĽäºİ": 6209,
      "åŁİåİ¿": 6210,
      "è¥¿éĩĮ": 6211,
      "ç³»ç»ŁçļĦ": 6212,
      "å¯ĩ": 6213,
      "ä¹ĲåĻ¨": 6214,
      "ä¸Ģèĩ´": 6215,
      "è¸¢": 6216,
      "NBA": 6217,
      "ä¼łå¥ĩ": 6218,
      "å¤´éĥ¨": 6219,
      "æĪĺè½¦": 6220,
      "800": 6221,
      "è¾Ł": 6222,
      "ä¾¨": 6223,
      "å¤ĸçļĦ": 6224,
      "çĥ·": 6225,
      "èĮĦ": 6226,
      "åı·çļĦ": 6227,
      "çī©ç§įçļĦ": 6228,
      "ä¸ľåįĹéĥ¨": 6229,
      "å¯¹æŃ¤": 6230,
      "é©³": 6231,
      "æĪĺèĥľ": 6232,
      "æľīä¸ĢäºĽ": 6233,
      "ight": 6234,
      "ä¸¤åĲį": 6235,
      "1933": 6236,
      "éĻ¨": 6237,
      "ä¸Ńå¼ı": 6238,
      "è¢«è§Ĩä¸º": 6239,
      "åıĳæĮ¥": 6240,
      "ç¾İä¸½": 6241,
      "å¥³åŃ©": 6242,
      "ä¿ĦåĽ½": 6243,
      "éªı": 6244,
      "äºĶä¸ª": 6245,
      "è¿½æº¯": 6246,
      "æīĢåľ¨åľ°": 6247,
      "èĽĻ": 6248,
      "çļĦæīĭ": 6249,
      "Ġéķ¿": 6250,
      "åįĩæł¼": 6251,
      "å½ĵåľ°çļĦ": 6252,
      "çĮªç¬¼": 6253,
      "å°ĺ": 6254,
      "å¨ħ": 6255,
      "åķĨäºº": 6256,
      "åĬłåħ¥äºĨ": 6257,
      "è¿Ļæł·çļĦ": 6258,
      "çī¹çĤ¹": 6259,
      "çĽ¸åħ³çļĦ": 6260,
      "çĶµåĬ¨": 6261,
      "åĭŁ": 6262,
      "æ¸¸æĪıçļĦ": 6263,
      "çĮªç¬¼èįī": 6264,
      "ãĤ°": 6265,
      "ED": 6266,
      "æĹ¥æŃ£å¼ı": 6267,
      "é¢ĸ": 6268,
      "éħ·": 6269,
      "åľ°ä¸Ĭ": 6270,
      "æĪĺåĽ½": 6271,
      "åı°é£İ": 6272,
      "ãĤº": 6273,
      "ä¸´åºĬ": 6274,
      "Un": 6275,
      "æĺ¯åĽłä¸º": 6276,
      "åį§": 6277,
      "åĮħåĽ´": 6278,
      "eam": 6279,
      "pe": 6280,
      "ç¬¬ä¸Ģä½į": 6281,
      "æĬĳåĪ¶": 6282,
      "æĺ¯åı°æ¹¾": 6283,
      "åĵĢ": 6284,
      "æºĥ": 6285,
      "åĩºå¸Ń": 6286,
      "çĪ¬": 6287,
      "Ġ&": 6288,
      "å¤§æŃ£": 6289,
      "æ£ī": 6290,
      "å®¤åĨħ": 6291,
      "çĮ´": 6292,
      "è§Ĩé¢ĳ": 6293,
      "ä¸ĭä¸Ģ": 6294,
      "æĦŁè§ī": 6295,
      "æ³ķå®ĺ": 6296,
      "å²Ĳ": 6297,
      "ory": 6298,
      "åģ¶åĥı": 6299,
      "è¿Ļé¦ĸ": 6300,
      "å°ģä¸º": 6301,
      "Ġw": 6302,
      "å¥³æ¼Ķåĳĺ": 6303,
      "æĶ¹ç§°": 6304,
      "èº«ä¸Ĭ": 6305,
      "çĽĳå¯Ł": 6306,
      "ä¸Ĭåįĩ": 6307,
      "å«Į": 6308,
      "ãĤµ": 6309,
      "éĿłè¿ĳ": 6310,
      "08": 6311,
      "æľĢé«ĺçļĦ": 6312,
      "åħħæ»¡": 6313,
      "æĤł": 6314,
      "ç²¾çģµ": 6315,
      "æĴŀåĩ»": 6316,
      "éĻ·åħ¥": 6317,
      "æ³ķæ¡Ī": 6318,
      "äº©": 6319,
      "çļĦéĥ¨åĪĨ": 6320,
      "åĲįè¿Ľå£«": 6321,
      "å¼łä¸ĵè¾ĳ": 6322,
      "tern": 6323,
      "ä¸Ģäºº": 6324,
      "è¸ı": 6325,
      "éĹ»åĲį": 6326,
      "æ³¢å£«é¡¿": 6327,
      "åīĬ": 6328,
      "çī¹å®ļ": 6329,
      "æĢ§åĪ«": 6330,
      "å¿ĥèĦı": 6331,
      "å¹´èİ·": 6332,
      "è¶ĭ": 6333,
      "1934": 6334,
      "èĲ¥ä¸ļ": 6335,
      "æ´¾åĩº": 6336,
      "æ³ķåħ°åħĭ": 6337,
      "æľįè£ħ": 6338,
      "éĢ»": 6339,
      "ire": 6340,
      "æİ¢æµĭ": 6341,
      "ç½Ĺé©¬å°¼äºļ": 6342,
      "çĲĨæŁ¥": 6343,
      "å²Ľå¼ı": 6344,
      "èĽĽ": 6345,
      "è¾ħåĬ©": 6346,
      "äº¥": 6347,
      "å¸ĥéĽ·": 6348,
      "ool": 6349,
      "äºĮçº§": 6350,
      "ment": 6351,
      "å¥¹ä»¬": 6352,
      "æĽ¾äºİ": 6353,
      "æľ¬çº¿": 6354,
      "æĺŁç³»": 6355,
      "é«ĺè¾¾": 6356,
      "çļĦéĹ®é¢ĺ": 6357,
      "æµİåįĹ": 6358,
      "çļĦéŁ³ä¹Ĳ": 6359,
      "åĮĹèµ·": 6360,
      "èĢĮéĿŀ": 6361,
      "å°Ķé¡¿": 6362,
      "éĤ±": 6363,
      "çļĦæľĢ": 6364,
      "éĻª": 6365,
      "ä½ĵéĩį": 6366,
      "æķĳæı´": 6367,
      "å°¤åħ¶æĺ¯": 6368,
      "åľºåľ°": 6369,
      "è¿ĳå¹´": 6370,
      "ð«": 6371,
      "æĹŃ": 6372,
      "æĮĩå®ļ": 6373,
      "æ¶Īè´¹": 6374,
      "åĲĳåĮĹ": 6375,
      "çķħ": 6376,
      "æ®·": 6377,
      "å¼ıçļĦ": 6378,
      "ä¼ļè¯ķ": 6379,
      "å¥½åıĭ": 6380,
      "æİªæĸ½": 6381,
      "ãĥĬ": 6382,
      "åĺīå®¾": 6383,
      "é«ĺéĽĦ": 6384,
      "é©¬ä¸ģ": 6385,
      "äººæ°ĳæ£Ģå¯ŁéĻ¢": 6386,
      "éķ¿å®ī": 6387,
      "çĻ¾ä¸ĩ": 6388,
      "æİ¨åĬ¨": 6389,
      "æıĲçĲ´": 6390,
      "æ¯ıæĹ¥": 6391,
      "æĬµæĬĹ": 6392,
      "æ³ķåħ°è¥¿": 6393,
      "åŃ¦çļĦ": 6394,
      "çĶŁæĪĲ": 6395,
      "è¡ĮçļĦ": 6396,
      "æķ²": 6397,
      "uk": 6398,
      "é©±éĢĲèĪ°": 6399,
      "å¼Ħ": 6400,
      "enn": 6401,
      "æģ¨": 6402,
      "é¦ĸä½į": 6403,
      "éķĳ": 6404,
      "ãĢĭãĢĬ": 6405,
      "orm": 6406,
      "è·¯æĺĵæĸ¯": 6407,
      "05": 6408,
      "æĸ°å»º": 6409,
      "æł¼å°Ķ": 6410,
      "æµģæµª": 6411,
      "ç¼©åĨĻ": 6412,
      "ä»ĸåĴĮ": 6413,
      "åıĺä¸º": 6414,
      "åı¬å¼Ģ": 6415,
      "æµ·ä¸Ĭ": 6416,
      "ä»Ĭå¤©": 6417,
      "çłĶç©¶éĻ¢": 6418,
      "å¾Īå¤§": 6419,
      "yl": 6420,
      "OS": 6421,
      "åĢĻéĢīäºº": 6422,
      "Ġå®ī": 6423,
      "æ±ŁåįĹ": 6424,
      "1932": 6425,
      "æ©Ħ": 6426,
      "å¼Ģå±ķ": 6427,
      "çľ¼çĿ": 6428,
      "è¿ŀç»Ńåī§": 6429,
      "åĬŁçİĩ": 6430,
      "æĻļæľŁ": 6431,
      "å¥¥æĸ¯åį¡": 6432,
      "åį¡ç½Ĺ": 6433,
      "æĥ³è¦ģ": 6434,
      "æķĪåºĶ": 6435,
      "ç»¼èīº": 6436,
      "å¥¥æŀĹåĮ¹åħĭè¿ĲåĬ¨ä¼ļ": 6437,
      "å¸ĤæĶ¿": 6438,
      "èĪĮ": 6439,
      "æ°ĳä¼Ĺ": 6440,
      "AK": 6441,
      "èĲ½æĪĲ": 6442,
      "è¥¿åįĹéĥ¨": 6443,
      "æł¼éĩĮ": 6444,
      "çĶ°æĿĳ": 6445,
      "ç»µ": 6446,
      "å·´åŁºæĸ¯åĿ¦": 6447,
      "æ³¢å°Ķ": 6448,
      "åħįè´¹": 6449,
      "ç»ĺçĶ»": 6450,
      "ä¸Ńä¹¦": 6451,
      "çľī": 6452,
      "éĢ®": 6453,
      "æ¹ĸåįĹçľģ": 6454,
      "åħĭæŀĹ": 6455,
      "å·¥èīº": 6456,
      "1901": 6457,
      "æ®ĸæ°ĳåľ°": 6458,
      "çļĦæĢ»": 6459,
      "äº¤åıī": 6460,
      "åĸĻ": 6461,
      "æĨ": 6462,
      "åĬŀäºĭå¤Ħ": 6463,
      "æł¼éĽ·": 6464,
      "åħ·ä½ĵ": 6465,
      "èĦ±ç¦»": 6466,
      "è¯¥åħ¬åı¸": 6467,
      "ç¼ĸç»Ħ": 6468,
      "å¹¶è¢«": 6469,
      "çŁĽ": 6470,
      "ç¦ıå¾·": 6471,
      "æī©å±ķ": 6472,
      "å±±åı£": 6473,
      "æ¯Ĺ": 6474,
      "ä½ĵéķ¿": 6475,
      "æ²³è°·": 6476,
      "DVD": 6477,
      "1909": 6478,
      "ç§ĳå°Ķ": 6479,
      "èĭ±éĩĮ": 6480,
      "åĽ½å®¶çļĦ": 6481,
      "é¢Ĥ": 6482,
      "äº¤åĵį": 6483,
      "èµ«å°Ķ": 6484,
      "Ð¸Ñ": 6485,
      "yn": 6486,
      "åĨħéĻĨ": 6487,
      "ax": 6488,
      "ä»ĸä¹Ł": 6489,
      "å·¨å¤§": 6490,
      "æĸĩåºĵ": 6491,
      "ris": 6492,
      "æīĵçł´": 6493,
      "æĢĢçĸĳ": 6494,
      "ä¸ĭäºĨ": 6495,
      "æĪĲåĪĨ": 6496,
      "å¾ĹåĪĨ": 6497,
      "çļĦåİŁåĽł": 6498,
      "æĥ§": 6499,
      "æľ¬ä¹¦": 6500,
      "ä»¥ä¸ĬçļĦ": 6501,
      "è¿ŀè½½": 6502,
      "çİĭä½į": 6503,
      "åİŁä¸º": 6504,
      "çİ°ä¸º": 6505,
      "çŁŃæļĤ": 6506,
      "ä¾Ŀæį®": 6507,
      "å¸Ĥä¸Ńå¿ĥ": 6508,
      "ä½¿åħ¶": 6509,
      "åºļ": 6510,
      "éĺ²æŃ¢": 6511,
      "æ©¡": 6512,
      "åĳĺå¤ĸ": 6513,
      "ç©Ĺ": 6514,
      "ä¸»åĶ±": 6515,
      "åİŁä½ľ": 6516,
      "07": 6517,
      "è¯Ħä¼°": 6518,
      "æ·±åº¦": 6519,
      "åľ°äº§": 6520,
      "èĻı": 6521,
      "æ©Ħæ¦Ħ": 6522,
      "çģŃç»Ŀ": 6523,
      "é©¹": 6524,
      "ä¸ľæµ·": 6525,
      "çĶµå½±èĬĤ": 6526,
      "å®īå¾½çľģ": 6527,
      "æĶ¾åľ¨": 6528,
      "ä¸ºæŃ¤": 6529,
      "âĢĻ": 6530,
      "èĤ¾": 6531,
      "çļĦä¸ĢäºĽ": 6532,
      "çĹħä¾ĭ": 6533,
      "amp": 6534,
      "æĳ§æ¯ģ": 6535,
      "åľ°åŁŁ": 6536,
      "ç§°åĳ¼": 6537,
      "æĽ´æĸ°": 6538,
      "èļĢ": 6539,
      "åŁºéĩĳä¼ļ": 6540,
      "ç»ĳ": 6541,
      "åĩ°": 6542,
      "æµģåŁŁ": 6543,
      "æ¸¸å®¢": 6544,
      "éķ¿æ²Ļ": 6545,
      "æŃ£éĿ¢": 6546,
      "æĪĺåľº": 6547,
      "04": 6548,
      "ä¾£": 6549,
      "orn": 6550,
      "å¡ŀå°Ķç»´äºļ": 6551,
      "ç»´å¤ļåĪ©äºļ": 6552,
      "éĺ¿éĩĮ": 6553,
      "èĻ¾": 6554,
      "å¾ģæľį": 6555,
      "å¼Ģå¹ķ": 6556,
      "çĽ´æĴŃ": 6557,
      "åĪĨå¸ĥåľ¨": 6558,
      "å¼Ĺæĭī": 6559,
      "ç¿°æŀĹ": 6560,
      "æĴ°åĨĻ": 6561,
      "èĥ¡åĲĮ": 6562,
      "æľĪçĲĥ": 6563,
      "ç½Ĺé©¬å¸ĿåĽ½": 6564,
      "ä¹ĭä¸º": 6565,
      "è¥¿èĹı": 6566,
      "å¤§è¿ŀ": 6567,
      "è¯Ħä¸º": 6568,
      "éĥ½åľ¨": 6569,
      "å¹³è¡¡": 6570,
      "åı²å¯Ĩ": 6571,
      "åıªè¦ģ": 6572,
      "åĴı": 6573,
      "æ°Ķä½ĵ": 6574,
      "èģĶç»ľ": 6575,
      "å±Ĭåħ¨åĽ½": 6576,
      "åĬłå°Ķ": 6577,
      "åĽŀåĲĪ": 6578,
      "å¥ĸç«ł": 6579,
      "å»ĸ": 6580,
      "æīĢè°ĵ": 6581,
      "09": 6582,
      "åĲĬ": 6583,
      "åĲĦä¸ª": 6584,
      "èµŀåĬ©": 6585,
      "æľĪçļĦ": 6586,
      "æĶ¹å»º": 6587,
      "æıĲä¾ĽäºĨ": 6588,
      "çĥ¯": 6589,
      "act": 6590,
      "ĠåĮĹ": 6591,
      "æĸ¹ä¾¿": 6592,
      "åįķæīĵ": 6593,
      "èĭ±è¶ħ": 6594,
      "06": 6595,
      "æĮ¡": 6596,
      "å½ĵå±Ģ": 6597,
      "ĠTh": 6598,
      "çº§åĪ«": 6599,
      "äºĨä»ĸçļĦ": 6600,
      "æĬĦ": 6601,
      "ç»ĩçĶ°": 6602,
      "John": 6603,
      "ide": 6604,
      "è¿Ĳæ²³": 6605,
      "ĠMar": 6606,
      "ä¸Ĭå¸Ŀ": 6607,
      "ç§įç±»": 6608,
      "ica": 6609,
      "Ġ2019": 6610,
      "éĢļå¾Ģ": 6611,
      "ame": 6612,
      "åħ¬é¡·": 6613,
      "åĭĺ": 6614,
      "å´ĩç¥¯": 6615,
      "ä¸ĭåįĬ": 6616,
      "çº¤ç»´": 6617,
      "åħįçĸ«": 6618,
      "åŃ£åĲİèµĽ": 6619,
      "è¿ģèĩ³": 6620,
      "æİ¨å¹¿": 6621,
      "åħĶ": 6622,
      "å¤§éĢī": 6623,
      "èı²åĪ©": 6624,
      "å¼ºè°ĥ": 6625,
      "å°¼åı¤": 6626,
      "ãĥł": 6627,
      "ä¸ļä½Ļ": 6628,
      "æĦ¤": 6629,
      "ost": 6630,
      "æľĪåľ¨": 6631,
      "ĠEn": 6632,
      "å·´æĭī": 6633,
      "å±ĤçļĦ": 6634,
      "ä¸¤åĽ½": 6635,
      "ä¼ļæľī": 6636,
      "æĸ°è®¾": 6637,
      "æŁ¥å°Ķæĸ¯": 6638,
      "ä¸ĬåįĪ": 6639,
      "Ð¾Ð²": 6640,
      "æ´Ľæĸ¯": 6641,
      "age": 6642,
      "å»ºçŃĳéĿ¢ç§¯": 6643,
      "110": 6644,
      "çªĦ": 6645,
      "åħ¶ä¸Ńä¸Ģä¸ª": 6646,
      "ãĥĹ": 6647,
      "ç«£": 6648,
      "è½¦åİ¢": 6649,
      "éĩįè¿Ķ": 6650,
      "å²Ľä¸Ĭ": 6651,
      "æļ¨": 6652,
      "iel": 6653,
      "åĮºåĨħ": 6654,
      "çĶ·ä¸»è§Ĵ": 6655,
      "å¹ķåºľ": 6656,
      "éŀĭ": 6657,
      "æŀ¢çº½": 6658,
      "çĩĥæĸĻ": 6659,
      "é»ĳé¾Ļæ±Ł": 6660,
      "ãĥŁ": 6661,
      "ons": 6662,
      "çĥĤ": 6663,
      "æ´Ľéĺ³": 6664,
      "èģĶèµĽåĨłåĨĽ": 6665,
      "åĪ¶ä½ľçļĦ": 6666,
      "Ġåĳ¨": 6667,
      "ä½ĳ": 6668,
      "ĠSp": 6669,
      "éħ¿": 6670,
      "ãĥĩ": 6671,
      "å¤§åħ¬": 6672,
      "æĶ¹åĲį": 6673,
      "è¶³å¤Ł": 6674,
      "å®īä¸ľå°¼": 6675,
      "æ¼ı": 6676,
      "æī©å»º": 6677,
      "ä½ľæĽ²å®¶": 6678,
      "ä¿®éģĵéĻ¢": 6679,
      "OR": 6680,
      "åĶ¤": 6681,
      "ĠæĹ¥": 6682,
      "æĪĬ": 6683,
      "æĶ¯æµģ": 6684,
      "äº¤æµģéģĵ": 6685,
      "åľºæīĢ": 6686,
      "èį¡": 6687,
      "ä»ĸä»¬åľ¨": 6688,
      "åıįæĺł": 6689,
      "æĸ¯æ´Ľ": 6690,
      "æııç»ĺ": 6691,
      "å¹³æĪĲ": 6692,
      "éĢīç§Ģ": 6693,
      "é¦ĸçĽ¸": 6694,
      "è·¯ç«Ļ": 6695,
      "æĸ¯åį¡": 6696,
      "èĢĮä¸įæĺ¯": 6697,
      "åĨłçĬ¶": 6698,
      "æ²³åĮĹçľģ": 6699,
      "éĻĨç»Ń": 6700,
      "çļĦæ¯ĶèµĽ": 6701,
      "å¹´å¤ıåŃ£": 6702,
      "ãĥģ": 6703,
      "èº«åĪĨ": 6704,
      "åĲİåį«": 6705,
      "Ġ2004": 6706,
      "å¸Ĳ": 6707,
      "æ²ª": 6708,
      "å²ĽçļĦ": 6709,
      "ç´§æĢ¥": 6710,
      "ĠçĻ½": 6711,
      "æŃ¤æ¬¡": 6712,
      "åīįéĶĭ": 6713,
      "æ³ķè¯Ń": 6714,
      "å¹²çº¿": 6715,
      "çĲĨæĥ³": 6716,
      "è¾¹å¢ĥ": 6717,
      "éĨī": 6718,
      "ç¥ŀç§ĺ": 6719,
      "ä¿Ŀå®Ī": 6720,
      "æįī": 6721,
      "å¾Īå°ĳ": 6722,
      "åıĻè¿°": 6723,
      "åĨľæ°ĳ": 6724,
      "çĽ¸å½ĵäºİ": 6725,
      "éĥ½è¢«": 6726,
      "æĹłè®º": 6727,
      "åĪĽæĸ°": 6728,
      "çļĦæĪĲç»©": 6729,
      "æŃ¥æŀª": 6730,
      "ley": 6731,
      "ä¼ļç¤¾": 6732,
      "å½°åĮĸ": 6733,
      "iam": 6734,
      "æŁ´æ²¹æľºè½¦": 6735,
      "è¾¹ä¸º": 6736,
      "ç©Ĩæĸ¯æŀĹ": 6737,
      "æĦıè§ģ": 6738,
      "æŃĮè¯į": 6739,
      "ç«ŀæĬĢ": 6740,
      "æ±¡æŁĵ": 6741,
      "èµ·çĤ¹": 6742,
      "è½¬æį¢": 6743,
      "æĹ¶ä»£çļĦ": 6744,
      "å½ĵä»£": 6745,
      "åĺīä¹ī": 6746,
      "ames": 6747,
      "ensis": 6748,
      "ä¸Ńå°Ĩ": 6749,
      "èĭıå·ŀ": 6750,
      "åĩºåľŁ": 6751,
      "å¤´è¡Ķ": 6752,
      "åĲĮåĲį": 6753,
      "æł¼æŀĹ": 6754,
      "çº³ç²¹": 6755,
      "æĪ·éĥ¨": 6756,
      "åį¸": 6757,
      "çªĿ": 6758,
      "åı¸æ³ķ": 6759,
      "éĽķå¡ĳ": 6760,
      "å¹»æĥ³": 6761,
      "ĠâĢľ": 6762,
      "çĤŃ": 6763,
      "çĽĪ": 6764,
      "æĽ¹æĵį": 6765,
      "éĢĤåºĶ": 6766,
      "éĵĥæľ¨": 6767,
      "ĠæĿ¨": 6768,
      "ä¸Ģè¯į": 6769,
      "å¹´ä¸İ": 6770,
      "åľ¨æĸ°": 6771,
      "ãĤ¦": 6772,
      "æıĲåıĬ": 6773,
      "æĿĥåĪ©": 6774,
      "æ»¡æ´²": 6775,
      "æİ¥æĽ¿": 6776,
      "éħ®": 6777,
      "æ°Ł": 6778,
      "ä»¥æŃ¤": 6779,
      "çĲĨè§£": 6780,
      "ãĤĦ": 6781,
      "çļĦéķ¿": 6782,
      "æĸ¯æīĺ": 6783,
      "è®°å¿Ĩ": 6784,
      "åĺīåºĨ": 6785,
      "çļĦæ¯ĶèµĽä¸Ń": 6786,
      "é»Ľ": 6787,
      "èĭį": 6788,
      "çľ¼çĿĽ": 6789,
      "çļĦåŁºç¡Ģ": 6790,
      "éģĹä¼ł": 6791,
      "çļĦæĸ¹æ³ķ": 6792,
      "åķĨåĬ¡": 6793,
      "ãģł": 6794,
      "è¯¥æł¡": 6795,
      "åįķçĭ¬": 6796,
      "éĿĴå°ĳå¹´": 6797,
      "å¤§è§Ħæ¨¡": 6798,
      "æĬĽ": 6799,
      "ç¥Ī": 6800,
      "ï¼ĪãĢĬ": 6801,
      "åĪĨæł¡": 6802,
      "ä¹ĭå¤Ħ": 6803,
      "äºĨä»ĸ": 6804,
      "æĶ¯ä»ĺ": 6805,
      "ä¼ļè¢«": 6806,
      "æŃ£å¾·": 6807,
      "Ġç½Ĺ": 6808,
      "åĳ¼åĲ¸": 6809,
      "ä¸ĢçĻ¾": 6810,
      "æľīè®¸å¤ļ": 6811,
      "åº§åłĤ": 6812,
      "å¤«å¦ĩ": 6813,
      "æ¸ħæ°´": 6814,
      "ç¦ıå»ºçľģ": 6815,
      "åĪ¶å®ļ": 6816,
      "åİŁåħĪ": 6817,
      "åĴĴ": 6818,
      "å¸ĤæĶ¿åºľ": 6819,
      "ãĥ¥": 6820,
      "åı²èĴĤ": 6821,
      "è£´": 6822,
      "æ°¸ä¹ħ": 6823,
      "äºĨä¸ĢäºĽ": 6824,
      "çļĦå½¢å¼ı": 6825,
      "ä½ĵåŀĭ": 6826,
      "åı¦æľī": 6827,
      "åĩ¤åĩ°": 6828,
      "ç¥ŀç¤¾": 6829,
      "å¤©åĲİ": 6830,
      "åĬłéĢŁ": 6831,
      "è¿ĽæŃ¥": 6832,
      "æİĴåĪĹ": 6833,
      "åĨĻä½ľ": 6834,
      "çİĩåĨĽ": 6835,
      "çļĦç¾İåĽ½": 6836,
      "è§īå¾Ĺ": 6837,
      "æ¼Ĥ": 6838,
      "è¯¥åĽ½": 6839,
      "è¿ĩçļĦ": 6840,
      "èĵĦ": 6841,
      "äººå¤§": 6842,
      "éĺ²å®Ī": 6843,
      "è´§å¸ģ": 6844,
      "æĪĺæĸĹæľº": 6845,
      "æľĢä½İ": 6846,
      "are": 6847,
      "äººç§°": 6848,
      "è§ĤéŁ³": 6849,
      "ç±³äºļ": 6850,
      "çĽ´åįĩ": 6851,
      "1931": 6852,
      "ivers": 6853,
      "Ã¼": 6854,
      "é¦Ļæ¸¯éħįéŁ³": 6855,
      "æĺĶ": 6856,
      "è¾Ī": 6857,
      "æł¼åĭĴ": 6858,
      "èĵ¬": 6859,
      "æĺı": 6860,
      "éªĹ": 6861,
      "æ²Īéĺ³": 6862,
      "èĪªçıŃ": 6863,
      "Sp": 6864,
      "ä¸ĢæľŁ": 6865,
      "æ¸¯åħĥ": 6866,
      "ä»£æĽ¿": 6867,
      "è®¨ä¼Ĳ": 6868,
      "çļĦæĶ¯æĮģ": 6869,
      "æĮĩæĮ¥å®ĺ": 6870,
      "æĳĶ": 6871,
      "ĠCl": 6872,
      "å¾·åĨĽ": 6873,
      "éĿĴæĺ¥": 6874,
      "å¢ŀå¼º": 6875,
      "é¢ħ": 6876,
      "æİ©": 6877,
      "è½¦ç«Ļç»ĵæŀĦ": 6878,
      "æİ¢ç´¢": 6879,
      "å®ĪæĬ¤": 6880,
      "çļĦæĥħåĨµ": 6881,
      "ä¹¦ä¸Ń": 6882,
      "åĩºçİ°äºĨ": 6883,
      "å¸Ńä½į": 6884,
      "åĽ½å°ı": 6885,
      "å¹´ä»ĸ": 6886,
      "PS": 6887,
      "å¸¸å¸¸": 6888,
      "ver": 6889,
      "ä¹Ŀå·ŀ": 6890,
      "ä½¥": 6891,
      "åĵª": 6892,
      "å¾·å·Ŀ": 6893,
      "å¸ĥéĩĮ": 6894,
      "ä¸ªä½ĵ": 6895,
      "è¿ĳä»£": 6896,
      "äºĭåĬ¡æīĢ": 6897,
      "Ġä¸Ĭ": 6898,
      "åŀ£": 6899,
      "è§Ĩè§ī": 6900,
      "ä»»æľŁ": 6901,
      "å§Ĭå¦¹": 6902,
      "åĨħèĴĻåı¤": 6903,
      "é¢ĳçİĩ": 6904,
      "ä¹ŀ": 6905,
      "æĳĩæ»ļ": 6906,
      "èĿĻ": 6907,
      "è¯¦ç»Ĩ": 6908,
      "éĶħ": 6909,
      "è§Ĥåħī": 6910,
      "å¡Ķå°Ķ": 6911,
      "åį³å°Ĩ": 6912,
      "èĿĻèĿł": 6913,
      "çļĦæ¯įäº²": 6914,
      "å¤§æ°Ķ": 6915,
      "åıĳè¡ĮçļĦ": 6916,
      "è®¾äºİ": 6917,
      "ç»ĨèıĮ": 6918,
      "èµ·åĪĿ": 6919,
      "ç«ĭéĻ¶": 6920,
      "åľ¨ä¸Ń": 6921,
      "å¤©æ´¥å¸Ĥ": 6922,
      "Ġ+": 6923,
      "æľ¬åī§": 6924,
      "ical": 6925,
      "èĪ¹åıª": 6926,
      "å®ĮæĪĲäºĨ": 6927,
      "èĽĭçĻ½è´¨": 6928,
      "åħ¶ä¸Ńä¸Ģ": 6929,
      "çĽ¸è¿ŀ": 6930,
      "å¯¹åħ¶": 6931,
      "ä½ıæ°ĳ": 6932,
      "æ¶Ľ": 6933,
      "ï¼īãĢģãĢĬ": 6934,
      "ä¸½èİİ": 6935,
      "å·¡æ´ĭ": 6936,
      "ÉĽ": 6937,
      "å·¨å¤§çļĦ": 6938,
      "DNA": 6939,
      "çļĦåľ£": 6940,
      "çłĶç©¶ä¸Ńå¿ĥ": 6941,
      "Ġa": 6942,
      "æµ·åįĹ": 6943,
      "åľ¨èĭ±åĽ½": 6944,
      "äº¤ç»Ļ": 6945,
      "åĨ»": 6946,
      "é¸¦": 6947,
      "é¢ĨéĺŁ": 6948,
      "æĶĢ": 6949,
      "ãĥĭ": 6950,
      "å¤ªåİŁ": 6951,
      "ãĢĳ": 6952,
      "æĪĮ": 6953,
      "æµģä¼ł": 6954,
      "çĸ¯": 6955,
      "åıĽä¹±": 6956,
      "æĸ¯èĴĤ": 6957,
      "è¶ħè¶Ĭ": 6958,
      "åī¯ä¸»ä»»": 6959,
      "ãĢĲ": 6960,
      "Ph": 6961,
      "èĩªç§°": 6962,
      "ç¼Ŀ": 6963,
      "æ¡Į": 6964,
      "éĩĳåĪļ": 6965,
      "åıĻåĪ©äºļ": 6966,
      "äº¤æĺĵæīĢ": 6967,
      "å¥¸": 6968,
      "ç»ıçĶ±": 6969,
      "åĲĮæĹ¶ä¹Ł": 6970,
      "èªĵ": 6971,
      "æľīä¸ī": 6972,
      "æ±¶": 6973,
      "åįģä¸īå¹´": 6974,
      "èı©èĲ¨": 6975,
      "çļĦå¤©": 6976,
      "ãĥĵ": 6977,
      "éĽħåħ¸": 6978,
      "å®ļæľŁ": 6979,
      "ä»ĸæĽ¾": 6980,
      "ç«ĭéĻ¶å®Ľ": 6981,
      "éķĩåĮº": 6982,
      "ĠCol": 6983,
      "é»ĳæļĹ": 6984,
      "Êģ": 6985,
      "1918": 6986,
      "æİ¥èĳĹ": 6987,
      "æļĤæĹ¶": 6988,
      "åº¸": 6989,
      "ç»ıæµİåŃ¦": 6990,
      "çļĦä¸Ĭ": 6991,
      "çªģåĩº": 6992,
      "åĩºèµĽ": 6993,
      "åīįåĲİ": 6994,
      "äºĶä¸ĸ": 6995,
      "æīĵè´¥": 6996,
      "åĨłçĬ¶çĹħæ¯Ĵ": 6997,
      "çģ«è½¦": 6998,
      "ç«£å·¥": 6999,
      "èĬ½": 7000,
      "ç¥¸": 7001,
      "åĽ½åħ¬": 7002,
      "åĩĨåĨ³èµĽ": 7003,
      "å¸ĥæĶ¿ä½¿": 7004,
      "éĢļè®¯": 7005,
      "è®©ä»ĸ": 7006,
      "éĺľ": 7007,
      "æĮĩæķ°": 7008,
      "åĽ¾æ¡Ī": 7009,
      "æ¤ħ": 7010,
      "æĻ®é²ģå£«": 7011,
      "åħĪè¿Ľ": 7012,
      "å¦Ĥä»Ĭ": 7013,
      "éĢłåŀĭ": 7014,
      "æĤŁ": 7015,
      "ite": 7016,
      "å¤§å¹ħ": 7017,
      "æĭ¨": 7018,
      "ä½ĨåĽł": 7019,
      "éķ¿å¤§": 7020,
      "åĲİäºİ": 7021,
      "ãģĺ": 7022,
      "æĿ°åĩº": 7023,
      "å¤ĸåĽ´": 7024,
      "åŀĴæīĵ": 7025,
      "èŃ¦æĸ¹": 7026,
      "ä»»å¤©åłĤ": 7027,
      "æİ¥æĶ¶": 7028,
      "è´·": 7029,
      "ä¿Ŀéļľ": 7030,
      "èĳĹæľī": 7031,
      "åºĦä¸ºéĤ»": 7032,
      "æĦıåĳ³": 7033,
      "çĶ²ç»Ħ": 7034,
      "æĶ¯çº¿": 7035,
      "å§Ķæīĺ": 7036,
      "åºĨç¥Ŀ": 7037,
      "æľĢæĹ©çļĦ": 7038,
      "éĻĦåĬł": 7039,
      "æ²¿çº¿": 7040,
      "æī©å¼ł": 7041,
      "å¤§éĩıçļĦ": 7042,
      "US": 7043,
      "æīĩ": 7044,
      "äºļç¾İ": 7045,
      "åıĭè°Ĭ": 7046,
      "æĴ¤éĢĢ": 7047,
      "åĲĳä¸ľ": 7048,
      "åįıè°ĥ": 7049,
      "æĪ¿éĹ´": 7050,
      "åİĮ": 7051,
      "å·²äºİ": 7052,
      "è¾¹çļĦ": 7053,
      "éĺŁåĳĺ": 7054,
      "çº¦çĳŁå¤«": 7055,
      "åĩºèĩª": 7056,
      "ĠPro": 7057,
      "è®¾è®¡çļĦ": 7058,
      "æĹ¥åĲİ": 7059,
      "æĹ¥å¼Ģå§ĭ": 7060,
      "é¥²": 7061,
      "ä½Ļäºº": 7062,
      "éĺŁåıĭ": 7063,
      "æī£": 7064,
      "æĵ¢": 7065,
      "ç«ĻçļĦ": 7066,
      "çłĶç©¶çĶŁ": 7067,
      "æĶ¹ç¼ĸèĩª": 7068,
      "ä¹ĭå¹´åı·": 7069,
      "æĺİç¡®": 7070,
      "éĺħè¯»": 7071,
      "å¤ļäºº": 7072,
      "è¶ģ": 7073,
      "EN": 7074,
      "ä¸ľäºļ": 7075,
      "æĸ¥": 7076,
      "éĢīåĩº": 7077,
      "çĽ¸åĲĮçļĦ": 7078,
      "è¾ŀèģĮ": 7079,
      "ĠåĲ´": 7080,
      "åĪĻåľ¨": 7081,
      "åķĨåºĹ": 7082,
      "æĸ¯åł¡": 7083,
      "æĢ»ä¼ļ": 7084,
      "æĽ´å¤ļçļĦ": 7085,
      "è¡Įäºº": 7086,
      "æ¬¡åŃĲ": 7087,
      "ld": 7088,
      "åºµ": 7089,
      "åŁİå¢Ļ": 7090,
      "é¢ĨåħĪ": 7091,
      "æħķå°¼": 7092,
      "æĹħå®¢éĵģéģĵ": 7093,
      "è´¬": 7094,
      "æĽ¿ä»£": 7095,
      "é¢ł": 7096,
      "èĩªæĪĳ": 7097,
      "æħĪåĸĦ": 7098,
      "å·¡æ´ĭèĪ°": 7099,
      "ãĢģãĢĬ": 7100,
      "æ¯Ķå°Ķ": 7101,
      "èĭ±éķĳ": 7102,
      "è¶ĬæĿ¥": 7103,
      "å¹´èİ·å¾Ĺ": 7104,
      "å¤§å®¶": 7105,
      "åĨħåľ°": 7106,
      "ä¿Ĺç§°": 7107,
      "éħįéŁ³åĳĺ": 7108,
      "æ¡Ĩ": 7109,
      "éĽķåĥı": 7110,
      "åľ°ä¸Ń": 7111,
      "æ¨¡æĭŁ": 7112,
      "å¾·æĦıå¿Ĺ": 7113,
      "æľīä¸¤": 7114,
      "èī³": 7115,
      "æ»ĭ": 7116,
      "åħ¬ä¼ļ": 7117,
      "éĥ½å¾¡åı²": 7118,
      "å°±åľ¨": 7119,
      "èĳµ": 7120,
      "å¸ĸ": 7121,
      "Ġ11": 7122,
      "æĪĲäºº": 7123,
      "éĢ®æįķ": 7124,
      "åĬ¾": 7125,
      "è¯Ħå®¡": 7126,
      "ç»´ä¹Ł": 7127,
      "ç»´æĬ¤": 7128,
      "çĭ¬ç«ĭçļĦ": 7129,
      "åĪĳéĥ¨": 7130,
      "æ³ķçļĦ": 7131,
      "çĨĶ": 7132,
      "ä¸ĵçĶ¨": 7133,
      "eth": 7134,
      "ook": 7135,
      "ç§ĳçļĦ": 7136,
      "åı·ä¸º": 7137,
      "åĽ¾åĥı": 7138,
      "ä¸¾åĬŀçļĦ": 7139,
      "ÙĦ": 7140,
      "ãĥĲ": 7141,
      "æīĵè¿Ľ": 7142,
      "æ¿Ĵ": 7143,
      "åĿļæĮģ": 7144,
      "æ³Ħ": 7145,
      "ä»¥è¥¿": 7146,
      "äººçĶŁ": 7147,
      "åĩºå±Ģ": 7148,
      "åĩ¸": 7149,
      "ä¸ĸçºªçļĦ": 7150,
      "æ²¿å²¸": 7151,
      "è¶ĬæĿ¥è¶Ĭ": 7152,
      "èĤ¡æĿĥ": 7153,
      "æĿı": 7154,
      "æĥħèĬĤ": 7155,
      "é©±åĬ¨": 7156,
      "æħķå°¼é»ĳ": 7157,
      "å¾·æĸ¯": 7158,
      "è®¾è®¡å¸Ī": 7159,
      "ä¸ĵç§ĳ": 7160,
      "å¾Ĺå¥ĸ": 7161,
      "æĪĺæľ¯": 7162,
      "åİŁåĪĽ": 7163,
      "é¢Ĩäºĭ": 7164,
      "æ¸ħä»£": 7165,
      "Ġç¬¬äºĮ": 7166,
      "æ£±": 7167,
      "æĭĵè·ĭ": 7168,
      "çĶ·å¥³": 7169,
      "ä¸Ģéĥ¨": 7170,
      "åĨħæĪĺ": 7171,
      "250": 7172,
      "çļĦæĹ¥": 7173,
      "å§ĭå»ºäºİ": 7174,
      "æµ¸": 7175,
      "éĢļçĶ¨": 7176,
      "å¥ĸæľĢä½³": 7177,
      "å½ĵå¤©": 7178,
      "ç¥ĸåħĪ": 7179,
      "å¥ł": 7180,
      "ä¸įè¯¦": 7181,
      "æĶ¹è¿Ľ": 7182,
      "åĳİ": 7183,
      "åĸĿ": 7184,
      "çİ¯çĲĥ": 7185,
      "ien": 7186,
      "çī²": 7187,
      "Ġéĥĳ": 7188,
      "å°Ĩåľ¨": 7189,
      "æĺ¾èĳĹ": 7190,
      "åŃĺåľ¨çļĦ": 7191,
      "åĽ½æľī": 7192,
      "èĥĥ": 7193,
      "èĻŀ": 7194,
      "çĻ»ä¸Ĭ": 7195,
      "æ¸©æ³ī": 7196,
      "é¾Ļç±»": 7197,
      "å«©": 7198,
      "çĲĨåŃ¦": 7199,
      "æĸĮ": 7200,
      "ç§¯åĪĨ": 7201,
      "èĳ£äºĭéķ¿": 7202,
      "åŀĭçĶµåĬĽæľºè½¦": 7203,
      "çĻ¾å§ĵ": 7204,
      "è¯ĬæĸŃ": 7205,
      "gh": 7206,
      "ç¡®ä¿Ŀ": 7207,
      "è¿ªå£«": 7208,
      "ash": 7209,
      "èĢ¶å¤«": 7210,
      "çª¦": 7211,
      "åģļåĩº": 7212,
      "aul": 7213,
      "è¢ľ": 7214,
      "èŀįåĲĪ": 7215,
      "æĿĳåºĦ": 7216,
      "ans": 7217,
      "ale": 7218,
      "æĿ¥èĩªäºİ": 7219,
      "åĽļ": 7220,
      "çİ°æľī": 7221,
      "æĸ¹éĿ¢çļĦ": 7222,
      "æīĭæľº": 7223,
      "çļĦéĺ¿": 7224,
      "åįĹæĺĮ": 7225,
      "æľĢä¸º": 7226,
      "Ġ2003": 7227,
      "ium": 7228,
      "åį«éĺŁ": 7229,
      "éĴł": 7230,
      "ä¼ļä¸Ĭ": 7231,
      "ä¸įçŁ¥": 7232,
      "ĠĠĠĠ": 7233,
      "çĶµè§ĨèĬĤçĽ®": 7234,
      "ç»´ä¹Łçº³": 7235,
      "ron": 7236,
      "è¢«æĿĢ": 7237,
      "çļĦçĶŁæ´»": 7238,
      "æĸĩå¸Ŀ": 7239,
      "å¤©åºľ": 7240,
      "åħĥå¸ħ": 7241,
      "æĹĭè½¬": 7242,
      "åıĳæİĺ": 7243,
      "åĲįä¸¾äºº": 7244,
      "è¿ªå£«å°¼": 7245,
      "IT": 7246,
      "åľ¨éĤ£éĩĮ": 7247,
      "ä¸İæİ¥å£¤çļĦå¸Ĥéķĩ": 7248,
      "è¯ºæĽ¼": 7249,
      "Ġ2020": 7250,
      "çĮľ": 7251,
      "æĺĨèĻ«": 7252,
      "æĹ¥æĬ¥": 7253,
      "å±¥": 7254,
      "å¹´ä»»": 7255,
      "åĸī": 7256,
      "çĽĳçĭ±": 7257,
      "ãģĳ": 7258,
      "ç»´åħĭ": 7259,
      "æŀ«": 7260,
      "çºº": 7261,
      "ãĥ¡": 7262,
      "èĭ±åĨĽ": 7263,
      "ID": 7264,
      "éģ®": 7265,
      "ãĥĸ": 7266,
      "ä¸ŃåĽ½çļĦ": 7267,
      "å¥½è¯Ħ": 7268,
      "åĨľåľº": 7269,
      "çĹķ": 7270,
      "éħįè§Ĵ": 7271,
      "çī©çļĦ": 7272,
      "åİ¦éĹ¨": 7273,
      "åįĩæł¼ä¸º": 7274,
      "åĽłåħ¶": 7275,
      "åį°åĪ·": 7276,
      "éĢıéľ²": 7277,
      "ìĿ": 7278,
      "è¿Ļé¡¹": 7279,
      "é¢Ħå¤ĩ": 7280,
      "ä½¿çĶ¨äºĨ": 7281,
      "Äģ": 7282,
      "æ¯ıåĳ¨": 7283,
      "éģŃéģĩ": 7284,
      "ä¸Ĭæ¸¸": 7285,
      "æİĪæĿĥ": 7286,
      "ä¸ĢèģĮ": 7287,
      "åĲĦåĽ½": 7288,
      "ä¸ĸçºªåĪĿ": 7289,
      "è¾ĥå¤§": 7290,
      "ä»ħæľī": 7291,
      "çļĦåĪĨ": 7292,
      "åĮºåĪ«": 7293,
      "ãĤĪ": 7294,
      "oph": 7295,
      "éķ°": 7296,
      "èĭ±å°º": 7297,
      "ä¸İæŃ¤": 7298,
      "åįķä¸Ģ": 7299,
      "äºĭä¸Ń": 7300,
      "éĽĨçļĦ": 7301,
      "æĽ¾æĺ¯": 7302,
      "èĩĢé³į": 7303,
      "åĲĮæĹ¶ä¹Łæĺ¯": 7304,
      "ä¹¡æĿĳ": 7305,
      "èĹ¤åİŁ": 7306,
      "ĠæľĪ": 7307,
      "éĩĮè¾¾": 7308,
      "ara": 7309,
      "å°Ħåħ¥": 7310,
      "æĺİæ²»ä¸īåįģ": 7311,
      "å¾·è¯Ń": 7312,
      "çº§çļĦ": 7313,
      "1919": 7314,
      "å¾·ç½Ĺ": 7315,
      "å¹´ä¸ĸçķĮæĿ¯": 7316,
      "âĢĿï¼ī": 7317,
      "æĺŁçļĦ": 7318,
      "èĲ¥åħ»": 7319,
      "æ²Ļæ¼ł": 7320,
      "ĠRo": 7321,
      "è¾ĵåħ¥": 7322,
      "ÐºÐ°": 7323,
      "Ð¼": 7324,
      "æħ°": 7325,
      "éģĹè¿¹": 7326,
      "å¥ĸéĩĳ": 7327,
      "èı²å°Ķå¾·": 7328,
      "é«ĺæł¡": 7329,
      "èĸª": 7330,
      "me": 7331,
      "ä¸įè¦ģ": 7332,
      "ä¸»äºº": 7333,
      "èĢ¶å¾ĭ": 7334,
      "åı¸ä»¤éĥ¨": 7335,
      "æĢ»éĿ¢ç§¯": 7336,
      "åĽŀå¿Ĩ": 7337,
      "ĠLe": 7338,
      "Ġï¼ļ": 7339,
      "èº«ä¸º": 7340,
      "éĵ¶æ²³": 7341,
      "åĴ¨è¯¢": 7342,
      "ãĢĤâĢľ": 7343,
      "äºİæŃ¤": 7344,
      "éķ¶": 7345,
      "åŁİéĻħ": 7346,
      "åĢ¡": 7347,
      "ä¿Ŀè¯ģ": 7348,
      "åįłæį®": 7349,
      "ä¼łç»ŁçļĦ": 7350,
      "å¥³ç¥ŀ": 7351,
      "åŀĤçĽ´": 7352,
      "co": 7353,
      "é¢Ĩå¯¼äºº": 7354,
      "æ¢¦æĥ³": 7355,
      "ç«ŀéĢī": 7356,
      "çº³å¾·": 7357,
      "èĲ¨æĭī": 7358,
      "æĭħå½ĵ": 7359,
      "é¼ĵåĬ±": 7360,
      "å·Ŀåİ¿": 7361,
      "åĶ¯ä¸ĢçļĦ": 7362,
      "åĨħæľī": 7363,
      "å¼ķè¿Ľ": 7364,
      "åĭĴæĸ¯": 7365,
      "åľ¨ä¸Ģä¸ª": 7366,
      "èı±": 7367,
      "åĵŃ": 7368,
      "æ¹ĸå¹¿": 7369,
      "å°¸ä½ĵ": 7370,
      "ma": 7371,
      "ç¾İåĽ½çļĦ": 7372,
      "æĺ¯ä»İ": 7373,
      "çĽ¸åºĶ": 7374,
      "åħ¨åŀĴæīĵ": 7375,
      "ä¹¦åºĹ": 7376,
      "æĻ¯çĤ¹": 7377,
      "æĭīå°Ķ": 7378,
      "è§Ĵåº¦": 7379,
      "éĩİçĶŁ": 7380,
      "æĶ¶è´¹": 7381,
      "æĦŁæĥħ": 7382,
      "åĮł": 7383,
      "700": 7384,
      "å±¡": 7385,
      "åįĹèĩ³": 7386,
      "Le": 7387,
      "se": 7388,
      "åĲĦç±»": 7389,
      "çªĳ": 7390,
      "çĽ®çļĦæĺ¯": 7391,
      "NHK": 7392,
      "ĠçŁ³": 7393,
      "1929": 7394,
      "åĬłæĸ¯": 7395,
      "åįģåĽĽå¹´": 7396,
      "çĶ·åŃ©": 7397,
      "å¿ħè¦ģ": 7398,
      "å½¢å®¹": 7399,
      "åĪĽå§ĭäºº": 7400,
      "åĬłå·¥": 7401,
      "é¥¶": 7402,
      "ä»¥ä¾¿": 7403,
      "æĶ¶è§Ĩçİĩ": 7404,
      "æŃ§": 7405,
      "èĢģæĿ¿": 7406,
      "é²¨": 7407,
      "æ¨¡çī¹": 7408,
      "la": 7409,
      "ä»¥ä¸ľ": 7410,
      "æ²īç§¯": 7411,
      "çĸ«èĭĹ": 7412,
      "å¹´æ¯ķä¸ļäºİ": 7413,
      "rist": 7414,
      "åı°åĮĹå¸Ĥ": 7415,
      "åŃ¦åĽŃ": 7416,
      "é©°": 7417,
      "åı¦ä¸Ģæĸ¹éĿ¢": 7418,
      "IV": 7419,
      "åĪ©çļĦ": 7420,
      "ĠX": 7421,
      "1928": 7422,
      "çĽ¸åıį": 7423,
      "è½¯æĿ¡": 7424,
      "å®¹çº³": 7425,
      "ãģ²": 7426,
      "æ§½": 7427,
      "ä¹Łåı¯": 7428,
      "æĬ¥çº¸": 7429,
      "æľªæľī": 7430,
      "åĬŀçĲĨ": 7431,
      "å¼ºåº¦": 7432,
      "åĲİåľ¨": 7433,
      "åľ°äºļ": 7434,
      "æł¼é²ģ": 7435,
      "çĳ°": 7436,
      "å®¡åĪ¤": 7437,
      "äºĮå±Ĥ": 7438,
      "ä¼Ĺè®®éĻ¢": 7439,
      "é¥®é£Ł": 7440,
      "Ġ2021": 7441,
      "æĭīå¾·": 7442,
      "æ¬¡äºİ": 7443,
      "æĳ©å°Ķ": 7444,
      "åĽ½è¯Ń": 7445,
      "åłĢ": 7446,
      "æį·åħĭ": 7447,
      "AL": 7448,
      "åİŁåŀĭ": 7449,
      "ä¸Ģéĥİ": 7450,
      "èķĥ": 7451,
      "åĮĸä¸º": 7452,
      "æĪĺäºīä¸Ń": 7453,
      "03": 7454,
      "è°Ĳ": 7455,
      "åĨľæĿĳ": 7456,
      "ä¸¥æł¼": 7457,
      "åĪºæ¿Ģ": 7458,
      "Ġæľ¬": 7459,
      "æļĤåģľ": 7460,
      "åľ¨åĨħçļĦ": 7461,
      "äº¤æ±ĩ": 7462,
      "å®¢ä¸²": 7463,
      "èĪªçº¿": 7464,
      "æľĽè¿ľ": 7465,
      "sp": 7466,
      "çİ«": 7467,
      "åħ¥åĽ´": 7468,
      "åĪ¶æĪĲ": 7469,
      "å¤ĸè§Ĥ": 7470,
      "ä¾Ħ": 7471,
      "æ·Ģ": 7472,
      "æŃ£ç¡®": 7473,
      "æ¬§çĽŁ": 7474,
      "æĵħéķ¿": 7475,
      "åħ¶åŃĲ": 7476,
      "åĪ©çĽĬ": 7477,
      "è´¢åĬ¡": 7478,
      "å¸Įçī¹": 7479,
      "çĴĭ": 7480,
      "ä¸Ńåľº": 7481,
      "é©¬æģ©": 7482,
      "ä½İäºİ": 7483,
      "åľ¨è¥¿": 7484,
      "1922": 7485,
      "ãģĪ": 7486,
      "è¶ħçº§èģĶèµĽ": 7487,
      "åħ¬å¯ĵ": 7488,
      "åĪ°çļĦ": 7489,
      "ä¸ľæ±ī": 7490,
      "äºļå½ĵ": 7491,
      "æĶ¹è®¾": 7492,
      "åĨĢ": 7493,
      "ç¥ŀåľ£": 7494,
      "åºıåĪĹ": 7495,
      "Ġk": 7496,
      "çļĦèĥ½åĬĽ": 7497,
      "åī§ä¸Ń": 7498,
      "èľĺ": 7499,
      "æ©Ļ": 7500,
      "æ¥ł": 7501,
      "æ¹ĸåĮĹçľģ": 7502,
      "åĩ¹": 7503,
      "ç§ĳè¿Ľå£«": 7504,
      "çº¦æľī": 7505,
      "å®¢è½¦": 7506,
      "çļĦä¸ĸçķĮ": 7507,
      "æŃĮåĶ±": 7508,
      "åĪĨä¹ĭä¸Ģ": 7509,
      "éĵģè·¯å±Ģ": 7510,
      "å¹³å®ļ": 7511,
      "æ³ķåºŃ": 7512,
      "å®ŀåĬĽ": 7513,
      "æĹ±": 7514,
      "çĶŁçī©åŃ¦": 7515,
      "èĤĮèĤī": 7516,
      "çģ«è½¦ç«Ļ": 7517,
      "æ³°åĭĴ": 7518,
      "çİĭåĲİ": 7519,
      "åħĪåıĳ": 7520,
      "éĶ¥": 7521,
      "é£İæĻ¯": 7522,
      "åıĤä¸İäºĨ": 7523,
      "æĢ¨": 7524,
      "åľ£æ®¿": 7525,
      "çļĦé©¬": 7526,
      "åĲĮåŃ¦": 7527,
      "åīįè¿Ľ": 7528,
      "çĶ·äºº": 7529,
      "âĸ": 7530,
      "è¡Ģæ¶²": 7531,
      "ä¼ļè®®åĳĺ": 7532,
      "ä¸ªæĢ§": 7533,
      "èľĺèĽĽ": 7534,
      "éĩĩè®¿": 7535,
      "æĢģåº¦": 7536,
      "çļĦä¸į": 7537,
      "è¿Ļåľº": 7538,
      "åħµéĥ¨": 7539,
      "åĳĺå¤ĸéĥİ": 7540,
      "åĮºåĪĨ": 7541,
      "CC": 7542,
      "çĶ»éĿ¢": 7543,
      "å±ħå§Ķä¼ļ": 7544,
      "æ³ª": 7545,
      "åĻ¨çļĦ": 7546,
      "å®¢æĪ·": 7547,
      "åĪĩå°Ķ": 7548,
      "èģĶåĲĪä¼ļ": 7549,
      "ãĥĥãĤ¯": 7550,
      "å±±è¥¿çľģ": 7551,
      "çľŁäºº": 7552,
      "ä¼¤å®³": 7553,
      "çļĦåľ°åĮº": 7554,
      "å¹¸ç¦ı": 7555,
      "æľĽè¿ľéķľ": 7556,
      "âĦ": 7557,
      "å¤ļä¼¦": 7558,
      "åĲİç»Ń": 7559,
      "é«ĺæŀ¶": 7560,
      "èµĦåĬ©": 7561,
      "çľĭè§ģ": 7562,
      "çī©åĵģ": 7563,
      "åħ¶ä¸º": 7564,
      "çºªå½ķçīĩ": 7565,
      "è¯ŀçĶŁ": 7566,
      "è¢«å¹¶åħ¥": 7567,
      "åĶĩ": 7568,
      "Ġ2000": 7569,
      "æİ¢éĻ©": 7570,
      "æĿĢäºº": 7571,
      "æľīçĿĢ": 7572,
      "ç´¢æģ©": 7573,
      "ç©¿è¶Ĭ": 7574,
      "æĥĳ": 7575,
      "éĩįå¤į": 7576,
      "å®ĥä»¬çļĦ": 7577,
      "å¸¸åĬ¡": 7578,
      "åıĭå¥½": 7579,
      "ç¬ĥ": 7580,
      "èĢĮæĿ¥": 7581,
      "res": 7582,
      "å°§": 7583,
      "åĿ¤": 7584,
      "æ±ģ": 7585,
      "è¯¥çī©ç§įçļĦ": 7586,
      "çĽ´åįĩæľº": 7587,
      "1927": 7588,
      "å¤įæ´»": 7589,
      "èĢĥå¯Ł": 7590,
      "çģµéŃĤ": 7591,
      "rin": 7592,
      "å¹´æĪĲä¸º": 7593,
      "åĽĽå¤§": 7594,
      "çħ§é¡¾": 7595,
      "çĽ¸è¾ĥ": 7596,
      "åĿŀ": 7597,
      "ç¿¡": 7598,
      "èĮĥåĽ´åĨħ": 7599,
      "ç¬¦åı·": 7600,
      "äºļçĽ®": 7601,
      "ç¼ĸåĪ¶": 7602,
      "âĢĺ": 7603,
      "ç»´ä¿®": 7604,
      "é¢ĺæĿĲ": 7605,
      "åĽŀåºĶ": 7606,
      "ç¾İæľ¯é¦Ĩ": 7607,
      "ä¹Łæ²¡æľī": 7608,
      "ç³ķ": 7609,
      "ä¸ģçĽ®": 7610,
      "åľ°å½¢": 7611,
      "æ¼Ķèīº": 7612,
      "ä½įçļĦ": 7613,
      "ä»»æķĻ": 7614,
      "1903": 7615,
      "æ¨¡å¼ıäº§åľ°": 7616,
      "æ¶Īéĺ²": 7617,
      "æłªå¼ı": 7618,
      "åĬ¨è½¦ç»Ħ": 7619,
      "ä¼Ļä¼´": 7620,
      "éŁ¶": 7621,
      "ç¦§": 7622,
      "ata": 7623,
      "çĶºæĿĳ": 7624,
      "èĻļæŀĦ": 7625,
      "å½¢æĪĲçļĦ": 7626,
      "å£¬": 7627,
      "ett": 7628,
      "è¡¥åħħ": 7629,
      "ys": 7630,
      "åĲĳè¥¿": 7631,
      "ä¸ĭæ¸¸": 7632,
      "æĽ¾è¢«": 7633,
      "æķĻèĤ²éĥ¨": 7634,
      "ä¸ľåįĹäºļ": 7635,
      "åºĩ": 7636,
      "æĸ¯åĴĮ": 7637,
      "è´Ŀåħĭ": 7638,
      "æłªå¼ıä¼ļç¤¾": 7639,
      "è¿Ļä¹Łæĺ¯": 7640,
      "ä¸ĭæĸ¹": 7641,
      "ãĤ¬": 7642,
      "æ¸¸æĪıä¸Ń": 7643,
      "æĩ¿": 7644,
      "ram": 7645,
      "æ°®": 7646,
      "ãĤı": 7647,
      "ward": 7648,
      "Ġæĺ¯": 7649,
      "å¸¸è§Ħ": 7650,
      "çĮ¿": 7651,
      "çļĦæīĢæľī": 7652,
      "å¹´åĩºçīĪ": 7653,
      "å¼Ĥå¸¸": 7654,
      "æŃ£ä¹ī": 7655,
      "è´¹çĶ¨": 7656,
      "å¤§åĲĮ": 7657,
      "éĿ¢ä¸´": 7658,
      "å§Ĳå¦¹": 7659,
      "ç¯ĩå°ıè¯´": 7660,
      "çİĽä¸½äºļ": 7661,
      "der": 7662,
      "åĽ½éĵģ": 7663,
      "åı¤å±ĭ": 7664,
      "äº®çĽ¸": 7665,
      "æ¸¸åĩ»": 7666,
      "è°ĭæĿĢ": 7667,
      "çĽĨåľ°": 7668,
      "ç¦ıéŁ³": 7669,
      "éĻķè¥¿çľģ": 7670,
      "äºĨè®¸å¤ļ": 7671,
      "äºīå¤º": 7672,
      "çĶŁæ´»åľ¨": 7673,
      "å¾Ļ": 7674,
      "èį£èİ·": 7675,
      "è¡Ģç®¡": 7676,
      "ii": 7677,
      "ç¬Ľ": 7678,
      "å¼ŁåŃĲ": 7679,
      "å¹¶æĹł": 7680,
      "åİŁåĪĻ": 7681,
      "èī²å½©": 7682,
      "ä»įåľ¨": 7683,
      "è´¢äº§": 7684,
      "å¤§ä½¿é¦Ĩ": 7685,
      "è½¦ä½ĵ": 7686,
      "å¤ıå¤©": 7687,
      "å¤§äºĭ": 7688,
      "æīĺé©¬æĸ¯": 7689,
      "éĽĨåĲĪ": 7690,
      "åľŁå£¤": 7691,
      "3000": 7692,
      "åķ¤": 7693,
      "æ³¢çī¹": 7694,
      "åľ£è¯ŀ": 7695,
      "è¢«åıĳçİ°": 7696,
      "è¿ĻæĹ¶": 7697,
      "å¸ĥç½®": 7698,
      "æ¶¡": 7699,
      "åķĨåľº": 7700,
      "æ°¸è¿ľ": 7701,
      "å¤§åĨĽ": 7702,
      "æĢİ": 7703,
      "oll": 7704,
      "åıĳèĤ²": 7705,
      "ä¼Ĭæĭīåħĭ": 7706,
      "å¼ºçļĦ": 7707,
      "å±ħä½ıåľ¨": 7708,
      "ç¿¡ç¿ł": 7709,
      "af": 7710,
      "æķ·": 7711,
      "åĬłåĪ©äºļ": 7712,
      "çĶ°ä¸Ń": 7713,
      "ear": 7714,
      "1500": 7715,
      "æ¸ħæ¥ļ": 7716,
      "èİ±èĮµ": 7717,
      "ä¸Ģå¤©": 7718,
      "åĿŁ": 7719,
      "å±±çļĦ": 7720,
      "ä¸Ģå±Ĥ": 7721,
      "èģĶåĨĽ": 7722,
      "éĽĨä½ĵ": 7723,
      "Ġ2022": 7724,
      "éķ¿æĺ¥": 7725,
      "çľģçļĦ": 7726,
      "èĤĩ": 7727,
      "åĮĹå®ĭ": 7728,
      "çºł": 7729,
      "æµ´": 7730,
      "éħĭ": 7731,
      "1924": 7732,
      "æł¼æĭīæĸ¯": 7733,
      "åĵĪåĪ©": 7734,
      "åĬ£": 7735,
      "ä¸»åĬ¨": 7736,
      "éģĵå¤«": 7737,
      "ä¸Ģç³»åĪĹ": 7738,
      "é©¬å¾·éĩĮ": 7739,
      "çīŁ": 7740,
      "åı¯æĺ¯": 7741,
      "æİĴè¡Įæ¦ľ": 7742,
      "å¸ĥåħ°": 7743,
      "éħ¯": 7744,
      "æĴĳ": 7745,
      "æ¶ĪçģŃ": 7746,
      "çī¹æĢ§": 7747,
      "ç¥·": 7748,
      "é¦ĸåº¦": 7749,
      "å¤©æĸĩåı°": 7750,
      "ä¼ŀ": 7751,
      "æľĢæľī": 7752,
      "åºĦæĿĳ": 7753,
      "è¯»èĢħ": 7754,
      "æĪļ": 7755,
      "æ¬ł": 7756,
      "èº²": 7757,
      "ç»Ļäºĭä¸Ń": 7758,
      "å¦ĤåĲĮ": 7759,
      "æ·¡æ°´": 7760,
      "æīŃ": 7761,
      "åĢ¼å¾Ĺ": 7762,
      "UN": 7763,
      "èĤ¡ä¸ľ": 7764,
      "ä¸Ģåıª": 7765,
      "å¯¹ç§°": 7766,
      "æ¦´": 7767,
      "å®Įé¢ľ": 7768,
      "èĦĬæ¤İ": 7769,
      "Ġ,": 7770,
      "ãĤģ": 7771,
      "è£¸": 7772,
      "æį®è¯´": 7773,
      "å¸Įå°Ķ": 7774,
      "æ´¾çļĦ": 7775,
      "æİ¨æµĭ": 7776,
      "ä¸ºæľŁ": 7777,
      "å±ķçİ°": 7778,
      "éĹ¯": 7779,
      "è®¤åı¯": 7780,
      "ST": 7781,
      "ius": 7782,
      "æĪĲç«ĭäºĨ": 7783,
      "ä¸ºä¸ŃåĽ½": 7784,
      "ç¬¬ä¸Ģæ¬¡ä¸ĸçķĮå¤§æĪĺ": 7785,
      "éĻ¨çŁ³": 7786,
      "åĭĩå£«": 7787,
      "ä¸ĢæĶ¯": 7788,
      "å®¶ä¹¡": 7789,
      "å¥¥åı¤": 7790,
      "åĲİæĿ¥çļĦ": 7791,
      "å½Ĵç±»": 7792,
      "å·¨äºº": 7793,
      "æĶ¿åºľçļĦ": 7794,
      "å¢ŀåĬłäºĨ": 7795,
      "ä¹ĭä¹±": 7796,
      "è·Į": 7797,
      "è¾ĥä½İ": 7798,
      "ä¸ľåĮº": 7799,
      "åĽ´æ£ĭ": 7800,
      "è¯ĳä¸º": 7801,
      "é£ŀè¡Įåĳĺ": 7802,
      "Ġfor": 7803,
      "å®°çĽ¸": 7804,
      "æ³Į": 7805,
      "å¼ĢåĬŀ": 7806,
      "é¦ĸåºľ": 7807,
      "æŁĵèī²": 7808,
      "åŃŁåĬłæĭī": 7809,
      "åŃĲåħ¬åı¸": 7810,
      "ä¸»ç®¡": 7811,
      "èģĮåĳĺ": 7812,
      "å·¥éĥ¨": 7813,
      "åıĤè°ĭéķ¿": 7814,
      "çķľ": 7815,
      "ited": 7816,
      "ä¿ĿæĬ¤åĮº": 7817,
      "ç©¿è¿ĩ": 7818,
      "å¹´ä»¥": 7819,
      "ä¸Ĭåľº": 7820,
      "ä»İæľª": 7821,
      "åĽŀåĽ½": 7822,
      "è¿ģç§»": 7823,
      "ove": 7824,
      "ä¸Ĭæĸ¹": 7825,
      "ç¼´": 7826,
      "éħįå¤ĩ": 7827,
      "è¾£": 7828,
      "ç¦ıå·ŀ": 7829,
      "æľĿæĹ¥": 7830,
      "çº±": 7831,
      "æ£ļ": 7832,
      "åĨħäºļ": 7833,
      "ç»Ħéķ¿": 7834,
      "è¶³æĢ»": 7835,
      "é¡ºæ²»": 7836,
      "ä½ĵèĤ²é¦Ĩ": 7837,
      "ç¦»å©ļ": 7838,
      "äºĮåįģåİħ": 7839,
      "éĵĿ": 7840,
      "èĪªç©ºåħ¬åı¸": 7841,
      "åĨĽäºº": 7842,
      "æĿĳæ°ĳ": 7843,
      "æĢ»æķĻåĮº": 7844,
      "åħĭéĽ·": 7845,
      "ä¸ºé£Ł": 7846,
      "çĲĥè¿·": 7847,
      "å¯¼å¸Ī": 7848,
      "è¿ĺåľ¨": 7849,
      "çĤ¸å¼¹": 7850,
      "åİŁä½ıæ°ĳ": 7851,
      "æģĭçĪ±": 7852,
      "é»ı": 7853,
      "ä¸»ä¹īèĢħ": 7854,
      "çŃĸçķ¥": 7855,
      "æĹ¥æľ¬çļĦ": 7856,
      "è¿Ľè¡ĮçļĦ": 7857,
      "Ġ2002": 7858,
      "èŃ¦åĳĬ": 7859,
      "åĲįåı¤å±ĭ": 7860,
      "æŃĮåī§": 7861,
      "æī¿æĭħ": 7862,
      "Ġç¾İåĽ½": 7863,
      "æĺ¯ä¸ºäºĨ": 7864,
      "1900": 7865,
      "å½±è¯Ħ": 7866,
      "ÃŃ": 7867,
      "æĮĩç¤º": 7868,
      "ä¸ŃåįİèģĮæ£Ĵ": 7869,
      "ä¿±": 7870,
      "é²ģæĸ¯": 7871,
      "æĵ¦": 7872,
      "æľĪèµ·": 7873,
      "ä¼ĬåĪ©": 7874,
      "åĽ½å®¶åħ¬åĽŃ": 7875,
      "æĸ°åĮº": 7876,
      "åħĭåĬ³": 7877,
      "ï¼ī-": 7878,
      "éĩįè§Ĩ": 7879,
      "åı°ä¸Ńå¸Ĥ": 7880,
      "äºĭå®ŀä¸Ĭ": 7881,
      "åĵĪå°Ķæ»¨": 7882,
      "äºļç¾İå°¼äºļ": 7883,
      "äººä¸º": 7884,
      "éĥĳå·ŀ": 7885,
      "æĹ¥çĶ±": 7886,
      "æĺİä»£": 7887,
      "æĺŁéĻħ": 7888,
      "æĥ³æ³ķ": 7889,
      "èµ¢å¾ĹäºĨ": 7890,
      "ä¸įå¾Ĺä¸į": 7891,
      "é¡ºåºı": 7892,
      "MA": 7893,
      "èµĽçļĦ": 7894,
      "æĶ»åħ¥": 7895,
      "åįĹå®ĭ": 7896,
      "çī¹çĥĪ": 7897,
      "ç§ĺä¹¦éķ¿": 7898,
      "IP": 7899,
      "æ¯ıæ¬¡": 7900,
      "åĪĿå¹´": 7901,
      "é¢Ħç®Ĺ": 7902,
      "è·µ": 7903,
      "ana": 7904,
      "1905": 7905,
      "å¤§å¸Ŀ": 7906,
      "å«¡": 7907,
      "eph": 7908,
      "æĮº": 7909,
      "éĢłæĪĲçļĦ": 7910,
      "èŀºæĹĭ": 7911,
      "my": 7912,
      "çļĦè¥¿": 7913,
      "ãĥ§": 7914,
      "å¹¿å²Ľ": 7915,
      "ork": 7916,
      "éªļ": 7917,
      "æµĳ": 7918,
      "å¤©æ°Ķ": 7919,
      "æµģåĬ¨": 7920,
      "éĻ¤æŃ¤": 7921,
      "åįģäºĶå¹´": 7922,
      "åŃ£èĬĤ": 7923,
      "ä»£è¡¨å¤§ä¼ļ": 7924,
      "èĭ¹": 7925,
      "è¯¥åī§": 7926,
      "åį°è±¡": 7927,
      "çĭ©": 7928,
      "ald": 7929,
      "èħĵçī¹çĥĪ": 7930,
      "1923": 7931,
      "æĹ¥è¯Ń": 7932,
      "æľīä¸¤ä¸ª": 7933,
      "ç§ĳä¼ļè¯ķ": 7934,
      "è°ĪåĪ¤": 7935,
      "ail": 7936,
      "å¤ļæł·": 7937,
      "åľ¨ä»ĸçļĦ": 7938,
      "æľºåĬ¨": 7939,
      "çī¹å°Ķ": 7940,
      "çīĩå°¾": 7941,
      "åŀĭæľºè½¦": 7942,
      "çĳ¶": 7943,
      "éĢģåĪ°": 7944,
      "æ²ĥå°Ķ": 7945,
      "æĢ»åĨ³èµĽ": 7946,
      "è´ª": 7947,
      "æ£ĭåŃĲ": 7948,
      "ä¸¢": 7949,
      "å¯ħ": 7950,
      "åķ¦": 7951,
      "åĽŃåĮº": 7952,
      "åĴĮä»ĸçļĦ": 7953,
      "eter": 7954,
      "ç¿Įå¹´": 7955,
      "éħ°": 7956,
      "ä¸įåıĺ": 7957,
      "åħ±è®¡": 7958,
      "éĥ¡çİĭ": 7959,
      "å·¦ç¿¼": 7960,
      "ç¥Ńç¥Ģ": 7961,
      "çĬ¹å¤ªäºº": 7962,
      "åĩºçİ°çļĦ": 7963,
      "ä¸ĢçŃī": 7964,
      "å¹³å®ī": 7965,
      "çģ°èī²": 7966,
      ")ï¼Ī": 7967,
      "MS": 7968,
      "ĠåŃĻ": 7969,
      "éħ±": 7970,
      "IG": 7971,
      "åĩºæĿ¥çļĦ": 7972,
      "å¹´ä¸Ń": 7973,
      "å·¥åķĨ": 7974,
      "ä¹ĭéĻħ": 7975,
      "å¸ĪèĮĥå¤§åŃ¦": 7976,
      "åĽ´ç»ķ": 7977,
      "Ġåīį": 7978,
      "ä¿ĿåĬłåĪ©äºļ": 7979,
      "æĹ©æľŁçļĦ": 7980,
      "çī§å¸Ī": 7981,
      "âĦĥ": 7982,
      "åĢ¾åĲĳ": 7983,
      "è·¯ä¸Ĭ": 7984,
      "å¹´çĲĥåŃ£": 7985,
      "åı¸æľº": 7986,
      "æĹ§åĿĢ": 7987,
      "åĵº": 7988,
      "å½¢çļĦ": 7989,
      "Ġç¬¬ä¸Ģ": 7990,
      "ä¹ĭåĲį": 7991,
      "å¨ģå°¼æĸ¯": 7992,
      "éĺ¶çº§": 7993,
      "æľĶ": 7994,
      "åľ¨ä½į": 7995,
      "æī§æķĻ": 7996,
      "æ±¤å§Ĩ": 7997,
      "çļĦæľºä¼ļ": 7998,
      "çĻ»è®°": 7999,
      "Ġ2001": 8000,
      "æł½": 8001,
      "å¯»æ±Ĥ": 8002,
      "El": 8003,
      "æĬĢå·§": 8004,
      "112": 8005,
      "åĭ¾": 8006,
      "å¯Įæ±Ĺ": 8007,
      "éĩįç»Ħ": 8008,
      "æ¬º": 8009,
      "å§ĭäºİ": 8010,
      "åĲīä»ĸ": 8011,
      "çĭ®åŃĲ": 8012,
      "èµĽé©¬": 8013,
      "å§Ķä¹¦è®°": 8014,
      "çº¿ä¸Ĭ": 8015,
      "æĴŃæĺł": 8016,
      "çħĮ": 8017,
      "å¹´æľŁéĹ´": 8018,
      "çŃĭ": 8019,
      "èĬĤå¥ı": 8020,
      "åħĭæĸ¯åĿ¦": 8021,
      "çĽĴ": 8022,
      "è´¹å°Ķ": 8023,
      "ç»Ŀå¯¹": 8024,
      "è¡įçĶŁ": 8025,
      "åı²å¯Ĩæĸ¯": 8026,
      "æĺ¯èĭ±åĽ½": 8027,
      "æĺ¯ä¸Ģå®¶": 8028,
      "åĲĮæĢ§": 8029,
      "ä¾¦æİ¢": 8030,
      "åĪĨæĪĲ": 8031,
      "ä¸¤æĿ¡": 8032,
      "éĢĶå¾Ħ": 8033,
      "åı¯åľ¨": 8034,
      "åĲįèªī": 8035,
      "å½ķåĪ¶": 8036,
      "åį°ç¬¬": 8037,
      "IR": 8038,
      "ek": 8039,
      "ress": 8040,
      "Ġåľ£": 8041,
      "æīĭä¸Ń": 8042,
      "å¼Ģå§ĭåľ¨": 8043,
      "åľ°ä¸Ńæµ·": 8044,
      "åįģåħŃå¹´": 8045,
      "æ¸ħåįİ": 8046,
      "åĪ¶åĵģ": 8047,
      "åħĪéĶĭ": 8048,
      "è¿ªäºļ": 8049,
      "å¥¥æĸ¯æĽ¼": 8050,
      "çĤ³": 8051,
      "æıĲè®®": 8052,
      "çĶ²çº§èģĶèµĽ": 8053,
      "åķ¤éħĴ": 8054,
      "è´¨çĸĳ": 8055,
      "é±¼éĽ·": 8056,
      "ä¼¦æĸ¯": 8057,
      "åĲİæĸ¹": 8058,
      "æĢ»å±Ģ": 8059,
      "å½ķå½±": 8060,
      "å¥¹æĺ¯": 8061,
      "ä¹łæĥ¯": 8062,
      "è§Ĥçľĭ": 8063,
      "é¦ĸé¢Ĩ": 8064,
      "çĶ±è¯¥": 8065,
      "æĶ¿åįı": 8066,
      "ç¡ķå£«åŃ¦ä½į": 8067,
      "Ã¶": 8068,
      "å¥ķ": 8069,
      "æ¼Ĩ": 8070,
      "ä¼łåĬ¨": 8071,
      "ä¹ĭåľ°": 8072,
      "ank": 8073,
      "å¡Į": 8074,
      "è¡ĹåºĦ": 8075,
      "Ġèµµ": 8076,
      "ç»§ä»»": 8077,
      "ä¸»æķĻåº§åłĤ": 8078,
      "çī©çĲĨåŃ¦": 8079,
      "åħĭåĪ©": 8080,
      "è®¤è¯ģ": 8081,
      "Ñĸ": 8082,
      "åľ¨åīį": 8083,
      "1925": 8084,
      "æµ·çĽĹ": 8085,
      "èĽ®": 8086,
      "éĩĮæĺĤ": 8087,
      "åĪĹåĩº": 8088,
      "æĽ´æį¢": 8089,
      "çłĶåĪ¶": 8090,
      "å£°æĺİ": 8091,
      "æııåĨĻ": 8092,
      "äººæ°Ķ": 8093,
      "æ¢ĵ": 8094,
      "ç¦ıåĨĪ": 8095,
      "åĨįè½¬": 8096,
      "å¹²éĥ¨": 8097,
      "ä¼ĳæģ¯": 8098,
      "çĹħéĢĿ": 8099,
      "è®¸åı¯": 8100,
      "åºĲ": 8101,
      "åĸ»": 8102,
      "èĲĮ": 8103,
      "åĽ¢éķ¿": 8104,
      "ç§ģç«ĭ": 8105,
      "èĩ´åĬĽ": 8106,
      "åľºçļĦ": 8107,
      "çŁ³å¤´": 8108,
      "åģĩè®¾": 8109,
      "æ·»åĬł": 8110,
      "åĬłåĭĴ": 8111,
      "åĩŃåĢŁ": 8112,
      "æĶ¾éĢģ": 8113,
      "Ġç¥ŀ": 8114,
      "Î¿": 8115,
      "éģĵçļĦ": 8116,
      "ç§°ä¹ĭä¸º": 8117,
      "åħ³èĬĤ": 8118,
      "äºĳåįĹçľģ": 8119,
      "ä¹ĲåĽŃ": 8120,
      "å½Ĺ": 8121,
      "å·´èµ«": 8122,
      "ru": 8123,
      "èĥĢ": 8124,
      "åį°ç¬¬å®ī": 8125,
      "éĽĦæĢ§": 8126,
      "ein": 8127,
      "è¯Ľ": 8128,
      "çĲĨçĶ±": 8129,
      "åĪĻæľī": 8130,
      "ä½ĲèĹ¤": 8131,
      "æĹ¥å¸¸": 8132,
      "æľ¬åĲį": 8133,
      "é«ĺåİŁ": 8134,
      "æĪĲæŀľ": 8135,
      "å»¿": 8136,
      "æŁľ": 8137,
      "æīĺå°Ķ": 8138,
      "å¤ºåıĸ": 8139,
      "1917": 8140,
      "æłĩé¢ĺ": 8141,
      "æĭľåįł": 8142,
      "éĢīæĭĶ": 8143,
      "å¹´ä¸Ĭæĺł": 8144,
      "æĭ¯": 8145,
      "éĽģ": 8146,
      "CH": 8147,
      "na": 8148,
      "æķ°çļĦ": 8149,
      "è§ĦèĮĥ": 8150,
      "çĻ¸": 8151,
      "å®½åº¦": 8152,
      "æĹ¶éĴĪ": 8153,
      "åľ¨åįĹ": 8154,
      "åīįæĿ¥": 8155,
      "ä½Ĩåį´": 8156,
      "æĶ¶åĪ°": 8157,
      "çĳľ": 8158,
      "èįīåİŁ": 8159,
      "åıĳçĶŁäºĨ": 8160,
      "ä¾Ŀèµĸ": 8161,
      "ä¸ºæĸ°": 8162,
      "é©¬åĬĽ": 8163,
      "æĪĺä¸Ń": 8164,
      "æ°¸ä¹Ĳ": 8165,
      "çĶµå½±çļĦ": 8166,
      "Ġ#": 8167,
      "å¾·åħĭ": 8168,
      "æķ°åįģ": 8169,
      "å±ĭé¡¶": 8170,
      "æĸ¯åĽ¾": 8171,
      "ä¸ľè·¯": 8172,
      "åĲĮæŃ¥": 8173,
      "æĭħå¿ĥ": 8174,
      "illiam": 8175,
      "Ġst": 8176,
      "ä¿¡å¾Ĵ": 8177,
      "ä¸ĵåĮº": 8178,
      "ä¼ģåĽ¾": 8179,
      "Qu": 8180,
      "èĩªæŃ¤": 8181,
      "å¤ļé¡¹": 8182,
      "å½¼æŃ¤": 8183,
      "èº«äº¡": 8184,
      "lex": 8185,
      "åĲıéĥ¨": 8186,
      "å°Ĩäºİ": 8187,
      "æĭ¿çł´": 8188,
      "æĦ¿æĦı": 8189,
      "è¯¥çī©ç§įçļĦæ¨¡å¼ıäº§åľ°": 8190,
      "Ġæ°´": 8191,
      "ç¼Ķ": 8192,
      "çĦ°": 8193,
      "å¤ıå¨ģ": 8194,
      "ç«ĻæĪ¿": 8195,
      "å¯ĨåĪĩ": 8196,
      "æĹ¨åľ¨": 8197,
      "æĺ¯ä¸Ńåįİäººæ°ĳåħ±åĴĮåĽ½": 8198,
      "ç½ķé»ĺ": 8199,
      "com": 8200,
      "çº³åħ¥": 8201,
      "æī§æĶ¿": 8202,
      "ç«ĭæĸ¹ç±³": 8203,
      "å¹´æ¬§æ´²": 8204,
      "æĹ¥åıĳè¡Į": 8205,
      "è°¨": 8206,
      "ç±»ä¼¼çļĦ": 8207,
      "å¤¸": 8208,
      "å¤ªç¥ĸ": 8209,
      "æīĵå¼Ģ": 8210,
      "ä¿¡éķ¿": 8211,
      "åıĳçİ°äºİ": 8212,
      "æĻºèĥ½": 8213,
      "ount": 8214,
      "ãĥı": 8215,
      "éĶ¯": 8216,
      "ç»ĵå±Ģ": 8217,
      "å·ŀéķ¿": 8218,
      "1926": 8219,
      "æĽ¾ä¸º": 8220,
      "çļĦæĦıæĢĿ": 8221,
      "å§Ķä»»": 8222,
      "æ¤Ń": 8223,
      "æĻºåĪ©": 8224,
      "åĨ·åį´": 8225,
      "PC": 8226,
      "çĶ¨ä»¥": 8227,
      "æ¹Ľ": 8228,
      "å¹¿å·ŀå¸Ĥ": 8229,
      "è½¬æĬķ": 8230,
      "å®Ĺå®¤": 8231,
      "å»¶ç»Ń": 8232,
      "åħīè°±": 8233,
      "çŁ¿çī©": 8234,
      "ç¿°æŀĹéĻ¢": 8235,
      "è¿ŀç»ĵ": 8236,
      "æ±īè¯Ń": 8237,
      "ç»Ħç»ĩçļĦ": 8238,
      "å½¬": 8239,
      "å°Ĩä»ĸ": 8240,
      "æŃ¤äºĭ": 8241,
      "Ñı": 8242,
      "å°±è¯»äºİ": 8243,
      "å¹´æĪĲç«ĭ": 8244,
      "å¤ıå¨ģå¤·": 8245,
      "åı¤èĢģçļĦ": 8246,
      "FC": 8247,
      "çļĦåľ°ä½į": 8248,
      "æ©ĺ": 8249,
      "åĲįåı«": 8250,
      "è°ķ": 8251,
      "åıĤè®®éĻ¢": 8252,
      "Ìĥ": 8253,
      "çļĦåĽĽ": 8254,
      "ç»¥": 8255,
      "ä½Ľç½ĹéĩĮè¾¾": 8256,
      "éª¨éª": 8257,
      "æ³ķä»¤": 8258,
      "åıĤæĶ¿": 8259,
      "éĩĩçĶ¨äºĨ": 8260,
      "æĭ¿çł´ä»ĳ": 8261,
      "å¹´ä»¥æĿ¥": 8262,
      "å§Ĳå§Ĳ": 8263,
      "éĺ¿å¯Įæ±Ĺ": 8264,
      "Pro": 8265,
      "åıĸå¾ĹäºĨ": 8266,
      "è·¯å¾·": 8267,
      "æµģéĩı": 8268,
      "1912": 8269,
      "è¯¥åľ°åĮº": 8270,
      "ä»ħæ¬¡äºİ": 8271,
      "å©ļç¤¼": 8272,
      "ä¸ĬéĿ¢": 8273,
      "å¤±è¸ª": 8274,
      "é»Ħæ²³": 8275,
      "ä¹ĭåĲİçļĦ": 8276,
      "éĵģè·¯è½¦ç«Ļ": 8277,
      "å½±å±ķ": 8278,
      "åĸľçĪ±": 8279,
      "Î²": 8280,
      "åİ¿çŁ¥åİ¿": 8281,
      "çĳļ": 8282,
      "å©·": 8283,
      "è¯ºè´Ŀå°Ķ": 8284,
      "åİī": 8285,
      "æľºç»Ħ": 8286,
      "çĵ£": 8287,
      "ç»§ä½į": 8288,
      "çĩ¥": 8289,
      "è¡Įé©¶": 8290,
      "Fran": 8291,
      "å¹¶æľī": 8292,
      "å¾Ĺä¸»": 8293,
      "åĳ¨åĪĬ": 8294,
      "èĤ¿çĺ¤": 8295,
      "ãĤĨ": 8296,
      "åŀ©": 8297,
      "æĹ¥è¢«": 8298,
      "å®£ç§°": 8299,
      "çªģåĩ»": 8300,
      "Ġæµ·": 8301,
      "ç¬¬äºĮä¸ª": 8302,
      "çļĦåĲįç§°": 8303,
      "åħ¨åı°": 8304,
      "çº³æĸ¯": 8305,
      "éĵ¶çīĮ": 8306,
      "ç¾İåĽ½æµ·åĨĽ": 8307,
      "ĠBl": 8308,
      "æľºåĻ¨äºº": 8309,
      "æĹłéĻĲ": 8310,
      "è§Ĥèµı": 8311,
      "åĨ¥": 8312,
      "å¦Ĩ": 8313,
      "æ¬¡åĪĹè½¦": 8314,
      "å¼§": 8315,
      "ç²ĺ": 8316,
      "åľ¨åı°æ¹¾": 8317,
      "å¹´çĶµå½±": 8318,
      "æĢ»ç»ıçĲĨ": 8319,
      "åĽ½ä¸Ń": 8320,
      "ç«ĸ": 8321,
      "ä¸ģåł¡": 8322,
      "eor": 8323,
      "ä¸ĬåįĬ": 8324,
      "åĪĨåĮº": 8325,
      "çĥ¦": 8326,
      "çĤ¹çļĦ": 8327,
      "èģļéĽĨ": 8328,
      "åıĬåĲİ": 8329,
      "æĻ¶ä½ĵ": 8330,
      "æ²³éģĵ": 8331,
      "åıĤçľĭ": 8332,
      "ç©Ĩç½ķé»ĺ": 8333,
      "åģľè½¦åľº": 8334,
      "æŃ¤åľ°": 8335,
      "æµªæ¼«": 8336,
      "æł¹æľ¬": 8337,
      "è¿½æ±Ĥ": 8338,
      "åĿĲèĲ½": 8339,
      "å·´å¡ŀ": 8340,
      "ç»ĥä¹ł": 8341,
      "è£Ķç¾İåĽ½": 8342,
      "åİŁçĲĨ": 8343,
      "å¤ļä¼¦å¤ļ": 8344,
      "1921": 8345,
      "åĮ»èį¯": 8346,
      "å·¥ä½ľäººåĳĺ": 8347,
      "ä¸īä½į": 8348,
      "éĻĲå®ļ": 8349,
      "ç§ŁçķĮ": 8350,
      "åħ°å·ŀ": 8351,
      "äºīåıĸ": 8352,
      "äºĴåĬ¨": 8353,
      "å¦Īå¦Ī": 8354,
      "æ´»æĢ§": 8355,
      "åľ¨æ³ķåĽ½": 8356,
      "çĽ²": 8357,
      "åīĮ": 8358,
      "èµĽåĨłåĨĽ": 8359,
      "åĬ¨å·¥": 8360,
      "olog": 8361,
      "å¿«ä¹Ĳ": 8362,
      "è°¢å°Ķ": 8363,
      "åĴ¸ä¸°": 8364,
      "ä¸Ģå¼Ģå§ĭ": 8365,
      "è°£": 8366,
      "ä½Ĩä¸į": 8367,
      "ä¿®æŃ£": 8368,
      "é¢Ħæµĭ": 8369,
      "ä¼ĲåĪ©äºļ": 8370,
      "ãĥĳ": 8371,
      "æĹıç¾¤": 8372,
      "æŃ»åİ»": 8373,
      "æĲºå¸¦": 8374,
      "åŀĭåı·": 8375,
      "ase": 8376,
      "ç§»å±ħ": 8377,
      "ĠåĪ¶ä½ľ": 8378,
      "åĪĨè§£": 8379,
      "å¥³äºº": 8380,
      "ts": 8381,
      "çļĦå¦»åŃĲ": 8382,
      "âĢ»": 8383,
      "æľ¬æĿ¥": 8384,
      "åĬłä»¥": 8385,
      "å®¿èĪį": 8386,
      "ä¸Ģéĥ¨åĪĨ": 8387,
      "ä¸īæ¬¡": 8388,
      "ç»ŃéĽĨ": 8389,
      "è¾ĥé«ĺ": 8390,
      "åįģäºĮåİħ": 8391,
      "éģĵå¾·": 8392,
      "âĢĶâĢĶãĢĬ": 8393,
      "è¯ĨåĪ«": 8394,
      "æĭĽçĶŁ": 8395,
      "åħ¬åŃĲ": 8396,
      "æľĢåıĹæ¬¢è¿İ": 8397,
      "å½¢çĽ®": 8398,
      "åĴĮå¤§": 8399,
      "åħ¬æ¼Ķ": 8400,
      "çī¹åĮº": 8401,
      "æľ¬å±Ĭ": 8402,
      "æľºæŀª": 8403,
      "åĪĽä½ľçļĦ": 8404,
      "æĺİæĺ¾çļĦ": 8405,
      "1914": 8406,
      "åŃ¦éĥ¨": 8407,
      "å®ĥåľ¨": 8408,
      "ç¡¬æ£ĺ": 8409,
      "æĹ¶åĪ»": 8410,
      "éĽ·è¾¾": 8411,
      "æĶ»åįł": 8412,
      "ç»°": 8413,
      "æĺ¯ä¸į": 8414,
      "å½±åĥı": 8415,
      "è½¬ä¸º": 8416,
      "çİ°å·²": 8417,
      "éģŃåıĹ": 8418,
      "ç»ıçºª": 8419,
      "ins": 8420,
      "çĻ¾å¹´": 8421,
      "çĭ¬çī¹çļĦ": 8422,
      "ä»£çłģ": 8423,
      "å¹¸åŃĺ": 8424,
      "æĺĨæĺİ": 8425,
      "Ġï¼ī": 8426,
      "çºĤ": 8427,
      "æĹ©åľ¨": 8428,
      "Com": 8429,
      "èı²åĪ©æĻ®": 8430,
      "Ñĭ": 8431,
      "æĭľåįłåºŃ": 8432,
      "åĩºèī²": 8433,
      "åİ¿åŁİ": 8434,
      "æ´ĭåŁº": 8435,
      "éķľå¤´": 8436,
      "ä¼Ĳåħĭ": 8437,
      "è¾½å®ģçľģ": 8438,
      "åĬĽåŃ¦": 8439,
      "And": 8440,
      "ĠæĿ¾": 8441,
      "éĩĮéĿ¢": 8442,
      "åĬłåĪ©ç¦ıå°¼äºļå·ŀ": 8443,
      "åĳ½è¿Ĳ": 8444,
      "æĻ®æĭī": 8445,
      "å§ĵæ°ı": 8446,
      "Ã³": 8447,
      "åĪł": 8448,
      "æĹ¥ä¸¾è¡Į": 8449,
      "åĲĮæ²»": 8450,
      "Ġä¸Ģ": 8451,
      "å¹´äºİ": 8452,
      "åĲĹ": 8453,
      "åĮĹç¾İæ´²": 8454,
      "1889": 8455,
      "EC": 8456,
      "ä½£": 8457,
      "ãĤį": 8458,
      "è®¤ä¸ºæĺ¯": 8459,
      "å¼Ĺåħ°": 8460,
      "åįĹæµ·": 8461,
      "åįİè¯Ń": 8462,
      "éĽĨåĽ¢æľīéĻĲåħ¬åı¸": 8463,
      "åŃĺåľ¨äºİ": 8464,
      "åİ»ä¸ĸåĲİ": 8465,
      "ä»ĸå¯¹": 8466,
      "åĨĽåľ¨": 8467,
      "å¥ĸçīĮ": 8468,
      "äº§çĶŁäºĨ": 8469,
      "çļĦåĽ½éĻħ": 8470,
      "130": 8471,
      "å¥´éļ¶": 8472,
      "çĲīçĲĥ": 8473,
      "ç¼¸": 8474,
      "æ»¤": 8475,
      "èĲ¨æĸ¯å·ŀ": 8476,
      "åĶĲä»£": 8477,
      "èĲ¨åħĭæ£®": 8478,
      "ç½©": 8479,
      "å¤ļä¸º": 8480,
      "åĨ³èµĽä¸Ń": 8481,
      "è½¬åĲĳæŀ¶": 8482,
      "è·ĳéģĵ": 8483,
      "ve": 8484,
      "ç¬ł": 8485,
      "å°±ä»»": 8486,
      "eng": 8487,
      "èį«": 8488,
      "ance": 8489,
      "å¤ªå®Ĺ": 8490,
      "åģļä¸º": 8491,
      "å½»åºķ": 8492,
      "æŃ¦çĶ°": 8493,
      "çģŃäº¡": 8494,
      "æ··åĩĿ": 8495,
      "ET": 8496,
      "ç§©": 8497,
      "åħ¶é¡¿": 8498,
      "å°ºå¯¸": 8499,
      "æ¬¡éĥİ": 8500,
      "çļĦç»ĵæŀľ": 8501,
      "åĩºåĵģ": 8502,
      "åĪĨåī²": 8503,
      "èµĶ": 8504,
      "æĪĺç»©": 8505,
      "åĸĩ": 8506,
      "ä¼Ĺäºº": 8507,
      "ä¹ŁåĽłæŃ¤": 8508,
      "éĢļçŁ¥": 8509,
      "å¹´åº¦æľĢä½³": 8510,
      "æĳĺ": 8511,
      "ä¸Ģèĩ³": 8512,
      "åĮĹå¸Ĥ": 8513,
      "çī©ä½ĵ": 8514,
      "ç¦ıçī¹": 8515,
      "Ġèī¾": 8516,
      "æľīçº¿": 8517,
      "ä¼ļè®¡": 8518,
      "å¹´è½»çļĦ": 8519,
      "å®Įæķ´çļĦ": 8520,
      "å®ļä½į": 8521,
      "æĶ¾å°Ħ": 8522,
      "è°ĥèĬĤ": 8523,
      "æĽ¿è¡¥": 8524,
      "ç²ĴåŃĲ": 8525,
      "äºĭæĥħ": 8526,
      "åĽ¢çļĦ": 8527,
      "ä¼įå¾·": 8528,
      "æĴŃåĩºçļĦ": 8529,
      "çŃīå¾ħ": 8530,
      "éŁ³ä¹Ĳä¼ļ": 8531,
      "æłĸæģ¯åľ¨": 8532,
      "å·´æĸ¯": 8533,
      "æīĢéľĢ": 8534,
      "çĶµæ°ĶåĮĸ": 8535,
      "ï¹": 8536,
      "å©´åĦ¿": 8537,
      "å¼ºå¤§çļĦ": 8538,
      "é¥ŃåºĹ": 8539,
      "åĵ©": 8540,
      "åĪĹå®ģ": 8541,
      "åĵĪéĩĮ": 8542,
      "ç²®é£Ł": 8543,
      "ç§ī": 8544,
      "åħ·å¤ĩ": 8545,
      "å£°ä¼ĺ": 8546,
      "ç¬¬ä¸īæ¬¡": 8547,
      "æĲŀ": 8548,
      "éĴ¢éĵģ": 8549,
      "áŀ": 8550,
      "æ°ĶæĹĭ": 8551,
      "è¯¸èĳĽ": 8552,
      "å®Įç¾İ": 8553,
      "ä¼¯æł¼": 8554,
      "é«ĺäºİ": 8555,
      "ç¦ıå°Ķ": 8556,
      "æı´åĬ©": 8557,
      "çİ«çĳ°": 8558,
      "é¦ĸå°Ķ": 8559,
      "é»İæĺİ": 8560,
      "æŀ¢æľº": 8561,
      "éĺŁåľ¨": 8562,
      "åŁł": 8563,
      "åįĹè·¯": 8564,
      "æĭīçļĦ": 8565,
      "éĤ¨": 8566,
      "åħĥæľĿ": 8567,
      "ç°§": 8568,
      "éĤ¸": 8569,
      "æĪĺè´¥": 8570,
      "å¢©": 8571,
      "åĪ©çī©": 8572,
      "è®¾åľ¨": 8573,
      "å·´ä¼ĲåĪ©äºļ": 8574,
      "ä¸ĸçķĮçļĦ": 8575,
      "èĩªè¡Įè½¦": 8576,
      "ä¸ºå¤§": 8577,
      "ä»¥åħ¶": 8578,
      "æĹıèĩªæ²»": 8579,
      "Bl": 8580,
      "éĽ¯": 8581,
      "çİĭå®¤": 8582,
      "ä¸ĸçķĮå¤§èµĽ": 8583,
      "å®«æ®¿": 8584,
      "æķĪçİĩ": 8585,
      "ä¸ĭå±ŀ": 8586,
      "é¦ĸæī¹": 8587,
      "éĴ©": 8588,
      "èŁ¹": 8589,
      "åİĦå°Ķ": 8590,
      "Ġä¸İ": 8591,
      "èµ£": 8592,
      "è¯ĹæŃĮ": 8593,
      "æĽ´æĺ¯": 8594,
      "ç§ĳçłĶ": 8595,
      "çĭ¸": 8596,
      "çĻ½åŀ©": 8597,
      "åĳ¨æľ«": 8598,
      "åĽłåŃĲ": 8599,
      "å°±æľī": 8600,
      "åħīç¦Ħ": 8601,
      "è¯»ä¹¦": 8602,
      "ç§ŁåĢŁ": 8603,
      "ert": 8604,
      "ä¸īå¤§": 8605,
      "æĪĸç§°": 8606,
      "En": 8607,
      "è®¼": 8608,
      "æİ¥ä»»": 8609,
      "åĵºä¹³": 8610,
      "æ··åĩĿåľŁ": 8611,
      "çļĦå±±": 8612,
      "çļĦåŃ¦çĶŁ": 8613,
      "çĽ´å±ŀ": 8614,
      "å¯¹æĪĺ": 8615,
      "éħįä¹Ĳ": 8616,
      "è´¹åŁİ": 8617,
      "è½¬ä»»": 8618,
      "æīĭæŀª": 8619,
      "åĩłåĨħäºļ": 8620,
      "ä¸»æĴŃ": 8621,
      "æĢ»äººåı£": 8622,
      "åľ¨è¿ĻéĩĮ": 8623,
      "åľ¨å½ĵæĹ¶": 8624,
      "1911": 8625,
      "ç«Ļèĩ³": 8626,
      "çľŁèıĮ": 8627,
      "äººæ°ĳæ³ķéĻ¢": 8628,
      "ĠMus": 8629,
      "å§Ķåĳĺä¼ļå§Ķåĳĺ": 8630,
      "æ´ªæ°´": 8631,
      "å¦¾": 8632,
      "éĥ½ä¸į": 8633,
      "æıĲåīį": 8634,
      "ç®ĢåİĨ": 8635,
      "ä½¿èĢħ": 8636,
      "æĪ¿åŃĲ": 8637,
      "æĶ¹è£ħ": 8638,
      "ä¾Ľå¥ī": 8639,
      "æĿ¿åĿĹ": 8640,
      "ĠåĲī": 8641,
      "æ²³åı£": 8642,
      "è¾ĵåĩº": 8643,
      "è´Ńçī©": 8644,
      "å¹´åĬłåħ¥": 8645,
      "æľĪåºķ": 8646,
      "åħ¬çº¦": 8647,
      "æĢ§åĴĮ": 8648,
      "åĥıæĺ¯": 8649,
      "å®Īå¤ĩ": 8650,
      "ä¹ĭæĹ¶": 8651,
      "ä¹ĭä¸Ĭ": 8652,
      "å¸ĥç½Ĺ": 8653,
      "è°ı": 8654,
      "å¤įä»ĩ": 8655,
      "åİĨä»£": 8656,
      "ç¤ºèĮĥ": 8657,
      "æĻ¯è§Ĥ": 8658,
      "1910": 8659,
      "åįģä¸ĥå¹´": 8660,
      "å¹³è¡Į": 8661,
      "æł¡èĪį": 8662,
      "éĹ¹": 8663,
      "æľĢåĲİçļĦ": 8664,
      "ott": 8665,
      "åĬ²çĪĨ": 8666,
      "èģĶç½ĳ": 8667,
      "æ¸ħçľŁ": 8668,
      "å¤©æĸĩåŃ¦å®¶": 8669,
      "ĠçĪ±": 8670,
      "int": 8671,
      "æ¡£æ¡Ī": 8672,
      "ade": 8673,
      "æĸ¹å½¢": 8674,
      "éĿ¢åĲĳ": 8675,
      "é¦ĸæĺł": 8676,
      "åħŃä¸ª": 8677,
      "æ¯įèĪ°": 8678,
      "éºĵ": 8679,
      "æ·±åħ¥": 8680,
      "cm": 8681,
      "éĢ¾": 8682,
      "ä¸ĸçºªæľ«": 8683,
      "æ¼³": 8684,
      "ç¨½": 8685,
      "æĲŃæ¡£": 8686,
      "å®¦": 8687,
      "çĶµè·¯": 8688,
      "ä¸¥éĩįçļĦ": 8689,
      "æ·ĭ": 8690,
      "åħ¶ä»ĸçļĦ": 8691,
      "çĩĥçĥ§": 8692,
      "æĺ¯å¤§": 8693,
      "çĮ©": 8694,
      "è¿½æº¯åĪ°": 8695,
      "åŃ¢": 8696,
      "æº¶æ¶²": 8697,
      "çĽ¸ç»§": 8698,
      "éĥ¨ç½²": 8699,
      "å¢ħ": 8700,
      "ef": 8701,
      "pt": 8702,
      "éĻĩ": 8703,
      "æļ´åĬĽ": 8704,
      "éĽįæŃ£": 8705,
      "ä½ĵéªĮ": 8706,
      "æĿĳåĲĪå¹¶ä¸º": 8707,
      "æ´Ľä¼Ĭ": 8708,
      "åĪ©çī©æµ¦": 8709,
      "âĹ": 8710,
      "çļĦå®¶": 8711,
      "çķı": 8712,
      "æ°´åŁŁ": 8713,
      "åħ¶çĪ¶": 8714,
      "ç¦¾": 8715,
      "ä¸İæŃ¤åĲĮæĹ¶": 8716,
      "çīĽæ´¥": 8717,
      "åį¢çĵ¦å°Ķçľģ": 8718,
      "Ã¤": 8719,
      "ä¸ŃåİŁ": 8720,
      "å¤©ä½ĵ": 8721,
      "éľī": 8722,
      "æĸŃå±Ĥ": 8723,
      "å¼ĢåĲ¯": 8724,
      "éĢļå¸¸æĺ¯": 8725,
      "çĶŁäº§çļĦ": 8726,
      "èħ¹éĥ¨": 8727,
      "éĩįçĤ¹æĸĩçī©ä¿ĿæĬ¤åįķä½į": 8728,
      "åĵĪå¾·": 8729,
      "æĹ©ä¸Ĭ": 8730,
      "åľ¨åĨħ": 8731,
      "çĶµæ±ł": 8732,
      "è¶¾": 8733,
      "anc": 8734,
      "ç©Ĩç½ķé»ĺå¾·": 8735,
      "ä¸Ńä¸ĸçºª": 8736,
      "æ°´ä¸Ń": 8737,
      "éĽĨåĽ¢åĨĽ": 8738,
      "ç¤¼éĥ¨": 8739,
      "æİĮæı¡": 8740,
      "ler": 8741,
      "çļĦå»ºçŃĳ": 8742,
      "åĪ¶åĬ¨": 8743,
      "éĤ£ä¸ª": 8744,
      "è¿·ä½ł": 8745,
      "own": 8746,
      "Ro": 8747,
      "æĬĢèĥ½": 8748,
      "åĩ»è´¥äºĨ": 8749,
      "åľ¨ç¬¬": 8750,
      "ä¸ĭæĿ¥çļĦ": 8751,
      "é¥¥": 8752,
      "å§Ķåĳĺä¼ļä¸»å¸Ń": 8753,
      "èī¯å¥½": 8754,
      "æıĲåĩºäºĨ": 8755,
      "ä½įäºİè¯¥": 8756,
      "ĠâĨĴ": 8757,
      "è¥¿è·¯": 8758,
      "è°ľ": 8759,
      "çĪ½": 8760,
      "è¦ģå¡ŀ": 8761,
      "1906": 8762,
      "æ±Łè¥¿çľģ": 8763,
      "æľĢå¤ļçļĦ": 8764,
      "çħ®": 8765,
      "éĺ²ç©º": 8766,
      "éĵľçīĮ": 8767,
      "çĻĮçĹĩ": 8768,
      "æ¸Ĳæ¸Ĳ": 8769,
      "Ġç¾İ": 8770,
      "ä¸ºåŁºç¡Ģ": 8771,
      "æ²§": 8772,
      "ä¸ĩå¹³æĸ¹ç±³": 8773,
      "ren": 8774,
      "é²Ī": 8775,
      "åı¯ä»¥æĮĩ": 8776,
      "ä¼Ĭæĸ¯åħ°æķĻ": 8777,
      "ä¸Ĭå°Ĩ": 8778,
      "åįĹæŀģ": 8779,
      "åįłåľ°éĿ¢ç§¯": 8780,
      "éĥ¨éĥ¨éķ¿": 8781,
      "éĩĳæĸ¯": 8782,
      "åĽŀçŃĶ": 8783,
      "è¿ľå¾ģ": 8784,
      "éĢĲæŃ¥": 8785,
      "å¤ľéĹ´": 8786,
      "èĨĢ": 8787,
      "èİº": 8788,
      "èº«é«ĺ": 8789,
      "æľŁåĪĬ": 8790,
      "ä½Ĩä»į": 8791,
      "çļĦå¤§åŀĭ": 8792,
      "è¯ºæĸ¯": 8793,
      "å®¡æŁ¥": 8794,
      "åİ¥": 8795,
      "åħŃä¸ĸ": 8796,
      "åĽ½å®¶è¶³çĲĥéĺŁ": 8797,
      "åĲįè¯į": 8798,
      "å°Ħæīĭ": 8799,
      "å¯¹è¯Ŀ": 8800,
      "åĬ²æŃĮ": 8801,
      "ĠSchool": 8802,
      "èĵī": 8803,
      "å½ĵæĹ¥": 8804,
      "ç£ħ": 8805,
      "DS": 8806,
      "å°¼æ³Ĭ": 8807,
      "æĢ»æĺ¯": 8808,
      "å±ĢçļĦ": 8809,
      "åĲİåĽł": 8810,
      "ä¼Ĭå°Ķ": 8811,
      "åıįå°Ħ": 8812,
      "çī©è¯Ń": 8813,
      "æīĭæ®µ": 8814,
      "åĽŀæĿ¥": 8815,
      "éļĶç¦»": 8816,
      "åŃ¦ç³»": 8817,
      "æĻ®ç½Ĺ": 8818,
      "ãĤ»": 8819,
      "åĨĻçļĦ": 8820,
      "æİĴåĲįç¬¬": 8821,
      "æµĵåº¦": 8822,
      "EM": 8823,
      "å¾·çĶ²": 8824,
      "åĽŀå®¶": 8825,
      "åıĤèµĽèĢħ": 8826,
      "åī©ä½Ļ": 8827,
      "ð¬": 8828,
      "æ°´çļĦ": 8829,
      "å±±é¡¶": 8830,
      "æ¡¶": 8831,
      "è¾ĥå°ĳ": 8832,
      "ä¸īå±Ĥ": 8833,
      "æ£į": 8834,
      "å·´åĭĴ": 8835,
      "ä¸ĢçĶŁ": 8836,
      "æĸ¯éĩĮ": 8837,
      "æ°´åĪ©": 8838,
      "èĭ¹æŀľ": 8839,
      "Am": 8840,
      "ä¹Łç§°": 8841,
      "è§ģåĪ°": 8842,
      "éĿĴæµ·": 8843,
      "çļĦå¥³æĢ§": 8844,
      "å°¼åı¤æĭī": 8845,
      "åį¯": 8846,
      "ç¦¹": 8847,
      "åĴ¬": 8848,
      "åıĬåħ¶ä»ĸ": 8849,
      "ä½¿ä»ĸ": 8850,
      "ä¸Ńå¿ĥçļĦ": 8851,
      "ä¿ĺèĻı": 8852,
      "Ad": 8853,
      "äººä½ĵ": 8854,
      "é©¬åħ¶é¡¿": 8855,
      "æ»´": 8856,
      "ä¸ŃåĽ½ç§ĳåŃ¦éĻ¢": 8857,
      "ä¾Ŀçħ§": 8858,
      "TVB": 8859,
      "èĴ¸æ±½": 8860,
      "åīĳæ¡¥": 8861,
      "åĨ¶": 8862,
      "é«ĺåľ°": 8863,
      "é£İäºĳ": 8864,
      "å¼¹åĬ¾": 8865,
      "ISBN": 8866,
      "åı¯ä»¥éĢļè¿ĩ": 8867,
      "åĮ»å¸Ī": 8868,
      "æĮīå¯Łä½¿": 8869,
      "çģµæĦŁ": 8870,
      "æĪĺäºīæľŁéĹ´": 8871,
      "å½ĵä½ľ": 8872,
      "é¡ºæĹ¶éĴĪ": 8873,
      "åı«åģļ": 8874,
      "å£ģçĶ»": 8875,
      "å¤§è´¥": 8876,
      "åİŁå£°": 8877,
      "éĴĻ": 8878,
      "å¸¦èĳĹ": 8879,
      "å¹´æĭħä»»": 8880,
      "å¹¶æĪĲä¸º": 8881,
      "éĩĮå¥¥": 8882,
      "ãĥĢ": 8883,
      "é¥±": 8884,
      "å¨ģå°Ķæĸ¯": 8885,
      "ç±»ä¼¼äºİ": 8886,
      "åĲİåıĪ": 8887,
      "ç¬¬äºĮåŃ£": 8888,
      "è¥¿åĮº": 8889,
      "åĽ½å®¶çº§": 8890,
      "ç¾¤ä½ĵ": 8891,
      "å¹´æīį": 8892,
      "ä¸Ģè·¯": 8893,
      "çĽ´æµģ": 8894,
      "åıĳçĶŁçļĦ": 8895,
      "æĪĲåĬŁçļĦ": 8896,
      "æ¿Ģç´ł": 8897,
      "orld": 8898,
      "ille": 8899,
      "æĿ¥æºĲäºİ": 8900,
      "åĪ¶çīĩäºº": 8901,
      "Play": 8902,
      "æĭĺ": 8903,
      "çĽ¸è¾ĥäºİ": 8904,
      "aj": 8905,
      "åı¤å·´": 8906,
      "å¼ĺæ²»": 8907,
      "ä¸ĢæĹ¥": 8908,
      "çĶŁç´ł": 8909,
      "åĵĪæĭī": 8910,
      "itt": 8911,
      "çıĬçĳļ": 8912,
      "è½°çĤ¸æľº": 8913,
      "è¿Ļä¸¤ä¸ª": 8914,
      "å½±ä¸ļ": 8915,
      "èĴĻå¾·": 8916,
      "æī¬å·ŀ": 8917,
      "...": 8918,
      "æĪĺèĪ°": 8919,
      "å§ĭç»Ī": 8920,
      "æľ¯è¯Ń": 8921,
      "åŃ£åĨĽ": 8922,
      "å¢ŀè®¾": 8923,
      "æĵĴ": 8924,
      "oci": 8925,
      "åıĤè§Ĥ": 8926,
      "æłĳæľ¨": 8927,
      "ç§ĳå¹»": 8928,
      "æĬĹæĹ¥": 8929,
      "âĶĢâĶĢ": 8930,
      "å®ĭæľĿ": 8931,
      "Ã¨": 8932,
      "æĹ¶æĬ¥": 8933,
      "åī¥": 8934,
      "è§ģäºİ": 8935,
      "å¸Ĥç«ĭ": 8936,
      "ãĥİ": 8937,
      "sch": 8938,
      "éħµ": 8939,
      "åĥļ": 8940,
      "å¶": 8941,
      "çĶµåŃĲæ¸¸æĪı": 8942,
      "1907": 8943,
      "çĹħäºº": 8944,
      "çºªå¿µç¢ĳ": 8945,
      "å¨ģå°Ķå£«": 8946,
      "æ·±åľ³å¸Ĥ": 8947,
      "ä¹¦æ³ķ": 8948,
      "ç³Ĭ": 8949,
      "ä¼łæķĻå£«": 8950,
      "âĪ": 8951,
      "Ġì": 8952,
      "çļĦåīįèº«": 8953,
      "æĥ©": 8954,
      "åħ³èģĶ": 8955,
      "ä¿Ŀå®ī": 8956,
      "avid": 8957,
      "éĥ¨çĶµå½±": 8958,
      "Ð°Ð½": 8959,
      "SP": 8960,
      "çļĦæ¸¸æĪı": 8961,
      "çĶŁæĹ¥": 8962,
      "æŀľå®ŀ": 8963,
      "çļĦæĹ¥æľ¬": 8964,
      "åŃĲå¼¹": 8965,
      "ä¸īç§į": 8966,
      "æ¬¡æķ°": 8967,
      "ä¸Ńå¤®çĶµè§Ĩåı°": 8968,
      "èļģ": 8969,
      "çļĦèĢģ": 8970,
      "101": 8971,
      "åī§åĽ¢": 8972,
      "æĭ¯æķĳ": 8973,
      "èī®": 8974,
      "ãĢĤãĢĮ": 8975,
      "äº§çī©": 8976,
      "èĳ¬äºİ": 8977,
      "çŃīçļĦ": 8978,
      "éŀį": 8979,
      "åµ©": 8980,
      "æıĲåĩºçļĦ": 8981,
      "çĭ¬èĩª": 8982,
      "ç¥ŀçĪ¶": 8983,
      "åį³åı¯": 8984,
      "éĽħåĲĦ": 8985,
      "åĤ²": 8986,
      "çļĦç¬¬ä¸Ģä¸ª": 8987,
      "oth": 8988,
      "åĪ©å¥¥": 8989,
      "éĿ¢åĮħ": 8990,
      "éĻįèĲ½": 8991,
      "ç»¼èīºèĬĤçĽ®": 8992,
      "çļĦç¬¬ä¸ī": 8993,
      "åľ¨åĮĹäº¬": 8994,
      "å¸ĪåĽ¢": 8995,
      "åı¤å¸ĮèħĬ": 8996,
      "ĠPart": 8997,
      "æ´ªæŃ¦": 8998,
      "çĲĨäºĭä¼ļ": 8999,
      "æĸ¯åľ¨": 9000,
      "ä¸¤åº§": 9001,
      "ĠCo": 9002,
      "ÑģÑĤ": 9003,
      "III": 9004,
      "éĩľ": 9005,
      "æŁ¬": 9006,
      "åıĺå½¢": 9007,
      "ç»Ļä»ĸ": 9008,
      "ç½ķè§ģ": 9009,
      "å¿ĹæĦ¿": 9010,
      "äºĮåįģå¹´": 9011,
      "é³įé±¼": 9012,
      "æĹ¶è¢«": 9013,
      "æŃ¤åīį": 9014,
      "æŀģä¸º": 9015,
      "èµĽäºĭä¸Ń": 9016,
      "éĻ¤æŃ¤ä¹ĭå¤ĸ": 9017,
      "çļĦåħ¶ä»ĸ": 9018,
      "è®½": 9019,
      "ä¸İå¤§": 9020,
      "æĭīå¤ļ": 9021,
      "æĮĩçļĦæĺ¯": 9022,
      "åĲ¬åĪ°": 9023,
      "Ġ1999": 9024,
      "La": 9025,
      "æ°¨éħ¸": 9026,
      "çļĦè¡Įä¸º": 9027,
      "è¯´æĺ¯": 9028,
      "æķ´åĲĪ": 9029,
      "ild": 9030,
      "ç¡ħ": 9031,
      "æĭ¾": 9032,
      "é«ĺå®Ĺ": 9033,
      "æķ°çĻ¾": 9034,
      "åŀĭæŁ´æ²¹æľºè½¦": 9035,
      "åĪĻçĶ±": 9036,
      "ä¸ªäººçĶŁæ´»": 9037,
      "æĮ¤": 9038,
      "å¤©çİĭ": 9039,
      "æ¹ĸæ³Ĭ": 9040,
      "é¢Ħéĺ²": 9041,
      "å®īå¾·çĥĪ": 9042,
      "çŁĽçĽ¾": 9043,
      "éĵħ": 9044,
      "éĢļè¡Į": 9045,
      "åıĤéĢī": 9046,
      "æ¢ħå°Ķ": 9047,
      "ĠâĢĶ": 9048,
      "éĥ¨æĽ²": 9049,
      "åĪ©å®ī": 9050,
      "ä»£çĽ®": 9051,
      "åħ¨ä¹¦": 9052,
      "äº§éĩı": 9053,
      "åĨ³è®®": 9054,
      "åıįèĢĮ": 9055,
      "åįļè§Ī": 9056,
      "æ¶µçĽĸ": 9057,
      "ç¿¡ç¿łåı°": 9058,
      "ean": 9059,
      "ç»İ": 9060,
      "äºĮæ¬¡": 9061,
      "è¢«ä»»åĳ½ä¸º": 9062,
      "éĽĮæĢ§": 9063,
      "çļĦå¼Ģ": 9064,
      "ï¼Īï¼Ł": 9065,
      "ç»įåħ´": 9066,
      "Ġç¬¬ä¸ī": 9067,
      "èĲį": 9068,
      "æĶ¹ä»»": 9069,
      "é©¬åĮ¹": 9070,
      "1908": 9071,
      "BO": 9072,
      "çī¢": 9073,
      "AV": 9074,
      "çīº": 9075,
      "Ġto": 9076,
      "DC": 9077,
      "æľĪå¼Ģå§ĭ": 9078,
      "é¦ĸä»»": 9079,
      "ech": 9080,
      "ner": 9081,
      "åħ¬ç«ĭ": 9082,
      "çĶ²åŁº": 9083,
      "EP": 9084,
      "é«ĺæ¡¥": 9085,
      "æİ¨åĩºçļĦ": 9086,
      "ä¾§å¼ı": 9087,
      "ç¤¾äº¤": 9088,
      "ä¸ĸçķĮåĲĦåľ°": 9089,
      "çłĶç©¶åĳĺ": 9090,
      "åµĮ": 9091,
      "ç¦ıåĪ©": 9092,
      "åĨĻçľŁ": 9093,
      "åĪĨç»Ħ": 9094,
      "ç¦½": 9095,
      "çľŁæŃ£çļĦ": 9096,
      "1904": 9097,
      "é«ĺä¸½": 9098,
      "å¼ķçĶ¨": 9099,
      "æªĢ": 9100,
      "Ġ17": 9101,
      "åľ¨æ¬§æ´²": 9102,
      "æİ¥ç®¡": 9103,
      "ä»£è¡¨éĺŁ": 9104,
      "æĻĭåįĩ": 9105,
      "å¸ľ": 9106,
      "å¸ĥå±Ģ": 9107,
      "åĿĩæľī": 9108,
      "å¤§å°Ĩ": 9109,
      "åĲĪèĤ¥": 9110,
      "éĺ³åħī": 9111,
      "éª¨éª¼": 9112,
      "åľ¨ä»Ĭ": 9113,
      "ä¸ºä»ĸ": 9114,
      "åħļçļĦ": 9115,
      "æĹ§éĩĳå±±": 9116,
      "æģ¶éŃĶ": 9117,
      "åĬłçĥŃ": 9118,
      "ä¹ĲåĿĽ": 9119,
      "å¹´æĺ¥": 9120,
      "åĨ²åĩ»": 9121,
      "Ġå¯¼æ¼Ķ": 9122,
      "æĪ¦": 9123,
      "æľŁçļĦ": 9124,
      "å®īå¦®": 9125,
      "ç£·éħ¸": 9126,
      "åįĹæĸ¯æĭīå¤«": 9127,
      "ç¬¬ä¸Ģå±Ĭ": 9128,
      "çªĥ": 9129,
      "æī¿è¯º": 9130,
      "äººæīį": 9131,
      "ä¸īçº§": 9132,
      "éĢłèĪ¹": 9133,
      "æīĵåħ¥": 9134,
      "åĩºå¢ĥ": 9135,
      "åįĥåı¶": 9136,
      "ç«¯çļĦ": 9137,
      "å°¼æ³Ĭå°Ķ": 9138,
      "Ġåį¡": 9139,
      "ä¸»æīĵ": 9140,
      "å°±è¢«": 9141,
      "ä½ĵéķ¿åı¯è¾¾": 9142,
      "ise": 9143,
      "åħīåŃ¦": 9144,
      "ĠSc": 9145,
      "å½¢æĪĲäºĨ": 9146,
      "èĪħ": 9147,
      "çĳŀåħĭ": 9148,
      "æ··ä¹±": 9149,
      "å·¥ä½ľçļĦ": 9150,
      "ç»´æĭī": 9151,
      "åĢĻè½¦": 9152,
      "ç»ıè¿ĩæľ¬åľ°åĮº": 9153,
      "éĢīä¸¾ä¸Ń": 9154,
      "fl": 9155,
      "æŃ£æĺ¯": 9156,
      "æĹıçļĦ": 9157,
      "åŁĥå¾·": 9158,
      "éĺ¿å°Ķåįĳ": 9159,
      "å¹²çĩ¥": 9160,
      "çİĽæł¼": 9161,
      "äºļç§ĳ": 9162,
      "å¤ļå¤«": 9163,
      "èĤª": 9164,
      "ä¼¯åĪ©äºļ": 9165,
      "æĹĹä¸ĭçļĦ": 9166,
      "Ed": 9167,
      "åĨĽèĪ°": 9168,
      "ç¬¬ä¸ĢçĻ¾": 9169,
      "çªŁ": 9170,
      "å®ĩæĸĩ": 9171,
      "ä¸ĢæĹ¦": 9172,
      "å±ıä¸ľ": 9173,
      "ä¸ºè¯¥": 9174,
      "å®ļäºİ": 9175,
      "å¼Ģå§ĭäºĨ": 9176,
      "èĦĤèĤª": 9177,
      "çļĦè¡¨çİ°": 9178,
      "ä¸Ģåįĥ": 9179,
      "çŃĸåĪĴ": 9180,
      "ult": 9181,
      "æĢ»éĥ¨ä½įäºİ": 9182,
      "çļĦèº«ä»½": 9183,
      "æĮĩæİ§": 9184,
      "å°ĳåį¿": 9185,
      "ç¬¬äºĮè½®": 9186,
      "åį°åº¦å°¼è¥¿äºļ": 9187,
      "åĩĮæĻ¨": 9188,
      "ral": 9189,
      "ros": 9190,
      "å¹´ç¬¬": 9191,
      "çīºçī²": 9192,
      "åħµåĬĽ": 9193,
      "Met": 9194,
      "æ¤Ĵ": 9195,
      "ãĥ¼ãĥ«": 9196,
      "åħ¬ç¤¾": 9197,
      "é«ĺéĵģ": 9198,
      "æĶ»åĬ¿": 9199,
      "çļĦåŁİå¸Ĥ": 9200,
      "è¿ĩåº¦": 9201,
      "æĿĢæīĭ": 9202,
      "RNA": 9203,
      "à¹": 9204,
      "å¤§éĺŁ": 9205,
      "ç¼ĸåı·ä¸º": 9206,
      "çĶ±è¯¥éģĵè·¯": 9207,
      "å¯¡": 9208,
      "åĽĽåĽ½": 9209,
      "åĪĹæĸ¯": 9210,
      "åħ¸åŀĭçļĦ": 9211,
      "åŃ¦å£«åŃ¦ä½į": 9212,
      "æĸ°çĸĨ": 9213,
      "èİīäºļ": 9214,
      "ĠNew": 9215,
      "æ¸ħçľŁå¯º": 9216,
      "ael": 9217,
      "å¼¼": 9218,
      "åİŁæĿ¥çļĦ": 9219,
      "åģľåĬŀ": 9220,
      "çļĦåıĮ": 9221,
      "è¿ĽåĨĽ": 9222,
      "ç«Ļæĺ¯": 9223,
      "åı·ç§įåŃĲ": 9224,
      "èľ¡": 9225,
      "çķ´": 9226,
      "å¹¶ä¸įæĺ¯": 9227,
      "SS": 9228,
      "æĪĺæŃ»": 9229,
      "éĩıåŃĲ": 9230,
      "é²¤": 9231,
      "ç¤¾ä¼ļä¸»ä¹īåħ±åĴĮåĽ½": 9232,
      "ç»ħ": 9233,
      "å®ŀè·µ": 9234,
      "çİ¯ç»ķ": 9235,
      "å¯¹ä»ĸ": 9236,
      "äº¤æĪĺ": 9237,
      "éĢıæĺİ": 9238,
      "IF": 9239,
      "æľĢéĩįè¦ģçļĦ": 9240,
      "å¸Īéķ¿": 9241,
      "çķĮçļĦ": 9242,
      "åĢŁçĶ±": 9243,
      "æĪĪå°Ķ": 9244,
      "åĪĴå½Ĵ": 9245,
      "æ³¨åħ¥": 9246,
      "erv": 9247,
      "ç»ĪæŃ¢": 9248,
      "çļĨä¸º": 9249,
      "çĢĳ": 9250,
      "ä¸½èİİçĻ½": 9251,
      "åįĹæľĿ": 9252,
      "iversity": 9253,
      "è¿Ĳä¼ļ": 9254,
      "EL": 9255,
      "ä»ĸå°Ĩ": 9256,
      "ä¸İä»ĸ": 9257,
      "ç¬¬ä¸ĢåŃ£": 9258,
      "åı¦ä¸Ģç§į": 9259,
      "âĺ": 9260,
      "ä»£çļĦ": 9261,
      "ç»Łæ²»èĢħ": 9262,
      "éĹµ": 9263,
      "çĪ±å¥½": 9264,
      "IM": 9265,
      "è¿Ļæ®µ": 9266,
      "è¯¥åľ°": 9267,
      "å®ľåħ°": 9268,
      "çĶµæ¢¯": 9269,
      "åĮħæĭ¬äºĨ": 9270,
      "rid": 9271,
      "æ¿ĢçĥĪ": 9272,
      "ei": 9273,
      "çļĦå®ĺæĸ¹": 9274,
      "æŃ¼": 9275,
      "æľ¬éĥ¨": 9276,
      "æĸ°è¥¿åħ°": 9277,
      "ä»£è°¢": 9278,
      "ç¼ª": 9279,
      "æł¡åıĭ": 9280,
      "åħĭéĩĮæĸ¯èĴĤ": 9281,
      "à¦": 9282,
      "åľ¨ä¸ŃåĽ½å¤§éĻĨ": 9283,
      "æľīäºĨ": 9284,
      "ä»ħä»ħ": 9285,
      "ç«¯çĤ¹": 9286,
      "åı¹": 9287,
      "èĢĮå¾ĹåĲį": 9288,
      "å²ļ": 9289,
      "Station": 9290,
      "5000": 9291,
      "è¾±": 9292,
      "ä½ľçĶ»": 9293,
      "éĻ¢æł¡": 9294,
      "å°ģéĿ¢": 9295,
      "ç§°èµŀ": 9296,
      "åİ¿ç«ĭ": 9297,
      "ä¸ĩåĲ¨": 9298,
      "æīĵéĢł": 9299,
      "é¢ģå¥ĸç¤¼": 9300,
      "å±łæĿĢ": 9301,
      "ä¸»ç¼ĸ": 9302,
      "åıĳè¾¾": 9303,
      "å¸ķå°Ķ": 9304,
      "çĤ®åħµ": 9305,
      "éĺ¿å°Ķåįĳæĸ¯": 9306,
      "çļĦåĨħå®¹": 9307,
      "éĺµäº¡": 9308,
      "ä¾¦å¯Ł": 9309,
      "çļĦèĬ±": 9310,
      "è¿Ľåı£": 9311,
      "éļĻ": 9312,
      "åĻ¶": 9313,
      "Ġ1998": 9314,
      "éľĸ": 9315,
      "åĩ»åĩº": 9316,
      "Ġåħ¨": 9317,
      "çļĦä¸ŃåĽ½": 9318,
      "ä¸ľæĹ¥æľ¬": 9319,
      "OK": 9320,
      "æĪĲåĮĸ": 9321,
      "èĢĮæŃ»": 9322,
      "åĮºåĴĮ": 9323,
      "å»ºæľī": 9324,
      "æ¯ĶåĪĨ": 9325,
      "çĥ¤": 9326,
      "çº³å°Ķ": 9327,
      "èĭĹæłĹ": 9328,
      "ãģĽ": 9329,
      "éļıæľº": 9330,
      "åĪ¤æĸŃ": 9331,
      "åĪĳäºĭ": 9332,
      "åıĳéŁ³": 9333,
      "å£¶": 9334,
      "è¿ĩäºİ": 9335,
      "è´Ŀæł¼": 9336,
      "äºĮçŃī": 9337,
      "çĶ°å¾Ħ": 9338,
      "å®¹éĩı": 9339,
      "åľ¨è¿Ļä¸ª": 9340,
      "éĥ¨ä¸ĭ": 9341,
      "åįģåħ«å¹´": 9342,
      "éĴ§": 9343,
      "çľģæİ¥å£¤": 9344,
      "åĪĴåĪĨ": 9345,
      "é©¬åħĭæĢĿ": 9346,
      "çĶµåĬ¨æľº": 9347,
      "æľīåı¯èĥ½": 9348,
      "æŃ£ç»Ł": 9349,
      "å¤įåĲĪ": 9350,
      "Ġä½ľè¯į": 9351,
      "åħīæĺİ": 9352,
      "åİĨåı²åŃ¦å®¶": 9353,
      "ä¹ĭåĨħ": 9354,
      "ç½Ĳ": 9355,
      "ä½ĵæĵį": 9356,
      "å·´çī¹": 9357,
      "çĲĨå¿µ": 9358,
      "å²ģä»¥ä¸ĭ": 9359,
      "åį¢çĵ¦": 9360,
      "åįĹåįĹ": 9361,
      "èµ·é£ŀ": 9362,
      "èĪĨ": 9363,
      "æ°´ä¸Ĭ": 9364,
      "æĢ»åħ±": 9365,
      "åıĹæįŁ": 9366,
      "å¤©ç©º": 9367,
      "é£ĵ": 9368,
      "è¶³èģĶ": 9369,
      "æĸĹäºī": 9370,
      "åĩºäºİ": 9371,
      "çģ«çģ¾": 9372,
      "è¾ĥå¤§çļĦ": 9373,
      "TA": 9374,
      "å·©": 9375,
      "å¦¥": 9376,
      "ows": 9377,
      "çĶµæµģ": 9378,
      "ç¤¾éķ¿": 9379,
      "åŃ¦éĻ¢çļĦ": 9380,
      "å¹´ä»£åĪĿ": 9381,
      "ĠãĢģ": 9382,
      "ä¸ľæĻĭ": 9383,
      "å¼łåįķæĽ²": 9384,
      "æİ·": 9385,
      "çīłä»¬çļĦ": 9386,
      "ä¸ŀçĽ¸": 9387,
      "ä¸Ģåı·": 9388,
      "åħ¬åĳĬ": 9389,
      "å±±æĿĳ": 9390,
      "çľŁçļĦ": 9391,
      "æ¨¡ä»¿": 9392,
      "å¹¶ä¸Ķåľ¨": 9393,
      "éħī": 9394,
      "èģĮè´£": 9395,
      "åĬ©æĶ»": 9396,
      "çļĦå¤§éĥ¨åĪĨ": 9397,
      "è¯¥å»ºçŃĳ": 9398,
      "æĽ²çº¿": 9399,
      "çŁ³åĻ¨": 9400,
      "å½ĵéĢīä¸º": 9401,
      "ä»¥å¾Ģ": 9402,
      "èĻĲ": 9403,
      "çŁŃçīĩ": 9404,
      "åħĦéķ¿": 9405,
      "è½¶": 9406,
      "çĶ±æĿ¥": 9407,
      "mi": 9408,
      "èİ±æĸ¯": 9409,
      "ç§ĢåĲī": 9410,
      "è¡Įèµ°": 9411,
      "èĬ¯": 9412,
      "éĢīä¸Ń": 9413,
      "çº¦åħĭ": 9414,
      "ç±»åĪ«": 9415,
      "å¤ĦæŃ»": 9416,
      "æĽ¼èģĶ": 9417,
      "æ»ĳéĽª": 9418,
      "äºĮæľŁ": 9419,
      "æİ¨çĲĨ": 9420,
      "åĩĨç¡®": 9421,
      "æĪİ": 9422,
      "å®ŀä½ĵ": 9423,
      "çĵ¦åħ¹": 9424,
      "è¿½åĩ»": 9425,
      "æľĿéĺ³": 9426,
      "ç§ĺé²ģ": 9427,
      "éĽķåĪ»": 9428,
      "Sc": 9429,
      "ä¹ĭçĪ¶": 9430,
      "æīĭä¸ĭ": 9431,
      "éŃħ": 9432,
      "ç»§æī¿äºº": 9433,
      "èĤ¡ç¥¨": 9434,
      "é£ĵé£İ": 9435,
      "çĦļ": 9436,
      "å±ŀåĲį": 9437,
      "è¿ĻæĿ¡": 9438,
      "åĲīäºļ": 9439,
      "åħ¨åĽ½éĩįçĤ¹æĸĩçī©ä¿ĿæĬ¤åįķä½į": 9440,
      "1896": 9441,
      "åĴĮå°ı": 9442,
      "åħ³åį¡": 9443,
      "å°¾å·´": 9444,
      "ãĥ¢": 9445,
      "åı£å¾Ħ": 9446,
      "åį¡çī¹": 9447,
      "ä½Ĩæĺ¯åľ¨": 9448,
      "å¤ºåĨł": 9449,
      "åĨħéĻĨçľģä»½": 9450,
      "Ġæľ±": 9451,
      "é©¬è¾¾": 9452,
      "è¿ĩæ¸¡": 9453,
      "çīĪçļĦ": 9454,
      "pp": 9455,
      "ä»ĸè®¤ä¸º": 9456,
      "ãĥ¯": 9457,
      "å°¼æĹ¥": 9458,
      "é»ĳäºº": 9459,
      "æ³ķå¸Ī": 9460,
      "åıĪåľ¨": 9461,
      "åıĪè¢«": 9462,
      "å®ĩèĪª": 9463,
      "æ¨¡çī¹åĦ¿": 9464,
      "æ¢Ń": 9465,
      "aint": 9466,
      "å¿ĥçļĦ": 9467,
      "å°±åı¯ä»¥": 9468,
      "å¤±åİ»äºĨ": 9469,
      "è¯¥çī©ç§įçļĦæ¨¡å¼ıäº§åľ°åľ¨": 9470,
      "åįĹåĮº": 9471,
      "éŀŃ": 9472,
      "æ»¥": 9473,
      "ĠéŁ³ä¹Ĳ": 9474,
      "çī©èµĦ": 9475,
      "å¿ĥçĲĨåŃ¦": 9476,
      "1913": 9477,
      "ãĤ§": 9478,
      "åıįæĬĹ": 9479,
      "ä½¥äºĭ": 9480,
      "å¤©åĲ¯": 9481,
      "éĩįçļĦ": 9482,
      "ä¿®è®¢": 9483,
      "å¢ĥåĨħçļĦ": 9484,
      "åĩºçĶŁåľ¨": 9485,
      "Ġåħĥ": 9486,
      "åħ¬åĽ½": 9487,
      "ç±»åŀĭçļĦ": 9488,
      "çļĦçĲĥåĳĺ": 9489,
      "ä½Ĩåħ¶": 9490,
      "å®£åĳĬ": 9491,
      "æľ«å¹´": 9492,
      "ä½ľä¸ļ": 9493,
      "åĲīæĸ¯": 9494,
      "è¯Ī": 9495,
      "ä¸įå¤ļ": 9496,
      "æ²³åĨħ": 9497,
      "çļĦåħ¨": 9498,
      "çļĦæ¦Ĥå¿µ": 9499,
      "å¾Īå¤§çļĦ": 9500,
      "èĳ¡èĲĦéħĴ": 9501,
      "æĶ¾ç½®": 9502,
      "lin": 9503,
      "å¬": 9504,
      "æĥħç»ª": 9505,
      "æĬ¤çħ§": 9506,
      "æĪªæŃ¢": 9507,
      "ä¸ŃåŃ¦æł¡": 9508,
      "ç½Ĺå¤«": 9509,
      "åıĸèĩª": 9510,
      "ign": 9511,
      "rat": 9512,
      "æĲľç´¢": 9513,
      "å¹¶ä¸º": 9514,
      "æ¨ªæ»¨": 9515,
      "æĹĭå¾ĭ": 9516,
      "åīįèº«ä¸º": 9517,
      "åĤ¬åĮĸ": 9518,
      "äºİé¦Ļæ¸¯": 9519,
      "èĭ·": 9520,
      "åį³ä¸º": 9521,
      "åľ°çĭ±": 9522,
      "åĵģè´¨": 9523,
      "çĸ¼": 9524,
      "å°ģéĹŃ": 9525,
      "è¡Ģç»Ł": 9526,
      "äººæĸĩ": 9527,
      "çļĦä¸Ģæ¬¡": 9528,
      "æŃĩå°Ķ": 9529,
      "éĿ¢åīį": 9530,
      "any": 9531,
      "å¥¥åĪ©": 9532,
      "çĽŁåĨĽ": 9533,
      "æµ·å§Ĩ": 9534,
      "å¹³æ°ĳ": 9535,
      "æ¼«çĶ»å®¶": 9536,
      "æĹ¶å°ļ": 9537,
      "æĲŃè½½": 9538,
      "èī¾ä¼¦": 9539,
      "Ġ978": 9540,
      "å¤§éĥ¨ä»½": 9541,
      "åĵĪçī¹": 9542,
      "æĻºæħ§": 9543,
      "Ġé¾Ļ": 9544,
      "æĤ¬æĮĤ": 9545,
      "å¤§äºİ": 9546,
      "çº¿æĺ¯": 9547,
      "éĩİæĿĳ": 9548,
      "åīįèĢħ": 9549,
      "ãĤ±": 9550,
      "è¶ħäºº": 9551,
      "è·¨è¶Ĭ": 9552,
      "çļĦéĩĳ": 9553,
      "å¨Ħ": 9554,
      "åĵĪä½Ľ": 9555,
      "çĿ¿": 9556,
      "row": 9557,
      "ä¼¤äº¡": 9558,
      "éĢ»è¾ĳ": 9559,
      "å½ĹæĺŁ": 9560,
      "ĠåİŁ": 9561,
      "æ²Ľ": 9562,
      "ç«Ń": 9563,
      "å¤©åľ°": 9564,
      "èİ·åıĸ": 9565,
[...]
