{"<|endoftext|>":0,"!":1,"\"":2,"#":3,"$":4,"%":5,"&":6,"'":7,"(":8,")":9,"*":10,"+":11,",":12,"-":13,".":14,"/":15,"0":16,"1":17,"2":18,"3":19,"4":20,"5":21,"6":22,"7":23,"8":24,"9":25,":":26,";":27,"<":28,"=":29,">":30,"?":31,"@":32,"A":33,"B":34,"C":35,"D":36,"E":37,"F":38,"G":39,"H":40,"I":41,"J":42,"K":43,"L":44,"M":45,"N":46,"O":47,"P":48,"Q":49,"R":50,"S":51,"T":52,"U":53,"V":54,"W":55,"X":56,"Y":57,"Z":58,"[":59,"\\":60,"]":61,"^":62,"_":63,"`":64,"a":65,"b":66,"c":67,"d":68,"e":69,"f":70,"g":71,"h":72,"i":73,"j":74,"k":75,"l":76,"m":77,"n":78,"o":79,"p":80,"q":81,"r":82,"s":83,"t":84,"u":85,"v":86,"w":87,"x":88,"y":89,"z":90,"{":91,"|":92,"}":93,"~":94,"¡":95,"¢":96,"£":97,"¤":98,"¥":99,"¦":100,"§":101,"¨":102,"©":103,"ª":104,"«":105,"¬":106,"®":107,"¯":108,"°":109,"±":110,"²":111,"³":112,"´":113,"µ":114,"¶":115,"·":116,"¸":117,"¹":118,"º":119,"»":120,"¼":121,"½":122,"¾":123,"¿":124,"À":125,"Á":126,"Â":127,"Ã":128,"Ä":129,"Å":130,"Æ":131,"Ç":132,"È":133,"É":134,"Ê":135,"Ë":136,"Ì":137,"Í":138,"Î":139,"Ï":140,"Ð":141,"Ñ":142,"Ò":143,"Ó":144,"Ô":145,"Õ":146,"Ö":147,"×":148,"Ø":149,"Ù":150,"Ú":151,"Û":152,"Ü":153,"Ý":154,"Þ":155,"ß":156,"à":157,"á":158,"â":159,"ã":160,"ä":161,"å":162,"æ":163,"ç":164,"è":165,"é":166,"ê":167,"ë":168,"ì":169,"í":170,"î":171,"ï":172,"ð":173,"ñ":174,"ò":175,"ó":176,"ô":177,"õ":178,"ö":179,"÷":180,"ø":181,"ù":182,"ú":183,"û":184,"ü":185,"ý":186,"þ":187,"ÿ":188,"Ā":189,"ā":190,"Ă":191,"ă":192,"Ą":193,"ą":194,"Ć":195,"ć":196,"Ĉ":197,"ĉ":198,"Ċ":199,"ċ":200,"Č":201,"č":202,"Ď":203,"ď":204,"Đ":205,"đ":206,"Ē":207,"ē":208,"Ĕ":209,"ĕ":210,"Ė":211,"ė":212,"Ę":213,"ę":214,"Ě":215,"ě":216,"Ĝ":217,"ĝ":218,"Ğ":219,"ğ":220,"Ġ":221,"ġ":222,"Ģ":223,"ģ":224,"Ĥ":225,"ĥ":226,"Ħ":227,"ħ":228,"Ĩ":229,"ĩ":230,"Ī":231,"ī":232,"Ĭ":233,"ĭ":234,"Į":235,"į":236,"İ":237,"ı":238,"Ĳ":239,"ĳ":240,"Ĵ":241,"ĵ":242,"Ķ":243,"ķ":244,"ĸ":245,"Ĺ":246,"ĺ":247,"Ļ":248,"ļ":249,"Ľ":250,"ľ":251,"Ŀ":252,"ŀ":253,"Ł":254,"ł":255,"Ń":256,"ä¸":257,"çļ":258,"çļĦ":259,"äº":260,"ãĢ":261,"åħ":262,"åı":263,"ï¼":264,"ĠĠ":265,"æľ":266,"ä»":267,"åĪ":268,"å®":269,"ï¼Į":270,"ç»":271,"è¿":272,"ä½":273,"çĶ":274,"åĬ":275,"å¤":276,"åľ":277,"åĲ":278,"åĽ":279,"æĸ":280,"æĺ":281,"ãĢģ":282,"è®":283,"ä¹":284,"åŃ":285,"ãĢĤ":286,"ĠĠĠĠ":287,"in":288,"æĪ":289,"è¯":290,"ä¼":291,"Ġa":292,"Ġt":293,"æķ":294,"åĴ":295,"åº":296,"åĴĮ":297,"æĺ¯":298,"ä¸Ń":299,"ä¸Ģ":300,"re":301,"æĢ":302,"åĮ":303,"æĿ":304,"å¹":305,"åľ¨":306,"å¯":307,"éĩ":308,"å¼":309,"è¡":310,"åĽ½":311,"æĹ":312,"on":313,"æĶ":314,"åį":315,"åĨ":316,"he":317,"äºº":318,"æľī":319,"è§":320,"--":321,"ä¸º":322,"å°":323,"ti":324,"çĽ":325,"åŃ¦":326,"éĢ":327,"æ³":328,"èĢ":329,"å±":330,"æī":331,"ç§":332,"èĥ":333,"çİ":334,"è´":335,"æĬ":336,"åĩ":337,"å¾":338,"åıĳ":339,"æł":340,"ä¸į":341,"æ°":342,"å·":343,"çĲ":344,"å¸":345,"en":346,"è¦":347,"çĶŁ":348,"ä»¥":349,"è¦ģ":350,"çĶ¨":351,"å½":352,"æ³ķ":353,"ä¿":354,"çī":355,"er":356,"æŀ":357,"ä¸ļ":358,"éĿ":359,"çĲĨ":360,"äºĨ":361,"åŁ":362,"éĻ":363,"Ġo":364,"å¤§":365,"å¯¹":366,"æµ":367,"èĥ½":368,"æİ":369,"åĮĸ":370,"è¡Į":371,"Ġc":372,"Ġs":373,"çŃ":374,"èµ":375,"Ġthe":376,"al":377,"ĠĠĠĠĠĠĠĠ":378,"ed":379,"âĢ":380,"æĢ§":381,"æŃ":382,"ä¼ļ":383,"éĹ":384,"å®ŀ":385,"é¢":386,"å¿":387,"ä½ľ":388,"æĪĲ":389,"ä½ĵ":390,"Ġin":391,"at":392,"çº":393,"Ġp":394,"äºİ":395,"æĸ¹":396,"æĮ":397,"ä¸İ":398,"ä¸»":399,"es":400,"èĩ":401,"ä¸ª":402,"or":403,"Ġan":404,"åĪĨ":405,"ç¨":406,"å®ļ":407,"åĪ¶":408,"è¿Ľ":409,"äº§":410,"çİ°":411,"åĬ¨":412,"åı¯":413,"æĹ¶":414,"åİ":415,"Ġw":416,"å±ķ":417,"Ġof":418,"ç»ı":419,"is":420,"ä¸Ĭ":421,"åľ°":422,"ç¤":423,"ä¾":424,"an":425,"åĩº":426,"æ²":427,"åĲĪ":428,"éĥ":429,"æı":430,"åĬĽ":431,"ç®":432,"ç³":433,"è¾":434,"è¿Ļ":435,"åĳ":436,"å¹´":437,"åĲĮ":438,"æĸ°":439,"ç«":440,"----":441,"tion":442,"ro":443,"æľ¬":444,"å»":445,"it":446,"Ġm":447,"æ°ĳ":448,"ç³»":449,"å·¥":450,"åħ¨":451,"åºĶ":452,"åħ³":453,"æķĻ":454,"çŃī":455,"Ġand":456,"Ġd":457,"åº¦":458,"éĩį":459,"æį":460,"è¿ĩ":461,"é«":462,"æĶ¿":463,"èĤ":464,"æķ°":465,"Ġf":466,"é«ĺ":467,"ic":468,"åıĳå±ķ":469,"åħ¶":470,"å»º":471,"æĿ¥":472,"ç¨ĭ":473,"as":474,"ar":475,"æ±":476,"ç½":477,"Ġb":478,"èĢĮ":479,"æıĲ":480,"åŁº":481,"åĪ°":482,"æĸĩ":483,"éĿ¢":484,"çł":485,"è®¾":486,"ing":487,"åĵ":488,"ç©":489,"ç¤¾":490,"èĩª":491,"æĦ":492,"æĭ":493,"æĥ":494,"è½":495,"æľº":496,"èµĦ":497,"èĢħ":498,"å®¶":499,"ä¹ĭ":500,"ç¡":501,"å¢":502,"éĺ":503,"ä»£":504,"¦Ĥ":505,"åī":506,"Ġ(":507,"åĬ¡":508,"éĩı":509,"å¤ļ":510,"çī©":511,"éĢļ":512,"el":513,"ç¬":514,"ç§į":515,"ent":516,"æ¯":517,"åĢ":518,"ç¤¾ä¼ļ":519,"æ´":520,"ç»Ł":521,"ä¹ī":522,"åĨħ":523,"è°":524,"æīĢ":525,"ä¸ŃåĽ½":526,"çĽ¸":527,"Ġre":528,"éĥ¨":529,"è§Ħ":530,"æĿĥ":531,"åıĬ":532,"æį®":533,"åĬł":534,"è·":535,"le":536,"æĪĳ":537,"åħ¬":538,"ä¿Ŀ":539,"é¡":540,"èģ":541,"æĬĢ":542,"ä¸ĭ":543,"å¼ı":544,"åĪ©":545,"éģ":546,"å¥":547,"ç®¡":548,"åĽł":549,"æĽ":550,"çŁ":551,"çĤ":552,"çłĶ":553,"ä¿¡":554,"æľ¯":555,"å¼Ģ":556,"å¦Ĥ":557,"ç»ĵ":558,"è®¡":559,"ä¹Ł":560,"åĲİ":561,"çķ":562,"äºĭ":563,"ä»İ":564,"ĠĠĠĠĠĠĠĠĠĠĠĠĠĠĠĠ":565,"ec":566,"éļ":567,"Ġto":568,"20":569,"âĢľ":570,"âĢĿ":571,"éĹ´":572,"çī¹":573,"æ²»":574,"æµİ":575,"ç¬¬":576,"å¹³":577,"æĪĸ":578,"ä½¿":579,"åĿ":580,"ation":581,"å°±":582,"é¢ĺ":583,"ç»ıæµİ":584,"å½ĵ":585,"æ¬":586,"æŀĦ":587,"è§£":588,"æĺİ":589,"å¹¶":590,"Ġe":591,"ä»¬":592,"ç§ĳ":593,"éķ":594,"ç©¶":595,"è¡¨":596,"åģ":597,"è®º":598,"æľŁ":599,"ç«ĭ":600,"è¶":601,"æłĩ":602,"çĽ®":603,"éľ":604,"è´¨":605,"å¼º":606,"ç´":607,"åıĺ":608,"çĤ¹":609,"çľ":610,"èī":611,"å¸Ĥ":612,"æº":613,"æģ":614,"å½¢":615,"us":616,"åħ¥":617,"å¾Ĺ":618,"ç±":619,"æĻ":620,"æ¸":621,"åħ±":622,"åīį":623,"çłĶç©¶":624,"åħļ":625,"èĤ²":626,"çĶ±":627,"å¯¼":628,"åŀ":629,"ul":630,"æĦı":631,"åĮº":632,"æķĪ":633,"ç¾":634,"éĹ®":635,"å¿ĥ":636,"æŁ":637,"å¤ĸ":638,"å°Ĩ":639,"ç»Ħ":640,"åħ·":641,"ä¸ī":642,"æ±Ĥ":643,"çĶµ":644,"æĽ´":645,"om":646,"æŃ¤":647,"--------":648,"æ¶":649,"çĦ":650,"æĬĢæľ¯":651,"ac":652,"éĽ":653,"æľĢ":654,"åĪĽ":655,"æºĲ":656,"æĮģ":657,"æĶ¹":658,"ig":659,"åĲĳ":660,"ä»¶":661,"æĢĿ":662,"éķ¿":663,"éľĢ":664,"ä¼ģ":665,"ä»ĸ":666,"et":667,"åŃĲ":668,"Ġth":669,"åĲĦ":670,"Ġn":671,"è¯Ĩ":672,"çĿ":673,"åŀĭ":674,"ç±»":675,"æ´»":676,"åı¯ä»¥":677,"åİŁ":678,"åĽ½å®¶":679,"è¿Ľè¡Į":680,"ä½į":681,"Ġh":682,"ol":683,"ä¸Ģä¸ª":684,"æ¨":685,"åĵģ":686,"æĮĩ":687,"ä¼ģä¸ļ":688,"ç¼":689,"ĠT":690,"ç½ĳ":691,"ç¡®":692,"çĦ¶":693,"éĹ®é¢ĺ":694,"==":695,"åľº":696,"æ°´":697,"éª":698,"os":699,"æŃ£":700,"äºĮ":701,"è®¤":702,"ä¼ł":703,"é£":704,"å¢ŀ":705,"æŀľ":706,"è°ĥ":707,"éĩĳ":708,"æ¨¡":709,"ä¸»ä¹ī":710,"çĸ":711,"ä»·":712,"ç®¡çĲĨ":713,"ur":714,"æ¡":715,"im":716,"æĿ¡":717,"æ·":718,"æķĻèĤ²":719,"åĨ³":720,"ve":721,"æĥħ":722,"æİ¨":723,"ãĢĬ":724,"ãĢĭ":725,"ä»»":726,"çĹ":727,"id":728,"éĢł":729,"ly":730,"ç²":731,"æģ¯":732,"äºĽ":733,"å®ī":734,"çİ¯":735,"åĳĺ":736,"un":737,"ä¹ł":738,"çŁ¥":739,"å§":740,"æĹł":741,"æĢģ":742,"åĨľ":743,"ä½Ĩ":744,"æµģ":745,"æķ°æį®":746,"èĲ":747,"åĪĻ":748,"è§Ĥ":749,"é¢Ĩ":750,"å°ı":751,"åŃ¦çĶŁ":752,"è¿Ĳ":753,"Ġ1":754,"éħ":755,"åŃĺ":756,"æĹ¥":757,"æİ¥":758,"Ġl":759,"è¯ģ":760,"éĢļè¿ĩ":761,"00":762,"éĿ©":763,"è½¬":764,"æ®":765,"ith":766,"ä¾Ľ":767,"å¤Ħ":768,"éĶ":769,"èĬ":770,"æ¯Ķ":771,"ç³»ç»Ł":772,"èµ·":773,"å¸¸":774,"å»ºè®¾":775,"äº¤":776,"ï¼ī":777,"ere":778,"éĥ½":779,"è¢":780,"å·¥ä½ľ":781,"Ġwith":782,"éĻħ":783,"æľį":784,"åĩĨ":785,"æĪĺ":786,"ï¼Ī":787,"å¾ĭ":788,"çĿĢ":789,"äººæ°ĳ":790,"åįģ":791,"Ġg":792,"åĢ¼":793,"å¢ĥ":794,"ä¿¡æģ¯":795,"æĸ½":796,"ot":797,"èģĶ":798,"ç¥":799,"åı²":800,"éģĵ":801,"çİĩ":802,"éĩįè¦ģ":803,"çĻ":804,"ĠC":805,"æĶ¶":806,"å¥½":807,"ä¸ĸ":808,"ce":809,"res":810,"åıĸ":811,"è¢«":812,"Ġst":813,"éªĮ":814,"è¯´":815,"é¡¹":816,"éĵ":817,"åķ":818,"åįķ":819,"è¿ĺ":820,"ç´ł":821,"åĻ":822,"Ġfor":823,"çķĮ":824,"il":825,"ä¸ĵ":826,"éĽĨ":827,"åıį":828,"åŁŁ":829,"åıĹ":830,"èĮ":831,"æ¬¡":832,"ter":833,"æŃ¥":834,"çº§":835,"Ġpro":836,"ç¾İ":837,"å¿ħ":838,"ĠA":839,"åķĨ":840,"æĥ³":841,"çŃĸ":842,"æĢ»":843,"å®Į":844,"ut":845,"ä¸¤":846,"éĻ¢":847,"æµĭ":848,"ï¼ļ":849,"èŀ":850,"è·¯":851,"æĬ¤":852,"è¯¾":853,"æķ´":854,"åı¸":855,"å®ŀçİ°":856,"æĶ¾":857,"åĻ¨":858,"ati":859,"æĪĳä»¬":860,"çĬ":861,"å®¹":862,"Ġcon":863,"èī²":864,"æľįåĬ¡":865,"åĮħ":866,"æ¡Ī":867,"èŀį":868,"åİĨ":869,"am":870,"èĭ":871,"çĽĬ":872,"ä¸»è¦ģ":873,"å½±":874,"ç®Ĺ":875,"è¾ĥ":876,"æł·":877,"æĶ¯":878,"èį":879,"æĸ¹éĿ¢":880,"æĸŃ":881,"if":882,"ow":883,"å¤į":884,"åŁºç¡":885,"Ġas":886,"åŁºç¡Ģ":887,"æł¹":888,"åĪ¶åº¦":889,"ĠS":890,"ĠI":891,"æĸĩåĮĸ":892,"æ·±":893,"å¼ķ":894,"è¿ĩç¨ĭ":895,"å¸Ĥåľº":896,"èĪ":897,"19":898,"åĪ«":899,"ell":900,"è¾¾":901,"um":902,"èĮĥ":903,"çº¿":904,"å·²":905,"æİ§":906,"åħĪ":907,"Ġis":908,"çĹħ":909,"éľĢè¦ģ":910,"Ġv":911,"ä¼ĺ":912,"èĥ½åĬĽ":913,"å®ĥ":914,"èĢĥ":915,"åĵį":916,"é£İ":917,"åĽ¾":918,"èĦ":919,"è®®":920,"èĬĤ":921,"æł¼":922,"[@":923,"é©":924,"ä¾ĭ":925,"ä¹¦":926,"uc":927,"å¸Ī":928,"åħĥ":929,"oc":930,"æľĪ":931,"ç¦":932,"å±Ĥ":933,"è¯¥":934,"Ġex":935,"ated":936,"od":937,"ç»ĩ":938,"æĪĳåĽ½":939,"è£":940,"ï¼Ľ":941,"ab":942,"éĿŀ":943,"æĸ¹æ³ķ":944,"æŀĲ":945,"ç¤º":946,"çİ¯å¢ĥ":947,"è±":948,"ç²¾":949,"è¿ĳ":950,"åħ·æľī":951,"åĸ":952,"éĻ©":953,"æķĻåŃ¦":954,"å®īåħ¨":955,"ä½İ":956,"st":957,"åŁİ":958,"è¯Ħ":959,"åºľ":960,"ä¸įåĲĮ":961,"çĶŁäº§":962,"ä¾Ŀ":963,"å£":964,"ä¸ŃçļĦ":965,"ç»Ħç»ĩ":966,"ç»´":967,"æĦŁ":968,"åħ»":969,"si":970,"æ®µ":971,"å¤ĩ":972,"ç§ĳåŃ¦":973,"æł¸":974,"åħ³ç³»":975,"åĳ½":976,"åĪĽæĸ°":977,"å½±åĵį":978,"è´£":979,"åĬŁ":980,"éĴ":981,"çĲĨè®º":982,"èĻ":983,"åĽĽ":984,"ä½¿çĶ¨":985,"åŃĹ":986,"åįı":987,"èģĮ":988,").":989,"æĺĵ":990,"æīį":991,"ç»Ĩ":992,"æĶ¿åºľ":993,"ra":994,"æŀģ":995,"ä½ĵç³»":996,"çĽĳ":997,"åŃ¦ä¹ł":998,"éĹ¨":999,"æıĲä¾Ľ":1000,"ĠĠĠĠĠĠĠĠĠĠĠĠĠĠĠĠĠĠĠĠĠĠĠĠĠĠĠĠĠĠĠĠ":1001,"æ£":1002,"äºĴ":1003,"ts":1004,"Ġthat":1005,"åıĤ":1006,"æĬĬ":1007,"äºī":1008,"ment":1009,"åĪĨæŀĲ":1010,"tic":1011,"æľª":1012,"è±¡":1013,"ag":1014,"èº":1015,"åį³":1016,"é¦":1017,"åĪĴ":1018,"çº¦":1019,"ity":1020,"èĩ³":1021,"åŁºæľ¬":1022,"è¦ģæ±Ĥ":1023,"æł¡":1024,"æ³¨":1025,"æĺ¾":1026,"ĠP":1027,"æĬķ":1028,"è¯Ń":1029,"å°ĳ":1030,"è§Ĩ":1031,"ç¥ŀ":1032,"ä½ľçĶ¨":1033,"å¤©":1034,"éĢī":1035,"æ°Ķ":1036,"æĶ¹éĿ©":1037,"èº«":1038,"åºĶçĶ¨":1039,"æ³ķå¾ĭ":1040,"æĹı":1041,"Ĥ£":1042,"Ġbe":1043,"èĲ¥":1044,"åİĨåı²":1045,"ud":1046,"çĥ":1047,"è§Ħå®ļ":1048,"ç»Ń":1049,"ä½ľä¸º":1050,"å¿µ":1051,"çĽ´":1052,"è®°":1053,"èĩ´":1054,"åºı":1055,"æĬ¥":1056,"åĿļ":1057,"èµĦæºĲ":1058,"op":1059,"ç©º":1060,"ä½ķ":1061,"ç»ĵæŀĦ":1062,"è¥":1063,"ç»ľ":1064,"éĩĩ":1065,"çģ":1066,"ri":1067,"æĸ¹å¼ı":1068,"ĠM":1069,"åĬ¿":1070,"éĻĲ":1071,"åĨµ":1072,"åı£":1073,"ver":1074,"åŁ¹":1075,"è¥¿":1076,"ä»¥åıĬ":1077,"éĢĤ":1078,"å±Ģ":1079,"åıª":1080,"è´¹":1081,"åįĩ":1082,"Ġwas":1083,"æĿĳ":1084,"åħ¬åı¸":1085,"ir":1086,"æĸĻ":1087,"çľĭ":1088,"Ġon":1089,"ç§¯":1090,"10":1091,"ä¸ľ":1092,"æŁ¥":1093,"æıĲé«ĺ":1094,"åı¯èĥ½":1095,"og":1096,"Ġal":1097,"ç½ĳç»ľ":1098,"éĢŁ":1099,"äº§ä¸ļ":1100,"è¯ķ":1101,"çķ¥":1102,"æµ·":1103,"å¹¿":1104,"Ġwere":1105,"çŁ¥è¯Ĩ":1106,"è¡Įä¸º":1107,"æ»":1108,"----------------":1109,"se":1110,"å¾Ī":1111,"éħį":1112,"æ²¡":1113,"ate":1114,"é¢Ħ":1115,"å¸¦":1116,"å½¢æĪĲ":1117,"yp":1118,"è·µ":1119,"æĭ¬":1120,"æ¶Ī":1121,"åĸĦ":1122,"ĠThe":1123,"====":1124,"ç½®":1125,"è´¢":1126,"å®¡":1127,"è®¾è®¡":1128,"ä¸ĸçķĮ":1129,"ä¸Ģç§į":1130,"ħ§":1131,"æĢĿæĥ³":1132,"æĶ¿æ²»":1133,"çª":1134,"æīĭ":1135,"Ġby":1136,"ç»Ļ":1137,"up":1138,"å¸ĥ":1139,"çĬ¶":1140,"çİ°ä»£":1141,"åĽ½éĻħ":1142,"åĲĮæĹ¶":1143,"è¨":1144,"Ġcell":1145,"em":1146,"å®ŀè·µ":1147,"åĨĽ":1148,"æĻº":1149,"ç¤¾ä¼ļä¸»ä¹ī":1150,"åĬ³":1151,"),":1152,"åģļ":1153,"çĽ¸åħ³":1154,"æī¿":1155,"è§ģ":1156,"åĨħå®¹":1157,"è¨Ģ":1158,"éĺ¶":1159,"åħī":1160,"åĲį":1161,"åŃĺåľ¨":1162,"å¾ģ":1163,"åįİ":1164,"Ġ2":1165,"æ²¡æľī":1166,"her":1167,"ĠH":1168,"äºĶ":1169,"é¡»":1170,"åı°":1171,"èİ":1172,"å¾·":1173,"ä¸Ķ":1174,"Ġac":1175,"ted":1176,"æ¸ħ":1177,"æĶ¿çŃĸ":1178,"è¿ĻäºĽ":1179,"åĮħæĭ¬":1180,"éļ¾":1181,"æıĲåĩº":1182,"ç¾¤":1183,"éĻ¤":1184,"çĽ®æłĩ":1185,"æ´»åĬ¨":1186,"ä¿ĿæĬ¤":1187,"æ£Ģ":1188,"åħĭ":1189,"æłĩåĩĨ":1190,"åĬ©":1191,"åľŁ":1192,"ä»ħ":1193,"Ġ\\":1194,"å°±æĺ¯":1195,"ç¢":1196,"ure":1197,"éĺ²":1198,"è¿°":1199,"ay":1200,"åĪĹ":1201,"th":1202,"å§ĭ":1203,"å»ºç«ĭ":1204,"æĪĲä¸º":1205,"å¤±":1206,"åĽłæŃ¤":1207,"ä»·åĢ¼":1208,"çĲĥ":1209,"åĮ»":1210,"Ġor":1211,"ï¼Ĥ":1212,"Ġcom":1213,"åħ¶ä»ĸ":1214,"Ġ*":1215,"rom":1216,"å¿«":1217,"äº§åĵģ":1218,"qu":1219,"æĥħåĨµ":1220,"ical":1221,"éĥ¨åĪĨ":1222,"çľŁ":1223,"è¶Ĭ":1224,"åĳĬ":1225,"ç§°":1226,"ä¼Ĺ":1227,"åĽ´":1228,"éļı":1229,"âĢĶ":1230,"å¿ħé¡»":1231,"çĸĹ":1232,"éļľ":1233,"åħħ":1234,"Ġres":1235,"äººçļĦ":1236,"ä¹ĭéĹ´":1237,"ç¨İ":1238,"å¹²":1239,"å±ŀ":1240,"èĥŀ":1241,"ä¸¥":1242,"è¶³":1243,"åĩı":1244,"çĭ":1245,"åıĪ":1246,"æł¹æį®":1247,"åĨį":1248,"æī§":1249,"ä¿ĥ":1250,"åħ¨éĿ¢":1251,"æİ§åĪ¶":1252,"æĴ":1253,"é©¬":1254,"å¤ĦçĲĨ":1255,"å¯¹äºİ":1256,"æ¯ı":1257,"æĪ·":1258,"ents":1259,"åĬ³åĬ¨":1260,"ĠD":1261,"æĿĲ":1262,"åįĹ":1263,"ä¹Ī":1264,"åĮĹ":1265,"di":1266,"åĿĩ":1267,"åĽŀ":1268,"è´¨éĩı":1269,"éĩĳèŀį":1270,"åıĳçĶŁ":1271,"æ°ĳæĹı":1272,"åĪ©çĶ¨":1273,"Ġare":1274,"ant":1275,"201":1276,"è®©":1277,"vel":1278,"è¿Ļç§į":1279,"é¢ĨåŁŁ":1280,"æĪĸèĢħ":1281,"éĻį":1282,"å¯Ĩ":1283,"è§£åĨ³":1284,"æĹ¶ä»£":1285,"å§Ķ":1286,"ĊĠ":1287,"Ġim":1288,"åħ´":1289,"å¤Ł":1290,"æĹ¶éĹ´":1291,"åİ»":1292,"æľºåĪ¶":1293,"ç»Ĩèĥŀ":1294,"çĶŁæ´»":1295,"ä¸ĩ":1296,"ç¦»":1297,"æľīæķĪ":1298,"åĶ":1299,"é£İéĻ©":1300,"èİ·":1301,"çħ§":1302,"ä¼łç»Ł":1303,"äº§çĶŁ":1304,"åĪ¤":1305,"Ġr":1306,"æ°´å¹³":1307,"Ġde":1308,"æİ¢":1309,"å·®":1310,"åı·":1311,"\",":1312,"ĠR":1313,"Ġ3":1314,"å®ŀæĸ½":1315,"åĽ¢":1316,"ad":1317,"ain":1318,"ç«ł":1319,"Ġexp":1320,"åħļçļĦ":1321,"ä¸įæĸŃ":1322,"è®¡ç®Ĺ":1323,"é¦ĸ":1324,"çªģ":1325,"æ¨¡å¼ı":1326,"ĠF":1327,"éĩĮ":1328,"ase":1329,"ç»Ī":1330,"Ġdis":1331,"åĬŁèĥ½":1332,"è®¤ä¸º":1333,"å¼Ĥ":1334,"å®³":1335,"è¡ĮæĶ¿":1336,"æ¬¾":1337,"è´Ł":1338,"ine":1339,"é¡¹çĽ®":1340,"ĠN":1341,"æİĴ":1342,"è¯ī":1343,"åĪĩ":1344,"è´£ä»»":1345,"Ġus":1346,"ĠB":1347,"ff":1348,"æ¿":1349,"èĳ":1350,"è¡Ģ":1351,"sion":1352,"æİ¨è¿Ľ":1353,"å·±":1354,"Ġ0":1355,"æĿ¡ä»¶":1356,"ess":1357,"æľºæŀĦ":1358,"åıĳå±ķçļĦ":1359,"æ¦Ĥ":1360,"åĢº":1361,"åĬŀ":1362,"æĮī":1363,"å¤®":1364,"è¿Ļä¸Ģ":1365,"æ¿Ģ":1366,"Ġat":1367,"åģ¥":1368,"æĬķèµĦ":1369,"æĢ§çļĦ":1370,"å®ŀéĻħ":1371,"çĶ±äºİ":1372,"ç¬¬ä¸Ģ":1373,"è¶ħ":1374,"ä¸ĵä¸ļ":1375,"æİ¨åĬ¨":1376,"äººåĳĺ":1377,"**":1378,"æķ°åŃĹ":1379,"æŁĲ":1380,"å¾Ģ":1381,"çĶŁæĢģ":1382,"ç¨³":1383,"å²":1384,"å®ļçļĦ":1385,"æĭħ":1386,"åıĺåĮĸ":1387,"ore":1388,"èį¯":1389,"åĳ¨":1390,"ç§»":1391,"è®¸":1392,"ç»ĵåĲĪ":1393,"Ġinc":1394,"Ġch":1395,"ç²¾ç¥ŀ":1396,"æķĻå¸Ī":1397,"ĠE":1398,"åŁİå¸Ĥ":1399,"ä¿®":1400,"å¦Ĥæŀľ":1401,"å¯Į":1402,"ub":1403,"åİĭ":1404,"åĲ¦":1405,"200":1406,"åĿļæĮģ":1407,"æĪĺçķ¥":1408,"åĪĿ":1409,"è¯¾ç¨ĭ":1410,"ph":1411,"åľ°åĮº":1412,"åĬłå¼º":1413,"èĩªå·±":1414,"å·¥ç¨ĭ":1415,"Ġfrom":1416,"å¿Ĺ":1417,"é»":1418,"åŁ¹åħ»":1419,"æįŁ":1420,"æ¼":1421,"è¯·":1422,"ä¸įèĥ½":1423,"çºª":1424,"åħ±åĲĮ":1425,"te":1426,"æĬĹ":1427,"Ġstud":1428,"ä¸ĬçļĦ":1429,"pl":1430,"ä¿ĥè¿Ľ":1431,"ran":1432,"çĭ¬":1433,"Ġwh":1434,"ç¾İåĽ½":1435,"çļĦåıĳå±ķ":1436,"ç§ĳæĬĢ":1437,"è¾ĵ":1438,"åĨľä¸ļ":1439,"èĤ¡":1440,"éĥ¨éĹ¨":1441,"ç¼ĸ":1442,"èīº":1443,"ä¸Ńå¤®":1444,"und":1445,"éĺ¶æ®µ":1446,"ype":1447,"ign":1448,"ä¹¡":1449,"æ¢":1450,"éŁ":1451,"æīĢæľī":1452,"èĥ½å¤Ł":1453,"çĻ¾":1454,"ers":1455,"æĻ®":1456,"orm":1457,"åĤ":1458,"æĻ¯":1459,"åĦ":1460,"è§Ĵ":1461,"ç»¼":1462,"ç¼º":1463,"åĩł":1464,"Ġne":1465,"åĲĪåĲĮ":1466,"åº·":1467,"æ²»çĲĨ":1468,"åĥ":1469,"è£ħ":1470,"è´§":1471,"åĲĪä½ľ":1472,"éĺŁ":1473,"å±±":1474,"Ġpati":1475,"èĩªçĦ¶":1476,"å¯Ł":1477,"12":1478,"å¼ł":1479,"æł¸å¿ĥ":1480,"çł´":1481,"åĩºçİ°":1482,"çľģ":1483,"èĲ½":1484,"igh":1485,"ä¸´":1486,"ref":1487,"ä»ĸä»¬":1488,"å¤§çļĦ":1489,"å·¥ä¸ļ":1490,"ĠIn":1491,"éľĢæ±Ĥ":1492,"ä¸Ńå¿ĥ":1493,"åħ¨çĲĥ":1494,"ä¸ĢæŃ¥":1495,"åºĶå½ĵ":1496,"éĤ£":1497,"ies":1498,"é¢Ĩå¯¼":1499,"Ġcells":1500,"çī¹èī²":1501,"è½¦":1502,"ug":1503,"æĵ":1504,"åı¤":1505,"ch":1506,"å®¢":1507,"éĶ®":1508,"æŁĵ":1509,"æĸ°çļĦ":1510,"å½¢å¼ı":1511,"å¾®":1512,"æĸ¯":1513,"ä¸ĢäºĽ":1514,"åħį":1515,"ç»ĵæŀľ":1516,"æīĵ":1517,"por":1518,"ä¿Ŀéļľ":1519,"ib":1520,"æĶ¯æĮģ":1521,"Ġle":1522,"ç½ª":1523,"éĵ¾":1524,"æĭ©":1525,"å¼Ģåıĳ":1526,"å¢ŀéķ¿":1527,"Ġcomp":1528,"æĮ¥":1529,".\"":1530,"å¢ŀåĬł":1531,"åİŁåĪĻ":1532,"çĻ½":1533,"çĪ":1534,"èĢģ":1535,"Ġhe":1536,"ç®Ģ":1537,"duc":1538,"æī¹":1539,"ect":1540,"èħ":1541,"çĥŃ":1542,"Ġad":1543,"ç¬¬äºĮ":1544,"å·²ç»ı":1545,"åĮĸçļĦ":1546,"ç´¢":1547,"åıĳçİ°":1548,"çĮ":1549,"è¿Ļä¸ª":1550,"è¿ŀ":1551,"å®ŀéªĮ":1552,"èµĦæľ¬":1553,"Ġcont":1554,"æī©":1555,"åħ·ä½ĵ":1556,"iz":1557,"åĲ«":1558,"ä»Ĭ":1559,"çĶŁçī©":1560,"åı¦":1561,"ä¸»ä½ĵ":1562,"éĩĬ":1563,"å®ĮåĸĦ":1564,"ä»£è¡¨":1565,"æĻºèĥ½":1566,"è®Ń":1567,"çº³":1568,"æıĲåįĩ":1569,"ific":1570,"ous":1571,"å¤§åŃ¦":1572,"åįł":1573,"åıĮ":1574,"NA":1575,"ç©ºéĹ´":1576,"éĢīæĭ©":1577,"ä¸¾":1578,"åĪ©çĽĬ":1579,"ĠG":1580,"ä¸ªäºº":1581,"è¿ľ":1582,"æ»¡":1583,"ys":1584,"Ġsh":1585,"çļĦæĺ¯":1586,"ç»¼åĲĪ":1587,"æĦıä¹ī":1588,"äººæīį":1589,"ç§¯æŀģ":1590,"äººç±»":1591,"11":1592,"åįķä½į":1593,"Ġgen":1594,"èĪ¬":1595,"ä¸Ńåįİ":1596,"çļĦéĩįè¦ģ":1597,"Ġ4":1598,"ä¸įæĺ¯":1599,"è¯»":1600,"ç«ŀ":1601,"è¡¥":1602,"è¿Ľä¸ĢæŃ¥":1603,"æľīåħ³":1604,"æĺİç¡®":1605,"ç¨ĭåºı":1606,"è½½":1607,"tive":1608,"æį¢":1609,"çĽ´æİ¥":1610,"CR":1611,"red":1612,"æĿĤ":1613,"å¦Ĥä½ķ":1614,"åħ³éĶ®":1615,"æĤ£":1616,"æĪĲæľ¬":1617,"ations":1618,"able":1619,"åĨĻ":1620,"ĠL":1621,"è¿ĩç¨ĭä¸Ń":1622,"å¤´":1623,"ç»§":1624,"åħ¨åĽ½":1625,"åĥı":1626,"é£Ł":1627,"ence":1628,"ä¸ĢèĪ¬":1629,"](":1630,"åĽłç´ł":1631,"å¼ĢæĶ¾":1632,"Ġinf":1633,"æŃ¢":1634,"ç«¯":1635,"ist":1636,"æı¡":1637,"est":1638,"æĮģç»Ń":1639,"ĠĠĠ":1640,"Ġcan":1641,"åł":1642,"éĵ¶":1643,"èĭ±":1644,"æĳ":1645,"åħ³äºİ":1646,"èĮĥåĽ´":1647,"è¯Ŀ":1648,"tiv":1649,"end":1650,"éĿ©åĳ½":1651,"Ġ5":1652,"å¸ģ":1653,"è¾¹":1654,"åıĤä¸İ":1655,"\\]":1656,"éĴĪ":1657,"ä¾¿":1658,"ep":1659,"ä¹Łæĺ¯":1660,"æī§è¡Į":1661,"çĽ®åīį":1662,"åĽº":1663,"ç»Łä¸Ģ":1664,"å¼Ģå±ķ":1665,"ä»ĭ":1666,"èī¯":1667,"åħ¸":1668,"age":1669,"é¢Ŀ":1670,"Ġper":1671,"ary":1672,"è¯Ħä»·":1673,"èĳĹ":1674,"å¯¼èĩ´":1675,"å®ĺ":1676,"ap":1677,"æ³ķéĻ¢":1678,"åħħåĪĨ":1679,"ç¬¬ä¸ī":1680,"æķħ":1681,"éĢĲ":1682,"åıĳæĮ¥":1683,"ä¼°":1684,"åį±":1685,"ip":1686,"æĹ¢":1687,"èµ°":1688,"ial":1689,"ä»Ģ":1690,"éĩįå¤§":1691,"ç»ıèĲ¥":1692,"Ġpatients":1693,"åĽłä¸º":1694,"ĠW":1695,"æİª":1696,"åĲĦç§į":1697,"é©¬åħĭ":1698,"çī¹å¾ģ":1699,"åħ¬åħ±":1700,"ion":1701,"å°Ķ":1702,"æĿĲæĸĻ":1703,"){":1704,"åĦ¿":1705,"å¾ĹåĪ°":1706,"pec":1707,"å°Ħ":1708,"åĨľæĿĳ":1709,"å±ħ":1710,"Ġass":1711,"çĿ£":1712,"èµĦäº§":1713,"è®²":1714,"æĵį":1715,"æ¶Īè´¹":1716,"å¡":1717,"ors":1718,"ä»İèĢĮ":1719,"åľ°æĸ¹":1720,"é©¬åħĭæĢĿ":1721,"æĪ¿":1722,"æ¹":1723,"åĭ":1724,"act":1725,"çĬ¯":1726,"ther":1727,"æ¨¡åŀĭ":1728,"ä»»åĬ¡":1729,"Ġ\\[":1730,"å¹³åı°":1731,"åħ¶ä¸Ń":1732,"çīĪ":1733,"type":1734,"åĮºåŁŁ":1735,"èĥ½æºĲ":1736,"ge":1737,"äºĪ":1738,"æĿĥåĪ©":1739,"è¡¨çİ°":1740,"è´¸":1741,"vi":1742,"å½ķ":1743,"æ½":1744,"ä»Ģä¹Ī":1745,"ä»į":1746,"åŁºäºİ":1747,"Ġnot":1748,"åĤ¨":1749,"éĩįçĤ¹":1750,"è¡Įä¸ļ":1751,"éĤ":1752,"äº«":1753,"ç«ŀäºī":1754,"è§ĦèĮĥ":1755,"iff":1756,"åŃ¦æł¡":1757,"åģ¿":1758,"åħŃ":1759,"èİ·å¾Ĺ":1760,"åĪ¶éĢł":1761,"åĪĳ":1762,"éĶĢ":1763,"ä½Ĩæĺ¯":1764,"è®¤è¯Ĩ":1765,"éĩĩçĶ¨":1766,"eren":1767,"15":1768,"è®¾å¤ĩ":1769,"èģĮä¸ļ":1770,"å¼Ģå§ĭ":1771,"æĹ¶æľŁ":1772,"..":1773,"ä¸įä»ħ":1774,"ç¨ĭåº¦":1775,"å°½":1776,"âĢĿï¼Į":1777,"olog":1778,"ä¸¤ä¸ª":1779,"è§ĦåĪĴ":1780,"ä»ĺ":1781,"å£«":1782,"æ³¢":1783,"ia":1784,"ç¢³":1785,"åĲ¸":1786,"æŀĹ":1787,"æĤ":1788,"åĨ³å®ļ":1789,"æĸĹ":1790,"Ġsign":1791,"ç¡®å®ļ":1792,"æİĪ":1793,"enti":1794,"Ġco":1795,"æĦıè¯Ĩ":1796,"çŁ³":1797,"æ¤":1798,"ich":1799,"ç¬¦":1800,"æĿ¥çļĦ":1801,"Ġha":1802,"çīĩ":1803,"è®¡åĪĴ":1804,"çĸ«":1805,"18":1806,"ression":1807,"éļıçĿĢ":1808,"åĪĽéĢł":1809,"Ġint":1810,"æ¶ī":1811,"èģļ":1812,"åħ±äº§":1813,"è¡¡":1814,"çİĭ":1815,"ä¸ºäºĨ":1816,"æ¸©":1817,"æ¦Ĥå¿µ":1818,"Ġthis":1819,"Ġcl":1820,"]\\]":1821,"åħ«":1822,"æ±Ł":1823,"è¿Ļæł·":1824,"=\"":1825,"Ġwe":1826,"ular":1827,"æĮĩå¯¼":1828,"Ġ[":1829,"çĲĨè§£":1830,"and":1831,"æ¯Ķè¾ĥ":1832,"](#":1833,"\"}":1834,"æŀĦå»º":1835,"è¾¾åĪ°":1836,"ath":1837,"å¾Ħ":1838,"ä¾µ":1839,"è§Ħæ¨¡":1840,"Ġdiff":1841,"å¤ª":1842,"åį«":1843,"è¿Ŀ":1844,"èģĶç½ĳ":1845,"ä¸ŃåĽ½çī¹èī²":1846,"çī¹åĪ«":1847,"æļ":1848,"30":1849,"Ġse":1850,"Ġdi":1851,"ä»½":1852,"ä¹ĭéĹ´çļĦ":1853,"çļĦä¸Ģ":1854,"éŁ³":1855,"ç»ıéªĮ":1856,"æ¸¸":1857,"ved":1858,"ĠO":1859,"Ġpre":1860,"çĶ¨äºİ":1861,"äºļ":1862,"æ²»çĸĹ":1863,"åºĵ":1864,"Ġsy":1865,"å¨":1866,"ä½ĵçİ°":1867,"æ°ĳä¸»":1868,"èı":1869,"æĺ¯åĲ¦":1870,"çŃĳ":1871,"å¦":1872,"äº¬":1873,"è®¨":1874,"tions":1875,"çī¹çĤ¹":1876,"æ±¡":1877,"21":1878,"Ġ\\[[@":1879,"Ġap":1880,"ory":1881,"åģ¥åº·":1882,"rans":1883,"æĵįä½ľ":1884,"vid":1885,"åºķ":1886,"ast":1887,"è¿ĲåĬ¨":1888,"ance":1889,"å®ĮæĪĲ":1890,"è¿ĳå¹³":1891,"å£°":1892,"ple":1893,"âĳ":1894,"ä¹łè¿ĳå¹³":1895,"ä½ı":1896,"ä¸ĸçºª":1897,"åĽ°":1898,"========":1899,"èĨ":1900,"çİ°ä»£åĮĸ":1901,"ç»¿":1902,"æĸĩæĺİ":1903,"æīĢä»¥":1904,"çĶµåŃĲ":1905,"æĹ©":1906,"Â·":1907,"å®¤":1908,"åĩ»":1909,"é¼":1910,"æĸ¹æ¡Ī":1911,"åĢŁ":1912,"éģĹ":1913,"æ¯Ĵ":1914,"è´Ń":1915,"çĮ®":1916,"æ¼Ķ":1917,"çĹĩ":1918,"çĽ®çļĦ":1919,"åıĸå¾Ĺ":1920,"äº¿":1921,"è½¯":1922,"Ġhave":1923,"ç¨³å®ļ":1924,"ĠĠĠĠĠĠĠĠĠĠĠĠĠĠĠĠĠĠĠĠĠĠĠĠĠĠĠĠĠĠĠĠĠĠĠĠĠĠĠĠĠĠĠĠĠĠĠĠĠĠĠĠĠĠĠĠĠĠĠĠĠĠĠĠ":1925,"æİªæĸ½":1926,"åĿĹ":1927,"ãĢĢ":1928,"ä¹Ĳ":1929,"è§ī":1930,"éĵ¶è¡Į":1931,"åľŁåľ°":1932,"æĤ£èĢħ":1933,"ased":1934,"äº¤æĺĵ":1935,"ill":1936,"æŀ¶":1937,"éĢłæĪĲ":1938,"éĿĴ":1939,"è´«":1940,"æĬ¥åĳĬ":1941,"Ġeff":1942,"ä¸ļåĬ¡":1943,"åĽ½åĨħ":1944,"æľºåħ³":1945,"äººä»¬":1946,"æĸ¹åĲĳ":1947,"è¿Ļæĺ¯":1948,"æľīçļĦ":1949,"çº¢":1950,"æĶ¶åħ¥":1951,"pt":1952,"åŃ¦ç§ĳ":1953,"é¢ĳ":1954,"æĪĲæŀľ":1955,"ost":1956,"Ġpar":1957,"ä½ĵåĪ¶":1958,"èĻĳ":1959,"ä¼Ł":1960,"ren":1961,"ç«Ļ":1962,"ue":1963,"çĨ":1964,"åĪ»":1965,"Ġ=":1966,"æĢ§åĴĮ":1967,"èĩªçĶ±":1968,"Ġstudy":1969,"è®¼":1970,"pon":1971,"ä¾ĭå¦Ĥ":1972,"Ġgro":1973,"è¿½":1974,"å½Ĵ":1975,"\".":1976,"æľĽ":1977,"ä¼ĺåĬ¿":1978,"çĽĳçĿ£":1979,"æĲ":1980,"çŁŃ":1981,"å¼ºè°ĥ":1982,"ä»¤":1983,"å¾ª":1984,"Ġwhich":1985,"50":1986,"åĲĪçĲĨ":1987,"é¥":1988,"ç£":1989,"æ¤į":1990,"pro":1991,"æ³Ľ":1992,"çļĦåŁºæľ¬":1993,"13":1994,"æ¬§":1995,"èĥĮ":1996,"æ²³":1997,"è¯īè®¼":1998,"è¿Ľåħ¥":1999,"æĽ´åĬł":2000,"Ġit":2001,"æĭŁ":2002,"Ġk":2003,"14":2004,"åºŃ":2005,"çļĦåŁºç¡Ģ":2006,"æ³ķæ²»":2007,"åĬ±":2008,"å·ŀ":2009,"reat":2010,"çļĦéĹ®é¢ĺ":2011,"ç´§":2012,"Ġbet":2013,"éķ¿æľŁ":2014,"æĮīçħ§":2015,"åıĬåħ¶":2016,"å¢ŀå¼º":2017,"åĢĻ":2018,"èĻ½":2019,"æł¹æľ¬":2020,"çĶ³":2021,"éĿł":2022,"è£ģ":2023,"--------------------------------":2024,"ï¼İ":2025,"ä¿Ŀè¯ģ":2026,"ç¾¤ä¼Ĺ":2027,"16":2028,"åĪ¶å®ļ":2029,"èĢĮä¸Ķ":2030,"Ġanal":2031,"ally":2032,"æĮĩåĩº":2033,"ä»¥æĿ¥":2034,"éĻįä½İ":2035,"åīĤ":2036,"ative":2037,"ä¸Ģå®ļ":2038,"ä»¥ä¸ĭ":2039,"å¤įæĿĤ":2040,"Ġinter":2041,"é©¬åħĭæĢĿä¸»ä¹ī":2042,"ä¸ŃåĽ½çī¹èī²ç¤¾ä¼ļä¸»ä¹ī":2043,"è´¸æĺĵ":2044,"æħ":2045,"Ġ6":2046,"we":2047,"æİĮ":2048,"æ±ī":2049,"èīºæľ¯":2050,"Ġdifferen":2051,"çĶ»":2052,"æ´¾":2053,"è¯į":2054,"æīĺ":2055,"éĩıçļĦ":2056,"å¥½çļĦ":2057,"äºĳ":2058,"æķĪçİĩ":2059,"rol":2060,"åĨ²":2061,"è¯Ħä¼°":2062,"çĬ¶æĢģ":2063,"åŁºåĽł":2064,"åĩıå°ĳ":2065,"è¿Ĳè¡Į":2066,"æĴŃ":2067,"Ġab":2068,"çķĻ":2069,"å»¶":2070,"åİ¿":2071,"ata":2072,"Ġreg":2073,"ress":2074,"çī©è´¨":2075,"å¯¹è±¡":2076,"âĢĶâĢĶ":2077,"ä¼¼":2078,"å§Ķåĳĺ":2079,"ä¸įåĲĮçļĦ":2080,",\"":2081,"ä¹Ŀ":2082,"æĺŁ":2083,"èĽ":2084,"enc":2085,"æ±ĩ":2086,"è¶ĭ":2087,"åİŁåĽł":2088,"çļĦçłĶç©¶":2089,"éĺ³":2090,"å®£":2091,"ç±³":2092,"åľ°ä½į":2093,"å»ºçŃĳ":2094,"è¯Ńè¨Ģ":2095,"çĽ¸äºĴ":2096,"è¾ĳ":2097,"ä»»ä½ķ":2098,"è¿ĲçĶ¨":2099,"åºĶè¯¥":2100,"unc":2101,"Ġmod":2102,"å¾ħ":2103,"all":2104,"è°ĥæķ´":2105,"ĠU":2106,"æİ¢ç´¢":2107,"çİ°å®ŀ":2108,"æĺ¯åľ¨":2109,"èĢĥèĻĳ":2110,"éĶĻ":2111,"æĺ¯æĮĩ":2112,"Ġmet":2113,"åŃ¦çĶŁçļĦ":2114,"ari":2115,"åħ±äº§åħļ":2116,"Ġshow":2117,"é¾":2118,"åı¸æ³ķ":2119,"val":2120,"ä¹ĭä¸Ģ":2121,"ä½Ļ":2122,"çı":2123,"ä¸¥éĩį":2124,"æĶ¹åıĺ":2125,"åĽŃ":2126,"ç»ĥ":2127,"éħ¸":2128,"çĶļ":2129,"ä¸°":2130,"å®Ĺ":2131,"æľĿ":2132,"fig":2133,"äºĨè§£":2134,"ding":2135,"åıªæľī":2136,"17":2137,"çĽ¸å¯¹":2138,"ç»ĦæĪĲ":2139,"éĴĪå¯¹":2140,"ä¿ĿéĻ©":2141,"èĦĳ":2142,"éķĩ":2143,"éĩįè¦ģçļĦ":2144,"000":2145,"è´§å¸ģ":2146,"ä½ĵçļĦ":2147,"çłģ":2148,"èµĦéĩĳ":2149,"éģ¿":2150,"æŃ»":2151,"æ¶²":2152,"èŀįåĲĪ":2153,"è¯¯":2154,"Ġsub":2155,"Ġpl":2156,"åį°":2157,"åłĤ":2158,"çļĦäºº":2159,"è®¾æĸ½":2160,"ç»Ŀ":2161,"çĭ¬ç«ĭ":2162,"æľªæĿ¥":2163,"åĬłå¿«":2164,"Ġob":2165,"ĠĠĠĠĠĠĠĠĠĠĠĠ":2166,"Ġtrans":2167,"æīįèĥ½":2168,"low":2169,"è¡¨ç¤º":2170,"çĶ¨æĪ·":2171,"ong":2172,"æ°§":2173,"âĢĿãĢĤ":2174,"æĺİæĺ¾":2175,"èĩªå·±çļĦ":2176,"æĭī":2177,"èģĶç³»":2178,"å¥³":2179,"Ġrec":2180,"Ġ[@":2181,"åıįåºĶ":2182,"åĨ³çŃĸ":2183,"ç»´æĬ¤":2184,"Ġme":2185,"è®¸å¤ļ":2186,"so":2187,"22":2188,"oci":2189,"çļĦå½±åĵį":2190,"åĲ¯":2191,"mun":2192,"è§£éĩĬ":2193,"çĲĨå¿µ":2194,"èĩªèº«":2195,"Fig":2196,"èĭı":2197,"æķ£":2198,"æĽ´å¤ļ":2199,"éĥ½æĺ¯":2200,"ä»¥ä¸Ĭ":2201,"æīĭæ®µ":2202,"ç±»åŀĭ":2203,"ä¸ĥ":2204,"åĨħéĥ¨":2205,"æ·±åħ¥":2206,"çļĦæĸ°":2207,"ome":2208,"ear":2209,"ight":2210,"çĺ":2211,"æŀĦæĪĲ":2212,"åįĬ":2213,"èĻļ":2214,"Ġmic":2215,"è½»":2216,"ult":2217,"äºĭä¸ļ":2218,"Ġ-":2219,"ä»·æł¼":2220,"è®¢":2221,"åıĹåĪ°":2222,"éī":2223,"åĬĽéĩı":2224,"æĶ»":2225,"çĽĳç®¡":2226,"éī´":2227,"çĸ¾":2228,"tim":2229,"å¹¿æ³Ľ":2230,"åĨľæ°ĳ":2231,"ween":2232,"ä¸Ģæĸ¹éĿ¢":2233,"æİĮæı¡":2234,"å·¨":2235,"25":2236,"åĬĽçļĦ":2237,"æĢĿç»´":2238,"çĬ¯ç½ª":2239,"ven":2240,"Ġincre":2241,"èĹ":2242,"æĺł":2243,"é¦ĸåħĪ":2244,"é²":2245,"åºĬ":2246,"ä¼ĺåĮĸ":2247,"çİ°è±¡":2248,"ç§ģ":2249,"Ġactiv":2250,"å®Ī":2251,"éĩĩåıĸ":2252,"æĸ°æĹ¶ä»£":2253,"æĿŁ":2254,"ose":2255,"ä¸įåı¯":2256,"Ġbetween":2257,":\"":2258,"åķĨä¸ļ":2259,"èĭ¥":2260,"Ġdet":2261,"ä¼¤":2262,"ak":2263,"ä¹īåĬ¡":2264,"èĦ±":2265,"ä¿ĿæĮģ":2266,"åį´":2267,"è´¯":2268,"æŃ£ç¡®":2269,"åħ³æ³¨":2270,"ach":2271,"å½ĵåīį":2272,"äºĴèģĶç½ĳ":2273,"ä¼ļè®¡":2274,"form":2275,"æĹłæ³ķ":2276,"å®Įåħ¨":2277,"å¹´çļĦ":2278,"ĠTh":2279,"å¸®":2280,"è´·":2281,"å¼ķå¯¼":2282,"è´¢äº§":2283,"éĢĤåºĶ":2284,"ä¼ļè®®":2285,"èĪª":2286,"ates":2287,"åª":2288,"èĽĭ":2289,"è·¨":2290,"ç»¿èī²":2291,"Ġwhe":2292,"tein":2293,"ï¼Ł":2294,"åįļ":2295,"èĢħçļĦ":2296,"æĢ¥":2297,"æķ´ä½ĵ":2298,"æ´²":2299,"åģĩ":2300,"æķĪæŀľ":2301,"rac":2302,"port":2303,"æī¿æĭħ":2304,"lud":2305,"Ġanti":2306,"æ±¡æŁĵ":2307,"æŃ¦":2308,"ç¦ı":2309,"ection":2310,"]\\].":2311,"æ¡Īä»¶":2312,"æ»¡è¶³":2313,"åįıè°ĥ":2314,"Ġlevel":2315,"åĮĸåŃ¦":2316,"è§Ħå¾ĭ":2317,"æ¸Ĳ":2318,"rib":2319,"80":2320,"ä½ľåĩº":2321,"ç³»åĪĹ":2322,"],":2323,"Ġind":2324,"lo":2325,"åĮ»çĸĹ":2326,"ä¾Ŀæį®":2327,"æıĲä¾ĽäºĨ":2328,"åįıè®®":2329,"å¨ģ":2330,"å¿ĥçĲĨ":2331,"éĢģ":2332,"our":2333,"çĶļèĩ³":2334,"ä¹¡æĿĳ":2335,"ç¯":2336,"éĢĶ":2337,"è´¢æĶ¿":2338,"èĴ":2339,"ä¼Łå¤§":2340,"è¯Ĺ":2341,"çĽ¾":2342,"Ġsc":2343,"cer":2344,"éĿŀå¸¸":2345,"å½ĵäºĭ":2346,"åįĥ":2347,"ç¬¦åĲĪ":2348,"éĽĨä¸Ń":2349,"çļĦä¸»è¦ģ":2350,"åªĴ":2351,"åĪĨåŃĲ":2352,"è§ĦåĪĻ":2353,"40":2354,"é»Ħ":2355,"Ġmay":2356,"Ġsignific":2357,"å·¥åħ·":2358,"çĪ±":2359,"Ġ\"":2360,"å±¥":2361,"ãĢĤâĢĿ":2362,"ech":2363,"å¼±":2364,"è¦ģç´ł":2365,"å®ĥä»¬":2366,"Ġalso":2367,"Ġen":2368,"éĻĲåĪ¶":2369,"erm":2370,"äººåı£":2371,"æłĳ":2372,"åĵ²":2373,"å§Ķåĳĺä¼ļ":2374,"å±ŀäºİ":2375,"éĻĦ":2376,"Ġexpression":2377,"äºĭå®ŀ":2378,"æĽ²":2379,"æĥħåĨµä¸ĭ":2380,"èıĮ":2381,"ugh":2382,"Ġ7":2383,"èĨľ":2384,"çŁĽ":2385,"ä¹¦è®°":2386,"è¡¨è¾¾":2387,"æ£Ģæµĭ":2388,"çģµ":2389,"æĹ¥æľ¬":2390,"æĪĲç«ĭ":2391,"èĻ½çĦ¶":2392,"ç¿":2393,"æ¶īåıĬ":2394,"è½¯ä»¶":2395,"Ġcor":2396,"éģĵå¾·":2397,"éĢļå¸¸":2398,"åĪĨéħį":2399,"å¹´æĿ¥":2400,"Ġdise":2401,"è°ĥæŁ¥":2402,"çŁĽçĽ¾":2403,"uld":2404,"ç¼©":2405,"å°ģ":2406,"##":2407,"æĿ¿":2408,"éĺ»":2409,"ulation":2410,"alth":2411,"åĶ®":2412,"æĺ¯ä¸Ģä¸ª":2413,"é¡º":2414,"è¡¨æĺİ":2415,"Ġthese":2416,"èĽĭçĻ½":2417,"éĢı":2418,"The":2419,"æıı":2420,"Ġanalys":2421,"199":2422,"ied":2423,"æĮ¯":2424,"Ġph":2425,"ual":2426,"Ġhas":2427,"æĸĩä»¶":2428,"çī©çĲĨ":2429,"Ġgroup":2430,"å°¤":2431,"æĮĩæłĩ":2432,"Ġusing":2433,"è°Ī":2434,"æĦıè§ģ":2435,"èģĶåĲĪ":2436,"Ġdata":2437,"çī©çļĦ":2438,"éĹ®é¢ĺçļĦ":2439,"è·Ŀ":2440,"çģ«":2441,"ç³»ç»ŁçļĦ":2442,"ew":2443,"æ²¹":2444,"åľ¨äºİ":2445,"äººæ°ĳæ³ķéĻ¢":2446,"æĬĢèĥ½":2447,"ected":2448,"Ġbeen":2449,"ound":2450,"èµ·æĿ¥":2451,"æĮĳ":2452,"ä¹°":2453,"è¡ĮåĬ¨":2454,"çĽĸ":2455,"æī¾":2456,"æľĢç»Ī":2457,"ä¸°å¯Į":2458,"æ··":2459,"è¯ģæĺİ":2460,"å¿ħè¦ģ":2461,"å¥ĭ":2462,"å®ª":2463,"åĢºåĬ¡":2464,"éĢĢ":2465,"éģĩ":2466,"çĶ³è¯·":2467,"åķĨåĵģ":2468,"è¿ĺæĺ¯":2469,"æĪĲåĬŁ":2470,"ä¸ŃåĽ½åħ±äº§åħļ":2471,"Ġy":2472,"âĪ":2473,"Ġcons":2474,"Ġpres":2475,"æİ¥åıĹ":2476,"Ġ{":2477,"rap":2478,"iti":2479,"æĿĥçļĦ":2480,"Ġinv":2481,"é«ĺåº¦":2482,"åĵ²åŃ¦":2483,"Ġsignificant":2484,"åıįæĺł":2485,"23":2486,"äºĭä»¶":2487,"ĠÂ":2488,"è®¡ç®Ĺæľº":2489,"æ³ķè§Ħ":2490,"å°±ä¸ļ":2491,"æķ°åŃ¦":2492,"çŃĶ":2493,"æĸ¹éĿ¢çļĦ":2494,"å°ļ":2495,"å¹¶ä¸Ķ":2496,"âĢ¦":2497,"æ½ľ":2498,"æ®Ĭ":2499,"one":2500,"Ġca":2501,"ä¿¡åı·":2502,"yt":2503,"æ´ĭ":2504,"str":2505,"Ġrel":2506,"åĪĨå¸ĥ":2507,"çĨŁ":2508,"åĪĨä¸º":2509,"ang":2510,"çļĦå¤§":2511,"reatment":2512,"èĦī":2513,"è¯Ĭ":2514,"ĠV":2515,"åĪĨåĪ«":2516,"æµĭè¯ķ":2517,"ç«ĭæ³ķ":2518,"rain":2519,"æ³¨æĦı":2520,"å¹´ä»£":2521,"éĩįè§Ĩ":2522,"çĺ¤":2523,"ç½Ĺ":2524,"éĢ»":2525,"ä¾Ŀæ³ķ":2526,"å½¢æĢģ":2527,"æľīåĪ©":2528,"éģĵè·¯":2529,"æķ´ä¸ª":2530,"æĺ¾ç¤º":2531,"èĩªä¸»":2532,"Ġ([@":2533,"å¼ķèµ·":2534,"ç¥ŀç»ı":2535,"æī©å¤§":2536,"å½»":2537,"ases":2538,"ens":2539,"æĢ§èĥ½":2540,"çĽ¸åºĶ":2541,"èĲ½å®ŀ":2542,"ç½ļ":2543,"éª¨":2544,"Ġ10":2545,"æĦ¿":2546,"å·®å¼Ĥ":2547,"ä½ľèĢħ":2548,"60":2549,"ç»§ç»Ń":2550,"è§ĤçĤ¹":2551,"éĢ»è¾ĳ":2552,"ility":2553,"éģį":2554,"åĲİçļĦ":2555,"å¿«éĢŁ":2556,"velop":2557,"ä¾ĽåºĶ":2558,"åĮĹäº¬":2559,"çĻ»":2560,"å¸®åĬ©":2561,"éĵģ":2562,"fter":2563,"çĶŁåĳ½":2564,"æĢ§è´¨":2565,"åĬ¨åĬĽ":2566,"å¥Ĺ":2567,"ä¼ģä¸ļçļĦ":2568,"èĬ±":2569,"ass":2570,"ä¸īä¸ª":2571,"åŁ¹è®Ń":2572,"å®ļä¹ī":2573,"ä¸Ńåįİæ°ĳæĹı":2574,"è¯´æĺİ":2575,"Ġprotein":2576,"äº¤éĢļ":2577,"Ġused":2578,"èĤ¿":2579,"èµĦæĸĻ":2580,"ä¼łæĴŃ":2581,"åĽ½æ°ĳ":2582,"ç»©":2583,"åĳĪ":2584,"è¶ħè¿ĩ":2585,"èįī":2586,"tional":2587,"éĢĤçĶ¨":2588,"lec":2589,"é¼ĵ":2590,"æ¶µ":2591,"é£ŀ":2592,"éļĲ":2593,"å½ĵäºĭäºº":2594,"æ¥":2595,"Ġsur":2596,"è¥¿æĸ¹":2597,"æľĢé«ĺ":2598,"ä¹ı":2599,"ç¬Ķ":2600,"å±¥è¡Į":2601,"æĬµ":2602,"ç»ıè¿ĩ":2603,"çŃ¹":2604,"è¿Ľç¨ĭ":2605,"èĥľ":2606,"æĺ¯ä¸Ģç§į":2607,"ç¼ĵ":2608,"çŃ¾":2609,"æ¯Ľ":2610,"å®¶åºŃ":2611,"çĵ":2612,"ä¸´åºĬ":2613,"ating":2614,"è°ĵ":2615,"ros":2616,"Ġrespon":2617,"ç¡¬":2618,"å³":2619,"è¯¾åłĤ":2620,"Ġall":2621,"è½¬åŀĭ":2622,"å¼ºåĮĸ":2623,"æĿİ":2624,"åĪ¸":2625,"ç§°ä¸º":2626,"äº¤æµģ":2627,"Ġun":2628,"çī¹æ®Ĭ":2629,"å®½":2630,"Ġinclud":2631,"è½¬åıĺ":2632,"ç¡®ä¿Ŀ":2633,"åĳ³":2634,"éĿ¢ä¸´":2635,"Ġ9":2636,"äººå·¥":2637,"çĸ¾çĹħ":2638,"æľĢå¤§":2639,"ults":2640,"æĮĳæĪĺ":2641,"è´Łè´£":2642,"%,":2643,"æĭĵ":2644,"åĩ½":2645,"è¯ģæį®":2646,"çĸĳ":2647,"æħ§":2648,"æĽ¾":2649,"å®ŀè¡Į":2650,"å·¦":2651,"çĩ":2652,"stem":2653,"æ·±åĮĸ":2654,"24":2655,"ç¥¨":2656,"ä½ł":2657,"uch":2658,"ack":2659,"åģı":2660,"èĩªåĬ¨":2661,"ard":2662,"æĿ¥æºĲ":2663,"èĩªæĪĳ":2664,"ects":2665,"çľ¼":2666,"out":2667,"èĹı":2668,"ç®Ģåįķ":2669,"æĿ¥è¯´":2670,"è¶ĭåĬ¿":2671,"äº²":2672,"è®¿":2673,"èµĶ":2674,"æĶ¹åĸĦ":2675,"oth":2676,"å¤«":2677,"å¸Ŀ":2678,"åĪĨç±»":2679,"ç´¯":2680,"å¾Īå¤ļ":2681,"Ġother":2682,"å·´":2683,"çĤİ":2684,"æ±½":2685,"ree":2686,"åĬª":2687,"ç§Ł":2688,"Ġassoci":2689,"å»ºè®®":2690,"Ġpos":2691,"ç«¥":2692,"osis":2693,"Ġcontrol":2694,"çľŁæŃ£":2695,"ç½²":2696,"Ġmed":2697,"æĢ»ä¹¦è®°":2698,"éĢŁåº¦":2699,"çªģåĩº":2700,"è§Ĵåº¦":2701,"åİŁçĲĨ":2702,"Ġsam":2703,"è¯¸":2704,"ä¾§":2705,"Ġsup":2706,"Ġtreatment":2707,"èĢĮè¨Ģ":2708,"æĺ¾èĳĹ":2709,"æŃ¤å¤ĸ":2710,"çİ¯èĬĤ":2711,"Ġund":2712,"Ġthan":2713,"æķĳ":2714,"æķ°éĩı":2715,"å¹¶ä¸į":2716,"ç»Łè®¡":2717,"ä¸Ģæĺ¯":2718,"ely":2719,"ç¯ĩ":2720,"è½¬ç§»":2721,"åħ±äº«":2722,"100":2723,"æĸĩåŃ¦":2724,"duced":2725,"éĢļä¿¡":2726,"Ġfact":2727,"ä¸»åĬ¨":2728,"å¸Į":2729,"èĢĮæĺ¯":2730,"è§Ĥå¿µ":2731,"äº¡":2732,"éĺħ":2733,"CA":2734,"é¡¾":2735,"è®¨è®º":2736,"åıĬæĹ¶":2737,"éĽ¶":2738,"Ġdevelop":2739,"ox":2740,"Ġacc":2741,"åŃ¦æľ¯":2742,"ä¹ĭåĲİ":2743,"ĠK":2744,"å±Ĥæ¬¡":2745,"å¤Ħäºİ":2746,"anc":2747,"æ¸¯":2748,"æ²¿":2749,"éģµ":2750,"æıĲåĩºäºĨ":2751,"å¾ªçİ¯":2752,"æĭ¥":2753,"éĢĲæŃ¥":2754,"æ³ķçļĦ":2755,"é«ĺæł¡":2756,"æ£ĢæŁ¥":2757,"å¤ļç§į":2758,"çŃĸçķ¥":2759,"çĻĮ":2760,"å¹³è¡¡":2761,"ä¹İ":2762,"çļĦåİĨåı²":2763,"åĲ¬":2764,"éĤ£ä¹Ī":2765,"çĦ¶èĢĮ":2766,"éħįç½®":2767,"çº·":2768,"70":2769,"æ¯ıä¸ª":2770,"Ġno":2771,"èĢĹ":2772,"äº§æĿĥ":2773,"å©":2774,"Ġro":2775,"åĿı":2776,"çī¹åĪ«æĺ¯":2777,"çļĦç¤¾ä¼ļ":2778,"æ·±åĪ»":2779,"éģ¿åħį":2780,"å±Ĭ":2781,"Ġstudies":2782,"Ġvari":2783,"æĻºæħ§":2784,"æĪĺäºī":2785,"RNA":2786,"å¹ħ":2787,"ç»į":2788,"cl":2789,"ç´łè´¨":2790,"éĻĪ":2791,"åĬªåĬĽ":2792,"æľīæľº":2793,"inical":2794,"æĶ¯ä»ĺ":2795,"å°¤åħ¶":2796,"ber":2797,"ç²Ĵ":2798,"Ġam":2799,"æľŁéĹ´":2800,"Ġ{#":2801,"ä½¿å¾Ĺ":2802,"Ġar":2803,"Ġtum":2804,"Ġ8":2805,"gen":2806,"Ġdisease":2807,"èŃ":2808,"Ġman":2809,"ç¹":2810,"ä¸įå¾Ĺ":2811,"èĥĮæĻ¯":2812,"Ġmore":2813,"ne":2814,"Ġag":2815,"æ°ĳäºĭ":2816,"äºĮæĺ¯":2817,"ä¸įè¶³":2818,"è¯ķéªĮ":2819,"çļ®":2820,"ever":2821,"åī§":2822,"ä¸Ĭè¿°":2823,"åĵª":2824,"ä¸Ģèĩ´":2825,"ä¸ĭçļĦ":2826,"åı³":2827,"ric":2828,"Ġhigh":2829,"æĽ¿":2830,"Ġsp":2831,"è´¡":2832,"Ġtheir":2833,"æįŁå®³":2834,"å®¢è§Ĥ":2835,"Ġspec":2836,"æľīéĻĲ":2837,"éĺ¶çº§":2838,"ä¸ºä¸»":2839,"æĻ®éģį":2840,"Ġdes":2841,"åĪ¤æĸŃ":2842,"Ġanalysis":2843,"æĢ»ä½ĵ":2844,"æĴĳ":2845,"ogen":2846,"åİĤ":2847,"çĽŁ":2848,"Ġel":2849,"ä¸¤ç§į":2850,"Ġfunc":2851,"ç¹ģ":2852,"åĶ¯":2853,"ç³ĸ":2854,"ile":2855,"è½¬åĮĸ":2856,"ç¢į":2857,"å®ı":2858,"ater":2859,"hib":2860,"ism":2861,"arg":2862,"è¿Ľè¡ĮäºĨ":2863,"æľ¬è´¨":2864,"Ġcol":2865,"tal":2866,"Ġunder":2867,"Ġmodel":2868,"ä¹ħ":2869,"éĻĨ":2870,"åħĪè¿Ľ":2871,"åŃĺåĤ¨":2872,"çºł":2873,".(":2874,"å¾Ģå¾Ģ":2875,"æ¯Ķå¦Ĥ":2876,"å¤§éĩı":2877,"ord":2878,"è®¾ç½®":2879,"åĩĨç¡®":2880,"è§Ĥå¯Ł":2881,"çļĦæĸ¹æ³ķ":2882,"ide":2883,"èµĸ":2884,"è´¥":2885,"æįŁå¤±":2886,"Ġcar":2887,"æĶ¯æĴĳ":2888,"è§¦":2889,"é©±":2890,"Ġbut":2891,"ç»ıæµİåıĳå±ķ":2892,"Ġtim":2893,"å¹²éĥ¨":2894,"çĶ²":2895,"åĽ¢éĺŁ":2896,"çħ":2897,"ser":2898,"åĩ½æķ°":2899,"èĵ":2900,"ç£ģ":2901,"åī¯":2902,"æ³½":2903,"In":2904,"ç§ĳçłĶ":2905,"æľ¬æĸĩ":2906,"wo":2907,"æĿĥåĬĽ":2908,"Ġpath":2909,"ä»ĭç»į":2910,"]).":2911,"ç¼ºä¹ı":2912,"çıŃ":2913,"de":2914,"è¿ĽæŃ¥":2915,"èĸ":2916,"Âł":2917,"æĬķåħ¥":2918,"Ġqu":2919,"æĬĬæı¡":2920,"ä¸ĭéĻį":2921,"åºŁ":2922,"åĦ¿ç«¥":2923,"æ±ł":2924,"è¦Ĩ":2925,"æĬĳ":2926,"åģľ":2927,"åħ¬å¹³":2928,"Ġgene":2929,"ä»ª":2930,"ork":2931,"Ġimmun":2932,"ä¸Ģå®ļçļĦ":2933,"çİ°åľ¨":2934,"æľºåĻ¨":2935,"lu":2936,"éĢĲæ¸Ĳ":2937,"éĽĨä½ĵ":2938,"ä½ľåĵģ":2939,"è¶£":2940,"Ġdec":2941,"å´":2942,"ni":2943,"åĴĮåıĳå±ķ":2944,"èµĶåģ¿":2945,"æľīåĪ©äºİ":2946,"æĬĵ":2947,"æľ¬èº«":2948,"ç¬¬åĽĽ":2949,"isk":2950,"Ġafter":2951,"è°±":2952,"åıĳå¸ĥ":2953,"ï¼ĮâĢľ":2954,"Ġhealth":2955,"ail":2956,"æľĢåĲİ":2957,"æ¯į":2958,"å¤ļæķ°":2959,"å°Ĭ":2960,"è¾©":2961,"entif":2962,"ures":2963,"åģ¥åħ¨":2964,"å¸¦æĿ¥":2965,"åĨĮ":2966,"é«ĺè´¨éĩı":2967,"çĶ°":2968,"27":2969,"åĩĿ":2970,"åĪ°äºĨ":2971,"åŃ¦éĻ¢":2972,"è®Ńç»ĥ":2973,"èµĭ":2974,"ä¸ŃåĽ½çļĦ":2975,"uring":2976,"æĹħ":2977,"çļĦæĸ¹å¼ı":2978,"90":2979,"æ¡Ĩ":2980,"ç§Ģ":2981,"æķı":2982,"ç®Ĺæ³ķ":2983,"æĪĲåĳĺ":2984,"é»ĳ":2985,"çĹħæ¯Ĵ":2986,"âĪĴ":2987,"åį·":2988,"éĨ":2989,"æĬĢæľ¯çļĦ":2990,"åħ·å¤ĩ":2991,"æµģåĬ¨":2992,"ä¹łè¿ĳå¹³æĢ»ä¹¦è®°":2993,"åĽ½çļĦ":2994,"éľ²":2995,"è¿ģ":2996,"æĿ¥çľĭ":2997,"åĴĮç¤¾ä¼ļ":2998,"Ġstr":2999,"uman":3000,"åĽ½æľī":3001,"éļ¾ä»¥":3002,"åįıåĲĮ":3003,"çĽĳæµĭ":3004,"çĥĪ":3005,"Ġout":3006,"æĢ»ç»ĵ":3007,"Ġ20":3008,"atory":3009,"æķĻæİĪ":3010,"è´¢åĬ¡":3011,"å±ĤéĿ¢":3012,"å·¥ä½ľçļĦ":3013,"åħįçĸ«":3014,"CT":3015,"ä½įç½®":3016,"åį±æľº":3017,"ĠThis":3018,"è¶ĬæĿ¥":3019,"26":3020,"èŃ¦":3021,"ï¼īï¼Į":3022,"è¶ĬæĿ¥è¶Ĭ":3023,"ten":3024,"iss":3025,"yl":3026,"28":3027,"çĽ¸åĲĮ":3028,"è¿ŀæİ¥":3029,"åĩºçīĪ":3030,"æ±½è½¦":3031,"çļĦæķ°æį®":3032,"åį«çĶŁ":3033,"æĿĥçĽĬ":3034,"æŃ£å¸¸":3035,"æµĭéĩı":3036,"æĶ¹éĿ©å¼ĢæĶ¾":3037,"tain":3038,"åĽ½å®¶çļĦ":3039,"é¼ĵåĬ±":3040,"çĬ¶åĨµ":3041,"ared":3042,"Ġcancer":3043,"è¯ĳ":3044,"Ġval":3045,"å¯»":3046,"é¢Ħæµĭ":3047,"ized":3048,"è¿«":3049,"ons":3050,"per":3051,"å¿ħçĦ¶":3052,"ä¸ĵå®¶":3053,"çģ¾":3054,"Ġsystem":3055,"amm":3056,"ä¸Ĭæµ·":3057,"è´¡çĮ®":3058,"ays":3059,"èį¯çī©":3060,"æ¢°":3061,"æķ°åŃĹåĮĸ":3062,"å¤ļæł·":3063,"Ġlevels":3064,"ä¸¥æł¼":3065,"vely":3066,"æ¯Ķä¾ĭ":3067,"æķĪåºĶ":3068,"å¹³åĿĩ":3069,"åŃ¦èĢħ":3070,"Ġid":3071,"é¸":3072,"æģ¶":3073,"åŁºéĩĳ":3074,"åĮħåĲ«":3075,"SC":3076,"è¿ĺæľī":3077,"çªģçł´":3078,"åħµ":3079,"æĹ§":3080,"inal":3081,"è°Ĳ":3082,"çļĦåħ³ç³»":3083,"ĠJ":3084,"èŀįèµĦ":3085,"].":3086,"è®ºæĸĩ":3087,"é«ĺçļĦ":3088,"Ġmo":3089,"å¤ļä¸ª":3090,"tern":3091,"rec":3092,"æĢĿèĢĥ":3093,"cess":3094,"è¯·æ±Ĥ":3095,"é«ĺçŃī":3096,"è´µ":3097,"çłĶåıĳ":3098,"å±ħæ°ĳ":3099,"éĿĻ":3100,"å½ĵæĹ¶":3101,"è¯¢":3102,"ological":3103,"æ¡Īä¾ĭ":3104,"ron":3105,"è¯ĨåĪ«":3106,"ues":3107,"35":3108,"éĻ·":3109,"å¤§ä¼ļ":3110,"ä¾Ľç»Ļ":3111,"ry":3112,"å®Įæķ´":3113,"æµģç¨ĭ":3114,"ï¼ļâĢľ":3115,"åįĸ":3116,"Ġfol":3117,"åĲĦä¸ª":3118,"å®¢æĪ·":3119,"ined":3120,"çļĦä½ľçĶ¨":3121,"åĳ¨æľŁ":3122,"éĹ»":3123,"Ġlow":3124,"å¥ĭæĸĹ":3125,"åºĶå¯¹":3126,"åı¶":3127,"ym":3128,"atic":3129,"æ³¨éĩį":3130,"å§ĭç»Ī":3131,"åªĴä½ĵ":3132,"åı¥":3133,"èĤ¿çĺ¤":3134,"rel":3135,"ark":3136,"Ġsuch":3137,"åıĮæĸ¹":3138,"ç»ķ":3139,"è¾ħ":3140,"æ°§åĮĸ":3141,"Ġser":3142,"Ġli":3143,"æľ«":3144,"åıĳè¡¨":3145,"åĬ¨æĢģ":3146,"æŃ£åľ¨":3147,"èĤ¡ä¸ľ":3148,"Ġmeas":3149,"çľŁå®ŀ":3150,"æĬĺ":3151,"ä¿¡çĶ¨":3152,"Ġclinical":3153,"åĢį":3154,"Ġhyp":3155,"æķĻæĿĲ":3156,"å¯¹å¤ĸ":3157,"%)":3158,"SA":3159,"æĺ¯ä¸Ģ":3160,"ç¤¾ä¼ļçļĦ":3161,"ild":3162,"è½®":3163,"åĢºæĿĥ":3164,"acter":3165,"hem":3166,"äºĨä¸Ģ":3167,"ok":3168,"ä¸ĵåĪ©":3169,"æ°¸":3170,"äº¦":3171,"ç²®":3172,"åĿĢ":3173,"å®¹æĺĵ":3174,"åħļçļĦåįģ":3175,"èĤº":3176,"è®°å½ķ":3177,"åıĺéĿ©":3178,"æĽ´å¥½":3179,"ology":3180,"è§Ħå®ļçļĦ":3181,"æĿ¥èĩª":3182,"ä¼¦":3183,"æĸ°åŀĭ":3184,"åŁºç¡Ģè®¾æĸ½":3185,"åıĤèĢĥ":3186,"æ¶¦":3187,"åħ¬æ°ĳ":3188,"Ġresults":3189,"ĠÎ":3190,"çĦ¶åĲİ":3191,"ç¤¼":3192,"åĨħçļĦ":3193,"éĻ¤äºĨ":3194,"çº¯":3195,"ç¤¾åĮº":3196,".,":3197,"æ·±åº¦":3198,"29":3199,"ç»ıæµİåŃ¦":3200,"åĲĪæ³ķ":3201,"Ġboth":3202,"éĢĶå¾Ħ":3203,"åħ¼":3204,"Ġover":3205,"Ġtwo":3206,"åį¡":3207,"'s":3208,"å®ªæ³ķ":3209,"æīĢè°ĵ":3210,"æĬ½":3211,"åħ°":3212,"è¡¨éĿ¢":3213,"é²ľ":3214,"Ġpartic":3215,"å®ĭ":3216,"åı¯æĮģç»Ń":3217,"è´¦":3218,"Ġ19":3219,"æī¬":3220,"als":3221,"æī¶":3222,"çļĦä¸Ģä¸ª":3223,"åĶĲ":3224,"ä¸»å¼ł":3225,"éĢĴ":3226,"cept":3227,"Ġperform":3228,"ä¼´":3229,"è®¤å®ļ":3230,"ä»įçĦ¶":3231,"åĬłå·¥":3232,"ä¸Ģä½ĵ":3233,"æħ¢":3234,"ting":3235,"çĲĨæĥ³":3236,"hed":3237,"è´¹çĶ¨":3238,"è£Ĥ":3239,"è´¯å½»":3240,"åħ¨éĥ¨":3241,"éĩİ":3242,"owever":3243,"agn":3244,"ç¦ģ":3245,"é¦Ĩ":3246,"æķ´åĲĪ":3247,"é£Łåĵģ":3248,"è¿ħ":3249,"rim":3250,"ĠÂ±":3251,"Ġbi":3252,"è®¤çŁ¥":3253,"ä¸Ńå°ı":3254,"çĩĥ":3255,"åİĭåĬĽ":3256,"Ġwill":3257,"æļ´":3258,"ä¸įä¼ļ":3259,")ãĢģ":3260,"ä¹Łæľī":3261,"cent":3262,"æ¹ĸ":3263,"ĠĊ":3264,"Ġrisk":3265,"own":3266,"åŃĶ":3267,"å®¡è®¡":3268,"äººå·¥æĻºèĥ½":3269,"æł¼å±Ģ":3270,"çļĦåŁºç¡Ģä¸Ĭ":3271,"å®ģ":3272,"æĶ¶çĽĬ":3273,"é½":3274,"å¤įåħ´":3275,"ond":3276,"ĠWe":3277,"åĲĦç±»":3278,"æİĴæĶ¾":3279,"æ¡Ĩæŀ¶":3280,"åĽ°éļ¾":3281,"åĢ¾":3282,"éŃ":3283,"plic":3284,"Ġmeth":3285,"æĸĹäºī":3286,"éĺĲ":3287,"åħ±åĴĮ":3288,"ace":3289,"é«ĺæķĪ":3290,"åŁİéķĩ":3291,"èį£":3292,"åīįæıĲ":3293,"GF":3294,"æģ¢":3295,"å¹³çŃī":3296,"çĽ¸æ¯Ķ":3297,"Ġmice":3298,"Ġidentif":3299,"éĺħè¯»":3300,"Ġnum":3301,"ä¸Ģæ¬¡":3302,"ç¾İåħĥ":3303,"å®ľ":3304,"Ġappro":3305,"çī©æµģ":3306,"éº":3307,"æķĻèĤ²çļĦ":3308,"æ½®":3309,"çŁ¿":3310,"æĸĩç«ł":3311,"tical":3312,"éĺ¿":3313,"åĽ½åĬ¡":3314,"Ġinhib":3315,"èİ·åıĸ":3316,"ble":3317,"Ġexper":3318,"é¡µ":3319,"äº§çĶŁçļĦ":3320,"æĢİ":3321,"å¤ĸéĥ¨":3322,"AP":3323,"åĨ·":3324,"åħ¸åŀĭ":3325,"Ġ**":3326,"Ġhuman":3327,"inding":3328,"æĭĽ":3329,"æĿ¾":3330,"ç¼ĺ":3331,"ï¼īãĢĤ":3332,"çļĦè§Ħå®ļ":3333,"ines":3334,"åŁİä¹¡":3335,"åĩºçļĦ":3336,"æº¶":3337,"æľ¨":3338,"æııè¿°":3339,"æ¸©åº¦":3340,"è¿½æ±Ĥ":3341,"ici":3342,"å·¥èīº":3343,"å¹¼":3344,"åıĳè¾¾":3345,"éĶĢåĶ®":3346,"é¾Ļ":3347,"åŁºå±Ĥ":3348,"å®¡æŁ¥":3349,"ite":3350,"å¤§æķ°æį®":3351,"ĠAl":3352,"æĸĩçĮ®":3353,"çĽĺ":3354,"æĹ¶åĢĻ":3355,"æĬ¼":3356,"åħģ":3357,"hen":3358,"ä»İäºĭ":3359,"è¿ĩåİ»":3360,"Ġfollow":3361,"ef":3362,"æĦŁæŁĵ":3363,"å¡ĳ":3364,"å®īæİĴ":3365,"åĪĳäºĭ":3366,"æģ¢å¤į":3367,"åı¦ä¸Ģæĸ¹éĿ¢":3368,"åĽ½åĬ¡éĻ¢":3369,"Ġtime":3370,"Ġone":3371,"Ġassociated":3372,"der":3373,"çĻ»è®°":3374,"è¯ĬæĸŃ":3375,"éĶĻè¯¯":3376,"æľºæ¢°":3377,"æĺ¯å¯¹":3378,"åĳ¼":3379,"åı¬":3380,"ered":3381,"Ġprog":3382,"ä¹ĭåīį":3383,"æ®ĸ":3384,"ants":3385,"\"}).":3386,"æĪı":3387,"å¸ĥå±Ģ":3388,"Ġprovid":3389,"ä»²":3390,"åĩºåı£":3391,"IP":3392,"Ġmon":3393,"ä¸ĢçĽ´":3394,"ormal":3395,"æ¯ķ":3396,"åĪĺ":3397,"art":3398,"åħ¬å¼Ģ":3399,"èĻļæĭŁ":3400,"è°ĭ":3401,"åĴĮè°Ĳ":3402,"åĲĮæł·":3403,"Ġobser":3404,"æĹłè®º":3405,"åĪĽä¸ļ":3406,"è®¾ç«ĭ":3407,"æĭ¥æľī":3408,"æ¤įçī©":3409,"ä¼łè¾ĵ":3410,"åįĩçº§":3411,"èĤĮ":3412,"å°½ç®¡":3413,"åĩºäºĨ":3414,"Ġdifferent":3415,"å®ŀä½ĵ":3416,"åįģåĪĨ":3417,"are":3418,"çŃīæĸ¹éĿ¢":3419,"è½¨":3420,"Ġinto":3421,"éĥ¨ç½²":3422,"å®ļä½į":3423,"è¡°":3424,"2020":3425,"å¸Ń":3426,"æłĩå¿Ĺ":3427,"æŃĮ":3428,"use":3429,"Ġindic":3430,"é©±åĬ¨":3431,"Ġpresent":3432,"çº²":3433,"Ġduring":3434,"è·¯å¾Ħ":3435,"çĦ¦":3436,"çī¹å®ļ":3437,"èĤĿ":3438,"åĩºåıĳ":3439,"èħĲ":3440,"çļĦèĥ½åĬĽ":3441,"ä¸Ńåħ±":3442,"æĺ¥":3443,"ç»ŁçŃ¹":3444,"Ġsug":3445,"Ġet":3446,"çĽ¸å½ĵ":3447,"çī¹æĢ§":3448,"åıĤæķ°":3449,"åĨħæ¶µ":3450,"ä¸ĢåĪĩ":3451,"ç¿»":3452,"éĩįæĸ°":3453,"çĽ¸åħ³çļĦ":3454,"ä¼ĺç§Ģ":3455,"ãĢĲ":3456,"ç»ıæµİçļĦ":3457,"æ²ī":3458,"ãĢĳ":3459,"Ġrep":3460,"é¾Ħ":3461,"éĹŃ":3462,"åĪ¶éĢłä¸ļ":3463,"åĲĦåĽ½":3464,"ĠCD":3465,"ä¾Ŀèµĸ":3466,"éħ¶":3467,"åİļ":3468,"Ġdef":3469,"æĥ¯":3470,"CC":3471,"05":3472,"ould":3473,"åĨĽäºĭ":3474,"é¦Ļ":3475,"Ġform":3476,"Ġnon":3477,"åıĭ":3478,"åĲĮå¿Ĺ":3479,"éĴ±":3480,"æĻ®éĢļ":3481,"45":3482,"ex":3483,"å³°":3484,"ĠSt":3485,"æĦıåĳ³":3486,"łéģĵ":3487,"Ġfound":3488,"åĬłå¤§":3489,"èĭ±åĽ½":3490,"plement":3491,"å¤ļåħĥ":3492,"äºĮåįģ":3493,"å°¼":3494,"æķĪçĽĬ":3495,"ä¸Ģæł·":3496,"çī¢":3497,"Ġeach":3498,"ization":3499,"è·Ł":3500,"ä¿¡æģ¯åĮĸ":3501,"æ¯Ľæ³½":3502,"å©ļ":3503,"æ²Ł":3504,"åĮ»åŃ¦":3505,"ä¹±":3506,"çĶŁæĪĲ":3507,"å¼¹":3508,"æĥł":3509,"å£¤":3510,"æ¯Ľæ³½ä¸ľ":3511,"duction":3512,"è¦ĨçĽĸ":3513,"AT":3514,"éĿ¢å¯¹":3515,"ä¸ªä½ĵ":3516,"çļĦå·¥ä½ľ":3517,"cri":3518,"ç©¿":3519,"è¿Ĳè¾ĵ":3520,"åıªæĺ¯":3521,"çĽ¸ç»ĵåĲĪ":3522,"Ġsugg":3523,"æ°ĶåĢĻ":3524,"å®£ä¼ł":3525,"33":3526,"Ġexam":3527,"Ġtiss":3528,"å®ŀè·µä¸Ń":3529,"å®ıè§Ĥ":3530,"çļĦè¿ĩç¨ĭ":3531,"æ¡£":3532,"è´·æ¬¾":3533,"æĬĳåĪ¶":3534,"åº¦çļĦ":3535,"Ġem":3536,"Ġup":3537,"èģĮèĥ½":3538,"ft":3539,"çļĦçĲĨè®º":3540,"å¼ķé¢Ĩ":3541,"ock":3542,"åĬ©äºİ":3543,"æŁĲäºĽ":3544,"åĳĪçİ°":3545,"åĲĦçº§":3546,"è°ĥèĬĤ":3547,"äºĭåĬ¡":3548,"ä»¥åĲİ":3549,"æ¬§æ´²":3550,"ä¿Ĺ":3551,"åıĤåĬł":3552,"CD":3553,"æĹ¨":3554,"Ġincreased":3555,"åĬ¨çī©":3556,"Ġend":3557,"ç§©":3558,"è¯ļ":3559,"Ġ([":3560,"çĶ¨çļĦ":3561,"ature":3562,"ç»ĺ":3563,"åķĨæłĩ":3564,"ported":3565,"æĹ©æľŁ":3566,"è¿ĲèĲ¥":3567,"ration":3568,"éĽĨæĪĲ":3569,"ä¼łæĦŁ":3570,"åĬŀæ³ķ":3571,"mon":3572,"è§£æĶ¾":3573,"pos":3574,"æĻ¶":3575,"ä¼ĺåħĪ":3576,"é¢ĨåŁŁçļĦ":3577,"æĹ¥çĽĬ":3578,"éĽĨåĽ¢":3579,"ä¸Ĭåįĩ":3580,"æĥħå½¢":3581,"çĶµæ±ł":3582,"åıªèĥ½":3583,"è½¬æį¢":3584,"çļĦåĨħå®¹":3585,"ä¼łç»ŁçļĦ":3586,"ä¹Łåı¯ä»¥":3587,"Ġhad":3588,"å²Ĺ":3589,"tit":3590,"ute":3591,"dition":3592,"åħļä¸Ńå¤®":3593,"æµĵ":3594,"å¼ĥ":3595,"æµ·æ´ĭ":3596,"çĶ±æŃ¤":3597,"çļĦè¦ģæ±Ĥ":3598,"åħ¬ä¼Ĺ":3599,"æ²Ļ":3600,"éļľç¢į":3601,"ç¨İæĶ¶":3602,"çĹĽ":3603,"Ġaut":3604,"åĬ³åĬ¨èĢħ":3605,"åĽ´ç»ķ":3606,"èĴĻ":3607,"æĶ¹éĢł":3608,"åĽ¾åĥı":3609,"Ġour":3610,"èĪ¹":3611,"ç»§æī¿":3612,"lood":3613,"Ġtherap":3614,"è¸":3615,"ç§©åºı":3616,"åĪº":3617,"å¥ĸ":3618,"CP":3619,"Ġtest":3620,"å½©":3621,"çīĮ":3622,"å²Ľ":3623,"ational":3624,"å»ºè®¾çļĦ":3625,"çĽ¸åºĶçļĦ":3626,"åĽĽä¸ª":3627,"Ġsim":3628,"èĬĤçĤ¹":3629,"æ®ĭ":3630,"ram":3631,"è°¢":3632,"å°±ä¼ļ":3633,"çĻ¾å¹´":3634,"urther":3635,"äº¤æį¢":3636,"æľīæķĪçļĦ":3637,"ç¬¬åįģ":3638,"åĩĨå¤ĩ":3639,"ç»ĻäºĪ":3640,"ä¸»è¦ģæĺ¯":3641,"ä¸Ģèµ·":3642,"çģŃ":3643,"åľ°çĲĨ":3644,"éŁ³ä¹Ĳ":3645,"å®ĥçļĦ":3646,"æĽ´ä¸º":3647,"åĪ¶åº¦çļĦ":3648,"çĶŁæĢģçİ¯å¢ĥ":3649,"åľŁå£¤":3650,"cc":3651,"éĥ½æľī":3652,"æķ°æį®åºĵ":3653,"Ġcomple":3654,"çļĦè¡Įä¸º":3655,"æ¿Ģåıĳ":3656,"è¿ŀç»Ń":3657,"å¥ĩ":3658,"åĢ¡":3659,"36":3660,"çħ¤":3661,"å¦ĤæŃ¤":3662,"å½¢åĬ¿":3663,"æĦıåĳ³çĿĢ":3664,"åı¦å¤ĸ":3665,"198":3666,"æī°":3667,"è¯ģåĪ¸":3668,"çŁ¥è¯Ĩäº§æĿĥ":3669,"é¡¶":3670,"åĳĺå·¥":3671,"ç¾¤ä½ĵ":3672,"med":3673,"åŁ¹èĤ²":3674,"åĪĬ":3675,"æĢĢ":3676,"ke":3677,"ä¾µæĿĥ":3678,"æ¾":3679,"ution":3680,"æ¹¾":3681,"æĶ¶éĽĨ":3682,"è¿ĻéĩĮ":3683,"æĶ¹è¿Ľ":3684,"Ġcompared":3685,"é¢Ħéĺ²":3686,"ä¸»é¢ĺ":3687,"çº¤":3688,"éķľ":3689,"ä¸ĵéĹ¨":3690,"çļĦåħ³éĶ®":3691,"38":3692,"Ġactivity":3693,"ä¸Ģç³»åĪĹ":3694,"åĦĴ":3695,"è¿Ļæł·çļĦ":3696,"ç§ĺ":3697,"å°¿":3698,"èĩªæ²»":3699,")ãĢĤ":3700,"ulated":3701,"æŃ£å¼ı":3702,"othe":3703,"Ġsec":3704,"ä¸ŃåĽ½äººæ°ĳ":3705,"iv":3706,"åŃ£":3707,"ä¿®æĶ¹":3708,"è¿ĳå¹´æĿ¥":3709,"éļĶ":3710,"æıŃ":3711,"çł´åĿı":3712,"Ġgener":3713,"æĸĩåĮĸçļĦ":3714,"ä¿Ħ":3715,"DP":3716,"\"\"":3717,"æľºä¼ļ":3718,"æ´ģ":3719,"ears":3720,"Ġrese":3721,"è´´":3722,"è¯º":3723,"Ġsyn":3724,"è¿ħéĢŁ":3725,"Ġonly":3726,"reg":3727,"åŃ¦çļĦ":3728,"å½¢æĪĲäºĨ":3729,"åĽ¢ç»ĵ":3730,"åľ¨æŃ¤":3731,"å®Ŀ":3732,"éĿ¢ç§¯":3733,"ç¡®ç«ĭ":3734,"å²ģ":3735,"éĩĳå±ŀ":3736,"æĪĲå°±":3737,"ces":3738,"åĲ¸æĶ¶":3739,"è¿Ŀæ³ķ":3740,"è´«åĽ°":3741,"è¯¦":3742,"æľīæīĢ":3743,"éĺ²æŃ¢":3744,"æĮ¯åħ´":3745,"åĮºåĪ«":3746,"ability":3747,"ç»ıæµİç¤¾ä¼ļ":3748,"min":3749,"å°º":3750,"oin":3751,"rough":3752,"çĶŁéķ¿":3753,"ĠçļĦ":3754,"Ġmin":3755,"å®ŀéĻħä¸Ĭ":3756,"Ġwell":3757,"echan":3758,"Ġtumor":3759,"arch":3760,"åĩłä¸ª":3761,"è¯¾é¢ĺ":3762,"rent":3763,"ments":3764,"ä¸īæĺ¯":3765,"æ£®":3766,"li":3767,"vers":3768,"ST":3769,"ä½Ľ":3770,"Ġits":3771,"å½ĵä»£":3772,"åº§":3773,"åĴĮå¹³":3774,"é½Ĳ":3775,"ĠĠĠĠĠĠĠĠĠĠĠĠĠĠĠ":3776,"æĭħä¿Ŀ":3777,"ise":3778,"Ġmethod":3779,"éĿ¢åĲĳ":3780,"æ¿ĢåĬ±":3781,"å®ŀè´¨":3782,"åı¯éĿł":3783,"Ġpot":3784,"ä½ĵèĤ²":3785,"Ġmeasure":3786,"çº¦æĿŁ":3787,"ç§»åĬ¨":3788,"çļĦé«ĺ":3789,"å¸ĮæľĽ":3790,"æ¶Īè´¹èĢħ":3791,"çļĦæ³ķå¾ĭ":3792,"åģļå¥½":3793,"IT":3794,"Ġdem":3795,"æ£Ģå¯Ł":3796,"ency":3797,"irst":3798,"åħ¶æ¬¡":3799,"æİ¨å¹¿":3800,"ç»ĦåĲĪ":3801,"çº¦å®ļ":3802,"å°¤åħ¶æĺ¯":3803,"lic":3804,"Ġins":3805,"èĶ":3806,"ited":3807,"Ġmut":3808,"ral":3809,"åĽºå®ļ":3810,"ough":3811,"æĹħæ¸¸":3812,"sy":3813,"åħĥç´ł":3814,"Ġ$":3815,"è°ĥæİ§":3816,"ential":3817,"åĪ©çİĩ":3818,"Ġdeterm":3819,"ä¼į":3820,"ci":3821,"pit":3822,"æĪĲçĨŁ":3823,"åŁºåľ°":3824,"Ġeffect":3825,"34":3826,"åħ´è¶£":3827,"åĽłèĢĮ":3828,"æ¨¡æĭŁ":3829,"å¤§åĬĽ":3830,"av":3831,"Ġmost":3832,"çĸ«æĥħ":3833,"çŀ":3834,"åĪĽå»º":3835,"ition":3836,"ody":3837,"ä»²è£ģ":3838,"åģļåĪ°":3839,"ç±»ä¼¼":3840,"ages":3841,"çłĶç©¶çļĦ":3842,"åħģè®¸":3843,"çŁ¥éģĵ":3844,"Ġdiagn":3845,"çºłçº·":3846,"èµĦæľ¬ä¸»ä¹ī":3847,"å¯¼åĲĳ":3848,"è¡ĮçļĦ":3849,"è¿ĽèĢĮ":3850,"äº¿åħĥ":3851,"çļĦåıĺåĮĸ":3852,"æ¨¡åĿĹ":3853,"è¿¹":3854,"ä»¿":3855,"çºµ":3856,"åĨł":3857,"AR":3858,"äºĪä»¥":3859,"å¹¿å¤§":3860,"èĤ¥":3861,"Ġkn":3862,"ung":3863,"åħ±åĴĮåĽ½":3864,"Ġrem":3865,"èģĮè´£":3866,"Ġåľ¨":3867,"bib":3868,"æ°¢":3869,"arget":3870,"31":3871,"Ġpatient":3872,"æ³¨åĨĮ":3873,"37":3874,"Ġnumber":3875,"Ġblood":3876,"ãĢĭ,":3877,"nal":3878,"AC":3879,"å®ŀçİ°äºĨ":3880,"Ġuse":3881,"å¦Ĥä¸ĭ":3882,"èī¯å¥½çļĦ":3883,"è¡Ģç®¡":3884,"Ġimport":3885,"ãĢĭï¼Į":3886,"å±ĭ":3887,"èº«ä»½":3888,"ob":3889,"ç¥ĸ":3890,"çº³åħ¥":3891,"å¼ºåĪ¶":3892,"ust":3893,"æŀ¶æŀĦ":3894,"å»ºæĪĲ":3895,"Ġassess":3896,"usion":3897,"éĿĴå¹´":3898,"è®¯":3899,"ä¼łæĦŁåĻ¨":3900,"åĿļå®ļ":3901,"Ġext":3902,"èĪŀ":3903,"æ³ķå®ļ":3904,"åĪļ":3905,"å®ŀéªĮå®¤":3906,"éĴ¢":3907,"çļĦä¿¡æģ¯":3908,"çĶµåĬĽ":3909,"çļĦç»ıæµİ":3910,"çĶµè·¯":3911,"Ġ200":3912,"åħļåĳĺ":3913,"å¸¸è§ģ":3914,"åı¯è§ģ":3915,"ä¹Łå°±æĺ¯":3916,"åįıåķĨ":3917,"åĨ²çªģ":3918,"çĳ":3919,"è¾ĵåħ¥":3920,"è¾¨":3921,"çĪ¶":3922,"ä¸Ńåįİäººæ°ĳ":3923,"Ġwho":3924,"Ġ\\<":3925,"Ġ(*":3926,"çļĦæľĢ":3927,"å½ĵçĦ¶":3928,"å®ĹæķĻ":3929,"çļĦåĲĮæĹ¶":3930,"äºīè®®":3931,"ÃĹ":3932,"%.":3933,"çľĭåĪ°":3934,"å¤§å¤ļæķ°":3935,"Ġmechan":3936,"Î²":3937,"Ġfunction":3938,"è¿Ķ":3939,"æŃ»äº¡":3940,"å·¦åı³":3941,"ma":3942,"endent":3943,"æ£ĢéªĮ":3944,"uro":3945,"Ġdist":3946,"éľĩ":3947,"æ¥ļ":3948,"çļĦä¸Ģç§į":3949,"ç¡®è®¤":3950,"æĥħæĦŁ":3951,"åĩĢ":3952,"èĥ½éĩı":3953,"çŃīçŃī":3954,"åį±éĻ©":3955,"åĪ©æ¶¦":3956,"åįķåħĥ":3957,"================":3958,"ä¸ªäººä¿¡æģ¯":3959,"éĺµ":3960,"åħļåĴĮ":3961,"çĶŁåŃĺ":3962,"ulti":3963,"è½¬è®©":3964,"äººæ°ĳç¾¤ä¼Ĺ":3965,"II":3966,"Ġbl":3967,"Ġprocess":3968,"èĢĥæł¸":3969,"Ġresponse":3970,"ĠHowever":3971,"ind":3972,"èĭ¦":3973,"åľºæĻ¯":3974,"èį·":3975,"32":3976,"è·ĥ":3977,"com":3978,"Ġhig":3979,"ç´łåħ»":3980,"åĨħåľ¨":3981,"æĺ¯ä»¥":3982,"æľīåĬ©äºİ":3983,"çĽĽ":3984,"Ġcould":3985,"åĪĨç¦»":3986,"Ġeffects":3987,"å¡ŀ":3988,"åĬĽåº¦":3989,"æİ¢è®¨":3990,"ä½ĵéªĮ":3991,"ER":3992,"ans":3993,"Ġshown":3994,"vious":3995,"å¿½":3996,"---":3997,"æ´ŀ":3998,"æģ©":3999,"MP":4000,"æĺ¯çĶ±":4001,"æĸ°éĹ»":4002,"Ġindi":4003,"ä¹Łä¸į":4004,"åĲĮä¸Ģ":4005,"æ´»æĢ§":4006,"å¸Ĥåľºç»ıæµİ":4007,"ä»·åĢ¼è§Ĥ":4008,"uct":4009,"ãĢģ\"":4010,"å·¨å¤§":4011,"qui":4012,"view":4013,"....":4014,"äºĴåĬ¨":4015,"è´Ńä¹°":4016,"éªĮè¯ģ":4017,"è¢«åĳĬ":4018,"ç»ıåİĨ":4019,"Ġthrough":4020,"å¾Īå¤§":4021,"âĢ¦âĢ¦":4022,"ç¬¬äºĶ":4023,"æķ°æį®çļĦ":4024,"ort":4025,"Ġrole":4026,"è¡Įä½¿":4027,");":4028,"les":4029,"Ġ201":4030,"ï½":4031,"49":4032,"SP":4033,"æĸĩåŃĹ":4034,"Ġsel":4035,"Ġthere":4036,"éĢĤå½ĵ":4037,"ĠĠĠĠĠĠĠĠĠĠĠĠĠĠĠĠĠĠĠĠĠĠĠĠĠĠĠĠĠĠĠĠĠĠĠĠĠĠĠĠĠĠĠĠĠĠĠĠĠĠĠĠĠĠĠĠĠĠĠĠĠĠĠĠĠĠĠĠĠĠĠĠĠĠĠĠĠĠĠĠĠĠĠĠĠĠĠĠĠĠĠĠĠĠĠĠĠĠĠĠĠĠĠĠĠĠĠĠĠĠĠĠĠĠĠĠĠĠĠĠĠĠĠĠĠĠĠĠ":4038,"è¾ĵåĩº":4039,"æĭĵå±ķ":4040,"çļĦæĬĢæľ¯":4041,"èĢĥè¯ķ":4042,"èĦı":4043,"çļĦæĢĿæĥ³":4044,"è®¿éĹ®":4045,"2021":4046,"æĢģåº¦":4047,"çļĦæĥħåĨµä¸ĭ":4048,"Ġpred":4049,"ange":4050,"ä¼ĳ":4051,"ç¦»åŃĲ":4052,"å¾·åĽ½":4053,"æī§æ³ķ":4054,"ective":4055,"è¡¥åģ¿":4056,"èĦĤ":4057,"åħ³èģĶ":4058,"äººæīįåŁ¹åħ»":4059,"æµª":4060,"åī²":4061,"çļĦæķĻåŃ¦":4062,"æīĢå¾Ĺ":4063,"è¿Ľå±ķ":4064,"å±ŀæĢ§":4065,"sive":4066,"lamm":4067,"çĶ¨äºº":4068,"æİ¢ç©¶":4069,"éĽ·":4070,"èĢķ":4071,"Ġneur":4072,"è®©åŃ¦çĶŁ":4073,"ä¸»å¯¼":4074,"ç»Łæ²»":4075,"åľĨ":4076,"æİĺ":4077,"Ġsignificantly":4078,"erg":4079,"Ġmem":4080,"ç®¡çĲĨçļĦ":4081,"èĩªè§ī":4082,"Ġwhen":4083,"48":4084,"åĲĦé¡¹":4085,"å®¡åĪ¤":4086,"çļĦæĹ¶éĹ´":4087,"æĿ¡ä»¶ä¸ĭ":4088,"Ġop":4089,"Ġperformed":4090,"çĽĲ":4091,"onstr":4092,"Ġdevelopment":4093,"å¯ĨåĪĩ":4094,"Ġvir":4095,"æĢĿè·¯":4096,"çļĦä¸į":4097,"åı¤ä»£":4098,"ç²®é£Ł":4099,"æ°ı":4100,"arly":4101,"ç»ĵè®º":4102,"ive":4103,"éģµå¾ª":4104,"roph":4105,"ä¸ĢæĿ¡":4106,"å°Ĭéĩį":4107,"Ġcyt":4108,"Ġdep":4109,"ä»ĸäºº":4110,"tig":4111,"valu":4112,"æŃ£æĺ¯":4113,"til":4114,"ä¹Ļ":4115,"ä½³":4116,"å·Ŀ":4117,"äººåĬĽ":4118,"ä¹ĭå¤ĸ":4119,"Ġgenes":4120,"è¾ĸ":4121,"æĩ":4122,"åħ³ç³»çļĦ":4123,"æĿĢ":4124,"Ġsm":4125,"æĳĦ":4126,"æīĵéĢł":4127,"å¼ºçļĦ":4128,"è·¯çº¿":4129,"è£ķ":4130,"vidual":4131,"ä½ľä¸ļ":4132,"Ġconf":4133,"æĪĳä»¬çļĦ":4134,"ination":4135,"åĬłéĢŁ":4136,"æ¹¿":4137,"èĭ±è¯Ń":4138,"æĹĭ":4139,"å®ĩ":4140,"ç§¯ç´¯":4141,"ä¾ĽåºĶéĵ¾":4142,"éĢĨ":4143,"Ġage":4144,"Ġprim":4145,"95":4146,"å°ĳæķ°":4147,"è·Ŀç¦»":4148,"unt":4149,"Ġcur":4150,"ãĢĭãĢģ":4151,"éĺŁä¼į":4152,"ID":4153,"é¢ĦæľŁ":4154,"01":4155,"ç¤ºèĮĥ":4156,"æĶ¹éĿ©çļĦ":4157,"ä»£çĲĨ":4158,"Ġspecific":4159,"DNA":4160,"ç»ıæµİå¢ŀéķ¿":4161,"ities":4162,"åĺ":4163,"æī§æĶ¿":4164,"å¤ļçļĦ":4165,"æī©å±ķ":4166,"åĤ¬":4167,"æ°ĳæ³ķ":4168,"éĩıåŃĲ":4169,"åħ¬åı¸çļĦ":4170,"PP":4171,"åľ¨ä¸ŃåĽ½":4172,"èĥģ":4173,"çļĩ":4174,"æķĮ":4175,"Ġfactors":4176,"éģŃ":4177,"ä¿¡æģ¯æĬĢæľ¯":4178,"å¼ķåħ¥":4179,"èĥĢ":4180,"äº§åĵģçļĦ":4181,"aracter":4182,"tics":4183,"å±ķå¼Ģ":4184,"ä¸ºæł¸å¿ĥ":4185,"è¾ĥå¤§":4186,"æīĢåľ¨":4187,"åĮĸåĴĮ":4188,"ov":4189,"å¤Ħç½ļ":4190,"åĲĽ":4191,"è¾ĥä¸º":4192,"ä¹ĭä¸Ń":4193,"its":4194,"æ¡¥":4195,"æĤ¨":4196,"å¹¼åĦ¿":4197,"oid":4198,"Ġgl":4199,"Ġâ":4200,"raph":4201,"Ġantib":4202,"åĩºæĿ¥":4203,"æľŁéĻĲ":4204,"åį³ä½¿":4205,"æ¸łéģĵ":4206,"çļĦæ¦Ĥå¿µ":4207,"å½¢è±¡":4208,"itive":4209,"éģĹä¼ł":4210,"çĲĨæĢ§":4211,"å¤ı":4212,"Ġimp":4213,"åĭĩ":4214,"\"(":4215,"åŃĺåľ¨çļĦ":4216,"æľīçĿĢ":4217,"Ġra":4218,"èª":4219,"Ġthey":4220,"åıĺéĩı":4221,"Ġpol":4222,"%ï¼Į":4223,"asc":4224,"Ġpop":4225,"Ġbrain":4226,"ä¾ĿéĿł":4227,"ale":4228,"AS":4229,"æĪĲéķ¿":4230,"çº¸":4231,"èģĮä¸ļæķĻèĤ²":4232,"75":4233,"Ġloc":4234,"ç¨ĭåº¦ä¸Ĭ":4235,"Ġobserved":4236,"ä»Ĭå¤©":4237,"CO":4238,"èµĽ":4239,"èĮĥåĽ´åĨħ":4240,"æĴ¤":4241,"old":4242,"ç§¦":4243,"Ġinvol":4244,"çĪĨ":4245,"æ··åĲĪ":4246,"èĸĦ":4247,"èĥ½åĬĽçļĦ":4248,"å¯¹åħ¶":4249,"æĶ»åĩ»":4250,"ĠCh":4251,"äºĭæķħ":4252,"ä¹ĥ":4253,"ĠIL":4254,"over":4255,"éĤ¦":4256,"åĵªäºĽ":4257,"åĳ¢":4258,"å°ıç»Ħ":4259,"ix":4260,"åĮ»éĻ¢":4261,"æĹ¦":4262,"èĢĮä¸įæĺ¯":4263,"ç½ĳç»ľå®īåħ¨":4264,"Ġtarget":4265,"ä»ĸçļĦ":4266,"ĠĠĠĠĠĠĠĠĠĠĠĠĠĠĠĠĠĠĠĠ":4267,"èµ°åĲĳ":4268,"ĠThese":4269,"èĤī":4270,"æı´":4271,"æĻļ":4272,"ç»©æķĪ":4273,"Ġes":4274,"èĭĹ":4275,"èĥ¶":4276,"äººä¸İ":4277,"crib":4278,"åľ°çĲĥ":4279,"Ġdo":4280,"æ´»åĬ¨çļĦ":4281,"è¿Ŀåıį":4282,"å¦ĩ":4283,"led":4284,"èµĦæºĲçļĦ":4285,"ä½¿åĳ½":4286,"åıįå¯¹":4287,"åĬłä»¥":4288,"è¯±":4289,"ç±į":4290,"æĿ¡æ¬¾":4291,"æŁĲç§į":4292,"tively":4293,"Ġfirst":4294,"åŃ©":4295,"Ġincluding":4296,"Ġmicro":4297,"åºĨ":4298,"çī©èģĶç½ĳ":4299,"65":4300,"åĲĪæĪĲ":4301,"é¢Ħç®Ĺ":4302,"Ġref":4303,"å½¢æĪĲçļĦ":4304,"æ¸Ĺ":4305,"åŁºç¡Ģä¸Ĭ":4306,"åį«æĺŁ":4307,"39":4308,"å¤ªéĺ³":4309,"æľįåĬ¡åĻ¨":4310,"ä¹łæĥ¯":4311,"æ°ĳéĹ´":4312,"Ġrecept":4313,"è¡¥åħħ":4314,"ery":4315,"ha":4316,"äººå¤§":4317,"æ¯ķä¸ļ":4318,"å¼Ĥå¸¸":4319,"éĴŁ":4320,"çĹĩçĬ¶":4321,"éĢļçŁ¥":4322,"çļĦæł¸å¿ĥ":4323,"æĹ¥å¸¸":4324,"èĥľåĪ©":4325,"Ġindividual":4326,"å·¥èµĦ":4327,"èĭ¥å¹²":4328,"åħ¨ä¼ļ":4329,"Ġchang":4330,"Ġnormal":4331,"IV":4332,"ç»´æĮģ":4333,"äºĭé¡¹":4334,"AD":4335,"æĪĳä»¬åħļ":4336,"é¦ĸæ¬¡":4337,"ä¸Ŀ":4338,"ize":4339,"Ġshowed":4340,"ä»ĸä»¬çļĦ":4341,"Ġreported":4342,"èĢĮä¸į":4343,"Ġevalu":4344,"2018":4345,"ä¸ºä¸Ńå¿ĥ":4346,"æĹĹ":4347,"ples":4348,"ä¸Ńåįİäººæ°ĳåħ±åĴĮåĽ½":4349,"ç²¾åĩĨ":4350,"Figure":4351,"èī¯å¥½":4352,"ood":4353,"æĪª":4354,"ax":4355,"44":4356,"æĹ¶çļĦ":4357,"åĲ¯åĬ¨":4358,"éĺ´":4359,"Ġaff":4360,"åŀĦ":4361,"å¥ĳ":4362,"æ¢ģ":4363,"åĴĮåħ¶ä»ĸ":4364,"èħº":4365,"ependent":4366,"ES":4367,"é²ģ":4368,"2019":4369,"Ġwhere":4370,"rin":4371,"ä¸ĩåħĥ":4372,"åĪĽä½ľ":4373,"ä½ĵç³»çļĦ":4374,"Ġinform":4375,"éĤ£äºĽ":4376,"åĲĦåľ°":4377,"åħ»èĢģ":4378,"Î±":4379,"Ġhigher":4380,"Ġexperim":4381,"Ġmedi":4382,"åĬłåħ¥":4383,"æľīäºĨ":4384,"ä¸ºåŁºç¡Ģ":4385,"å°Ĩåħ¶":4386,"å¸¦æĿ¥çļĦ":4387,"ãĢĤ\"":4388,"çĶŁäº§åĬĽ":4389,"ently":4390,"æĿ¡ä¾ĭ":4391,"çļĦç»ĵæŀľ":4392,"åı¬å¼Ģ":4393,"åį±å®³":4394,"å¯¹åºĶ":4395,"å¼ºåº¦":4396,"çİī":4397,"åĢĴ":4398,"éª¤":4399,"åĽłåŃĲ":4400,"åĵĪ":4401,"ucle":4402,"åŀĦæĸŃ":4403,"å£ģ":4404,"åĪĩå®ŀ":4405,"çļĦåºĶçĶ¨":4406,"Ġmechanism":4407,"\\*":4408,"èĢĥå¯Ł":4409,"åĮºåĿĹ":4410,"æĽ´æĸ°":4411,"estig":4412,"èī°":4413,"çĶŁçļĦ":4414,"å¥¥":4415,"ãĢĤâĢľ":4416,"ä¼Łå¤§å¤įåħ´":4417,"Ġsignal":4418,"åħħåĪĨåıĳæĮ¥":4419,"ption":4420,"lis":4421,"è®¸åı¯":4422,"ä¼¸":4423,"é¥®":4424,"æĿĨ":4425,"åı¯èĥ½ä¼ļ":4426,"åıªè¦ģ":4427,"èĳ£":4428,"RI":4429,"Ġimportant":4430,"æľįåĬ¡çļĦ":4431,"èĤ¡æĿĥ":4432,"Ġcharacter":4433,"åĪĿæŃ¥":4434,"æľīäºĽ":4435,"å¹¸":4436,"Ġchild":4437,"é«ĺè´¨éĩıåıĳå±ķ":4438,"æ²ŁéĢļ":4439,"åĬ³åĬ¨åĲĪåĲĮ":4440,"reated":4441,"Ġdecre":4442,"Ġtissue":4443,"ä¸ºä»Ģä¹Ī":4444,"å¸ĤåľºçļĦ":4445,"åķĨåĬ¡":4446,"æī£":4447,"Ġyears":4448,"çĶ¨äººåįķä½į":4449,"æ¢¦":4450,"æĸ°åħ´":4451,"PS":4452,"ç»ıå¸¸":4453,"è¯ķçĤ¹":4454,"å±ķç¤º":4455,"èµ¢":4456,"æĬµæĬ¼":4457,"çĤ¼":4458,"âĳł":4459,"èĢĲ":4460,"Ġprevious":4461,"oma":4462,"åºĦ":4463,"éĢĤåĲĪ":4464,"ä¼¦çĲĨ":4465,"éĿŀæ³ķ":4466,"æĽ¿ä»£":4467,"æĸ¹éĴĪ":4468,"åĪ°çļĦ":4469,"å½ĵåľ°":4470,"ice":4471,"å¼ķåıĳ":4472,"Ġstim":4473,"ãĢģâĢľ":4474,"å¢¨":4475,"ĠAn":4476,"åĪ¶çº¦":4477,"è½´":4478,"Ġthree":4479,"èļ":4480,"Ġgrow":4481,"ann":4482,"äººåľ¨":4483,"Ġnew":4484,"001":4485,"é¢ĳçİĩ":4486,"è¡Įä¸ºçļĦ":4487,"å¿Ĩ":4488,"rect":4489,"Ġsome":4490,"ä¸Ĭå¸Ĥ":4491,"éĻ¢æł¡":4492,"åįģåĽĽ":4493,"è¿İ":4494,"åĽ½å¤ĸ":4495,"atis":4496,"åĩłä¹İ":4497,"å£®":4498,"èķ":4499,"åĳ½è¿Ĳ":4500,"è§Ĵèī²":4501,"Ġresearch":4502,"æĸ½å·¥":4503,"ä¸Ģæĸ¹":4504,"Ġregion":4505,"Ġwithin":4506,"ç§ĳæĬĢåĪĽæĸ°":4507,"å²¸":4508,"ses":4509,"46":4510,"----------------------------------------------------------------":4511,"é¦Ļæ¸¯":4512,"ä¸įåĨį":4513,"ä¼¯":4514,"èĤ¾":4515,"OS":4516,"2017":4517,"ç»Ħç»ĩçļĦ":4518,"æ¨ª":4519,"\"ãĢĤ":4520,"åįļå£«":4521,"å§ĵ":4522,"å¹´äºº":4523,"é©¾":4524,"ä¹ĭè·¯":4525,"ç´§å¯Ĩ":4526,"æĻ°":4527,"æıŃç¤º":4528,"å·©":4529,"åı¯ä»¥éĢļè¿ĩ":4530,"åįģäºĮ":4531,"èĩªä¿¡":4532,"ç¤¾ä¼ļä¸»ä¹īçİ°ä»£åĮĸ":4533,"78":4534,"çĿĢåĬĽ":4535,"åģļåĩº":4536,"the":4537,"çļĦæĶ¿æ²»":4538,"Ġbec":4539,"å¹¶éĿŀ":4540,"æĽ´å¥½åľ°":4541,"Ġinj":4542,"table":4543,"å·®è·Ŀ":4544,"oph":4545,"é¥°":4546,"çĭ¬çī¹":4547,"äººæ°ĳå¸ģ":4548,"äº§ä¸ļéĵ¾":4549,"æ½ľåľ¨":4550,"éģĹäº§":4551,"ET":4552,"ç¼ºéĻ·":4553,"ç¨¿":4554,"rug":4555,"è£ħå¤ĩ":4556,"Ġthose":4557,"åĪºæ¿Ģ":4558,"Ġwork":4559,"æĮĸ":4560,"ç»Ŀå¯¹":4561,"Ġmulti":4562,"åħ±åĲĮä½ĵ":4563,"Ġinvestig":4564,"Ġparticip":4565,"åĪ¤åĨ³":4566,"éĽ¨":4567,"53":4568,"å§Ķæīĺ":4569,"æĬ½è±¡":4570,"èĻ«":4571,"å«":4572,"éĩĳèŀįæľºæŀĦ":4573,"æ¼ı":4574,"Ġocc":4575,"åľĪ":4576,"ai":4577,"æ´¥":4578,"ä¸½":4579,"MS":4580,"Ġpathw":4581,"Ġcal":4582,"âĳ¡":4583,"å¹¶åľ¨":4584,"åŃĻ":4585,"Ġgroups":4586,"ä¸įè¿ĩ":4587,"åħ«å¤§":4588,"ç»ª":4589,"æŁ±":4590,"Ġdemonstr":4591,"éĹ´çļĦ":4592,"çİ°æľī":4593,"åİŁåŃĲ":4594,"ç¼´":4595,"å¨ģèĥģ":4596,"ä»£çłģ":4597,"Ġcorrel":4598,"å®«":4599,"èĬ¯":4600,"åĩ¡":4601,"47":4602,"ensi":4603,"çļĦçī¹çĤ¹":4604,"æī¹åĩĨ":4605,"Ġdisc":4606,"ç»ĦæĪĲéĥ¨åĪĨ":4607,"ä¸»è§Ĥ":4608,"Ġ+":4609,"æİĪæĿĥ":4610,"ä¼łéĢĴ":4611,"IS":4612,"è¯Ńæĸĩ":4613,"èĳĹä½ľ":4614,"éħ¬":4615,"ms":4616,"éħĴ":4617,"ä½ĵçİ°äºĨ":4618,"Ġ|":4619,"æİ¥è§¦":4620,"å®ŀæĹ¶":4621,"èģĮå·¥":4622,"è¿Ļå°±":4623,"tivity":4624,"åħ¨ä½ĵ":4625,"Ġimpro":4626,"åĬ³åĬ¨åĬĽ":4627,"è§Ĩä¸º":4628,"åİŁå§ĭ":4629,"å·©åĽº":4630,"å¤º":4631,"æĢİæł·":4632,"åħ¶å®ĥ":4633,"åĨĽéĺŁ":4634,"è¿ĳä»£":4635,"åĢ¼å¾Ĺ":4636,"Cs":4637,"Ġly":4638,"åľ°äº§":4639,"ores":4640,"æĭĴ":4641,"Ġapp":4642,"æıĲåĩºçļĦ":4643,"éĩĩè´Ń":4644,"%ãĢĤ":4645,"ç²ī":4646,"ä¸Ńåįİæ°ĳæĹıä¼Łå¤§å¤įåħ´":4647,"ived":4648,"requ":4649,"æŃ¥éª¤":4650,"Ġneed":4651,"è¾Ĳ":4652,"éĩįå¤į":4653,"æłĳç«ĭ":4654,"Ġinhibit":4655,"ç»ĵæĿŁ":4656,"Sec":4657,"ä¼Ļ":4658,"ressed":4659,"çİ¯ä¿Ŀ":4660,"éĽĦ":4661,"Ġfe":4662,"Ġ.":4663,"æ¬²":4664,"åĩĨåĪĻ":4665,"æ¸¡":4666,"çĽĳæİ§":4667,"ç½ĳç«Ļ":4668,"æĽ´å¤ļçļĦ":4669,"ä¸ªæĢ§":4670,"åĮºåĿĹéĵ¾":4671,"åĴ¨":4672,"çİ°çĬ¶":4673,"ä»ģ":4674,"äºĨä¸Ģä¸ª":4675,"å¤įåĲĪ":4676,"å²Ĺä½į":4677,"åĽ½å®¶å®īåħ¨":4678,"eg":4679,"Ġchanges":4680,"æĥ©":4681,"å¯Įè£ķ":4682,"Ġpredic":4683,"55":4684,"åı«":4685,"æļĤ":4686,"éĩĬæĶ¾":4687,"SD":4688,"åı¯ä»¥åľ¨":4689,"æĿ¨":4690,"åĩºåı°":4691,"ä½Ĩåľ¨":4692,"é«ĺçº§":4693,"éĿ¢çļĦ":4694,"2015":4695,"_{":4696,"å¤§å¤§":4697,"äºĭçī©":4698,"æ´»åĬĽ":4699,"ç§ĳåŃ¦å®¶":4700,"æģ°":4701,"Ġ12":4702,"Ġdescrib":4703,"ç¬ĶèĢħ":4704,"åĵįåºĶ":4705,"ãĢĭãĢģãĢĬ":4706,"è¿ĺè¦ģ":4707,"Ġlead":4708,"å¤§è§Ħæ¨¡":4709,"æĸ°æĹ¶ä»£ä¸ŃåĽ½çī¹èī²ç¤¾ä¼ļä¸»ä¹ī":4710,"æĿ¡è§Ħå®ļ":4711,"éĤĵ":4712,"åĸľ":4713,"å¼ºåĽ½":4714,"ĠAs":4715,"åįķä¸Ģ":4716,"èĤł":4717,"ä»°":4718,"å¤§éĩıçļĦ":4719,"é¢Ĺ":4720,"çĥ§":4721,"2016":4722,"Ġconsid":4723,"ç§ĭ":4724,"çº³ç±³":4725,"æ°¨":4726,"åĨįæ¬¡":4727,"èĲ¥åħ»":4728,"onal":4729,"Ġmain":4730,"åŃ©åŃĲ":4731,"ä¹¡æĿĳæĮ¯åħ´":4732,"ä¼Ĭ":4733,"åĲ¸å¼ķ":4734,"è¡¨çİ°ä¸º":4735,"éī´å®ļ":4736,"ental":4737,"æĿĥå¨ģ":4738,"äººä¸º":4739,"å¤§éĥ¨åĪĨ":4740,"æĳĨ":4741,"æģĴ":4742,"Ġrepres":4743,"çļĦåŃ¦ä¹ł":4744,"upplement":4745,"Ġj":4746,"æĦĪ":4747,"èĥ¡":4748,"é¡¿":4749,"åī©":4750,"Ġsubj":4751,"è®¤è¯ģ":4752,"æµĻ":4753,"æĪ¿å±ĭ":4754,"çģµæ´»":4755,"èĵĿ":4756,"ç¼ĸåĪ¶":4757,"åĻ¨çļĦ":4758,"Ġdel":4759,"æĮĩæķ°":4760,"éĶģ":4761,"ä½¿çĶ¨çļĦ":4762,"å¥ł":4763,"Ġprom":4764,"ä¹Łä¼ļ":4765,"Ġcare":4766,"ä¸Ģå¸¦":4767,"è¾ħåĬ©":4768,"æ¾³":4769,"ek":4770,"Ġincrease":4771,"çº¤ç»´":4772,"æľ±":4773,"åıī":4774,"Ġcases":4775,"ĠFor":4776,"sible":4777,"ä¿¡æģ¯çļĦ":4778,"åĮ¹":4779,"çłĶç©¶äººåĳĺ":4780,"åĪ¶ä½ľ":4781,"æĶ¯åĩº":4782,"Ġmolec":4783,"è¯¦ç»Ĩ":4784,"åįģä¸ī":4785,"Ġfinding":4786,"åĪĳæ³ķ":4787,"å°ģå»º":4788,"åºıåĪĹ":4789,"çļĦçĽ®æłĩ":4790,"åıĳè¡Į":4791,"å°ıåº·":4792,"å²©":4793,"ä¸»ç®¡":4794,"åĬ¨æľº":4795,"çļĦå½¢å¼ı":4796,"åĲĮæŃ¥":4797,"èĤ¯":4798,"åıĳçĶµ":4799,"tained":4800,"__":4801,"Ġbas":4802,"å»ºæŀĦ":4803,"Ġset":4804,"ç©ºæ°Ķ":4805,"åĪĻæĺ¯":4806,"56":4807,"ç¡¬ä»¶":4808,"NF":4809,"åĴ¨è¯¢":4810,"åĢŁéī´":4811,"å·¥äºº":4812,"],[@":4813,"åģĩè®¾":4814,"åĲĮæĦı":4815,"åľ£":4816,"èĢģå¸Ī":4817,"ont":4818,"åľ°åĮºçļĦ":4819,"éĺ²æ²»":4820,"æľĢå¤§çļĦ":4821,"iter":4822,"zed":4823,"å´ĩ":4824,"aining":4825,"äº®":4826,"åı°æ¹¾":4827,"ä¹ĺ":4828,"42":4829,"EM":4830,"Ġç¬¬":4831,"åĿĲ":4832,"ateg":4833,"Ġtri":4834,"ĠPro":4835,"Ġmor":4836,"åľ°åĿĢ":4837,"las":4838,"åŃ¦å®¶":4839,"ĠDNA":4840,"ving":4841,"è¸ª":4842,"];":4843,"Ġinfection":4844,"ä¿®å¤į":4845,"é©¶":4846,"ä¸Ģé¡¹":4847,"çīĽ":4848,"ytes":4849,"è°ģ":4850,"eration":4851,"é¼ł":4852,"å¤©çĦ¶":4853,"Ġlim":4854,"çļĦæķĻèĤ²":4855,"æ¯«":4856,"åıĳçĶŁçļĦ":4857,"çļĦåİŁåĪĻ":4858,"ä¸Ńåħ¨ä¼ļ":4859,"ä¸ľè¥¿":4860,"Ġfactor":4861,"è®ºè¿°":4862,"ä¸Ńåħ±ä¸Ńå¤®":4863,"ie":4864,"ä¼ı":4865,"æĸĩæľ¬":4866,"åıĸå¾ĹäºĨ":4867,"æµģéĢļ":4868,"å½¹":4869,"ä¸ĢæĹ¦":4870,"osph":4871,"å¹²é¢Ħ":4872,"Ġtype":4873,"Ġprot":4874,"éħįåĲĪ":4875,"è®¤åĲĮ":4876,"æĲľ":4877,"æ¶ĪéĻ¤":4878,"Ġsequ":4879,"ake":4880,"å¤§åŀĭ":4881,"ï¼īãĢģ":4882,"åħ¬æŃ£":4883,"æĳĺ":4884,"éŁ©":4885,"ä¸Ģä»£":4886,"ause":4887,"ink":4888,"ograph":4889,"æ»ĳ":4890,"aterial":4891,"çłĶç©¶æīĢ":4892,"ä¸įå°ĳ":4893,"åĩºçİ°äºĨ":4894,"åĢ¾åĲĳ":4895,"ä¼łæī¿":4896,"ascular":4897,"çļĦä»·åĢ¼":4898,"ĠRes":4899,"çĥŁ":4900,"çļĦæĥħåĨµ":4901,"åįģå¹´":4902,"Ġrequi":4903,"å¤§å°ı":4904,"æĪĲåĪĨ":4905,"æĬķèµĦèĢħ":4906,"Ġmean":4907,"åĩŃ":4908,"Ġpost":4909,"ĠĠĠĠĠĠĠĠĠĠĠĠĠĠĠĠĠĠĠĠĠĠĠĠ":4910,"æķħäºĭ":4911,"2000":4912,"cin":4913,"ä¾Ŀçħ§":4914,"eng":4915,"èĦļ":4916,"99":4917,"Ġ,":4918,"Ġpotential":4919,"LA":4920,"Ġinflamm":4921,"ypes":4922,"åħ¶å®ŀ":4923,"æ»ŀ":4924,"è¿Ľåı£":4925,"å¹´é¾Ħ":4926,"åĿĩè¡¡":4927,"ç«ŀäºīåĬĽ":4928,"å»ī":4929,"åĬŀçĲĨ":4930,"æĺ¯ä¸ŃåĽ½":4931,"æ±ĩçİĩ":4932,"ç»ĵæŀĦçļĦ":4933,"å¸¦åĬ¨":4934,"èµĦæł¼":4935,"æľºéģĩ":4936,"æ¸ħæ¥ļ":4937,"äººæĸĩ":4938,"ness":4939,"Ġmark":4940,"èŀįåħ¥":4941,"ilar":4942,"è²":4943,"ä¸Ģä½ĵåĮĸ":4944,"å±Ģéĥ¨":4945,"è¾Ĳå°Ħ":4946,"43":4947,"çīĻ":4948,"æīİ":4949,"éĻ¶":4950,"æī¿åĮħ":4951,"å¤§å¹ħ":4952,"æĺ¯ä¸į":4953,"é«ĺéĢŁ":4954,"Ġactivation":4955,"åıĳèĤ²":4956,"æ¬¢":4957,"ross":4958,"çĵ¦":4959,"æķıæĦŁ":4960,"çļĦåĽ½å®¶":4961,"ically":4962,"ä¹³":4963,"è£ħç½®":4964,"cle":4965,"Ġcardi":4966,"PD":4967,"åĪĴåĪĨ":4968,"æĪ¿åľ°äº§":4969,"å¿ł":4970,"GDP":4971,"åŃ¦ä¼ļ":4972,"åºĶæĢ¥":4973,"tis":4974,"çŃīçº§":4975,"èĬĤèĥ½":4976,"çĶ·":4977,"å¯¹æŃ¤":4978,"ptom":4979,"ä»£è°¢":4980,"åĮºåĪĨ":4981,"ä¸Ģè·¯":4982,"ç¬¬ä¸Ģä¸ª":4983,"çĽ¸ä¼¼":4984,"å®¡çĲĨ":4985,"è®¤çľŁ":4986,"abol":4987,"å¤§å®¶":4988,"æĤī":4989,"ural":4990,"åħ¨å±Ģ":4991,"æ´Ľ":4992,"åıĳå±ķåĴĮ":4993,"Ġresult":4994,"åĨľäº§åĵģ":4995,"èªī":4996,"aging":4997,"æĪĲäºĨ":4998,"Ġsever":4999,"å¡«":5000,"åĲĦèĩª":5001,"èĮ¶":5002,"æķ¢":5003,")ï¼Į":5004,"Ġlong":5005,"Ġevid":5006,"éĺĶ":5007,"Ġav":5008,"çĶŁæ´»çļĦ":5009,"æī«":5010,"Ġev":5011,"æł·æľ¬":5012,"èĦ±è´«":5013,"å¾Ĺä»¥":5014,"Ġ15":5015,"æ¯ıå¹´":5016,"åħ¬åħ±æľįåĬ¡":5017,"ves":5018,"oh":5019,"å·§":5020,"é¦Ī":5021,"è§£éĻ¤":5022,"eth":5023,"uce":5024,"å¹²æī°":5025,"å¾¡":5026,"åŃ¦ä¹łçļĦ":5027,"Ġsuggest":5028,"äººæ°ĳçļĦ":5029,"Ġbased":5030,"æŃ£ä¹ī":5031,"èµĭäºĪ":5032,"Ġsamples":5033,"####":5034,"çŃ¾è®¢":5035,"å¾ĭå¸Ī":5036,"gan":5037,"æİ¥åı£":5038,"çļĦåħ·ä½ĵ":5039,"upplementary":5040,"æľīåºı":5041,"éĩĩéĽĨ":5042,"æĸ°æĬĢæľ¯":5043,"æİ¥æĶ¶":5044,"é«ĺäºİ":5045,";(":5046,"Ġfib":5047,"èĩ³å°ĳ":5048,"PC":5049,"ä¸»ä¹īçļĦ":5050,"æīĢéľĢ":5051,"åıĺæĽ´":5052,"ä¸įåĪ°":5053,"è¾Ĩ":5054,"Ġrat":5055,"tex":5056,"çº³ç¨İ":5057,"æĶ¿åºľçļĦ":5058,"æ¯Ķéĩį":5059,"èĥĮæĻ¯ä¸ĭ":5060,"ä»£è¡¨å¤§ä¼ļ":5061,"æīĢç¤º":5062,"Ġcontrib":5063,"åĨ²åĩ»":5064,"åīĬ":5065,"ä½İç¢³":5066,"Ġdrug":5067,"ins":5068,"ç»ıåħ¸":5069,"æĹłæķĪ":5070,"é±":5071,"ä¼łç»ŁæĸĩåĮĸ":5072,"åĨįçĶŁ":5073,"ç«ĭåľº":5074,"æ¡£æ¡Ī":5075,"éªĹ":5076,"ditional":5077,"æ·»":5078,"yn":5079,"è½¬åĮĸä¸º":5080,"ĠĠĠĠĠ":5081,"å¤įæĿĤçļĦ":5082,"äº«æľī":5083,"åĩºçīĪç¤¾":5084,"çĶµæµģ":5085,"âĢĿâĢľ":5086,"):":5087,"èµģ":5088,"æµĵåº¦":5089,"å¾®çĶŁçī©":5090,"æĦŁçŁ¥":5091,"åĢºåĪ¸":5092,"è§£åĨ³æĸ¹æ¡Ī":5093,"]^":5094,"é±¼":5095,"æįķ":5096,"çĶµåİĭ":5097,"Ġidentified":5098,"vir":5099,"ç§Łèµģ":5100,"çļĦç§ĳåŃ¦":5101,"çļĦæĹ¶åĢĻ":5102,"Ġrate":5103,"åĨ°":5104,"çļĦé£İéĻ©":5105,"æĥħå¢ĥ":5106,"Ġinformation":5107,"åĵģè´¨":5108,"è§Ĩé¢ĳ":5109,"éĢļè¿ĩå¯¹":5110,"67":5111,"æ³ķäºº":5112,"41":5113,"æĦıå¿Ĺ":5114,"Ġfurther":5115,"Ġcult":5116,"å¤ĸäº¤":5117,"åĲ´":5118,"æ¶¨":5119,"åĭĴ":5120,"aj":5121,"Ġdifferenti":5122,"å¯Ĩåº¦":5123,"2022":5124,"èĥ½åĬĽåĴĮ":5125,"ĠIt":5126,"æ³¥":5127,"å¹¶æ²¡æľī":5128,"åĵģçīĮ":5129,"æ¦Ĥæĭ¬":5130,"Ġtr":5131,"+^":5132,"ç®Ģç§°":5133,"Ġconcent":5134,"æ¥¼":5135,"æįŁä¼¤":5136,"Ġclass":5137,"è¿Ī":5138,"è¿Ŀçº¦":5139,"éļıæľº":5140,"çĶŁæĢģæĸĩæĺİ":5141,"ication":5142,"Ġneuro":5143,"åĲ¨":5144,"Ġcent":5145,"ç¼ĸè¾ĳ":5146,"ording":5147,"æĻĭ":5148,"ä»Ĭå¹´":5149,"åĳ¼åĲ¸":5150,"ĠY":5151,"ç¬¬ä¸Ģæ¬¡":5152,"æľīåĬĽ":5153,"å°Ŀ":5154,"Ġso":5155,"è´¢å¯Į":5156,"è½½ä½ĵ":5157,"çĸĨ":5158,"èħĶ":5159,"æ¸ħæĻ°":5160,"è§Ĩè§Ĵ":5161,"57":5162,"æĸ°åıĳå±ķ":5163,"æ»¤":5164,"sis":5165,"çļĦçĽ®çļĦ":5166,"Ġgrowth":5167,"\"ãĢģ\"":5168,"^[@":5169,"ĠĠĠĠĠĠ":5170,"åħ±è¯Ĩ":5171,"æĭ¿":5172,"Ġrespec":5173,"çļĦç®¡çĲĨ":5174,"è¡Ķ":5175,"çļĦæĿĥåĪ©":5176,"Ġfrequ":5177,"éĢĤçĶ¨äºİ":5178,"æŃ£å½ĵ":5179,"èľ":5180,"è¾ĥä½İ":5181,"\",\"":5182,"ä¸Ģæī¹":5183,"IC":5184,"air":5185,"é»ĺ":5186,"çŁ©":5187,"æĪĳåĽ½çļĦ":5188,"åĶ¯ä¸Ģ":5189,"though":5190,"å¾Īéļ¾":5191,"erest":5192,"åĲī":5193,"ä¸»ä»»":5194,"çļĦç²¾ç¥ŀ":5195,"è§Ĥæµĭ":5196,"ä¸Ĭä¸ĭ":5197,"ä½İäºİ":5198,"çļĦå®īåħ¨":5199,"å°ļæľª":5200,"æī©å¼ł":5201,"èĽĭçĻ½è´¨":5202,"æī¹åĪ¤":5203,"ä¸īç§į":5204,"68":5205,"çŁ¥è¯ĨçļĦ":5206,"Ġå¹´":5207,"åıĻ":5208,"æ°ĳçĶŁ":5209,"æµ®":5210,"ä½¿åŃ¦çĶŁ":5211,"æ¸ĹéĢı":5212,"åĲİæŀľ":5213,"çļĦæĸĩåĮĸ":5214,"åģ¶":5215,"Ġaddition":5216,"èĢĮåľ¨":5217,"æī¶è´«":5218,"åħļåĨħ":5219,"å®Ļ":5220,"ics":5221,"æľīæķĪåľ°":5222,"éĢļéģĵ":5223,"è°·":5224,"ä½¿åħ¶":5225,"æ³ķåĽ½":5226,"ä¸¾æİª":5227,"Ġsym":5228,"ç¦ģæŃ¢":5229,"ackage":5230,"St":5231,"å¾Ĵ":5232,"è®°èĢħ":5233,"ä»¥åīį":5234,"å¯¹æ¯Ķ":5235,"é¢ģ":5236,"ator":5237,"æĮĸæİĺ":5238,"çº¿æĢ§":5239,"æľįåĬ¡ä¸ļ":5240,"ãĢĤãĢĬ":5241,"èĥİ":5242,"havi":5243,"ulin":5244,"58":5245,"èĭıèģĶ":5246,"çĲĨçĶ±":5247,"AI":5248,"è½¬åĲĳ":5249,"Ġpub":5250,"åı¯æĮģç»Ńåıĳå±ķ":5251,"éĢīä¸¾":5252,"------------":5253,"ä¸Ńæľī":5254,"hip":5255,"to":5256,"èĬ¯çīĩ":5257,"å¹¶ä¸įæĺ¯":5258,"ä¸ŃéĹ´":5259,"ĠHe":5260,"Ġpopulation":5261,"åĬŀåħ¬":5262,"Ġbre":5263,"è¯Ī":5264,"æľªæĪĲ":5265,"anti":5266,"å·¨å¤§çļĦ":5267,"æĬ¥éģĵ":5268,"Ġtherapy":5269,"ćć":5270,"è¿Ł":5271,"äººçī©":5272,"æķĪåĬĽ":5273,"Ġcaus":5274,"çļĦä¸ŃåĽ½":5275,"å¼ıçļĦ":5276,"GA":5277,"äº§çĶŁäºĨ":5278,"Ġanaly":5279,"çł´äº§":5280,"çĸı":5281,"å¼ºçĥĪ":5282,"æĽ´é«ĺ":5283,"éĨĴ":5284,"èĩªåĬ¨åĮĸ":5285,"æľ¬ä¹¦":5286,"å¤§æ°Ķ":5287,"å¡Ķ":5288,"Ġproteins":5289,"Ġrele":5290,"è´Ŀ":5291,"Ġacid":5292,"çİ°åľº":5293,"æī¾åĪ°":5294,"Ġoccur":5295,"æĶ¾åľ¨":5296,"âĢķ":5297,"ĠÎ¼":5298,"å®ĩå®Ļ":5299,"Ġstruct":5300,"çļĦåĬŁèĥ½":5301,"ĆĈ":5302,"è¯¾åłĤæķĻåŃ¦":5303,"è®°å¿Ĩ":5304,"ä¸ĵé¡¹":5305,"é«ĺçŃīæķĻèĤ²":5306,"è¾¾æĪĲ":5307,"å®ļäºĨ":5308,"2010":5309,"åĲĪå¹¶":5310,"vention":5311,"åĪĨå·¥":5312,"ospit":5313,"ä¸»å¸Ń":5314,"è°ĥè§£":5315,"Ġthen":5316,"åĽŀçŃĶ":5317,"Ġcommon":5318,"è¯¸å¤ļ":5319,"å®ĥæĺ¯":5320,"äº§çī©":5321,"ision":5322,"æī¹è¯Ħ":5323,"èĥĨ":5324,"æĸ°æĹ¶ä»£ä¸ŃåĽ½çī¹èī²ç¤¾ä¼ļä¸»ä¹īæĢĿæĥ³":5325,"çŃīéĹ®é¢ĺ":5326,"Ġhist":5327,"Ġtech":5328,"Ġmy":5329,"è²Į":5330,"å¤§åŃ¦çĶŁ":5331,"çĶĺ":5332,"åĴĮå®ŀè·µ":5333,"Ġcap":5334,"æľīæĿĥ":5335,"åĢºæĿĥäºº":5336,"å¾ĹåĪ°äºĨ":5337,"æīĭæľ¯":5338,"åµ":5339,"éĺĲè¿°":5340,"æĪĲç»©":5341,"Ġep":5342,"èĪªå¤©":5343,"æ°Ķä½ĵ":5344,"ouse":5345,"äº¤äºĴ":5346,"uff":5347,"ified":5348,"spec":5349,"åĲĪçĲĨçļĦ":5350,"Ġshould":5351,"èº«ä½ĵ":5352,"æĦıè¯Ĩå½¢æĢģ":5353,"vere":5354,"çĶ¨æĿ¥":5355,"çŁŃæľŁ":5356,"å§Ķä¼ļ":5357,"Ġtotal":5358,"Ġamong":5359,"è¿Ĳä½ľ":5360,"é²ľæĺİ":5361,"æİ¥è¿ĳ":5362,"èĲ¥éĶĢ":5363,"æĪĲæķĪ":5364,"åĿļåĨ³":5365,"ä¸ªæľĪ":5366,"69":5367,"ä¸ºæŃ¤":5368,"è§Ĩè§ī":5369,"cop":5370,"We":5371,"ä¸įèī¯":5372,"åıĳæĺİ":5373,"âĢĻ":5374,"èįĲ":5375,"Ġcomb":5376,"åıĳè¾¾åĽ½å®¶":5377,"Ġret":5378,"erv":5379,"åľ¨çº¿":5380,"åģļæ³ķ":5381,"åĪ¶çļĦ":5382,"å¥ı":5383,"ronic":5384,"èĤ¡ç¥¨":5385,"å±ĢéĻĲ":5386,"åīįè¿Ľ":5387,"å½¼":5388,"åĬĽåĴĮ":5389,"å¤Ħç½®":5390,"å¤©ä¸ĭ":5391,"æ³ķå®ĺ":5392,"å¦»":5393,"åĲ«éĩı":5394,"å¤ļå¹´":5395,"ĠCom":5396,"åıł":5397,"æĻºèĥ½åĮĸ":5398,"omen":5399,"éĺ²èĮĥ":5400,"æĲŀ":5401,"è´Łæĭħ":5402,"æŀģå¤§":5403,"åħ¬çĽĬ":5404,"Ġabout":5405,"versity":5406,"ä¸ŃåĽ½å®¶":5407,"æĶ¿çŃĸçļĦ":5408,"å¤ĸåĽ½":5409,"è¾©è¯ģ":5410,"çķ´":5411,"èĤ¡ä»½":5412,"ç¨³å®ļçļĦ":5413,"è¾¹ç¼ĺ":5414,"æ¸¸æĪı":5415,"æĢ»éĩı":5416,"æĶ»åĿļ":5417,"ç¿»è¯ĳ":5418,"å°±åı¯ä»¥":5419,"ä¸īå¤§":5420,"ç¹ģèį£":5421,"å¿ħè¦ģçļĦ":5422,"çİ°ä»£åĮĸçļĦ":5423,"æ¯ıä¸Ģä¸ª":5424,"ç¨³å®ļæĢ§":5425,"äº¤åıī":5426,"TP":5427,"æľīåı¯èĥ½":5428,"åĨħåŃĺ":5429,"Ġreview":5430,"ä¸§":5431,"ä¸įåı¯èĥ½":5432,"å°ıåŃ¦":5433,"ences":5434,"Ġmi":5435,"è¾¹çķĮ":5436,"åĮºçļĦ":5437,"ä»ĵ":5438,"Ġlower":5439,"çļĦè®¤è¯Ĩ":5440,"ç§ĺå¯Ĩ":5441,"é¢Ī":5442,"Ġ30":5443,"åħļçļĦé¢Ĩå¯¼":5444,"Ġä¸Ģ":5445,"Ġpers":5446,"ested":5447,"æ°´å¹³çļĦ":5448,"ä¿ĿçķĻ":5449,"è¾ĥé«ĺ":5450,"LC":5451,"èĳ£äºĭ":5452,"èµŀ":5453,"æĲŃ":5454,"ajor":5455,"é«ĵ":5456,"åĿ¡":5457,"imal":5458,"æıĴ":5459,"of":5460,"çļĦè¿ĩç¨ĭä¸Ń":5461,"çļĦåİŁåĽł":5462,"Ġmemb":5463,"ä¾µå®³":5464,"åıįé¦Ī":5465,"oint":5466,"åĲįç§°":5467,"ä¸Ģå¸¦ä¸Ģè·¯":5468,"ãĢĭ(":5469,"æģĲ":5470,"èµı":5471,"çĻ¾åĪĨ":5472,"åĽ½åĨħå¤ĸ":5473,"éĤ»":5474,"Ġsimilar":5475,"Ġdue":5476,"å±ĢéĿ¢":5477,"å®¡ç¾İ":5478,"èģĶåĲĪåĽ½":5479,"åºĶçĶ¨äºİ":5480,"SS":5481,"ately":5482,"64":5483,"2014":5484,"Ġdid":5485,"éº¦":5486,"Ġsurvi":5487,"Ġprimary":5488,"amet":5489,"åħļçļĦåįģåħ«å¤§":5490,"æ°®":5491,"æľºåĻ¨äºº":5492,"ç«ĭè¶³":5493,"æ¬§çĽŁ":5494,"ä¼ª":5495,"ç¬¦åı·":5496,"åľ°çļĦ":5497,"æĺ¾çĦ¶":5498,"åĤ¬åĮĸ":5499,"Ġpe":5500,"äººæ°ĳæĶ¿åºľ":5501,"æłĩåĩĨåĮĸ":5502,"æµĻæ±Ł":5503,"ĠĠĠĠĠĠĠ":5504,"åĿ¦":5505,"æ£®æŀĹ":5506,"æĮĩåįĹ":5507,"ï¼Ĥ,":5508,"åħ¨çĲĥåĮĸ":5509,"æķħéļľ":5510,"åħĪåĲİ":5511,"è¯Ŀè¯Ń":5512,"ä¾Ŀæ³ķæ²»":5513,"åıĺå¾Ĺ":5514,"refore":5515,"*,":5516,"ç£·":5517,"æĽ²çº¿":5518,"æĺ¯ä»Ģä¹Ī":5519,"ĠMed":5520,"79":5521,"ä¸ºæł¸å¿ĥçļĦ":5522,"åįłæľī":5523,"æĭį":5524,"çļĦä¸įåĲĮ":5525,"èħĲè´¥":5526,"çªģåıĺ":5527,"æ´ª":5528,"çļĨ":5529,"åľ°æĸ¹æĶ¿åºľ":5530,"Ġpat":5531,"åįıä½ľ":5532,"åłĨ":5533,"å¹¸ç¦ı":5534,"usep":5535,"ä¸ºä¾ĭ":5536,"Ġstand":5537,"AM":5538,"åĲĪçī©":5539,"ä¸ģ":5540,"âĳ¢":5541,"ä½ĵç³»åĴĮ":5542,"æĦıæĢĿ":5543,"æĳ©":5544,"iod":5545,"ä¼Ĳ":5546,"ä¸īè§Ĵ":5547,"action":5548,"EC":5549,"Ġimmune":5550,"æİ¢æµĭ":5551,"Ġfollowing":5552,"usepackage":5553,"iel":5554,"æĸ¹ä½į":5555,"çĽĳå¯Ł":5556,"æĢĿæĥ³æĶ¿æ²»":5557,"Ġmetabol":5558,"èķ´":5559,"éĹ´æİ¥":5560,"åŃĺåľ¨çĿĢ":5561,"çĤ¹çļĦ":5562,"Ġsame":5563,"ä¾ĿçĦ¶":5564,"æĬĢæľ¯åĴĮ":5565,"åħ¨åħļ":5566,"å¢ŀåĢ¼":5567,"äººæł¼":5568,"æĸ°ä¸ŃåĽ½":5569,"è¶ħè¶Ĭ":5570,"å¯¿":5571,"Ġany":5572,"Ġevidence":5573,"æ³¡":5574,"åĵģç§į":5575,"arge":5576,"è®²è¯Ŀ":5577,"Ġox":5578,"å»ºç«ĭäºĨ":5579,"Ġwhile":5580,"Ġwould":5581,"Ġreceptor":5582,"âĢĿãĢģâĢľ":5583,"ä¿¡ä»°":5584,"è½¨éģĵ":5585,"èĮĥçķ´":5586,"éļĨ":5587,"ev":5588,"èħ¹":5589,"Ġsmall":5590,"çģĮ":5591,"å°ıå¹³":5592,"ç¤¾ä¼ļç§ĳåŃ¦":5593,"Ġexpl":5594,"è§Ī":5595,"ä¾Ŀæīĺ":5596,"èĢ³":5597,"Ġif":5598,"å¥¹":5599,"Ġrespectively":5600,"æĶ¿åħļ":5601,"ç»Łä¸ĢçļĦ":5602,"Ġexpos":5603,"é«ĺä¸Ń":5604,"2012":5605,"å¤ļæ¬¡":5606,"eu":5607,"è¾Ł":5608,"åĪĨæķ£":5609,"åĲ«ä¹ī":5610,"ä½ıæĪ¿":5611,"è¡į":5612,"æŃ£ç¡®çļĦ":5613,"ĠTo":5614,"çī§":5615,"Ġrepresent":5616,"æķ°åŃĹç»ıæµİ":5617,"ãĢĤï¼Ī":5618,"Ġchildren":5619,"Ġfindings":5620,"Ġcompar":5621,"çĴ":5622,"lial":5623,"æį·":5624,"æīĢæľīçļĦ":5625,"ç§įç±»":5626,"inf":5627,"é£İæł¼":5628,"çº¹":5629,"åĩĿèģļ":5630,"ä¾µçĬ¯":5631,"çļĦæľīæķĪ":5632,"æĮĩæĮ¥":5633,"å¼ºå¤§":5634,"esis":5635,"Ġmajor":5636,"åĮ¹éħį":5637,"æ´Ĺ":5638,"åĽ½æĥħ":5639,"Ġbehavi":5640,"éħįå¥Ĺ":5641,"Ġlung":5642,"æĬĹæĹ¥":5643,"mph":5644,"Ġplas":5645,"æĻ®åıĬ":5646,"ä¸įåĪ©":5647,"æıĲé«ĺäºĨ":5648,"Ġpositive":5649,"Ġwithout":5650,"ä»·åĢ¼çļĦ":5651,"é¹":5652,"Ġline":5653,"Ġmat":5654,"æŁĲä¸Ģ":5655,"å¼ĺ":5656,"Ġregul":5657,"éĿ¶":5658,"åıĳçĹħ":5659,"cell":5660,"æĿ¡ä»¶çļĦ":5661,"sych":5662,"æ°ĳä¼Ĺ":5663,"æ¿Ģåħī":5664,"æ¶ĪèĢĹ":5665,"Ġ11":5666,"Ġinflu":5667,"Ġsecond":5668,"Ġdisord":5669,"Ġearly":5670,"åľ¨ä¸Ģèµ·":5671,"Ġcurrent":5672,"Ġtranscri":5673,"ä»ħä»ħ":5674,"æĹłçº¿":5675,"çļĦéľĢæ±Ĥ":5676,"éĵľ":5677,"ä¿®è®¢":5678,"çĽ¸äºĴä½ľçĶ¨":5679,"èĥ½åĲ¦":5680,"å¤§åĽ½":5681,"åĮ»èį¯":5682,"åĬŁçİĩ":5683,"æľīäºº":5684,"éļ¾é¢ĺ":5685,"ä¹łè¿ĳå¹³æĸ°æĹ¶ä»£ä¸ŃåĽ½çī¹èī²ç¤¾ä¼ļä¸»ä¹īæĢĿæĥ³":5686,"éĽħ":5687,"æĢ§ä¸İ":5688,"Ġdescribed":5689,"åĲĥ":5690,"åĽ½éĺ²":5691,"ardi":5692,"éģµå®Ī":5693,"å·¥ä¸ļåĮĸ":5694,"Ġnucle":5695,"åıĺåĬ¨":5696,"åıĳå°Ħ":5697,"çĤŃ":5698,"åĪĨè§£":5699,"çļĦçŁ¥è¯Ĩ":5700,"æĭĶ":5701,"ä½įäºİ":5702,"åıĳçĶŁäºĨ":5703,"Ġauth":5704,"åı¦ä¸Ģä¸ª":5705,"åĨ³è®®":5706,"ç®¡è¾ĸ":5707,"åĢŁåĬ©":5708,"çĽ¸åıį":5709,"ĠX":5710,"çķħ":5711,"æ¿Ģæ´»":5712,"è¥¿éĥ¨":5713,"Ġ18":5714,"ane":5715,"ç¬¬åħŃ":5716,"åįģä¹Ŀ":5717,"MA":5718,"æļĹ":5719,"æīĢæľīæĿĥ":5720,"Ġdifferences":5721,"ä¸Ģå¹´":5722,"è´ŁåĢº":5723,"ingle":5724,"ety":5725,"ä¸²":5726,"æ³ķåŃ¦":5727,"æ³¢åĬ¨":5728,"å¢Ļ":5729,"å·¥åİĤ":5730,"äº¿ç¾İåħĥ":5731,"èĳĹåĲį":5732,"66":5733,"medi":5734,"ĠFig":5735,"Ġprol":5736,"Ġcomplex":5737,"sequ":5738,"å¹ķ":5739,"è¿Ľè¡ĮçļĦ":5740,"äºĨä¸ŃåĽ½":5741,"mit":5742,"Table":5743,"ä¹Łè¦ģ":5744,"io":5745,"æħİ":5746,"fer":5747,"åħ±åĲĮå¯Įè£ķ":5748,"å°ıæĹ¶":5749,"å°Ŀè¯ķ":5750,"ĠAd":5751,"2013":5752,"éĢĥ":5753,"å¤±è´¥":5754,"ld":5755,"äººä½ĵ":5756,"ä¼°è®¡":5757,"ç©·":5758,"ä¸ľåĮĹ":5759,"äººç¾¤":5760,"èĩ£":5761,"ove":5762,"ests":5763,"åİĨåı²ä¸Ĭ":5764,"çļĦéĩįå¤§":5765,"çĽ®çļĦæĺ¯":5766,"é©¾é©¶":5767,"åĴĮç®¡çĲĨ":5768,"èĵĦ":5769,"éĥ½ä¼ļ":5770,"åħ¬å¸ĥ":5771,"Ġvis":5772,"ä¸İæŃ¤":5773,"åĶ¯çī©":5774,"induced":5775,"çº¢èī²":5776,"éĤĵå°ıå¹³":5777,"çļĦæł¹æľ¬":5778,"Ġelect":5779,"ï¼ĳ":5780,"Ġiniti":5781,"åıĸåĨ³":5782,"éĵģè·¯":5783,"åıĳéĢģ":5784,"æİ¨èįĲ":5785,"çĶŁçĲĨ":5786,"å¢ŀåĬłäºĨ":5787,"åĪĽéĢłæĢ§":5788,"å¤ĸçļĦ":5789,"Ġprof":5790,"Ġvit":5791,"98":5792,"å¤įåĪ¶":5793,"ä¸ĸçķĮä¸Ĭ":5794,"Ġdesign":5795,"æ¸ħæ´ģ":5796,"åĬ¨èĦī":5797,"çīµ":5798,"âĢĺ":5799,"è¯Ħè®º":5800,"2008":5801,"é¡ºåºı":5802,"RT":5803,"ĠQ":5804,"NP":5805,"Ġcr":5806,"Ġwhether":5807,"è¾ī":5808,"æıĲåıĸ":5809,"åıĸåĨ³äºİ":5810,"å°Ĩä¼ļ":5811,"åįıä¼ļ":5812,"å¿½è§Ĩ":5813,"åĲİæĿ¥":5814,"éĢłæĪĲçļĦ":5815,"åħ¨è¿ĩç¨ĭ":5816,"ç²Ĺ":5817,"éĤ®":5818,"äºĭå®ŀä¸Ĭ":5819,"ä¸ĭåĪĹ":5820,"Â°":5821,"ä¸¤èĢħ":5822,"åľ¨è¿Ļ":5823,"æıĲäº¤":5824,"çĪ±åĽ½":5825,"èµµ":5826,"åĽ¾ä¹¦":5827,"å¼¥":5828,"å¯»æī¾":5829,"æī¿è®¤":5830,"èĥ¸":5831,"è¶³å¤Ł":5832,"èĩªèº«çļĦ":5833,"BS":5834,"ocytes":5835,"ä½ĵçİ°åľ¨":5836,"äºĶå¹´":5837,"éº»":5838,"Ġcy":5839,"ä¼ĺè´¨":5840,"çī¹å®ļçļĦ":5841,"ä¸įå¤Ł":5842,"och":5843,"å¢ŀéĢŁ":5844,"æĮĩä»¤":5845,"irc":5846,"Ġhyper":5847,"çĶµç½ĳ":5848,"æĤŁ":5849,"å¦ĩå¥³":5850,"çŃĽ":5851,"par":5852,"èģĺ":5853,"èĪĨ":5854,"reen":5855,"Ġvalues":5856,"å®¹éĩı":5857,"æĮĤ":5858,"å½»åºķ":5859,"åħļåĴĮåĽ½å®¶":5860,"è¡Ķæİ¥":5861,"æľīéĻĲåħ¬åı¸":5862,"çļĦè§Ĵåº¦":5863,"æĴ¤éĶĢ":5864,"å®ļæľŁ":5865,"åĽŀå½Ĵ":5866,"ains":5867,"æľĢä¸º":5868,"ç¾İå¥½":5869,"Ġï¼Ī":5870,"Ġvirus":5871,"æķ´çĲĨ":5872,"å°ĸ":5873,"ç§¯æŀģæĢ§":5874,"Ġflu":5875,"Th":5876,"å°ĳå¹´":5877,"æĸ¹ä¾¿":5878,"åĴĮå®ĮåĸĦ":5879,"inc":5880,"ä¸ĩäºº":5881,"å®ħ":5882,"æŃ¤æĹ¶":5883,"ä»¥ä¸ĬçļĦ":5884,"çĸ«èĭĹ":5885,"èĪªç©º":5886,"èģļçĦ¦":5887,"ãĢĭãĢĬ":5888,"Ġpromot":5889,"Ġincluded":5890,"æ³ķå¾ĭæ³ķè§Ħ":5891,"ç«Ł":5892,"ç½Ĺæĸ¯":5893,"çºªå¾ĭ":5894,"éĢıæĺİ":5895,"åı¯èĥ½æĢ§":5896,"æĽ´æĺ¯":5897,"å·²æľī":5898,"åİĨç¨ĭ":5899,"Ġsymptom":5900,"ditions":5901,"æµģéĩı":5902,"æ°Ľ":5903,"å±ħä½ı":5904,"æķĻåŃ¦ä¸Ń":5905,"åĻª":5906,"å®īè£ħ":5907,"çļĦä¼ģä¸ļ":5908,"æ¼Ķåıĺ":5909,"ç¦ıåĪ©":5910,"59":5911,"æĪĳä»¬è¦ģ":5912,"RP":5913,"åĭ¤":5914,"Ġvol":5915,"çļĦåĪ¶åº¦":5916,"åĦĴå®¶":5917,"åĽ½å®¶æ²»çĲĨ":5918,"å·²æĪĲä¸º":5919,"å¸ĤåľºåĮĸ":5920,"stand":5921,"row":5922,"ä¸İåħ¶ä»ĸ":5923,"51":5924,"çļĦè®¾è®¡":5925,"ality":5926,"etes":5927,"æĥħç»ª":5928,"å¥ī":5929,"çļĦçĶŁäº§":5930,"çĽĪ":5931,"åĻ¨ä»¶":5932,"77":5933,"å¤ļæł·æĢ§":5934,"åŁİéķĩåĮĸ":5935,"work":5936,"å±ı":5937,"set":5938,"ç²¾åº¦":5939,"ä¿¡å¿µ":5940,"æıĲä¾ĽçļĦ":5941,"ning":5942,"æıĲèµ·":5943,"æĬ«":5944,"èį¯åĵģ":5945,"åĪĨåī²":5946,"63":5947,"äººåĬĽèµĦæºĲ":5948,"Ġestim":5949,"çŁ³æ²¹":5950,"çĹħäºº":5951,"å¸ĿåĽ½":5952,"æĹłè®ºæĺ¯":5953,"èµ·è¯ī":5954,"ade":5955,"è¾ŀ":5956,"æ¼«":5957,"çĩĥæĸĻ":5958,"ths":5959,"æ¯ģ":5960,"çļĦç»ĵæŀĦ":5961,"æľ¬ç§ĳ":5962,"æĢİä¹Ī":5963,"ield":5964,"ç»ıè´¹":5965,"çĶ¨åľ°":5966,"è¡ĮæĶ¿æľºåħ³":5967,"åľºæīĢ":5968,"Ġlymph":5969,"ç¼ĸçłģ":5970,"å®ŀçĶ¨":5971,"çģ¾å®³":5972,"æĢĿæĶ¿":5973,"åľ¨æĪĳåĽ½":5974,"Ġradi":5975,"ç»´åº¦":5976,"äºĭæĥħ":5977,"54":5978,"çĳŀ":5979,"ospital":5980,"arc":5981,"åµĮ":5982,"çĽ®æłĩçļĦ":5983,"å¼ķè¿Ľ":5984,"52":5985,"RS":5986,"èĲ¥éĢł":5987,"æİĴéĻ¤":5988,"ty":5989,"ior":5990,"ä¹Łå°±":5991,"ĈĈ":5992,"æ°ĳæ³ķåħ¸":5993,"ification":5994,"æľīä¸Ģä¸ª":5995,"åºĹ":5996,"æľĹ":5997,"æī¿è¯º":5998,"yd":5999,"åİħ":6000,"æĶ¿æĿĥ":6001,"ĊĠĠ":6002,"æ³ķåĪ¶":6003,"Ġavail":6004,"åĬŀåŃ¦":6005,"ä½ĵåĪ¶æĶ¹éĿ©":6006,"lished":6007,"äº§éĩı":6008,"ç¡«":6009,"æł¸ç®Ĺ":6010,"ither":6011,"other":6012,"CI":6013,"Ġmodels":6014,"ä¹Łåı¯":6015,"ä¸įåıĺ":6016,"88":6017,"åĲ¦åĪĻ":6018,"Ġsensi":6019,"è´§çī©":6020,"æ½ľåĬĽ":6021,"èİ«":6022,"èĨ¨":6023,"åĳ½ä»¤":6024,"Ġcollec":6025,"åĩºèµĦ":6026,"åĴĮæĸ¹æ³ķ":6027,"æĹ¨åľ¨":6028,"Ġdiab":6029,"Ġconditions":6030,"äºĳè®¡ç®Ĺ":6031,"02":6032,"gative":6033,"ä»¥æŃ¤":6034,"èıľ":6035,"Ġfam":6036,"å§»":6037,"åīįæ²¿":6038,"Ġreduced":6039,"åĪĨäº«":6040,"å¯¹ç§°":6041,"ä½ľçī©":6042,"è½¦è¾Ĩ":6043,"IL":6044,"æīĵçł´":6045,"åĽ½æľīä¼ģä¸ļ":6046,"åıįæĢĿ":6047,"è®°è½½":6048,"çİ¯å¢ĥçļĦ":6049,"å¤§ä¼Ĺ":6050,"å¯Ħ":6051,"erc":6052,"æĺ¯æĪĳåĽ½":6053,"ä¿¡ä»»":6054,"ç»ĨèıĮ":6055,"é¡¹çĽ®çļĦ":6056,"åĽ¢ä½ĵ":6057,"åīįæĻ¯":6058,"åı¯ä»¥è¯´":6059,"æŃ§":6060,"ç¾İæľ¯":6061,"Ġatt":6062,"Ġless":6063,"åħ·ä½ĵçļĦ":6064,"æĥħèĬĤ":6065,"inu":6066,"ogni":6067,"ä¸ĸçķĮçļĦ":6068,"åĳ¨åĽ´":6069,"Ġ100":6070,"éŃı":6071,"Ġdiagnos":6072,"{\\":6073,"^+^":6074,"ä¸»æµģ":6075,"ced":6076,"ä¸įåĬ¨":6077,"ĠUni":6078,"æĸĩèīº":6079,"è®¡éĩı":6080,"ife":6081,"åĿĽ":6082,"ä¿¡è´·":6083,"ç®¡çĲĨåĴĮ":6084,"èĸª":6085,"ç»ĨèĥŀçļĦ":6086,"å±ķçİ°":6087,"Ġknown":6088,"å¯¸":6089,"Ġsk":6090,"è£ģåĪ¤":6091,"ä¸Ģéĥ¨åĪĨ":6092,"çº½":6093,"çļĦçĽ¸åħ³":6094,"è§Ĩéĩİ":6095,"Ġ(**":6096,"åľ¨ä¸Ģå®ļ":6097,"åŃ¤":6098,"æ¦Ĥçİĩ":6099,"è¿Ļå°±æĺ¯":6100,"æµħ":6101,"Ġrelated":6102,"ç¢±":6103,"AL":6104,"ĠEx":6105,"ä¸İç¤¾ä¼ļ":6106,"å¾Ĳ":6107,"å½°":6108,"å°¾":6109,"åĢºåĬ¡äºº":6110,"els":6111,"æĺ¯æľĢ":6112,"åį°åº¦":6113,"è¡£":6114,"ï¼Ĳ":6115,"åĤ¨å¤ĩ":6116,"EP":6117,"å¤§äºİ":6118,"ĠäºĮ":6119,"éĺ²æİ§":6120,"æ¦":6121,"å»¶ä¼¸":6122,"è¦ģåľ¨":6123,"ä¿ĿåŃĺ":6124,"äº§ä¸ļåıĳå±ķ":6125,"åĨħå®¹çļĦ":6126,"Ġphosph":6127,"ward":6128,"çĲĨè®ºçļĦ":6129,"åħ¬éĩĮ":6130,"æĹ¥èµ·":6131,"åĩıè½»":6132,"ç±»åŀĭçļĦ":6133,"Ġgra":6134,"IN":6135,"åįģåħŃ":6136,"oss":6137,"ained":6138,"ä»¥ä¾¿":6139,"æĽ¼":6140,"Ġpresence":6141,"ç¨İåĬ¡":6142,"è¿Ļç±»":6143,"Ġobtained":6144,"Ġsurg":6145,"æľīæĹ¶":6146,"åŀĤ":6147,"åĬ¨ä½ľ":6148,"ily":6149,"è¿ĩç¨ĭä¸ŃçļĦ":6150,"åĨĻä½ľ":6151,"Ġchem":6152,"è¿ĺåı¯ä»¥":6153,"æ¢¯":6154,"æµģåŁŁ":6155,"CS":6156,"åľ°åŁŁ":6157,"è¡Ĺ":6158,"çİ¯å¢ĥä¿ĿæĬ¤":6159,"èĩ³ä»Ĭ":6160,"åĩºæĿ¥çļĦ":6161,"åĲĹ":6162,"éķ¿æ±Ł":6163,"ick":6164,"2011":6165,"CM":6166,"å¿ĺ":6167,"ä¸»è¦ģæľī":6168,"å½ĵä»Ĭ":6169,"Ġadd":6170,"çļĦä½¿çĶ¨":6171,"æŀĦéĢł":6172,"based":6173,"03":6174,"æĺİæĺ¾çļĦ":6175,"Ġdiagnosis":6176,"èį¡":6177,"ç¼ĸç¨ĭ":6178,"çªĹ":6179,"acy":6180,"Ġmus":6181,"äºİæĺ¯":6182,"uted":6183,"å¹¿ä¸ľ":6184,"æİ¨è¡Į":6185,"Ġmany":6186,"FP":6187,"èģĶçĽŁ":6188,"73":6189,"ç®±":6190,"ĠåĴĮ":6191,"OR":6192,"å£°æĺİ":6193,"Ġrece":6194,"é©»":6195,"çļĦå¤ļ":6196,"çļĦåīįæıĲ":6197,"çİ°éĩĳ":6198,"å¤ĦåĪĨ":6199,"å®¡æī¹":6200,"è¹":6201,"åĴĮæĬĢæľ¯":6202,"DA":6203,"å®ŀåĬĽ":6204,"åºĶçĶ¨ç¨ĭåºı":6205,"åŃ¦çĶŁåľ¨":6206,"åĪĨå¸ĥå¼ı":6207,"æ·ĭ":6208,"æł·çļĦ":6209,"åįģäºĶ":6210,"Ġdirect":6211,"Ġperiod":6212,"Ġterm":6213,"è®¤åı¯":6214,"line":6215,"å°ıçļĦ":6216,"è´§å¸ģæĶ¿çŃĸ":6217,"åŃĲçļĦ":6218,"æĸ¹ç¨ĭ":6219,"åĩ¸":6220,"äºĴçĽ¸":6221,"æĭĴç»Ŀ":6222,"ä½ľæĪĺ":6223,"Ġcle":6224,"ission":6225,"Ġ50":6226,"ä¸Ńå°ıä¼ģä¸ļ":6227,"Ġagain":6228,"æĸ¹çļĦ":6229,"æĹłäºº":6230,"æľĢé«ĺäººæ°ĳæ³ķéĻ¢":6231,"æķ¬":6232,"ĠĠĠĠĠĠĠĠĠĠĠĠĠĠ":6233,"éļĲç§ģ":6234,"Ġprovide":6235,"Al":6236,"Ġtra":6237,"ç»ıæµİç¤¾ä¼ļåıĳå±ķ":6238,"Ġparticular":6239,"çłĶç©¶éĻ¢":6240,"ä¹Į":6241,"æº¯":6242,"ç§ĳåŃ¦æĬĢæľ¯":6243,"ç³»ç»Łä¸Ń":6244,"çļĦåĽ½éĻħ":6245,"å¾ģæĶ¶":6246,"Ġgenetic":6247,"æĥ³è±¡":6248,"èĲ¨":6249,"sc":6250,"Ġ24":6251,"Ġsurvival":6252,"Ġbecause":6253,"Ġlab":6254,"é¢ľ":6255,"åĪ©çĽĬçļĦ":6256,"å¤ľ":6257,"fore":6258,"è¾Ľ":6259,"500":6260,"å¤±åİ»":6261,"åĲİèĢħ":6262,"ä¹ĭæīĢä»¥":6263,"çĶŁåĬ¨":6264,"éĨĩ":6265,"ensity":6266,"æ·»åĬł":6267,"ä¹ĥèĩ³":6268,"ä¸İåıĳå±ķ":6269,"ĠAll":6270,"]ãĢĤ":6271,"Ġsignaling":6272,"ä¹¦éĿ¢":6273,"sec":6274,"ä¸¥éĩįçļĦ":6275,"ç§ĳåŃ¦çļĦ":6276,"ç¨»":6277,"æ³Į":6278,"éĢļè®¯":6279,"![":6280,"Ġpattern":6281,"æĦŁåıĹ":6282,"åī¥":6283,"è¯´çļĦ":6284,"äº¤å¾Ģ":6285,"æĦŁè§ī":6286,"æķ°çļĦ":6287,"Ġdays":6288,"Ġphen":6289,"åĬłå¼ºå¯¹":6290,"76":6291,"æľĢè¿ĳ":6292,"icient":6293,"Ġsingle":6294,"Ġmal":6295,"que":6296,"åĽ½å®¶åĴĮ":6297,"ysis":6298,"Ġisol":6299,"èĬĤçº¦":6300,"ä¸»ä½ĵçļĦ":6301,"å©ļå§»":6302,"ç²¾ç¡®":6303,"åħ¬å®ī":6304,"è¿ĩåº¦":6305,"ç¼ĸåĨĻ":6306,"IF":6307,"ument":6308,"ç¨Ģ":6309,"ä¿®æŃ£":6310,"æ´»åĬ¨ä¸Ń":6311,"Ġseveral":6312,"Ġvalue":6313,"çīĪæĿĥ":6314,"Ġmechanisms":6315,"äºķ":6316,"Ġinvolved":6317,"çī©æĿĥ":6318,"åŁĥ":6319,"ä¼Ĺå¤ļ":6320,"æĸ°èĥ½æºĲ":6321,"ĠĠĠĠĠĠĠĠĠĠ":6322,"BP":6323,"åĲĪæ³ķæĿĥçĽĬ":6324,"åįģåħ«":6325,"ites":6326,"è¿ĩç¨ĭçļĦ":6327,"æĩĤ":6328,"ĠĠĠĠĠĠĠĠĠĠĠĠĠ":6329,"CL":6330,"ä¸»è¦ģåĮħæĭ¬":6331,"è®ºè¯ģ":6332,"äºĮæ°§åĮĸ":6333,"Ġweek":6334,"âĦ":6335,"Ġsupport":6336,"çľŁçĲĨ":6337,"æĬ¢":6338,"\\'":6339,"é¢Ĺç²Ĵ":6340,"è¡¡éĩı":6341,"åįķçĭ¬":6342,"æŁ¥è¯¢":6343,"è°ĪåĪ¤":6344,"åħĭæľį":6345,"ä¸°å¯ĮçļĦ":6346,"åĬ£":6347,"éĢļçĶ¨":6348,"å¤ĸæ±ĩ":6349,"åĲĮæĹ¶ä¹Ł":6350,"æĿľ":6351,"å·®åĪ«":6352,"èĨ¨èĥĢ":6353,"Ġresist":6354,"çķĮå®ļ":6355,"æķ°é¢Ŀ":6356,"åŀĥ":6357,"åı¯èĥ½æĺ¯":6358,"åħĪçĶŁ":6359,"Ġsol":6360,"hes":6361,"åľ¾":6362,"å¦¥":6363,"Ġadv":6364,"èģĮåĬ¡":6365,"mm":6366,"åŀĥåľ¾":6367,"æ°ĳèĲ¥":6368,"ĠRNA":6369,"æĹłçĸĳ":6370,"æ°ĶåĢĻåıĺåĮĸ":6371,"å±±ä¸ľ":6372,"ĠZ":6373,"ï¼ģ":6374,"è½¬è½½":6375,".ãĢĬ":6376,"Ġstatis":6377,"ç®ĢåįķçļĦ":6378,"Ġgreat":6379,"äººåĿĩ":6380,"çĭŃ":6381,"å¦ĤåĽ¾":6382,"ä»¥å¾Ģ":6383,"ĠĠĠĠĠĠĠĠĠ":6384,"æµģè¡Į":6385,"è®¤è¯ĨåĪ°":6386,"Ġstress":6387,"åŃĺæ¬¾":6388,"éĽĩ":6389,"æ³Ħ":6390,"è¿Ĳç®Ĺ":6391,"æĭĨ":6392,"çĶµåŃĲåķĨåĬ¡":6393,"72":6394,"æĽ´å¤§":6395,"èĢĥåı¤":6396,"Ćć":6397,"ä¹ĭéĹ´çļĦåħ³ç³»":6398,"BM":6399,"Ġmultiple":6400,"ç²ĺ":6401,"ï¼ĮãĢĬ":6402,"æł¡åĽŃ":6403,"å¹´åº¦":6404,"2009":6405,"éĩįè¦ģä½ľçĶ¨":6406,"ä¹łè¿ĳå¹³åĲĮå¿Ĺ":6407,"lob":6408,"ç»ĥä¹ł":6409,"åħļçļĦåįģåħ«å¤§ä»¥æĿ¥":6410,"éļ¾åº¦":6411,"âħ":6412,"å¸¦é¢Ĩ":6413,"é¡ºåĪ©":6414,"odies":6415,"åĪĿæľŁ":6416,"çłĶç©¶çĶŁ":6417,"åľ¨è¿Ļä¸ª":6418,"èĢħåĴĮ":6419,"ä¸ĵé¢ĺ":6420,"æ³ī":6421,"çľĭæĿ¥":6422,"å¹³éĿ¢":6423,"ey":6424,"åıįå¤į":6425,"rast":6426,"Ġenh":6427,"å¯¹è¯Ŀ":6428,"æŃ¦è£ħ":6429,"å»·":6430,"ç§įæ¤į":6431,"åıĳå±ķä¸ŃåĽ½å®¶":6432,"çĪĨåıĳ":6433,"çļĦåıĳçĶŁ":6434,"ED":6435,"}}":6436,"è¿ĩæ¸¡":6437,"æļĸ":6438,"éĥ½è¦ģ":6439,"Ġabs":6440,"æ³°":6441,"åĪĢ":6442,"anced":6443,"atus":6444,"å¼ºå¤§çļĦ":6445,"Ġculture":6446,"æĺĮ":6447,"æľĢä½İ":6448,"IM":6449,"ç³Ĭ":6450,"åĽ½æ°ĳç»ıæµİ":6451,"åĶ±":6452,"åģľæŃ¢":6453,"åŁºåĽłç»Ħ":6454,"Ġmeasured":6455,"è¡¥è´´":6456,"app":6457,"å®ŀä¾ĭ":6458,"Ġserum":6459,"å¼ķèµ·çļĦ":6460,"71":6461,"ä»ªåĻ¨":6462,"åĪĨæŀĲåĴĮ":6463,"Ġdeath":6464,"å¸ĪçĶŁ":6465,"otype":6466,"ĠâĪĴ":6467,"omy":6468,"Ġtreated":6469,"viron":6470,"éĩįç»Ħ":6471,"åĬłå¯Ĩ":6472,"ä¸įç¡®å®ļ":6473,"Cl":6474,"çĶµæºĲ":6475,"etwork":6476,"Ġstandard":6477,"omet":6478,"æ»¥":6479,"ful":6480,"Ġdiseases":6481,"å¸¸è§Ħ":6482,"NS":6483,"çģ¯":6484,"å¾½":6485,"è¯ģä¹¦":6486,"çŃīæĸ¹éĿ¢çļĦ":6487,"ç¼ĵè§£":6488,"62":6489,"ĠHealth":6490,"éķ¿çļĦ":6491,"åĢ¡å¯¼":6492,"Ġphys":6493,"è¢«ç§°ä¸º":6494,"lation":6495,"åĪł":6496,"èĦĬ":6497,"âĢ¢":6498,"å¼ĺæī¬":6499,"Ġprac":6500,"å»ºè®¾åĴĮ":6501,"è¯ŀ":6502,"ç»Īç«¯":6503,"ĠIm":6504,"Ġexpressed":6505,"Ġsample":6506,"Ġdemonstrated":6507,"æ¶Īæģ¯":6508,"è¿ľç¨ĭ":6509,"æłĩåĩĨçļĦ":6510,"ä»£è¡¨çļĦ":6511,"ä¸ŃæīĢ":6512,"èģĶéĤ¦":6513,"éĵ¸":6514,"çłĶç©¶åĳĺ":6515,"å¥´":6516,"åĬĽåŃ¦":6517,"å¹¶æľª":6518,"ties":6519,"æĬĢæľ¯åĪĽæĸ°":6520,"acc":6521,"æĹ¶ä»£çļĦ":6522,"å¿§":6523,"å±ĤçļĦ":6524,"æĶ¿åĬ¡":6525,"åĽ½æ°ĳåħļ":6526,"å¤§èĦĳ":6527,"æĬ«éľ²":6528,"æĬĹä½ĵ":6529,"ner":6530,"Ġed":6531,"åİĨåı²çļĦ":6532,"æĤ£èĢħçļĦ":6533,"Ġpart":6534,"Ġresponses":6535,"teg":6536,"Ġinterest":6537,"Ġ14":6538,"Ġbefore":6539,"å¼ķå¯¼åŃ¦çĶŁ":6540,"Ġcalc":6541,"æ¬º":6542,"è°ĥåĬ¨":6543,"éĥĳ":6544,"è§£è¯»":6545,"åħļå§Ķ":6546,"61":6547,"Ġreve":6548,"æľªæĿ¥çļĦ":6549,"æħ¢æĢ§":6550,"08":6551,"round":6552,"åĮħè£ħ":6553,"ool":6554,"å¾®è§Ĥ":6555,"æ¯ıä¸Ģ":6556,"çĨŁæĤī":6557,"Ġmm":6558,"ä¹Łå°±æĺ¯è¯´":6559,"æĺ¯ä»İ":6560,"Ġlik":6561,"face":6562,"æĸĩçī©":6563,"èĴĻåı¤":6564,"åľ¨åħ¶":6565,"ç¡®å®ļçļĦ":6566,"çĶŁæĢģç³»ç»Ł":6567,"åĨľä¸ļçĶŁäº§":6568,"Ġdom":6569,"çľĭåĩº":6570,"è·³":6571,".[":6572,"çĵ¶":6573,"çģ°":6574,"ç³ĸå°¿":6575,"Ġidentify":6576,"æİī":6577,"åıįæĺłäºĨ":6578,"åĪĨåĮĸ":6579,"pression":6580,"åľ°è´¨":6581,"æł·åĵģ":6582,"çļĦåı¯":6583,"åĢŁæ¬¾":6584,"ç¢³æİĴæĶ¾":6585,"ĠUniversity":6586,"å¤§éĻĨ":6587,"æ·Ģ":6588,"çĶµè§Ĩ":6589,"æºĲäºİ":6590,"çº¿ç¨ĭ":6591,"bl":6592,"åı¦ä¸Ģ":6593,"Ġcase":6594,"åį³åı¯":6595,"å¯¹ä¸ŃåĽ½":6596,"èī²å½©":6597,"DM":6598,"ste":6599,"ç¢İ":6600,"Ġpreviously":6601,"èļĢ":6602,"å®ŀä¹ł":6603,"å¹¶å°Ĩ":6604,"çĶŁçī©åŃ¦":6605,"å¼Ĭ":6606,"éĽĨç¾¤":6607,"åĽŀæĶ¶":6608,"æĶ¯éħį":6609,"è¿Ļé¡¹":6610,"å®¡æł¸":6611,"åħļçļĦåįģä¹Ŀ":6612,"ĠHIV":6613,"èĤĥ":6614,"ï½ŀ":6615,"ä¹Łåľ¨":6616,"Ġorgan":6617,"Ġsubjects":6618,"related":6619,"å¹¿åĳĬ":6620,"rane":6621,"äººåĴĮ":6622,"Ġtem":6623,"åªĴä»ĭ":6624,"Ġhow":6625,"è¿ģç§»":6626,"é¢ģå¸ĥ":6627,"ç»ĵæŀĦæĢ§":6628,"æĸ°åĨł":6629,"äººåĳĺçļĦ":6630,"¤Ĳ":6631,"èµ¤":6632,"pir":6633,"å½Ĵçº³":6634,"Ġnec":6635,"85":6636,"ä¿ĥä½¿":6637,"Ġben":6638,"ä¸»æĿĥ":6639,"Ġred":6640,"è¾ĥå¤§çļĦ":6641,"åħ¨éĿ¢å»ºæĪĲ":6642,"Ġprob":6643,"æĿ°":6644,"èµ·åĪ°":6645,"åīįçļĦ":6646,"è¦ģæľī":6647,"ç³ĸå°¿çĹħ":6648,"è¯ģå®ŀ":6649,"æ§":6650,"çİ°è¡Į":6651,"RA":6652,"Ġmethods":6653,"åĽ¾å½¢":6654,"Ġmedical":6655,"ç£¨":6656,"èĥĥ":6657,"å¤ļå°ĳ":6658,"ä¸īå¹´":6659,"æľĢæĹ©":6660,"çļĦéľĢè¦ģ":6661,"ç³»æķ°":6662,"æĸľ":6663,"Ġmg":6664,"Ġhem":6665,",ãĢĬ":6666,"Ġavailable":6667,"Ġpathway":6668,"af":6669,"åĲİæľŁ":6670,"ually":6671,"æĺ¯éĢļè¿ĩ":6672,"è¿·":6673,"åľ¨è¿Ļç§į":6674,"ĠĠĠĠĠĠĠĠĠĠĠ":6675,"æķĻå¸ĪçļĦ":6676,"Ġcharacteris":6677,"ium":6678,"1000":6679,"ä¹ĭä¸ĭ":6680,"ount":6681,"read":6682,"åĪĿå§ĭ":6683,"äººå£«":6684,"Ġbody":6685,"åĪĨè£Ĥ":6686,"çļĦæĪĺçķ¥":6687,"åĨ¬":6688,"çıł":6689,"ogenesis":6690,"ä¹ĭå¤Ħ":6691,"èĤ²äºº":6692,"åŁ¹åħ»åŃ¦çĶŁ":6693,"ury":6694,"çĥ¯":6695,"å¾ģç¨ĭ":6696,"è¡Ģæ¶²":6697,"çĽ¸åĲĮçļĦ":6698,"ene":6699,"ps":6700,"ellular":6701,"ä¸¹":6702,"éĹ²":6703,"çİ¯å¢ĥä¸Ń":6704,"æŁĲä¸ª":6705,"æĻĵ":6706,"åıĺæĪĲ":6707,"éĿ¢ä¸´çļĦ":6708,"æ¦Ĥè¿°":6709,"éĽª":6710,"ull":6711,"Ġrati":6712,"æ¬ł":6713,"è°ĥçłĶ":6714,"æĹ¶æľŁçļĦ":6715,"åĩºçİ°çļĦ":6716,"])":6717,"åĴĮæľįåĬ¡":6718,"åĿļæĮģä»¥":6719,"å¿ĥèĦı":6720,"ä¿Ħç½Ĺæĸ¯":6721,"Ġgluc":6722,"èĩ³åħ³":6723,"ml":6724,"çī¹å¼Ĥ":6725,"çļĦå½¢æĪĲ":6726,"Ġliver":6727,"æĢ¥æĢ§":6728,"å¾Īå¤§çļĦ":6729,"ç»ıçĲĨ":6730,"Ġimprove":6731,"04":6732,"Ġlarge":6733,"éģ¥":6734,"å®¿":6735,"ams":6736,"æĦıä¹īä¸Ĭ":6737,"ocy":6738,"Ćą":6739,"å¾Ĺåĩº":6740,"çĪ¶æ¯į":6741,"ocial":6742,"Ġpri":6743,"çļĦçī¹å¾ģ":6744,"åıĸä»£":6745,"å¯¹æİ¥":6746,"Ġneurons":6747,"specific":6748,"Ġchronic":6749,"ç¡ħ":6750,"ä¼¼ä¹İ":6751,"Ġparticipants":6752,"ä¸§å¤±":6753,"æĬĵä½ı":6754,"åįĹäº¬":6755,"å½¢å¼ıçļĦ":6756,"Ġwomen":6757,"åħ¬å¼ı":6758,"Ġeither":6759,"å®ŀçİ°ä¸Ńåįİæ°ĳæĹıä¼Łå¤§å¤įåħ´":6760,"éĥ¨éĺŁ":6761,"ĠFurther":6762,"å¯»æ±Ĥ":6763,"Ġvi":6764,"ç¡ķ":6765,"å¤«å¦»":6766,"åħħæ»¡":6767,"ä¸İåħ¶":6768,"éĩĳé¢Ŀ":6769,"è¯ķåĽ¾":6770,"çĽ®å½ķ":6771,"Ġfoc":6772,"åľ°éľĩ":6773,"å®Įæķ´çļĦ":6774,"ĠUn":6775,"DL":6776,"è´¯ç©¿":6777,"Ġpossible":6778,"éĻķ":6779,"ä¸ĭæĿ¥":6780,"æĿĲæĸĻçļĦ":6781,"con":6782,"Ġ16":6783,"åħ¬çº¦":6784,"ä¿±":6785,"è¡¨è¿°":6786,"ina":6787,"æ¶Į":6788,"åŃ¦ä½į":6789,"erence":6790,"Ġprolif":6791,"ject":6792,"æĿĳæ°ĳ":6793,"è®¾è®¡çļĦ":6794,"å°ıåº·ç¤¾ä¼ļ":6795,"åİŁåĳĬ":6796,"Ġest":6797,"Ġgu":6798,"Ġlocal":6799,":(":6800,"èĢĮéĿŀ":6801,"verse":6802,"è®¢ç«ĭ":6803,"TT":6804,"æīĵåĩ»":6805,"Ġmight":6806,"ä¸įæĸŃæıĲé«ĺ":6807,"ä¹°åįĸ":6808,"Ġcirc":6809,"Ġi":6810,"åĻ¨å®ĺ":6811,"**)":6812,"åĽĬ":6813,"ä¾ĭåŃĲ":6814,"æĭħå½ĵ":6815,"Ġsus":6816,"æŃ£å¦Ĥ":6817,"éļ¶":6818,"è¾ĥé«ĺçļĦ":6819,"RF":6820,"ationship":6821,"è¯¯å·®":6822,"ĠmRNA":6823,"å°½åı¯èĥ½":6824,"æŃ¦åĻ¨":6825,"éľĢè¦ģçļĦ":6826,"Ġauthors":6827,"ä¸ŃçŃī":6828,"å®¶æĹı":6829,"omic":6830,"MO":6831,"ä¾¦":6832,"Ch":6833,"æĪĳä»¬åı¯ä»¥":6834,"èĤ¯å®ļ":6835,"æıĲç¤º":6836,"æµĭå®ļ":6837,"åıĳåĩº":6838,"éĽĨåĲĪ":6839,"è´¦æĪ·":6840,"Ġdistrib":6841,"Ġchange":6842,"2005":6843,"arm":6844,"äººèº«":6845,"æŁĵèī²":6846,"Ġindependent":6847,"pha":6848,"äººæ°ĳä»£è¡¨å¤§ä¼ļ":6849,"æ·¡":6850,"Ġimaging":6851,"Ġexperiments":6852,"Ġvs":6853,"ä¾¿åĪ©":6854,"å¸¦æĿ¥äºĨ":6855,"çĻĮçĹĩ":6856,"term":6857,"åĲĪè§Ħ":6858,"æłĩçļĦ":6859,"æłĩè®°":6860,"ä½ĵåĪ¶æľºåĪ¶":6861,"æĸ¹æ³ķçļĦ":6862,"æ»¡æĦı":6863,"2007":6864,"ä¼ĺçĤ¹":6865,"å¸ĪèĮĥ":6866,"Ġagainst":6867,"æ¶Ĥ":6868,"åĨ³å®ļäºĨ":6869,"çĭ¬ç«ĭçļĦ":6870,"äººå¯¹":6871,"){#":6872,"Ġanalyzed":6873,"åĬłä¸Ĭ":6874,"ode":6875,"Ġconsidered":6876,"çĽ²":6877,"åĽĽæĺ¯":6878,"çĶŁæ´»ä¸Ń":6879,"å¥³æĢ§":6880,"ised":6881,"rop":6882,"åīĸ":6883,"è¡Ģåİĭ":6884,"æĲº":6885,"Ġindividuals":6886,"è¿ĶåĽŀ":6887,"ä¾Ŀæ³ķæ²»åĽ½":6888,"åĮĸè§£":6889,"ç¤¾ä¼ļä¿Ŀéļľ":6890,"ä»¿çľŁ":6891,"æľĢä½³":6892,"å¸¸è§ģçļĦ":6893,"èµł":6894,"è¯±å¯¼":6895,"è·Łè¸ª":6896,"ä¿¡å¿ĥ":6897,"èĴ¸":6898,"æĿĤå¿Ĺ":6899,"Ġapproach":6900,"åħ³èĬĤ":6901,"çŁ¥è¯ĨåĴĮ":6902,"åķĨä¸ļéĵ¶è¡Į":6903,"Ġpress":6904,"Ġsep":6905,"vent":6906,"74":6907,"åŃķ":6908,"è®¾å®ļ":6909,"ian":6910,"vironment":6911,"è°ĥçĶ¨":6912,"Ġunderstand":6913,"ä¸īç»´":6914,"æľĢæĸ°":6915,"å°±èĥ½":6916,"ä¸ŃåĽ½ç»ıæµİ":6917,"å¯Ĩçłģ":6918,"Ġconduc":6919,"çļĦå¸Ĥåľº":6920,"æµ·å¤ĸ":6921,"å¯¹æĸ¹":6922,"éŃĤ":6923,"å«Į":6924,"ä¸¾è¡Į":6925,"æľªæĪĲå¹´äºº":6926,"Ġdetermine":6927,"åĭĥ":6928,"å·¡":6929,"æĳĩ":6930,"earch":6931,"ules":6932,"ä¸¤å¤§":6933,"åŃŁ":6934,"éĶĭ":6935,"Â±":6936,"DS":6937,"æĺ¯æľī":6938,"iven":6939,"Ġ13":6940,"æĹ¢æĺ¯":6941,"æĴ°":6942,"PA":6943,"çĻ¾å§ĵ":6944,"Ġreveal":6945,"å¤§å¤ļ":6946,"åįķçº¯":6947,"èµĦäº§éĺ¶çº§":6948,"åľ³":6949,"Ġtumors":6950,"Ġsize":6951,"çĶŁæķĪ":6952,"æĬ¤çĲĨ":6953,"Ġfunctional":6954,"èĩªè¡Į":6955,"Ġhel":6956,"æ¨¡å¼ıçļĦ":6957,"çī©ä½ĵ":6958,"ä½ĽæķĻ":6959,"minist":6960,"ç»ĪæŃ¢":6961,"åĹ":6962,"ç«Ń":6963,"é¢ĦèŃ¦":6964,"Ġheart":6965,"çłĶç©¶ä¸Ń":6966,"plication":6967,"äººæĿĥ":6968,"éĶ»":6969,"å¼ĢåĲ¯":6970,"ä¸ŃåĴĮ":6971,"asing":6972,"ĠEn":6973,"äº¤ä»ĺ":6974,"è¾½":6975,"çļĦæłĩåĩĨ":6976,"Ġallow":6977,"Ġbreast":6978,"ections":6979,"è°¨":6980,"Ġloss":6981,"æĽ°":6982,"ç«ĭåį³":6983,"ç¬¬ä¸ĥ":6984,"è¯»èĢħ":6985,"ysi":6986,"Ġcompon":6987,"çŃīæĸ¹å¼ı":6988,"éĥ¨éĹ¨çļĦ":6989,"çĽ´åĪ°":6990,"Ġmonths":6991,"æ¢³":6992,"Ġdecreased":6993,"stit":6994,"ince":6995,"ean":6996,"ret":6997,"æŀ¢":6998,"ish":6999,"æł¼å¼ı":7000,"ä¸įå¼Ģ":7001,"çĹħåıĺ":7002,"åĨħå¤ĸ":7003,"åľ¨åĽ½éĻħ":7004,"æĹ¢æľī":7005,"æĮĩå®ļ":7006,"æī©æķ£":7007,"äºļæ´²":7008,"åľ°ä¸ĭ":7009,"ä¸įè¦ģ":7010,"åĩıæİĴ":7011,"Ġstimul":7012,"ç§ĳåŃ¦éĻ¢":7013,"æĢĿæĥ³çļĦ":7014,"æ·±åľ³":7015,"verage":7016,"æĮĩå¼ķ":7017,"åĵ¥":7018,"æī«æıı":7019,"Ġmac":7020,"âĦĥ":7021,"roup":7022,"åĲ«æľī":7023,"Ġlip":7024,"é»Ħæ²³":7025,"èµ·çĤ¹":7026,"ĠAm":7027,"ç»ĵåĲĪèµ·æĿ¥":7028,"å¿ĥçĲĨåŃ¦":7029,"åĿļå®ŀ":7030,"AB":7031,"ists":7032,"âĢ²":7033,"ä»İä¸¥":7034,"ä¸ªåĪ«":7035,"æĿ¡çº¦":7036,"Ġbinding":7037,"åı¯çĶ¨":7038,"äºĮèĢħ":7039,"asis":7040,"åĲĦæĸ¹":7041,"Ġ'":7042,"Ġaccording":7043,"èįĴ":7044,"è´£ä»»çļĦ":7045,"æĿĥéĻĲ":7046,"åľ¨ä¸Ģä¸ª":7047,"ask":7048,"ä¸ŃåĽ½å¼ı":7049,"ä¸Ģæ®µ":7050,"çĶµç£ģ":7051,"éĥ¨ä»¶":7052,"åħ¨æĸ¹ä½į":7053,"å¤§åĪ©":7054,"Ġsymptoms":7055,"respon":7056,"ru":7057,"ä¾ĽåºĶåķĨ":7058,"åĪ¶åº¦åĴĮ":7059,"å®ŀè®Ń":7060,"å¼ķçĶ¨":7061,"çļĦçĶŁæ´»":7062,"æĭħä»»":7063,"Ġinsulin":7064,"æīĢå¾Ĺç¨İ":7065,"åħļç»Ħç»ĩ":7066,"å»ºç«ĭåģ¥åħ¨":7067,"Ġinduced":7068,"æŁĶ":7069,"å¸¸æĢģ":7070,"åĲĪéĢĤ":7071,"atal":7072,"èĥº":7073,"Ġç¬¬äºĮ":7074,"æľªç»ı":7075,"300":7076,"esion":7077,"ables":7078,"ĊĠĠĠĠĠĠĠĠĠĠĠĠĠĠĠ":7079,"èµ·æĿ¥çļĦ":7080,"çŃīçļĦ":7081,"èµĦæºĲéħįç½®":7082,"æĸĳ":7083,"åŃĲå¥³":7084,"è¿Ļä¸ĢçĤ¹":7085,"åı¯éĿłæĢ§":7086,"æ·ĭå·´":7087,"è§Ħç«ł":7088,"åįłæ¯Ķ":7089,"è·¯çĶ±":7090,"]\\],":7091,"å¼¹æĢ§":7092,"Ġfac":7093,"æīĭæľº":7094,"Ġpur":7095,"å¡ĳéĢł":7096,"åħ³å¿ĥ":7097,"çº¢åĨĽ":7098,"æīĢè¿°":7099,"Ġdetected":7100,"å¼Ģè¾Ł":7101,"oles":7102,"Ġconfir":7103,"An":7104,"éļ¾çĤ¹":7105,"å·¥åķĨ":7106,"æľ¬æ³ķ":7107,"åıĳæĢ§":7108,"09":7109,"æľ¬åľ°":7110,"ç»ıæµİåıĳå±ķçļĦ":7111,"äºĨå¯¹":7112,"Ġparamet":7113,"åħ¬æľī":7114,"Ġbeing":7115,"æĪĲåĥı":7116,"å¤±ä¸ļ":7117,"å®³äºº":7118,"å°ıé¼ł":7119,"Ġrelationship":7120,"æĴŀ":7121,"å°±è¦ģ":7122,"æ²»åħļ":7123,"Ġmouse":7124,"æľºæŀĦçļĦ":7125,"æ±Łèĭı":7126,"åįģä¸ĥ":7127,"åĲĪæł¼":7128,"ĠCl":7129,"åĨ»":7130,"æķĻèĤ²éĥ¨":7131,"å®īåħ¨æĢ§":7132,"çĥŃçĤ¹":7133,"åĪĨè¾¨":7134,"åĮ»çĶŁ":7135,"åĩłä½ķ":7136,"ĠCT":7137,"éĤ£æł·":7138,"èĢĥèĻĳåĪ°":7139,"è¯īè®¼æ³ķ":7140,"çİ»":7141,"éĺ²æĬ¤":7142,"ring":7143,"å¢ĵ":7144,"éĥ¨ä½į":7145,"æ¸ħåįķ":7146,"å¸¸å¸¸":7147,"é£Łçī©":7148,"éĴ¥":7149,"æĮĩç¤º":7150,"Ġexc":7151,"Ġdifference":7152,"åĸĦäºİ":7153,"çļĦåĪĨæŀĲ":7154,"æ°ĽåĽ´":7155,"ĠAD":7156,"åħ±å»º":7157,"æĥĬ":7158,"SO":7159,"éŀ":7160,"çļĦæĶ¿çŃĸ":7161,"å¯Ĵ":7162,"erative":7163,"åı¤åħ¸":7164,"math":7165,"éĴĻ":7166,"Ġexample":7167,"Ġapop":7168,"äººç±»ç¤¾ä¼ļ":7169,"èĪĨè®º":7170,"ä¿ĥè¿ĽäºĨ":7171,"é¢Ĩå¯¼å¹²éĥ¨":7172,"å·¥ä½ľä¸Ń":7173,"å®ĺåĳĺ":7174,"çº¿ä¸Ĭ":7175,"éĩįè¦ģçļĦæĺ¯":7176,"Ġcontrols":7177,"æĪĴ":7178,"æĬ¥éħ¬":7179,"Ġdetermined":7180,"ä¸įåıĹ":7181,"uk":7182,"Ġstrateg":7183,"Ġdown":7184,"å¯¹ç«ĭ":7185,"å¯¹æĬĹ":7186,"æķħæĦı":7187,"idence":7188,"PCR":7189,"ä½ľä¸ºä¸Ģç§į":7190,"Ġä¸ī":7191,"Ġcommun":7192,"89":7193,"æĪ´":7194,"å¸¦æľī":7195,"èĲ½åĲİ":7196,"2006":7197,"æĽ´å¥½çļĦ":7198,"éĻĲåº¦":7199,"çļĦæĹ¶ä»£":7200,"Ġdys":7201,"çłĶåĪ¶":7202,"Ġextrac":7203,"ä¸İæŃ¤åĲĮæĹ¶":7204,"ocument":7205,"æĶ¾å¼ĥ":7206,"èĩ³äºİ":7207,"Ġmolecular":7208,"æ°Ķè±¡":7209,"ç»Ħä»¶":7210,"ä»¤äºº":7211,"ä¿¡æīĺ":7212,"é¥±":7213,"eline":7214,"åĽŃåĮº":7215,"å°ºåº¦":7216,"çļĦç»Ħç»ĩ":7217,"å¼ĢåĪĽ":7218,"ä¸ºä¸»è¦ģ":7219,"èĴĭ":7220,"ĠPh":7221,"å¤§æĬ¥åĳĬ":7222,"amin":7223,"å¾ħéģĩ":7224,"come":7225,"Ġver":7226,"è¢Ń":7227,"æ¶µçĽĸ":7228,"drom":7229,"Ġ<":7230,"ä¸»ç®¡éĥ¨éĹ¨":7231,"eric":7232,"éĢŁçİĩ":7233,"çļĦéĩįè¦ģæĢ§":7234,"èĥ°":7235,"ç¬¬ä¸īæĸ¹":7236,"æľŁåĪĬ":7237,"çłĶç©¶åĴĮ":7238,"Ġnegative":7239,"æľĢåĪĿ":7240,"æłª":7241,"å°±æĺ¯è¦ģ":7242,"Ġassociation":7243,"èµ°åĩº":7244,"fn":7245,"éĥ½åľ¨":7246,"åĲĪåĲĮçļĦ":7247,"Ġviv":7248,"èĤ¤":7249,"âĹ":7250,"ç¡®å®ŀ":7251,"åįıå®ļ":7252,"itor":7253,"ä½ľäºĨ":7254,"Ġlesion":7255,"Ġbone":7256,"Ġproduction":7257,"Ġdiabetes":7258,"otherap":7259,"åĲĮåŃ¦":7260,"æĽ´é«ĺçļĦ":7261,"ç¾İåĽ½çļĦ":7262,"åĪĽéĢłäºĨ":7263,"ä»ĬåĲİ":7264,"åĳ½é¢ĺ":7265,"ds":7266,"çº¿çļĦ":7267,"ĠRe":7268,"Ġfour":7269,"ML":7270,"ï¼Ĵ":7271,"æ®ĸæ°ĳ":7272,"amp":7273,"åįĩé«ĺ":7274,"è¡¨çİ°åĩº":7275,"ule":7276,"//":7277,"åĬŁèĥ½çļĦ":7278,"ç¬¬äºĮä¸ª":7279,"æĶ¿åįı":7280,"Ġpsych":7281,"éĺ¶æ®µçļĦ":7282,"å½±åĥı":7283,"ators":7284,"ä¸Ģçº§":7285,"åħ±æľī":7286,"æĸ¹å¼ıçļĦ":7287,"åĸ·":7288,"Ġrecom":7289,"Ġç¬¬ä¸Ģ":7290,"ĠCI":7291,"äºĴèģĶ":7292,"æļ´éľ²":7293,"åĲİç»Ń":7294,"è§£æŀĲ":7295,"NO":7296,"ĠmiR":7297,"å®ļéĩı":7298,"åĽ¾çīĩ":7299,"ä¼ģä¸ļåľ¨":7300,"è¢«åĬ¨":7301,"comes":7302,"ç¢ĳ":7303,"åĪ¶å¤ĩ":7304,"èĤºçĤİ":7305,"Ġepit":7306,"Ġyo":7307,"ç§ĳåŃ¦åıĳå±ķ":7308,"çī©åĵģ":7309,"çŃĶæ¡Ī":7310,"TO":7311,"Ġfail":7312,"åįļçī©":7313,"rial":7314,"å¯¹çħ§":7315,"Ġlo":7316,"åĻªå£°":7317,"ç¤¾ä¼ļä¸»ä¹īæł¸å¿ĥ":7318,"86":7319,"åįıåĬ©":7320,"text":7321,"ä¸įåºĶ":7322,"æĽ¾ç»ı":7323,"çķľ":7324,"åĪ·":7325,"ople":7326,"çŃīäºİ":7327,"å®£å¸ĥ":7328,"ä¸¾åĬŀ":7329,"æµĨ":7330,"âĸ":7331,"ï¼Ĥ.":7332,"èĪį":7333,"Ġcontrast":7334,"èĲ¥ä¸ļ":7335,"Ġblock":7336,"è·ĳ":7337,"ä»Ģä¹Īæĺ¯":7338,"çļĦçİ°è±¡":7339,"ä½ĵç³»å»ºè®¾":7340,"å¥ĭæĸĹçĽ®æłĩ":7341,"96":7342,"åħ¨éĿ¢å»ºè®¾":7343,"Ġstrong":7344,"äº«åıĹ":7345,"ç²ĴåŃĲ":7346,"Ġconsist":7347,"éĿ©åĳ½çļĦ":7348,"æ¨¡ç³Ĭ":7349,"Ġcount":7350,"Ġlikely":7351,"åĲĦæĸ¹éĿ¢":7352,"åī©ä½Ļ":7353,"èĢķåľ°":7354,"é¢Ħè®¡":7355,"ãĢĤ(":7356,"Ġantibody":7357,"æ²»åĽ½":7358,"Ġdeg":7359,"Ġques":7360,"epti":7361,"äº§ä¸ļç»ĵæŀĦ":7362,"çĶ¨éĢĶ":7363,"Ġ&":7364,"åĲ¦å®ļ":7365,"æ¢³çĲĨ":7366,"æłĩè¯Ĩ":7367,"åħ´èµ·":7368,"æķĻåŃ¦çļĦ":7369,"å°ºå¯¸":7370,"æĸ¥":7371,"Ġvivo":7372,"äº§éĺ¶çº§":7373,"äº©":7374,"åĬ©åĬĽ":7375,"ç§Ĵ":7376,"è´Łè´£äºº":7377,"éļĶç¦»":7378,"ĠPD":7379,"çĶµå½±":7380,"åħ¨åĽ½äººå¤§":7381,"ç§ģäºº":7382,"ĊĊ":7383,"ored":7384,"97":7385,"èĩ´åĬĽ":7386,"å¼Ł":7387,"åħļåı²":7388,"ç³»ç»ŁæĢ§":7389,"ters":7390,"çļĦéĩįè¦ģç»ĦæĪĲéĥ¨åĪĨ":7391,"æŀģç«¯":7392,"æµģåĬ¨æĢ§":7393,"Ĉą":7394,"éĿĴå°ĳå¹´":7395,"Ġanalyses":7396,"ä¼łæŁĵ":7397,"atively":7398,"æľĢéĩįè¦ģçļĦ":7399,"ume":7400,"æ¢ħ":7401,"è§Ħå®ļäºĨ":7402,"ĠII":7403,"Ġmetast":7404,"æĹ¢è¦ģ":7405,"ä¸´æĹ¶":7406,"cript":7407,"åĪĿå¿ĥ":7408,"çĲĨè®ºåĴĮ":7409,"Ġmutations":7410,"æĢģåĬ¿":7411,"Ġmit":7412,"è¿ĺåİŁ":7413,"å¯¹å¾ħ":7414,"$$":7415,"^âĪĴ":7416,"çĮª":7417,"çļĦä¸Ń":7418,"ä¼¤å®³":7419,"äºĭä¸ļåįķä½į":7420,"å§Ĩ":7421,"å¹²ç»Ĩèĥŀ":7422,"æĶ¾å¤§":7423,"ogenic":7424,"bility":7425,"é¦ĸè¦ģ":7426,"æľªèĥ½":7427,"åıĹä½ĵ":7428,"atin":7429,"åħħåĪĨåĪ©çĶ¨":7430,"çłĶç©¶èĢħ":7431,"Ġtypes":7432,"*~":7433,"äºīåıĸ":7434,"å®ĹæĹ¨":7435,"æĭ¨":7436,"ç°":7437,"agement":7438,"æĦıåĽ¾":7439,"èĢ¦":7440,"çıį":7441,"æĢ»ä¹ĭ":7442,"å¸¸å§Ķä¼ļ":7443,"å¸¸çĶ¨":7444,"å®¹åĻ¨":7445,"åıĳå±ķæĪĺçķ¥":7446,"çº²è¦ģ":7447,"right":7448,"åıĸåĲĳ":7449,"åıĤçħ§":7450,"å·²ç»ıæĪĲä¸º":7451,"åŃĶåŃĲ":7452,"æĪĺæĸĹ":7453,"ĠNo":7454,"å»ºæ¨¡":7455,"çīĪæľ¬":7456,"éĽķ":7457,"ç¼Ķ":7458,"è¿½ç©¶":7459,"éļıåĲİ":7460,"Ġarter":7461,"andom":7462,"çŃīé¢ĨåŁŁ":7463,"\\[":7464,"ä¼Ļä¼´":7465,"Ġ)":7466,"é«ĺç«¯":7467,"é£ŀæľº":7468,"å¹¶åıĳ":7469,"ç½ĳä¸Ĭ":7470,"éķ¿åº¦":7471,"é¤Ĳ":7472,"æĦıä¹īçļĦ":7473,"å¹´åºķ":7474,"åĲįä¹ī":7475,"Ġadj":7476,"å¸ľ":7477,"çĲĨè®ºä¸İ":7478,"åĪĨæ³Į":7479,"éķ¿è¿ľ":7480,"ä¸įä½Ĩ":7481,"ç»ıèĲ¥èĢħ":7482,"åı¯åĪĨä¸º":7483,"tically":7484,"*-":7485,"é£ŀè¡Į":7486,"mission":7487,"åħ¬è·¯":7488,"å¼Ģæĭĵ":7489,"åıĺè¿ģ":7490,"å¥łå®ļäºĨ":7491,"Ġvarious":7492,"åŃ¦è¯´":7493,"ä¸įä»ħä»ħ":7494,"å£°éŁ³":7495,"uration":7496,"Ġ25":7497,"Ġexposure":7498,"Ġassay":7499,"2004":7500,"æ±¡æŁĵçī©":7501,"cep":7502,"ä¹ĭä¸º":7503,"Ġä¸ŃåĽ½":7504,"06":7505,"çŃīäºº":7506,"çłĶç©¶ä¸Ńå¿ĥ":7507,"éģ£":7508,"Ġstatus":7509,"è¿ĩéĶĻ":7510,"æ°´åĪ©":7511,"æ´»è·ĥ":7512,"çĶŁäº§çļĦ":7513,"åĲĦæĹı":7514,"æĭľ":7515,"å°ĳæķ°æ°ĳæĹı":7516,"Ġpul":7517,"Ġpressure":7518,"çľģçº§":7519,"å¤®è¡Į":7520,"éĩıåĮĸ":7521,"æ£Ģå¯ŁéĻ¢":7522,"åıĹçĽĬ":7523,"åıĺåĮĸçļĦ":7524,"Ġx":7525,"éģĩåĪ°":7526,"æĬĢå·§":7527,"--------------------":7528,"åĮĸåĲĪçī©":7529,"===":7530,"äºĶä¸ª":7531,"DR":7532,"Ġtissues":7533,"\\<":7534,"Ġhep":7535,"å¹¶å¯¹":7536,"Ġcytok":7537,"æĺİç¡®äºĨ":7538,"é«ĺèģĮ":7539,"çļĦæĦıä¹ī":7540,"ä¿¡æģ¯ç³»ç»Ł":7541,"Ġflow":7542,"åħ¨ç¤¾ä¼ļ":7543,"å¯¹å¤ĸå¼ĢæĶ¾":7544,"è¥¿èĹı":7545,"éģĹåĿĢ":7546,"çī©ç§į":7547,"ĊĊĠ":7548,"Ġproced":7549,"çļĦåħī":7550,"ä¸»æĮģ":7551,"æĢķ":7552,"æĪĳä»¬åľ¨":7553,"è¯ļä¿¡":7554,"èĦ±ç¦»":7555,"Ġinclude":7556,"âĨ":7557,"æĳĺè¦ģ":7558,"åľ°éĿ¢":7559,"ç§»æ¤į":7560,"åįĵ":7561,"posed":7562,"Ġfocus":7563,"ç¬¬ä¸īäºº":7564,"å¥ĳçº¦":7565,"çļĦåľ°æĸ¹":7566,"ices":7567,"éĻĲäºİ":7568,"ä¸ŃåŃ¦":7569,"æĹ¶æķĪ":7570,"clusion":7571,"æľīåħ³éĥ¨éĹ¨":7572,"ray":7573,"err":7574,"å¯¿åĳ½":7575,"æľ¬ç½ĳ":7576,"very":7577,"å°ıè¯´":7578,"ä¸ªäººçļĦ":7579,"åıįå°Ħ":7580,"å°½éĩı":7581,"Ġresistance":7582,"æķ°æį®ä¸Ńå¿ĥ":7583,"æīŃ":7584,"å®¶éķ¿":7585,"EN":7586,"æľīåħ³çļĦ":7587,"ĠAc":7588,"ulations":7589,"Ġ--":7590,"è¡Įä¸ºäºº":7591,"çĤ¸":7592,"å¯ĨéĽĨ":7593,"put":7594,"ĠÃĹ":7595,"é»İ":7596,"ĠBi":7597,"HC":7598,"ĠCO":7599,"sp":7600,"åĪĿçº§":7601,"Ġstrain":7602,"çİ°æľīçļĦ":7603,"æĢ»é¢Ŀ":7604,"çļĦçĲĨè§£":7605,"åľ¨æĸ°":7606,"æĽ´å¤§çļĦ":7607,"åľ¨åĨħçļĦ":7608,"owled":7609,"åĢ¼çļĦ":7610,"åĮĢ":7611,"ç¼ºå°ĳ":7612,"å¹³æĸ¹":7613,"ä¸Ĭå¸Ĥåħ¬åı¸":7614,"åŁºåĩĨ":7615,"ç´«":7616,"åİŁæĸĻ":7617,"å¯¼ä½ĵ":7618,"åīįèĢħ":7619,"Ġglucose":7620,"å¦Ĥä»Ĭ":7621,"æĢ»æĺ¯":7622,"2003":7623,"åİĨåı²æĢ§":7624,"éĩįå»º":7625,"çī²":7626,"çļĦæľ¬è´¨":7627,"Ġinteg":7628,"å¢ŀå¤§":7629,"åĩłå¹´":7630,"åħ¶ä¸ŃçļĦ":7631,"åħ¸åŀĭçļĦ":7632,"åĪ©æģ¯":7633,"Ġdeveloped":7634,"åĳĬè¯ī":7635,"å®ŀä½ĵç»ıæµİ":7636,"å½¢çĬ¶":7637,"ended":7638,"è¦ģä»¶":7639,"åħ¨æ°ĳ":7640,"ä¹¦æ³ķ":7641,"çħ¤çĤŃ":7642,"çļĦä¸Ģéĥ¨åĪĨ":7643,"è´ŁéĿ¢":7644,"æĹ¶åĪ»":7645,"éĥ½åı¯ä»¥":7646,"çķĮéĿ¢":7647,"çĿĢçľ¼":7648,"åĽ°å¢ĥ":7649,"ç»ĺçĶ»":7650,"åĪĽæĸ°èĥ½åĬĽ":7651,"æĹ¶ç©º":7652,"Ġu":7653,"æĤ¬":7654,"ä¸Ĭæĺ¯":7655,"Ġhypothe":7656,"çºłæŃ£":7657,"åıĹçĲĨ":7658,"æµ¸":7659,"åľ¨å¯¹":7660,"RC":7661,"çļĦèĮĥåĽ´":7662,"æıĲåīį":7663,"Ġcause":7664,"è·µè¡Į":7665,"éĺĲéĩĬ":7666,"eutic":7667,"è¿«åĪĩ":7668,"åį°åıĳ":7669,"ably":7670,"åĳ¨è¾¹":7671,"MI":7672,"çĤİçĹĩ":7673,"ç´¯è®¡":7674,"å¿«éĢŁåıĳå±ķ":7675,"åīįåĲİ":7676,"çĶµè¯Ŀ":7677,"æľŁçļĦ":7678,"atures":7679,"åıĪæĺ¯":7680,"èħĬ":7681,"è¿ĺéľĢè¦ģ":7682,"è¦ģæĬĬ":7683,"çļĦæĢ§è´¨":7684,"å¤§çº¦":7685,"è¢«åĳĬäºº":7686,"Ġleast":7687,"ç¬¬ä¸ĢçĻ¾":7688,"èĲ½åľ°":7689,"Î³":7690,"ĠMore":7691,"zym":7692,"Ġtrain":7693,"Ġexperi":7694,"Ġoutcomes":7695,"çļĦçİ¯å¢ĥ":7696,"è¢«è®¤ä¸º":7697,"ä¸įå¹³è¡¡":7698,"æĺİäºĨ":7699,"èµ«":7700,"æ³ķå¾ĭçļĦ":7701,"å»¶éķ¿":7702,"ī¥":7703,"Ġpain":7704,"èĪĴ":7705,"åĩłç§į":7706,"Ġvery":7707,"åĪłéĻ¤":7708,"elet":7709,"çļĦåĪ©çĽĬ":7710,"åĬłåī§":7711,"åº¦åĴĮ":7712,"è¯ĪéªĹ":7713,"å·¥ä½ľäººåĳĺ":7714,"Ġthem":7715,"Ġpercent":7716,"Ġbel":7717,"äººçĶŁ":7718,"éĶĤ":7719,"tality":7720,"Ġinjury":7721,"èįīæ¡Ī":7722,"Ġlife":7723,"çĶŁç´ł":7724,"ç¨ĭåº¦çļĦ":7725,"Ġnetwork":7726,"èĳ¡":7727,"ä¸Ĭæ¶¨":7728,"Ġantibodies":7729,"ĠOn":7730,"æ¬£":7731,"TA":7732,"Ġcri":7733,"Ġstate":7734,"ä¸įä»ħæĺ¯":7735,"åĪ°åºķ":7736,"è®¾å¤ĩçļĦ":7737,"æľºçĲĨ":7738,"Ġvia":7739,"Ġtechni":7740,"Ġratio":7741,"vant":7742,"åĽŀé¡¾":7743,"äº§èĥ½":7744,"dependent":7745,"åĺī":7746,"oy":7747,"æ·±åĮĸæĶ¹éĿ©":7748,"ç»ĵæŀĦåĴĮ":7749,"plications":7750,"ä¸įåŃĺåľ¨":7751,"unction":7752,"è´¯å½»èĲ½å®ŀ":7753,"åĨľæĪ·":7754,"åİĭç¼©":7755,"åµĮåħ¥":7756,"æĸ°å¢ŀ":7757,"è´Łè½½":7758,"åĪĨæĶ¯":7759,"å£³":7760,"ä¼ĺæĥł":7761,"æĸ¹æ³ķåĴĮ":7762,"çªĦ":7763,"æĺİç¡®çļĦ":7764,"Ġproble":7765,"çłĶç©¶æĪĲæŀľ":7766,"æİ¨çĲĨ":7767,"çļĦä¸Ģé¡¹":7768,"åıĸæ¶Ī":7769,"tosis":7770,"Ġrange":7771,"åħ¨éĿ¢æİ¨è¿Ľ":7772,"èĩ´åĬĽäºİ":7773,"éĩĳèŀįåį±æľº":7774,"Ġvitro":7775,"äº§ä¸ļçļĦ":7776,"åĩ¯":7777,"07":7778,"ogene":7779,"èŀº":7780,"åĪĽæĸ°çļĦ":7781,"ç¤¾ä¼ļä¸»ä¹īå¸Ĥåľºç»ıæµİ":7782,"ãĢĭãĢĤ":7783,"äººæķ°":7784,"åĽĽå·Ŀ":7785,"ï¼ħ":7786,"Ġindicated":7787,"ç½ĳç»ľçļĦ":7788,"çĦĬ":7789,"ç»ĦæĪĲçļĦ":7790,"Ġgeneral":7791,"ĠSci":7792,"æ»ĭ":7793,"Ġadminist":7794,"å½°æĺ¾":7795,"ta":7796,"Ġbehavior":7797,"å¹¿å·ŀ":7798,"æīĢæľīåĪ¶":7799,"æº¶æ¶²":7800,"æ·±è¿ľ":7801,"ength":7802,"çĵ·":7803,"æĹ¶éĹ´çļĦ":7804,"å®īåħ¨çļĦ":7805,"ä½ĵåĨħ":7806,"Ġday":7807,"å¾Īå°ĳ":7808,"åĬ³åĬ¡":7809,"å³»":7810,"èĦ±è´«æĶ»åĿļ":7811,"ison":7812,"æĢ»ç»Ł":7813,"ä¸ĭéĿ¢":7814,"å®ŀéĻħæĥħåĨµ":7815,"æŃ¤ç±»":7816,"èģĮæĿĥ":7817,"æĬĽ":7818,"è¦ģæ±ĤçļĦ":7819,"å¤ļåħĥåĮĸ":7820,"æĶ¶è´Ń":7821,"æķĳæµİ":7822,"Ġestab":7823,"Ġarea":7824,"æİ¨åĩº":7825,"è¾ĥå°ĳ":7826,"ä»£æĽ¿":7827,"ç¼ºå¤±":7828,"éĿĻèĦī":7829,"Ĉć":7830,"æĬļ":7831,"éĵ¾æİ¥":7832,"roc":7833,"åįķä¸ª":7834,"å¹¿æ³ĽçļĦ":7835,"94":7836,"Ġbenef":7837,"SCs":7838,"èģĶåĬ¨":7839,"ä¸ĵçĶ¨":7840,"æ»´":7841,"åĪ°è¾¾":7842,"æ¶Īå¤±":7843,"Ġacross":7844,"æĪĲçļĦ":7845,"å·¥ä½ľèĢħ":7846,"æĿł":7847,"æĹ±":7848,"åľ¨åħ¨åĽ½":7849,"Ġ95":7850,"å¢ŀéķ¿çļĦ":7851,"SM":7852,"ä¸Ģæµģ":7853,"pone":7854,"ĠResearch":7855,"Ġsyndrom":7856,"æ²»çĲĨèĥ½åĬĽ":7857,"è®ºåĿĽ":7858,"é¸Ł":7859,"æĿ¥å®ŀçİ°":7860,"Ġorder":7861,"çĽ¸ä¿¡":7862,"çĹħçĲĨ":7863,"æķĻåŃ¦åĨħå®¹":7864,"ç¼©å°ı":7865,"éĺ¶å±Ĥ":7866,"aps":7867,"éĺ»ç¢į":7868,"Ġsevere":7869,"åŀĴ":7870,"\";":7871,"åºŀ":7872,"Ġrequired":7873,"Ġplasma":7874,"Ġmuscle":7875,"éĶĲ":7876,"Ġproliferation":7877,"âĳ£":7878,"åıĮéĩį":7879,"Ġequ":7880,"87":7881,"æľīä¸Ģ":7882,"åĴĮç»ıæµİ":7883,"çºªå¿µ":7884,"Ġhowever":7885,"opath":7886,"TR":7887,"æīİå®ŀ":7888,"åĲĮæ¯Ķ":7889,"ography":7890,"93":7891,"ç»ĵç®Ĺ":7892,"è¯ŀçĶŁ":7893,"çļĦåŃ¦çĶŁ":7894,"å¤©æ´¥":7895,"Ġmembrane":7896,"è¿Ļæ¬¡":7897,"è¡¨çİ°åľ¨":7898,"çĽ¸å½ĵäºİ":7899,"æ®ĭçĸ¾":7900,")**":7901,"ä¸Ńä»ĭ":7902,"è·¨è¶Ĭ":7903,"Ġinflammatory":7904,"ä¸Ĭçľĭ":7905,"Ġproduc":7906,"æĻºåĬĽ":7907,"ç¬¬äºĮæ¬¡":7908,"åĨĴ":7909,"å¹¿éĺĶ":7910,"Ġacute":7911,"æķ°åŃĹåĮĸè½¬åŀĭ":7912,"Ġfamily":7913,"ĠCon":7914,"å¤ĸèµĦ":7915,"tice":7916,"æķĪèĥ½":7917,"è¿Ļä¸¤ä¸ª":7918,"ãĢĭï¼Ī":7919,"è¿ª":7920,"èİ±":7921,"ç«łç¨ĭ":7922,"å®¶çļĦ":7923,"ç¦»ä¸įå¼Ģ":7924,"æľŁè´§":7925,"èĻļåģĩ":7926,"æ±¡æ°´":7927,"struc":7928,"åĩ¸æĺ¾":7929,"Ġcriter":7930,"Ġlines":7931,"ä¸Ļ":7932,"ĠIg":7933,"åįļçī©é¦Ĩ":7934,"ç¼Ŀ":7935,"man":7936,"é«ĺåº¦éĩįè§Ĩ":7937,"Ġbacter":7938,"çļĦå®ŀè·µ":7939,"Ġlink":7940,"Ġquality":7941,"Ġregions":7942,"èİ·å¾ĹäºĨ":7943,"è£ģå®ļ":7944,"é¡¾å®¢":7945,"åħ¨éĿ¢åıĳå±ķ":7946,"è°ĥåº¦":7947,"aneous":7948,"more":7949,"]),":7950,"like":7951,"åıĳèµ·":7952,"å¯º":7953,"...":7954,"Ġhelp":7955,"Ġformation":7956,"æľĢå°ı":7957,"æĹłäº§éĺ¶çº§":7958,"æĹ¥æĬ¥":7959,"åŃĿ":7960,"å°ĺ":7961,"ä½ľé£İ":7962,"åľ¨ä¸įåĲĮ":7963,"å»¶ç»Ń":7964,"Ġmen":7965,"Ġcellular":7966,"çĶ³æĬ¥":7967,"ä¸įéľĢè¦ģ":7968,"åı¯åĨįçĶŁ":7969,"å¤ªéĺ³èĥ½":7970,"ç»ĨåĮĸ":7971,"]--":7972,"åĩºäºİ":7973,"åįģåĽĽäºĶ":7974,"ä¸įåĲĮäºİ":7975,"Ġpa":7976,"çĽĹ":7977,"enter":7978,"Ġrandom":7979,"æľ¬æ¡Ī":7980,"]--[@":7981,"çĻ¾åĪĨçĤ¹":7982,"çĴĥ":7983,"åıĺå¼Ĥ":7984,"æĦıæĦ¿":7985,"éľ¸":7986,"Ġprior":7987,"å½¼æŃ¤":7988,"Ġscore":7989,"Ġeven":7990,"æ¼ĶåĮĸ":7991,"æ³¨åħ¥":7992,"ç®Ń":7993,"ç®¡æİ§":7994,"è¿Ļä¹Łæĺ¯":7995,"çļĦè¯Ŀ":7996,"Ġang":7997,"ç¢°":7998,"ances":7999,"ä¹¡éķĩ":8000,"Ġsurface":8001,"éľį":8002,"åıĺæį¢":8003,"Ġenc":8004,"ä¼ģä¸ļåĴĮ":8005,"è½¬å½ķ":8006,"åĪĨéĴŁ":8007,"åĪĨåĪ«ä¸º":8008,"æ¯ķä¸ļçĶŁ":8009,"éĻĦåĬł":8010,"æĲľç´¢":8011,"Ġhealthy":8012,"å½ĵä¸Ń":8013,"otherapy":8014,"èµ¶":8015,"éŁµ":8016,"çļĦåŃĺåľ¨":8017,"Ġoften":8018,"æĤ²":8019,"ç²¹":8020,"å¦Ļ":8021,"èĥ½èĢĹ":8022,"ognitive":8023,"Ġpeople":8024,"åĽłæŀľ":8025,"ç¤¾ä¼ļæ²»çĲĨ":8026,"çļĦå»ºè®¾":8027,"æļ´åĬĽ":8028,"2001":8029,"AA":8030,"å®ŀäºĭ":8031,"ä¹īåĬ¡æķĻèĤ²":8032,"Ġpublic":8033,"Ġmortality":8034,"å°½å¿«":8035,"çļĦåĲĦç§į":8036,"ession":8037,"ç±»åĪ«":8038,"ä¸ºæł¸å¿ĥçļĦåħļä¸Ńå¤®":8039,"åĪĹå®ģ":8040,"çº§åĪ«":8041,"ler":8042,"çļĦè§ĤçĤ¹":8043,"å¢ĥçķĮ":8044,"çłĶè®¨":8045,"Ġpo":8046,"èĤ¢":8047,"åľ¨åħ¨çĲĥ":8048,"åĮħå®¹":8049,"æ²³åįĹ":8050,"ä½ĵç§¯":8051,"æī¿è½½":8052,"åĳĪçİ°åĩº":8053,"åįģä¸Ģ":8054,"å®ŀåĬ¡":8055,"Ġreport":8056,"trans":8057,"çĽ¸éĢĤåºĶ":8058,"æĶ¾å°Ħ":8059,"ours":8060,"æĹĹå¸ľ":8061,"æ³ķå¾ĭè§Ħå®ļ":8062,"Ġæľ¬":8063,"Ġä¸Ń":8064,"åĿĲæłĩ":8065,"åħīè°±":8066,"Ġaim":8067,"åı¯è¡Į":8068,"æĻ¯è§Ĥ":8069,"åħ¬åħĥ":8070,"åıĪæľī":8071,"ä¿Ŀå¯Ĩ":8072,"éľĢæ±ĤçļĦ":8073,"Ġrevealed":8074,"rogen":8075,"ä½ľåĩºäºĨ":8076,"å¼Ģè®¾":8077,"çĶµæ°Ķ":8078,"ç±»çļĦ":8079,"Ġç¬¬ä¸ī":8080,"ç¾İä¸½":8081,"xim":8082,"æľŁæľĽ":8083,"è¥¿åĮĹ":8084,"ä»¥ä¹łè¿ĳå¹³åĲĮå¿Ĺ":8085,"å±Ī":8086,"åīª":8087,"ç«Ļåľ¨":8088,"owledge":8089,"ä»»æĦı":8090,"Ġpathways":8091,"ä¸¾è¯ģ":8092,"ç®¡åĪ¶":8093,"çŃīåĽłç´ł":8094,"èĤª":8095,"çĿ¡":8096,"å°Ĩåľ¨":8097,"èĥļ":8098,"iat":8099,"çĽ´è§Ĥ":8100,"èī¾":8101,"idem":8102,"Ġprovided":8103,"ĠThere":8104,"å¯¹è±¡çļĦ":8105,"åįĹåĮĹ":8106,"ä¸Ģä¸ĭ":8107,"åıĺå½¢":8108,"CG":8109,"ä»ĭç»įäºĨ":8110,"Ġbar":8111,"Ġill":8112,"inant":8113,"å·¥ä¸ļäºĴèģĶç½ĳ":8114,"ä¹¦åĨĻ":8115,"MT":8116,"ä¸Ńåįİä¼ĺç§Ģ":8117,"Ġdam":8118,"è§£åĨ³äºĨ":8119,"ç¥ŀç»ıåħĥ":8120,"èĦĤèĤª":8121,"92":8122,"è¿Ľç¨ĭä¸Ń":8123,"è¿ĩäºİ":8124,"å¤ļåªĴä½ĵ":8125,"æĮĩåĲĳ":8126,"éĺ²å¾¡":8127,"imals":8128,"Ġconcentr":8129,"âĢĿï¼Ī":8130,"Ġ17":8131,"å®ŀè¯ģ":8132,"çļ®èĤ¤":8133,"æĪĺçķ¥æĢ§":8134,"æĸ¯åĿ¦":8135,"urn":8136,"æĺ¯ä¸ºäºĨ":8137,"ĠThus":8138,"æĲ¬":8139,":ãĢĬ":8140,"kg":8141,"ä¾¯":8142,"Ġcarcin":8143,"é¢ĨåħĪ":8144,"ower":8145,"ä¼ĺèī¯":8146,"çļĦç©ºéĹ´":8147,"æĬĹåİŁ":8148,"è´¤":8149,"Ġstage":8150,"ï¼Ľï¼Ī":8151,"è¯ĹæŃĮ":8152,"HD":8153,"RE":8154,"æłĩçŃ¾":8155,"æĲŃå»º":8156,"å®¾":8157,"ç¥ĸåĽ½":8158,"å»ºç«ĭåľ¨":8159,"plant":8160,"itation":8161,"Ġol":8162,"åŃ¦æ´¾":8163,"é«ĺæ°´å¹³":8164,"ä»¥ä¸ĭç®Ģç§°":8165,"aw":8166,"æĹłéĻĲ":8167,"äºĮæ¬¡":8168,"ä¸Ńå°ıåŃ¦":8169,"Ġfrequency":8170,"Ġadditional":8171,"äººä»¬çļĦ":8172,"å¸ĮèħĬ":8173,"ä¸Ģè½®":8174,"ç¿¼":8175,"normal":8176,"ocol":8177,"utes":8178,"å®ļä»·":8179,"åħ·æľīéĩįè¦ģ":8180,"ĠãĢĬ":8181,"84":8182,"é¼»":8183,"åİ¿çº§":8184,"çļĩå¸Ŀ":8185,"åĽ½åľŁ":8186,"ç®ĢåĮĸ":8187,"æ¶ĪçģŃ":8188,"Ġcharacteristics":8189,"As":8190,"ä½¿çĶ¨æĿĥ":8191,"ä»¥ä¸º":8192,"èĢģå¹´":8193,"ä¸ªçĻ¾åĪĨçĤ¹":8194,"æ°´èµĦæºĲ":8195,"Ġpresented":8196,"æĸĩåĮĸéģĹäº§":8197,"ij":8198,"éģŃåıĹ":8199,"isc":8200,"æµªè´¹":8201,"åĬ²":8202,"æ¼ł":8203,"å·¥ç¨ĭå¸Ī":8204,"des":8205,"Ġdisorders":8206,"Ġeffective":8207,"æ¸Ķ":8208,"Ġdose":8209,"ä»¥å¤ĸ":8210,"é£İéĻ©çļĦ":8211,"çŁ©éĺµ":8212,"PI":8213,"åĬ¿åĬĽ":8214,"æĪªèĩ³":8215,"ÂłÂł":8216,"å®ĥä»¬çļĦ":8217,"è¾ĥå¤ļ":8218,"æĸ°ä¸ŃåĽ½æĪĲç«ĭ":8219,"æŀģä¸º":8220,"éŁ§":8221,"è·¨åĽ½":8222,"åĬ¨åĳĺ":8223,"å¤§æī¹":8224,"AN":8225,"å°ģéĹŃ":8226,"Ġimages":8227,"Ġdefined":8228,"çĽ¸å¯¹äºİ":8229,"æīĵåį°":8230,"é¢ľèī²":8231,"èµ·æºĲ":8232,"çİ»çĴĥ":8233,"éĵº":8234,"åĭĺ":8235,"ç®Ģä»ĭ":8236,"åı¸æ³ķè§£éĩĬ":8237,"ç»ıåİĨäºĨ":8238,"çĶµè§£":8239,"Ġinflammation":8240,"æķ°åĢ¼":8241,"Ġimpact":8242,"æĻ¶ä½ĵ":8243,"åĪĽæĸ°åĪĽä¸ļ":8244,"âĶ":8245,"ĠÂ·":8246,"åĽŀåºĶ":8247,"actions":8248,"åħ¶åľ¨":8249,"æīįæĺ¯":8250,"åħīåŃ¦":8251,"æĦ¿æĦı":8252,"åħļçļĦå»ºè®¾":8253,"Ġdat":8254,"æ°¸è¿ľ":8255,"åı¦ä¸Ģç§į":8256,"æ¨¡åŀĭçļĦ":8257,"ä½ĨçĶ±äºİ":8258,"éĥ½èĥ½":8259,"Ġability":8260,"æĿłæĿĨ":8261,"Ġprogression":8262,"åĸ»":8263,"è¿ĽåĮĸ":8264,"æ£Ģç´¢":8265,"aking":8266,"æ¸ħç®Ĺ":8267,"è¿Ń":8268,"æ¿Ģç´ł":8269,"æīĢæľª":8270,"%;":8271,"Ġrates":8272,"ç»Īèº«":8273,"æ©":8274,"åĪ¶å®ļçļĦ":8275,"ç»Ħç»ĩåĴĮ":8276,"Ġassessed":8277,"çļĦè´£ä»»":8278,"Ġcorrelation":8279,"çħĮ":8280,"å¹¶éĢļè¿ĩ":8281,"åĨ³å®ļçļĦ":8282,"ä¸ŃæľŁ":8283,"èģļéĽĨ":8284,"æħĪ":8285,"è§£åĨ³éĹ®é¢ĺ":8286,"æĵ¦":8287,"å®ŀæĸ½çļĦ":8288,"æĦıä¹īä¸ĬçļĦ":8289,"æĮģä¹ħ":8290,"éĻµ":8291,"éĥŃ":8292,"éĩįåºĨ":8293,"éļĻ":8294,"get":8295,"plied":8296,"å¹´è½»":8297,"è±Ĩ":8298,"çľŁæŃ£çļĦ":8299,"è¡Įä¸ļçļĦ":8300,"æ¿ĢçĥĪ":8301,"press":8302,"ç¥Ń":8303,"åīĤéĩı":8304,"Ġpreval":8305,"æĮģæľī":8306,"èĢ¦åĲĪ":8307,"2002":8308,"ochem":8309,"eta":8310,"åıĳçĶŁåľ¨":8311,"Ġphase":8312,"ĠInstit":8313,"å¢ŀå¤ļ":8314,"Ġvalid":8315,"Ġz":8316,"æĪĸèĢħåħ¶ä»ĸ":8317,"ä½ľçĶ¨çļĦ":8318,"æĪĸåħ¶ä»ĸ":8319,"######":8320,"åĲ¯åıĳ":8321,"ä¸ŃæĸŃ":8322,"ä¹ĭä¸Ĭ":8323,"ä¾Ľç»Ļä¾§":8324,"åħĳ":8325,"åĳ¨å¹´":8326,"æĵįä½ľç³»ç»Ł":8327,"è´Łèį·":8328,"Ġcoh":8329,"ä¾Ŀèµĸäºİ":8330,"roscop":8331,"ĠĠĠĠĠĠĠĠĠĠĠĠĠĠĠĠĠĠĠĠĠĠĠĠĠĠĠĠĠĠĠĠĠĠĠĠĠĠĠĠĠĠĠĠĠĠĠĠ":8332,"çİĩçļĦ":8333,"æ¤İ":8334,"éĢĢåĩº":8335,"ä»½é¢Ŀ":8336,"Ġinhibition":8337,"gl":8338,"çĶŁèĤ²":8339,"æķĻèĤ²æķĻåŃ¦":8340,"Ġconcentration":8341,"Co":8342,"èĲĦ":8343,"è´¨çļĦ":8344,"æĸĩä¹¦":8345,"æľīåĬĽçļĦ":8346,"åħ±äº§ä¸»ä¹ī":8347,"æı´åĬ©":8348,".](":8349,"çļĦä¸»ä½ĵ":8350,"å¾·èĤ²":8351,"æĭĺ":8352,"ä¾¿äºİ":8353,"åĪĽæĦı":8354,"çľĭæ³ķ":8355,"ĠCell":8356,"cence":8357,"è¦ģåĿļæĮģ":8358,"åįµ":8359,"æĹłå½¢":8360,"rid":8361,"Ġleft":8362,"éĻ·åħ¥":8363,"å½±åĵįçļĦ":8364,"bi":8365,"Ġapoptosis":8366,"çľł":8367,"ĠãĢģ":8368,"ç§ģæľī":8369,"çĽĳæĬ¤":8370,"æŃ¥ä¼Ĳ":8371,"Ġwhereas":8372,"åľ°çĤ¹":8373,"Ġfem":8374,"ĠAlthough":8375,"Ġgreater":8376,"Ġincub":8377,"åĲĲ":8378,"Ġepithe":8379,"è´¨éĩıåĴĮ":8380,"æł¹æľ¬ä¸Ĭ":8381,"æĺ¯åĽłä¸º":8382,"æıŃç¤ºäºĨ":8383,"ateral":8384,"FN":8385,"æĹģ":8386,"æ¼ıæ´ŀ":8387,"To":8388,"ç¾Ĭ":8389,"ontrol":8390,"RO":8391,"äº§åĩº":8392,"83":8393,"å£®å¤§":8394,"åĳ½è¿Ĳåħ±åĲĮä½ĵ":8395,"æłĵ":8396,"Ad":8397,"ling":8398,"å¤§èĩ´":8399,"åĭŁ":8400,"Ġlarg":8401,"åĴĮåºĶçĶ¨":8402,"åĮĸå·¥":8403,"ç¾İåŃ¦":8404,"Ġscreen":8405,"ä¹ĭæĹ¥èµ·":8406,"Ġgiven":8407,"çŃĽéĢī":8408,"èĳ¡èĲĦ":8409,"è¿Ľè¡ĮåĪĨæŀĲ":8410,"æľĭ":8411,"åģļäºĨ":8412,"ç¼ºçĤ¹":8413,"æķ°æį®å®īåħ¨":8414,"åĪĿä¸Ń":8415,"èµĦåĬ©":8416,"Ġdetect":8417,"itis":8418,"ä¸»è¦ģçļĦ":8419,"pri":8420,"82":8421,"ĠInt":8422,"Ġrelative":8423,"çŃīå¤ļ":8424,"èĩªçĦ¶ç§ĳåŃ¦":8425,"æĬ¥è¡¨":8426,"æ°¯":8427,"å¥ĸåĬ±":8428,"GFR":8429,"ä¸ĵä¸ļåĮĸ":8430,"Ġweight":8431,"éĴĪå¯¹æĢ§":8432,"å»ºéĢł":8433,"éĿŀæ´²":8434,"éĿĻæĢģ":8435,"å¿ĹæĦ¿":8436,"ç»Ħå»º":8437,"æİ¥åħ¥":8438,"å°ıäºİ":8439,"Ġtherapeutic":8440,"å¸Ĥæ°ĳ":8441,"æłı":8442,"å·¥ä¼ļ":8443,"çº¦å®ļçļĦ":8444,"Ġweeks":8445,"ç¬¬åħ«":8446,"åĪĽè®¾":8447,"æĶ¶åĪ°":8448,"åĴĮæĸĩåĮĸ":8449,"Pro":8450,"Ġfollowed":8451,"è¡ĮæĶ¿ç®¡çĲĨ":8452,"çīº":8453,"å¹ħåº¦":8454,"èĩªæ²»åĮº":8455,"è±ª":8456,"äº§ä¸ļåĮĸ":8457,"ç»ıæµİä½ĵ":8458,"çİĭæľĿ":8459,"åıĸå¾ĹçļĦ":8460,"èħ¾":8461,"mic":8462,"å§¿":8463,"Ġkey":8464,"æ»¥çĶ¨":8465,"çĶ¨æ°´":8466,")-":8467,"ä¼ļå¯¼èĩ´":8468,"ern":8469,"å®¡è®®":8470,"åľ¨æŃ¤åŁºç¡Ģä¸Ĭ":8471,"ä¸¢":8472,"å¼Ĺ":8473,"éĢļè´§":8474,"æĢ§éĹ®é¢ĺ":8475,"èĮĥå¼ı":8476,"Ġsensitivity":8477,"æķ¦":8478,"å¹´éĹ´":8479,"åįĪ":8480,"ochond":8481,"ä½ľä¸ºä¸Ģä¸ª":8482,"ä¸¥å³»":8483,"æ¼Ķè¿Ľ":8484,"ä¸ªæĢ§åĮĸ":8485,"Ġhospital":8486,"çĩĥçĥ§":8487,"åİĺ":8488,"ä¸įç¬¦åĲĪ":8489,"åŀĤçĽ´":8490,"åĳĬçŁ¥":8491,"éĩįæŀĦ":8492,"çļĦæĢ»":8493,"è·¨å¢ĥ":8494,"èĩªæĦ¿":8495,"å»ºç«ĭèµ·":8496,"pp":8497,"LS":8498,"åı¯åĨįçĶŁèĥ½æºĲ":8499,"åĩºè¡Ģ":8500,"ĠOur":8501,"Ġder":8502,"ä¹ĭå¤§":8503,"åĴĮæĸ°":8504,"è½¬åŀĭåįĩçº§":8505,"HO":8506,"çĶµæŀģ":8507,"æīĵå¼Ģ":8508,"èµĦäº§çļĦ":8509,"çī¹å¼ĤæĢ§":8510,"çİĩåħĪ":8511,"ĠâĢľ":8512,"å©´":8513,"supplementary":8514,"æĿ¥æºĲäºİ":8515,"åŁºæľ¬çļĦ":8516,"Î¼":8517,"GG":8518,"åį¢":8519,"91":8520,"åľ¨è¿Ļä¸Ģ":8521,"ä¸Ĭçº§":8522,"åŃ¦çĶŁçļĦåŃ¦ä¹ł":8523,"çļĦæĤ£èĢħ":8524,"ä¹Łå°Ĩ":8525,"ĠTherefore":8526,"ancer":8527,"çīºçī²":8528,"ä¸ĸçķĮç»ıæµİ":8529,"æĬĹæĪĺ":8530,"icine":8531,"material":8532,"Ġlack":8533,"omp":8534,"ç½Ĺé©¬":8535,"äºĴè¡¥":8536,"äººä¸İèĩªçĦ¶":8537,"å¯¹çŃĸ":8538,"çĭ¬çī¹çļĦ":8539,"é«ĺè¾¾":8540,"Ġdifferentiation":8541,"å¹¿ä¹ī":8542,"ava":8543,"ture":8544,"è¡ĮæĶ¿æ³ķè§Ħ":8545,"æ±Ĥæĺ¯":8546,"Ġvacc":8547,"CF":8548,"æľīçĽĬ":8549,"å¤©çĦ¶æ°Ķ":8550,"eff":8551,"Ġexamined":8552,"æĳĨèĦ±":8553,"PV":8554,"çļĦä¸»":8555,"Ġindicate":8556,"é¢ĩ":8557,"çªĥ":8558,"éĩįçļĦ":8559,"Ġbetter":8560,"æ¹¿åľ°":8561,"81":8562,"Ex":8563,"Ġincreasing":8564,"Ġcardiac":8565,"æ²Ī":8566,"èĤłéģĵ":8567,"ä¸ľåįĹ":8568,"æ¹ĸåįĹ":8569,"Ġaffect":8570,"Ġaccur":8571,"Ġ\\>":8572,"Ġrecent":8573,"tt":8574,"èĩªçĦ¶èµĦæºĲ":8575,"åħ¬åĬ¡":8576,"Ġconducted":8577,"Ġ40":8578,"ï¼į":8579,"æĹłåħ³":8580,"Ġassessment":8581,"æĺĨ":8582,"é«ĺæ¸©":8583,"Ġproper":8584,"å¼¥è¡¥":8585,"Ġdetection":8586,"éĶ»çĤ¼":8587,"mi":8588,"è½¬åıĺä¸º":8589,"çļĦæķĪæŀľ":8590,"åĲ¸éĻĦ":8591,"èĿ":8592,"ä¸ŃåĽ½å¼ıçİ°ä»£åĮĸ":8593,"æ±īè¯Ń":8594,"èĤ©":8595,"Ġprogram":8596,"åįłæį®":8597,"ç¤¾ä¼ļä¸»ä¹īæł¸å¿ĥä»·åĢ¼è§Ĥ":8598,"åīįæľŁ":8599,"è·Į":8600,"çİĩä¸º":8601,"Ġparameters":8602,"Ġsocial":8603,"ä»¥ä¹łè¿ĳå¹³åĲĮå¿Ĺä¸ºæł¸å¿ĥçļĦåħļä¸Ńå¤®":8604,"åĴĮåĪĽæĸ°":8605,"è¿ĺæ²¡æľī":8606,"Ġenvironment":8607,"æľŁå¾ħ":8608,"Ġprevent":8609,"åĬ¨èĥ½":8610,"èĸĦå¼±":8611,"éĽĨèģļ":8612,"kn":8613,"è¿ĲåĬ¨çļĦ":8614,"åħ»æ®ĸ":8615,"å¼Ĥè®®":8616,"çļĦå°ı":8617,"çªģåıĳ":8618,"æĶ¹åıĺäºĨ":8619,"éĢļèĥĢ":8620,"Ġax":8621,"æĭ¼":8622,"é¡¶å±Ĥ":8623,"åĶ¯çī©ä¸»ä¹ī":8624,"ç¦»å©ļ":8625,"ixed":8626,"æł¼æĸ¯":8627,"èį§":8628,"Ġsuc":8629,"äºĮæ°§åĮĸç¢³":8630,"è®¾è®¡åĴĮ":8631,"è£ģåĨ³":8632,"Ġself":8633,"Ġsyndrome":8634,"ĠÎ²":8635,"å¯¹åŃ¦çĶŁ":8636,"Ġte":8637,"æľ¬åľŁ":8638,"é¥²":8639,"ä¹¦ä¸Ń":8640,"Ġact":8641,"rence":8642,"PT":8643,"Ġcriteria":8644,"ä¹Łä¸º":8645,"æĺ¯å®ŀçİ°":8646,"æľīå¿ħè¦ģ":8647,"ĠSc":8648,"è®²è§£":8649,"ç»ĨèĬĤ":8650,"ä»İä¸Ń":8651,"èĶ½":8652,"åĽ¾ä¹¦é¦Ĩ":8653,"éĻįä½İäºĨ":8654,"åĬ¨åĬĽåŃ¦":8655,"åħ¬åĽŃ":8656,"int":8657,"æĩĪ":8658,"å¯¼èĩ´çļĦ":8659,"æĹ¶éĹ´åĨħ":8660,"Ġreduction":8661,"åľ¨ç»ıæµİ":8662,"å¸¸çĶ¨çļĦ":8663,"é£Łåĵģå®īåħ¨":8664,"å¢ŀåĢ¼ç¨İ":8665,"ressive":8666,"ense":8667,"ä¸İä¹ĭ":8668,"omes":8669,"éĿ¢ä¸´çĿĢ":8670,"çļĦéĢīæĭ©":8671,"hers":8672,"ible":8673,"å¹¿æĴŃ":8674,"ç§°ä¹ĭä¸º":8675,"ocyte":8676,"ereb":8677,"Ġdistribution":8678,"åħīä¼ı":8679,"EE":8680,"çĶŁåĳ½åĳ¨æľŁ":8681,"ç¡ķå£«":8682,"ä½¿ä¹ĭ":8683,"ä¸ŃçļĦåºĶçĶ¨":8684,"utions":8685,"æłĩå¿ĹçĿĢ":8686,"ystem":8687,"æ¬¢è¿İ":8688,"äººå¿ĥ":8689,"åŃ¦çķĮ":8690,"iciency":8691,"æľºåĬ¨":8692,"åŁºæľ¬ä¸Ĭ":8693,"å¾Īå¿«":8694,"Ġsystems":8695,"çĮĽ":8696,"ãĢĤ[":8697,"æī¶æĮģ":8698,"çİ©":8699,"åĪĨæŀĲäºĨ":8700,"ĠStud":8701,"çļĦç½ĳç»ľ":8702,"çĹħä¾ĭ":8703,"äºŁ":8704,"æıĲåĢ¡":8705,"ĠWh":8706,"ä¸Ģå¥Ĺ":8707,"Ġgo":8708,"ä¹Łæ²¡æľī":8709,"olution":8710,"Ġinteraction":8711,"é¡ºåºĶ":8712,"*.":8713,"æķĳåĬ©":8714,"çŃīå¤ļç§į":8715,"olar":8716,"way":8717,"æµģè½¬":8718,"hold":8719,"åĩĨåħ¥":8720,"é¥®é£Ł":8721,"å¹»":8722,"æĪĸæĺ¯":8723,"åħ¨éĿ¢å»ºæĪĲå°ıåº·ç¤¾ä¼ļ":8724,"ĠFurthermore":8725,"uture":8726,"ĠUSA":8727,"Ġoutcome":8728,"æįŁå®³èµĶåģ¿":8729,"åŀĭçļĦ":8730,"çłĶç©¶è¡¨æĺİ":8731,"åĲįä¸º":8732,"ç»¼åĲĪæĢ§":8733,"æĺĤ":8734,"Ġtub":8735,"å®ŀçİ°çļĦ":8736,"é©¬åħĭæĢĿä¸»ä¹īä¸ŃåĽ½":8737,"ially":8738,"antit":8739,"çĤī":8740,"çļĦæĮĩå¯¼":8741,"åĪ¶åº¦æĶ¹éĿ©":8742,"æľ¯è¯Ń":8743,"CN":8744,"ç«ĭä½ĵ":8745,"çĲĨè®ºä¸Ĭ":8746,"Ġfield":8747,"ä¸ºäººæ°ĳ":8748,"åı²ä¸Ĭ":8749,"lying":8750,"æºĲå¤´":8751,"Ġcorrespon":8752,"æŀĿ":8753,"æĵİ":8754,"Ġregulation":8755,"Ġprogn":8756,"æĶ¶ç¼©":8757,"Ġnovel":8758,"MD":8759,"Ġpap":8760,"åıĳæĮ¥äºĨ":8761,"åĴĮæĶ¿æ²»":8762,"ä¸ºæŃ¢":8763,"Ġabove":8764,"Ġviral":8765,"çĽĳçĿ£ç®¡çĲĨ":8766,"ancy":8767,"Ġsite":8768,"Ġunc":8769,"çĶŁäº§ç»ıèĲ¥":8770,"Ġmacroph":8771,"ologic":8772,"ä¸ļæĢģ":8773,"Ġanimals":8774,"Ġhighly":8775,"åıĳåĬ¨":8776,"Ġdiet":8777,"æ³¨æĺİ":8778,"Ġstructure":8779,"ension":8780,"ĠAfter":8781,"èĩ´ä½¿":8782,"æīĳ":8783,"åŃ¦ä¹łåĴĮ":8784,"åĽºä½ĵ":8785,"Ġthus":8786,"itud":8787,"Ġconcentrations":8788,"bo":8789,"ç»¸":8790,"éĥģ":8791,"inase":8792,"çĶµä¿¡":8793,"åħĪè¡Į":8794,"ital":8795,"åħ¬æľīåĪ¶":8796,"éĢĤå½ĵçļĦ":8797,"ä¸įå½ĵ":8798,"èµ·ä¹ī":8799,"çĶµéĺ»":8800,"å¹´ä»¥æĿ¥":8801,"å¿½çķ¥":8802,"èį§åħī":8803,"CE":8804,"Ġatten":8805,"å¹´çº§":8806,"Ġchrom":8807,"çļĦæīĢæľī":8808,"Ġcondition":8809,"åıĬåħ¶ä»ĸ":8810,"ç§ĳåŃ¦åıĳå±ķè§Ĥ":8811,"Ġplay":8812,"åĲĪéĩĳ":8813,"\"},":8814,"æľĿé²ľ":8815,"Ġneut":8816,"CV":8817,"Ġemb":8818,"åŃ¦çĶŁå¯¹":8819,"ä¸įäºĪ":8820,"Ġdoes":8821,"fact":8822,"encing":8823,"ç§įç§į":8824,"BD":8825,"ä¹Łä¸įèĥ½":8826,"å®Įå¤ĩ":8827,"åľ¨ç¤¾ä¼ļ":8828,"èģļåĲĪ":8829,"æĪĺçº¿":8830,"åľ°åĽ¾":8831,"Ġreceptors":8832,"çļĦå®ļä¹ī":8833,"äºĳåįĹ":8834,"Ġvisual":8835,"Ġrats":8836,"ising":8837,"æĿĥåĴĮ":8838,"Ġï¼Į":8839,"åħ³ç¨İ":8840,"Ġstimulation":8841,"åł¡":8842,"å¿ĥèĤĮ":8843,"å¹´ç¬¬":8844,"è¯īæ±Ĥ":8845,"ware":8846,"èĬ½":8847,"æĽ´æľī":8848,"æīĢè°ĵçļĦ":8849,"äºĨä¸Ģç³»åĪĹ":8850,"go":8851,"ä¹łè¿ĳå¹³æĢ»ä¹¦è®°åľ¨":8852,"è¯¸å¦Ĥ":8853,"Ġfeatures":8854,"éī´äºİ":8855,"Ġguid":8856,"å¹´åīį":8857,"Ġartic":8858,"Ġ^":8859,"ä»ĭåħ¥":8860,"å¤ĦçļĦ":8861,"åħ¹":8862,"ä¸Ģèĩ´çļĦ":8863,"åĮĸçŁ³":8864,"å®Ŀè´µ":8865,"éĻĦè¿ĳ":8866,"ering":8867,"å¤įä¹ł":8868,"Ġenzym":8869,"æĥħæĻ¯":8870,"ĠST":8871,"Ġir":8872,"ä¸ºä»£è¡¨çļĦ":8873,"é¢ł":8874,"cm":8875,"Con":8876,"é¸£":8877,"çĿĢéĩį":8878,"çĶµèĦĳ":8879,"åŁ¹åħ»åŃ¦çĶŁçļĦ":8880,"Ľèµ·":8881,"èµĦæľ¬å¸Ĥåľº":8882,"å¯¼èĪª":8883,"ands":8884,"Ġvolume":8885,"ä¾§éĩį":8886,"ĠCA":8887,"è¹Ī":8888,"åĴĮéĿŀ":8889,"æĹ©åľ¨":8890,"é¢ĳç¹ģ":8891,"Ġread":8892,"å®¢ä½ĵ":8893,"å½±åĵįåĬĽ":8894,"active":8895,"Ġsubst":8896,"LR":8897,"ä¸ĵä¸ļçļĦ":8898,"åĪ¶è®¢":8899,"æĺİç¡®æıĲåĩº":8900,"èĦīåĨ²":8901,"aff":8902,"åħ¼é¡¾":8903,"åħ¨éĿ¢ä»İä¸¥":8904,"Ġoverall":8905,"oints":8906,"ä¸ĩäº¿åħĥ":8907,"Ġä»İ":8908,"æł¼å°Ķ":8909,"åºĶçĶ¨çļĦ":8910,"ä¾¦æŁ¥":8911,"ä¸įè®º":8912,"ä¸ľæĸ¹":8913,"åĬłæ·±":8914,"*^":8915,"æ¸ħåģ¿":8916,"äºĭçī©çļĦ":8917,"olic":8918,"æľºçļĦ":8919,"çĸĹæ³ķ":8920,"Ġur":8921,"å·²çŁ¥":8922,"çŃ¾ç½²":8923,"Ġheter":8924,"èĳĹä½ľæĿĥ":8925,"è¦ģä»¥":8926,"çĬ¹":8927,"åįĬå¯¼ä½ĵ":8928,"çŁŃæĿ¿":8929,"èĥ½åľ¨":8930,"ract":8931,"å¾Īå¥½":8932,"åįģæĿ¡":8933,"åºĶåĬĽ":8934,"ç¾İçļĦ":8935,"Ġevaluated":8936,"Ġinvas":8937,"èĤĮèĤī":8938,"æ³ķåºŃ":8939,"ä¸İä¸ŃåĽ½":8940,"å¤§å±Ģ":8941,"å°±å¿ħé¡»":8942,"æįĲ":8943,"æĽ¹":8944,"çļĦæĿ¡ä»¶":8945,"IO":8946,"åĲĪä¼Ļ":8947,"äººä»¬å¯¹":8948,"]^.":8949,"Ġpepti":8950,"æ¶īåıĬåĪ°":8951,"Ġsynthe":8952,"æľ¬åĽ½":8953,"Ġcoun":8954,"400":8955,"å½ĵäºĭäººçļĦ":8956,"Ġcognitive":8957,"åĲ¯ç¤º":8958,"åĿĩåĮĢ":8959,"ä»İä¸ļ":8960,"Ġcoll":8961,"éļıæĹ¶":8962,"åĨĢ":8963,"å¿ħéľĢ":8964,"èĤ½":8965,"Ġgly":8966,"Ġmig":8967,"ç²¾ç¥ŀçļĦ":8968,"åıĪç§°":8969,"è¥¿åįĹ":8970,"ney":8971,"å¼¦":8972,"ergy":8973,"US":8974,"èĸªéħ¬":8975,"ource":8976,"ç§ĳåŃ¦çłĶç©¶":8977,"èĩ³åħ³éĩįè¦ģ":8978,"CH":8979,"å°±æľī":8980,"Ġorig":8981,"æ³¨æĦıçļĦæĺ¯":8982,"ąć":8983,"åºĶåľ¨":8984,"é«ĺçŃīåŃ¦æł¡":8985,"åŁİå¸ĤçļĦ":8986,"ä¸įå¾Ĺä¸į":8987,"å®īå¾½":8988,"å½ĵä»£ä¸ŃåĽ½":8989,"éĺĢ":8990,"çĦ¦çĤ¹":8991,"æĺ¾å¾Ĺ":8992,"å¼ķæĵİ":8993,"iting":8994,"å¯¹ä¼ģä¸ļ":8995,"ç¦»å¼Ģ":8996,"sh":8997,"å¤©æ°Ķ":8998,"è¦ģçĤ¹":8999,"é©³":9000,"ç¼©çŁŃ":9001,"ä¸įç§»":9002,"LD":9003,"è´¬":9004,"äººç±»çļĦ":9005,"oplas":9006,"Ġstaining":9007,"ä½ĵä¼ļ":9008,"åºĵåŃĺ":9009,"åĪĽç«ĭ":9010,"åŃ£åº¦":9011,"Ġtrials":9012,"éģĤ":9013,"æĭĽçĶŁ":9014,"ç»¼åĲĪå¾ģ":9015,"BV":9016,"ä¸ĢåĽ½":9017,"ĠData":9018,"ole":9019,"ï¿":9020,"çĸ¼":9021,"æĿĥåĪ©çļĦ":9022,"æĢ§åĪ«":9023,"åĢŁè´·":9024,"çºº":9025,"æī®":9026,"Ġright":9027,"pose":9028,"âĨĴ":9029,"Ġevents":9030,"åĽ½éĻħåĮĸ":9031,"å¤ļæł·åĮĸ":9032,"åħ±äº§åħļçļĦ":9033,"èī¯æĢ§":9034,"ä»¥ä¸ĭåĩłä¸ª":9035,"____":9036,"å¤įæĿĤæĢ§":9037,"å¤¹":9038,"å¢ĥå¤ĸ":9039,"æĸ°å¾ģç¨ĭ":9040,"çŀ»":9041,"çļĦç»ıéªĮ":9042,"çļĦå¯¹è±¡":9043,"ä½ĵç³»ä¸Ń":9044,"ä»İæł¹æľ¬ä¸Ĭ":9045,"æ¸Ĭ":9046,"Ġsurgery":9047,"ç§įåŃĲ":9048,"åıĳå¸ĥçļĦ":9049,"till":9050,"çĹħçļĦ":9051,"æĺ¯å°Ĩ":9052,"å®ĮæĪĲäºĨ":9053,"ç§ĳæĬĢæĪĲæŀľ":9054,"Ġrecord":9055,"åıĤä¸İèĢħ":9056,"è¡¨æ¼Ķ":9057,"ç»ĵæŀľè¡¨æĺİ":9058,"æºĥ":9059,"istic":9060,"åıĺä¸º":9061,"æĳ¸":9062,"Supplementary":9063,"Ġobserv":9064,"è¯´æ³ķ":9065,"åŁİå¸ĤåĮĸ":9066,"king":9067,"Res":9068,"ĠTable":9069,"This":9070,"èµ¢å¾Ĺ":9071,"èī°èĭ¦":9072,"any":9073,"è°ĭåĪĴ":9074,"][@":9075,"åľ¨ä¸Ģå®ļç¨ĭåº¦ä¸Ĭ":9076,"éĻ¢éķ¿":9077,"FS":9078,"èĢģå¹´äºº":9079,"Ġcritical":9080,"åĨľæ°ĳå·¥":9081,"çĨĶ":9082,"ier":9083,"Ġ60":9084,"ç¥¨æį®":9085,"activ":9086,"ä¸ºä¸»ä½ĵ":9087,"PE":9088,"æ¶ĪåĮĸ":9089,"çº²é¢Ĩ":9090,"è¡Ģæ¸ħ":9091,"æķĻèĤ²åĴĮ":9092,"äººæ°ĳæ£Ģå¯ŁéĻ¢":9093,"å¿ħé¡»åĿļæĮģ":9094,"åģ¥åº·åıĳå±ķ":9095,"é£İéĻ©ç®¡çĲĨ":9096,"åĮĹæĸ¹":9097,"è¯¾ç¨ĭçļĦ":9098,"ries":9099,"æ·±åº¦èŀįåĲĪ":9100,"ides":9101,"åķĨä¸ļç§ĺå¯Ĩ":9102,"Ġfat":9103,"Ġdiffic":9104,"Ġintervention":9105,"æ¶²ä½ĵ":9106,"å®ļå¾ĭ":9107,"HR":9108,"éĽĨä¸Ńåľ¨":9109,"æŀģåħ¶":9110,"ç´§å¼ł":9111,"çĲ´":9112,"Ġfil":9113,"è¯ŃéŁ³":9114,"å®ŀè·µæ´»åĬ¨":9115,"åīįæīĢæľª":9116,"å¿ħå°Ĩ":9117,"çĥŃæĥħ":9118,"åı¯ä»¥çľĭåĩº":9119,"çĬ¯ç½ªçļĦ":9120,"lex":9121,"ä½ıå®ħ":9122,"æĺ¥ç§ĭ":9123,"å¤ªå¹³":9124,"åĴĮä¼ģä¸ļ":9125,"æ²īç§¯":9126,"ques":9127,"æ²¿æµ·":9128,"ä¼ļä¸Ĭ":9129,"ç®¡çĲĨèĢħ":9130,"lect":9131,"ĠCa":9132,"Ġsepar":9133,"Ġdecrease":9134,"åĥļ":9135,"æģ¶æĦı":9136,"ä½Ĩåħ¶":9137,"Ġlimited":9138,"ovascular":9139,"çĽ¸ç»§":9140,"Ġendothe":9141,"Ġcollected":9142,"å¢ŀè¿Ľ":9143,"ä¿¡æģ¯å®īåħ¨":9144,"å¹¶è´Ń":9145,"åħļæ´¾":9146,"Ġ%":9147,"åĲŀ":9148,"Ġalter":9149,"az":9150,"oxic":9151,"æĪĳåĽ½ç»ıæµİ":9152,"æĥ©ç½ļ":9153,"ä»ĭè´¨":9154,"å¾Īå¤§ç¨ĭåº¦ä¸Ĭ":9155,"treated":9156,"ä»£ä»·":9157,"å¦¨":9158,"éĶ¦":9159,"åı¯åľ¨":9160,"åĴĮåĽ½å®¶":9161,"Ġcalculated":9162,"åħĥä»¶":9163,"åĽĽå¤§":9164,"åºĻ":9165,"åĿļå¼º":9166,"æīĢéľĢçļĦ":9167,"emia":9168,"ylation":9169,"umm":9170,"çļĦæĸ°åŀĭ":9171,"è´¿":9172,"ï¹":9173,"Ġ21":9174,"aken":9175,"æģ©æł¼æĸ¯":9176,"æ¡Īä»¶çļĦ":9177,"é½¿":9178,"è¿½æº¯":9179,"Ġareas":9180,"çº¿è·¯":9181,"çī¹æ®ĬçļĦ":9182,"æŀĦæĪĲäºĨ":9183,"æŃ¤åĲİ":9184,"vement":9185,"æ³ķåĴĮ":9186,"åİŁæľī":9187,"åĲĪä½ľç¤¾":9188,"ä¼ļæľī":9189,"izing":9190,"Ġconn":9191,"ä¸įåĪ©äºİ":9192,"å®£åĳĬ":9193,"çļĦä¼Łå¤§":9194,"æĬĢæľ¯ä¸İ":9195,"Ġunderstanding":9196,"æľ¬äºº":9197,"æŃ¦æ±ī":9198,"ç´§æĢ¥":9199,"éĤĢ":9200,"è¿ĳæľŁ":9201,"éĢ¼":9202,"rad":9203,"Ġtranscription":9204,"1998":9205,"æ°ĳåĽ½":9206,"ç¬ĶèĢħè®¤ä¸º":9207,"ä»ĸåľ¨":9208,"ç§¯æŀģåıĤä¸İ":9209,"å»¶è¿Ł":9210,"BC":9211,"åħ³éĶ®è¯į":9212,"Ġpoint":9213,"åı¯è§Ĩ":9214,"ä¸Ģå®ļè¦ģ":9215,"å´Ľèµ·":9216,"Ġactive":9217,"åıĻäºĭ":9218,"éĢłæĪĲäºĨ":9219,"èĪ¶":9220,"åıĳå±ķçļĦéĩįè¦ģ":9221,"Ġaverage":9222,"Ġmitochond":9223,"ä¿ĿæĬ¤åĴĮ":9224,"æĸ°çĸĨ":9225,"ĠAt":9226,"èİ·å¾ĹçļĦ":9227,"ä¸įç®¡":9228,"Ġtransf":9229,"äººäºº":9230,"ĠDi":9231,"LI":9232,"ä¸¤æ¬¡":9233,"åĤ¨åŃĺ":9234,"åįıè°ĥåıĳå±ķ":9235,"æĦŁåĪ°":9236,"åŃĺåľ¨äºİ":9237,"åĤ¬åĮĸåīĤ":9238,"æķĻè®Ń":9239,"åĤ¨èĥ½":9240,"è®ºçļĦ":9241,"çĶŁäº§åĴĮ":9242,"è¯¥çłĶç©¶":9243,"å®ŀäºĭæ±Ĥæĺ¯":9244,"è§£åĨ³éĹ®é¢ĺçļĦ":9245,"Ġbiom":9246,"orld":9247,"ä¸Ńå±±":9248,"Ġprec":9249,"ports":9250,"æģ¶æĢ§":9251,"VA":9252,"æĺİç¡®è§Ħå®ļ":9253,"åħļçļĦäºĮåįģ":9254,"ç¼´çº³":9255,"%ãĢģ":9256,"æŁı":9257,"ä¿ĿæĬ¤çļĦ":9258,"æ¨ªåĲĳ":9259,"uscript":9260,"Ġperformance":9261,"ns":9262,"Ġoff":9263,"è¾©æĬ¤":9264,"åıĮåĲĳ":9265,"æĸĩä¸Ń":9266,"åº·å¤į":9267,"Ġdiscus":9268,"æĻ®æĥł":9269,"åıĳåĬ¨æľº":9270,"ä¼ļåľ¨":9271,"æĥĳ":9272,"æĺ¯å¦Ĥä½ķ":9273,"rosis":9274,"éĩĳèŀįå¸Ĥåľº":9275,"Ġtherefore":9276,"Ġtraining":9277,"å²Ń":9278,"åı¥è¯Ŀ":9279,"çľĭä½ľ":9280,"éĩįè¦ģçļĦä½ľçĶ¨":9281,"è®®é¢ĺ":9282,"å¤ĦçĲĨåĻ¨":9283,"éĻįè§£":9284,"ä¸īä¸Ńåħ¨ä¼ļ":9285,"æĺ¯ä¸º":9286,"Ġmeasures":9287,"å¼Ī":9288,"å¨±":9289,"æĶ¿çŃĸåĴĮ":9290,"å¯¹ç¤¾ä¼ļ":9291,"å®¤åĨħ":9292,"Ġbaseline":9293,"monary":9294,"Ġimage":9295,"Ġmarkers":9296,"èĦĨ":9297,"åįĹæĸ¹":9298,"åıĳçİ°äºĨ":9299,"ç¨³æŃ¥":9300,"æĹłéľĢ":9301,"åĨľä¸ļåĨľæĿĳ":9302,"é«ĺåİŁ":9303,"è¾ĥå¼ºçļĦ":9304,"Ġshows":9305,"ä»·åĢ¼éĵ¾":9306,"Ġelev":9307,"å®ŀè·µçļĦ":9308,"LP":9309,"Ġdamage":9310,"ä¸¤ç±»":9311,"not":9312,"ç¢³ä¸ŃåĴĮ":9313,"ç¼ĵæħ¢":9314,"ä¸įåĬ¨äº§":9315,"ç«¹":9316,"ĠãĢĤ":9317,"ç¥ŀç»ıç½ĳç»ľ":9318,"åħīçº¤":9319,"çļĦæ°´":9320,"èĳ¬":9321,"æĬ±":9322,"mg":9323,"æīĭç»Ń":9324,"å®£è¨Ģ":9325,"Ġserv":9326,"ä¸ºä¸Ģ":9327,"æľĢå¤§éĻĲåº¦":9328,"çļĦå®ŀéĻħ":9329,"Ġsex":9330,"mediated":9331,"æĮ¤":9332,"sing":9333,"Ġprocesses":9334,"éļıä¹ĭ":9335,"æĺ¯æĪĳä»¬":9336,"ä¸¤åĽ½":9337,"ä¸ŃåĽ½åħ±äº§åħļé¢Ĩå¯¼":9338,"1999":9339,"Ġvascular":9340,"regulated":9341,"MR":9342,"å±Ĥçº§":9343,"æİ¨åĬ¨äºĨ":9344,"åĪĳç½ļ":9345,"Ġsites":9346,"Ġvariables":9347,"Ġmutation":9348,"å¤Ħåľ¨":9349,"me":9350,"120":9351,"å®¢æĪ·ç«¯":9352,"ä¸ĭæ¸¸":9353,"Ġtesting":9354,"æ¶Ľ":9355,"ä¸Ĭè¯ī":9356,"å¾Īå¥½çļĦ":9357,"ras":9358,"æľĭåıĭ":9359,"Ġdev":9360,"æ£Ģå¯Łæľºåħ³":9361,"çĶŁäº§æĢ»":9362,"è¿ľè¿ľ":9363,"åħļå»º":9364,"ertain":9365,"çķĮéĻĲ":9366,"çļĦä¸Ģä¸ªéĩįè¦ģ":9367,"ç¬¬ä¹Ŀ":9368,"å¼Ģåħ³":9369,"åįģä¸ĢæĿ¡":9370,"ame":9371,"èķ´åĲ«":9372,"ä¸įæĸŃåľ°":9373,"ygen":9374,"è´ª":9375,"inary":9376,"Ġampl":9377,"å®ĺæĸ¹":9378,"Ġresid":9379,"éŁ©åĽ½":9380,"æµ·ä¸Ĭ":9381,"ä¾µçķ¥":9382,"ç»¿èī²åıĳå±ķ":9383,"æĶ¿æ²»å±Ģ":9384,"è§ĦåĪ¶":9385,"çļĦä¸ĸçķĮ":9386,"åĴĮåĪĨæŀĲ":9387,"Ġdrugs":9388,"ç¦ıå»º":9389,"åīįåĪĹ":9390,"Ġlear":9391,"ç®¡çĲĨåĪ¶åº¦":9392,"éĢīåıĸ":9393,"ä¹Łèĥ½":9394,"Ġtested":9395,"éĽ¶åĶ®":9396,"Ġmanuscript":9397,"åĪĨçº§":9398,"ipher":9399,"è±¡å¾ģ":9400,"çĶ³è¯·äºº":9401,"Ġindex":9402,"ä¼łå¯¼":9403,"ç»´ä¿®":9404,"åĨ³å®ļæĢ§":9405,"Ġchall":9406,"SE":9407,"åĻ¬":9408,"ulate":9409,"Ġphysical":9410,"åĿļå®ļä¸įç§»":9411,"æĸ¹å¼ıåĴĮ":9412,"éĻ¤å¤ĸ":9413,"æĭĸ":9414,"è¡įçĶŁ":9415,"Ġtests":9416,"æľįä»İ":9417,"åĩºåıĳçĤ¹":9418,"æ°´å¹³åĴĮ":9419,"=======":9420,"è¶Ĭå¤§":9421,"èµĭèĥ½":9422,"çĵ¶é¢Ī":9423,"Ġpoor":9424,"antif":9425,"çªĹåı£":9426,"è¾ħå¯¼":9427,"gment":9428,"èĭ±éĽĦ":9429,"çº·çº·":9430,"åĨħæł¸":9431,"çļĦéĥ¨åĪĨ":9432,"Ġmade":9433,"çĶµåĬ¨":9434,"éĢĤå®ľ":9435,"èĭ¯":9436,"èĢĥéªĮ":9437,"é«ĺåİĭ":9438,"abil":9439,"iatric":9440,"AG":9441,"Ġabnormal":9442,"------------------------":9443,"Ġsecre":9444,"æ£ī":9445,"çļĦéĩįçĤ¹":9446,"ĠSp":9447,"åŃ¦çĶŁåŃ¦ä¹ł":9448,"èĻİ":9449,"Ġinvestigated":9450,"äºĮç»´":9451,"Ġcolon":9452,"åŁĭ":9453,"çĽĪåĪ©":9454,"oun":9455,"ï¿½":9456,"]{":9457,"æĸ°ä¸Ģä»£":9458,"å«Įçĸĳ":9459,"Ġprotocol":9460,"è¡ĮæĶ¿å¤Ħç½ļ":9461,"ä¾¿æĺ¯":9462,"æĸĩæĺİçļĦ":9463,"åĶ¤":9464,"æĿ¥è®²":9465,"æķĻå¸Īåľ¨":9466,"oratory":9467,"æĸ°çĶŁ":9468,"éŁ¦":9469,"æ··åĩĿ":9470,"æİ©":9471,"Ġå¯¹":9472,"éĢīçĶ¨":9473,"Ġach":9474,"æıĲåĪ°":9475,"é«ĺèĢĥ":9476,"å¤©åľ°":9477,"Ġrenal":9478,"åĨľèį¯":9479,"è¡ĮæĶ¿éĥ¨éĹ¨":9480,"å®ĮåĸĦçļĦ":9481,"æŀª":9482,"Ġcombination":9483,"inally":9484,"åĩºåĶ®":9485,"é»Ħéĩĳ":9486,"çİ¯å¢ĥä¸ĭ":9487,"åºĶè¯¥æĺ¯":9488,"ä¸ºåħ¶":9489,"æ²³åĮĹ":9490,"raction":9491,"Ġantigen":9492,"åĩºç§Ł":9493,"æ½®æµģ":9494,"ä¸Ńå¤ĸ":9495,"æ´¾éģ£":9496,"Ġcat":9497,"åįļå¼Ī":9498,"less":9499,"Ġtool":9500,"è¿Ļä¹Ł":9501,"è¿Ļä¸ªéĹ®é¢ĺ":9502,"Ġprevalence":9503,"éĽ¾":9504,"æĻºèĥ½åĪ¶éĢł":9505,"éī´åĪ«":9506,"åĢ¡è®®":9507,"Ġ/":9508,"å»ºçŃĳçī©":9509,"rh":9510,"é¸¡":9511,"çķĮçļĦ":9512,"æĸ°åįİ":9513,"éľĢè¦ģåľ¨":9514,"tif":9515,"Ġ$\\":9516,"Hz":9517,"tension":9518,"æķ¢äºİ":9519,"ãĢĮ":9520,"æ¯ıå¤©":9521,"å¸Ĥåľºä¸»ä½ĵ":9522,"æº¢":9523,"å¼¯":9524,"âĢķâĢķ":9525,"ä¸Ńç¾İ":9526,"å½ĵä¸ĭ":9527,"åĮĹäº¬å¸Ĥ":9528,"åĲĦæ°ĳæĹı":9529,"éĢĤåº¦":9530,"å¤įè®®":9531,"èĪŀåı°":9532,"çļĦçĬ¶æĢģ":9533,"Ġpolym":9534,"éĺ³æĢ§":9535,"çļĦç¬¬ä¸Ģ":9536,"è¡¨å¾ģ":9537,"åīĳ":9538,"çļĦä»»åĬ¡":9539,"ãĢį":9540,"Ġfunctions":9541,")\"":9542,"åıĳæī¬":9543,"æ¶Īæŀģ":9544,"çī©èµĦ":9545,"Ġhom":9546,"Ġrecomm":9547,"åħ³éĹŃ":9548,"ä¸ŃåĮ»":9549,"ä¸ºå®ŀçİ°":9550,"Ġcontinu":9551,"éĩĮçļĦ":9552,"åľ¨ç¾İåĽ½":9553,"ä¸ĩåĲ¨":9554,"ä¸ļç»©":9555,"å¹¶è¡Į":9556,"åĲĦæĹıäººæ°ĳ":9557,"çĤ®":9558,"èĪŀè¹Ī":9559,"Ġtechn":9560,"äºĮçº§":9561,"åĴĮä¸ŃåĽ½":9562,"çļĦåīįæıĲä¸ĭ":9563,"Ġstill":9564,"otor":9565,"ä¸įç¡®å®ļæĢ§":9566,"å¹¼åĦ¿åĽŃ":9567,"å°Ħçº¿":9568,"å¸¸åĬ¡":9569,"LE":9570,"estern":9571,"gn":9572,"çļĦäº§åĵģ":9573,"ä¸Ŀç»¸":9574,"éĻĪè¿°":9575,"èĥ½å¤Łåľ¨":9576,"document":9577,"åŁºç¡Ģè®¾æĸ½å»ºè®¾":9578,"æĺ¯åĽ½å®¶":9579,"æĹ¥æľŁ":9580,"piratory":9581,"å¯¹æĪĳåĽ½":9582,"HA":9583,"Ġpractice":9584,"Ġrap":9585,"å¼Ħ":9586,"ä¸ŃåİŁ":9587,"åħ¨éĿ¢å»ºè®¾ç¤¾ä¼ļä¸»ä¹īçİ°ä»£åĮĸ":9588,"ä¼´éļıçĿĢ":9589,"Ġdiagnostic":9590,"Ab":9591,"æŃ¤æ¬¡":9592,"Ġoxid":9593,"åĽ½éĻħè´¸æĺĵ":9594,"amine":9595,"Ġachie":9596,"æ²«":9597,"Ġsequence":9598,"coh":9599,"Ġstep":9600,"IR":9601,"æİ§åĪ¶åĻ¨":9602,"è®¤å®ļä¸º":9603,"ave":9604,"Ġcross":9605,"ä¸Ńåįİä¼ĺç§Ģä¼łç»ŁæĸĩåĮĸ":9606,"åĲĪçº¦":9607,",ï¼Ĥ":9608,"ç¤¾ä¼ļç»Ħç»ĩ":9609,"Ġtimes":9610,"åį³å°Ĩ":9611,"ĠĠĠĠĠĠĠĠĠĠĠĠĠĠĠĠĠĠĠĠĠĠĠĠĠĠĠĠĠĠĠĠĠĠĠĠĠĠĠĠĠĠĠĠĠĠĠĠĠĠĠĠĠĠĠĠĠĠĠĠĠĠĠĠĠĠĠĠĠĠĠĠĠĠĠĠĠĠĠĠĠĠĠĠĠĠĠĠĠĠĠĠĠĠĠĠĠĠĠĠĠĠĠĠĠĠĠĠĠĠĠĠĠĠĠĠĠĠĠĠĠĠĠĠĠĠĠĠĠĠĠĠĠĠĠĠĠĠĠĠĠĠĠĠĠĠĠĠĠĠĠĠĠĠĠĠĠĠĠĠĠĠĠĠĠĠĠĠĠĠĠĠĠĠĠĠĠĠĠĠĠĠĠĠĠĠĠĠĠĠĠĠĠĠĠĠĠĠĠĠĠĠĠĠĠĠĠĠĠĠĠĠĠĠĠĠĠĠĠĠĠĠĠĠĠĠĠĠĠĠĠĠĠĠĠĠĠĠĠĠĠĠĠĠĠĠĠĠĠĠĠĠĠĠĠĠ":9612,"è´¨çĸĳ":9613,"é»ı":9614,"èĵ¬":9615,"ĠMoreover":9616,"ï¼Ļ":9617,"ocardi":9618,"å¯Įæľī":9619,"ä¸ľéĥ¨":9620,"å¯¼å¸Ī":9621,"è¿ĳæĹ¥":9622,"Ġphosphory":9623,"çļĦåĪĽæĸ°":9624,"é¸¿":9625,"çĶŁäº§è¦ģç´ł":9626,"å¢ĥåĨħ":9627,"åı¯ä»¥ä»İ":9628,"Ġcontaining":9629,"æ°´çļĦ":9630,"ĠPCR":9631,"çĥ·":9632,"å·¥ä½ľä¼ļè®®":9633,"æĮĩçļĦæĺ¯":9634,"Ġcentral":9635,"ulating":9636,"åĩŃè¯ģ":9637,"ones":9638,"çłĸ":9639,"ä¸ºä¸»çļĦ":9640,"aired":9641,"æĿĥåĬĽçļĦ":9642,"æī®æ¼Ķ":9643,"}{":9644,"Ġeth":9645,"é¥Ń":9646,"ç¡®ç«ĭäºĨ":9647,"åĲĪä¸Ģ":9648,"Ġspect":9649,"ĠAr":9650,"åħ±èµ¢":9651,"åıĳæİĺ":9652,"ĠRec":9653,"atients":9654,"Ġproposed":9655,"æ³¨å°Ħ":9656,"çļĦæ´»åĬ¨":9657,"ä¸ĢçĤ¹":9658,"æĸ½è¡Į":9659,"æĺ¯ä¸Ģé¡¹":9660,"FA":9661,"çķĻä¸ĭ":9662,"150":9663,"è¶ħå£°":9664,"Ġclus":9665,"ä¸Ĭæľī":9666,"ä»ĸè®¤ä¸º":9667,"éĴ¢éĵģ":9668,"Ġyear":9669,"Ġrest":9670,"çĽ®æłĩæĺ¯":9671,"çĸ¼çĹĽ":9672,"æľīå®³":9673,"éĢļè´§èĨ¨èĥĢ":9674,"çķª":9675,"rix":9676,"è¿ĻæĦıåĳ³çĿĢ":9677,"éħ°":9678,"Ġlesions":9679,"ç®¡çĲĨä½ĵç³»":9680,"å¹³ç¨³":9681,"å¯¹è¯¥":9682,"Ġmass":9683,"ector":9684,"çº¦ä¸º":9685,"ä»İèĢĮä½¿":9686,"Ġtrial":9687,"è¿ĩçļĦ":9688,"è¿Ńä»£":9689,"åľ¨å®ŀéĻħ":9690,"åĿļæĮģåĴĮåıĳå±ķ":9691,"Ġcarri":9692,"\\[[@":9693,"çĶŁæĢģæĸĩæĺİå»ºè®¾":9694,"ä¸ļä¸»":9695,"åĩºçĶŁ":9696,"çĸĹæķĪ":9697,"Ġexpress":9698,"åŁºæľ¬åİŁçĲĨ":9699,"çļĦç³»ç»Ł":9700,"åģıå·®":9701,"Ġpublished":9702,"amic":9703,"åĬłå¿«æİ¨è¿Ľ":9704,"Ġquestion":9705,"çļĦåĽłç´ł":9706,"æ·®":9707,"Ġcohort":9708,"åħ»æĪĲ":9709,"å±Ĭä¸īä¸Ńåħ¨ä¼ļ":9710,"ç®¡çĲĨç³»ç»Ł":9711,"æ°¨åŁº":9712,"Ġselected":9713,"å½±åĵįäºĨ":9714,"çļĦä½įç½®":9715,"Ġknowledge":9716,"çļĦåħ¶ä»ĸ":9717,"itu":9718,"Ġstem":9719,"è¨Ģä¹ĭ":9720,"å®ŀçī©":9721,"èĪ°":9722,"åı¯ä»¥å°Ĩ":9723,"Ġfl":9724,"æī¿åıĹ":9725,"ducing":9726,"æĶ¶æĶ¯":9727,"æ¯ıæ¬¡":9728,"*)":9729,"äºĴéĢļ":9730,"èı²":9731,"ä¸¥æł¼çļĦ":9732,"èĢĮä¸Ĭ":9733,"åľ¨è¯¥":9734,".[@":9735,"ç¥¥":9736,"çĸ¾çĹħçļĦ":9737,"ä¿Ŀåģ¥":9738,"ç»Ļåĩº":9739,"å¡ĳæĸĻ":9740,"ç§ĳéĻ¢":9741,"åľ¨å®ŀè·µä¸Ń":9742,"åħ¥æīĭ":9743,"åĪ¶åĵģ":9744,"ãĢĶ":9745,"ä¸İæĹ¶":9746,"LT":9747,"çģµéŃĤ":9748,"åįĬå¹´":9749,"ĠNational":9750,"ä¸ºå¯¼åĲĳ":9751,"ãĢķ":9752,"æ»ŀåĲİ":9753,"äºı":9754,"Ġsuggesting":9755,"Ġinfluence":9756,"åİŁåĪĽ":9757,"éĥ½å¸Ĥ":9758,"åħ¬åħ±åį«çĶŁ":9759,"åıĪè¦ģ":9760,"è¾¾åĪ°äºĨ":9761,"æľīåħ³è§Ħå®ļ":9762,"æľĢå¤§åĮĸ":9763,"Ġeduc":9764,"è¾ĥå°ı":9765,"åħ¬åı¸æ³ķ":9766,"æĺ¯åŁºäºİ":9767,"è¿ĻæĹ¶":9768,"çİĩåĴĮ":9769,"ining":9770,"Ġpredict":9771,"åħ¬åĳĬ":9772,"ME":9773,"æľ¬è¯¾ç¨ĭ":9774,"ipp":9775,"è§ģçļĦ":9776,"Ġdepend":9777,"Ġnecess":9778,"HT":9779,"æ¸©å®¤":9780,"çİ¯å¢ĥåĴĮ":9781,"Ġintra":9782,"Ġback":9783,"ç¤¾ä¼ļåŃ¦":9784,"ĊĠĠĠ":9785,"åįģäºĮæĿ¡":9786,"èº«å¿ĥ":9787,"å¯¹åºĶçļĦ":9788,"%),":9789,"CPU":9790,"ransi":9791,"æĢĿæ½®":9792,"ä»įæľī":9793,"è¿ĿèĥĮ":9794,"æİĴåºı":9795,"Ġrepe":9796,"ä¿Ŀå®Ī":9797,"å®ıè§Ĥç»ıæµİ":9798,"åıĳå±ķä¸Ń":9799,"ĠER":9800,"å¯¼èĩ´äºĨ":9801,"ploy":9802,"éĴł":9803,"ä¸įåľ¨":9804,"çĲĨè§£åĴĮ":9805,"Ġmanagement":9806,"ä½ľå®¶":9807,"çĹħåİŁ":9808,"å®ĺåĥļ":9809,"left":9810,"æĪĺåľº":9811,"ä¸įé«ĺ":9812,"å¸ķ":9813,"ä¸ĸçķĮåĲĦåĽ½":9814,"åĪĹåħ¥":9815,"Ġsubsequ":9816,"Ġoper":9817,"ä¼Łå¤§çļĦ":9818,"ç®¡çĲĨäººåĳĺ":9819,"çļĦæĥħå½¢":9820,"Ġvers":9821,"function":9822,"äººæ°ĳä¸ºä¸Ńå¿ĥ":9823,"æİĴåĪĹ":9824,"Ġcereb":9825,"Ġinhibitor":9826,"Ġexperimental":9827,"æ¯ĴæĢ§":9828,"åĬłéĩį":9829,"Ġcaused":9830,"åĩĮ":9831,"rs":9832,"RNAs":9833,"çłĶç©¶åıĳçİ°":9834,"éĺģ":9835,"èµ·çĿĢ":9836,"åħ¥ä¾µ":9837,"roid":9838,"éģĵçĲĨ":9839,"åİŁæĿ¥":9840,"éľī":9841,"æİĪäºĪ":9842,"å¤¯":9843,"Ġfailure":9844,"åħ¬å®īæľºåħ³":9845,"èĪ¹èĪ¶":9846,"ocal":9847,"æķĻåŃ¦æ¨¡å¼ı":9848,"ç»Ŀå¤§å¤ļæķ°":9849,"Ġshort":9850,"åħ¨çľģ":9851,"çļĦåŁ¹åħ»":9852,"çļĦæķ´ä½ĵ":9853,"æĿŃ":9854,"å¤ļè¾¹":9855,"éĽ·è¾¾":9856,"é¢ĸ":9857,"éĶ¡":9858,"\"}.":9859,"çļĦå¤ĸ":9860,"åİĤåķĨ":9861,"adi":9862,"åĽŀæĬ¥":9863,"time":9864,"æĦŁæĥħ":9865,"æ°ĳäºĭè¯īè®¼":9866,"èĳ£äºĭä¼ļ":9867,"å¤§åĬĽåıĳå±ķ":9868,"ä¸ŃçļĦä½ľçĶ¨":9869,"æ±Ĺ":9870,"ä½ĵç³»åĴĮæ²»çĲĨèĥ½åĬĽ":9871,"Ġtyp":9872,"Ġisolated":9873,"æĬĢæľ¯åľ¨":9874,"æĪĳä»¬å°Ĩ":9875,"æĦıè¯ĨåĴĮ":9876,"æĻºåºĵ":9877,"ociated":9878,"çļĦåı¯èĥ½æĢ§":9879,"2023":9880,"éķ¿å¾ģ":9881,"ä¸¤ä¸ªæĸ¹éĿ¢":9882,"ä¸¤å²¸":9883,"æĴ°åĨĻ":9884,"æł¹æºĲ":9885,"chool":9886,"éĿ¢åīį":9887,"éķ¿æľŁä»¥æĿ¥":9888,"éĹ®é¢ĺæĺ¯":9889,"Ġresearc":9890,"1997":9891,"uble":9892,"åĭĩäºİ":9893,"é£ŀè·ĥ":9894,"æĭĵå®½":9895,"åĬŀäºĭ":9896,"çī¹å¾ģçļĦ":9897,"Ġsuff":9898,"ç£·éħ¸":9899,"ç¨į":9900,"ç©¶ç«Ł":9901,":ï¼Ĥ":9902,"odes":9903,"è¿ĺåĮħæĭ¬":9904,"ä¸ŃåĽ½ç§ĳåŃ¦éĻ¢":9905,"ä¼ģä¸ļå®¶":9906,"åı¯éĢļè¿ĩ":9907,"Ġsetting":9908,"äººä¹ĭ":9909,"è¿ŀå¸¦":9910,"æĪıåī§":9911,"orph":9912,"ä¸įæĸŃå®ĮåĸĦ":9913,"å¾ĴåĪĳ":9914,"æ°¨éħ¸":9915,"èµĦæľ¬çļĦ":9916,"Ġsuggested":9917,"æİ§åĪ¶çļĦ":9918,"Ġsl":9919,"Ġseen":9920,"äººæ°ĳæ°ĳä¸»":9921,"è®®ä¼ļ":9922,"Ġadhe":9923,"èŀįåĲĪåıĳå±ķ":9924,"æľºåĻ¨åŃ¦ä¹ł":9925,"æ¶Įçİ°":9926,"aged":9927,"æ¹ĺ":9928,"å°±åĥı":9929,"()":9930,"Ġalthough":9931,"çī¢çī¢":9932,"éļĲæĤ£":9933,"åĸľæ¬¢":9934,"æŀģå¤§åľ°":9935,"ream":9936,"æĺłå°Ħ":9937,"åıĤèĢĥæĸĩçĮ®":9938,"çļĦå¤§å°ı":9939,"Ġhistory":9940,"æ¡¥æ¢ģ":9941,"æĿĥäºº":9942,"ï¼ļãĢĬ":9943,"Ġsurve":9944,"Ġcateg":9945,"è£ħé¥°":9946,"ze":9947,"æµ·åįĹ":9948,"å¤ĦçĲĨçļĦ":9949,"agen":9950,"åŃĹç¬¦":9951,"èĮ¨":9952,"ank":9953,"åĲĦéĥ¨éĹ¨":9954,"è§ĦèĮĥåĮĸ":9955,"åĶĲä»£":9956,"æľºåĪ¶çļĦ":9957,"å°¤ä¸º":9958,"GB":9959,"éĽ¶ä»¶":9960,"å¤ļå¹´æĿ¥":9961,"åĨľçĶ°":9962,"èµĦæºĲåĴĮ":9963,"æĿĥåĪ©äºº":9964,"ç©ºéĹ´çļĦ":9965,"urse":9966,"overy":9967,"play":9968,"ĠĠĠĠĠĠĠĠĠĠĠĠĠĠĠĠĠĠ":9969,"åĽ½ä¼ģ":9970,"tial":9971,"åĴĮå¯¹":9972,"å¤§çº²":9973,"/-":9974,"Ġfew":9975,"åĽŀåĪ°":9976,"ots":9977,"éĥ¡":9978,"^{":9979,"formation":9980,"æĸ°ä¸Ģè½®":9981,"å±±è¥¿":9982,"çĪĨçĤ¸":9983,"åº¸":9984,"ç´¢å¼ķ":9985,"rate":9986,"åįģåĽĽæĿ¡":9987,"æķĻç§ĳ":9988,"çļĦæĶ¯æĮģ":9989,"ĠÎ±":9990,"Ġbiological":9991,"æĸ°åıĳå±ķçĲĨå¿µ":9992,"è¯¾ç¨ĭæłĩåĩĨ":9993,"###":9994,"åİī":9995,"æ¹ĸåĮĹ":9996,"å¼ºåĪ¶æĢ§":9997,"ä»£çĲĨäºº":9998,"ĠÂł":9999,"éĴ»":10000,"Ġliter":10001,"æķ°æİ§":10002,"æİ¥ç§į":10003,"å¤ªç©º":10004,"åĬŀåħ¬å®¤":10005,"ĠCol":10006,"åĬ³åĬ¨åħ³ç³»":10007,"âĢĵ":10008,"Ġutil":10009,"å¤įèĭı":10010,"çļĦä¸ĢåĪĩ":10011,"urrent":10012,"ç¥Ŀ":10013,"èµ´":10014,"è¿ĻäºĽéĹ®é¢ĺ":10015,"åħ»èĢģä¿ĿéĻ©":10016,"SI":10017,"éª¨å¹²":10018,"Ġmemory":10019,"ç§ĳçĽ®":10020,"çĶ¨å·¥":10021,"ä¹łè¿ĳå¹³æĢ»ä¹¦è®°æĮĩåĩº":10022,"Tç»Ĩèĥŀ":10023,"åı¯æİ§":10024,"åĲĪæ³ķæĢ§":10025,"Ġreceived":10026,"çİĦ":10027,"è¿ĺèĥ½":10028,"Ġtask":10029,"Ġsens":10030,"è¿ĩå¤±":10031,"æ²ĥ":10032,"by":10033,"ç§¯æŀģçļĦ":10034,"éĢ¸":10035,"Ġscores":10036,"Ġinfected":10037,"Ġsoft":10038,"Ġ:":10039,"æĥħæĬ¥":10040,"ç²¤":10041,"å¤ļå¹´çļĦ":10042,"ãĥ":10043,"å®ļæĢ§":10044,"Ġexhib":10045,"æľĢä¼ĺ":10046,"éĢīæĭ©æĢ§":10047,"å¸¦å®½":10048,"åľ¨è¿ĻéĩĮ":10049,"Ġmedium":10050,"æ··åĩĿåľŁ":10051,"Ġiss":10052,"æ¸ħåįİ":10053,"åĲĪåĲĮæ³ķ":10054,"æĿ¡ç¬¬":10055,"ĠmM":10056,"çĽ®æłĩåĴĮ":10057,"terior":10058,"Ġmax":10059,"Ġmetabolic":10060,"åı¯èĥ½çļĦ":10061,"å¸ĿåĽ½ä¸»ä¹ī":10062,"æ³Ĭ":10063,"ethod":10064,"ä¸İç®¡çĲĨ":10065,"Ġevaluation":10066,"Ġable":10067,"ç£ģåľº":10068,"è¡ĮæĶ¿åĮº":10069,"çĩ¥":10070,"æ¨¡ä»¿":10071,"Ġincreases":10072,"ç¤¾ä¼ļç»ıæµİ":10073,"æĶ¹éĿ©å¼ĢæĶ¾ä»¥æĿ¥":10074,"ç¨ĭåºıçļĦ":10075,"æ¢Ĺ":10076,"å±Ĥæ¬¡çļĦ":10077,"åĪ¶å®ļäºĨ":10078,"utri":10079,"è¾Ī":10080,"çī©è´¨çļĦ":10081,"è´¯éĢļ":10082,"è¯Ħå®¡":10083,"å¨±ä¹Ĳ":10084,"åĽºå®ļèµĦäº§":10085,"Ġrelease":10086,"æ°ĳä¸»ä¸»ä¹ī":10087,"Ġstudied":10088,"åįģä¸īæĿ¡":10089,"è´µæĹı":10090,"ä¸Ĭä¸ĸçºª":10091,"åħ¬åħ±åĪ©çĽĬ":10092,"é¦ĸåħĪè¦ģ":10093,"éĻķè¥¿":10094,"åĪĨè¾¨çİĩ":10095,"ights":10096,"enced":10097,"è´¨éĩıçļĦ":10098,"æĹĭè½¬":10099,"çł´è§£":10100,"Ġclear":10101,"Ġfive":10102,"ĠTNF":10103,"éģı":10104,"çŁ¥åĲį":10105,"Ġpotenti":10106,"æľīæķĪæĢ§":10107,"Ġinitial":10108,"ä¸įæĸŃåıĳå±ķ":10109,"rob":10110,"ĠIFN":10111,"åĽ¾è¡¨":10112,"è´¢çī©":10113,"ĠĠĠĠĠĠĠĠĠĠĠĠĠĠĠĠĠ":10114,"éĹª":10115,"åĲĪåĬĽ":10116,"å¾Īå®¹æĺĵ":10117,"ä¸Ńèį¯":10118,"èĪŁ":10119,"åħ¨éĿ¢æ·±åĮĸæĶ¹éĿ©":10120,"çĶŁæ´»æĸ¹å¼ı":10121,"åıįèĢĮ":10122,"}$":10123,"æĹº":10124,"Ġlight":10125,"éĵĿ":10126,"âĶĢ":10127,"çļĦéĿŀ":10128,"æĢĿæĥ³åĴĮ":10129,"åĽ½å®¶çº§":10130,"Ġclin":10131,"æı½":10132,"çļĦå®ŀæĸ½":10133,"Ġdirectly":10134,"equ":10135,"for":10136,"åĨįåĪ°":10137,"vari":10138,"èĩªçĶ±è´¸æĺĵ":10139,"çļĦæľºä¼ļ":10140,"ä¸¤å¹´":10141,"å®ıè§Ĥè°ĥæİ§":10142,"ä¸ĢçĻ¾":10143,"æ¬¡æķ°":10144,"åıĺå±Ģ":10145,"è¢ĸ":10146,"ogn":10147,"Ġapplied":10148,"åħ¼å®¹":10149,"Ġphysi":10150,"Ġobes":10151,"è§¦åıĳ":10152,"èĦ¸":10153,"\\*\\*":10154,"æŁĵèī²ä½ĵ":10155,"ä¸ĺ":10156,"Ġpropor":10157,"è®©äºº":10158,"Ġresulting":10159,"çļĦäº§çĶŁ":10160,"éĥ¨çļĦ":10161,"åħ¨éĿ¢ä»İä¸¥æ²»åħļ":10162,"çİīç±³":10163,"å£ģåŀĴ":10164,"å°ĨæĿ¥":10165,"Ġinterp":10166,"è¿Ļä¸¤ç§į":10167,"Ġintrac":10168,"åºŁå¼ĥ":10169,"æĺĵäºİ":10170,"MB":10171,"å®ŀåľ¨":10172,"ç¤¾äº¤":10173,"Ġsuggests":10174,"Ġinterval":10175,"Ġdeli":10176,"orb":10177,"å´©":10178,"çļĦä¼łç»Ł":10179,"è¸ı":10180,"ä¸ºåŃ¦çĶŁ":10181,"åı¯ä»¥æł¹æį®":10182,"æĺ¯è¦ģ":10183,"çļĦæ¯Ķä¾ĭ":10184,"æľŁå¾ĴåĪĳ":10185,"å¹´çīĪ":10186,"Ġvent":10187,"æľ´":10188,"æ¸ħéĻ¤":10189,"Ġhere":10190,"å¿į":10191,"èĬ³":10192,"è¶ĬæĿ¥è¶Ĭå¤ļ":10193,"åıªæľīåľ¨":10194,"Ġabsence":10195,"æĶ¯æŁ±":10196,"åıĳæĶ¾":10197,"äººç±»åĳ½è¿Ĳåħ±åĲĮä½ĵ":10198,"Ġcorrelated":10199,"éĺ»æŃ¢":10200,"QL":10201,"Ġfacil":10202,"åľ°è¯´":10203,"åĲı":10204,"........":10205,"çİ¯å¢ĥæ±¡æŁĵ":10206,"ç»Łä¸ĢæĪĺçº¿":10207,"æ³ķåĪĻ":10208,"Ġcomponents":10209,"ä¸ºæĮĩå¯¼":10210,"åĽĽç§į":10211,"çļĦåīį":10212,"çĹķ":10213,"åłµ":10214,"ele":10215,"ĠGen":10216,"å¥łå®ļ":10217,"å¸ĪèĮĥå¤§åŃ¦":10218,"æ°´ç¨»":10219,"Ġhand":10220,"çŃīå¾ħ":10221,"äºĮåħĥ":10222,"å¼ĢåıĳçļĦ":10223,"éĻ¢å£«":10224,"è¶³ä»¥":10225,"åĨħéĥ¨çļĦ":10226,"åĴĮåİĨåı²":10227,"å¾®ä¿¡":10228,"SV":10229,"æĶ»åħ³":10230,"æĸ°çļĦåİĨåı²":10231,"å°ıç»ĵ":10232,"çī©ä»·":10233,"ä¸ĩçī©":10234,"åĴĮæķ°æį®":10235,"æİ§åĪ¶ç³»ç»Ł":10236,"èĥĮåĲİ":10237,"ä¸įä¹ħ":10238,"Ġsal":10239,"éĴ©":10240,"åĪĨå±Ĥ":10241,"éĥ½éľĢè¦ģ":10242,"ç»¼ä¸Ĭ":10243,"éħµ":10244,"Ġplace":10245,"Ġess":10246,"hest":10247,"ç»ıæµİæķĪçĽĬ":10248,"ify":10249,"Ġpatterns":10250,"æł¹æį®åľ°":10251,"ä¿±è¿Ľ":10252,"èĭ·":10253,"Ġcomparison":10254,"æĿĳåºĦ":10255,"çºµåĲĳ":10256,"ographic":10257,"éĢıè¿ĩ":10258,"åħįè´¹":10259,"è¢ģ":10260,"ç½®äºİ":10261,"Ġreduce":10262,"éĩĳèŀįæľįåĬ¡":10263,"çĲĨæĥ³ä¿¡å¿µ":10264,"Ġ80":10265,"echn":10266,"æ¡ĳ":10267,"Ġfund":10268,"æĶ¶è´¹":10269,"Ġleading":10270,"Ġconfirmed":10271,"ç´§ç´§":10272,"Ġperipher":10273,"çļĦåħ±åĲĮ":10274,"ä¸İåºĶçĶ¨":10275,"åĪĨç»Ħ":10276,"Ġskin":10277,"åħ¶ä¸Ģ":10278,"omas":10279,"çģµæ´»æĢ§":10280,"çľŁå®ŀæĢ§":10281,"åħ¨æĸ°çļĦ":10282,"æľĢå¤ļ":10283,"åģļçļĦ":10284,"Ġinterven":10285,"äººäºĭ":10286,"Ġdisorder":10287,"åľ¨åĽ½å®¶":10288,"Ġaffected":10289,"Ġinfections":10290,"èµ·äºĨ":10291,"ä»¥åħ¶":10292,"lish":10293,"å·²è¢«":10294,"æŀĹä¸ļ":10295,"å¤ĩæ¡Ī":10296,"å½ĵå¹´":10297,"é¢Ĩå¯¼äºº":10298,"lobal":10299,"ĠCo":10300,"æĸĩåĮĸå»ºè®¾":10301,"å¸ĪèµĦ":10302,"æł¡éķ¿":10303,"Ġconsistent":10304,"æľ¬ä½ĵ":10305,"arrow":10306,"mL":10307,"imum":10308,"regulation":10309,"åºķçº¿":10310,"ems":10311,"æľĪçĲĥ":10312,"çļĦåĬĽéĩı":10313,"ç»ıæµİå»ºè®¾":10314,"è¯Ńåı¥":10315,"æķĻåŃ¦æĸ¹æ³ķ":10316,"çļĦæķ°éĩı":10317,"çļĦæĪĲæľ¬":10318,"åŃ¦åĪĨ":10319,"eful":10320,"çŃīä¸Ģç³»åĪĹ":10321,"çļĦä¼ĺåĬ¿":10322,"Ġpopulations":10323,"çļĦæĸ¹åĲĳ":10324,"æĪĳä»¬å¿ħé¡»":10325,"Ġadult":10326,"ç¡Ŀ":10327,"Ġdetail":10328,"ä¼ļäº§çĶŁ":10329,"æĺ¾å¾®":10330,"æķ´æ²»":10331,"ç¼ĸè¯ĳ":10332,"ä¸İæĹ¶ä¿±è¿Ľ":10333,"çļĦè´¨éĩı":10334,"åĨ³å¿ĥ":10335,"ĠFigure":10336,"co":10337,"åºŁæ°´":10338,"PO":10339,"è¿ĩæ»¤":10340,"Ġtox":10341,"æĿĨèıĮ":10342,"è¿ĩåī©":10343,"æľĪä»½":10344,"Ġ\\*":10345,"ources":10346,"Ig":10347,"æº¶è§£":10348,"éħ¯":10349,"è¾ĥå¥½":10350,"çº¿ç´¢":10351,"Ġrapid":10352,"etal":10353,"èĢĥæŁ¥":10354,"å¹´èĩ³":10355,")(":10356,"ä¹ĭéģĵ":10357,"æ®¿":10358,"çĶ¨çĶµ":10359,"æł¸å¿ĥæĬĢæľ¯":10360,"æ¸ħä»£":10361,"ĠAp":10362,"è¿Ķè¿ĺ":10363,"æŀĦçŃĳ":10364,"Ġchann":10365,"åįģåħŃæĿ¡":10366,"è¯įæ±ĩ":10367,"çĶŁäº§æĢ»åĢ¼":10368,"éĦ":10369,"åºŁçī©":10370,"åİ»å¹´":10371,"é«ĺæķĪçļĦ":10372,"ç½ļæ¬¾":10373,"Ġversus":10374,"ä¿®åħ»":10375,"Ġmorph":10376,"ä»Ģä¹Īæł·çļĦ":10377,"æĵħ":10378,"æ³ķå¾ĭè´£ä»»":10379,"Ġ22":10380,"å¹´åĿĩ":10381,"Sp":10382,"ä¸»æľº":10383,"Ca":10384,"åŃĺåľ¨çļĦéĹ®é¢ĺ":10385,"èµĶåģ¿è´£ä»»":10386,"æķĪçİĩåĴĮ":10387,"çĶµåķĨ":10388,"Ġanimal":10389,"Ġä¸º":10390,"ä»Ķ":10391,"æĳ©æĵ¦":10392,"éļĭ":10393,"å®Įæķ´æĢ§":10394,"Ġparticularly":10395,"odel":10396,"ä¿®é¥°":10397,"çļĦäºĭå®ŀ":10398,"here":10399,"ç¦½":10400,"çī©ä¸ļ":10401,"æ¦ľ":10402,"ä¸ºçĽ®çļĦ":10403,"è¡·":10404,"æŀģå¤§çļĦ":10405,"çķ¸":10406,"çĪ±åĽ½ä¸»ä¹ī":10407,"ç§ī":10408,"ä»¥æĿ¥çļĦ":10409,"è¡Ģç³ĸ":10410,"==========":10411,"æ··ä¹±":10412,"ä¸įä»ħè¦ģ":10413,"è¾ĥå¥½çļĦ":10414,"istry":10415,"æľīæľĽ":10416,"æ°ĳä¿Ĺ":10417,"æĮ¯åĬ¨":10418,"çĽ´æİ¥å½±åĵį":10419,"ä¸īä¸ªæĸ¹éĿ¢":10420,"æĬµæĬĹ":10421,"Ġadap":10422,"å¸§":10423,"å¤·":10424,"å¼Ģå±ķäºĨ":10425,"åľ¨ä¸ĸçķĮ":10426,"éĹ®é¢ĺä¸Ĭ":10427,"ä¸ŃåĽ½åħ±äº§åħļäºº":10428,"åħ¶æīĢ":10429,"Ġcall":10430,"åİ»éĻ¤":10431,"äºīè®º":10432,"Ġremains":10433,"èĵ¬åĭĥ":10434,"å±ĢéĻĲæĢ§":10435,"åĺ±":10436,"ä¸īåĨľ":10437,"åıĳçĶŁåıĺåĮĸ":10438,"ç§ĳæĻ®":10439,"Ġpan":10440,"ç¢°æĴŀ":10441,"æĿ¥è¿Ľè¡Į":10442,"çļĦè¡¨è¾¾":10443,"ä¹łé¢ĺ":10444,"æĻļæľŁ":10445,"æĻºæħ§åŁİå¸Ĥ":10446,"bers":10447,"åħĪè¿ĽçļĦ":10448,"å±±æ°´":10449,"Ġcycle":10450,"Ġepithelial":10451,"äºĨä¸Ģç§į":10452,"å¤§æĪĺ":10453,"Ġlike":10454,"ç»ĵæł¸":10455,"aches":10456,"å°ıåŀĭ":10457,"GC":10458,"ĠSD":10459,"æµģå¤±":10460,"åįģå¹´ä»£":10461,"çļĦä¸Ģç³»åĪĹ":10462,"çĩķ":10463,"çĲĨå·¥":10464,"æŃ§è§Ĩ":10465,"åĨ¶":10466,"å¼ºçĥĪçļĦ":10467,"çĸ²":10468,"Ġevaluate":10469,"è¶ĬæĿ¥è¶Ĭå¤ļçļĦ":10470,"éļıæĦı":10471,"äº¤éĢļè¿Ĳè¾ĵ":10472,"Ġæĺ¯":10473,"ï¼ĵ":10474,"OH":10475,"çĽĨ":10476,"ä¹Łåı¯èĥ½":10477,"è¯»ä¹¦":10478,"ç¡¬åĮĸ":10479,"Ġreas":10480,"çī¹åĪ«æĺ¯åľ¨":10481,"Ġuni":10482,"æĲºå¸¦":10483,"ino":10484,"å¹¶ä¸įèĥ½":10485,"Ġstatistical":10486,"åħħçĶµ":10487,"å½¢åĬ¿ä¸ĭ":10488,"æĺ¯äººç±»":10489,"Ġkinase":10490,"Ġendothelial":10491,"éĥ¨éķ¿":10492,"ä¸»è¦ģçŁĽçĽ¾":10493,"èģĶåĤ¨":10494,"ç»ıéªĮçļĦ":10495,"priate":10496,"åħļç«ł":10497,"å¹²æ¶ī":10498,"Ġsmok":10499,"pecially":10500,"å®ĭä»£":10501,"åĲĪéĢĤçļĦ":10502,"Ġrelevant":10503,"åŃ¦çłĶç©¶":10504,"åĪĨæķ°":10505,"éĹ®é¢ĺåĴĮ":10506,"Ġsince":10507,"ings":10508,"BI":10509,"è¶³å¤ŁçļĦ":10510,"cohol":10511,"ç½ķ":10512,"Ġtransi":10513,"Ġfuture":10514,"å¯ĨéĴ¥":10515,"æľ¬è´¨ä¸Ĭ":10516,"Ġsuccess":10517,"Ġagg":10518,"Ġlipid":10519,"åįķä½įçļĦ":10520,"çŁ¢":10521,"æĺ¾çİ°":10522,"çķĻåľ¨":10523,"Ġneu":10524,"åĴĮé«ĺ":10525,"Ġlig":10526,"æĢĿæĥ³æĶ¿æ²»æķĻèĤ²":10527,"ä¼ĺè¶Ĭ":10528,"èĢ¶":10529,"Ġmaterial":10530,"Ġkid":10531,"å¤§åľ°":10532,"å»ºè®¾å·¥ç¨ĭ":10533,"å®ļåĲĳ":10534,"erate":10535,"ä¸ºéĩįçĤ¹":10536,"æ¢¦æĥ³":10537,"å¥½å¤Ħ":10538,"ç¨İçİĩ":10539,"positive":10540,"SF":10541,"ä¸ŃåĮ»èį¯":10542,"indow":10543,"åıĻè¿°":10544,"åį°åĪ·":10545,"MRI":10546,"æµ©":10547,"oding":10548,"æł¹åŁº":10549,"Ġrequire":10550,"Ġfile":10551,"çļĦåĩºçİ°":10552,"1990":10553,"åĲĮä¸Ģä¸ª":10554,"GE":10555,"Ġthough":10556,"è¡°ç«Ń":10557,"onic":10558,"ili":10559,"æĪĲäºº":10560,"æ³µ":10561,"éģ¥æĦŁ":10562,"æĭįåįĸ":10563,"å¿łè¯ļ":10564,"éĿ©åĳ½åĴĮ":10565,"Ġincidence":10566,"é«ĺè´¨éĩıåıĳå±ķçļĦ":10567,"ç¦ħ":10568,"åĲĽä¸»":10569,"åĴĮä½¿çĶ¨":10570,"PR":10571,"åħħåĪĨçļĦ":10572,"éĩįå¤§çļĦ":10573,"ä¹ĭä¸ĢçļĦ":10574,"rolog":10575,"çģµæķı":10576,"æĪĲåĬŁçļĦ":10577,"æ¸Ĳè¿Ľ":10578,"verex":10579,"çļĦæĢģåº¦":10580,"è¿ĺä¼ļ":10581,"ç¼ĵåŃĺ":10582,"ä¸Ĭå±Ĥ":10583,"åĲ¾":10584,"éĩĩæł·":10585,"åĬ³åĬ¨äºīè®®":10586,"èįīåİŁ":10587,"æĸ¤":10588,"çķħéĢļ":10589,"èĥ°å²Ľ":10590,"åı¦æľī":10591,"åıĳå±ķåĪ°":10592,"æĬĵå¥½":10593,"æł¸å¿ĥç´łåħ»":10594,"æĪĺå½¹":10595,"inflamm":10596,"æĹ¥åĨħ":10597,"Ġfinal":10598,"Ġve":10599,"çļĦèīºæľ¯":10600,"æĢ§çĸ¾çĹħ":10601,"Ġdomain":10602,"Ġregression":10603,"æµĭåºı":10604,"TC":10605,"å°±æ²¡æľī":10606,"yg":10607,"ik":10608,"åŃ¦ä¹łèĢħ":10609,"leep":10610,"Ġgast":10611,"åıĳçļĦ":10612,"ä»ĺæ¬¾":10613,"åºĶæľī":10614,"care":10615,"åĽŃæŀĹ":10616,"çĶŁäº§çİĩ":10617,"çļĦå¤ĦçĲĨ":10618,"Ġquantif":10619,"åĪ¤å®ļ":10620,"çĲĨäºĭ":10621,"è¯Ńå¢ĥ":10622,"äººä¸ºæľ¬":10623,"ç§»æ°ĳ":10624,"Ġlog":10625,"ä¸ĭä¸Ģ":10626,"Ġ37":10627,"åı¯çĶ¨äºİ":10628,"çļĦä¸ĢäºĽ":10629,"ä¸įæĸŃæıĲåįĩ":10630,"å»¶å®ī":10631,"çº¢å¤ĸ":10632,"æĪĺåĽ½":10633,"çļĦçĲĨå¿µ":10634,"åħ¨ä¸ĸçķĮ":10635,"æķ°éĩıçļĦ":10636,"ä¾¿æį·":10637,"Ġsci":10638,"å»ºè®¾çĶ¨åľ°":10639,"Ġmolecules":10640,"ä½ķç§į":10641,"Ġangi":10642,"æĸ°åħ´äº§ä¸ļ":10643,"ç«¯åı£":10644,"SH":10645,"0001":10646,"æĸ°åıĳå±ķæł¼å±Ģ":10647,"æī¿ç§Ł":10648,"ç¾¤ä½ĵçļĦ":10649,"Ġvess":10650,"åĪĴåĪĨä¸º":10651,"çĶŁçī©å¤ļæł·æĢ§":10652,"ä¸ĭåİ»":10653,"æľīåĵªäºĽ":10654,"ä¸Ŀç»¸ä¹ĭè·¯":10655,"ç«ŀèµĽ":10656,"èĬĤå¥ı":10657,"æĹ¶éĹ´åĴĮ":10658,"åįģä¸īäºĶ":10659,"çŃīæĬĢæľ¯":10660,"Ġanother":10661,"Ġdecision":10662,"ç»ĺåĪ¶":10663,"æľīåħ¶":10664,"ç½ªçļĦ":10665,"æ³ķåħ¸":10666,"PM":10667,"Ġ>":10668,"Ġgenerated":10669,"åºĶå½ĵåľ¨":10670,"Ġplat":10671,"åĪ¶åº¦å»ºè®¾":10672,"Ġair":10673,"çķı":10674,"æ±¤":10675,"å¿ħé¡»åľ¨":10676,"è§ĦåĪĴåĴĮ":10677,"çļĦéĩįè¦ģåĨħå®¹":10678,"æĢĿæĶ¿è¯¾":10679,"Ġstrategies":10680,"æĶ¿åºľéĥ¨éĹ¨":10681,"æī§è¡ĮçļĦ":10682,"Ġpref":10683,"æĥŁ":10684,"yth":10685,"ĠInc":10686,"åĨ·åį´":10687,"éĢļè·¯":10688,"åįĥå¹´":10689,"associated":10690,"Ġpregn":10691,"å¤¯å®ŀ":10692,"åħħè¶³":10693,"}\\":10694,"ä¸Ģéĥ¨":10695,"æ»¨":10696,"âĢĿãĢģ":10697,"åħ¨éĿ¢çļĦ":10698,"rated":10699,"Ġactivated":10700,"äºĶå¤§":10701,"åĥµ":10702,"åįģä¸ĥæĿ¡":10703,"è¡ĮæĶ¿è¡Įä¸º":10704,"å½Ĵå±ŀ":10705,"Ġimplement":10706,"Ġsupplement":10707,"è´£ä»¤":10708,"åĴĮåĽ½éĻħ":10709,"Ġreal":10710,"çº³ç¨İäºº":10711,"å®½æĿ¾":10712,"ash":10713,"æĦıè¯ĨåĪ°":10714,"ĠĠĠĠĠĠĠĠĠĠĠĠĠĠĠĠĠĠĠĠĠĠ":10715,"ä¸ºæľ¬":10716,"aid":10717,"ĠMRI":10718,"æ³Ħéľ²":10719,"æīĢè¯´çļĦ":10720,"è¯Ńä¹ī":10721,"Ġaccum":10722,"\")":10723,"Ġbiomark":10724,"ä¸įæĺĵ":10725,"è¿Ľåĩºåı£":10726,"èµ·æŃ¥":10727,"ä¸Ľ":10728,"ä¸įæĸŃå¢ŀå¼º":10729,"ä¹Łä¸įæĺ¯":10730,"tle":10731,"è¯¾é¢ĺç»Ħ":10732,"Ġerr":10733,"ĠOne":10734,"Ġoptim":10735,"ä¸İä¼ģä¸ļ":10736,"åĬ¨æīĭ":10737,"éĩİçĶŁ":10738,"çŀ¬":10739,"å½ĵæĹ¶çļĦ":10740,"è¶Ĭé«ĺ":10741,"ĠAss":10742,"åħ¨èº«":10743,"èħºçĻĮ":10744,"ī¤":10745,"ä¸ºä¸ŃåĽ½":10746,"æ¸¯æ¾³":10747,"æĸ°åĨłèĤºçĤİ":10748,"Ġcardiovascular":10749,"æĪĸè®¸":10750,"çļĦç»¼åĲĪ":10751,"æ¯ħ":10752,"Ac":10753,"åħ·æľīéĩįè¦ģæĦıä¹ī":10754,"----------------------------":10755,"æĹ¥è¶ĭ":10756,"Ġexist":10757,"åĵªéĩĮ":10758,"ç®¡éģĵ":10759,"Ġoste":10760,"ĠĠĠĠĠĠĠĠĠĠĠĠĠĠĠĠĠĠĠ":10761,"çī©çĲĨåŃ¦":10762,"æī£éĻ¤":10763,"å°ģè£ħ":10764,"Ġcontribute":10765,"group":10766,"å®ŀæķĪ":10767,"æĪĲåĳĺåĽ½":10768,"600":10769,"å¸®åĬ©åŃ¦çĶŁ":10770,"ç¾İå¥½çĶŁæ´»":10771,"çĬ¯ç½ªå«Įçĸĳ":10772,"Ġquantit":10773,"è¿İæĿ¥":10774,"éħ®":10775,"çĶ¨èį¯":10776,"æµı":10777,"operative":10778,"orescence":10779,"Ġinteractions":10780,"éĢīæĭĶ":10781,"æ²»çĲĨä½ĵç³»":10782,"\"ï¼Į":10783,"è¿Ļæĺ¯ä¸Ģä¸ª":10784,"ä¾ĭå¤ĸ":10785,"Ġleuk":10786,"çļĦçİ°å®ŀ":10787,"çŁ³å¢¨":10788,"å¹¶åŃĺ":10789,"Ġmicroscop":10790,"ä¸Ģè¯į":10791,"æµ¦":10792,"chem":10793,"åĮ»çĸĹåį«çĶŁ":10794,"å»Ĭ":10795,"çļĦè®¡ç®Ĺ":10796,"å¤ļé¡¹":10797,"åħ¬å¹³æŃ£ä¹ī":10798,"NK":10799,"çļĦä¸ĵä¸ļ":10800,"1978":10801,"Ġdistinc":10802,"åĨ¯":10803,"ä¸Ģçº¿":10804,"Ġhost":10805,"çĶ²åŁº":10806,"\"})":10807,"æĶ¹éĿ©åıĳå±ķ":10808,"1949":10809,"æĶ¶åħ¥åĪĨéħį":10810,"Ġpulmonary":10811,"ĠåĽĽ":10812,"rm":10813,"Ġemerg":10814,"Ġdyn":10815,"ĠSh":10816,"åİŁæľīçļĦ":10817,"Ġconc":10818,"èĢĥçĶŁ":10819,"ĠMedical":10820,"otypes":10821,"åħ±çĶŁ":10822,"å¯ĨåĪĩçĽ¸åħ³":10823,"Ġç¬¬ä¸ĢèĬĤ":10824,"èĥļèĥİ":10825,"åıĭå¥½":10826,"æ»¤æ³¢":10827,"çŁ¥è¯ĨåĪĨåŃĲ":10828,"================================":10829,"çģ«ç®Ń":10830,"ĠĠĠĠĠĠĠĠĠĠĠĠĠĠĠĠĠĠĠĠĠ":10831,"è®²æİĪ":10832,"åīĬå¼±":10833,"èµ·èįī":10834,"åĨĻåħ¥":10835,"å¸Ĥåľºä¸Ĭ":10836,"éĥ½ä¸į":10837,"Ġmacrophages":10838,"æľ¬ç«Ļ":10839,"rup":10840,"åħ¨ä½ĵäººæ°ĳ":10841,"ç½ĳç»ľç©ºéĹ´":10842,"å®ŀçİ°å¯¹":10843,"èĩªè´¸":10844,"ç»ĵæŀĦæĢ§æĶ¹éĿ©":10845,"åĬłçĥŃ":10846,"æķĻå¸Īè¦ģ":10847,"pite":10848,"ä¸İæĬĢæľ¯":10849,"åŁºç¡ĢçłĶç©¶":10850,"è¿ĺåºĶ":10851,"rotein":10852,"ç»ıè´¸":10853,"Ġfluid":10854,"æ±Łè¥¿":10855,"Ġview":10856,"Ġneeded":10857,"åĪĽæĸ°é©±åĬ¨":10858,"Ġmeans":10859,"èĥ½åĬ¨":10860,"åıįåŀĦæĸŃ":10861,"ä¸ŃæľĢ":10862,"èĹ»":10863,"ä¼´éļı":10864,"ä¸Ģå®¶":10865,"åŁºæľ¬åİŁåĪĻ":10866,"åĿĬ":10867,"åĤ¨èĵĦ":10868,"âĹı":10869,"Ġespecially":10870,"ä¸ªäººä¿¡æģ¯ä¿ĿæĬ¤":10871,"ä¸İåĽ½éĻħ":10872,"åħ³éĶ®æĬĢæľ¯":10873,"Li":10874,"erve":10875,"çİ°ä»£åĨľä¸ļ":10876,"ilt":10877,"è¢«å®³äºº":10878,"Ġuseful":10879,"PPP":10880,"çļĦä¿ĿæĬ¤":10881,"rich":10882,"ç®¡çĲĨä½ĵåĪ¶":10883,"ä¸İå®ŀè·µ":10884,"æĭĵæīĳ":10885,"Ġdifficult":10886,"è¿Ĳè½¬":10887,"çļĦèĩªçĦ¶":10888,"ç¾İèģĶåĤ¨":10889,"çļĦçī©è´¨":10890,"Ġtop":10891,"bit":10892,"Ġadults":10893,"ä¸Ģèĩ´æĢ§":10894,"çŃĸåĪĴ":10895,"çĨŁç»ĥ":10896,"å¤§åŃ¦çļĦ":10897,"ä»¥åıĬåħ¶ä»ĸ":10898,"çĽ´çº¿":10899,"irus":10900,"åıĳæĮ¥çĿĢ":10901,"èĢģé¾Ħ":10902,"ĠNot":10903,"åįģäºĶæĿ¡":10904,"æľĢå¥½":10905,"è½¨è¿¹":10906,"éĩĩçĶ¨äºĨ":10907,"ä¹ŁéľĢè¦ģ":10908,"åıĹæįŁ":10909,"Ġinvestigate":10910,"ä»ĸä»¬åľ¨":10911,"éĿ¶åĲĳ":10912,"é«ĺè¡Ģåİĭ":10913,"èĳĹåĲįçļĦ":10914,"Ġspecies":10915,"é©¬åħĭæĢĿä¸»ä¹īä¸ŃåĽ½åĮĸ":10916,"æķĮäºº":10917,"èĶ¬":10918,"æħĪåĸĦ":10919,"Ġpower":10920,"Ġç¬¬åĽĽ":10921,"æĹ¥å¸¸çĶŁæ´»":10922,"çĭĤ":10923,"éĿ©æĸ°":10924,"æĶ¹ä¸º":10925,"ä¸ĸçķĮè§Ĥ":10926,"Ġresearchers":10927,"æĨ":10928,"è¢«è®¤ä¸ºæĺ¯":10929,"DC":10930,"duces":10931,"Ġpaper":10932,"ii":10933,"è¿Ľåº¦":10934,"bor":10935,"Ġliterature":10936,"çļĦæİ§åĪ¶":10937,"åİŁæĿĲæĸĻ":10938,"åĲ¦è®¤":10939,"åıĳè¨Ģ":10940,"å¹³è¡Į":10941,"åľ¨æľ¬":10942,"æĢĢçĸĳ":10943,"åĩıå°ı":10944,"ĠInstitute":10945,"æĸĩæ¡£":10946,"çĶ±æŃ¤åı¯è§ģ":10947,"ä¾ĽçĶµ":10948,"é¢ĨåľŁ":10949,"æĪĳçļĦ":10950,"åĳ½åĲį":10951,"ä¸įæĩĪ":10952,"åºĶä»¥":10953,"æłĩåĩĨåĴĮ":10954,"æ¬£èµı":10955,"é¡½":10956,"å±ķæľĽ":10957,"èĩªæĪĳéĿ©åĳ½":10958,"å®ĥåľ¨":10959,"åŁºç¡ĢæĢ§":10960,"æ¾³éĹ¨":10961,"icacy":10962,"åĿĩä¸º":10963,"Ġsupported":10964,"å¤±æķĪ":10965,"çİ°å®ŀçļĦ":10966,"Ġcarcinoma":10967,"è¿Ħ":10968,"æļĤæĹ¶":10969,"ĠSim":10970,"Ġyoung":10971,"Ġtoward":10972,"åį°è±¡":10973,"è¡¥åĬ©":10974,"åıłåĬł":10975,"arding":10976,"Ġcharacterized":10977,"Ġtemper":10978,"èĶ¡":10979,"å¥Ķ":10980,"estinal":10981,"æį®æŃ¤":10982,"åĩºçİ°åľ¨":10983,"å¸Ĥåľºç«ŀäºī":10984,"åĲĪçĲĨæĢ§":10985,"å¹´å¼Ģå§ĭ":10986,"æ±¡æŁĵéĺ²æ²»":10987,"æĺ¯ä¼ģä¸ļ":10988,"Ġmonitor":10989,"æĸ°æĹ¶æľŁ":10990,"Ġsecondary":10991,"æķ°æį®éĽĨ":10992,"Ġç¬¬äºĮèĬĤ":10993,"Ġdim":10994,"åĢ¾æĸľ":10995,"çĽ´èĩ³":10996,"è§īå¾Ĺ":10997,"Ġtrac":10998,"den":10999,"æľºåĬ¨è½¦":11000,"åĲĳåīį":11001,"OC":11002,"å¹¶ä»¥":11003,"å¹¶æĹł":11004,"Ġcauses":11005,"æī¾åĩº":11006,"åĽ½åĢº":11007,"Ġapproxim":11008,"ç»ıæµİåŃ¦å®¶":11009,"Ġupon":11010,"Ġoxygen":11011,"å¤¸":11012,"åĩıå°ĳäºĨ":11013,"åİĭè¿«":11014,"Ġtransfer":11015,"å¿ĥè¡Ģç®¡":11016,"dom":11017,"ales":11018,"ä½įçļĦ":11019,"ifically":11020,"umor":11021,"ä¼ļåĳĺ":11022,"çº¯ç²¹":11023,"Ġ48":11024,"æĥ³æ³ķ":11025,"èī°å·¨":11026,"è¿Ļä¸İ":11027,"è¾±":11028,"åħ·æľīä¸Ģå®ļçļĦ":11029,"omal":11030,"åĪĽæĸ°åıĳå±ķ":11031,"Ġimpair":11032,"æīĢèĩ´":11033,"æĺ¯ç¤¾ä¼ļ":11034,"åħ¬åĬ¡åĳĺ":11035,"çļĦæĶ¹éĿ©":11036,"Ġhypothesis":11037,"éĩįå¡ĳ":11038,"è¯Ńæ³ķ":11039,"æ·ĺ":11040,"éĢ¾":11041,"è®¤è¯ĨåĴĮ":11042,"å¯¹æīĭ":11043,"åŃ¦åİĨ":11044,"æŁĲæŁĲ":11045,"state":11046,"ĠĠĠĠĠĠĠĠĠĠĠĠĠĠĠĠĠĠĠĠĠĠĠ":11047,"çĶµæľº":11048,"âĢĲ":11049,"åħĦ":11050,"NT":11051,"çļĦè¡¨çİ°":11052,"Ġprovides":11053,"ä»ĵåºĵ":11054,"çººç»ĩ":11055,"Ġä»¥":11056,"Ġrespiratory":11057,"è¿Ļä¸¤":11058,"æĬĳåĪ¶åīĤ":11059,"æĦıå¤§åĪ©":11060,"å¿ĥçĲĨåģ¥åº·":11061,"çłĶç©¶äºĨ":11062,"ąą":11063,"Ġscreening":11064,"è¿Ŀè§Ħ":11065,"å¤ĦçĲĨå¥½":11066,"ä¸ŃåĽ½åı¤ä»£":11067,"Ġlimit":11068,"Ġperipheral":11069,"Ġfood":11070,"\"ãĢģ":11071,"ä»ĭçŁ³":11072,"è¶ħçº§":11073,"Ġposition":11074,"otic":11075,"åħļæĶ¿":11076,"Ġaden":11077,"çİ°éĺ¶æ®µ":11078,"çĲĨè®ºä½ĵç³»":11079,"cepti":11080,"[^":11081,"å®ļåĪ¶":11082,"Ġwild":11083,"æĶ¹èī¯":11084,"éħįå¤ĩ":11085,"æ°¸ä¹ħ":11086,"åı¯ä»¥çĶ¨":11087,"åĪĨæĪĲ":11088,"Ġestablished":11089,"Ġtrig":11090,"åįłçĶ¨":11091,"Ġ**(":11092,"è¯¾æĹ¶":11093,"é¡¶å±Ĥè®¾è®¡":11094,"è¡ĮæĺŁ":11095,"ĆĆ":11096,"éĩįè¦ģæĢ§":11097,"å»ºåħļ":11098,"åĴĮç»Ħç»ĩ":11099,"ä¸Ńå¯¹":11100,"åĴĮä¸ªäºº":11101,"æİ¥çĿĢ":11102,"åħļåĳĺå¹²éĥ¨":11103,"æŁ¥çľĭ":11104,"Ġwhole":11105,"èĪ±":11106,"å¢ŀæ®ĸ":11107,"ç¼Ķçº¦":11108,"Ġcorresponding":11109,"å®ļçĲĨ":11110,"Ġhyd":11111,"è¿Ŀæ³ķè¡Įä¸º":11112,"Ġhome":11113,"Ġdensity":11114,"åıĤè§ģ":11115,"åº§è°Ī":11116,"èµ·åĪ°äºĨ":11117,"Ġexerc":11118,"æĦ¿æľĽ":11119,"æ³¡æ²«":11120,"å½ĵå±Ģ":11121,"æ·±åħ¥æİ¨è¿Ľ":11122,"æķ°åŃĹæĬĢæľ¯":11123,"éĿ¢è²Į":11124,"äºĭä¸ļåıĳå±ķ":11125,"Ġmetabolism":11126,"å¥¶":11127,"æĬķèµĦçļĦ":11128,"åı¯ä»¥æĺ¯":11129,"Ġmalign":11130,"åĪĳäºĭè´£ä»»":11131,"éģŃåĪ°":11132,"hood":11133,"äºĶåĽĽ":11134,"éĩįå¿ĥ":11135,"ä¼ļå¯¹":11136,"Ġpossi":11137,"æ·±åİļ":11138,"åĨħå¿ĥ":11139,"ogenous":11140,"åĴĮç²¾ç¥ŀ":11141,"åı²æĸĻ":11142,"èĴĭä»ĭçŁ³":11143,"åĪ©çĶ¨çİĩ":11144,"ç»ĻåŃ¦çĶŁ":11145,"è¿ĽæĶ»":11146,"æľīéĻĲçļĦ":11147,"çŁŃç¼º":11148,"OD":11149,"æ¬ºè¯Ī":11150,"immun":11151,"åĪĽæĸ°åŀĭ":11152,"ĠNF":11153,"åįģä¹ĿæĿ¡":11154,"æłĪ":11155,"åĴĮè§£":11156,"åİŁæľ¬":11157,"åĮł":11158,"Ġmuch":11159,"æĢ»çĲĨ":11160,"å·¥ä¼¤":11161,"Ġtoget":11162,"Ġtogether":11163,"ä¸įæŃ£å½ĵ":11164,"èĲĮ":11165,"éĤ£éĩĮ":11166,"Ġrecru":11167,"ä¸ľäºļ":11168,"Ġhours":11169,"æģ¶åĮĸ":11170,"çĲĨæĢ§çļĦ":11171,"Ġent":11172,"Ġsumm":11173,"ä¸´åºĬè¯ķéªĮ":11174,"çļĦéĢŁåº¦":11175,"ç»Ļä»ĺ":11176,"è¾īçħĮ":11177,"002":11178,"æł½":11179,"å®ļä¹īä¸º":11180,"åı¯çŁ¥":11181,"åĮºéĹ´":11182,"Ġmid":11183,"èĩªåŃ¦":11184,"çĲĨè®ºåĪĽæĸ°":11185,"æł¡ä¼ģ":11186,"æĢ§è´¨çļĦ":11187,"reshold":11188,"æĭĽæłĩ":11189,"é¢łè¦Ĩ":11190,"åįģåħ«æĿ¡":11191,"åºķå±Ĥ":11192,"äº¤æĺĵæīĢ":11193,"éģıåĪ¶":11194,"ird":11195,"å¥´éļ¶":11196,"ç¤¾ä¼ļåıĳå±ķ":11197,"ĠAmeric":11198,"æ³ķå¾ĭåĪ¶åº¦":11199,"åĳ¨æģ©":11200,"æµıè§Ī":11201,"é¢ĦåĲİ":11202,"åīįéĿ¢":11203,"WTO":11204,"Ġdirec":11205,"åı¯ä¿¡":11206,"Ġinterventions":11207,"Ġcytokines":11208,"elf":11209,"èĩªå¾ĭ":11210,"éĻĨç»Ń":11211,"Ġcontext":11212,"æķĻçłĶ":11213,"éĵ¾è·¯":11214,"æİĴæĸ¥":11215,"åĮºåŁŁçļĦ":11216,"å¿ĥçģµ":11217,"ä¼łæŁĵçĹħ":11218,"æľ¬èº«çļĦ":11219,"åĽ½å®¶æ²»çĲĨä½ĵç³»åĴĮæ²»çĲĨèĥ½åĬĽ":11220,"ä¹¾":11221,"æİ§èĤ¡":11222,"åħ¨éĿ¢å»ºè®¾ç¤¾ä¼ļä¸»ä¹īçİ°ä»£åĮĸåĽ½å®¶":11223,"å½Ń":11224,"å°ĨæĪĲä¸º":11225,"èĲİ":11226,"åħ¨çĲĥç»ıæµİ":11227,"æĿ¥èĩªäºİ":11228,"Ġâī¥":11229,".)":11230,"çĹħæĥħ":11231,"æŁĶæĢ§":11232,"è¥¿å®ī":11233,"èĮĥåĽ´çļĦ":11234,"æĲı":11235,"çĽ®åīįçļĦ":11236,"å¹¿è¥¿":11237,"åľ°ä½įåĴĮ":11238,"au":11239,"Ġagents":11240,"Ġimproved":11241,"è¦ģåĬłå¼º":11242,"CIT":11243,"Ġdeveloping":11244,"éĩĮç¨ĭ":11245,"Ġcm":11246,"artment":11247,"åĴĮæİ§åĪ¶":11248,"è¢«è§Ĩä¸º":11249,"æ°ĳæĹıçļĦ":11250,"åĲĳéĩı":11251,"FD":11252,"ae":11253,"è§ĦèĮĥçļĦ":11254,"ä¸Ĭæµ·å¸Ĥ":11255,"tered":11256,"æĹ¢çĦ¶":11257,"Ġincubated":11258,"ç¥ŀè¯Ŀ":11259,"ä¸įåı¯éģ¿åħį":11260,"è¿Ľåħ¥äºĨ":11261,"Ġbeta":11262,"ä¸ĬäºĨ":11263,"å®ŀè´¨æĢ§":11264,"Ġdri":11265,"åĲ¹":11266,"å¾ĹåĪ°çļĦ":11267,"ç«ĭæ¡Ī":11268,"Ġelevated":11269,"LL":11270,"çī¢è®°":11271,"æĹłäººæľº":11272,"åĪĨæŃ§":11273,"Ġphenotype":11274,"ç³»ç»ŁåĴĮ":11275,"èĴĤ":11276,"æľīæĹł":11277,"æķ²":11278,"åŃª":11279,"Web":11280,"çĿ¡çľł":11281,"çī¢åĽº":11282,"ç»ıèĲ¥ç®¡çĲĨ":11283,"å¦Ĥæŀľæ²¡æľī":11284,"åİĮ":11285,"Ġcombined":11286,"çŃ¾åĲį":11287,"åľ¨ä¸Ģ":11288,"æıĲéĹ®":11289,"2030":11290,"çªģçĦ¶":11291,"Ġterms":11292,"ç¼ĵåĨ²":11293,"å¹´ä¸ŃåĽ½":11294,"çİĽ":11295,"mb":11296,"åĴĮçłĶç©¶":11297,"ä»ĸè¯´":11298,"åĭ¾":11299,"è®¾æĥ³":11300,"ä¸ºåŁºç¡ĢçļĦ":11301,"åħ½":11302,"EG":11303,"è¦ģä»İ":11304,"æııç»ĺ":11305,"Ġderived":11306,"åħĨ":11307,"Ġinduce":11308,"ĠĊĠĠĠĠĠĠĠĠĠĠĠĠĠĠĠ":11309,"åģļåĩºäºĨ":11310,"æ¸ħçĲĨ":11311,"è§ĦèĮĥæĢ§":11312,"ç§¯åĪĨ":11313,"åħ¶ä¸»è¦ģ":11314,"æĢĸ":11315,"åıĬçĽ¸åħ³":11316,"å¾Ĺå¤ļ":11317,"ä¸ĬéĿ¢":11318,"ç¡®å®ļäºĨ":11319,"æ¯Ķçī¹":11320,"æľªæľī":11321,"Ġlat":11322,"çĲĨæĶ¿":11323,"Wh":11324,"éĺŁåĪĹ":11325,"ĠNe":11326,"1995":11327,"urg":11328,"æµ·åħ³":11329,"oz":11330,"æĺİä»£":11331,"ä¸ĵåĪ¶":11332,"ç¬ĳ":11333,"ĠPre":11334,"En":11335,"ä¹Łè®¸":11336,"1994":11337,"çģ¶":11338,"æĹ¥åĨĽ":11339,"Ġobj":11340,"Ġunderlying":11341,"ä¸ºä¼ģä¸ļ":11342,"ç¤¾ä¼ļä¿ĿéĻ©":11343,"Ġadministration":11344,"æĸ¯çī¹":11345,"æĺİçĻ½":11346,"alpha":11347,"æľ¬ä¸ĵä¸ļ":11348,"Ġcapac":11349,"åħ¨åĽ½åĲĦæĹıäººæ°ĳ":11350,"ä»¥å¤ĸçļĦ":11351,"otal":11352,"Ġaction":11353,"Ġcountries":11354,"ç´łè´¨æķĻèĤ²":11355,"ayer":11356,"åħ³ç³»åĪ°":11357,"å¾ģæ±Ĥ":11358,"æĺ¯éĿŀå¸¸":11359,"æľºä½ĵ":11360,"ä»ĸäººçļĦ":11361,"åħĪå¤©":11362,"uter":11363,"åĨħçĶŁ":11364,"æŀ¯":11365,"åĴĮå¸Ĥåľº":11366,"æ»ļ":11367,"åı«åģļ":11368,"ä¸įå¦Ĥ":11369,"æŁ³":11370,"çĹħåĽł":11371,"ISO":11372,"',":11373,"çĽ¸åħ³æĢ§":11374,"ĠĊĠ":11375,"ç»ĦçļĦ":11376,"ä¸Ģä½į":11377,"å¼ĢåıĳåĪ©çĶ¨":11378,"åīįçŀ»":11379,"è¿Ĳè¡ĮçļĦ":11380,"æıĴåħ¥":11381,"ç¤¾ä¼ļè´£ä»»":11382,"Ġä¸ª":11383,"Ġinduction":11384,"Ġ23":11385,"è¶ħåĩº":11386,"Ġconsider":11387,"uth":11388,"Ġ;":11389,"Ġcortex":11390,"ä¼łæİĪ":11391,"ils":11392,"ç»ĵæĻ¶":11393,"ç»ĵæŀľçļĦ":11394,"æ¦Ĥå¿µçļĦ":11395,"eral":11396,"æ±ĩèģļ":11397,"ä¼łéĢģ":11398,"æĪĲæľ¬çļĦ":11399,"Ġ28":11400,"ĠSer":11401,"Ġrecently":11402,"èĬĤçľģ":11403,"æģĲæĢĸ":11404,"çŁ£":11405,"æľįè£ħ":11406,"åĽ½éĻħåĲĪä½ľ":11407,"Ġinhibitors":11408,"ï¼ķ":11409,"æ¬¡ä¼ļè®®":11410,"ç²¾èĭ±":11411,"æĪĲä¸ºäºĨ":11412,"å¸ĥç½®":11413,"çŃīçĽ¸åħ³":11414,"è®²è¿°":11415,"æ°ĳèĲ¥ä¼ģä¸ļ":11416,"Ġsaf":11417,"åĩıå¼±":11418,"æ¬¾è§Ħå®ļ":11419,"èĩªå¼º":11420,"ĠDe":11421,"åĮĹäº¬å¤§åŃ¦":11422,"icians":11423,"çļĦæĦıè§ģ":11424,"ç¼ļ":11425,"å¤±è¡¡":11426,"äº¤éĢļäºĭæķħ":11427,"é«ĺæĸ°æĬĢæľ¯":11428,"åħ¶äºĮ":11429,"åĮħåĲ«äºĨ":11430,"æĬĢæľ¯çļĦåıĳå±ķ":11431,"åıĳçİ°çļĦ":11432,"ä»¥ä¸ĭåĩł":11433,"åĬłå¤§å¯¹":11434,"Ġcomplete":11435,"éĺŁä¼įå»ºè®¾":11436,"olester":11437,"åı²åŃ¦":11438,"æĭīåĬ¨":11439,"æ²¿çĿĢ":11440,"æĮ«":11441,"enz":11442,"MC":11443,"ä¸ŃåĽ½äºº":11444,"æ°´è´¨":11445,"Ġsignificance":11446,"åŁºçĿ£":11447,"Ġstrains":11448,"å¸Ĳ":11449,"æŀģéĻĲ":11450,"neum":11451,"Java":11452,"ç¤¾ä¼ļä¸»ä¹īå»ºè®¾":11453,"æ¬§ç¾İ":11454,"ostic":11455,"çŃīåľ°":11456,"ä½Ĩä¸į":11457,"ye":11458,"éĹ´éļĶ":11459,"Ġalone":11460,"ç©Ĩ":11461,"æŀĦæĪĲçļĦ":11462,"éĢĤåºĶæĢ§":11463,"1996":11464,"èĢĢ":11465,"çľĭå¾ħ":11466,"æľįåĬ¡äºİ":11467,"åıĳå±ķè¶ĭåĬ¿":11468,"éĺĲè¿°äºĨ":11469,"BL":11470,"Ġessential":11471,"ee":11472,"åľ¨è¿ĻäºĽ":11473,"è¿ĳä¼¼":11474,"cers":11475,"emic":11476,"æĺ¯ä¸İ":11477,"ç½¢":11478,"æ£Ĵ":11479,"çĶ¨ä»¥":11480,"Ġparen":11481,"èĭ¥å¹²éĹ®é¢ĺçļĦ":11482,"åĲ¯èĴĻ":11483,"çŁ«":11484,"Ġpoints":11485,"èĩŃ":11486,"æ±°":11487,"æĥ³è¦ģ":11488,"Ġcompos":11489,"èĩªçĶ±ä¸»ä¹ī":11490,"pH":11491,"åĬłæĭ¿":11492,"å®īåħ¨çĶŁäº§":11493,"Ġdesigned":11494,"Ġneural":11495,"çļĦä¸ľè¥¿":11496,"è¿Ħä»Ĭ":11497,"çĶµç«Ļ":11498,"åħīåŃĲ":11499,"åı¸æ³ķæľºåħ³":11500,")ãĢĭ":11501,"ç±»ä¼¼äºİ":11502,"æľīæľŁå¾ĴåĪĳ":11503,"åĨħéľĢ":11504,"è¾¾å³°":11505,"åĪĨæŀĲæĸ¹æ³ķ":11506,"fold":11507,"åįĴ":11508,"ories":11509,"åĩłåįģ":11510,"éģŃéģĩ":11511,"Ag":11512,"è´¢ç»ı":11513,"ç»¿èī²ä½İç¢³":11514,"å³¡":11515,"EGF":11516,"èĤĸ":11517,"å°Ĭä¸¥":11518,"äººç±»æĸĩæĺİ":11519,"çļĦæľįåĬ¡":11520,"ĠÂµ":11521,"åŃ¦åīį":11522,"æįŁå®³çļĦ":11523,"ãĥ»":11524,"èī°éļ¾":11525,"å¿ħè¦ģæĢ§":11526,"æ³ķæ¡Ī":11527,"é¢Ħè§ģ":11528,"çº¢åĪ©":11529,"ä»·æ¬¾":11530,"OT":11531,"Ġduration":11532,"Ġplac":11533,"Ġwhat":11534,"âĢĿï¼Ľ":11535,"æīĢæľīèĢħ":11536,"æ²»åĽ½çĲĨæĶ¿":11537,"åĩºåľŁ":11538,"è¿ĺåľ¨":11539,"çļĦç»Łä¸Ģ":11540,"ä½İæ¸©":11541,"GP":11542,"çĶµèį·":11543,"é¾Ļå¤´":11544,"ä¸Ĭæ¸¸":11545,"Ġdon":11546,"ä¿ĦåĽ½":11547,"Ġproperties":11548,"Ġprote":11549,"çıŃçº§":11550,"æĬĹæĹ¥æĪĺäºī":11551,"åĽ½å®¶æľºåħ³":11552,"åħ¶ä½Ļ":11553,"æĲľéĽĨ":11554,"éĢłåŀĭ":11555,"ä¸įçŁ¥":11556,"Ġmigration":11557,"éķ¿æĹ¶éĹ´":11558,"æĪ·ç±į":11559,"è®¢åįķ":11560,"ä¿ĿéĻ©åħ¬åı¸":11561,"Ġsignals":11562,"ergic":11563,"Ġcycl":11564,"beta":11565,"åľ¨æķ´ä¸ª":11566,"ĠSystem":11567,"è¿Ļæł·ä¸Ģä¸ª":11568,"è½¬ç§»åĪ°":11569,"inflammatory":11570,"åĢ¾åĲĳäºİ":11571,"éĺ¶æ®µæĢ§":11572,"luded":11573,"Ġalcohol":11574,"åİ¦":11575,"Ġactivities":11576,"Ġaccess":11577,"ä¹¡æĿĳæĮ¯åħ´æĪĺçķ¥":11578,"Ġload":11579,"åĩĢåĮĸ":11580,"åĨħå®¹åĴĮ":11581,"æľīå¾ħ":11582,"åĨłçĬ¶":11583,"è¿ĩå¤ļ":11584,"æľºåºĬ":11585,"ĠWT":11586,"cal":11587,"æĥ§":11588,"åĦĴåŃ¦":11589,"ä»İæŃ¤":11590,"ground":11591,"å¯ĵ":11592,"é¢Ĩä¼ļ":11593,"é©¬åħĭæĢĿä¸»ä¹īçļĦ":11594,"åıĳä½ľ":11595,"å®ĮæĪĲçļĦ":11596,"Ġmust":11597,"çĤ¹åĩ»":11598,"èµĦäº§è´ŁåĢº":11599,"åħ¨ä¹¦":11600,"çĲĨåŃ¦":11601,"åĬłåĿ¡":11602,"åĬłå¿«å»ºè®¾":11603,"ç§ĺä¹¦":11604,"å¹¶åıĳçĹĩ":11605,"rog":11606,"åķĨäºĭ":11607,"æĥľ":11608,"Ġ90":11609,"åĴĮæĶ¿çŃĸ":11610,"åľ¨æķĻåŃ¦":11611,"åŁºç¡ĢæķĻèĤ²":11612,"çĿĢçľ¼äºİ":11613,"åħ¨åĽ½äººæ°ĳä»£è¡¨å¤§ä¼ļ":11614,"åīįæīĢæľªæľīçļĦ":11615,"æĸĩçļĦ":11616,"çĶŁæĢģä¿ĿæĬ¤":11617,"urop":11618,"äºĭåĬ¡æīĢ":11619,"çĸ«æĥħéĺ²æİ§":11620,"Ġsurgical":11621,"çŃīåĨħå®¹":11622,"æĽ´å¿«":11623,"Ġsynap":11624,"æ¾³å¤§åĪ©":11625,"è£ħéħį":11626,"èħ°":11627,"éĤ£ç§į":11628,"ä¾ĽéľĢ":11629,"åľ°è¿Ľè¡Į":11630,"å¼Ĭç«¯":11631,"Ġreference":11632,"***":11633,"éĩıåĪĳ":11634,"ä¸ºçĽ®æłĩ":11635,"åĲķ":11636,"å¤ĸæĿ¥":11637,"åį³ä¾¿":11638,"duce":11639,"è¯ł":11640,"åĪ°æľŁ":11641,"åı¯ä»¥åĪĨä¸º":11642,"Ġcertain":11643,"æ¾³å¤§åĪ©äºļ":11644,"é¢ĺçĽ®":11645,"éĺ²çģ«":11646,"Ġlearning":11647,"èĤ²ç§į":11648,"æĸŃè£Ĥ":11649,"åıĳå±ķéģĵè·¯":11650,"Ġapproved":11651,"åı¯è§ĨåĮĸ":11652,"çģ¾éļ¾":11653,"ext":11654,"åıįä¹ĭ":11655,"çŁ¥è¯ĨçĤ¹":11656,"çļĦçī¹æ®Ĭ":11657,"ets":11658,"è¯ĦåĪĨ":11659,"å»ºåĽ½":11660,"è¯»åıĸ":11661,"æĪĸä¸į":11662,"åĩĨç¡®æĢ§":11663,"eding":11664,"Ġfree":11665,"ç»¼è¿°":11666,"sm":11667,"åįĵè¶Ĭ":11668,"æĳĬ":11669,"åĻ¨æ¢°":11670,"æµģåħ¥":11671,"Ġaltern":11672,"åĪ¶åº¦ä½ĵç³»":11673,"æ±īåŃĹ":11674,"Ġdysfunction":11675,"ĠãĢĲ":11676,"Ġmutant":11677,"åĴĮæ³ķå¾ĭ":11678,"é¼İ":11679,"æĦŁåıĹåĪ°":11680,"ä½łçļĦ":11681,"Ġmeasurements":11682,"roke":11683,"éĢĢä¼ĳ":11684,"éĤĢè¯·":11685,"æĶ¯éĥ¨":11686,"frac":11687,"Ġproduced":11688,"è´º":11689,"æ²»çĲĨçļĦ":11690,"æľªæĪĲå¹´":11691,"åĩ¤":11692,"ä¸ºæ°ĳ":11693,"ä¸įå®¹":11694,"îĢ":11695,"Ġele":11696,"æľ¬çłĶç©¶":11697,"å¤ļå±Ĥæ¬¡":11698,"Ġtechniques":11699,"çĽ´å¾Ħ":11700,"Ġlength":11701,"Ġregard":11702,"éĢĬ":11703,"é¢ħ":11704,"2025":11705,"æ¼Ķç¤º":11706,"NI":11707,"åĮ»çĸĹæľºæŀĦ":11708,"åŃ¦ç§ĳçļĦ":11709,"Ġneuronal":11710,"Ġphosphorylation":11711,"lab":11712,"Ġsuper":11713,"åĪĨå¼Ģ":11714,"poral":11715,"ä»įçĦ¶æĺ¯":11716,"é¢Ĩå¯¼çļĦ":11717,"æĽ´å®¹æĺĵ":11718,"æģ°å½ĵ":11719,"å¹¿æ³ĽåºĶçĶ¨":11720,"ancre":11721,"èĢĥéĩı":11722,"Ġblot":11723,"Ġmedian":11724,"EV":11725,"å®ŀéĻħçļĦ":11726,"å·´é»İ":11727,"åĳ¨æģ©æĿ¥":11728,"Ġapproaches":11729,"æ°ĳä¸»æĶ¿æ²»":11730,"çĵ£":11731,"ç«ŀäºīä¼ĺåĬ¿":11732,"ç¬¼":11733,"èĩĤ":11734,"ä¹ĭéĻħ":11735,"ä¾µæĿĥè´£ä»»":11736,"Ġnuclear":11737,"æ¸ħéĨĴ":11738,"åĪĨåĮº":11739,"Ġappropriate":11740,"off":11741,"å¾Īå¼ºçļĦ":11742,"èĩªçĦ¶çķĮ":11743,"äº²å±ŀ":11744,"è§£æĶ¾åĨĽ":11745,"Ġestimated":11746,"åľ¨è¿Ļç§įæĥħåĨµä¸ĭ":11747,"é¥±åĴĮ":11748,"çļĦæľī":11749,"eting":11750,"ç»Ħè£ħ":11751,"èħĲèļĢ":11752,"ä¸Ģä¸ªåĽ½å®¶":11753,"cium":11754,"......":11755,"elines":11756,"ä¾Ľç»Ļä¾§ç»ĵæŀĦæĢ§æĶ¹éĿ©":11757,"åıĳæĮ¥ä½ľçĶ¨":11758,"Ġemploy":11759,"åŃ¤ç«ĭ":11760,"ç»Īç»ĵ":11761,"äººéĻħ":11762,"è¿Ļä¹Ī":11763,"ç»µ":11764,"ç®¡çĲĨéĥ¨éĹ¨":11765,"éĨī":11766,"ç©ºçĻ½":11767,"Ġshowing":11768,"åħ³æ³¨çļĦ":11769,"æĬķç¥¨":11770,"åĨħèĴĻåı¤":11771,"ä¸Ģç»Ħ":11772,"éĤ£ä¸ª":11773,"éĥİ":11774,"æĸ°æ¨¡å¼ı":11775,"Ġsw":11776,"ä¸ĭè½½":11777,"åį³åľ¨":11778,"ww":11779,"Ġconsequ":11780,"åĲĮçŃī":11781,"taining":11782,"Ġseverity":11783,"æĮĩå¯¼æĢĿæĥ³":11784,"æ¯ıä¸ªäºº":11785,"æĿŃå·ŀ":11786,"é³":11787,"æ²³æµģ":11788,"ä½įçĤ¹":11789,"åģ¿è¿ĺ":11790,"å±ĤéĿ¢çļĦ":11791,"Ġcontent":11792,"derived":11793,"æĶ¿æ²»ç»ıæµİåŃ¦":11794,"æľīä»Ģä¹Ī":11795,"è¿ĩåİ»çļĦ":11796,"æ·±åº¦åŃ¦ä¹ł":11797,"ious":11798,"ä¹ĭåĨħ":11799,"å¢ŀéĩı":11800,"ä½ľåĩºçļĦ":11801,"éĩįè¦ģè®²è¯Ŀ":11802,"çĽ²çĽ®":11803,"/âĪĴ":11804,"Ġenhanced":11805,"ĠAnal":11806,"ä¸Ńæĸĩ":11807,"æĸ¹æ³ķè®º":11808,"å½ĵä½ľ":11809,"æĸĩåĮĸåĴĮ":11810,"åĵģæł¼":11811,"èĦĨå¼±":11812,"æ³ķå¾ĭåħ³ç³»":11813,"ĠRT":11814,"ä¸Ńåįİæĸĩæĺİ":11815,"Ġcommunity":11816,"110":11817,"Ġmitochondrial":11818,"æĢ»çļĦ":11819,"Ġear":11820,"æ²¿çº¿":11821,"çŃīåĲĮ":11822,"å°Ĩæĺ¯":11823,"è¿Ļå¯¹":11824,"æĳĦå½±":11825,"åĪĩéĻ¤":11826,"Ġsuscepti":11827,"å¿ħçĦ¶è¦ģæ±Ĥ":11828,"çĻ¾å¹´å¥ĭæĸĹ":11829,"Ġprocedure":11830,"ĠThey":11831,"åĴĮåľ°æĸ¹":11832,"ä»ªå¼ı":11833,"Ġwid":11834,"HS":11835,"èĲ¥åķĨ":11836,"è¯Ħå®ļ":11837,"Ġalong":11838,"ï¼ļï¼Ī":11839,"ç»´çĶŁç´ł":11840,"Ġrather":11841,"åľ°å½¢":11842,"å¸¸è¯Ĩ":11843,"æīĭæ³ķ":11844,"çĸ¹":11845,"é¢Ĩå¯¼ä¸ĭ":11846,"èģĮä¸ļåŃ¦æł¡":11847,"è¡°éĢĢ":11848,"åĽŀéģ¿":11849,"ç²¾ç¥ŀåĴĮ":11850,"ä»¥åıĬå¯¹":11851,"ä¸Ģåı·":11852,"æĿŁç¼ļ":11853,"è§Ħéģ¿":11854,"åŃ£èĬĤ":11855,"Ġkidney":11856,"ç»Īäºİ":11857,"Ġwater":11858,"ä¸īçº§":11859,"äººæ°ĳçĶŁæ´»":11860,"è§ģè§£":11861,"åİŁæĿ¥çļĦ":11862,"åħīæĺİ":11863,"Ġrelatively":11864,"åħļå¯¹":11865,"æĵįçºµ":11866,"çĲĨè§£ä¸º":11867,"ç®Ĺæ³ķçļĦ":11868,"åŃĺéĩı":11869,"Ġoverex":11870,"ç´¯ç§¯":11871,"AF":11872,"Ġmarker":11873,"ou":11874,"åľ¨è¿Ľè¡Į":11875,"ç¤¾ä¼ļåĮĸ":11876,"è°¨æħİ":11877,"åĿļå®Ī":11878,"åĽ½å®¶æĪĺçķ¥":11879,"æĽ´å¤ļåľ°":11880,"æ¯Ķçİĩ":11881,"ĠWhen":11882,"æºĲæ³ī":11883,"Ġonset":11884,"Ġclos":11885,"æĺ¯çĶ±äºİ":11886,"é¡¾éĹ®":11887,"è®¡æķ°":11888,"ä¸įåħħåĪĨ":11889,"Ġnecessary":11890,"çµ":11891,"äºĭåĲİ":11892,"Ġfull":11893,"åĽłåħ¶":11894,"ck":11895,"æĪĺåĲİ":11896,"èĬ¬":11897,"Ġexpected":11898,"æĺ¯éĿŀ":11899,"Ġappear":11900,"åįłé¢Ĩ":11901,"åĬĽéĩıçļĦ":11902,"æĬĵæīĭ":11903,"éĺĲæĺİ":11904,"Ġdos":11905,"Ġcut":11906,"è¿Ŀçº¦éĩĳ":11907,"ä¹īåĬ¡çļĦ":11908,"ured":11909,"éĽĨä½ĵç»ıæµİ":11910,"ä¿Ŀç®¡":11911,"æ½ľèĥ½":11912,"è´µå·ŀ":11913,"çļĦåħ¨":11914,"ä¹ŁåĮħæĭ¬":11915,"åĽłåľ°":11916,"imer":11917,"Ġrecogn":11918,"Ġsix":11919,"èĸĦèĨľ":11920,"ND":11921,"çī¹è´¨":11922,"pective":11923,"å¤ĩä»½":11924,"Ġhaving":11925,"Ġult":11926,"æĪĺèĥľ":11927,"èĩªåĬ¨é©¾é©¶":11928,"ÎĶ":11929,"éĥ½å¿ħé¡»":11930,"âĳ¤":11931,"æīĢäº§çĶŁçļĦ":11932,"æĶ¶åħ¥çļĦ":11933,"è´¢æĶ¿éĥ¨":11934,"ä¹ŁåºĶ":11935,"ä¼ĳéĹ²":11936,"åĿĩæľī":11937,"çļĦè¯Ħä»·":11938,"åĤħ":11939,"åĲĦçľģ":11940,"è¿Ļç§įæĸ¹æ³ķ":11941,"æľªçŁ¥":11942,"æİĪè¯¾":11943,"äººåı£çļĦ":11944,"Ġä¸İ":11945,"5000":11946,"æĢª":11947,"åĪ¶å®ľ":11948,"è¯īè®¼æĹ¶æķĪ":11949,"Ġdisplay":11950,"ä½¿çĶ¨äºĨ":11951,"ä¸¢å¤±":11952,"æĪĸèĢħè¯´":11953,"çĮľ":11954,"æĪĳä»¬å¯¹":11955,"æĽ´éĩįè¦ģçļĦæĺ¯":11956,"æ°Ķç®¡":11957,"çĻ¾ä¸ĩ":11958,"Ġsleep":11959,"atient":11960,"å¤§å¹ħåº¦":11961,"éĻ¶çĵ·":11962,"æŃĩ":11963,"å¤ºåıĸ":11964,"éĵ¾æĿ¡":11965,"Ġcourse":11966,"å¤ĸåľ¨":11967,"1992":11968,"è°ĥæŁ¥çłĶç©¶":11969,"è¶ĭäºİ":11970,"æĢ§æł¼":11971,"æ¶¯":11972,"xt":11973,"ç½ĳæł¼":11974,"çĶ¨æĪ·çļĦ":11975,"ä½ĵå¤ĸ":11976,"ournal":11977,"éĥ½åħ·æľī":11978,"BR":11979,"è´Łæľī":11980,"\"}),":11981,"æĹ¥å¿Ĺ":11982,"oti":11983,"hyd":11984,"èŀºæĹĭ":11985,"known":11986,"Ġgood":11987,"ä¼°ç®Ĺ":11988,"è¯ĬçĸĹ":11989,".**":11990,"Ġventric":11991,"åĿļæĮģåĴĮåıĳå±ķä¸ŃåĽ½çī¹èī²ç¤¾ä¼ļä¸»ä¹ī":11992,"Ġproblems":11993,"å¸ĤåľºéľĢæ±Ĥ":11994,"ä¿Ŀåħ¨":11995,"æĺŃ":11996,"è´®":11997,"çłĤ":11998,"æŁ¥æī¾":11999,"çĨĻ":12000,"éķ¿ä¸īè§Ĵ":12001,"Ġconcer":12002,"ç¼Ĩ":12003,"ä»ħæľī":12004,"åħļçļĦåįģä¹Ŀå¤§":12005,"æľ¬æĿ¥":12006,"Ġalpha":12007,"èĩªçĦ¶äºº":12008,"æ°¨åŁºéħ¸":12009,"å¢ŀéķ¿çİĩ":12010,"Ġintensity":12011,"Ġindicating":12012,"å¥ĩè¿¹":12013,"Ġcost":12014,"ä¸ºä½ķ":12015,"çļĦç¨ĭåº¦":12016,"åłª":12017,"etic":12018,"ä¸īåįģ":12019,"Ġgran":12020,"ĠAb":12021,"åĮ¿":12022,"Ġefficacy":12023,"æ¡Īä»¶ä¸Ń":12024,"æľºæŀĦåĴĮ":12025,"æ¬§åħĥ":12026,"æĽ´åħ·":12027,"è¿Ľä¸ĢæŃ¥å®ĮåĸĦ":12028,"GT":12029,"åĽ½éĻħç¤¾ä¼ļ":12030,"æıĲçĤ¼":12031,"Ġtranscrip":12032,"åľºåĲĪ":12033,"ll":12034,"rit":12035,"Ġeng":12036,"Ph":12037,"æ¢¯åº¦":12038,"è¿Ļæĺ¯åĽłä¸º":12039,"icial":12040,"Int":12041,"Ġgenome":12042,"æĹ¶æľº":12043,"Ġsoftware":12044,"Ġfram":12045,"Ġtemperature":12046,"ĠCancer":12047,"åĲ¬åıĸ":12048,"ä¸Ńæ¯Ĵ":12049,"æĶ¾çĶµ":12050,"Ġsequences":12051,"è¦ģæĥ³":12052,"Ġmental":12053,"è¯ģæĺİäºĨ":12054,"Ġcoron":12055,"éĤ®ä»¶":12056,"æĺ¯æĮĩåľ¨":12057,"å·¥åĨľ":12058,"éĢļè¿ĩçļĦ":12059,"è¢«æī§è¡Į":12060,"åıĳå±ķè§ĦåĪĴ":12061,"agne":12062,"è¯łéĩĬ":12063,"å¼ķåĬĽ":12064,"1980":12065,"åĮĸçĸĹ":12066,"artic":12067,"ä¾Ľæ±Ĥ":12068,"--------------------------------------------------------------------------------------------------------------------------------":12069,"pect":12070,"å¤§äºĭ":12071,"Ġreli":12072,"åŁºå»º":12073,"å½ĵå®¶":12074,"éĵŃ":12075,"ä¸¥å¯Ĩ":12076,"ç»ıæµİç»ĵæŀĦ":12077,"æĺİæ¸ħ":12078,"Ġarticle":12079,"Ġpoly":12080,"æĺ¯åħ¶":12081,"be":12082,"stric":12083,"è¯¾å¤ĸ":12084,"Ġcomponent":12085,"èĭ±æĸĩ":12086,"éĶĻè¯¯çļĦ":12087,"mia":12088,"Ġtreat":12089,"æĦıè¯ĨçļĦ":12090,"æķ°æį®åĪĨæŀĲ":12091,"æŃ¤ç§į":12092,"è§Ħæ¨¡çļĦ":12093,"åĵģå¾·":12094,"ç¬¬äºĮçĻ¾":12095,"ä¸ŃåĽ½çī¹èī²ç¤¾ä¼ļä¸»ä¹īéģĵè·¯":12096,"UC":12097,"æīĢåŃ¦":12098,"Ġcancers":12099,"åºĶåıĺ":12100,"Ġ26":12101,"æķ°æį®è¿Ľè¡Į":12102,"æĺ¾ç¤ºåĩº":12103,"è¾¹éĻħ":12104,"å¤§ä½ĵ":12105,"çĽ¸è¿ŀ":12106,"äºĭä¸ļçļĦ":12107,"ä½įä¸Ģä½ĵ":12108,"ä¸īä¸ªä»£è¡¨":12109,"åĴĮæĶ¯æĮģ":12110,"ç«ĭå¾·":12111,"Ġthreshold":12112,"Ġfra":12113,"atural":12114,"çĶ²çĬ¶":12115,"ä¸ªä½ĵçļĦ":12116,"éĺĪ":12117,"ologies":12118,"æ±Ĥè§£":12119,"éĺ¿å°Ķ":12120,"èĥ°å²Ľç´ł":12121,"æ±²":12122,"è¡ĮæĶ¿è¯īè®¼":12123,"ç²®é£Łå®īåħ¨":12124,"å¤§èĥĨ":12125,"Ġhumans":12126,"ä¸įåħ·æľī":12127,"ä»ħä¸º":12128,"åŃªçĶŁ":12129,"å¹¶ä¸İ":12130,"äº¬æ´¥":12131,"æľºåĪ¶åĴĮ":12132,"olesterol":12133,"åŃ¦åĴĮ":12134,"Ġapplication":12135,"çļĦèģĶç³»":12136,"çº¬":12137,"ä»¥å¤ª":12138,"å¿Į":12139,"éŃħ":12140,"ä¸īæ¬¡":12141,"ä¸Ńå¤®éĵ¶è¡Į":12142,"FC":12143,"éĽĨçº¦":12144,"ç»ĳ":12145,"Ġsitu":12146,"æıĲèµ·è¯īè®¼":12147,"èľĤ":12148,"è®¾è®¡ä¸İ":12149,"æĮ¡":12150,"ä¹Ķ":12151,"ä¸ĭä¸ĢæŃ¥":12152,"æ¨¡æĿ¿":12153,"çĬ¯ç½ªå«Įçĸĳäºº":12154,"æ¶Īè´¹èĢħçļĦ":12155,"çļĦè¯Ńè¨Ģ":12156,"åĽ½æľīèµĦäº§":12157,"otyp":12158,"ĠĠĠĠĠĠĠĠĠĠĠĠĠĠĠĠĠĠĠĠĠĠĠĠĠĠĠĠĠĠĠĠĠĠĠĠĠĠĠĠĠĠĠĠĠĠĠĠĠĠĠĠĠĠĠĠĠĠĠĠĠĠĠĠĠĠĠĠĠĠĠĠĠĠĠĠĠĠĠĠĠĠĠĠĠĠĠĠĠĠĠĠĠĠĠĠ":12159,"æ²īæ·Ģ":12160,"çłĶç©¶åĽ¢éĺŁ":12161,"èģĮä¸ļéĻ¢æł¡":12162,"åıĳå±ķè§Ħå¾ĭ":12163,"å¿ħä¿®":12164,"çĭ¬ç«ĭæĢ§":12165,"ĠIgG":12166,"ä¸ŃåĽ½åľ¨":12167,"æķ°æį®åĴĮ":12168,"ä¹ĭåĪĿ":12169,"èį¯çī©çļĦ":12170,"ç®¡çĲĨçŃī":12171,"åľ¨ä¼ģä¸ļ":12172,"ç¥Ģ":12173,"åĲįè¯į":12174,"Ġopen":12175,"ç»ĵæŀľæĺ¾ç¤º":12176,"åºĶæĶ¶":12177,"Ġprocessing":12178,"class":12179,"æľīå¾Īå¤ļ":12180,"æ¶īæ¡Ī":12181,"è¿½è¸ª":12182,"å®ŀåľ°":12183,"éĹ®åį·":12184,"å°±åľ¨äºİ":12185,"ä¸ĸçºªåĪĿ":12186,"å®īç½®":12187,"GS":12188,"åħ¶å¯¹":12189,"å¤ĸçķĮ":12190,"arily":12191,"ä¼ļåĩºçİ°":12192,"ä¸ļåĬ¡çļĦ":12193,"åĩŃåĢŁ":12194,"çļĦåľŁåľ°":12195,"æµ·åĨĽ":12196,"æŀĦä»¶":12197,"ä»¥å®ŀçİ°":12198,"å¹¶ä¸º":12199,"Ġmel":12200,"æİĴåĲį":12201,"éĺµåľ°":12202,"Ġexperience":12203,"Ġtransplant":12204,"ä¼ļè®¡å¸Ī":12205,"åĪĿçº§éĺ¶æ®µ":12206,"Ġexercise":12207,"è¡ĢçĹĩ":12208,"Ġside":12209,"Ġimportance":12210,"äººæĢ§":12211,"åı£å¤´":12212,"æķ°æį®å¤ĦçĲĨ":12213,"å·¥ç¨ĭæĬĢæľ¯":12214,"å»ºè®¾ç¤¾ä¼ļä¸»ä¹ī":12215,"åºĶå½ĵæĮīçħ§":12216,"çº¿ä¸ĭ":12217,"çĲĨè®ºçłĶç©¶":12218,"encies":12219,"çļĦæ°ĳæĹı":12220,"åĨħéĥ¨æİ§åĪ¶":12221,"Ġtargets":12222,"åı¯è¡ĮæĢ§":12223,"æľįåĬ¡ä½ĵç³»":12224,"ç®ĹåĬĽ":12225,"çĭ±":12226,"anal":12227,"Ġway":12228,"åĽ¢ç»ĵå¸¦é¢Ĩ":12229,"æ¡Į":12230,"ä¸ļçļĦ":12231,"æ¸¯åı£":12232,"æĪĲç«ĭäºĨ":12233,"åĬ«":12234,"éĤª":12235,"Ġreaction":12236,"Ġmeasurement":12237,"Ġmatrix":12238,"ç¡®å®ļæĢ§":12239,"ä¼ļçļĦ":12240,"ä¸ŃåįİæĸĩåĮĸ":12241,"ochemical":12242,"çªĳ":12243,"å®ŀè·µæķĻåŃ¦":12244,"Ġcapacity":12245,"æĵįä½ľæĢ§":12246,"amma":12247,"ä¸įçĶ¨":12248,"æįī":12249,"æ¡Ĥ":12250,"Ġassays":12251,"ĠTrans":12252,"osome":12253,"éĩıåĴĮ":12254,"æ½ľåľ¨çļĦ":12255,"éķ¿æķĪ":12256,"éĺ»å¡ŀ":12257,"æĺ¯åĲ¦æľī":12258,"ethods":12259,"Ġ--------------------------------":12260,"æĢ»çº¿":12261,"ç»§æī¿äºº":12262,"å§ĵåĲį":12263,"å¾ģç¨İ":12264,"åĬ¨äº§":12265,"çĽĴ":12266,"æ°Ł":12267,"åĨĽæ°ĳ":12268,"ä½Ļé¢Ŀ":12269,"Ġnm":12270,"å¤´èĦĳ":12271,"ĠPT":12272,"Ġdistinct":12273,"èĩªä¸»åŃ¦ä¹ł":12274,"ton":12275,"æĿĥéĩį":12276,"äºĭåħĪ":12277,"åı¯æĮģç»Ńåıĳå±ķçļĦ":12278,"åĨľåľº":12279,"åħ¨åĽ½äººå¤§å¸¸å§Ķä¼ļ":12280,"å¾Īé«ĺ":12281,"æºª":12282,"çĿ£ä¿ĥ":12283,"çĶ»éĿ¢":12284,"çļĦéĻĲåĪ¶":12285,"ĠNK":12286,"ç´§è¿«":12287,"è¯ķéªĮåĮº":12288,"çĦĬæİ¥":12289,"Com":12290,"åħ±æĮ¯":12291,"xi":12292,"ä»¥æıĲé«ĺ":12293,"è¿ĺåŃĺåľ¨":12294,"çļĦå®ŀçİ°":12295,"æ£ĭ":12296,"åĽłæŃ¤åľ¨":12297,"ä¸įæĺİ":12298,"æĮĩæĺİäºĨ":12299,"%~":12300,"æīĵä¸ĭ":12301,"Ġmetastasis":12302,"ãĢĭ.":12303,"èģĮä¸ļéģĵå¾·":12304,"rine":12305,"ä¼ļè®¡åĩĨåĪĻ":12306,"çĦ¦èĻĳ":12307,"ĊãĢĢ":12308,"def":12309,"ocamp":12310,"å½±åĵįåĪ°":12311,"ä¸İä¼łç»Ł":12312,"è¾ĥå¿«":12313,"èĩªçĦ¶çļĦ":12314,"çĶŁæľº":12315,"åħĭéļĨ":12316,"ometry":12317,"Ġç¬¬ä¸īèĬĤ":12318,"å¼ĢåıĳåĴĮ":12319,"åİŁåĽłæĺ¯":12320,"uffer":12321,"åĲĦçķĮ":12322,"çŀ©":12323,"çļĦé«ĺåº¦":12324,"åŃ¦æľ¯çķĮ":12325,"åĨĪ":12326,"æĦŁæĢ§":12327,"äº§æĿĥçļĦ":12328,"èŃ¦åĳĬ":12329,"èµĦè®¯":12330,"å¤ĸåķĨ":12331,"ä¸ŃåĽ½çī¹èī²ç¤¾ä¼ļä¸»ä¹īåĪ¶åº¦":12332,"erred":12333,"è¿ĩæĿ¥":12334,"ä¸»è¦ģçĶ±":12335,"year":12336,"erase":12337,"ä½Ĩå®ĥ":12338,"è¯ķé¢ĺ":12339,"isted":12340,"Ġadded":12341,"æ¶Īæ¯Ĵ":12342,"romb":12343,"Ġmul":12344,"ä¸įäºĨ":12345,"Ġmotor":12346,"èĲ§":12347,"çĶŁäº§èĢħ":12348,"åĲĮç±»":12349,"ä¸įå¤§":12350,"Ġmake":12351,"è¿ĺåı¯":12352,"éªĳ":12353,"èĶ¬èıľ":12354,"%).":12355,"èĢĮå¯¹":12356,"uit":12357,"ï¼Ķ":12358,"åİŁæĸĩ":12359,"éĢļè¿ĩäºĨ":12360,"Ġelectro":12361,"æĹ¶éĴŁ":12362,"æķ°ç»Ħ":12363,"ulted":12364,"igma":12365,"è®©æĪĳä»¬":12366,"Ġdemonstrate":12367,"ç²¾åĬĽ":12368,"Ġauto":12369,"Ġstatistically":12370,"çĶĺèĤĥ":12371,"ä»Ķç»Ĩ":12372,"åıĽ":12373,"ä¸»åĬ¨æĢ§":12374,"çĶ·æĢ§":12375,"âĢĿï¼ĮâĢľ":12376,"å¸®æī¶":12377,"æĪĲçĨŁçļĦ":12378,"wh":12379,"çļĦåŁºæľ¬åİŁåĪĻ":12380,"iving":12381,"Ġpercentage":12382,"Ġinjection":12383,"inux":12384,"Ġhead":12385,"ä¿¡åı·çļĦ":12386,"Ġembry":12387,"ä¹ŁåŃĺåľ¨":12388,"Re":12389,"ç»Ĩèĩ´":12390,"èĤĿèĦı":12391,"æľĢå¤§éĻĲåº¦åľ°":12392,"III":12393,"æº¶åīĤ":12394,"åĴĮçİ¯å¢ĥ":12395,"Ġpeak":12396,"media":12397,"æºī":12398,"å®ħåŁºåľ°":12399,"æ¬²æľĽ":12400,"ä¸Ģç±»":12401,"sed":12402,"å¤ĸè´¸":12403,"æ®·":12404,"çĭŃçªĦ":12405,"åħ¬åħģ":12406,"æ¸ħæľĿ":12407,"1993":12408,"day":12409,"DD":12410,"åŃ¦éĹ®":12411,"003":12412,"ä¸įè¶ħè¿ĩ":12413,"åı¯èĥ½å¯¼èĩ´":12414,"åį´æĺ¯":12415,"ç³»ç»Łåľ°":12416,"Ġ70":12417,"åĢĻéĢī":12418,"Ġintracellular":12419,"æĶ¿åºľåľ¨":12420,"æ·±åħ¥çłĶç©¶":12421,"ä¸įå±ŀäºİ":12422,"æµģæĦŁ":12423,"raw":12424,"åįĥçĵ¦":12425,"ERP":12426,"Ġher":12427,"usted":12428,"æĬķæłĩ":12429,"çĽ´æµģ":12430,"æµģä½ĵ":12431,"åı¯ä»¥ä½¿çĶ¨":12432,"åĲĮæľŁ":12433,"ĠIV":12434,"ä¸ĸçºªçļĦ":12435,"çĽ´è¾ĸ":12436,"éĢĤæĹ¶":12437,"ç®¡çĲĨåĬŀæ³ķ":12438,"æĶ¶åıĸ":12439,"çĲĨè®ºåĴĮå®ŀè·µ":12440,"gor":12441,"æ·±å±Ĥæ¬¡":12442,"å¹´åĪĿ":12443,"ç»ıæµİåħ¨çĲĥåĮĸ":12444,"è¦ģå®ŀçİ°":12445,"æľ¯åĲİ":12446,"çī¹åĮº":12447,"åĽłæŀľåħ³ç³»":12448,"Ġvariants":12449,"åĻ¨åĴĮ":12450,"æĸ°ä¸ļæĢģ":12451,"åºĶçĶ¨åŀĭ":12452,"å¢ŀåĬłåĢ¼":12453,"åį³æĺ¯":12454,"éħ¸çĽĲ":12455,"æĪĳåĽ½åľ¨":12456,"ectiv":12457,"åŃ¦ä¸ļ":12458,"reng":12459,"åıįèħĲè´¥":12460,"æ¯Ľæ³½ä¸ľæĢĿæĥ³":12461,"ä¸ĢèĪ¬æĿ¥è¯´":12462,"æ®ĸæ°ĳåľ°":12463,"ä¸įä»ħä»ħæĺ¯":12464,"Ġremo":12465,"æ³¨æĦıåĬĽ":12466,"å¤ĸè¯Ń":12467,"æĺ¾èĳĹçļĦ":12468,"æ§Ľ":12469,"Ġaddress":12470,"è¡¨åĨ³":12471,"éĩĳèŀįçĽĳç®¡":12472,"oxid":12473,"æ·Ĩ":12474,"æĹ¥åīį":12475,"èĻļæĭŁåĮĸ":12476,"ris":12477,"åŃ¦æł¡çļĦ":12478,"å¸¦å¤´":12479,"éĺ²åį«":12480,"çļĦéĢ»è¾ĳ":12481,"å¸¸åĬ¡å§Ķåĳĺä¼ļ":12482,"Ġenergy":12483,"éļĲèĹı":12484,"è¾ĵéĢģ":12485,"aily":12486,"^*":12487,"çĥ¦":12488,"Ġbiop":12489,"çļĦä»·æł¼":12490,"äº§åĵģè´¨éĩı":12491,"è¯Ĺäºº":12492,"aling":12493,"armac":12494,"å¹²æĹ±":12495,"Ġdepression":12496,"Ġhorm":12497,"ç»ıéªĮåĴĮ":12498,"ä¾µæĿĥè¡Įä¸º":12499,"èĲ¥åĪ©":12500,"ĠHospital":12501,"åĩĨç¡®åľ°":12502,"æĮĩå¯¼ä¸ĭ":12503,"éĢłå°±":12504,"æĬķå½±":12505,"éĴ¾":12506,"Ġlater":12507,"çĶŁçī©è´¨":12508,"åīįéĢĶ":12509,"é¢Ĩè¢ĸ":12510,"ĠWith":12511,"æĪ¿äº§":12512,"ï¼īï¼Ľ":12513,"çĽĳè§Ĩ":12514,"ç«ĭæĸ¹":12515,"å°ıéº¦":12516,"land":12517,"æįŁå¤±çļĦ":12518,"ape":12519,"Ġrespond":12520,"ä½ľä¸»":12521,"éĩĩè®¿":12522,"æ±ª":12523,"Im":12524,"OX":12525,"åıĳå±ķéĺ¶æ®µ":12526,"ä¸Ģä¸ªéĩįè¦ģ":12527,"let":12528,"ä¸ºçĶ±":12529,"è§ĦåĪĻçļĦ":12530,"miR":12531,"çħ§çīĩ":12532,"çĵľ":12533,"åħ¬ç¤º":12534,"ç½ĳèĨľ":12535,"Ġyou":12536,"åıĳå±ķä¸İ":12537,"åĩ½æķ°çļĦ":12538,"Ġbro":12539,"Ġadi":12540,"æģ°æģ°":12541,"Ġapproximately":12542,"éĵ¶è¡Įä¸ļ":12543,"çļĦä¸¤":12544,"åĬłæĭ¿å¤§":12545,"ä¸»ç¼ĸ":12546,"é¬":12547,"å§ĭç»ĪåĿļæĮģ":12548,"ä¸Ńæŀ¢":12549,"æ°´åľŁ":12550,"åĲĪä½ľçļĦ":12551,"å®°":12552,"Ġnow":12553,"stream":12554,"åĪ¶è£ģ":12555,"æ··æ·Ĩ":12556,"ramm":12557,"åı¯ä»¥ä¸º":12558,"éĢīé¡¹":12559,"åĪĹä¸¾":12560,"çĽ¸ç»ĵåĲĪçļĦ":12561,"ĠNew":12562,"ception":12563,"åı¯è¾¾":12564,"è¢ĭ":12565,"ç»¼åĲĪç´łè´¨":12566,"Ġ27":12567,"å¯¼åħ¥":12568,"Ġevent":12569,"æľ¬æ¬¡":12570,"Ġlaboratory":12571,"ä¸İéĿŀ":12572,"èĢĲèį¯":12573,"ognition":12574,"ĠIII":12575,"åŁİå¸Ĥç¾¤":12576,"æľīä¸Ģå®ļçļĦ":12577,"åĴ½":12578,"æ¸ħåįİå¤§åŃ¦":12579,"Ġprocedures":12580,"æıĲåįĩäºĨ":12581,"Ġbest":12582,"çŁ¥è¯Ĩä¸İ":12583,"åĮ»å¸Ī":12584,"äºĭä»¶çļĦ":12585,"ä¸¥èĤĥ":12586,"ç¤¼ä»ª":12587,"å©´åĦ¿":12588,"ä»»åĬ¡çļĦ":12589,"éĻĦå½ķ":12590,"API":12591,"è°ĥåĪ¶":12592,"è´¬åĢ¼":12593,"æŃ£éĿ¢":12594,"Ġ--------":12595,"äºĴåĬ©":12596,"æĭ¥æĬ¤":12597,"Ar":12598,"å®¡è§Ĩ":12599,"æīįä¼ļ":12600,"æ§½":12601,"å»ºç«ĭçļĦ":12602,"åĲĮæ¯Ķå¢ŀéķ¿":12603,"æŁ´":12604,"æ®ĭçĸ¾äºº":12605,"Ġglyc":12606,"çĭŃä¹ī":12607,"Ġintro":12608,"çģĮæºī":12609,"åıĹåĪ°äºĨ":12610,"Ġnumbers":12611,"Ġsynthesis":12612,"ç¤¾ä¼ļä¸»ä¹īå¸Ĥåľºç»ıæµİä½ĵåĪ¶":12613,"Ġenti":12614,"PLC":12615,"åİ¿åŁŁ":12616,"ĠCenter":12617,"æķ´ä½ĵçļĦ":12618,"Ġknock":12619,"ç²¾å¿ĥ":12620,"å¼ĢæĶ¾çļĦ":12621,"æµªæ½®":12622,"ESM":12623,"çŁ¥æĥħ":12624,"æ²»çĸĹçļĦ":12625,"è´¢åĬ¡ç®¡çĲĨ":12626,"çĶµå®¹":12627,"éĽĨæĪĲçĶµè·¯":12628,"å±ĢéĻĲäºİ":12629,"Ġprin":12630,"çĻ¾å¹´å¥ĭæĸĹçĽ®æłĩ":12631,"Ġbasis":12632,"åı¯ä¾Ľ":12633,"Ġamount":12634,"å¯Įå¼º":12635,"æ¤įè¢«":12636,"æľįåĬ¡æıĲä¾Ľ":12637,"ä¹ĭåľ°":12638,"è´¨æĬ¼":12639,"Ġfacilit":12640,"æĸ¹çķ¥":12641,"rant":12642,"see":12643,"æĤł":12644,"BA":12645,"Ġtreatments":12646,"Ġcalcium":12647,"çļĦåľ°ä½į":12648,"3000":12649,"æ³¢éķ¿":12650,"?\"":12651,"ä¸´çķĮ":12652,"åħŃä¸ª":12653,"è¯·æ±ĤæĿĥ":12654,"è±«":12655,"æ¶Īéĺ²":12656,"Ġoral":12657,"åı¸ä»¤":12658,"Ġeducation":12659,"åİŁåĪĻä¸Ĭ":12660,"Ġproblem":12661,"ç¬¬äºĮèĬĤ":12662,"Ġcultured":12663,"åľ¨åĨħ":12664,"éĹ¨æ§Ľ":12665,"ä¸īèĢħ":12666,"ĠPatients":12667,"çİ°ä»£åĮĸå»ºè®¾":12668,"æ²¦":12669,"ç«ŀäºīåĬĽçļĦ":12670,"irth":12671,"èģĮä¸ļæĬĢèĥ½":12672,"asp":12673,"ä¸ºä»£è¡¨":12674,"ä»¥ä¸ĭåĩłä¸ªæĸ¹éĿ¢":12675,"åľ°è¡¨":12676,"æł¸éħ¸":12677,"ç¯ĩç«ł":12678,"è®¡åĪĴçļĦ":12679,"ä¸¥è°¨":12680,"è®¡åĪĴç»ıæµİ":12681,"atitis":12682,"åħħå®ŀ":12683,"åħ·æľīéĩįè¦ģçļĦ":12684,"ä¾¨":12685,"Ġpancre":12686,"ä¸ŃæĮĩåĩº":12687,"è´Ŀå°Ķ":12688,"å±¡":12689,"åºĶæľīçļĦ":12690,"æĿ¿åĿĹ":12691,"åĪĹä¸º":12692,"amb":12693,"åī¥å¤º":12694,"Ġdecl":12695,"æĢ§åİŁåĪĻ":12696,"pared":12697,"åİĨä»£":12698,"æĿ¡ä»¶åĴĮ":12699,"åŁºçŁ³":12700,"Ġsubstanti":12701,"æĶ¿æ³ķ":12702,"é£İéĻ©è¯Ħä¼°":12703,"Ġolder":12704,"ç§¯æŀģæİ¢ç´¢":12705,"åĥ§":12706,"äººæīĢ":12707,"Ġbur":12708,"Ġprofil":12709,"æķĻåŃ¦çĽ®æłĩ":12710,"çļĦåĨ³å®ļ":12711,"Îº":12712,"æĬĦ":12713,"ä¸įå¹³çŃī":12714,"]:":12715,"åĪĹè¡¨":12716,"æĶ¿åºľå¯¹":12717,"èĲİç¼©":12718,"Ġenhance":12719,"å¼Ĥè´¨":12720,"çĶŁäº§æĸ¹å¼ı":12721,"åŃĻä¸Ńå±±":12722,"éĻ¤æŃ¤":12723,"Ġservices":12724,"KD":12725,"Ġmyel":12726,"è¿Ĳç»´":12727,"åħļåĴĮäººæ°ĳ":12728,"Ġstudents":12729,"éķ¿æľŁçļĦ":12730,":âĢľ":12731,"è½»æĿ¾":12732,"ãĢĤ$":12733,"å¯¡":12734,"Ġresulted":12735,"éªĮæĶ¶":12736,"ç¢İçīĩ":12737,"Ġregarding":12738,"é¦ĸéĥ½":12739,"çĿĢæīĭ":12740,"ĠMS":12741,"å¢ŀå¼ºäºĨ":12742,"æľīä¸¤ä¸ª":12743,"è´¾":12744,"å·¢":12745,"äº²èĩª":12746,"Ġreports":12747,"ç¿°":12748,"ä½Ĳ":12749,"ä¸įå®ľ":12750,"ä½İçļĦ":12751,"çī¹èī²çļĦ":12752,"è¯ķè¡Į":12753,"æĺ¾å¾®éķľ":12754,"ifferen":12755,"è¾ĥå¼º":12756,"ç¬¬ä¸ĢèĬĤ":12757,"æŁ¯":12758,"ç»Łæ²»èĢħ":12759,"å§¿æĢģ":12760,"Ġpeptide":12761,"last":12762,"åıĳåĬĽ":12763,"ä½ĵçİ°åĩº":12764,"EF":12765,"ä¸įå¿ħ":12766,"ä¹ĭåĲİçļĦ":12767,"åĲįåįķ":12768,"ä½©":12769,"èĢĮåıĪ":12770,"æ±īä»£":12771,"Ġmuc":12772,"ä¸Ģä»½":12773,"æĥ©æĪĴ":12774,"Ġsource":12775,"ä¸ĢåĲį":12776,"ç«¯çļĦ":12777,"Ġresponsible":12778,"Ġleads":12779,"çĶŁæĢģçİ¯å¢ĥä¿ĿæĬ¤":12780,"é¥²æĸĻ":12781,"ĠTGF":12782,"çīĩæ®µ":12783,"äºŁå¾ħ":12784,"æĪĪ":12785,"Ġmale":12786,"ä¸»ä¹īåĴĮ":12787,"é¦ĸåħĪæĺ¯":12788,"è¿ĻæĿ¡":12789,"çī¹çĤ¹æĺ¯":12790,"åľ°ä½įçļĦ":12791,"Ġstrategy":12792,"izes":12793,"æĮª":12794,"ç»ıèĲ¥æĿĥ":12795,"çŃĭ":12796,"æĿ¡æĸĩ":12797,"èĹ©":12798,"ĠWhile":12799,"æĸ°åĬłåĿ¡":12800,"å¹´åĪ°":12801,"å½¢çļĦ":12802,"Ġ------------":12803,"äººæ°ĳç¾¤ä¼ĹçļĦ":12804,"å¤ļéĩį":12805,"ĠChina":12806,"åĵªä¸ª":12807,"ĠÂ°":12808,"ĠÎ¼g":12809,"åį³ä¸º":12810,"ä¸įç¨³å®ļ":12811,"æıĲéĨĴ":12812,"agnetic":12813,"ippocamp":12814,"åħ¨éĿ¢ä¾Ŀæ³ķæ²»åĽ½":12815,"åĨįå®¡":12816,"å±ķè§Ī":12817,"Fe":12818,"Ġconsum":12819,"åħīçĶµ":12820,"Ġ35":12821,"ç²¾ç»Ĩ":12822,"gorith":12823,"é»ĳæł¼å°Ķ":12824,"åıĳå¸ĥäºĨ":12825,"down":12826,"åıĹæķĻèĤ²":12827,"éĢīæĭ©çļĦ":12828,"è´¢äº§çļĦ":12829,"ç¯ĩæĸĩç«ł":12830,"ç§įæĹı":12831,"ç»ĻåĩºäºĨ":12832,"åĽłåľ°åĪ¶å®ľ":12833,"ĠImmun":12834,"ç¼ºè¡Ģ":12835,"Ġlarger":12836,"Ġsecretion":12837,"://":12838,"Ġcop":12839,"ç¢³è¾¾å³°":12840,"éĻĦå±ŀ":12841,"æģĴæĺŁ":12842,"åħ¬çĽĬè¯īè®¼":12843,"æĺ¯ä¸ª":12844,"ï¼īï¼ļ":12845,"ĠPl":12846,"++":12847,"æŀ¢çº½":12848,"åĪĩæį¢":12849,"Ġdil":12850,"éģĹåĺ±":12851,"ä¸ĸçķĮå¤§æĪĺ":12852,"æīĢå±ŀ":12853,"ä¿ĿæĬ¤åĮº":12854,"èĮĥåĽ´åĨħçļĦ":12855,"ä¸Ńåİ»":12856,"Ġdatab":12857,"æĭħå¿ĥ":12858,"åµĮåħ¥å¼ı":12859,"çī¹æĿĥ":12860,"ç®¡çĲĨä¸İ":12861,"åĬ³åĬ¨èĢħçļĦ":12862,"äº¿åĲ¨":12863,"æīĵéĢļ":12864,"è§£çŃĶ":12865,"éĩĳèŀįé£İéĻ©":12866,"lasts":12867,"anning":12868,"æĢ»ä½ĵä¸Ĭ":12869,"å·²æľīçļĦ":12870,"èīºæľ¯çļĦ":12871,"åīĸæŀĲ":12872,"åıĮè¾¹":12873,"ĠAT":12874,"Ġng":12875,"æºĲæĢ§":12876,"åĪ«äºº":12877,"éħįéĢģ":12878,"è¿Ļåľ¨":12879,"è®ºæĸŃ":12880,"å¥Ī":12881,"Ġcompound":12882,"æŃ¤åīį":12883,"éĻĲå®ļ":12884,"onia":12885,"è¦ģä¹Ī":12886,"ç»ĦåĪĨ":12887,"èµ¤åŃĹ":12888,"çĽ¸éĤ»":12889,"è¦ģæ³¨æĦı":12890,"åģ¥åº·çļĦ":12891,"åī¥åīĬ":12892,"ä¹ĭæĹ¶":12893,"æĶ¯æĮģåĴĮ":12894,"è§Ĥå¯ŁåĪ°":12895,"Ġdelivery":12896,"æĪĳä»¬è®¤ä¸º":12897,"åįİåĮĹ":12898,"è§£åĨ³çļĦ":12899,"Ġrestric":12900,"çĽ´è¾ĸå¸Ĥ":12901,"ĠScience":12902,"è§Ħæł¼":12903,"çºĤ":12904,"å¤©çº¿":12905,"å¿ĥæĢģ":12906,"çĨĬ":12907,"umin":12908,"æĮĩéĴĪ":12909,"Ġcluster":12910,"åĬŀæ¡Ī":12911,"æĿĥåĪ©åĴĮ":12912,"çļĦèµĦæºĲ":12913,"è´«åĽ°åľ°åĮº":12914,"ç¤¾ä¼ļä¸»ä¹īçİ°ä»£åĮĸå»ºè®¾":12915,"æĶ¹éĿ©åĪĽæĸ°":12916,"å°¼äºļ":12917,"ç¨³åģ¥":12918,"æĪĸç¼º":12919,"oly":12920,"äºĭåħ³":12921,"çļĦåĨħåľ¨":12922,"Ġcarried":12923,"Ġscale":12924,"nai":12925,"ä¸Ģåľº":12926,"æĢ»å±Ģ":12927,"Ġdegree":12928,"Ġtechnique":12929,"è¡Ĺéģĵ":12930,"éª¨é«ĵ":12931,"ĠĠĠĠĠĠĠĠĠĠĠĠĠĠĠĠĠĠĠĠĠĠĠĠĠĠ":12932,"ä¸ĬæĿ¥":12933,"ç¥ī":12934,"çħ§æĺİ":12935,"ä»£è¡¨æĢ§":12936,"back":12937,"åĬĽæ±Ĥ":12938,"MOESM":12939,"ĠâĶ":12940,"Ġsubsequent":12941,"è¯¾æĸĩ":12942,"æķĻç§ĳä¹¦":12943,"ç¤ºä¾ĭ":12944,"æĶĢ":12945,"å±ıéļľ":12946,"å¼ºè°ĥäºĨ":12947,"SQL":12948,"éĩįè¦ģæĢĿæĥ³":12949,"åĴĮå®ŀæĸ½":12950,"stim":12951,"ä½İæĶ¶åħ¥":12952,"çĶ»å®¶":12953,"è¿«åĪĩéľĢè¦ģ":12954,"é«ĺå³°":12955,"åĢ¼ä¸º":12956,"è§Ħæ¨¡åĮĸ":12957,"ç¹ģæ®ĸ":12958,"ingly":12959,"æĶ¿åºľéĩĩè´Ń":12960,"è¿ĺå°Ĩ":12961,"åĪ°æĿ¥":12962,"çļĦå±ĢéĿ¢":12963,"çļĦè¶ĭåĬ¿":12964,"åĴĮå·¥ä½ľ":12965,"Ġnerve":12966,"å¦Ĥä½ķåľ¨":12967,"æľĢå¥½çļĦ":12968,"æĺİç¡®æĮĩåĩº":12969,"Ġspecificity":12970,"ä¸įå±¥è¡Į":12971,"åıĹå®³":12972,"è¾ĥå·®":12973,"çī¹æľīçļĦ":12974,"å½ĵå®¶ä½ľä¸»":12975,"å¼§":12976,"Ġepidem":12977,"æīĢèĥ½":12978,"å¯ĨéĽĨåŀĭ":12979,"Ġindicates":12980,"Ġstructures":12981,"è¿Ļç§įæĥħåĨµ":12982,"çļĦæľĢå¤§":12983,"è¯ģäºº":12984,"lim":12985,"Ġbecome":12986,"å¯¹è¿ĻäºĽ":12987,"åĿĿ":12988,"é¦ĸå¸Ń":12989,"PL":12990,"TCP":12991,"è¯¾ç¨ĭä½ĵç³»":12992,"å¢ŀæĶ¶":12993,"ä¸īåĪĨ":12994,"çłĶç©¶æĸ¹æ³ķ":12995,"äº¤éĻħ":12996,"èĩªåıĳ":12997,"æĤ¦":12998,"orpor":12999,"ä¼ļä½¿":13000,"æĶ¶èİ·":13001,"Ġvariable":13002,"ä»ĵåĤ¨":13003,"Ġpneum":13004,"Ġproportion":13005,"KI":13006,"çļĦåĨħæ¶µ":13007,"éĻª":13008,"ä¸ŃåĽ½åħ±äº§åħļçļĦ":13009,"å¦Ĥæŀľè¯´":13010,"æıĲé«ĺåĪ°":13011,"å·¥ä¸ļéĿ©åĳ½":13012,"å®īåħ¨åĴĮ":13013,"æ±²åıĸ":13014,"æłĩæľ¬":13015,"éĺ¿æĭī":13016,"Ġevery":13017,"æ¸©å®¤æ°Ķä½ĵ":13018,"å¹´åĲİ":13019,"ä¸ŃåĽ½æ¢¦":13020,"çļĦçĥŃ":13021,"æĶ¹æŃ£":13022,"æ¯Ľæ³½ä¸ľåĲĮå¿Ĺ":13023,"åŁºç¡ĢçŁ¥è¯Ĩ":13024,"Ġradiation":13025,"åħĪéĶĭ":13026,"çļĦäººåı£":13027,"entific":13028,"é©°":13029,"åĬ³åĬ¨æķĻèĤ²":13030,"å¢ŀé«ĺ":13031,"ä½Ĩè¿Ļ":13032,"çľŁå®ŀçļĦ":13033,"ä¸ºæĪĳåĽ½":13034,"itude":13035,"éĽ¶éĥ¨ä»¶":13036,"åĽłç´łçļĦ":13037,"mid":13038,"æĬĹçĶŁç´ł":13039,"åıĳè¡¨äºĨ":13040,"ĠÎ¼m":13041,"Ġsolution":13042,"ä¿ĿéĻ©äºº":13043,"ä¸Ńç§ĳéĻ¢":13044,"éĩĩåıĸäºĨ":13045,"plicated":13046,"DH":13047,"ç¦ıç¥ī":13048,"çĶµèĥ½":13049,"æ°§åĮĸçī©":13050,"ä»Ļ":13051,"åĽºå®ļçļĦ":13052,"ä½£":13053,"çĬ¶æĢģçļĦ":13054,"econ":13055,"åĳĺçļĦ":13056,"Ġhypertension":13057,"åĵº":13058,"å¤©æĸĩ":13059,"æ¼Ĥ":13060,"ä¸ĢèĪ¬çļĦ":13061,"é«ĺæĢ§èĥ½":13062,"å¤ĸè§Ĥ":13063,"çļĦä¸»è¦ģåĨħå®¹":13064,"å¹²çĩ¥":13065,"çĥĤ":13066,"800":13067,"Ġprevention":13068,"æľ¬é¢Ĩ":13069,"è¯µ":13070,"åİĨç»ı":13071,"free":13072,"test":13073,"ä¼´æľī":13074,"æİ§åĪ¶åĴĮ":13075,"é¡¹çĽ®ç®¡çĲĨ":13076,"ä½Ĩä»İ":13077,"Ġheterogene":13078,"æĬĹè¾©":13079,"è¯Ħä»·ä½ĵç³»":13080,"æįŁèĢĹ":13081,"ä¸īç±»":13082,"ä¸ĵä¸ļçŁ¥è¯Ĩ":13083,"åıĺéĩıçļĦ":13084,"çĿĽ":13085,"ä¸Ģä¸ªäºº":13086,"ä¸ĢæĶ¯":13087,"Ġdefin":13088,"ritis":13089,"äº¥":13090,"æĦŁåĴĮ":13091,"è¡ĮæĶ¿æī§æ³ķ":13092,"Ġspe":13093,"èŃ¦å¯Ł":13094,"çĮİ":13095,"èģļåĲĪçī©":13096,"æĸ°åĮº":13097,"ä½¿çĶ¨èĢħ":13098,"äººåĬĽèµĦæľ¬":13099,"ĠIf":13100,"æľ¬ç«ł":13101,"æīĭä¸Ń":13102,"æ½ĺ":13103,"Ġtransl":13104,"èĶĵ":13105,"orts":13106,"è¤":13107,"åħ±æĢ§":13108,"å°±éľĢè¦ģ":13109,"Ġselection":13110,"went":13111,"åĪ©äºļ":13112,"å¹³åı°çļĦ":13113,"è¿Ļå°Ĩ":13114,"éĩįéĩı":13115,"åĬ¡å®ŀ":13116,"ĠAg":13117,"éĿĴå±±":13118,"åĬ¨çĶ»":13119,"åħ¬åħĥåīį":13120,"Ġconst":13121,"tor":13122,"æŃ£å¸¸çļĦ":13123,"SR":13124,"Ġguidelines":13125,"Ġinst":13126,"idity":13127,"ç«ĭå¾·æłĳ":13128,"éĥ½å°Ĩ":13129,"åĪĨåĪ«æĺ¯":13130,"å¥īçĮ®":13131,"åı¯ä»¥å¯¹":13132,"ĠInterest":13133,"çļ®è´¨":13134,"èģĶç³»çļĦ":13135,"çľģå§Ķ":13136,"å·¥äººéĺ¶çº§":13137,"ä¿¡éģĵ":13138,"æĬĳéĥģ":13139,"åĲĮçĽŁ":13140,"Ġartery":13141,"ä¸įå¯¹ç§°":13142,"æĸ°å»º":13143,"åı¯ä»¥ä½¿":13144,"æľīéĻĲè´£ä»»":13145,"ç»Ĩèĥŀä¸Ń":13146,"åĽ¾è°±":13147,"ched":13148,"è¾¹çĸĨ":13149,"æķĪçĶ¨":13150,"å¤§åĬ¿":13151,"outh":13152,"çłĶç©¶å¯¹è±¡":13153,"äº¤æĺĵçļĦ":13154,"èĲ¥åķĨçİ¯å¢ĥ":13155,"ĠNa":13156,"Ap":13157,"æ°´åĪĨ":13158,"èĩªç«ĭ":13159,"yroid":13160,"åĲĳä¸Ĭ":13161,"Ġexperiment":13162,"èĢģçĻ¾å§ĵ":13163,"çİ°ä»£ç¤¾ä¼ļ":13164,"æĸ°æ°ĳä¸»ä¸»ä¹ī":13165,"åĩºè®©":13166,"å¥ĳåĲĪ":13167,"ä¸įå¿ĺ":13168,"ç¦»æķ£":13169,"Ġtoxic":13170,"Ġexamine":13171,"ç¼ł":13172,"åŃĹèĬĤ":13173,"mitted":13174,"Ġobesity":13175,"æľīä¸¤ç§į":13176,"Ġdiagnosed":13177,"åģıå¥½":13178,"Ġworld":13179,"çļĦä¹īåĬ¡":13180,"ç»Łä¸Ģé¢Ĩå¯¼":13181,"çļĦè§£éĩĬ":13182,"å¿«éĢŁå¢ŀéķ¿":13183,"ĠDr":13184,"wide":13185,"ä¾Ŀæ¬¡":13186,"Ġlit":13187,"rep":13188,"ulf":13189,"åĮºåŁŁåĨħ":13190,"æĶ¶çĽĬçİĩ":13191,"è¥¿éĥ¨åľ°åĮº":13192,"ä¸Ĭçļ®":13193,"Ġsystemic":13194,"éĹ®è´£":13195,"åıĳè¡¨åľ¨":13196,"è¿Ľä¸ĢæŃ¥æıĲé«ĺ":13197,"çľģä»½":13198,"ä¹ĭä»¥":13199,"mod":13200,"åħļåĨħæ³ķè§Ħ":13201,"åľ¨æĶ¿æ²»":13202,"Ġoccurs":13203,"åĲĳå¾Ģ":13204,"æµĭè¯Ħ":13205,"tag":13206,"ĠMedicine":13207,"ä¿¡æģ¯æĬ«éľ²":13208,"åĩĭ":13209,"ä¸»è¦ģä½ĵçİ°åľ¨":13210,"lear":13211,"æııåĨĻ":13212,"Ġhippocamp":13213,"æĢ¥åī§":13214,"ä¸įå®Įåħ¨":13215,"range":13216,"ç§ĳä¸¾":13217,"ublic":13218,"ĠĠĠĠĠĠĠĠĠĠĠĠĠĠĠĠĠĠĠĠĠĠĠĠĠĠĠ":13219,"å¾Īå¥½åľ°":13220,"æ²»å®ī":13221,"è¯Ħçº§":13222,"å¥ĳæľº":13223,"Ġtransmission":13224,"ç½ĳç»ľåĮĸ":13225,"æ¶īåıĬçļĦ":13226,"æ°´æ³¥":13227,"ä¸ĩä¸ª":13228,"ä¸Ńåįİæ°ĳæĹıçļĦ":13229,"åĮ»ä¿Ŀ":13230,"ç»ıæµİçļĦåıĳå±ķ":13231,"æĹ¥çĽĬå¢ŀéķ¿çļĦ":13232,"çļĦæ²»çĸĹ":13233,"ä¼ĺäºİ":13234,"ä»ĺåĩº":13235,"èĤºçĻĮ":13236,"è®¸åı¯è¯ģ":13237,"æĬ¬":13238,"arb":13239,"äºĶæĺ¯":13240,"äº§åŃ¦":13241,"è¥¿æĸ¹åĽ½å®¶":13242,"åĽłä¸ºå®ĥ":13243,"åİļåº¦":13244,"çĶŁæ¶¯":13245,"005":13246,"è§ĨåĽ¾":13247,"Ġinn":13248,"Ġtaken":13249,"ä¾ĿåŃĺ":13250,"æĶ¿åºľåĴĮ":13251,"åĨĹ":13252,"åĪ¶éĢłåķĨ":13253,"æĪĲä¸ºä¸Ģä¸ª":13254,"lor":13255,"ä¸Ĭä¸Ģ":13256,"åºĶå½ĵæī¿æĭħ":13257,"é£İçĶµ":13258,"çļĦåıį":13259,"Ġischem":13260,"IA":13261,"ä¸įåĲĪçĲĨ":13262,"åı¤èĢģ":13263,"åķĨä¸ļæ¨¡å¼ı":13264,"åıĺæĪĲäºĨ":13265,"Ġcomplications":13266,"ä¿ĥè¿ĽåŃ¦çĶŁ":13267,"ç®¡çĲĨäºº":13268,"Ġcoronary":13269,"æľĢé«ĺäººæ°ĳæ³ķéĻ¢åħ³äºİ":13270,"Ġmyocardi":13271,"äººæīįçļĦ":13272,"èĤ¡ä»½æľīéĻĲåħ¬åı¸":13273,"è°ĥè¯ķ":13274,"For":13275,"å¹¶èĥ½":13276,"ethyl":13277,"fusion":13278,"æŃ£å¤Ħäºİ":13279,"å¤ļä¸º":13280,"äºĴèģĶäºĴéĢļ":13281,"å¦¥åĸĦ":13282,"Ġidentification":13283,"å¯¨":13284,"åĪļåĪļ":13285,"ä¿Ĭ":13286,"ç±»ä¼¼çļĦ":13287,"æ¼Ķè®²":13288,"ä¹ĭéĹ´çļĦçŁĽçĽ¾":13289,"Ġsuppress":13290,"ophag":13291,"ä¸ĵæ³¨":13292,"Ġmembers":13293,"åĩºåħ·":13294,"æĤ¨çļĦ":13295,"Ġpolic":13296,"æ´»åĮĸ":13297,"åŁºç¡ĢåĴĮ":13298,"è½¬æĬĺ":13299,"èĢĮå·²":13300,"å¤ķ":13301,"aring":13302,"Ġlast":13303,"åĪĽæĸ°æĢ§":13304,"èĥĮåĲİçļĦ":13305,"æĪıæĽ²":13306,"åħļé¢Ĩå¯¼":13307,"åıĹå®³äºº":13308,"åĲ§":13309,"Ġpotentially":13310,"å·ŀå¸Ĥ":13311,"æħ°":13312,"çļĦè¯ģæį®":13313,"åħ³æĢĢ":13314,"ä¸ĭè¡Į":13315,"åĨľæ°ĳçļĦ":13316,"bb":13317,"åĽ½ä¼ļ":13318,"æķ°æį®æĺ¾ç¤º":13319,"è¯ķåīĤ":13320,"èĦĬé«ĵ":13321,"ãĢĭ)":13322,"éĥĬ":13323,"èĢĮçĶŁ":13324,"Ġinternal":13325,"Ġbo":13326,"æĶ¾å°ĦæĢ§":13327,"è¿Ľåħ¥æĸ°æĹ¶ä»£":13328,"ä¸įåı¯æĪĸç¼º":13329,"æ²¡æľīä»»ä½ķ":13330,"åıĹæīĺ":13331,"éĢģè¾¾":13332,"çº¦åįł":13333,"åĬ©æİ¨":13334,"Ġenzyme":13335,"====================":13336,"Ġphysiological":13337,"Tab":13338,"ä¸įå¥½":13339,"åı¯ä»¥å®ŀçİ°":13340,"resent":13341,"ç§¯æŀģä½ľçĶ¨":13342,"Ġbacterial":13343,"çļĦæīĭæ®µ":13344,"è¯Ŀé¢ĺ":13345,"é«ĺç´łè´¨":13346,"æĢĿç»´èĥ½åĬĽ":13347,"çģ«çģ¾":13348,"Ġstages":13349,"Ġ(%)":13350,"åĬ¨èį¡":13351,"æķ°åŃĹåŃªçĶŁ":13352,"ah":13353,"Ġpromoter":13354,"åħ¬å¹³ç«ŀäºī":13355,"å¼ķèµ·äºĨ":13356,"éļĲæĢ§":13357,"Ġrol":13358,"æ°ĳä¸»åħļæ´¾":13359,"è¦ģæ±ĤåĴĮ":13360,"æķĻä¼ļ":13361,"ĠDes":13362,"è¿ĩåĪĨ":13363,"ä¸ĸçºªæľ«":13364,"éĩįçĤ¹é¢ĨåŁŁ":13365,"æĦŁåħ´è¶£":13366,"Ġfemale":13367,"æĢ§æĺ¯":13368,"ä¸įæ»¡":13369,"åĨħåľ°":13370,"004":13371,"2035":13372,"otoxic":13373,"rem":13374,"Ġshe":13375,"æĦıæĢĿè¡¨ç¤º":13376,"æ¹¾åĮº":13377,"ä¸¤æĸ¹éĿ¢":13378,"æ°´ä½ĵ":13379,"VR":13380,"å¾Ģå¾Ģæĺ¯":13381,"äº§æķĻ":13382,"Ġconfirm":13383,"isms":13384,"åģ·":13385,"åĮ»çĸĹä¿ĿéĻ©":13386,"ä¿¡æģ¯åĴĮ":13387,"èº«ä¸Ĭ":13388,"Ġspecial":13389,"éĿŀçº¿æĢ§":13390,"ä½ľåĵģçļĦ":13391,"æĹłæľº":13392,"é¢ĦåħĪ":13393,"Ġcytokine":13394,"ä¸Ńå¤®æĶ¿æ²»å±Ģ":13395,"æ°ĳæĹıå¤įåħ´":13396,"Ġsubject":13397,"åĪ¶åº¦åĮĸ":13398,"æ¯įäº²":13399,"ä»¥ç¡®ä¿Ŀ":13400,"è¾©è®º":13401,"åľ¨å¤§":13402,"èĩªä¸»åĪĽæĸ°":13403,"å±ķç¤ºäºĨ":13404,"ä¸įåħ·å¤ĩ":13405,"åºĶçĶ¨åľºæĻ¯":13406,"âħ¡":13407,"æŃ»åĪĳ":13408,"é¢ĦæĬ¥":13409,"ĠSNP":13410,"æīĢå¸¦æĿ¥çļĦ":13411,"ä¸įæĸŃæİ¨è¿Ľ":13412,"æĳĨåľ¨":13413,"EL":13414,"è¿ĩæķı":13415,"è¡°èĢģ":13416,"æĽ´è¦ģ":13417,"eness":13418,"åĨ³çŃĸéĥ¨ç½²":13419,"è¶ĭåĲĳ":13420,"åŃŁåŃĲ":13421,"è¯¾ä»¶":13422,"OP":13423,"ä¸»ä½ĵåľ°ä½į":13424,"åŃµ":13425,"acts":13426,"åħ¨å¸Ĥ":13427,"èµĦéĩĳçļĦ":13428,"åĮĸä¸º":13429,"èĦīç»ľ":13430,"åįıè®®çļĦ":13431,"ç»Łè®¡åŃ¦":13432,"æĦıå¤ĸ":13433,"igned":13434,"Ġconsent":13435,"æľīæľºç»ĵåĲĪ":13436,"ä¸ªæ¡Ī":13437,"çĶŁäº§èµĦæĸĻ":13438,"æĿ¯":13439,"æįķèİ·":13440,"Ġinvasion":13441,"ąĈ":13442,"Ġstroke":13443,"ä¼ļè®®ä¸Ĭ":13444,"Ġtumour":13445,"æ±¡æ³¥":13446,"indows":13447,"è¾©è¯ģæ³ķ":13448,"ä»¥èĩ´":13449,"åı¦ä¸Ģæĸ¹":13450,"Ġaround":13451,"æĸĩåĮĸèĩªä¿¡":13452,"åŃĺåĤ¨åĻ¨":13453,"å¼ĢæºĲ":13454,"æĽ´æĶ¹":13455,"VD":13456,"htt":13457,"åĪĨæŀĲä¸İ":13458,"åĩºçīĪçļĦ":13459,"ï¼½":13460,"åĲĮå¹´":13461,"å°ĳçļĦ":13462,"ä¸ĢçĽ´æĺ¯":13463,"ĠĠĠĠĠĠĠĠĠĠĠĠĠĠĠĠĠĠĠĠĠĠĠĠĠ":13464,"æ¡ĥ":13465,"Ġglobal":13466,"atistical":13467,"Ġchemotherapy":13468,"ç³»ç»Łå·¥ç¨ĭ":13469,"èĩ´çĹħ":13470,"åİ¿çº§ä»¥ä¸Ĭ":13471,"è§£åĨ³çļĦéĹ®é¢ĺ":13472,"ä¸Ģäºº":13473,"åŁºåĽłçļĦ":13474,"çŃīå¤ļä¸ª":13475,"çļĦæĿĥåĬĽ":13476,"âī¥":13477,"çŁ¿äº§":13478,"ç£ģçĽĺ":13479,"æĶ¾æĿ¾":13480,"Ġothers":13481,"å¤ªå¹³æ´ĭ":13482,"æ¹¿åº¦":13483,"åĲĦåľ°åĮº":13484,"Ġinstit":13485,"æ²¹æ°Ķ":13486,"eled":13487,"ä¸Ńè¥¿":13488,"Ġ32":13489,"éħ·":13490,"äº§åĢ¼":13491,"Ġrepresents":13492,"heck":13493,"äºĴåĪ©":13494,"èĢħåľ¨":13495,"æ¨¡åħ·":13496,"è¨Ģè¯Ń":13497,"åĬŁå¤«":13498,"çĶ·å¥³":13499,"MM":13500,"èĢĮæĪĲ":13501,"Ġsections":13502,"rum":13503,"ç²ª":13504,"Ġchalleng":13505,"è¨Ģè®º":13506,"åħ¬è¯ģ":13507,"èīºæľ¯å®¶":13508,"æ¯ĶèµĽ":13509,"å®ŀéĻħéĹ®é¢ĺ":13510,"æľīçĶ¨":13511,"åįĩåĢ¼":13512,"æķ°åįģ":13513,"ĠDep":13514,"æ·ĺæ±°":13515,"eter":13516,"Ġ45":13517,"ä¸Ńä¹ĭ":13518,"Ġstreng":13519,"è§ģäºİ":13520,"éĻįæ°´":13521,"Ġsequencing":13522,"åĪĩåħ¥":13523,"åĬłå¿«åıĳå±ķ":13524,":**":13525,"æĸ°æĿĲæĸĻ":13526,"take":13527,"å¾®ä¼ģä¸ļ":13528,"icro":13529,"130":13530,"ç®¡çĲĨæ¨¡å¼ı":13531,"åĴĮåıĳå±ķçļĦ":13532,"æİ¨ç¿»":13533,"åĲ¸çº³":13534,"Ġpathogenesis":13535,"Ġproduce":13536,"ç¨İåĪ¶":13537,"æŀĦå»ºæĸ°åıĳå±ķæł¼å±Ģ":13538,"è¯ļå®ŀ":13539,"Ġgenerally":13540,"angu":13541,"Ġvariation":13542,"æµ·æ°´":13543,"Ġstar":13544,"ĠçŃī":13545,"æŀĦå»ºäºĨ":13546,"åĪĳäºĭè¯īè®¼":13547,"ç§ģèĲ¥":13548,"ĠLe":13549,"åĲĦé¢ĨåŁŁ":13550,"aternal":13551,"ä¸ĢéĹ¨":13552,"Ġmarked":13553,"180":13554,"å½¢æĪĲä¸Ģä¸ª":13555,"Ġforms":13556,"çļĦç¤¾ä¼ļä¸»ä¹ī":13557,"å¹´èµ·":13558,"å§ĭäºİ":13559,"ĠUnited":13560,"å¿ħé¡»æĺ¯":13561,"ä¸İåĲ¦":13562,"åŀ«":13563,"å®¿ä¸»":13564,"ä»ĭå¯¼":13565,"é«ĺå±Ĥ":13566,"Ġcollection":13567,"Ġdatas":13568,"åŃ¦æľŁ":13569,"Ġmamm":13570,"çī©æĸĻ":13571,"ä»İè¿Ļä¸ª":13572,"ope":13573,"çļĦæľĢä½³":13574,"OL":13575,"çļĦæ°´å¹³":13576,"çĥŃçĪ±":13577,"ocyt":13578,"aster":13579,"çļĦä¸Ģèĩ´":13580,"Ġaccuracy":13581,"ä¸İçİ¯å¢ĥ":13582,"å¦Ĥæŀľä¸į":13583,"cip":13584,"Ġmajority":13585,"Ġreflec":13586,"åĴĮå¤ĦçĲĨ":13587,"ä»¥äººä¸ºæľ¬":13588,"Ġexamination":13589,"å¹¶è¿Ľè¡Į":13590,"ä¸įæĸŃæī©å¤§":13591,"çľŁç©º":13592,"äº¬æ´¥åĨĢ":13593,"ï¼»":13594,"æľīè¶£":13595,"åĴĮä¿¡æģ¯":13596,"ä¼łåªĴ":13597,"ĠPer":13598,"ĠReg":13599,"è¡ĮåĬ¨è®¡åĪĴ":13600,"å°±æĺ¯åľ¨":13601,"ç§Łéĩĳ":13602,"Ġpair":13603,"è¯¥é¡¹":13604,"è½¬ä¸º":13605,"activity":13606,"ifest":13607,"åħ±åĲĮçļĦ":13608,"ç¥ŀç»ıç³»ç»Ł":13609,"æľīä¸Ģå®ļ":13610,"ĠåĽ½å®¶":13611,"èĥ½åĬĽå»ºè®¾":13612,"idate":13613,"æĬĴ":13614,"çº§çļĦ":13615,"æľ¬ä½į":13616,"åı·åı¬":13617,"Ġcholesterol":13618,"Ġsuccessful":13619,"çĲĨæĥ³çļĦ":13620,"åĸĦæĦı":13621,"Ġrecommend":13622,"Ġmediated":13623,"åı¯ä½¿":13624,"yc":13625,"ä¸ŃæĢ§":13626,"åĪ¶åº¦åĪĽæĸ°":13627,"æķĻèĤ²ä¸İ":13628,"æĪĳåĽ½ç¤¾ä¼ļ":13629,"åħļåľ¨":13630,"NR":13631,"Ġprofession":13632,"éĺµåĪĹ":13633,"ä¸Ńéķ¿æľŁ":13634,"åĽ¾æ¡Ī":13635,"æĹ¥æľ¬çļĦ":13636,"æĪĳä»¬éľĢè¦ģ":13637,"Ġantibio":13638,"çĶŁåĳ½åĬĽ":13639,"ohist":13640,"è¯±åıĳ":13641,"åĵ²åŃ¦å®¶":13642,"Ġalgorith":13643,"æİº":13644,"æĢĿç»´æĸ¹å¼ı":13645,"Ġrepro":13646,"åı¯ä»¥è¢«":13647,"æĬĬå®ĥ":13648,"å¼±åĬ¿":13649,"åŃ¦æĹ¶":13650,"ĠTechn":13651,"åıįæĺłåĩº":13652,"è¿Ļå°±è¦ģæ±Ĥ":13653,"æ¸ħæ´ģèĥ½æºĲ":13654,"éĹ½":13655,"åĨĽçļĦ":13656,"åľ¨ä¸ĢäºĽ":13657,"ä¸Ńè¿Ľè¡Į":13658,"éĥ¨åĪĨçļĦ":13659,"å¹½":13660,"ä½Ĩå¯¹":13661,"æ±ŁåįĹ":13662,"æĤĸ":13663,"ä»įæĺ¯":13664,"Ġvaccine":13665,"olec":13666,"Ġproject":13667,"è´¢ç¨İ":13668,"åĪĽéĢłçļĦ":13669,"ä¸»åĬĽ":13670,"æĿĤäº¤":13671,"åģıç¦»":13672,"infected":13673,"å¤ĸéĥ¨çİ¯å¢ĥ":13674,"well":13675,"è¯Ńè¨ĢçļĦ":13676,"åĨľä½ľçī©":13677,"é¢Ŀå¤ĸ":13678,"imens":13679,"Ġcontinuous":13680,"æŃ£è§Ħ":13681,"åº¦éĩı":13682,"ä¸Ģéģĵ":13683,"éĺ»åĬĽ":13684,"æľīæīĢä¸įåĲĮ":13685,"æĪĲæľ¬åĴĮ":13686,"è§Ĥä¼Ĺ":13687,"Ġexposed":13688,"ternal":13689,"åľ¨åĮĹäº¬":13690,"çĽĳä¼ļ":13691,"åĬŀåħ¬åİħ":13692,"ĠAcc":13693,"ĠPBS":13694,"åĩĨç¡®æĬĬæı¡":13695,"èµ°åĩºåİ»":13696,"åĢ¼å¾Ĺæ³¨æĦıçļĦæĺ¯":13697,"åĪ¶åīĤ":13698,"ä¸Ńä¹Ł":13699,"Ġrecorded":13700,"å¤±åİ»äºĨ":13701,"ä¸įå¤ļ":13702,"éŁ§æĢ§":13703,"ç»¼ä¸ĬæīĢè¿°":13704,"å¤įåıĳ":13705,"éĺ´éĺ³":13706,"çļĦæľºåĪ¶":13707,"è¿ĩé«ĺ":13708,"æĪĲåĵģ":13709,"å¹´éĻĲ":13710,"å°ıæĿ¿":13711,"èĤ¡å¸Ĥ":13712,"nt":13713,"åĤ¬çĶŁ":13714,"å¹¿ä¸ľçľģ":13715,"Ġconven":13716,"çļĦæ¨¡å¼ı":13717,"æµĭç®Ĺ":13718,"çĽ¸äºĴä¿ĥè¿Ľ":13719,"èĮĤ":13720,"Ġspecifically":13721,"ä¸¾ä¾ĭ":13722,"ä¸İåĲĪä½ľ":13723,"å°±åľ¨":13724,"æĺ¯åĲ¦åŃĺåľ¨":13725,"æĬĢèĥ½äººæīį":13726,"çļĦç¨ĭåºı":13727,"å¦¨ç¢į":13728,"åĪĽåĬŀ":13729,"è¢«è¿«":13730,"æķ°çĽ®":13731,"éĩįåıł":13732,"å¸Ĥåľºç»ıæµİçļĦ":13733,"All":13734,"125":13735,"going":13736,"åŃ¦åĳĺ":13737,"æ³¨åĨĮåķĨæłĩ":13738,"æķ´ä½ĵæĢ§":13739,"bre":13740,"èĩ³ä¸Ĭ":13741,"èĥİåĦ¿":13742,"ĠæľĪ":13743,"ĠSub":13744,"ä¹¦ç±į":13745,"åĪ©äºİ":13746,"istent":13747,"éĢīä¿®":13748,"çľ¼åħī":13749,"ully":13750,"èį·åħ°":13751,"Ġmes":13752,"Ġbacteria":13753,"è®¾å¤ĩåĴĮ":13754,"çļĦå¤§éĩı":13755,"åħ¨åĬĽ":13756,"åĽ½éĻħä¸Ĭ":13757,"åľ°å¸¦":13758,"ä¹ĭéĹ´åŃĺåľ¨":13759,"åı¯éĿłçļĦ":13760,"ä¼łç»ŁæĸĩåĮĸçļĦ":13761,"åĩºåįĸ":13762,"å»ºè®¾é¡¹çĽ®":13763,"è¡Ģå°ıæĿ¿":13764,"çīµå¤´":13765,"ijms":13766,"èħ¿":13767,"åĽ½éĻħåħ³ç³»":13768,"ä¸įæ¸ħ":13769,"Ġdependent":13770,"ç®Ģåįķåľ°":13771,"åĬŁèĢĹ":13772,"ä¼ģä¸ļç®¡çĲĨ":13773,"æĬĢæľ¯çŃī":13774,"æ±ĩæĢ»":13775,"æ¯ķç«Ł":13776,"ç²¾åĵģ":13777,"å¼Ģéĩĩ":13778,"æĸ½åĬł":13779,"Ġseries":13780,"åĲİä¸ĸ":13781,"é¢ĺæĿĲ":13782,"çº½å¸¦":13783,"åĨįçİ°":13784,"æĸ°åįİç¤¾":13785,"åĴĮä»·åĢ¼":13786,"åīįæıĲä¸ĭ":13787,"ä¸įéļ¾":13788,"åĲĦæľī":13789,"éĢļä¿Ĺ":13790,"ç§ĳçłĶäººåĳĺ":13791,"çļĦä¸ĢèĪ¬":13792,"æķĻèĤ²èµĦæºĲ":13793,"çĶ²çĬ¶èħº":13794,"ĠOf":13795,"ä¹łè¿ĳå¹³æĢ»ä¹¦è®°å¼ºè°ĥ":13796,"ç»ĵæĿŁåĲİ":13797,"çŁ³å¢¨çĥ¯":13798,"osts":13799,"è¶ĬåįĹ":13800,"Ġbelow":13801,"åĩĿèĥ¶":13802,"Ġusually":13803,"å¾ĹçĽĬ":13804,"æĹ¥çļĦ":13805,"EA":13806,"èĵĿåĽ¾":13807,"erved":13808,"è¯¢éĹ®":13809,"ĠWestern":13810,"éĿŀçī©è´¨":13811,"èį£èªī":13812,"ç¨İæ³ķ":13813,"ç»¿èī²éĩĳèŀį":13814,"ä¸Ńåįİäººæ°ĳåħ±åĴĮ":13815,"orn":13816,"å¦Ĥåľ¨":13817,"æĹ©å·²":13818,"çĬ¯ç½ªè¡Įä¸º":13819,"Ġled":13820,"ç°¿":13821,"ç´§å¯Ĩç»ĵåĲĪ":13822,"Ġversion":13823,"åĪ°ä½į":13824,"ä¸¤æĿ¡":13825,"è½°":13826,"åİŁåŀĭ":13827,"åĪĽéĢłåĬĽ":13828,"åı¯ä»¥å¸®åĬ©":13829,"Ġpromote":13830,"CB":13831,"æłĩé¢ĺ":13832,"åģĩå®ļ":13833,"è¡¨çİ°å½¢å¼ı":13834,"åľ¨æ³ķå¾ĭ":13835,"å¯¼å¼¹":13836,"å¦ĤåĲĮ":13837,"ula":13838,"raf":13839,"å¡ĺ":13840,"Ġmagn":13841,"å¤ļæĸ¹":13842,"è´«åĽ°äººåı£":13843,"æľĿçĿĢ":13844,"èĢĮæĿ¥":13845,"æĳĦåħ¥":13846,"åĽ½åĨħçĶŁäº§æĢ»åĢ¼":13847,"ä¼łè¾¾":13848,"IG":13849,"éĻ¤éĿŀ":13850,"è¯´æĺİäºĨ":13851,"äº¤æį¢æľº":13852,"åįģäºĮäºĶ":13853,"met":13854,"ĠHCC":13855,"ç´łæĿĲ":13856,"Ġconver":13857,"Ġpanel":13858,"å®¢è§Ĥä¸Ĭ":13859,"Ġregulatory":13860,"radi":13861,"çīĩéĿ¢":13862,"åĲĳç¤¾ä¼ļ":13863,"åħĦå¼Ł":13864,"æĺ¯æł¹æį®":13865,"Ġcarb":13866,"ä¼ªéĢł":13867,"Ġthick":13868,"åĴĮè¡Įä¸º":13869,"============":13870,"è¦ģéĢļè¿ĩ":13871,"éĩįå¤§éĹ®é¢ĺ":13872,"è¡ĮæĶ¿å¤įè®®":13873,"åī¯ä¸»ä»»":13874,"å¦Ĥæľī":13875,"è¯¥æĸ¹æ³ķ":13876,"æĮĩæłĩä½ĵç³»":13877,"ä¸ŃåĽ½ç¤¾ä¼ļ":13878,"PN":13879,"çļĦåĲ«ä¹ī":13880,"æĺ¾ç¤ºäºĨ":13881,"Ġextracellular":13882,"æĢ§çŃī":13883,"åĿıæŃ»":13884,"ĠPA":13885,"place":13886,"Ġmonitoring":13887,"åĬłä¹ĭ":13888,"å®Įç¾İ":13889,"Ġinhibited":13890,"è¿ĪåĲĳ":13891,"Ġneutroph":13892,"ä¸Ńå¤®æĶ¿åºľ":13893,"æŁ¥éĺħ":13894,"No":13895,"æīĢåľ¨åľ°":13896,"äººä¸İèĩªçĦ¶åĴĮè°Ĳ":13897,"æĸĩäºº":13898,"Ġ----":13899,"åı¬å¼ĢçļĦ":13900,"mitte":13901,"çļĦç»Ĩèĥŀ":13902,"çĶŁæ®ĸ":13903,"èĦĵ":13904,"è¿Ļä¸ĢæĹ¶æľŁ":13905,"æİ¨æĸŃ":13906,"ç®¡çĲĨå·¥ä½ľ":13907,"Ġpor":13908,"Ġtrigg":13909,"ori":13910,"æ¶īå¤ĸ":13911,"VM":13912,"çĲĨè®ºåŁºç¡Ģ":13913,"ä¸Ńåı¶":13914,"Ġhal":13915,"éĩĩçº³":13916,"éļ§":13917,"äº«æľīçļĦ":13918,"æ³ķçŃī":13919,"ç¾¤ä¼ĹçļĦ":13920,"æ°ĳäºĭè´£ä»»":13921,"çļĦæĬķèµĦ":13922,"æīĢä½ľ":13923,"Ġquantitative":13924,"å»ĵ":13925,"è¿Ļä¸ĢéĹ®é¢ĺ":13926,"Ġrare":13927,"æĪĲéĥ½":13928,"åı²è§Ĥ":13929,"åĿĳ":13930,"å¿ħçĶ±":13931,"ç»ĵæŀĦè°ĥæķ´":13932,"Ġspinal":13933,"åĮĸåŃ¦åıįåºĶ":13934,"å¹³æĹ¶":13935,"ç»ıæµİåĴĮ":13936,"æī¿ç§Łäºº":13937,"ges":13938,"åħ´å¥ĭ":13939,"Ġperson":13940,"æĬµå¾¡":13941,"ä¼ļå½±åĵį":13942,"æĮº":13943,"æĦŁåºĶ":13944,"Ġstructural":13945,"åĬłå¼ºåĴĮ":13946,"åľ¨æŁĲäºĽ":13947,"ä¸ºæĪĳä»¬":13948,"emb":13949,"ç¨¿ä»¶":13950,"Ġoxidative":13951,"å¿Ļ":13952,"åĬĿ":13953,"Ġ36":13954,"ä»İæĿ¥":13955,"ĠNO":13956,"gin":13957,"æłĩæ³¨":13958,"é»ĺè®¤":13959,"éľĢè¦ģå¯¹":13960,"å½ĵä»Ĭä¸ĸçķĮ":13961,"âĢĿ(":13962,"1991":13963,"åİĺç±³":13964,"è¯¾åłĤä¸Ĭ":13965,"æľīè®¸å¤ļ":13966,"åıĳå±ķæĸ°":13967,"ĠPI":13968,"Ġaccount":13969,"åħ¨è¦ĨçĽĸ":13970,"èĳĽ":13971,"å²³":13972,"æĪĳè®¤ä¸º":13973,"Ġprognosis":13974,"è¿Ļåľº":13975,"dle":13976,"Ġturn":13977,"åĿĩåı¯":13978,"åģ¶çĦ¶":13979,"éĩĳå±±":13980,"çĽ¸ä½į":13981,"Ġillness":13982,"atial":13983,"å»īæ´ģ":13984,"Ġfibrosis":13985,"åĵ²åŃ¦ç¤¾ä¼ļç§ĳåŃ¦":13986,"Ġclassification":13987,"æīŃæĽ²":13988,"140":13989,"ç¬¬ä¸īæ¬¡":13990,"é©¬åħĭæĢĿåĪĹå®ģ":13991,"ä¸ĵéĹ¨çļĦ":13992,"èĶĵå»¶":13993,"son":13994,"çĽ¸å¯¹åºĶ":13995,"åĿļæĮģåĴĮå®ĮåĸĦ":13996,"çļĦéĿ©åĳ½":13997,"è½¬åŁºåĽł":13998,"è´£ä»»åĪ¶":13999,"è¡Ģæłĵ":14000,"Ġreason":14001,"oprotein":14002,"æľºåľº":14003,"æĶ¶åĽŀ":14004,"FT":14005,"è§Ĩç½ĳèĨľ":14006,"ct":14007,"å»ºç«ĭä¸Ģä¸ª":14008,"ç¯®":14009,"çŃ¹åĪĴ":14010,"è´¦æ¬¾":14011,"Ġcommonly":14012,"çĦķ":14013,"ditionally":14014,"ç»³":14015,"åĪĨæŀĲçļĦ":14016,"åı¯è¡ĮçļĦ":14017,"æĮ½":14018,"æĸ°åĨłèĤºçĤİçĸ«æĥħ":14019,"ä½İæĪĲæľ¬":14020,"äº§åĵģåĴĮ":14021,"åŃ¦æĬ¥":14022,"åı¯è°ĵ":14023,"çĶŁæ´»ä¸ŃçļĦ":14024,"ç»ıæµİç¤¾ä¼ļåıĳå±ķçļĦ":14025,"èĳ¡èĲĦç³ĸ":14026,"åĽ½å®¶å¯¹":14027,"æĥ¨":14028,"ä¹¦çļĦ":14029,"ä¸įè¶³ä»¥":14030,"åĽ½éĻħç»ıæµİ":14031,"ediatric":14032,"Ġ29":14033,"ä¸Ĭå¸Ŀ":14034,"å¹´æĪĳåĽ½":14035,"åĲĳäººæ°ĳæ³ķéĻ¢":14036,"éĩĳèŀįä¸ļ":14037,"è¯¾ç¨ĭæĶ¹éĿ©":14038,"åĽ¾ä¸Ń":14039,"åľ¨åŃ¦ä¹ł":14040,"ecause":14041,"åĩī":14042,"yb":14043,"åıĺçļĦ":14044,"åĲįåŃĹ":14045,"åŃķèĤ²":14046,"ç«ĭè¶³äºİ":14047,"ĠéĢļè¿ĩ":14048,"æ·±å±Ĥ":14049,"ä½İä¸ĭ":14050,"ä¸»è¦ģåĨħå®¹":14051,"è¿Īè¿Ľ":14052,"å°±ä¸įèĥ½":14053,"åĲĦåĽ½çļĦ":14054,"å³°åĢ¼":14055,"åĲĦä¸ªæĸ¹éĿ¢":14056,"çªĿ":14057,"Ġpolymorph":14058,"è½¬æį¢ä¸º":14059,"æĹ¥èĩ³":14060,"ä¸ºä¸Ńå¿ĥçļĦ":14061,"å¹´åľ¨":14062,"ä¸İæĸ¹æ³ķ":14063,"å®¡æħİ":14064,"PH":14065,"éĢļå¸¸æĺ¯":14066,"Ġlinked":14067,"åħ¨ç¨ĭ":14068,"éĻ¢æīĢ":14069,"Ġacqui":14070,"è¿ĻéĩĮçļĦ":14071,"abor":14072,"tensive":14073,"å¤ĸç§ĳ":14074,"Data":14075,"åıĳç¥¨":14076,"æŃ»äº¡çİĩ":14077,"è¯Ńè¨ĢæĸĩåŃĹ":14078,"åħ¶ä¸ŃåĮħæĭ¬":14079,"Ġaccumulation":14080,"æ¸ł":14081,"Ġsubset":14082,"ãĢģãĢĬ":14083,"åį¿":14084,"ç¾½":14085,"Ġnutri":14086,"}_{":14087,"ĠMR":14088,"æĬķæĶ¾":14089,"çļĦæĹł":14090,"åĮĹå®ĭ":14091,"ä½Ĩæĺ¯åľ¨":14092,"å¦Ĭ":14093,"Ġalterations":14094,"Ġsi":14095,"éĵ¶è¡ĮçļĦ":14096,"Ġfrequently":14097,"Ġadvanced":14098,"vision":14099,"åķĨäºº":14100,"åŁºç¡Ģä¸ĬçļĦ":14101,"ä¸ľçĽŁ":14102,"æĥħåĨµçļĦ":14103,"æĮĩå¯¼æĦıè§ģ":14104,"èĢģé¾ĦåĮĸ":14105,"åŃĺè´§":14106,"Pa":14107,"è¯¸ä¾¯":14108,"Ã©":14109,"èĢģäºº":14110,"çŃīå·¥ä½ľ":14111,"ç»ŁçŃ¹æİ¨è¿Ľ":14112,"ä¸ĭåĪĹæĥħå½¢":14113,"å¼ºè¿«":14114,"ä»¥æľŁ":14115,"åĲ¸å¼ķåĬĽ":14116,"åħļçļĦåįģä¹Ŀå±Ĭ":14117,"åľ°ä¸ĭæ°´":14118,"çļĦèĩªçĶ±":14119,"Ġtherapies":14120,"ĠInter":14121,"Ġtemporal":14122,"ï¼ĺ":14123,"éĴĽ":14124,"Ġglut":14125,"åºĶæł¹æį®":14126,"éĻ¤æŃ¤ä¹ĭå¤ĸ":14127,"åħ¨éĿ¢è´¯å½»":14128,"Ġplatelet":14129,"UN":14130,"Ġdig":14131,"åıĪèĥ½":14132,"ä¼Ĭæĸ¯":14133,"Ġæľī":14134,"äº¤èŀį":14135,"ä¸Ĭå¹´":14136,"è¾ĥéķ¿":14137,"Ġvector":14138,"Ġhighest":14139,"Ġprognostic":14140,"æµ·éĩı":14141,"å¹³æĸ¹ç±³":14142,"æľŁéĻĲåĨħ":14143,"åĩĨç¡®çļĦ":14144,"çļĦè½¬åıĺ":14145,"Ġbuffer":14146,"åħ¥åŃ¦":14147,"åĲĮæĹ¶ä¹Łæĺ¯":14148,"åĴĮçĶŁäº§":14149,"åħīçļĦ":14150,"ift":14151,"æł½åŁ¹":14152,"åĴĮåŁºæľ¬":14153,"çļĦå¢ŀéķ¿":14154,"ç©´":14155,"ĠCons":14156,"è¿ĲèĲ¥åķĨ":14157,"åĽ¾çļĦ":14158,"çī¹æ®ĬæĢ§":14159,"ert":14160,"çĽĹçªĥ":14161,"Ġlinear":14162,"éĥ½æ²¡æľī":14163,"é©³åĽŀ":14164,"åĲįçļĦ":14165,"åŁİä¹¡å±ħæ°ĳ":14166,"åĲĦèĩªçļĦ":14167,"è½¬åıĳ":14168,"èĢĮåĲİ":14169,"çĽ¸è¾ĥ":14170,"çĤ¹åĴĮ":14171,"Ć,":14172,"ä½Ĩåį´":14173,"akes":14174,"é©¬åħĭæĢĿä¸»ä¹īåĵ²åŃ¦":14175,"å¤§å¤«":14176,"åįĹæµ·":14177,"ä¸įåĬ¨æĳĩ":14178,"Ġmeta":14179,"å¼Ģè¾ŁäºĨ":14180,"Ġdelay":14181,"rest":14182,"å½±åĵįçĿĢ":14183,"Ġbroad":14184,"åĽĽä¸Ńåħ¨ä¼ļ":14185,"é¸¦":14186,"èĥ½æºĲæ¶Īè´¹":14187,"æľĿå»·":14188,"äººæ°ĳå½ĵå®¶ä½ľä¸»":14189,"åħ¨å¹´":14190,"Ġamino":14191,"dis":14192,"åĮºåĴĮ":14193,"éĿŀå¸¸éĩįè¦ģ":14194,"åŁºçĿ£æķĻ":14195,"BB":14196,"no":14197,"åĦ¿ç«¥çļĦ":14198,"ĠClinical":14199,"åħļçļĦæĶ¿æ²»":14200,"Ġcortical":14201,
[...]
